<s>
<pad>
</s>
<unk>
ที่
ของ
การ
และ
ใน
n
ได้
ไม่
จะ
\
.
มี
:
เพิ่ม
%
สามารถ
1
ดาว
ใช้
เป็น
ให้
+
Lv
เปิด
ได้รับ
2
อย่าง
คุณ
กับ
-
พลัง
แล้ว
3
แบบ
ขั้น
*
แฟชั่น
ATK
จาก
ไป
ก็
เมื่อ
·
ใช้งาน
อาวุธ
ใส่
HP
นี้
หนึ่ง
5
หลัง
ด้วย
LV
10
หรือ
เลือก
ทำให้
ความ
4
รองเท้า
เพื่อ
ป้องกัน
สูง
ระดับ
สำหรับ
สบาย
ดี
ว่า
ทำ
เวลา
ออกแบบ
ฉัน
หิน
อยู่
โจมตี
(
ๆ
ถึง
ธาตุ
เม
)
ดา
มา
ลด
สี
เกราะ
เทพ
คุณภาพ
อุปกรณ์
กัน
ผู้
เสริม
ยัง
6
จ
มือ
ชุด
ต้อง
ตัว
มาก
รับ
#
คน
สูงสุด
c
กระเป๋า
วัสดุ
：
【
โดย
สร้าง
DEF
รอบ
ทั้งหมด
<
DMG
ตาม
ต่อเนื่อง
หน้า
】
ชั้น
ผิว
ใหม่
รบ
ปีศาจ
เป้าหมาย
ดู
8
โปรด
7
ฝ่าย
ข้อมูล
ต่อ
คู่
ถูก
ชิ้น
โบนัส
กิจกรรม
ง่าย
、
ขึ้น
สไตล์
สินค้า
20
เล่น
คือ
>
ฝัง
เท้า
คุณสมบัติ
เข้าไป
ซึ่ง
มัน
ครั้ง
ซื้อ
เรา
อัญมณี
ศัตรู
เซียน
ตัวละคร
ผ้า
หลังจาก
ออก
ฟ้า
ปีก
เสื้อ
อัตรา
น้ำ
รางวัล
จำกัด
9
น
หีบ
30
ภาพ
เวท
สุ่ม
ระบายอากาศ
แต่
คริสตัล
วัน
ต่อสู้
ผ่าน
สอง
จำนวน
!
เลย
วินาที
เอฟเฟกต์
15
หนัง
สกิล
แหวน
ค่า
ต้าน
ช่วย
สถานะ
ทุก
ยิ่ง
แดง
บน
นะ
คะแนน
/
ผู้หญิง
แสดง
เวล
มาร
ท่าน
มีโอกาส
ตน
แห่ง
นั้น
ส้ม
ไว้
อัพ
หาก
สัตว์
ไฟ
0
ไอเทม
ถาวร
ขนาด
พิเศษ
สาม
สวมใส่
พื้น
เปลี่ยน
แต้ม
เซ็ต
ทั่วไป
ที่จะ
BOSS
ส่ง
！
อีก
รู
วิเศษ
สาย
"
ใหญ่
รุ่น
พื้นฐาน
รวม
เสื้อผ้า
กว่า
เครื่อง
แสง
ก่อน
ทน
22
เพิ่มขึ้น
ทาง
100
อป
เกิด
เอง
ดร
มากขึ้น
50
EXP
ยาว
เขา
ปี
เส้น
ส่วน
อัน
ส่วนประกอบ
（
มุก
เก็บ
ข้า
ปรับ
วัด
ทั้ง
）
,
เรื่อง
รูปลักษณ์
วิ
ขา
ชิ้นส่วน
ทะลุ
ยา
เธอ
นาย
รับรางวัล
หลัก
รายละเอียด
ที่สุด
ลาย
ทอง
หมวก
ถ้า
ห่อ
ภายใน
：\
เล
ต้องการ
ลง
กรุณา
เนื้อผ้า
แค่
เดี่ยว
nHP
ผม
เอ
เดียว
ด้าน
หลาย
อะไร
ระบบ
สมบัติ
รูป
หอ
เท่านั้น
เล็ก
ไซส์
ร่างกาย
หรือไม่
ดังนี้
พวก
ฮีโร่
ผลิตภัณฑ์
ธรรมชาติ
%\
อาจ
กางเกง
มือรอง
แยก
อันดับ
ลม
ลูกค้า
ดัน
ยูนิต
ทรง
สเตตัส
วจะ
เมือง
ม่วง
หา
รูปแบบ
จริง
ชื่อ
ต้านทาน
ขณะเดียวกัน
รายการ
เงิน
วิญญาณ
ใบ
12
แล้
เหมือน
ผู้ชาย
ร้านค้า
สร้อยคอ
แรง
นัก
กำหนด
เรียบง่าย
กำลัง
เข้า
ตัวเอง
เลือด
เอว
ดิน
ฟื้นฟู
เค
เจ้า
|
ที่อยู่
ด่าน
ประเภท
ชีวิต
นางฟ้า
24
นาน
ผล
เดิน
สัมผัส
ลื่น
รักษา
+\
กิลด์
ทันที
ส
เสียง
กลาง
แนะนำ
แผน
หัว
เสน่ห์
สะดวก
เต็ม
ได้ที่
แตก
เริ่ม
ดีเลิศ
สำเร็จ
สวย
ผอม
อื่น
ริ
รวบรวม
วันที่
ใช่
อัปเกรด
รู้สึก
เข้าสู่
สุด
ด้วยมือ
ติด
พื้นที่
:\
โลก
1000
เผ่า
เบา
ตกแต่ง
คอ
นี่
ดาบ
ลฟ์
แก่น
41
ต่างกัน
ป่า
26
แผ่น
ตำลึง
40
ประณีต
มังกร
ความยืดหยุ่น
เหรอ
แขน
กลายร่าง
บันทึก
เพียง
เฉพาะ
ตรวจสอบ
ละเอียด
P
ราย
เนื่องจาก
วัว
วิธีการ
สวยงาม
สะสม
สีส้ม
ถุงมือ
วส
ขาว
%，
ทีม
ไหล่
นำ
60
เห็น
ขี่
จุด
สุขภาพ
์
นักรบ
เครื่องประดับ
เพชร
มอนสเตอร์
M
เจี้ยน
CRIT
สะดวกสบาย
จิต
สังหาร
งาน
11
ราคา
ระหว่าง
ผูก
อยาก
เกิน
คำ
ไร้
จึง
ยาก
เขียว
เย็บ
รอง
s
ทุกครั้งที่
สง่างาม
ดำ
ช่วง
มนุษย์
เป็นเวลา
ควร
น้อย
สิ่งประดิษฐ์
สปีด
แท้
ปล่อย
13
มิติ
เทคโนโลยี
สิ่ง
แดน
ช่อง
พอ
ล้าง
อัญเชิญ
ใช้ได้
ปกติ
ฤดูร้อน
ตั้งค่า
เร็ว
ความรู้สึก
มีประสิทธิภาพ
ผ้าฝ้าย
จัดการ
ต่างๆ
ตรง
ทดสอบ
นุ่ม
สำคัญ
14
อย่า
ข้าง
มืด
ลำลอง
นำเข้า
รวดเร็ว
?
อาชีพ
เพิ่มเติม
การ์ด
แก่
มากกว่า
พร้อม
เขต
แห้ง
เติม
โดน
เหมาะสม
;
ผสาน
ข้อผิดพลาด
นาที
กันน้ำ
แต่ละ
ตา
สัญญา
อุณหภูมิ
เหงื่อ
เตือน
ไหม
กลับ
ต่ำกว่า
$
เริ่มต้น
เดียวกัน
ควบคุม
เอา
ใด
ไม่ต้อง
บ้าน
ขน
รู้
เข้าร่วม
น้ำหนัก
คิด
หนา
สีแดง
200
ล
ขอ
ได้ดี
สุดยอด
เรียบ
สิทธิ์
ขั้นสูง
นุ่มนวล
ตำแหน่ง
ตอนนี้
ตาย
ยืนยัน
คืน
ตัด
วิธี
กว้าง
ครบ
เนื้อ
กระชับ
รองรับ
ผลิต
800
ดูด
สวรรค์
ไฟฟ้า
ไขมัน
รอ
ยันต์
รอย
แก้ไข
เซิร์ฟ
ปลดล็อก
แจ้ง
ฉายา
ชัดเจน
ราชา
เส้นทาง
ประเทศ
เคย
=
การ@@
รูปร่าง
500
เพราะ
ชิป
หมด
ทนทาน
ถูกต้อง
แบรนด์
ลดลง
ปลอดภัย
ตั้ง
แม่นยำ
ดึง
ดูแล
ที่นี่
ดังกล่าว
เกี่ยวข้อง
ห้า
สั้น
รถ
300
43
วง
ซัก
สั่งซื้อ
อร
พวกเขา
...
ลบ
คอลเลคชั่น
กำจัด
ตนเอง
ขาย
ตรา
แพ็ก
สิ่งแวดล้อม
เพื่อน
น้ำแข็ง
ชาร์จ
400
จีน
กลัว
เงา
พวกเรา
เด็ก
วันนี้
ยอดเยี่ยม
กด
คลาสสิก
อ่อนนุ่ม
อีกครั้ง
เท่ากับ
ปัจจุบัน
ใคร
งั้น
ปิด
กลายเป็น
ล่า
อัพเกรด
ชั่วโมง
แข็งแกร่ง
ทุกคน
ลิ
อากาศ
แข็งแรง
18
ต่อไป
ฟังก์ชั่น
เป็นมิตร
เรียก
ชำระเงิน
ยิ่งขึ้น
ยอด
มาตรฐาน
ทะเล
จำนวนมาก
พบ
บริการ
สี่
ทิศ
ข้าม
ดำเนินการ
CRI
โล่
จำเป็น
หัวใจ
ครั้งนี้
ยาง
บัญชี
ครับ
ภูต
พูด
สิ
เดือน
เท่า
เด
อัป
แรก
ประสบการณ์
ไหน
เย็น
ร่าง
ปัญหา
งานฝีมือ
ก็ได้
25
ซิป
สร้อย
ชอบ
ค
สีม่วง
เข็มขัด
ความร้อน
ข้อ
รส
ของขวัญ
--
16
ฟังก์ชัน
กรอบ
นาฬิกา
เชื่อมต่อ
สู้
สหาย
กองทัพ
มากมาย
ความ@@
กีฬา
ทำความสะอาด
CD
◆
ปรับปรุง
ออกมา
แบบนี้
ต่าง
เช่น
โชคดี
มาจาก
ทุกวัน
มีผล
รับรอง
ลินิน
โดยตรง
แลก
กายภาพ
ชนิด
เกาหลี
อ่อน
คำสั่ง
โลหะ
เท
กิน
ทิพย์
ซม.
ต่ำ
คง
จับ
หนังสือ
ธุรกิจ
อิสระ
นวด
ลึก
โปรไฟล์
ความสูง
แถว
โหมด
ทูต
ถุง
จริงๆ
เรียบร้อย
，
หน้าอก
ฉบับ
กรอก
การใช้งาน
สาร
ปุ่ม
เรียน
สมบูรณ์แบบ
เดิม
31
ลับ
ไหล
ลอง
กลุ่ม
กลิ่น
มือถือ
ปกป้อง
แบตเตอรี่
รวมถึง
ผลึก
เกี่ยวกับ
ตอน
VIP
แบคทีเรีย
เดินทาง
สมาชิก
ศึก
โอกาส
ง
ตก
ข้อความ
บท
กระตุ้น
เนื้อหา
ระดับสูง
รัด
ปริมาณ
ร์
จน
วาง
หยวน
ผู้บัญชาการ
ใต้
ลักษณะ
ถอด
เพื่อให้
หมายเลข
หญิง
ยังไง
ความปลอดภัย
600
ขึ้นไป
กล่อง
กา
ธนู
เรียนรู้
การต่อสู้
บลูทูธ
ทำไม
ธรรมดา
ภารกิจ
00
เกม
น้ำเงิน
ระบาย
ขณะนี้
สิบ
พลังงาน
สะท้อน
บล็อก
จัด
ดีไซน์
เถอะ
ปลุกใจ
ญี่ปุ่น
ชมพู
องค์ประกอบ
กระบวนการ
ชาย
ค่าย
ลูก
ออกจาก
ร้าน
บาง
อสูร
สาว
ความชื้น
เหมาะกับ
เสร็จ
บริสุทธิ์
ตาราง
ที่สอง
เอาชนะ
ดินแดน
ฟัน
ร่าย
ดอกไม้
ห้อง
ฟัง
ภายนอก
ทำงาน
“
สดใส
ไม้
อ่าน
รัก
ล็อค
เหลือง
หยุด
พัฒนา
ต่อไปนี้
ยืด
หุ่น
ผู้ใช้
ต้น
ตี
เพลิดเพลิน
โดยอัตโนมัติ
มุม
เหลือ
คุณภาพดี
รีบ
ขั้นตอน
ยืดหยุ่น
ความมืด
ม
ยับยั้ง
เจอ
หาย
ขนาดใหญ่
ของจริง
ประมาณ
ค่ะ
เลื่อนขั้น
~
ประดับ
ติดตั้ง
บอก
ยินดี
ดังต่อไปนี้
1.5
ญาณ
พอดี
ด้านล่าง
สมบูรณ์
โบราณ
80
น่า
เป็นหลัก
ส้น
เสีย
หล่อ
เป็นต้น
ใช้จ่าย
แถม
สู่
เปรียบเทียบ
ค้นหา
เหล็ก
พับ
หรูหรา
อ้างอิง
ฆ่า
ล้มเหลว
อัศจรรย์
ใจ
สถานการณ์
MAX
สนับสนุน
ห้าม
สดชื่น
ดวล
จบ
กระจาย
เนียน
ครีม
หลีกเลี่ยง
CM
ระยะเวลา
ยก
นอน
ทลาย
อาการ
หัก
บริษัท
เกินไป
ท้า
กระโปรง
ติดต่อ
ฮาร์ดแวร์
เข้าคู่
สงคราม
อีเมล
นั่น
อัตโนมัติ
ขอบ
ตาข่าย
เยอะ
คลิก
ความจุ
150
เล็กน้อย
ประตู
ทา
เสร็จสิ้น
90
item
เส้นโค้ง
อำพัน
ลุค
อาจจะ
ความสามารถ
A
หมายเหตุ
ไล่ล่า
เอกสาร
S
สะอาด
ยุง
ล่าง
ซี
เข้าใจ
พื้นผิว
ฝีมือ
การทำงาน
ละ
ก
โครงสร้าง
d
ผ้าไหม
”
ป้อน
การผลิต
ดวงดาว
ทำลาย
ต่ำสุด
สังกัด
โชว์
เจ็ด
ล่ะ
อื่นๆ
21
คู่หู
องศา
อาหาร
สะพาย
ถึงขั้น
เข้าสู่ระบบ
รายงาน
หยาบ
ผิวหนัง
รูปทรง
ฟรี
ทำการ
สวม
2018
เหล่านี้
โทรศัพท์
เคลื่อนที่
มิ
เนื้อหนัง
ออนไลน์
บำรุง
สภาพ
น้ำมัน
°
NT
เมฆ
360
คุ
เบอร์
350
รับได้
กองทหาร
ฟิต
17
ศักดิ์สิทธิ์
ขยาย
แน่น
ด้านหลัง
สังเคราะห์
cm
มืออาชีพ
ต
เหมือนกัน
2021
ตลอด
ด
หมุน
หู
บูท
ดังนั้น
หูฟัง
ดารา
สะโพก
ออกกำลังกาย
ละเอียดอ่อน
ร้อย
ด้านหน้า
ปาก
ยกเลิก
ขอบเขต
ครั้งแรก
1400
ผู้ค้า
28
เพียงพอ
สม่ำเสมอ
C
ร่วม
พิมพ์
2020
กลับมา
อารักขา
มอง
×
กำไล
กล้ามเนื้อ
แต่งหน้า
คัดเลือก
ง่ายดาย
45
ภายใต้
ติ
ปลุก
เป็นการ
คู่สัญญา
ผ่อนคลาย
จัดส่ง
เกรด
แต่ง
มอบ
น.
แน่ใจ
สนาม
19
url
พกพา
การแสดง
อารมณ์
สกิล:
การออกกำลังกาย
เส้นใย
เหมาะสำหรับ
เทคนิค
สัก
ทองคำ
ซาก
หิมะ
กระจก
T
ตอบ
บวก
？
คา
ซับใน
หน้าจอ
เสื้อยืด
เพลง
x
ระบุ
เต
เข้ากับ
ร้อน
วิ่ง
ญ
ปลาย
น้อยกว่า
35
ม้วน
เป้
หมาป่า
V
ถือ
ฝ้าย
หยก
พัน
แบ่ง
ปรากฏ
หก
ไฟเบอร์
เข็ม
120
สกัด
ขาด
ขีดจำกัด
อ่อนโยน
ตำนาน
โทรศัพท์มือถือ
รีเฟรช
ด้านใน
[
ร
ดีมาก
ฤดูใบไม้ผลิ
ห้อย
2000
อี
สัดส่วน
ดอก
การป้องกัน
ท
ชนะ
ตลาด
กระดาษ
ตัวอย่าง
แปด
แท้จริง
หรอก
เลื่อน
เม็ด
กระดูก
รา
บรรเทา
ซา
ร้าง
กล้า
แฝง
ปรมาจารย์
การสึกหรอ
แม่เหล็ก
ฯลฯ
เน้น
180
วิหาร
ความเร็ว
ชั้นแรก
ร้าย
พิษ
โพ
การย้อมสี
หน่วย
เกิดขึ้น
นา
รายวัน
อายุ
การรักษา
ริ้วรอย
บด
ทอ
ใส
ขณะ
รุ่นใหม่
รหัสผ่าน
แรงดัน
โชค
สีสัน
วัง
หน่อย
ขวา
ฝุ่น
ตามใจ
อ
ประกอบ
เชื้อ
หลุด
โค้ง
บล็อค
nCRI
ค่อย
จสกิล
ถ่าย
ยังมี
ผสม
ทบ
ความต้องการ
ขจัด
คุ้มครอง
สถานที่
การควบคุม
โครงการ
กลางคืน
กระเป๋าสะพาย
ขนนก
ผลกระทบ
มอน
ติดตาม
คนอื่น
จำเป็นต้อง
ซ้ำ
เงื่อนไข
กระบี่
จอม
หนัก
อ้วน
แบน
ซ้าย
I
ส่วนบุคคล
ขนาดเล็ก
ดั้งเดิม
หายใจ
k
ดูดซับ
มอลล์
70
บัตร
รูปภาพ
ผู้คน
ประจำวัน
ปลด
โรค
48
หลากหลาย
มั่นคง
ตั้งแต่
ดีกว่า
แต่ว่า
แม่
ส่วนลด
จับคู่
มีด
1000000
วิดีโอ
ข้อกำหนด
D
สิ้นสุด
เติบโต
ตรงกัน
42
ยีนส์
เสื้อเชิ้ต
บ้าง
นับ
รังสี
MU
มีเสน่ห์
รับผิดชอบ
เต็มที่
ถนน
บอ
เซลล์
ท้าทาย
เหรียญทอง
เซิร์ฟเวอร์
ซิ
ทันสมัย
คอม
สอดคล้อง
ใบหน้า
เต็มไปด้วย
ทั้งตัว
ระยะ
กาย
หงส์
ออ
นั่ง
เครื่องหมาย
ได้ยิน
น่ารัก
ลี
หัวเข็มขัด
ท้อง
รสนิยม
เพลิง
พยายาม
ที
ต้นไม้
ลงทะเบียน
เก
ถัก
กลม
47
การเปลี่ยนแปลง
แล้วก็
ช่วงเวลา
มีความรู้สึก
1500
เซ
ประกอบด้วย
นอนหลับ
แกะ
ระเบิด
ท์
เปอร์เซ็นต์
ลืม
เก้า
ดำเนินงาน
ผนึก
ยืน
สด
เพียงแค่
K
สูตร
ว
สุดท้าย
จากนั้น
ทะลวง
ง่ายๆ
ส่งมอบ
S@@
สำรวจ
ล@@
รี
ซ่อน
】\
<>
ข้อตกลง
ลึกลับ
อันตราย
ทั้งสอง
ขอบคุณ
แผดเผา
ลำโพง
ดีขึ้น
ขอให้
ข้างใน
ชม
1200
ใช่ไหม
ค่อนข้าง
ชั้นยอด
ผู้พิทักษ์
วา
แกน
อา
เร
หัวหน้า
กระดุม
ก@@
เชือก
คลื่น
สายฟ้า
กรอง
3000
รุ
ไหลเวียน
ล้าน
ย
นิ้ว
รหัส
C@@
75
เซ็กซี่
แน่นอน
ปก
ฐาน
เทรนด์
ปฏิเสธ
%+
รุนแรง
กังวล
เทียบ
B
จันทรา
มองเห็น
จู่โจม
ปราณ
；
ที่เกิด
ข้างนอก
ตัดเย็บ
มีความสุข
ถัดไป
ให้การ
เอกลักษณ์
มลพิษ
ด้านบน
สัปดาห์
ดีเยี่ยม
สมาร์ท
ขัด
ยอมรับ
รองเท้าหนัง
2.5
หลวม
450
ความดัน
เมตร
เข้ามา
กลางแจ้ง
เจาะ
หลังจากที่
อุตสาหกรรม
นิล
ไอ
ดวงจิต
โดดเด่น
ทหาร
ยักษ์
สมาคม
ได
ยุโรป
ความรัก
ส่วนใหญ่
บิน
แพลตฟอร์ม
แถบ
สตัน
สภาพแวดล้อม
ใช้การ
เล็บ
ตัดสิน
จ่าย
เข้าชุด
พร้อมกับ
กระแสไฟฟ้า
มุ
ตัวอักษร
ใกล้
เหตุผล
รูขุมขน
ชา
ลวดลาย
น@@
อบ
23
ย้อนยุค
ด้วยกัน
โปร
สิว
หน้าท้อง
boss
ฉาก
ครอบครัว
แก้ว
ส่วนตัว
คำอธิบาย
PVP
ลักษณ์
ยึด
หนาแน่น
สิทธิ
วิเคราะห์
แน่
หลา
หมายถึง
เปลี่ยนเป็น
ถือว่า
สึกหรอ
นิ
เป็นเรื่อง
ปัก
แปลง
ผู้@@
ผี
สีชมพู
ก้าว
อยู่แล้ว
2400
แข็ง
ทุกที่
เชื่อม
ดำเนิน
อัปโหลด
มึนงง
แทน
เล่ม
ไม่เพียงแต่
อนุญาต
ใดๆ
เจ้าของ
นอก
250
ม@@
โปร่งใส
_
II
ส่วนเกิน
เหรียญ
กาว
หมื่น
ห
พ่อ
แปล
ราบรื่น
ฝึก
เบาะ
จี้
ชิง
แพ้
ความถี่
เทศกาล
ทางการ
ยู
บังคับ
ทิ้ง
ยี่ห้อ
โดยเฉพาะ
เทียน
หน้าที่
พา
คุ้ม
ทำให้เกิด
ด@@
ทำได้
อัจฉริยะ
โครง
ดูดซึม
&
ทรัพยากร
ขั้นต้น
หลอม
ฤดูใบไม้ร่วง
แอคทีฟ
เชื่อ
โอ
เสมอ
คำแนะนำ
2017
หมู่บ้าน
ฤดูกาล
ชน
ส่งเสริม
นักเรียน
แขวน
ล้วน
ช
ดัง
โปรโมชั่น
ชั่วคราว
แอ
แกร่ง
ชั่น
ตอนที่
ไกล
คาร์
ศิลปะ
การอนุมัติ
Flee
ชีฟอง
กระดูกสันหลัง
คล้อง
พร
เสียบ
ชาว
ใส่ใจ
อีแปะ
สำนัก
เว็บไซต์
ความงาม
มองข้าม
เทพเจ้า
เข้มงวด
สิ่งของ
ข้อมือ
ผู้นำ
เผา
มายา
ต่างหู
ป
ลา
บ
ตั้งใจ
หมอก
ตลอดเวลา
คืนชีพ
พืช
วิชา
เป็นพิเศษ
ฤดูหนาว
ผู้ขาย
สายสะพาย
มัลติ
ล็อก
ตกลง
ขีด
ความสวยงาม
โค
เหล่า
ทั้งสองฝ่าย
สว่าง
ไทย
กลวง
กล้อง
ใกล้ชิด
>+
เทพธิดา
ทั่วโลก
ดวงตา
แพ็กเกจ
ระวัง
ป้าย
กางเกงใน
รองเท้าแตะ
อเมริกา
ป@@
ครอบคลุม
รีเซ็ต
ล้ำค่า
แนวโน้ม
สูญเสีย
นพเก้า
ชีวิตประจำวัน
เห
ประหยัด
ล่าสุด
๑
แจก
ลาวา
คงที่
มูลค่า
หมวดหมู่
ชำระ
B@@
แก
ร@@
การจัดส่ง
ทุกเวลา
น่ะ
สองเท่า
ถาม
โทร
ส@@
ต่อต้าน
อย่างไร
แปลก
36
แถวหน้า
เอียง
ทั่ว
ความชุ่มชื้น
สนองความต้องการ
อีกด้วย
……
ความแตกต่าง
เป็นที่
คลัง
บัฟ
ฝน
ซะ
หลบหลีก
32
0.5
ยาน
ผู้ซื้อ
อั่งเปา
บ@@
56
คัน
ว่างเปล่า
เหนือ
ท@@
สนามรบ
ผลงาน
ประสิทธิภาพ
ข้างหน้า
ภาษา
เลนส์
ราตรี
รู้จัก
คอมพิวเตอร์
ออกเดินทาง
ไง
สัญญาณ
ซ่อมแซม
ศูนย์
ยังคง
10000
จักรวรรดิ
คุณแม่
ดาวน์โหลด
สำนักงาน
ตื่น
รับประกัน
เก่า
จดหมาย
เข้มข้น
โจว
เปลี่ยนแปลง
ท่าทาง
คัทลู
ออฟไลน์
สมุนไพร
ตั๋ว
มาถึง
แล
บางส่วน
ง@@
แดงเข้ม
ปีศาจร้าย
ผิดปกติ
ประจำ
โร
แนว
ราบ
รถยนต์
แตกต่าง
ทุกๆ
อัด
ไนลอน
บำรุงรักษา
A@@
ความคิด
อัปเดต
คะ
หลายครั้ง
ว@@
โดยรวม
หลาน
สายตา
ผลไม้
หวัง
ต@@
บางเบา
สะเทือน
บรรยากาศ
G
T@@
สมดุล
AFK
สิทธิพิเศษ
โก
ยาวนาน
ขยะ
pid
ฟิล์ม
แสดงออก
ค.ศ.
พี่
แผนที่
ไร
ความเสียหาย
ขวด
เหมือนกับ
ทางเลือก
อีกต่อไป
160
ทุกอย่าง
บุคลิกภาพ
ห่วง
ฮา
ร่วง
โรงงาน
_]
ถัง
เก้าอี้
ล้อ
คั่งแค้น
นอกจาก
แปรง
สั่นสะเทือน
หุ้ม
โด
ช่าง
สร้อยข้อมือ
คาด
พาหนะ
เหม็น
เชิญ
จมูก
จ้าง
ชิ
เด่น
หอคอย
ไว
ถู
ครึ่ง
ประ
เข้ม
ผิด
อะ
ผนัง
เครื่องมือ
ดับ
ไฟล์
ปฏิบัติตาม
สมัคร
g
พ@@
มีปัญหา
มักจะ
กฎ
ซีซั่น
ม่า
อน
คม
เหนื่อย
ตามที่
มันวาว
อำนาจ
กรรมการ
ภูมิภาค
จาง
ความเสี่ยง
ติดตัว
เคลื่อนไหว
ย@@
ไมโคร
ปลา
ขับไล่
หมอน
วาร
เร่ง
เคลือบ
L
ประลอง
ดูเหมือน
P@@
การเคลื่อนไหว
รุ่งอรุณ
ถ่ายภาพ
ฝา
เจล
กำลังจะ
ได้มา
วิน
กุญแจ
ชม.
สีน้ำเงิน
ตรวจ
ประกาศ
สาบสูญ
ในเวลาเดียวกัน
ตกน้ำ
ขนส่ง
น้ำยา
แบต
บุก
ความคืบหน้า
ท่า
อ@@
แตกแยก
ฮิต
วน
เย็นสบาย
แฟน
ลำดับ
จางหาย
mm
บริเวณ
สอดคล้องกัน
หมดอายุ
ด์
บรรลุ
งาม
อธิบาย
สองชั้น
อบอุ่น
แพ
หมู
ห่าง
ตะ
ยุทธ์
เพี้ยน
สัตว์เลี้ยง
เลขที่
ทะเลทราย
อาจารย์
เพ
กรณี
อีกแล้ว
แช่
ข@@
ความสง่างาม
อังกฤษ
กระถาง
นาฬิกาข้อมือ
บับเบิ้ล
เตรียม
_#
กาลเวลา
ทดลอง
ฤดู
แยกตัว
นรก
แปลงร่าง
ย้อนกลับ
กระแส
ในขณะเดียวกัน
ความสุข
ทองแดง
แม้แต่
เซอร์
ที่สูง
จู
พร้อมกัน
ขโมย
240
ไปดู
มั่นใจ
แก้
ฐานะ
เอส
เวทมนตร์
นะคะ
ซิลิโคน
แชท
ว่าง
สรุป
105
เฉพาะตัว
หรู
จง
เป้า
นักผจญภัย
ทิศทาง
ทมิฬ
ผู้บริโภค
-@@
ฟ
ย้อมสี
หนี
ทำร้าย
ชาร์ต
พลัส
มอ
เทมเพลต
ไร้สาย
กันแดด
>◆
แก้ไขปัญหา
M@@
700
เต้น
อารี
รอด
พุง
เรื่อยๆ
มินิ
เครื่องสำอาง
ไรท์
โล
ผลตอบแทน
9@@
ลอย
ฟลูออ
เวอร์ชั่น
ซ์
กลืน
ปวด
เสียดสี
แสวงหา
5000
สนใจ
ทราบ
ย์
กี่
เจ็บ
เข้าถึง
E@@
8@@
เช็ค
t
ซ้อน
กระ
ข้างต้น
ยื่น
แลกเปลี่ยน
เป็นหนึ่ง
ส่งออก
กัด
ลมแรง
ตรวน
บาท
สิทธิบัตร
ริม
ห@@
ราง
คมชัด
หน่วยงาน
ผา
a
โบสถ์
จ@@
D@@
จนถึง
เสียงรบกวน
่
ทุ
กฎหมาย
ใช้เวลา
ปู
สแตนเลส
_]#
สมาธิ
งดงาม
บอส
ย้าย
H@@
สนุก
ล่วงหน้า
ธาร
ฝัน
สัญลักษณ์
G@@
80000
เป็นธรรมชาติ
12@@
การพัฒนา
ไซ
สวน
ความนิยม
ไซต์
SMS
ลดน้ำหนัก
เรียว
รุ่นพี่
ก้อน
ความแข็งแรง
L@@
โม
บาย
ลูกไม้
คลุม
Facebook
44
ร์ค
คลาส
อายุการใช้งาน
หัวข้อ
ชื้น
อาศัย
Aquiver
ซึม
อย่างนี้
ทางเทคนิค
หรือเปล่า
ค@@
ชุ่มชื้น
3400
กระเป๋าสตางค์
คราบ
นิยม
มีชีวิตชีวา
จำ
ซื้อขาย
โคร่ง
หอม
อัคคี
๒
บุ
แช่แข็ง
เฮอริเคน
พันธมิตร
ไฮเอนด์
อก
การสัมผัส
อาณาจักร
3.5
ร่ม
แนวคิด
650000
หน้าปัด
ชุดชั้นใน
เขียน
ที่ไหน
98
ต่างประเทศ
USB
:%
กดปุ่ม
สิ่งมีชีวิต
บีบ
แม้ว่า
X
ตะลุมบอน
เสียหาย
โรแมนติก
แก้ปัญหา
ความแข็ง
รวมกัน
420
จัดอันดับ
สุ
คนเดียว
8000
พ
เคล็ด
《
อาบน้ำ
เสื้อชั้นใน
135
เอกัตภาพ
คอเสื้อ
แบก
ระงับ
คุณลักษณะ
ด้านนอก
Boss
110
จิ
500000
วัย
ที่รัก
ขับ
อ่อนแอ
คำถาม
p@@
หวาน
ย่อย
สะ
ประชาชน
III
โหลด
การสั่งซื้อ
นาง
คีย์
สติกเกอร์
เปิดเผย
ตัวจริง
ร่องรอย
ในขณะที่
เพิ่ง
ค่าใช้จ่าย
จัง
สตรี
สนิท
ซักผ้า
จุติ
ขี้เกียจ
175
ถ้ำ
สงบ
บริจาค
พัง
ความเหนียว
เมิร์ซ
คลั่ง
พรสวรรค์
ภายหลัง
ขยะมูลฝอย
ฆ่าเชื้อ
บิ
ฝ่าเท้า
m
อบอ้าว
มรกต
ครา
หมุนเวียน
จา
โบ
BP
มหากาพย์
วัยรุ่น
ชดเชย
ร้อง
วิหค
โต
การกระทำ
แต่ละคน
ออน
เยอรมัน
วิถี
รบกวน
คู่รัก
เซียว
มีค่า
ศึกษา
ความหนาแน่น
เลี่ยง
ชั่วร้าย
แร่
แย่
การประเมิน
วงกลม
แสดงให้เห็น
ความมั่นใจ
กลไก
750
แหล่ง
บุคคล
คุ้มกัน
กิจ
แสงแดด
ฯ
ยูวี
พนักงาน
ตำรา
ณาพ（
สังเกต
เต้านม
ะ
ม้า
ทรงพลัง
ประทาน
ข
พลาสติก
กันกระแทก
ชุบ
กระ@@
แอปพลิเคชัน
มด
i
1800
อาร์
F@@
หมอ
มีชีวิต
คน@@
กระแทก
เหยียบ
ถ@@
ตามปกติ
ขึ้นอยู่กับ
สกุล
34
ค่อยๆ
Gold
ส่งผล
210
ประโยค
วัตถุดิบ
้
กระเป๋าถือ
ขนาดที่
ใย
ที่วัด
ตรวจรับ
นิ่ม
ชัด
อิเล็กทรอนิกส์
อินเทรนด์
ฉีก
แมตช์
จ:
แม้
สกิล·
เบส
ในประเทศ
รัดรูป
ขอโทษ
ณ
คิ้ว
ให้บริการ
โซน
เป็นเพื่อน
ยางพารา
แชร์
แสน
คทา
85
สิ่งสกปรก
รัดตัว
คุย
ใช้แล้ว
288
ลิงก์
ล้ม
เท่
เหล็กกล้า
บ่อย
ลอร์ด
ขุด
เ
ช้า
O@@
ช@@
เบาบาง
ปานกลาง
ทารก
พระ
บรรจง
เกาะ
บุคคลที่สาม
อินเทอร์เน็ต
ตะวัน
ไอออน
ส่องแสง
นโยบาย
หญ้า
ดิ
ส้มมือ
ต์
ตระเวน
---
s@@
อม
จัดเก็บ
เพราะว่า
เตียง
หนู
นูน
นอกจากนี้
ราชินี
วิทยาศาสตร์
มอเตอร์
ข้างบน
ฝ่า
เห็นได้ชัด
แข่ง
46
หวี
การขนส่ง
หล่อน
สบายใจ
นักออกแบบ
ซัพพอร์ต
เส
พายุ
เกือบ
ปากกา
หุ่นเชิด
)*
การแลก
แท็ก
โลโก้
พหูสูต
I@@
เพจ
คนใน
โปรแกรม
i@@
เทป
เมน
ไล่ตาม
ทราย
เอสเตอร์
27
อธิษฐาน
แลนด์
หรือว่า
หลักฐาน
ทั้งคู่
ที่เก็บ
กำมะหยี่
ผู้ให้บริการ
เคส
130
อัศวิน
อัตราส่วน
ก็ตาม
งอ
ออสเตรเลีย
ทั้งวัน
หมายความว่า
ค์
พระเจ้า
ระ
เป็น@@
นิสัย
โซ
เสนอ
หลักการ
สมอ
สลับ
บำเพ็ญ
มืดมิด
ซ@@
การตะโกน
ทุกครั้ง
ช่องทาง
บาดเจ็บ
220
E
จุดเด่น
บัว
วะ
เหมาะ
สบู่
ค้าง
ยอดขาย
ลิ่ว
℃
หรง
ความทรงจำ
N@@
ใต้ดิน
พัก
วัล
ดนตรี
มี@@
ซับซ้อน
ระยะไกล
พรีเมี่ยม
เหว
ก.
แบบฟอร์ม
สถิติ
ผู้รับ
ตัวเลข
ปลั๊ก
เบื้องหลัง
ความจริง
เสริมสวย
วงการ
การตลาด
K@@
H
ชั้นสูง
ระคายเคือง
แสดงผล
ท่อ
พิจารณา
สกปรก
แมงมุม
ฟิลด์
เทา
รี่
รอบเอว
บริโภค
ที่นั่น
นก
a@@
า
เปืด
ท่อน
Y@@
รอยเท้า
เว้า
ถอยหลัง
e
เสถียรภาพ
มุ่งเน้น
ส่วนผสม
ใจกว้าง
ไหว้
ล็อกอิน
ประสาทสัมผัส
%；
ข้างหลัง
ความกดดัน
ระเหย
เปลือก
33
เช่นกัน
คูปอง
กล้าหาญ
65
วานร
คัดลอก
ซาน
ดูดี
ปลอกแขน
คล่องแคล่ว
ที่สาม
หนีบ
เฉลี่ย
ยอม
แต่งงาน
รูปปั้น
ลิมิต
เครื่องจักร
หาทาง
ธรรม
เหตุการณ์
โย
กอ
นิ้วเท้า
ภูเขา
ให้ได้
ฟื้น
AI
ตามกฎหมาย
ยุค
ข้อดี
พุ่ง
บ้าคลั่ง
กวาดล้าง
ร้อยละ
อุ่น
ราก
d@@

มีพลัง
29
HPLv
ของแท้
กระจ่าง
U@@
ราศี
เป็นทางการ
ช่วยเหลือ
จิตใจ
เหนียว
แกะสลัก
19@@
เวอร์ชัน
การปรับปรุง
โน
c@@
ริมฝีปาก
โลหิต
เนื่องด้วย
พลาด
ที่ผ่านมา
ตุ๊กตา
กะ
ไปเที่ยว
แทงค์
ความคิดเห็น
สึก
450000
3@@
แว่นตา
.@@
แนบ
หน้าต่าง
ปัจจัย
โอน
ฉลอง
225
เลน
์@@
อินเดีย
จักรวาล
หิ้ว
ตรงหน้า
ใช้กับ
สั่น
คอย
ลี่
สิ้นสุดลง
525
2@@
มอบให้
หน้าตา
><
เมฆา
ความลับ
เพิ่มค่า
ยกเว้น
หลายอย่าง
99
52
รัฐบาล
แอตแลนติส
กัดกร่อน
อัล
สรีรศาสตร์
พารามิเตอร์
อุปนิสัย
ภาษาอังกฤษ
เทียม
u@@
ดวง
สร้างสรรค์
ปราสาท
！\
แจ็คเก็ต
ซาร์
โหนด
๓
ตอนนั้น
พิถีพิถัน
อลูมิเนียม
พูดคุย
เครื่อง@@
ถ้วย
999
เป่า
):
ยิง
สีเหลือง
การระบายอากาศ
การแข่งขัน
หาง
88
ผ้าใบ
ถอน
แสดงถึง
สารพิษ
การวิจัย
เชื่อมโยง
อง
【%
ช้อปปิ้ง
ผสมผสาน
ดึกดำบรรพ์
ธนาคาร
ฟสกิล
หลอด
หลง
การถ่ายภาพ
ไฮ
ลูกกลิ้ง
บางที
ก่อสร้าง
ร่วมกัน
มีประโยชน์
บรรจุภัณฑ์
ว่าการ
315
5@@
พ่น
ลูกปัด
สม
แสงไฟ
Amazon
ไม
เกียร์
58
ความฝัน
ด้าย
เป็นอันตราย
ตะขอ
นิพพาน
ปักษา
บา
์ค
โคมไฟ
นาโน
R
เส้นด้าย
แมทช์
สิบสอง
ด่วน
แทนที่
วงแหวน
รั่ว
ร่า
เป็นไปตาม
มีประสบการณ์
แว่น
55
ต่างหาก
เก่ง
นม
แปะ
โดเมน
ในที่สุด
ญี่
บอร์ด
วาด
LED
ทักษะ
ผิดพลาด
การเฝ้า
กู้
0@@
ฟต์
ขับรถ
โรงเรียน
เมล็ด
กลาย
เผย
มณฑล
g@@
เทียมทาน
ได้รับอนุญาต
ABS
แนวตั้ง
ทรราช
SHOPLINE
อักเสบ
เป็นห่วง
ทับ
สืบทอด
ชื่อว่า
ศพ
นวัตกรรม
พิพากษา
เคล็ดลับ
285
แสดงว่า
กระบวน
สง่า
สถานี
เดี๋ยว
ทั้งหลาย
ผิวหน้า
พักผ่อน
ชีพ
น้ำค้าง
จันทร์
n@@
ศาสตร์
เรื่องราว
สา
ตรึง
มม.
เสา
อดีต
ป้อง
IV
ฉีด
์ก
เด็ดขาด
170
อักษร
เวทย์มนตร์
ตามเงื่อนไข
สหรัฐอเมริกา
มาส
พ.ศ.
95
ส์
ภาพถ่าย
MM
หย่อน
ฝรั่งเศส
เว้น
ปุ่น
วีรบุรุษ
ศีรษะ
ละลาย
ตอบสนอง
มากยิ่งขึ้น
ที่จริง
e@@
—
เกล็ด
ความสัมพันธ์
งู
ถ่ายทอดสด
เข่า
ไอแพด
อเนกประสงค์
โมดูล
ลงโทษ
ใบไม้
มีสิทธิ์
ความตาย
ฟ@@
เวอร์
การศึกษา
หนาว
ตั้งครรภ์
ประการ
รึเปล่า
กิจการ
แต่งตัว
การคัดเลือก
วงจร
ทุกท่าน
2800
ปรับเปลี่ยน
ปืน
ผิวขาว
ที่นั่ง
245
ฝนตก
แย่ง
ขณะที่
โฆษณา
เถิง
900
สุสาน
รวมทั้ง
อนาคต
EVA
ประวัติศาสตร์
R@@
ตัวเล็ก
เฝ้า
ขออภัย
ผ่านการทดสอบ
การเจริญเติบโต
ทรงผม
อลเวง
3200
ที่หนึ่ง
เสริมสร้าง
วายุ
คำ@@
ผลประโยชน์
ทีละ
ผีเสื้อ
ซม
ไน
ธร
สถาน
ร้อนที่
140
การันตี
buff
เรือ
ฟุต
ส่อง
สาธารณะ
เซ้นส์
ํา
ทำ@@
รับรู้
ตัวแทน
สักครู่
ความสำเร็จ
ที่แล้ว
เผยแพร่
พวกคุณ
320
ตีความ
ประมุข
น่า@@
ศตวรรษ
กริด
นางแบบ
คริสต์มาส
จังหวะ
โปร่ง
ฟอก
300000
ชำระล้าง
ซุปเปอร์
กุหลาบ
ภาวะ
ตอบคำถาม
t@@
นิตยสาร
แก่นแท้
หมี
พี
ตัวเลือก
ตะลุย
เจ็บปวด
ชิด
ต้องห้าม
คอลลาเจน
สวัสดี
ลายเส้น
59
คร@@
เผ่าพันธุ์
หยาง
สมเหตุสมผล
ไล่
หรอ
PU
แท่ง
จิน
สนุกสนาน
ยา@@
ลาน
บอกลา
กลิ่นหอม
สอน
ปลอม
ลักษณะพิเศษ
y@@
เสียทรง
ควัน
จำหน่าย
ต้นฉบับ
ดึงดูด
เจ
นิรันดร์
เสียรูป
คล้ำ
เบบี้
ค่ำ
โต้กลับ
ตัดสินใจ
กลั่น
25@@
อินฟราเรด
ด้วยตัวเอง
แมน
ทั้งนั้น
หลุม
ธีม
ปิดบัง
งา
ปลดปล่อย
W@@
ผู้ดูแล
——
สับสน
อักขระ
ทำสมาธิ
ขัดข้อง
ดรีม
วิศวกรรม
มากเกินไป
นึก
อุบัติเหตุ
ลูกหนี้
สอบถาม
สต
ครึ่งตัว
ทับซ้อน
คำนวณ
ลูกโป่ง
การเผาผลาญ
รอยต่อ
ท้องฟ้า
เจ้าหน้าที่
ศิษย์
ส้นเท้า
อิตาลี
เศษ
เต้นรำ
แบบอย่าง
ต้นทุน
อนุมัติ
สถาบัน
สว่างไสว
ทัศนคติ
พัด
ร่วงหล่น
ข้อบกพร่อง
30000
ครู
งานการ
แม่น้ำ
ออกซิเจน
ผง
คอมมิชชั่น
เพาเวอร์
สังคม
เข้าชม
หอการค้า
เธียม
คุ้มค่า
สูงศักดิ์
280
ภูมิ
รองพื้น
เหมือนเดิม
ที่ว่าง
์ป
รอยขีดข่วน
ผู้เชี่ยวชาญ
เส้นสาย
ลาก
สเตอริโอ
ได้ผล
เล่า
ดื่ม
บอล
b@@
อึดอัด
h@@
ไม่ค่อย
อืม
แชมป์
มีบทบาท
มหัศจรรย์
ee
เอาไว้
ฝ่ายตรงข้าม
ก่อนที่
แรงเสียดทาน
ดีงาม
วาสนา
ดัชนี
..
สีน้ำตาล
รีด
การโต้ตอบ
คู่ต่อสู้
มกราคม
การคืน
263
Y
ปัจจุบันนี้
ลื่นไถล
การสำรวจ
เปียก
205
เปอร์
ภาระ
ยานพาหนะ
ประกบ
เกียรติยศ
บรรจุ
วี
การผสาน
บับเบิ้ล·
）、
ให้เช่า
20000
GB
ฮี
คู่มือ
ฝรั่ง
ประกัน
20@@
โรงไฟฟ้า
ลูก@@
U
่น
ไว้วางใจ
6000
ความต้านทาน
ฝึกฝน
ย่อม
ผู้เข้าชม
125
บูชา
ไม่เป็นไร
บริหาร
วัฒนธรรม
เรืองแสง
เพรียว
r@@
ทาน
กระโดด
5250
โซ่
บางอย่าง
เปล่า
รังผึ้ง
เท่ากัน
ติดกับ
ยาม
ตะโกน
คุณธรรม
โจม
เซ็น
รอยแยก
ให้ความสำคัญ
ส้นรองเท้า
ข่าว
บุกรุก
เหล่านั้น
เคร่งครัด
255
บาน
เลี้ยง
รอบคอบ
กรัม
เป็นประโยชน์
นิดหน่อย
ปรากฏตัว
ฉุกเฉิน
N
ดีเด่น
หยิบ
ผ่าเผย
ฟิตเนส
ศาล
สั่งทำ
สาเหตุ
การสอน
มาตรา
กันที่
ช่องว่าง
สูท
เย็บปักถักร้อย
พยัคฆ์
2500
พิศดาร
มีผลกระทบ
แพง
พิสูจน์
กองกำลัง
่@@
(@@
สลาย
คำตอบ
อิน
มีเรื่อง
หลับ
ลำตัว
468
กระบวนการผลิต
นที
โท
เย็บแบบ
คอกลม
มุมมอง
68
ของแถม
รุ้ง
ชุมชน
รสชาติ
>%
กำแพง
ประ@@
ไลน์
ทำเครื่องหมาย
เก็บรักษา
925
ปราบ
ตากแดด
เอเชีย
ปฏิบัติ
ขุย
อาตมา
คณะกรรมการ
สั่ง
เขย่า
ตามใจชอบ
นักฆ่า
ภพ
ล้างหน้า
สารภาพ
o@@
ทางบก
ทาง@@
ปรากฏการณ์
ปลูก
ความแรง
มุ่งมั่น
nFlee
ฉลาด
ก่อนหน้านี้
ซ่อนตัว
ดอลลาร์สหรัฐ
น่าจะ
ซ
มาสเตอร์
บรา
แรงบันดาลใจ
ขัดเงา
โมเลกุล
ประชากร
แมว

ชื่นชอบ
ดัดแปลง
ชีวภาพ
เนี่ย
ตราประทับ
ผ่า
ดูเหมือนว่า
ตลอดไป
พ่อแม่
หง
ยางยืด
เปลี่ยนรูป
เยี่ยม
มีประสิทธิผล
อยากได้
โปโล
เอ็น
กวาด
โฟม
ศักยภาพ
โดยเร็ว
ไดนามิก
F
ฟังเพลง
มัด
กล
นักวิจัย
ความหมาย
บิด
เปลวไฟ
สารเคมี
ลำบาก
ระยะทาง
แห่งชาติ
รัน
J@@
แดด
กล่าว
หด
้น
ให้ความสนใจ
ผู้ใหญ่
เยาวชน
เที่ยว
ประเมิน
สมอง
เน็ต
คงทน
ของใช้
แป
มื่อ
ลูกแก้ว
ทั้งสิ้น
การเรียนรู้
ศิลา
สลัก
จารึก
ความอบอุ่น
ขุมทรัพย์
ตู้
อย่างไรก็ตาม
ความนุ่มนวล
แบ
กลบ
1.@@
270
โมเดล
หดตัว
2019
คลอด
63
ครบถ้วน
ผ้าคลุม
แมลง
ระมัดระวัง
ตรวจจับ
ทัวร์
วิจัย
เงียบ
แบกรับ
ลงทุน
4.@@
ชาญฉลาด
แตะ
เท่าไหร่
พูดถึง
1818
ธง
WeChat
ชัยชนะ
เผาผลาญ
มือใหม่
o
ฝ้า
ไข่
ฉ@@
ผูกมัด
เซอร์ไพรส์
ชิ่ง
PK
ไค
ธันวาคม
ม.
ตกใจ
รก
49
มิฉะนั้น
ตกค้าง
ปีน
ครั้งหนึ่ง
คัพ
มงกุฎ
ผจญภัย
224
คงจะ
บิล
ได้ประโยชน์
บาร์
นว
แข่งขัน
พลิก
แฮนด์เมด
แล้วกัน
ยูรีเทน
ระยะห่าง
หมุด
ร้ายแรง
สอบ
สว
เรื่อย
วันหยุด
ครอบ
สกรู
เช็ด
คำขอ
ตั้งอยู่
รอบรู้
ชมรม
ผู้จัดจำหน่าย
ละเมิด
เชื้อรา
เคลื่อน
4@@
375
เปิดตัว
วัตถุ
รับสาย
กั้น
สมุทร
สาขา
in@@
ยึดครอง
ในกรณีที่
จนกว่า
ลายลักษณ์อักษร
กู
ผู้ว่าจ้าง
ฝึกอบรม
สีผิว
สเปค
ใบรับรอง
id
en@@
โทษ
ที่มา
ระยะยาว
น่ากลัว
ผู้ปกครอง
ความรู้
มีชื่อ
เลียนแบบ
คลู
เฟิง
แพ็คเกจ
520
เสือ
ข้างๆ
แบ่งปัน
1@@
ภาษี
ลมหายใจ
3409
ทีวี
ข้างล่าง
โต้ตอบ
เป็นประจำ
ข้อเท้า
1591
แผลเป็น
ชายหาด
HIT
》
สภาพอากาศ
โกรธ
f@@
สแตนด์
อำลา
63640
อด
4.5
พอใจ
ยาวิเศษ
ใช้ชีวิต
น้ำ@@
m@@
ช็อปปิ้ง
นานๆ
บำบัด
หลบ
คุก
ผลลัพธ์
วร
or@@
APP
เสี่ยว
ไมโครโฟน
เตา
พร้อมทั้ง
4000
เคียว
480
ที่ตั้ง
อวบ
38
จิตวิญญาณ
พล@@
เขตหวงห้าม
เสื้อคลุม
บางคน
580
ปราศจาก
ย้อม
ลึกซึ้ง
สำรอง
หมา
ฝาก
สเปรย์
การอนุญาต
คำสาป
39
หม่อน
>@@
ยกระดับ
ข.
ปกปิด
ฝังเข็ม
หน้ากาก
คำพูด
เพิ่มประสิทธิภาพ
เปลี่ยนไป
ตัน
หนังสือรับรอง
ทางการแพทย์
แยกส่วน
ชั้นเยี่ยม
คงคลัง
สนทนา
เพอร์เฟค
จักรพรรดิ
พ้น
64
ว่ายน้ำ
เขาวงกต
วิสัยทัศน์
รายสัปดาห์
การสั่น
ขั้นต่ำ
พระจันทร์
กระทะ
ก่อ
เล@@
โซฟา
เคารพ
หุบเขา
สากล
ยิ่งใหญ่
สีเทา
นำไปใช้
หยด
มา@@
กวาง
อย่างยิ่ง
กาแฟ
เช่นนี้
ไอ้
ฉีกขาด
ิ@@
เซ@@
4500
ฟีดแบค
นภา
k@@
6@@
ร่วมใน
ทางกฎหมาย
ข่วน
การนำ
หลังจากนั้น
ไททัน
เป็นไปได้
15@@
ตํา
กรด
เหนื่อยล้า
ลวงตา
ที่จับ
ทางออก
สุภาพบุรุษ
๕
กระตือรือร้น
ตามหา
ลอก
อำเภอ
Buff
ซูเปอร์
ริ้ว
สึ
มีสีสัน
ไส้
จุด@@
18@@
ส่วนที่เหลือ
มีอายุ
ทัน
การทดลอง
เมนู
โมโนเรล
หรือยัง
เคมี
ศูนย์กลาง
กรน
แหลม
เจน
เอ@@
นำทาง
แตกแขนง
ได้แก่
การปกป้อง
อา@@
ไหปลาร้า
iEnglish
ก่อนที่จะ
อร่อย
ไปหา
การบีบ
ปลิด
เลอ
ใกล้เคียง
แสงสว่าง
แคบ
ลงชื่อ
สติ
ผ@@
132
เป็นอย่างมาก
ที่ซ่อน
งานเลี้ยง
้ง
โดยทั่วไป
อวยพร
โภชนาการ
ยินดีต้อนรับ
เว็บ
นอกเมือง
กว้างใหญ่
กระต่าย
อย่างหนึ่ง
รอบตัว
เมล
ชาติ
ช่างตีเหล็ก
ฮ่า
of
พราง
410
ร็อค
คงเหลือ
รถไฟ
3.@@
เก@@
สื่อ
เข้า@@
ส่วนหลัง
อิฐ
7@@
จุดด่าง
แม่ทัพ
ส่งคืน
สภาวะ
l@@
กิ
อุกกาบาต
้@@
ค้างคาว
จักร
ภัย
กลุ่มคน
14@@
แหล่งกำเนิด
ส่วนหนึ่ง
400000
เบาะแส
จัดทำ
กอง
u
ตะวันออก
ตามสบาย
Z@@
50000
7.@@
ลงนาม
สุข
เนอ
ฮ@@
พู่
URL
ยอดนิยม
คุณพ่อ
540
ที่@@
ท้าย
li@@
เชิง
er@@
13@@
LOGO
ไผ่
การฟื้นฟู
คลาย
เฉียบ
ยึดมั่น
สาน
ผู้รับจ้าง
ป้อม
165
in
บวม
๔
ตัว@@
ผ้าลูกไม้
อย่างนั้น
อัคนี
ออฟฟิศ
เกลียว
สังเกตการณ์
โค้ด
มอบหมาย
อุดตัน
นิ่ง
ทำเป็น
พื้นเมือง
ค่าที่
ซู
ที่รวม
70000
12.5
การคำนวณ
อัต
ล้ำเลิศ
ครอง
w@@
ทีเดียว
เปลี่ยนสี
ปุย
แท่นบูชา
เรียลไทม์
พิ@@
O
อัพเล
ทอผ้า
โฟ
กัมมันต์
การเรียน
มัก
ความมั่นคง
เท@@
จี
พิธี
ขอรับ
โทสะ
สื่อสาร
เป็นช่วง
เป็นความ
จดทะเบียน
ความแม่นยำ
รูปถ่าย
เม@@
เกิดผล
เสียใจ
337
ทันเวลา
ID
ความคลาดเคลื่อน
ญ@@
เคลื่อนย้าย
17@@
ถ่ายรูป
37
ตั้งชื่อ
โบว์
สตาร์
W
ผูกพัน
1.2
แค
สุ@@
หัวเข่า
สถาปัตยกรรม
เครือข่าย
วัตถุประสงค์
##
ความสนใจ
IPAD
ผู้อื่น
มีชื่อเสียง
เต๋า
การส่งออก
มั้ย
หน้าไม้
ไอดอล
หนุ่ม
บี้
ฝั่ง
NPC
วิตามิน
เบื้องต้น
260
5.5
ร้านเหล้า
1600
ขอพร
IP
คงอยู่
ความดันโลหิต
มีระดับ
ครึ่งหนึ่ง
ปลอก
หน้า@@
ชั่ว
ชื่อเสียง
เครื่องซักผ้า
ราว
ยับ
สักหน่อย
ปราบปราม
492
แท็บ
จม
ตั้ง@@
เงินสะสม
รายเดือน
เลข
เสฉวน
กล้าม
ห้องน้ำ
เวต
ฟีนิกซ์
ก้น
องค์กร
บัลเลต์
พรุ่งนี้
กับดัก
เบ@@
ภาษาจีน
พื้นดิน
แซ
มุ้ง
ิน
เสื่อ
พูดว่า
่ง
คู่แข่ง
กิลด์@@
มาตรการ
ยุติธรรม
เลเซอร์
ภาย
เลีย
การซึม
น·
ด้าม
เดินเส้น
กลางวัน
1080
ยอดเงิน
คาถา
ขายดี
นวล
mon
เลิก
บี
ฎ
จอ
โฟกัส
ตุลาคม
ก้าน
·@@
ประหลาด
h
รายชื่อ
แพคเกจ
เอน
โต๊ะ
เจดีย์
ต่อกัน
ในอนาคต
ฟื้นคืนชีพ
พก
ฝันร้าย
3600
ซ่อม
604
พอที่จะ
ขยับ
96
ตามเวลา
ส่วนล่าง
ปา
สวิตช์
0.75
อดทน
ฝาครอบ
ตัวตน
บ้า
อาคาร
ไข่มุก
ใบสั่ง
เป็นตัว
an
โกน
ดีใจ
แท้ๆ
พยุง
รึ
เกณฑ์
เช้า
ราชัน
90000
ความเจ็บปวด
แต่ละครั้ง
72
ที่สี่
พลังงานไฟฟ้า
ผล@@
รา@@
ิ
ต้นกำเนิด
แท่น
ร้องไห้
%)
แผล
01
คาที่
ดับกลิ่น
คำเตือน
มนุษยชาติ
แร่ธาตุ
☆
ความสว่าง
SSR
%）
336
ติดต่อกัน
เซต
สมหวัง
เหลืออยู่
เด้ง
แอพ
นิ@@
กำเนิด
เพ@@
ประสบความสำเร็จ
ค้าปลีก
ปัญญา
หย@@
เตี้ย
ค่าไฟฟ้า
มีผลบังคับใช้
ประโยชน์
ผลดี
สิ่งทอ
317
ค่าธรรมเนียม
ผ้าขนหนู
ล่อ
ปณิธาน
หนาม
มาร์ค
องอาจ
ไต
ตา@@
โอเค
ปะทะ
ไวท์เทนนิ่ง
02
ปกคลุม
แห้งแล้ง
ธุรกรรม
มีผลต่อ
ถ่ายทอด
สวิทช์
กัง
อิ
er
ตาม@@
ประกาย
ยืนหยัด
ล้อมรอบ
ต่อมา
ลิง
ทรัพย์สิน
เจ้าหนี้
ความรับผิดชอบ
เหตุสุดวิสัย
ดั่ง
วิจัยและพัฒนา
ปราก
เทค
10@@
เตารีด
ไท
เด@@
หม@@
ต่ออายุ
อุดม
ไหว
ี
กระจัดกระจาย
แขก
เซ็นเซอร์
แพทย์
ur@@
มองไม่เห็น
ml
ดิจิตอล
เจ@@
ก๊าซ
ตามมา
SR
ฮู้
รจิต
สามเหลี่ยม
ผู้เช่า
คัด
X@@
ทรงกลม
เคน
นอ
หลงรัก
แท็บเล็ต
ฟองน้ำ
โลหะผสม
วิวัฒนาการ
00@@
ปรอท
ข้าว
เนียม
ขาตั้ง
อ่อนเยาว์
สมใน
ลงมา
ตามลำดับ
re@@
ing
นท
ฉุ
ร์@@
แอด
เมื่อวาน
ความผิด
สัน
แต่งตั้ง
จุดเริ่มต้น
ผู้สูงอายุ
ชัน
ช็อก
124
ไอเสีย
มายัง
เมื่อก่อน
54
แผนการ
ซับเหงื่อ
รั@@
รูม่านตา
หัว@@
เตะ
คล้อย
ที่ว่า
นี
ออโต้
ผิดกฎหมาย
ลู
ฮ่องกง
ผัก
เจี้ย
่า
ทางกายภาพ
นิค
คาร์บอน
ล้ำลึก
กำกับ
น้ำหอม
230
.5
ถูกใจ
พิทักษ์
จับเวลา
คลิป
ETP
630
304
ติดกัน
คำนำหน้า
แปรงสีฟัน
หน@@
295
เรือน
ราค
ปฏิกิริยา
ภูมิคุ้มกัน
ลง@@
458
บ่อ
งาน@@
ทางวิทยาศาสตร์
ชื่นชม
สาวงาม
คัทชู
รับงาน
หลายชนิด
ก่อนหน้า
เข@@
ของเหลว
บ่อยๆ
เงินทุน
ลิปสติก
จ้าว
ปลอด
สมควร
บางครั้ง
ยุ่ง
an@@
ปาร์ตี้
ฮิ
ของเล่น
y
รักแร้
อันนี้
ความคิดสร้างสรรค์
ออกรบ
รอน
โพสต์
190
นุ่มนิ่ม
เวที
รู้เรื่อง
แผนภูมิ
ท่องเที่ยว
ต่อท้าย
ไล
รับจ้าง
นัก@@
มิเตอร์
สมัย
บุตร
496
ดูแลรักษา
หมาย
คล้าย
ชี้
น้ำตา
》（
ผู้จัดการ
บุคลากร
ถือเป็น
2.@@
ออกซิเดชัน
บุพเพ
บารมี
ดี@@
16@@
310
ความทนทาน
สำนักพิมพ์
0.@@
บัง
ครั้งสุดท้าย
กลับบ้าน
งอก
สุนัข
ลำ
วิ@@
ความเครียด
จ+
ความสะอาด
ต่อให้
เมื่อย
al@@
เหยื่อ
ความเมื่อยล้า
มล
188
380
เมีย
กระแสไฟ
รัง
ค้าขาย
สนิม
สกิล@@
เสียด
เก่าแก่
ขั้ว
แนบท้าย
ตำหนัก
มะ
เป็นผล
คอน
ความหรูหรา
อิง
npc
ใบอนุญาต
ข้างเดียว
คิ
ค้า
การประเมินผล
ถก
การกรอง
เด็กผู้หญิง
สำเร็จรูป
เสื้อกั๊ก
เค@@
เชื้อโรค
195
ซ้อม
ความผิดพลาด
รัฐ
ta@@
ความจำ
คอลัมน์
ต้นขา
การปฏิบัติ
เศรษฐกิจ
นา@@
ความทน
ทั้งนี้
เบน
สกิลส
แทง
นค
รอบด้าน
นอนไม่หลับ
โรงแรม
สงบนิ่ง
หุ่นดี
จากนี้ไป
mg
หยิน
b
ครบกำหนด
เนม
บัตรธนาคาร
ควรจะ
แค่นี้
:@@
ตะวันตก
รีไซเคิล
รุ่งโรจน์
ต่อหน้า
ศ
รับมือ
เต็มๆ
4.1
เยือน
คิว
อนุภาค
วางใจ
สิ่ง@@
หมอง
เงิน@@
ฟอร์มาลดีไฮด์
ข้อเสนอแนะ
คำเชิญ
น้ำอุ่น
ไอออนลบ
เรียกคืน
ข้อบังคับ
ขึ้นทะเบียน
เป็นที่นิยม
ol@@
1250
ม้านั่ง
จ่ายไฟ
การพิจารณา
11000
หล้า
จาน
ล่าสัตว์
เร@@
ถึงที่สุด
นั@@
จํา
ยุทธวิธี
v@@
112
สงบสุข
ดอกไม้ไฟ
7000
เมื่อกี้
ป่อง
แด
ซอฟต์แวร์
รอบข้าง
คราม
เรียง
9000
ลอน
พยากรณ์
779
ซิง
ชวน
กุ
บ๊ะจ่าง
บัน
ลวด
พากย์
l
ประสิทธิผล
ความมัน
KG
V@@
ชั้นใน
ขจัดคราบ
ร์ด
สกา
นเซีย
100000
ขาดไม่ได้
บอบบาง
เช่นเดียวกับ
ดอกบัว
เคียงข้าง
ภาพลักษณ์
รวมตัวกัน
ดุ
เห็นผล
x@@
ต้า
นี่เอง
เงินได้
เหลี่ยม
จอง
ท้องถิ่น
PC
คุง
พฤศจิกายน
ผลัก
คุณูปการ
4.2
ประวัติ
กันชน
เสบียง
ย่าง
ส่งสัญญาณ
OBT
โคลน
เผชิญหน้า
่อ
ทะยาน
ร่วมกับ
โครงข่าย
เซียมซี
ประจำปี
ลิ้นจี่
ครบวงจร
นัด
ว์
พบกัน
ชุดว่ายน้ำ
128
ตื่นขึ้น
เป็นตัวแทน
ก่อให้เกิด
",
ผิวพรรณ
กี้
เบล
หน่วยความจำ
โดย@@
ประกาศสงคราม
"@@
40000
กรอบรูป
คุณค่า
จินตนาการ
กางเกงขาสั้น
วงกว้าง
Instagram
การ์ตูน
ค่า@@
จริงใจ
ไต้หวัน
มดลูก
รวมตัว
ยกทรง
ไตรมาส
ทะเบียน
ด้ามจับ
%@@
ขอร้อง
มายากล
เสียงต่ำ
ไข
เจ้าหญิง
อินเทอร์เฟซ
สาด
ทุกสิ่ง
ระหว่างประเทศ
ต่อม
ผ่าตัด
ตลอดชีวิต
เข้าใกล้
โรงพยาบาล
ความเข้าใจ
น่าสนใจ
ประเพณี
ย่า
ึ@@
มีเหตุผล
อวกาศ
คืนเงิน
ติดเชื้อ
เครื่องปรับอากาศ
รองเท้าส้นสูง
เซรามิก
ซุบซิบ
มีอำนาจ
เชิ้ต
เกา
440
66
ti@@
2.1
ป่าทึบ
ยูนิคอร์น
เต@@
กรกฎาคม
ตึง
เรียกเก็บเงิน
เยาะเย้ย
นึกถึง
ผงซักฟอก
แผ่นดิน
การค้า
กร@@
ห่างไกล
เดือด
ทางเดิน
มั้ง
สมุด
ขยัน
เถื่อน
การชุบ
อิ@@
เหนียวแน่น
78
สามสิบ
ความยินยอม
หลักสูตร
เส้นเลือด
ข้อเสนอ
สำเนา
ขนม
ถั่ว
โจทก์
วีดีโอ
เชื่อถือได้
สา@@
เสาร์
ใบ้
290
330
เคลียร์
คิดถึง
สายรุ้ง
ข้อ@@
ยิ้ม
หนวด
กล@@
้ม
ตากแห้ง
มหาวิทยาลัย
สามชั้น
แม่มด
แปรรูป
เพิ่มจำนวน
สู
ล้น
เต็นท์
ซักล้าง
ละคร
มะกอก
วางแผน
แต่งกาย
ทวยเทพ
มหาศาล
มหา
ความหวัง
กรุ่น
การลดน้ำหนัก
มัจฉา
ข้อต่อ
เทวทูต
พระ@@
ตีห้า
ออกเสียง
สารอาหาร
6.5
ฮาเร็ม
เสีย@@
ทางเข้า
เถ้า
อย
หลอดไฟ
เตือนภัย
เป็นระเบียบ
3500
กะทัดรัด
ยี่สิบ
ออฟ
คล่องตัว
ไห
823
ตาก
nLv
705
328
สาธารณรัฐ
เสรี
มือ@@
ช็อคโกแลต
โครงกระดูก
กระทบ
เตรียมตัว
560
สตรีท
หน้าร้อน
ถ่าน
มาหา
ตี้
ย่อยสลาย
0.1
ส่องสว่าง
BUFF
พฤติกรรม
ดีแล้ว
พฤษภาคม
เป็นสมาชิก
โปรตีน
แคนาดา
หน้าผาก
ฉวน
คัมภีร์
ธ@@
ปฏิบัติงาน
รักษาสุขภาพ
อนุมาน
ตรงกลาง
1300
า@@
แนวนอน
นิรภัย
ี@@
กก.
หมดเวลา
เ@@
มุ่งหน้า
ไม่ต้องการ
เฉย
ศ@@
(%
)@@
ซัง
โยน
รีวิว
15000
ล้างมือ
ใบเสร็จ
[]
เอ๋
เบื่อ
ลิ@@
อัมพาต
ตอนแรก
แมง
เนื้อที่
PVC
ตะกรัน
ซี่
ตอบรับ
สี่เหลี่ยมขนมเปียกปูน
แยกกัน
ถุงเท้า
03
รองเท้าผ้าใบ
กระจายเสียง
545
คร่อม
ผิ
หมาก
ปราการ
ผิดสัญญา
：<
กติกา
น่าเบื่อ
%ลด
3450
สม@@
·คม
ec@@
สน
จำลอง
340
จนกระทั่ง
เหตุ
วันเกิด
เสมือน
สุทธิ
แรด
ปฏิทิน
เดท
บุคลิกลักษณะ
กิโลกรัม
แหล่งที่มา
เนิน
เกลียด
ลองดู
อาณาเขต
86
แผนกต้อนรับ
le
05
รถ@@
อุ@@
แรงกดดัน
บุคลิก
1199
จีบ
ar@@
ข้อสงสัย
เอะ
สายลม
ทุบ
เลิกงาน
ผืน
ma@@
51
มีนาคม
ข้อพิพาท
คลังสมบัติ
ประจัน
แย่งชิง
บันได
ri@@
ราวกับ
แฮนด์
น้ำชา
136
มาตร
รายการสินค้า
อัพตก
กรรม
ื@@
สิ้น
ความถูกต้อง
เสียชีวิต
พอสมควร
นิด
ออดิชั่น
อายัด
ของรางวัล
ร่วมมือ
ฟา
ประชิด
เย็นฉ่ำ
57
บูรณาการ
หมู่
883
น่าเสียดาย
เน@@
จับได้
3750
เซี่ยงไฮ้
】！
ขยายตัว
ริบบิ้น
เป@@
ซากุระ
ทิวทัศน์
มิดไนท์
ตื่นเต้น
ปั่น
เรีย
ร่วมงาน
60000
โหวต
92
ติ@@
สมรรถ
สิวเสี้ยน
การตาม
ผู้ผลิต
ลอ
_#*、[
แผนก
อุปสรรค
น้อยลง
คำศัพท์
เห็นด้วย
Android
ชู
สกิล\
เข้าที่
ตรงนี้
เหล้า
ใจ@@
ตร@@
รุกราน
p
หล@@
มันเงา
ู
ปร@@
ท็อป
ทธิ์
ผู้อาวุโส
เมจิก
อก@@
ตะเข็บ
สแกน
เด็กน้อย
เย@@
ยอมแพ้
680
เค้า
510
โกะ
เมษายน
ขบ
ต่อ@@
1,@@
แต่ละวัน
ความสะดวก
เซรามิค
198
แฟ้มเอกสาร
ประสบ
เป็นอิสระ
กี่เพ้า
ปิดผนึก
สีเข้ม
os@@
๖
บาป
น้ำเสีย
ยี
แม่พิมพ์
พึ่งพา
หลังจากนี้
ไปมา
หลาก
โอสถ
กร
ฟ้าแลบ
พิสุทธิ์
w
ซื่อ
กัปตัน
แช่น้ำ
）*
กระบอก
เป็นความลับ
อ่านหนังสือ
รับประทาน
อุดมสมบูรณ์
การชน
,@@
เลก
กระเทือน
2016
ฑล
/%
รายได้
325
เฮ
พาร์ท
ทำอาหาร
ถ้าหาก
::
@@
%（
ฝ่ามือ
ปล@@
ผู้ประกอบการ
อด@@
หม้อ
ผึ้ง
หั่น
อ่อนล้า
เข็มขัดนิรภัย
ลดา
สารประกอบ
งานแต่ง
ต้อนรับ
จำได้
1888
ก็ดี
ร้องเรียน
1380
ยาแผนโบราณ
ผู้ช่วย
ซีรีส์
84
หลับใหล
ยุ่งยาก
ธ
ศิลปิน
เงินสด
สมมาตร
นำพา
ปั๊ม
สักนิด
ล้อม
181
บู@@
เข้ารูป
AquiverBiz
ขายของ
อินพุต
สงวน
เจอกัน
กา@@
จัดหา
ล*
พรม
】【
ช่วงนี้
แพร่กระจาย
เรียกร้อง
โดยปกติ
ใจเย็น
ทีมงาน
ซีล
:สกิล【
เพียงแต่
ทํา
สมา
ถึงที่
กาง
Tencent
การสื่อสาร
ตอบกลับ
กระเบื้อง
ท่าที
บัตรเครดิต
Q@@
00.00
ดิฉัน
กระดูกเชิงกราน
เส้นโลหิต
ทุกปี
จาร
ภูเขาไฟ
ีย
เสื้อกล้าม
สาวน้อย
ไว้ใจ
flyknit
ช่างฝีมือ
บุหรี่
ล้ำ
ลิมิเต็ด
อยู่เลย
รับเงิน
ประสาท
ตกปลา
คุ้มภัย
213
ตู้เย็น
หวาดกลัว
แวร์
ชะตา
คู
ร่อง
พาโนรามา
รถบรรทุก
ชุดนอน
งานแต่งงาน
ห้องนอน
2.0
เนื้อเยื่อ
วันทำการ
คุณ@@
คนรัก
200000
2830
425
วาล์ว
ไอคอน
้อ
ชั้นนำ
เท่าที่
เฟ@@
เฉียง
อาทิตย์
ขวาง
เหลือเกิน
มน
ประยุกต์
ความปรารถนา
ช่วงชิง
ปราชญ์
Q
จักษุ
ศัตร
ขัง
ฝ่ายใดฝ่ายหนึ่ง
ตะวันออกกลาง
บทบาท
ความคงทน
EMS
2700
เท่าเทียมกัน
รกร้าง
SKU
CO
เตาเผา
เต่า
625
มีส่วน
เย็บจักร
มอญ
6.@@
365
เย่
เส้นรอบวง
เป็นต้นไป
ร่ำรวย
ที่ปรึกษา
สาย@@
ประกายไฟ
ทึบ
ก่อตั้ง
ตะกร้า
เพิ่มขนาด
แวววาว
ระดับโลก
ข้อจำกัด
73
เชียร์
เป็นปัญหา
สิ้นเชิง
เดี๋ยวนี้
ซู่
เอนไซม์
ปกครอง
ตลอดชีพ
กาน
【ห
ที่นอน
กิ@@
จากนี้
แพ็ค
the
สันทนาการ
หล่น
วง@@
คอนโด
บทสนทนา
การสกัด
คล่อง
ลูกโลก
โน๊ตบุ๊ค
เย
185
สง
ชรา
ขุนเขา
แ@@
หลอก
สก๊อต
ราศี@@
งก
เดิมพัน
All-in-one
รอยยิ้ม
%、
เปลือกตา
ความหลากหลาย
แผง
ติด@@
สรีระ
ตัวหลัก
ความช่วยเหลือ
82
หลิน
ผลาญ
ให
วิทยุ
หักลบ
ตบะ
เครื่องกล
สันโดษ
ความล้มเหลว
เครื่องใช้ไฟฟ้า
สุขสบาย
ทุ@@
อินทรี
กลอง
นิยาม
โมฆะ
การลงทุน
QQ
การงาน
ทำตาม
ขี้ผึ้ง
เสถียร
เผาไหม้
ฉนวน
เจรจา
IN@@
26@@
เอาต์พุต
วรรณกรรม
จื้อ
ปิดกั้น
โดยธรรมชาติ
สายโซ่
Google
ล่องหน
ดม
ซากปรักหักพัง
ดู@@
สายตาสั้น
แคระ
โทรทัศน์
275
ล์
เปล่งประกาย
ขี้@@
โอนย้าย
กฎระเบียบ
มือจับ
จุดโฟกัส
ื้อ
แม้กระทั่ง
คำนึงถึง
'
สลิป
เครื่องดนตรี
แอร์
วงกต
มีทาง
สระ
สปอร์ต
com
แตร
ท่าเรือ
ตซ์
เว
ic@@
600000
แฟนซี
ฮิปสเตอร์
การตาย
ซิงค์
448
ปรารถนา
ไฟฉาย
เห็ด
การณ์
อุด
ชั้นหนึ่ง
ขอแสดงความยินดี
ระบำ
129
สายไฟ
จ้า
การตรวจวัด
ที่ทำงาน
ชำนาญ
เหตุใด
หลี
108
TF
เวลานี้
โหดร้าย
แบงค์
ติดอันดับ
นิดเดียว
เงียบสงบ
เห@@
ลมหนาว
สูญญากาศ
รับ@@
นำมา
อณู
ให้อภัย
โกหก
ความพยายาม
ตอนเช้า
::\
ที่ร้าง
168
ก่อนอื่น
ฟู
ซับ
ตำรับ
ทีหลัง
หลุน
ใช
ๆ@@
ปล่อยมือ
สัง
นิติบุคคล
nEXP
น้ำเย็น
เซนติเมตร
เมเปิล
ณ@@
ิด
แว้งกัด
st@@
็@@
ลิ้มลอง
กระดิ่ง
พัฒนาการ
โชคชะตา
อัลลอย
ลั@@
สามี
1180
ลูกสาว
รูป@@
ตรวจดู
ขูด
76
%%
เสียม
วิว
การซ่อมแซม
ลดราคา
โซเชียล
ลงมือ
โผล่
815
วุ่นวาย
เช่นนั้น
เหนือกว่า
โครเชต์
ตะ@@
งวด
สมัยใหม่
เป็นจริง
0.0@@
ยังอยู่
แนวทาง
al
155
โรง
ความเป็น@@
์*
ณ์
บัลลังก์
อเมริกัน
คล
การรับประกัน
กำไร
วาง@@
โล่ง
ราชวงศ์
ไม่@@
้น@@
อีกที
สิงหาคม
ป้า
ซาตาน
สงสัย
เหตุฉุกเฉิน
1298
พลั่ว
์ด
ทรมาน
ราม
ฟอร์ม
อุ
ขบวน
คลา
ว่าแต่
อารยธรรม
ยก@@
ตรงไหน
คนขับ
】—
ทำความเข้าใจ
นท@@
พิฆาต
ราบเรียบ
สุดขั้ว
ผิว@@
ว่าด้วย
ทรัพย์
ตามหลักการ
4.0
โฟน
กล้องโทรทรรศน์
เมนทอล
7826
วาม
ทั@@
345
คล@@
เชีย
นอกเหนือจาก
ภาค
อุ่นใจ
อมตะ
สปริง
ขัดขวาง
กล่าวถึง
กอด
วันนั้น
11@@
5.2
พิการ
สไลด์
โปร่งแสง
เลซ
ไฟฟ้าสถิตย์
le@@
81
น้ำร้อน
2014
คิด@@
แคลอรี่
ของ@@
th@@
17.5
ความเป็นส่วนตัว
ย้ำ
เคาน์เตอร์
อัลตราโซนิก
ไบโอ
สังกะสี
4393
การผูก
แทรกซึม
เยี่ยมชม
MW
อั@@
ประทับใจ
620
es
ใ@@
เค้าโครง
วิทยา
ยมทูต
197
อิจฉา
วาน
มีความหมาย
ละเลย
จัดสรร
สภาพเดิม
ทัพ
วอร์ม
แสงอาทิตย์
บะ
มนุษยธรรม
ได้@@
มม
โฉมงาม
ผลักดัน
ใจดี
ออกจะ
0.02
รับผิด
ของดี
33@@
น้ำวน
เป็นขุย
สกิ
การวางแผน
27@@
รอคอย
โป
บรรลุผล
เอาแต่
ชายกระโปรง
ป้ายชื่อ
ตัดกัน
เชื่อมั่น
152
【แพ็ก
ลุง
๋
พ่ายแพ้
ดาวตก
ช่องปาก
6.0
สหราชอาณาจักร
587
เป็นครั้งแรก
กันยายน
ฮอต
30@@
ra@@
ส้นสูง
หลินจือ
เสียเวลา
มนต์
โยคะ
อาย
MD
สต๊อก
งานแปล
5.1
348
on@@
ริก
พรุน
ข้ามพรมแดน
1090
ครัวเรือน
ไว้ใจได้
f
เสียงดัง
พันปี
มิตร
จัดเตรียม
ไม่เลว
ตำ
โดยที่
ดยุค
ทำหน้าที่
จอแสดงผล
เสวียน
ใบสมัคร
ือ
รู้ตัว
สำ
ตราบใดที่
ทรัพย์สินทางปัญญา
ภาพ@@
VI@@
วา@@
ทาย
สิต
ดัก
ท่อง
1099
577
โกลาหล
เฮ@@
【@@
1.75
โถ
ตอนกลางคืน
สะพายเฉียง
การแสดงออก
กล้องถ่ายรูป
ทั่วถึง
ทฤษฎี
ปู่
r
แลน
บา@@
นิ้วมือ
1315
อิทธิพล
93
ุ
เครื่องแบบ
ไดรฟ์
138
ส่วนหัว
สิงคโปร์
ON
ยุติ
คนเรา
ความเห็น
ฝูง
คาดคิด
โคม
เป็นผู้ใหญ่
รถบัส
/@@
ว่องไว
te@@
เครื่องใช้
570
ชั้นนี้
เมื่อกี้นี้
เผื่อ
ความชุ่มชื่น
วาล
550
เป็นสาว
วิจารณ์
เฟอร์นิเจอร์
๗
ขัน
เฉิน
ครบรอบ
นุ่ม
งานศิลปะ
อัสนี
ผ้าม่าน
ตก@@
ค่าเหนื่อย
กดดัน
อ่าง
สต@@
เปื้อน
“@@
ฟอง
อุทธรณ์
ผู้เข้าร่วม
ตอบแทน
ที่ใด
จำพวก
ยี้
ถึง@@
....
53
ลูกบอล
นวม
MA@@
ผู้คุ้มกัน
เกมส์
โ@@
4800
แพร่หลาย
2595
In@@
2650
145
สิ่งจำเป็น
ดินสอ
ผู้รอดชีวิต
ุ@@
650
2250
รับใช้
บรรดา
มอบอำนาจ
แว่นกันแดด
เสรีภาพ
ความไว้วางใจ
ซัน
ภู่
าม
LINE
คุ้นเคย
การตัดสินใจ
สองหน้า
67
เล็ง
มิลลิเมตร
ห้อ
แก้ม
เพื่อที่จะ
โจร
ู@@
กระจกเงา
เอก
ค้ำจุน
399
พลอย
เบราว์เซอร์
เดิน@@
￥
9356
แรงงาน
หลอดเลือด
EN@@
เทพี
38@@
รช
ฟิ
305
หลายเท่า
0.25
สิวหัวดำ
.อัพ
ั้น
บรรพบุรุษ
คึกคัก
กรณีพิเศษ
★
ปักกิ่ง
เข้มแข็ง
เฮ้
ิง
หญิงสาว
ผ้าพันคอ
เนีย
วสี
ปรึกษา
ทะเลสาบ
ความโค้ง
ชั้นดี
เรซิน
สายตรวจ
รอยย่น
1.0
โปรดทราบ
นั่นแหละ
ได้มาตรฐาน
สับปะรด
ลุย
พัสดุ
เจิ้ง
การขับ
ff
UV
นึกไม่ถึง
ความนุ่ม
ผ้าห่ม
สูงส่ง
มีคุณค่า
ขอความช่วยเหลือ
ของแข็ง
แผนภาพ
ความชอบ
ไซเรน
ผ้า@@
|@@
วรรค
เหมย
7450
พาวเวอร์
สิง
จิ้งจอก
Ⅰ
ไม้@@
2.2
อี@@
แรม
วารี
เวิร์ด
23.00
สาร@@
เข้ากันได้
หลั่ง
เรียบเรียง
ภาชนะ
จัดซื้อ
รั่ม
อุปรากร
สระผม
มีจำกัด
465
ตั@@
เว@@
per
จุดสิ้นสุด
ไวรัส
สีตก
แยกแยะ
ป้อมปราการ
ความเรียบง่าย
สนามแม่เหล็ก
347
การซื้อขาย
ac@@
ยิ่งกว่า
เครื่องดื่ม
......
เป็นไปไม่ได้
370
้ง@@
เข้าด้วยกัน
็ก
คราวนี้
ขั้นสุดท้าย
อม@@
่ง@@
115
1550
107
ครอบครอง
lo@@
”)
เว้นแต่
กวน
พบเห็น
บังคับใช้
ตลอดกาล
พิกัด
เจ้านาย
๘
องครักษ์
ทิศเหนือ
กิโล
เช่า
อะ@@
นู
เผชิญ
แรงโน้มถ่วง
ตรวจวัด
อปร
คู่@@
ขวาน
ทางสังคม
นันทนาการ
454
Push
ดึก
เครื่องแต่งกาย
เกรง
เชือกผูกรองเท้า
666
ชุดกีฬา
วัยกลางคน
ปีใหม่
ล้าง@@
สักที
ใน่
998
ขวบ
ก้าวเดิน
พี่สาว
นามสกุล
หมด@@
หลิ่ว
กะทันหัน
น่าเชื่อถือ
คดี
สักพัก
โถง
ความบริสุทธิ์
2558
71
ระดับเสียง
เท่ห์
ทรยศ
ความร่วมมือ
ให้นม
ประธาน
มาร์ช
รด
โรคระบาด
430
เข็มทิศ
อนามัย
กันฝน
38000
หนังกำพร้า
ฟอ
กึ่ง
รถราง
----
กระพริบ
คาดหวัง
พยาน
1280
อาบ
เปิดบัญชี
เด็กผู้ชาย
จริงจัง
ตรงเวลา
ครีเอท
จุ
การกำกับ
ชล
ความระมัดระวัง
ผู้ใช้งาน
กก
ผู้อนุมัติ
>เล
ปั@@
ไท่
จอก
3010
โล@@
ทิ@@
เพลย์
ฉลาม
เมลานิน
ang
AR@@
lu@@
121
เหล็กกล้าไร้สนิม
316
สเก็ต
เงือก
บทความ
การทอ
ฟี
ไทเทเนียม
ภาพยนตร์
เพศ
การท่องเที่ยว
ส่งสินค้า
เป็นโรค
FBA
ทะเลหลวง
ลัทธิ
3460
อิ่มตัว
เลือน
พอแล้ว
กุด
ไม่งั้น
7.5
ต่อจากนั้น
สามสี
สละ
อาละวาด
4100
นับไม่ถ้วน
แทรก
ปอนด์
100@@
อ้าง
จล
ได้เวลา
ลาดตระเวน
หวง
ที่อื่น
กั@@
ทำสัญญา
ผู
รย์
เบ
730
ความผิดปกติ
แอรอน
1580
648
ขอด
ประหยัดเวลา
ริ@@
2.4
ฝูงชน
เท้าเปล่า
ตรงกันข้าม
บัด
ล้าสมัย
จำคุก
ชะ
ก้าวหน้า
720
ปลายทาง
ข่าย
อยู่กับที่
เซสชั่น
ทรวงอก
ริมน้ำ
ลา@@
ประวัติการ
วน@@
ซอ
สติ๊กเกอร์
สูญ
แม@@
แพร่ระบาด
kg
เพชรพลอย
มีเสียง
พร้อมด้วย
ทำนอง
เข้ากลุ่ม
อัลลอยด์
4.8
am@@
เส้นผ่าศูนย์กลาง
เดิมที
ชิ@@
สุภาพสตรี
น์
่ม
119
กรงเล็บ
#、#
เท่าไร
ถึงแม้ว่า
ประมาท
ผู้ชนะ
วัยเด็ก
ไก่
่ว
การกระแทก
หมึก
ลองของ
โดยปริยาย
ทุ่มเท
and
สี่เหลี่ยม
กัน@@
ขนาน
ส่งผ่าน
สี@@
เกี่ยว
มองดู
บรรพชน
เชี่ยวชาญ
คัท
ประชุม
อยู่รอด
แน่ๆ
0.2
แขวนลอย
ฝึกซ้อม
³
ขุนนาง
แอลกอฮอล์
ระดับชาติ
อยู่ดี
เย็บผ้า
พี่ชาย
คอวี
เดซิเบล
เกลือ
ความจริงใจ
แอนด์
แว็กซ์
แอบ
ดิบ
1.1
ตามคำแนะนำ
กิเลน
ชำระบัญชี
ไม้บรรทัด
เมาส์
อินเตอร์เน็ต
วัน@@
ter
าน
ม่
581
้ว
โตเกียว
ou@@
มาย
28@@
ความพึงพอใจ
คำบรรยาย
298
ผิดหวัง
mp@@
้า@@
คนชั่ว
หมวด
อนุมูล
1.3
มาตรการป้องกัน
980
ดอกเบี้ย
แตะต้อง
แอปเปิ้ล
บท@@
635
3150
ยั่งยืน
หัตถกรรม
กฎเกณฑ์
ha@@
มิถุนายน
เวทย์
คลอดลูก
เสื่อม
ัก
@@
โว
ซ่า
ฟอร์ด
โดยเฉพาะอย่างยิ่ง
นรีเวช
ความลึก
อายุใช้งาน
แพะ
ชักโครก
to
การต้าน
ฝีมือดี
ยศ
ลิงค์
อ้อม
ทางได้
102
สอบเทียบ
ฉาย
ฟุตบอล
2.25
ค่าเสียหาย
แก๊ส
วแทนท์
แปลงกาย
ตี@@
ลุกขึ้น
et@@
</
87
าด
แกว่ง
ตำบล
ir@@
cent
ข้อควรระวัง
ตกหล่น
ยอ
อพยพ
ความเป็นไปได้
ให้สี
กระเพาะ
วันหนึ่ง
+@@
ประหลาดใจ
ปฏิ@@
รู้@@
พ่อค้า
การสลัก
กาก
ซึ่งกันและกัน
สะพาน
ลิ้น
ข่าวสาร
103
ปูพื้น
ผู้รับผิดชอบ
่น@@
ัน
ผัด
กระจอก
ช่วยไม่ได้
รวมพล
ตั้งแต่แรก
ปุ่ม
Ⅱ
5.@@
จุดบกพร่อง
โมโห
）\
ส่วนลึก
PP
กู่
on
760
ฉาง
สุริยัน
เอา@@
ก้า
ทำตัว
รอยแผล
สมรรถนะ
te
ท้องที่
324
ค้ม
อร@@
377
3.2
การระเบิด
กลยุทธ์
1875
รวบ
ตุ้ย
ss@@
เยอะแยะ
8.@@
1880
สิงโต
ตัวอย่างเช่น
ตรงนั้น
แคน
มิตรภาพ
หนทาง
ดึงดูดใจ
ดัล
ซิลิกา
★★★★
มิดชิด
เสียง@@
พีช
บทบัญญัติ
％\
แอนไอออน
757
oo@@
แน่นหนา
ครีมกันแดด
ฝ@@
เจ้า@@
ตรุษจีน
7680
กางเกงว่ายน้ำ
จอด
โทน
ปฏิบัติการ
ชั้นเรียน
243
คลินิก
ป่วย
จัดหมวดหมู่
สํา
พูด@@
el@@
จุก
ธูป
โม่
หา@@
เปลวเพลิง
เตรียมการ
แปลกประหลาด
รุ@@
ทาส
【】
เส@@
อู
พิรุณ
รถม้า
เวิร์ค
ใจกลาง
83
เปล่งแสง
3350
ับ
แหลมคม
ตั้งขึ้น
น่อง
สลิม
มุต
พันธนาการ
ลงวันที่
มองหา
ดัด
!@@
ถูก@@
เร่งด่วน
เเล้ว
กำลังไฟฟ้า
ตัด@@
ความสดชื่น
ฟาด
แตกหัก
ศุกร์
ชี
พร@@
สะ@@
ลิสต์
กว่าง
ay
104
พวงมาลัย
ลูกพี่
การสังหาร
ตู้เสื้อผ้า
ฮะ
ปวดหัว
เปียโน
เป็นเจ้าของ
ผู้สร้าง
ชั่ง
การนำทาง
สรีรวิทยา
การบริหาร
5.4
คลาดเคลื่อน
ขึ้นกับ
ฝี
551
ส่วน@@
เตรียมพร้อม
เต่าดำ
การอัญเชิญ
แรงดูด
101
45@@
ยัท·
2.3
·ค
ค้ำ
คุม
ได้รับบาดเจ็บ
คำราม
ต้น@@
89
แลกซ์
โรมัน
เขี้ยว
วันสุดท้าย
ล้างบาป
คลื่นเสียง
388
2015
นพ
ลำไส้
รอม
ยาสีฟัน
ช้าๆ
157
ชีวิตชีวา
เป็ด
แก่ตัว
เมมเบรน
นิ่งเงียบ
AS@@
Ch@@
อื้ม
ปลายเท้า
คลาสสิค
บร
แหละ
ช่วยชีวิต
กำมะถัน
เจือจาง
158
กระทิง
เครื่องยนต์
ผู้เฒ่า
รู้ใจ
di@@
อังคาร
12350
อำ
พราว
กรม
อินทรีย์
สรรเสริญ
ดอน
หนึ่งเดียว
2557
หลุมฝังศพ
z@@
เวลาเปิด
ภาค@@
ระ@@
กลิ้ง
SSSR
colorid
สายตายาว
=|
เมืองหลวง
（@@
แอมโมเนีย
ตามคำสั่ง
ข้อได้เปรียบ
299
ยู่
ออโรรา
390
.+
บอกเลิก
ลูกชาย
ดวงดี
อบ@@
เจียง
ปั้น
690
รั่วไหล
CO@@
ละทิ้ง
ความตั้งใจ
ให้หลัง
29@@
รับมอบหมาย
ห้าสิบ
โฮ
คอมเมนต์
207
ครอบงำ
ปะการัง
เคราะห์
โอ@@
เป็นไฟ
LA@@
#\
ชั่ว@@
ชำระหนี้
460
ขัดแย้ง
พายุไซโคลน
94
โยม
คลังสินค้า
มาสู่
อ้า
ถ่ายโอน
579
จิ@@
เอาต์
ปรัชญา
อิ่ม
1299
204
ค่าเช่า
ละ@@
62
ลูกศร
ตามกำหนด
สะบัด
ลี้
รับคืน
640
4200
เหลว
ทำความ
ฤ@@
เปน
การกัน
co@@
สายพาน
ปาฏิหาริย์
สุด@@
ยะ
ด้วยใจ
ปีก่อน
ค่าบริการ
ราคาขาย
วั@@
Retsu
ระบุชื่อ
กินข้าว
ดูถูก
ี่
ทู
กำบัง
อง@@
ท่ามกลาง
เช@@
บาด
เอาล่ะ
อัลบั้ม
ห้อง@@
ค่าหัว
ไห่
บัญชีดำ
นาม
id@@
ขัด@@
ยอมให้
1700
สตูดิโอ
ไหมพรม
2220
ใช้ประโยชน์
การจัดจำหน่าย
สั่งการ
้า
สปอ
แบ@@
215
ะ@@
ดวงจันทร์
672
748
บัดนี้
มาลี
จระเข้
เงินเดือน
พอเพียง
ho@@
การผจญภัย
ทิศใต้
ควบคู่
208
ซัมเมอร์
ต้องหา
ร้อนใน
จุดชมวิว
เฟท
ไวน์
272
มุ่ง
นอก@@
นาฏศิลป์
178
รอยสัก
ลำคอ
จากไป
กว้างขวาง
ใช้เวลานาน
Z
มีส่วนร่วม
เจีย
ทุ่ง
475
ก่อ@@
ไม@@
ั@@
แจ็ค
ลัง
op@@
กล่าวว่า
นำไปสู่
หว@@
710
1100
ครัว
เฉ
4076
คบ
ทำกิจกรรม
DI@@
การพักผ่อน
ลาจาก
เกียรติ
เป็นปกติ
ro@@
ภูผา
การประมวลผล
4763
การระคายเคือง
นำร่อง
พาส
วูด
ใต้เท้า
เจาะจง
2289
กดขี่
๑๒
เดินผ่าน
490
รำ
ไป@@
อันที่จริง
สัญชาตญาณ
ตารางเมตร
108000
หนาน
ื่@@
2674
พั@@
ยามา
ถอย
301
การเขียน
TA
เร็ก·
วันอาทิตย์
ไร้กังวล
ปิด@@
คิรี
บุปผา
ไมครอน
เว่อร์
วิชาชีพ
หนวดเครา
บทเรียน
เช่นเดียวกัน
ชั้น@@
tion
สั่งสอน
ประเด็น
ประจำเดือน
เหงือก
คํา
ผู้บัญชา
เรเดียน
77
000
การสลับ
ซึมซับ
พวกพ้อง
ขรุขระ
สถานที่ก่อสร้าง
หาร
372
3985
ป๊อป
นี้แหละ
บทเพลง
เส้นตรง
ํา@@
ๆคน
11.@@
กีฬากลางแจ้ง
ผ
885
ไมล์
เครื่องวัด
คร่า
171
HUD
ต่อหัว
จัดกลุ่ม
ประคบ
เม็กซิโก
หยดน้ำ
แล็ปท็อป
าย
เซิร์ฟ@@
เล่าเรื่อง
ความอ่อนโยน
การระงับ
ที่ระลึก
4585
จัดตั้ง
ul@@
0,000
สุนทรียศาสตร์
แอฟริกาใต้
ลิขิต
กระเป๋าเดินทาง
ดับ@@
ความงดงาม
กลางอากาศ
ap@@
530
โลว์
MP
246
ขุนพล
ความน่ารัก
หนังสือเดินทาง
ตง
ใยสังเคราะห์
เด็กทารก
ชั้นนอก
รับสมัคร
เป็นเกียรติ
：%
ม่าน
241
บทกวี
แต่กลับ
หน
เปิดช่อง
]
เกิดเรื่อง
คอจีน
ข้อเท็จจริง
46@@
ติ้ง
เชียว
เบิก
กรู
น้องสาว
ปรูด
คลอ
โดยสิ้นเชิง
EL
จักรยาน
อริ
โดยบังเอิญ
ong
STR
,000
ล้อเล่น
โอโซน
00000
บรรพกาล
หลักเกณฑ์
191
มต
ความสง่า
เบี่ยงเบน
ลุ
บริวาร
ที่ยอมรับ
เส้นผ่านศูนย์กลาง
โซโล่
1314
(“
อับอาย
หนังไก่
น้ำเหลือง
สรรพคุณ
พิชิต
=@@
โคล
การสวม
ฟท์
อเวจี
om@@
เชิงพาณิชย์
el
ยากลำบาก
กระทำ
ต่อจากนี้
กองทุน
ส่วนกลาง
401
ทดแทน
กห
โชคร้าย
ตอน@@
สยบ
ชุน
มั@@
ไฟไหม้
พังทลาย
592
ขี้หู
_#*
แปรงฟัน
404
ถ้วน
สอด
กุมภาพันธ์
LO@@
บังเอิญ
+%
ระเบียบ
ที่มั่น
ิม
ื่อ
องค์
RMB
ใช้ไม่ได้
ใครๆ
เมืองร้าง
เดินเล่น
คุณภาพชีวิต
สาหร่าย
เปิดร้าน
เจ้าที่
วัดอุณหภูมิ
ชู่
ว้ะ
บูชายัญ
%】【
ปฏิสัมพันธ์
3.1
คนอื่นๆ
ลงตัว
5625
น้ำฝน
ความลึกลับ
รวย
น้ํา
ค่าขนส่ง
2600
ทำซ้ำ
ฟ้าผ่า
เฉ@@
173
69
11300
เปล่งปลั่ง
แป้ง
ออสเตรีย
ละออง
24000
กรรมวิธี
443
กันและกัน
156
พิกเซล
หมัด
อ๋อง
ANG
ตาง
กำ
เงินทอง
：@@
ประมูล
？\
อาคม
IM@@
รีเทิร์น
ถาด
เปลี่ยนเส้นทาง
โฮม
.2
wifi
、ขน
ภาพวาด
คลอรีน
414
ทั้งปี
670
จับ@@
ป่ะ
565
พอง
ผมหยิก
407
เห็นชอบ
ทดลองใช้
แรง@@
เป็นระบบ
www
CPU
ครู่
บ้าบิ่น
บันเทิง
343
หันหน้า
เมื่อ@@
อับ
เหมือนว่า
ขอแต่งงาน
HJ
ค้อน
ทั้งคืน
9.@@
โดยประมาณ
โง่
116
ทำลายล้าง
โดยรอบ
จิง
มหาสมุทร
256
แ
ตลอดจน
มีฝีมือ
312
ภูมิใจ
เวียนหัว
ดุร้าย
หลบหนี
ขยายเวลา
มาแรง
เลี้ยงดู
เบสบอล
ว่าที่
12000
8750
ฝีเท้า
จดจำ
พองลม
สิทธิประโยชน์
ค้นพบ
ุด
ื่ม
มูล
โปรโมชัน
นักบุญ
งด
79
น้อง
ตรวจหา
74
2100
ปวดหลัง
264
คำร้อง
9950
หัวแหลม
เส้นประสาท
อายุขัย
เมื่อไหร่
20200
สีหน้า
ร้าว
Kai
เอาใจ
หลุมพราง
เดี๋ยวก่อน
คนแก่
ทร@@
จุดสำคัญ
ลฟ์*
แพน
ปรู
ชิน
อนุญาโตตุลาการ
50@@
167
·เฉียน·
เซิร์ฟ】
1401002162
แผนผัง
ความบันเทิง
การรั่วไหล
สิงห์
เปป
เสียงเพลง
106
การพ่น
ฟ้อง
LI@@
พี่น้อง
ลิ้นชัก
เฟส
เป็นสนิม
หุ่น
ั
ดื้อรั้น
ห้องครัว
ไลค์
พุธ
อย@@
ปาก@@
ก่อนเวลา
รหัสไปรษณีย์
เข้าหู
กระทั่ง
346
คาง
437
คัดค้าน
พอร์ต
IPX
จัตุรัส
ความสนุก
2.7
4.3
ผู้บังคับบัญชา
;ดรอป
แค้น
ไฟฟ้าสถิต
การจำแนก
พีวีซี
เบื้องบน
ดำน้ำ
by
บัฟบน
ความยากลำบาก
เข้าใจผิด
หมอบ
★★★
เป็นได้
3625
โห
น่าสงสาร
อุดมคติ
ปรับตัว
en
รับทราบ
ส่วนมาก
il@@
ไกด์
.%
หลังคา
201
ทิช
13.@@
ad@@
โลชั่น
โอ้
พอ@@
515
วสกิลด์
★★★★★
ซินเจียง
เพรียวลม
อารมณ์ดี
้อ@@
สมุดบันทึก
โครงร่าง
คนดี
อร์@@
ทอด
เมื่อยล้า
กันแสง
กันเอง
จั๊ม
หนี้
ซ.
ร่วม@@
มู
268
เรียนจบ
โน้ตบุ๊ค
สินค้าหลัก
พระพุทธองค์
164
คอนโทรล
โรค@@
โดยละเอียด
ระยิบระยับ
หยิก
๑๐
อ่อนหวาน
OR@@
โก้
บ่าย
),
ทุกชนิด
48@@
AN@@
ช่วยกัน
70170
อุป@@
รู@@
ของจำเป็น
หัน
มิ@@
นิทาน
แพนด้า
ปารีส
ล่าช้า
ผิด@@
คนละ
ปรุง
โบยบิน
จัดเรียง
โมจิ
ที่พัก
หู@@
แฝด
ให้หน้า
ยม
สหภาพ
ลัก
มะ@@
จรัส
นารี
เยือกแข็ง
เป็นพิษ
num
qu@@
เหี่ยวย่น
กู้ยืม
เพียงผู้เดียว
คนรับใช้
องศาเซลเซียส
ทุกสิ่งทุกอย่าง
สนอง
、@@
สายลับ
888
แข็งตัว
ประทับตรา
•
①
คอ@@
อี้
ip@@
สกรีน
ฝ่าฝืน
งานหลัก
ลำแสง
ไตร
โกลด์
ถึงขนาด
ตะแกรง
กระดูกอ่อน
Pro
เจ๋อ
กรง
เปา
คันเบ็ด
ทางไกล
|>
ย่อท้อ
พู่กัน
เพ้อฝัน
จำไว้
ตลก
ภ@@
เครื่องตกแต่ง
หาไม่
61
รองหัวหน้า
อัน@@
ที่ราบ
ทางเหนือ
เกี่ยวเนื่อง
ซิลเวอร์
46780
；\
นร
ร่าเริง
ed
ความสูญเสีย
ู่
น้ำสะอาด
st
มั่ง
กสทช.
เผ็ดร้อน
คงตัว
สาระสำคัญ
151
น่าเกรงขาม
14.5
0.6
ผลได้
บังกะโล
สนาม@@
จด
ตะกั่ว
เฟือง
ผู้ชม
800000
ี่@@
กะ@@
บิต
ิน@@
สาธิต
นับถือ
MATSUYAMA
น*
179
แก้วน้ำ
กลียุค
ถ่าย@@
ชา@@
ซุ่ม
ยัย
PE@@
ความเชื่อ
เชิญชวน
รีโมท
143
คอร์
ชน@@
จู้จี้จุกจิก
ปริมาณมาก
นั่นสิ
ปลา@@
ON@@
242
ภาพลวงตา
หน้าเป็น
ของฝาก
as@@
สับเปลี่ยน
สีผม
โรคจมูกอักเสบ
สูญหาย
บั@@
จำแลง
แนล
เจริญ
SU@@
เจี้ยน@@
เงินกู้
ลังเล
ถ
บอกเล่า
hy@@
อัง
ถา
ผู้ติดตาม
อย่างเช่น
_#！
แสตมป์
ตะกอน
2000000
สาม@@
ตำรวจ
ประสงค์
123
421
รวมทั้งหมด
960
ขอบใจ
สี่เหลี่ยมผืนผ้า
จื่อ
3945
335
ภาระหน้าที่
กำหนดการ
ปลูกฝัง
จืดจาง
ด้วยซ้ำ
งานบริหาร
มงคล
ำ@@
ส่งต่อ
เต่งตึง
36000
แอก
134
โครเมียม
ปวดร้าว
กษัตริย์
เปิด@@
Zen
170@@
แผ่
ตุ่ม
ความทุกข์
mAh
ความตึงเครียด
ช่าง@@
ปฐพี
ปริศนา
Jin
355
เตอร์
176
ยื่นคำร้อง
it@@
ไฮโดร
512
368
j@@
259
ขอ@@
หุ่นยนต์
ต้ม
1750
เลื่อก
อัตราภาษี
\"
ชั@@
รู้ดี
สารวัตรทหาร
ผู้ยิ่งใหญ่
เที่ยง
การจราจร
ดวงวิญญาณ
ตัวเรา
ผัน
แทบ
กลิ่นอาย
กลุ่มอายุ
Mana
me@@
มีระบบ
โลจิสติกส์
ค่าตอบแทน
ค่อม
สุข@@
ว่าน
กำ@@
ลฟ์·
ว่าจ้าง
เบรค
…
เค้ก
ไฮไลท์
โดยเฉลี่ย
เพื่อนสนิท
แสดง@@
เถิด
2007
น้ำเต้า
รากผม
การขี่
349
ห้องปฏิบัติการ
ตึก
XXX
692
กักขัง
เติมเต็ม
บิชอป
ความสงบ
รุก
สบายดี
ศรี
ไลม์
ราชครู
ตามจริง
ใบกำกับภาษี
สามัญ
ปุ่มกด
ปรับระดับ
ฟิสิกส์
เชฟ
ฉลาก
ฟอกขาว
ครั้งแล้วครั้งเล่า
DIY
ช่วยด้วย
นต์
เส้นเอ็น
เป็นธรรมดา
อัตราแลกเปลี่ยน
Pyou
ร้ายกาจ
เงามืด
ษ
XL
วด
ึ
มี่
ตระกูล
แพร่
น่าสะพรึงกลัว
เป็นกลาง
ดา@@
น็อค
ที่แท้
ให้รางวัล
ไหร่
แยกประเภท
เพลิน
สู้รบ
หลง@@
％
บรรเลง
เก๋
บัลเล่ต์
นาฬิกาปลุก
สปอนเซอร์
639
ซอง
มิวสิค
ภูมิแพ้
ปิ่น
สิ้นเปลือง
ถุงลมนิรภัย
หือ
740
ัง
เก็บภาษี
ล้มละลาย
เป็นไป
แว@@
การเข้าสู่
ชะลอ
โน@@
การร้อย
ค่ารักษา
NO
แท@@
ประจัญบาน
มุง
ศาลา
กำหนดให้
สั่งจอง
ผู
นกยูง
แฟนตาซี
บัตรประชาชน
คําขอ
bi@@
ข้อศอก
ตัวเมือง
เยื่อ
ละเมิดลิขสิทธิ์
โมง
ฝืน
24.00
177
คค
Sha
เด็กแรกเกิด
อ็อกซ์ฟอร์ด
โตะ
su@@
วาว
มีหน้า
วิ่น
ก๊อกน้ำ
it
เวลาปิด
Ma@@
เป็นบ้า
ด้วยดี
236
ดวงอาทิตย์
จน@@
5312
เฉพาะที่
น่ารำคาญ
เมา
ไม
เร่งรัด
ตู
กลับคืน
แล้วไป
ฤทธิ์
ให้@@
สะกด
.4
4057
วัตต์
338
ความเหมาะสม
ธนบัตร
นางสาว
เสพ
sp@@
ฟื้นตัว
โลหะหนัก
300@@
โพลิเมอร์
อย่าง@@
1200000
สินสอด
แบบพิมพ์
กด@@
หยุ
ไคลเอนต์
Rin
】@@
แนะ
กลายพันธุ์
เครดิต
การทำลายล้าง
คาดไม่ถึง
หนาวเย็น
วาย
ีบ
ห์
ค่าชดเชย
ลอบ
11310
ศาสนา
เทนนิส
235
รับสัญญาณ
โอเวอร์
สล็อต
ความสมบูรณ์
รมยา
ชั้นเดียว
717
②
จร
โจรสลัด
กรวย
เมื่อไร
๊@@
ราวกับว่า
ยัน
307
จิมมี่
เข้าบัญชี
เส้น@@
ชุ่มชื่น
ออ@@
มืน
สมัยโบราณ
ชี้ขาด
ด้วยเหตุนี้
ื่น
หอย
762
ราคาแพง
จัดวาง
ข่าวลือ
สรรพสิ่ง
Flyknit
อาหารเช้า
รุ่งเรือง
สมัยนี้
ทักทาย
3.0
การแย่งชิง
ความยาวคลื่น
สุขสันต์
รัก@@
18485
สวิส
วัยหนุ่มสาว
เลขประจำตัว
เที่ย】
รว@@
เอี๊ยม
ag@@
อัคคีภัย
ไร้สาระ
สตาร์ท
แฟลต
ตื้น
เฟรม
แป@@
เจิด
ภรรยา
126
ถัว
เจ้าเมือง
ร้า
โร@@
J
เบรก
หักหลัง
หน้าผา
ซ้ำๆ
ลิป
ฉี
ผู้มีอำนาจ
พฤหัส
2.75
696
ช่องหู
งกัส·
@
มานะ
113
-Debuff
222
มูลค่าเพิ่ม
us@@
ขึ้น@@
การยศาสตร์
วงดุริยางค์
แพร
ความมีชีวิตชีวา
ให้ความร่วมมือ
ทั่วหล้า
3660
162
มีราคา
TI@@
สับ
ให้คะแนน
จวน
●
11520
เก็ต
25500
2303
1054
เครื่องหมายการค้า
เสนห
4101
พื้น@@
แซก
อิฟ
การแกะสลัก
7500
เขตแดน
กลางคัน
พฤติ
เสี่ยง
สงบ@@
กรุงเทพมหานคร
การประชุม
จังหวัด
แร
%%</
เส้นเมอริเดียน
10.@@
สวนสนุก
สืบ
คุมขัง
ดับไฟ
เหงา
ป่าไม้
เพดาน
รีดผ้า
599
บัฟเฟอร์
สัญญาซื้อขาย
เด็กสาว
ตอนบ่าย
็น
เท็จ
40@@
เงียบๆ
449
ดั@@
0.7
EXCEL
คืนให้
12510
จำ@@
่อง
14000
ฮู
แอ@@
อำนวยความสะดวก
มะเร็ง
ซี@@
405
ความอดทน
3840
์ม
166
หนวกหู
ฟาร์ม
เนื้อ@@
ทางใน
งง
มีความสำคัญ
โช
ย้อน
558
364
จักรเย็บผ้า
ดิก
สร้าง@@
แต่ก่อน
e-@@
187
เชื่อฟัง
กลศาสตร์
มีโอ
อัปสร
UN@@
ห่อของขวัญ
คุณสมบัติพิเศษ
ดล
ไขว้
หรับ
09
โพรงจมูก
iOS
Re@@
ค้นคว้า
)\
！！！
ซือ
นำเสนอ
.,
จะแจ้ง
มต@@
ลำพัง
ลูบ
มีตระกูล
การอธิบาย
คนเอเชีย
พึ่ง
เชิงเส้น
หมิง
นํา
EN
มวลชน
ทัณฑ์
โวการ
Tou
สถานประกอบการ
455
4.4
ยกขึ้น
แป้น
พัลส์
วดี
2008
ให้เสียง
527
การสู่ขอ
เจี้ยน、
การเคลือบ
147
ซีด
แสงจันทร์
ยอดจาก
427
มาเลเซีย
ย่อ
ประดิษฐ์
ขัดจังหวะ
ในเวลานี้
ถือกำเนิด
มื้อ
3931
นี@@
13282
น้า
850
LION
เนตร
จัดระเบียบ
308
ฆา
นักกีฬา
ยาง@@
ขั้นพื้นฐาน
แข
ล็อบส
สัตว์ประหลาด
ย่าหยา
หยาบกร้าน
ดวง@@
เชิงกล
มาตรฐานสากล
ผอมบาง
688
แบ่งแยก
แฟ@@
ประกอบธุรกิจ
ข้อสังเกต
มั่งคั่ง
ความชื่นชม
ตลับ
เดือดร้อน
ss
รร
-B
เหวี่ยง
556
ศอก
สิ่งอำนวยความสะดวก
วส】
142
668
การบำบัด
356
กลัก
1.8
ท้อ
หิว
ฟัก
ทั้งที่
ความก้าวหน้า
กลมกลืน
ดาว@@
น่าตื่นตาตื่นใจ
610
เป็นงาน
ภา@@
180000
?@@
ล+
จากกัน
มหายาน
han@@
ประดู่
to@@
เดา
ติก
233
่าน
เร่ร่อน
เซลลูโลส
วม
ดี้
กลา
302
าง
789
ชดใช้
โกดัง
445
เพราะอะไร
ระหว่างทาง
ความดัง
รน
กรรม@@
10500
อียิปต์
ไส
สว@@
เชิง@@
ส่งเสียง
นึง
เหมือง
คอน@@
เป้ากางเกง
รัง@@
เพิ่งจะ
กางเกงขายาว
บ้านเกิด
ขั้นสูงสุด
หลอดเลือดดำ
ตร
ยู@@
สุภาพ
·ลม·
ท้องทะเล
(/)
เด่นชัด
ยอดเขา
ญาติ
เก็บตัว
）@@
พี่ใหญ่
IP@@
บวง
กัลป์
ิ่ง
501
36@@
ำ
148
ทางเศรษฐกิจ
เป็นไง
คุ@@
257
สรูป
326
357
กันต์
ป่าน
หนุ่มสาว
โม@@
ว้าว
วิบัติ
154
Me@@
กลับด้าน
514
ซุป
ตามความเป็นจริง
ลักษณะเฉพาะ
เอย
ขยี้
499
LE@@
เชอ
กู้ภัย
เซน
ผ้าเช็ดตัว
ช่อง@@
กําหนด
พเนจร
เก็บความ
617
แก้แค้น
☆☆·
เชื้อเชิญ
ที่หก
คัล
ไลท์
ราง@@
ม็อบ
6750
เปิดไฟ
เง@@
319
De@@
408
กบฏ
Oppo
369
ฉ่ำ
มาสาย
น่าจะเป็น
เห็นชัด
จำกัดความ
คั่น
ขนส่งสินค้า
ทางซ้าย
QR
เฉิงตู
283
แห
ซิก
วี@@
ประทับ
ลำดับชั้น
สน@@
การประกาศสงคราม
วก
เน
คลื่นความถี่
as
AC
เลื่อม
หลุดพ้น
คนตาย
66@@
111
เย็นชา
นิดหนึ่ง
3.3
ห้องรับแขก
การเงิน
ฟัน@@
คั@@
ขาเข้า
บรรลุเป้าหมาย
1050
แค่นั้น
ปล้น
58@@
คนพูด
ค่อน
ไพลิน
ขออนุญาต
การบวม
IOS
·ซ
ประสาน
ปนเปื้อน
พุ่งชน
เรซิ่น
เห็น@@
406
พันธุ์
คดเคี้ยว
267
ที่อยู่อาศัย
จดสิทธิบัตร
เวลานอน
ยุทธ
เสี้ยว
่ย
กลาก
สักครั้ง
๙
มุม@@
บาล
เวียร
442
การลงนาม
2.8
ชี้แจง
27750
419
471
บลู
พรต
คว๊อทซ์
ประจำ@@
สิ่งใด
คว่ำ
ทางผ่าน
354
1.4
รุ่น
มารยาท
ความดี
ระฆัง
ฉะนั้น
539
บรรยาย
หรั่น
หล่อหลอม
จอภาพ
552
701
715
คุกคาม
กราฟ
LE
ใหม่เอี่ยม
บัตรอวยพร
วอ
มาสก์
461
การยกเว้น
ยง
ซ้ำ@@
303
เหนี่ยว
หนักแน่น
286
ไดอารี่
ัก@@
594
~@@
สหรัฐอาหรับเอมิเรตส์
ยิงกราด
★★
ค้น
ตัวควบคุม
ซุน
อัพโหลด
ad
เด็ก@@
ช่างเถอะ
อ่ะ
ฮ็อต
จสกิล：
ลาย@@
ให้น้ำ
ผู้ใช้บริการ
ผู้เยาว์
โรง@@
XXXX
หลบเลี่ยง
ลมกรด
เปรี้ยว
บอร์น
จค
ชาด
535
797
ตาโต
ความเป็นผู้หญิง
โพลาไรซ์
กะพริบ
ทันทีที่
Di@@
ครั้งหน้า
ตลอดทั้ง
เจริญรุ่งเรือง
บัตรเติมเงิน
322
ยิ@@
277
เปิดปาก
ลดความอ้วน
อล
ผู้ป่วย
ด้อย
ชิงชัย
กระเรียน
พุด
โปรโมท
5220
ลายอย่าง
1350
เฉพาะเจาะจง
ตกแต่งภายใน
เสื่อมสภาพ
ให้คำปรึกษา
593
แคชเมียร์
ความกล้า
เซ็นสัญญา
≥
หยุดนิ่ง
นั้นแหละ
น้องใหม่
144
4053
เครื่องฟอกอากาศ
กองหนุน
743
ข้าง@@
กิโลเมตร
ย์@@
หางจระเข้
466
ไร@@
เภสัชกรรม
อาหารเย็น
ชั้นบน
กระท่อม
บุ@@
721
ซักแห้ง
TPR
ชายฝั่ง
รับคำ
422
ไบ
สำ@@
1120
131
ภาพประกอบ
569
ดิ่ง
พริบตาเดียว
2277
Video
ํ@@
บก
มองว่า
กองไฟ
291
อวดดี
202
อาหาร@@
ซื่อสัตย์
เถาวัลย์
ยี่
ความกล้าหาญ
ของตลาด
770
3888
มีแนวโน้ม
477
279
สาบาน
775
ยินยอม
วย
ออยล์
ลวก
424
เปลือกนอก
ความวุ่นวาย
เรื่องสำคัญ
สักวัน
1399
ออกอากาศ
387
ระยะสั้น
น่ายินดี
มิได้
สินค้า@@
ทวี
กระหายเลือด
To@@
บรรทุก
ทางจิตใจ
590
มือขึ้น
อำนวย
ชัค
750000
2013
น้ำนม
ใช้บน
ให้โอกาส
กระดาน
HD
SVIP
ธุ@@
596
ไ@@
เครื่องเล่น
สอดแนม
เจ้าตัว
สังเวย
หักเห
TPU
น่าทึ่ง
เกร@@
ผู้วางเพลิง
๊ก
ท้องถนน
เต็มกำลัง
รุ่นเก่า
Nm
ใจจริง
บิดเบือน
！@@
ตั้งเวลา
751
สติปัญญา
ลาด
นัล·
จุลินทรีย์
จอห์น
431
คุณหนู
ทิน
ปลอกหมอน
พาณิชย์
un@@
ษ@@
เสียงดนตรี
เข้ากัน
ด์@@
Mobile
663
467
เอาท์
แต็ค
มีอิทธิพล
เครียด
กางปีก
ราชอาณาจักร
เยอรมนี
การรับรู้
โดยไม่รู้ตัว
227
429
วันพรุ่งนี้
591
ขนมปัง
ลิขสิทธิ์
8.4
พรหมลิขิต
แสดงความสามารถ
332
ปริ@@
ชงชา
ต่อย
รุจ
ครอป
SA@@
ปะ
รง
ซัพพลายเออร์
@@
→
573
ฮอร์โมน
BOSSLv
37625
1575
ไขข้อ
ือ@@
เคล@@
นำหน้า
iphone
159
()
716
ตกเป็น
665
การแพทย์
BO@@
ควอตซ์
ู่@@
ขวัญ
อินดี้
ทุกทิศทาง
311
8.5
ไดออกซิน
ชั้นล่าง
Downwind
ชุ่ม
ความยุ่งยาก
ลือ
231
ถอนเงิน
ผู้ต้องโทษ
214
ประสานงาน
516
564
สภาพร่างกาย
รูปสี่เหลี่ยม
มอ@@
8600
ปากปลา
ออกไซด์
ความรุ่งโรจน์
เซิฟ
สายเลือด
แฟก
เรื่องใหญ่
ขอ
น้ำมัน@@
ถือ@@
cut
Top
ต่อราคา
Die
ry
mm@@
ถี่
／
ทร
351
ร้องเพลง
378
·ฝน·
12.@@
วิสาหกิจ
ปะ@@
194
ลำบากใจ
๋อ
พุ@@
รัศมี
รถไฟฟ้า
ชะล้าง
428
*@@
โมเดิร์น
2.6
06
ลวง
Zai
ความในใจ
ถ้าอย่างนั้น
อินเตอร์
ชาติพันธุ์
MI@@
้ย
มีดโกน
GDP
ช็อต
ยว
ยืดตัว
232
521
210510
ปา@@
217
358
426
นท์
11330
109
เป๋า

ทัศน
เจริญเติบโต
การร้องเรียน
327
0.8
การสืบทอด
หม่า
793
ขึ้นรา
722
มูเนีย
สถานที่ทำงาน
บรร@@
ผู้มาเยือน
แน@@
กราม
การขับขี่
เลือดเนื้อ
Prime
4078
การเจาะ
ไฮโดรเจน
13611
ความเมตตา
2291
อวัยวะภายใน
Shopify
7640
เท็ม
ไวไฟ
ตั้งต้น
ผู้สังเกตการณ์
%】；
เครื่องบิน
โฟตอน
เปรียบ
รูปหน้า
13625
ศัลยกรรม
ช่า
กรรไกร
ขายต่อ
ซ้อนทับ
one
3977
ro
1007
มาโดยตลอด
ทรงเกียรติ
192
19750
Pixiu
495
เช็ต
7969
ลงอาญา
เลือด@@
ชั้นสอง
ทัณฑ์บน
าะ
กิ่ง
AN
【เซวียน
มลพิษทางอากาศ
ไหม้
from
69800
นิ้ว@@
อีกไม่นาน
เยือกเย็น
เหมันต์
ีย@@
ภาษาไทย
！！
ตัวใหม่
ปรา@@
หมาย@@
อีเมล์
ถุงนอน
แคมป์
1625
จงใจ
เน่าเปื่อย
บริติช
กงล้อ
ผ้าปูโต๊ะ
ความชื่นชอบ
ไม่ขาดสาย
เจี๋ย
ฟิ@@
รักใคร่
473
786
นับตั้งแต่
529
จุดประกาย
120000
671
ทั้งโลก
มัธยมปลาย
568
เนื้อคู่
ศุลกากร
ชีว@@
ทางเดียว
76@@
สำนักงานคณะกรรมการอาหารและยา
ชี้นำ
·เกิ้น·
หนี้สิน
สัน@@
ชะ@@
่า@@
ิล
la@@
มาร์@@
ความมั่งคั่ง
518
1680
ภูมิศาสตร์
LTD
พาด
528
3335
SK@@
447
สั@@
840
เด็กเล็ก
72000
แข@@
554
วิชาการ
มั่น
–
37@@
สรรพ
607
ปูนซีเมนต์
ปี้
น้ำดี
ข้อมูล@@
ชนบท
วาดภาพ
ผ่อน
แว๊กซ์
ยอดฮิต
YY
โบ@@
โซ@@
ลม@@
704
เรียงหน้า
ฮึ
274
พี@@
กู๊ดบาย
็ค
PROTECTION
ทุกเมื่อ
การมอบหมาย
294
ตามเข็มนาฬิกา
ษัท
แบ่ง@@
ซั@@
น่าเกลียด
วาดรูป
เจ๋ง
กำลังวังชา
ENVIRONMETAL
6300
ร้าน@@
>ลด
±
759
มืดมน
แปลกใจ
สัมผัสมือ
ic
แฟรม
507
ต้นทาง
ชี@@
451
3.25
ด้วน
่อ@@
ติดอาวุธ
Line
595
193
0.07
ประจุ
533
เครื่องเป่าผม
หง@@
ฝุ่นละออง
ถ่อมตัว
ขึ้นสนิม
ชุดลำลอง
ทิ
ประจำตัว
แฉก
หลอด@@
》(
763
โจ@@
/*
v
กัปตันเรือ
*/
xx
โควตา
402
แนวหน้า
78@@
me
ยาหมู่
Remote
ตัวกำหนด
ริเริ่ม
บอย
รื่น
ไข@@
ig@@
ต่อสาย
tt@@
if@@
การทด
เก๋ไก๋
เครื่องเสียง
แม่@@
1398
ทาสี
616
517
☆☆☆·
GM
บาง@@
png
ผลิ
323
jpg
5.6
ord
นึ่ง
แบบแผน
mini
2300
คิง
ความละเอียดอ่อน
นานาชาติ
ส่วนโค้ง
56@@
ภัยพิบัติ
608
ฟอยล์
ญ·
โหล
สมการ
597
ธิดา
ทุน
292
ไต่
เลิกกัน
เซวียน
สวมหน้ากาก
ปน
รั้ว
ระวังตัว
พานพบ
กรุง
ิ่น
เดินหน้า
โทรสาร
มอง@@
เพาะเชื้อ
ล่องลอย
436
582
506
10,000
แฟ
ค่าเฉลี่ย
ปลิว
เพิกถอน
บรรทัด
ละเว้น
ครั้งนั้น
ก่
เหล@@
109200
127
23500
อาร์@@
่าง
ปล่อยแสง
ตัดผม
เขิน
ถอยรถ
11020
488
หัน@@
สุกใส
GPS
662
เป็นใหญ่
·ขั่น·
ยัง@@
169
ขา@@
ts
สแควร์
กลด
563
พรรณนา
ฝอย
เสียงเงียบ
ส่ง@@
เกือบจะ
261
768
คลื่นแม่เหล็กไฟฟ้า
ก้ม
้อม
แบบฝึกหัด
ความขัดแย้ง
503
สักขี
วอลเปเปอร์
318
221
ภาระผูกพัน
ฮอลล์
571
Environmental
เลื่อนเวลา
ล่วง@@
ฮั่น
TEVISE
การเช่า
TH
รายใหญ่
%@
อบรม
มรณ
รอยแตก
122
แบบจำลอง
723
780
636
761
ความยุติธรรม
CVC
524
459
เป็นไร
เซนต์
ยาวความ
กงจักร
แค@@
0.3
ชนชั้นสูง
เคาะ
ี้
OFF
ดิน@@
640@@
คิดดู
น้อยที่สุด
AC@@
บัง@@
หัวเราะ
สีกากี
359
วิถีชีวิต
ST@@
182
น่าอัศจรรย์
523
642
แห่
฿
1401007322
มล@@
อวด
คอพับ
องุ่น
601
MAH
การปลุก
ตุง
เนื้อใน
ยน
แส้
วิคตอเรีย
441
นอนหงาย
457
วัง@@
97
รัส
พัก@@
หยุ่น
กลับเป็น
เรียงลำดับ
ตลอดทาง
คำวิจารณ์
Reno
ความเคยชิน
หยั่งรู้
มือขวา
เหล่
18100
si@@
452
ดิสก์
เหมืองแร่
ปรุง@@
561
ระย้า
แต่เดิม
เกรงกลัว
การแทนที่
686
ใ
การหลอม
2580
โฮสต์
ภา
หอก
คว้า
เดะ
iPad
เจี้ยนกิลด์
ทแยง
กระทำการ
คุณภาพต่ำ
อันเป็น
ทอดทิ้ง
237
เด็ดเดี่ยว
ซวน
เสียแล้ว
273
เจียว
476
546
มีความจำเป็น
ลด@@
เอ่อ
118
791
sh@@
รับเชิญ
AI@@
615
จูบ
แคปซูล
เฉียว
ลล์
296
สกาย
329
586
แจ่มใส
ระบบนิเวศ
ชนชาติ
ตล@@
ต่าง@@
~~
แปร
ทำนาย
Seller
กิลด์\
432
นอกบ้าน
433
ความประณีต
306
1996
389
99@@
รายปี
ล้มล้าง
พนักพิง
ออก@@
สำลี
ของป่า
โค@@
603
341
มัว
แช่เย็น
z
แบ่งกลุ่ม
ค้างชำระ
825
557
กุ@@
og@@
สะดุดตา
698
ประตูเมือง
ย้ายที่
บริษัทฯ
679
ถิ่น
228
183
ยึดถือ
727
หึ
เร่งความเร็ว
☆·
ซึ้ง
รักษาโรค
1530
ัส
ภาคผนวก
เชน
ภายในประเทศ
ทางข้าม
or
ชิม
。
★★★★★★★★★
แจกจ่าย
หญ@@
เป็นสาเหตุ
1260
เหาะ
792
ทศวรรษ
๒๕@@
223
เบิล
ความเคารพ
OK
576
678
แกล
งามตา
หายนะ
รับบริจาค
);
137
ด้
โร่
รอดชีวิต
ความเรียบ
397
153
๒๔
ZHUHAI
ซีเรีย
ณา
453
ป้องกันตัว
572
702
len@@
หลิว
ไร้@@
660
เสื้อแขนยาว
ผู้บริหาร
60@@
En@@
ไปรษณีย์
ควบแน่น
ครองเมือง
่ม@@
ang@@
ปากกว้าง
จงรักภักดี
อํา
อัพเดท
ลูกน้อง
แพรพรรณ
คัดสรร
คืนนี้
เป็นเลิศ
ช้าง
หายตัว
สกิลฝน
แฟลช
314
เฉิง
ch@@
บริบูรณ์
ทัส
shopline
4074
แพ็ก@@
2288
ไนล่อน
ฆ่าตัวตาย
478
แห@@
211
สืบ@@
ในทางปฏิบัติ
13.5
คืน@@
T-
ในนามของ
พยาบาล
เซี่ย
ถึงตาย
พา@@
ฐ
XINHUAN
ซากศพ
117
ation
ทำความรู้จัก
334
แคลเซียม
ระลอก
EL@@
เกล
ภูมิปัญญา
ได้ขนาด
799
PIN
708
ลุ@@
493
566
บรรณาธิการ
โท้ท
ไข้
องค
les
คนงาน
\\
·คน·
ชิ่น
ของล้ำค่า
um
อุดมศึกษา
384
PA
ทางขวา
ขี้
ลี@@
ส่งตัว
553
เปลือกไข่
2370
แคว้น
การฟื้นตัว
tur@@
ทุกวันนี้
เพิ่มพูน
575
เกสร
ฉลุ
แบริ่ง
กางเกงชั้นใน
536
คุณปู่
การถ่ายรูป
PM
ระบาย@@
ัด
กฏ
：$
ตัดแต่ง
ff@@
3.75
ิ่ม
""
ว่าว
ไท้เก็ก
เบิกบาน
เอาจริง
719
นักธุรกิจ
464
ศร
ื่อง
ทวีป
790
ไม่ต้องสงสัย
อวัยวะ
ไนโตรเจน
647
อสุรา
ce
ปล่องไฟ
คาย
ความเป็นจริง
555
115@@
จับตัว
ท้อง@@
★★★★★★★
ลายนิ้วมือ
438
การอพยพ
อนุทิน
**
794
114
บูร@@
5800
เป็นอันหนึ่งอันเดียวกัน
โฉม
เซ้นซ์
แบบบาง
ตัดออก
บดี
ประณีตบรรจง
นาโนเมตร
ดิ@@
แทร@@
ปล่อย@@
net
อุ้ม
212
เป็นเงา
ไ
เลขคู่
ผิง
ตกต่ำ
ตะหลิว
สูญสิ้น
ปัจจัยสำคัญ
10.5
ป้าน
เดีย@@
ทุกข์
รากฐาน
1040
ชะตากรรม
สันหลัง
ดาวน์
ly
☆☆☆☆·
ไพเราะ
706
ik@@
em@@
หมา@@
633
ของปลอม
ของส่วนตัว
ine@@
627
ลอเรนซ์
ไตรภูมิ
หางปลา
4600
ผู้โดยสาร
ปัง
MB
เฟซ
กดจุด
มีหัว
ลุก@@
12600
มีพรสวรรค์
การแข็งตัว
293
ตื่นตาตื่นใจ
หนองน้ำ
ขี้เขม่า
มีพิษ
คลั่งไคล้
คนธรรมดา
แบดมินตัน
แล้วแต่
606
ก้มหัว
แคมเปญ
คอลเลกชัน
ผื่น
อภัย
บุคคลภายนอก
กลิ่นไอ
สเปน
เปลี่ยนหน้า
หลงเสน่ห์
เจิ้น
เชิงลบ
๋น
เซนเซอร์
229
เออ
เหมา
ม่า·
ย่อหน้า
ชาวต่างชาติ
8.0
★★★★★★
โหดเหี้ยม
คนดู
เอาชีวิต
④
ณี@@
519
หมู่@@
กระเพาะอาหาร
นุ
739
้าง@@
ตรี
การดำรงอยู่
ห้ามล้อ
งบการเงิน
แขนขา
ษ์
การข้าม
iv@@
ก็@@
โดดเดี่ยว
ong@@
ขน@@
ทั้ง@@
คาวบอย
๑๕
แครอท
สมรส
ตกหนัก
นิกเกิล
สันต์
ทรงกระบอก
หาเรื่อง
ทางน้ำ
คราว
สัมภาระ
777
มก
675
chan@@
SEO
สูงตระหง่าน
ใบ@@
ิ่ง@@
็
จบ@@
ป่านนี้
624
ub@@
ดำรงอยู่
สะดือ
มห@@
หงส์แดง
16000
ไบ@@
วินัย
!!
รอ@@
แล้วจึง
แจ่
อิน@@
ศิลป์
อุทิศ
V-
HZ
ประชาสัมพันธ์
าร์@@
ชาย@@
เวลา@@
ฟาง
px
ติ๊ก
ศาสตรา
สถานที่@@
โดยตลอด
แส@@
ยอง
·พ
ใช้หัว
หมดสิ้น
นิดๆ
209
การประสานงาน
แล้วเสร็จ
ชุดราตรี
เจ้าสาว
ปิฏก
522
47@@
แหวก
ถึงว่า
plus
ความเหนื่อย
อร์
้ำ
อาภรณ์
667
ระบบประสาท
อ๊อก
ลีก
เทอร์มินัล
ฟุ่มเฟือย
จุดประสงค์
บัณฑิต
ปฏิบัติหน้าที่
หั่วฮ่วน
์ท
สถาบันการศึกษา
LG@@
ดื้อ
39@@
70@@
เงินปันผล
แสบ
767
จุดมุ่งหมาย
AM@@
MO@@
ME@@
ไร้เดียงสา
เฟ่น
321
718
ล้อหมุน
ขาใหญ่
333
677
ียน
Books
ทิ่ม
ทางใต้
ยุบ
เคลื่อนตัว
พลัส"
Videos
งานฉลอง
จืด
ลลิ่ง
เสียงเตือน
หาดทราย
เวียน
544
ถือได้ว่า
หน้าปก
เอื้อ
คลัตช์
206
203
234
XX@@
สถิต
้อง
ตะเกียง
2200
วัย@@
รอยขีด
·คน
รอย@@
นอน@@
%】\
4.6
สุก
ห่อหุ้ม
ด่างพร้อย
สระว่ายน้ำ
พิง
โธ่
เรขาคณิต
494
ดูก่อน
อหังกา
ต้องตาม
หนอน
ผู้เขียน
MAN
อลังการ
วางสาย
ทัศนศาสตร์
ซู@@
462
บนสุด
57@@
ไฟกัลป์
ชื่อเล่น
-A
กวาน
หล่อลื่น
184
web
975
ฟรอสต์
วันหมดอายุ
ถ่ายเท
แปลกใหม่
ถอนตัว
339
ล้างจาน
□
สะเทือนใจ
สินทรัพย์
ตบ
เถา
เครื่องเทศ
เจ็บป่วย
xxx
253
622
254
แดเนียล
ฮิปฮอป
เหยี่ยว
ช่องระบายอากาศ
1035
เทคโนโลยีชั้นสูง
เคร@@
คำบอกกล่าว
มดี
บุญคุณ
ผู้ใต้บังคับบัญชา
ตอก
ออกห่าง
เปลือย
เพิ่มทวี
สร้างบ้าน
ยืนยาว
กังฟู
773
บอดี้
386
287
รี@@
เจียงซู
691
กระปุก
เปลว
ลูกอม
เมท
ประทัด
ปุ@@
99.9
et
จิ่ว
เมื่อใด
379
ซูม
เฉียน
เกิน@@
16.@@
469
กล่อม
่ว@@
จุดหลัง
การอัด
คนใช้
เกิร์ล
อภิปราย
าง
แอน@@
ซิตี้
ซีทรู
ยุคใหม่
547
ผู้อ@@
186
ในกรณีนี้
คนหนุ่มสาว
พูดจา
น้ำลาย
289
คนสวย
หัวมุม
RE@@
376
อ๊อกซ์ฟอร์ด
sa@@
บิดเบี้ยว
slp
766
ต์@@
เสื่อมโทรม
หนังสือมอบอำนาจ
673
－
เชื้อไวรัส
ราน
คำฟ้อง
342
แพร่เชื้อ
รั้ง
ซาบซึ้ง
Ar@@
กัง@@
ในระหว่างนั้น
เข้างาน
เปีน
เต่าทอง
374
313
>ลง
ขับขี่
ทว่า
อสังหาริมทรัพย์
ซิ่ง
มีหน้ามีตา
726
แรงค์
ใช้@@
พัดลม
มิต
5.0
์เฟกต์
เสียงดี
ถอดรหัส
196
การคุย
สเต@@
ดล@@
1725
ST
....@@
ในความเป็นจริง
ืน@@
สัง@@
ลบ@@
คัง
ING@@
ล่มสลาย
ดิ้ง
ตอนกลางวัน
753
คลุมเครือ
ฮ่องกงฟุต
403
ภัณฑ์
ศรัทธา
พรรคพวก
อิสรภาพ
มร@@
สป@@
.เล
อดใจ
383
year
Ⅲ
26000
แก@@
ลีดเดอร์
226
ปอด
น่าขยะแขยง
คาดเดา
NFC
ผุ้
เสียแรง
3,000
276
732
เนชั่น
de@@
598
146
ยามค่ำคืน
คลาวด์
ไวยากรณ์
．
ส่วนหน้า
ว่า@@
【ดรอป
ติดขัด
AOE
หลวง
คิดได้
hi@@
ซุ@@
49750
๋@@
นิยาย
สิ@@
ไม้ตาย
เฉวียน
เลิกจ้าง
DOT
กรวด
การฝึกฝน
781
หย่า
TY
บรอนซ์
แชมพู
จัก
ฟี@@
ผู้บุกเบิก
ัด@@
เฒ่า
เจ้าชาย
4480
ทนไม่ไหว
its
กง
ฝักบัว
711
ถอน@@
772
แพลทินัม
อ้อน
กอง@@
755
ซิลิคอน
สวิง
and@@
Non-@@
ภาควิชา
พลุ
482
ภาพรวม
ปริซึม
463
มน@@
3375
541
395
ตาแมว
ห้างสรรพสินค้า
OS
ขับเคลื่อน
สร@@
785
STA
ล：
ย่น
ความเมื่อย
าด@@
ML
อูฐ
การตรวจจับ
282
1.25
③
163
278
ครอง@@
มิ้ง
486
min
เยาว์
238
เคร่งขรึม
487
อ่อน@@
เวลาทำงาน
วัยเรียน
07
629
เข็มกลัด
hu@@
กำแพงเมือง
737
ต๋า
ฝึกหัด
CSR
ละอาย
ตึงเครียด
ปรับอากาศ
ไฮไลต์
363
ฮ๊อต
532
โต้
สลัว
หลงใหล
รร@@
ธรรมเนียม
พ่อ@@
ไม่ออก
ภัย@@
สมรภูมิ
สูบ
695
เหตุ@@
เป็นอัน
509
โคจร
ร็อก
ตุ@@
App
เหิน
แกนกลาง
SE@@
【ไท่
218
ซาว
เพศชาย
382
คลอไรด์
776
ณี
สำมะโนครัว
แน่วแน่
ภูมิทัศน์
รับแขก
สายวัด
พิจารณาคดี
://
าก@@
การกลิ้ง
ว่าความ
ความโชคดี
ต้นเหตุ
มวน
MS@@
ติดใจ
คนขับรถ
สำราญ
จุดจบ
วิกฤต
รักษาการ
กันผม
มีประวัติ
ai
คาน
UPF
ปิ@@
＄
385
พื้นบ้าน
เหลียน
กำเริบ
น่าอิจฉา
423
๐
611
จุลภาค
แหล่งข้อมูล
SH@@
แหล่งผลิต
ลายน้ำ
08
ตับ
เต็มใจ
รถประจำทาง
ทำสำเร็จ
UT@@
682
มพ@@
439
412
ป่าเถื่อน
พระอาทิตย์
นำมาใช้
คะนึง
ชั้นปี
11240
434
คาด@@
139
Friday
ความกระชับ
กลิ่นตัว
ดิส
แทบจะ
621
Pal
ต่างเพศ
ภูมิประเทศ
57250
้วง
สารหนู
>/
ค้าส่ง
ight
ข้างใต้
๓@@
ปี@@
ศีล
แสบตา
.6
เซา
หยุดพัก
ความศรัทธา
โหนกแก้ม
ขฯะ
ua@@
การปลด
งม
จิ้ง
10.2
955
ก่อตัว
609
กลั@@
สหรัฐฯ
ออกกำลัง
คาว
11.5
ร้องขอ
Bi@@
ไมยราบ
อีกหน่อย
ความประทับใจ
1738
2928
แผนโบราณ
code
iDubbing
1740
so@@
ว์@@
สติ้ง
คางคก
ความอ้วน
วอนขอ
DE@@
แบบเสื้อ
ย้อย
การเกณฑ์
เขตปลอดภัย
674
กลุ่ม@@
2045
ลก
ชายแดน
สก@@
FB
ชื่น
เรียม
ch
คว@@
1780
ดำ@@
หยุดชั่วคราว
าย@@
ไฮสคูล
ดอกกุหลาบ
หนึ่งร้อย
we@@
Plus
สต็อก
เปลือง
247
ลอย@@
ของโปรด
las@@
ins
เลวร้าย
บ่งชี้
04
ไรผม
สถาน@@
ยางรัด
ภูตผี
PI@@
กิลด์/
นำ้
352
แบบสอบถาม
เป็นอยู่
782
่าม
เชื้อชาติ
☆☆☆☆☆·
Sta@@
689
ตั้งตัว
ผู้ถือหุ้น
OL
ดูเถอะ
กระเป๋า@@
เเบบ
รถสปอร์ต
เดือน@@
EE@@
เหลวไหล
นักวิทยาศาสตร์
ฟุ
แสดงความคิดเห็น
พักผ่อนหย่อนใจ
ER@@
ion
99.@@
เข็มนาฬิกา
ยิ้ม@@
ความเป็นอยู่
เซียง
ใจเต้น
UR@@
KA@@
ก๊อก
ี่ย
★★★★★★★★★★
ก็เพราะว่า
ย่างก้าว
ทั้งกายและใจ
ดีจริง
อัดเสียง
หย่อนยาน
เพื่อน@@
มือปราบ
？@@
189
271
470
ความภาคภูมิใจ
ฉวี่】
ตุ่น
กระถางดอกไม้
แจ็คพอต
%：
ทูตสวรรค์
OnePlus
1091
22@@
ยื่นมือ
THB
ฉุน
app@@
zh@@
ุง
แต่ละบุคคล
ก้
ของเสีย
เวลาเล่น
!\
418
ช็อค
สั่ง@@
ซ์@@
Su@@
ชาล
|\
ยั@@
น่าอาย
7200
ไม้เท้า
ช่วยดูแล
652
สาง
ทหารยาม
★★★★★★★★
WIFI
ปรับ@@
PAD
483
แยกย้าย
ราช@@
534
สเกล
่ำ@@
งค์
605
คนเก่ง
ตัวถัง
411
362
๒๕๕@@
ทริ@@
หลับไหล
ฤกษ์
อ่อนเพลีย
งิ
ความไม่สะดวก
หรือไง
คิ@@
รื้อถอน
แนบ@@
SI@@
ฝอ
รัฐมนตรี
774
หร@@
หลอกลวง
สัด
5400
ผ้าขนสัตว์
ปัดเป่า
กันสนิม
มัลติมีเดีย
649
709
lity
PS
วูฟ
เวน
โซล
ซิม
416
ความเป็นเลิศ
634
เวนเดอร์
643
664
pre@@
ควบ
กากี
ดุจ
เสียดฟ้า
ศรีษะ
แม่บ้าน
่ำ
765
อุดอู้
391
ดุเดือด
อย่างไรบ้าง
้ก
อู้
นักแสดง
ลิ้มรส
เมอร์เซเดส
สารละลาย
ET@@
เครื่องครัว
ความสามารถพิเศษ
ลิ่ม
รถไฟใต้ดิน
585
รถชน
กายภาพบำบัด
วงแขน
11050
733
1920
าน@@
กองทัพเรือ
ยอดรวม
เดอร์
VIP@@
เอาละ
เต็มเปี่ยม
เครื่องจักรกล
ส่วนสำคัญ
เศร้า
เดสก์ท็อป
อาชญากร
๗@@
สําคัญ
ปลาย@@
โฮ่ว\
TOP
646
ฮ่องเต้
มีเกียรติ
ลฟ์@@
297
")
หูรูด
ระบบ@@
tra@@
ปรุงรส
8.25
548
BR@@
การหล่อ
สยาย
แอบ@@
ความสำคัญ
199
ียง@@
กุม
น่าเชื่อ
392
สตั๊ด
พิโรธ
ยุ่งเหยิง
เสียดาย
อยากรู้อยากเห็น
อุปทาน
เป็นหนึ่งเดียว
เซ็@@
อยุ่
สมทบ
โคตร
หนังสือ@@
องค์การอนามัยโลก
การประดิษฐ์
เซ็นชื่อ
บัวลอย
752
บังคับบัญชา
ลมโชย
สูงใหญ่
หิน@@
ชีพจร
371
นัยสำคัญ
แอน
ล้า
ความใฝ่ฝัน
กราฟิก
795
จัดตั้งขึ้น
เลพอร์
IS@@
141
สโตน
We@@
SS@@
658
โจ·
508
644
มึน
ภาพจริง
สารพัด
วันหลัง
เมกะ
พาเหรด
ขอบพระคุณ
จูงใจ
25000
3.4
ลัด
ร่ำร้อง
รม
6.6
โรคมะเร็ง
ถนัด
ทานอาหาร
ฝู
ภาคภูมิใจ
ตะปู
ฝ่าย@@
mo@@
ผู้ตรวจสอบ
หลงทาง
วันรุ่งขึ้น
จันท@@
OR
284
ความมุ่งมั่น
697
จอน
ณะ
JPG
ค่าสัมประสิทธิ์
PNG
บัตรประจำตัวประชาชน
PDF
บีช
ฐานข้อมูล
X-
อัพเดต
เหยียด
เตรียมใจ
บัฟลด
กวัด
ปริมาตร
3550
505
หลัง@@
ศาสดา
-V
คบเพลิง
331
ืน
1150
ยุ@@
จด@@
ัน@@
ศักดิ์
472
นินจา
เอ็ม
526
ทวนเข็มนาฬิกา
DNS
754
แฝงตัว
ทรงตัว
พาย
บิ@@
ในที่นี้
สาบ
บริษัท@@
us
บังอาจ
เสียงร้อง
เป็นที่รู้จัก
คำขวัญ
ดูด@@
เบียร์
อว@@
พลังงานแสงอาทิตย์
ฟังได้
เรียล
วู@@
เจี๋ย\
บอ@@
IR@@
พลิกตัว
ใหญ่โต
๊ะ
258
บลูเบอร์รี่
239
สายพันธุ์
กรดอะมิโน
น้ำเสียง
ถังน้ำ
จำเพาะ
วันก่อน
ครุศาสตร์
ร่วมสุข
น้ำพุ
ซิ่ว
484
เป็นต้นมา
วย
พอลิเมอร์
9.6
ี่ย@@
ราด
จุดสูงสุด
⑤
โอ้อวด
แฟนคลับ
เกร่
12500
อู่
รองประธาน
ขาดแคลน
สูบบุหรี่
ดีไซเนอร์
64000
หวน
interest
โช@@
น้ำตาล
กฎหมาย@@
ลการ
133
เรือง
ตัง
417
ความใน
725
เติมน้ำมัน
ึ่ง
ความเงียบสงบ
783
ชอปปิ้ง
574
นุ@@
ชาวประมง
ผลผลิต
เดินป่า
เดินทางไกล
ผาย
วิก
ตกหลุมรัก
กระผม
หั@@
งี่เง่า
รูปลักษณ์ภายนอก
45000
ุน
คั้น
เซอร์เบีย
กระแส@@
อัลตราไวโอเลต
756
๒๕๕๖
นึก@@
๔@@
US@@
ชอบ@@
160@@
ท่อ@@
จุน
แอโรบิก
พล
631
ดีด
734
ket
ญ|
เศร้าโศก
250000
ES@@
ทะ@@
โด่งดัง
การฝาก
บาดแผล
ทั่ว@@
ช์น
สิ้น@@
รำคาญ
612
เครื่องราง
สปา
วัถุ
ชาวพื้นเมือง
ืด
656
Banner
ซ้ำแล้วซ้ำอีก
SHI@@
เดินเท้า
เกล@@
เพื่อนร่วมงาน
เต็มตัว
244
ปัสสาวะ
ที่ว่างเปล่า
จนถึงที่สุด
LU@@
479
ริน
เม็ด@@
name
นทา
659
ll@@
จราจร
ปั่นป่วน
เปลียน
ลุ่ม
เกินกำหนด
E-@@
88888
ประทุ
เกาหลีใต้
ทิศตะวันตก
นักษัตร
๑@@
oun@@
พึงประสงค์
เครื่องวัดอุณหภูมิ
กรุงเทพ
413
ชื่อดัง
614
โดยสาร
ive
ด้า
ปอ
นิเวศน์
กรุงเทพฯ
ความใส่ใจ
ระเบียบการ
คคัส
เกา@@
จับตามอง
สัมภาษณ์
มหาเทพ
ลูกสูบ
แตกร้าว
ไวท์
มือหนึ่ง
CH@@
เว้นวรรค
ขมัง
ซา@@
hat
EXPBOSS
2150
513
1898
รอดพ้น
ผู้สูงวัย
ศีลธรรม
ดอลลาร์ออสเตรเลีย
เคิล
11.2
ชี้แนะ
นาย@@
ื่อน
การเหนี่ยวนำ
ไม่เป็นการ
า
กุม@@
ความกังวล
การลดราคา
๓๐
DC
ทะ
ตล์
สอบสวน
ทั้งๆ
149
แต่กำเนิด
Ⅱ@@
น้อยๆ
รายจ่าย
เล็กๆ
ฝากตัว
หัวเข็ม
๊ย
ไทเป
th
309
สั่น@@
แร@@
ตารางกิโลเมตร
11600
ลาน@@
ฉีดยา
วี่
ถุงน่อง
งานวิจัย
ระยะ@@
ปิค
30600
584
1500000
543
แม้แต่น้อย
สุรา
วอล@@
โสด
กระซิบ
++
ความสด
ที@@
ข@@
661
SE
อสุรกาย
ลู@@
ผู้รับใช้
9.2
อง
พระพุทธศาสนา
ab@@
กังวลใจ
vi@@
FM
เพลา
ที่เกิดเหตุ
ใครก็ได้
76200
โด@@
โวลต์
249
งา@@
ลัน
ผู@@
เกษตร
ผู้คุม
TO
skill
736
498
588
583
ง
ซ่อนเร้น
เมตตา
ธิ
เซี่ยน
ื่อย@@
คนดัง
ไอ@@
มืดครึ้ม
ี้ย@@
161
เห็นที
โพรง
ลำ@@
เป็นลำดับ
713
สุ่ย
กี
ไม่อย่างนั้น
ทุกที
542
ฟ้า@@
485
489
ตรวจ@@
ด้วย@@
703
491
ไดออกไซด์
5125
ออกงาน
ุ่ม
ผลสำเร็จ
เอฟ
771
ถูกต้องตามกฎหมาย
เป๊ป
251
ปิดไฟ
แสดงตัว
ดังก้อง
พิก
2031
เดีย
กฎกระทรวง
Ba@@
10.00
จู่
ไฮโซ
ไลฟ์สไตล์
อนุ
18.5
ตัวต่อ
สัตว์ร้าย
แดนซ์
”@@
ความมหัศจรรย์
เครื่องดูดฝุ่น
456
สแต@@
219
ผู้ส่งสาร
มีเดีย
ทางอ้อม
ช์
สิ่งปลูกสร้าง
7.1
iimin
โรคภูมิแพ้
โอกาศ
กระบวย
สวิตเซอร์แลนด์
ม่า@@
เท่านั้นเอง
เจียน
จับภาพ
วีธี
าร
ment
VR
ดก
กุ้ยฮ
ทางการค้า
มัน@@
จ้อง
COD
Shopline
396
แส
ขยายความ
แตกสลาย
(/
16375
ขาดทุน
จ้องมอง
การประมูล
หัก@@
ความรุนแรง
ca@@
ที่ต่ำ
ลองใน
ทองเหลือง
แมก
504
เล่น@@
694
ting
กลีบ
ิต
·ส
อ้างสิทธิ์
ทรัมเป็ต
796
excel
Angellir
หัวนม
ลำดับความสำคัญ
ได@@
ban@@
จื่อห
เล่ยจื่อ
ความผันผวน
.1
บัตเตอร์
Bt
เสือดาว
คำนิยาม
92200
ปลาโลมา
NIM
ขุ@@
แบบทดสอบ
เมื่อคืน
ฃ
ลดทอน
was
ี้ยง
อัฉ
บ่งบอก
เชื่อง
745
เสพติด
รับบท
บริบท
เพทาย
วงเล็บ
ละมุนละม่อม
ทิป
ปัจจัยภายนอก
เปลญวน
อิม
กัด@@
การเฉลิมฉลอง
738
หน่าย
2778
แน่นแฟ้น
กระเป๋าเสื้อ
）（
คนแปลกหน้า
imp@@
โคก
อำพราง
18000
ความล่าช้า
แจ
บ้าระห่ำ
252
มัธยมต้น
ย่อง
1094
กราบไหว้
คู่ควร
กรี@@
จัดงาน
ใจร้าย
TB
โก@@
็อก
หนุ่มน้อย
91
ทันใดนั้น
เนล
ต่ำ@@
นายแบบ
หมายเลขประจำตัว
393
กว@@
502
ent
แบบ@@
เป่าผม
CE
ข่าวดี
ในทำนองเดียวกัน
เทียบเท่า
จริย
กรรมสิทธิ์
367
ฟาโรห์
JI@@
ทัศน์
4580
ปลดออก
ตลอด@@
444
รอบทิศทาง
ทางทฤษฎี
เหลือเชื่อ
ชื่อจริง
ระดับนานาชาติ
เพียงใด
ถ่านไม้
ืม
589
โฉมใหม่
ลมปราณ
ก้อง
จับตา
อคติ
CONTENT
แว่นตากันแดด
เย็นยะเยือก
ขีด@@
ติดไฟ
แสวง
สนับมือ
415
คณะ
สวยหรู
ลำเอียง
CV
ตัก
อัลคาไลน์
เบจ
สัญชาติ
๊ต
องค์การ
หนักหนา
875
โค่นล้ม
ทางธรรมชาติ
โซลูชั่น
ฉันท์
HPx
ยาหม่อง
การซ่อน
duc@@
อัส
เมจิ
๓๑
-----
แต่อย่างใด
:【
กองทัพอากาศ
ส์@@
ไท่@@
ดูท่าทาง
ออกฤทธิ์
ธิ@@
3.7
เซ้ง
：《
นับแต่
ถูไถ
ไฮโดรเจนซัลไฟด์
14554
นับว่า
กลับ@@
ชาติ@@
โบราณสถาน
ต่า
728
เครื่องเพชรพลอย
เงินฝาก
เลม
สมจริง
12.00
ดีละ
ฝากเงิน
สาธารณชน
ทำสำเนา
นางเอก
วางขาย
น่าประทับใจ
บดขยี้
เดือย
ipad
บิ๊ก
พวงกุญแจ
AUX
ม์
กับข้าว
685
มิตรแท้
โน้ต
รีม
สอบผ่าน
น้ำขึ้น
น้ำลง
จ้างวาน
รถจักรยานยนต์
เร้นลับ
ex@@
โภชนา
หมวก@@
559
II-
แช@@
ฟรานซิส
จุ@@
ธิการ
พรรค
กรร@@
ไฮ@@
ขี้โกง
ระเบิดเพลิง
เก่น
%！
๒๒
OF@@
Tote
ทางอาญา
สนธิสัญญา
IN
SPF
กบ
iPhone
เนื้อเรื่อง
จํานวน
ส่วนแบ่ง
39375
ตีนกา
ออม
มาร์ติน
567
โดยพลการ
งานใหญ่
MotorcycleBag
ร่อน
MA
744
is@@
หนึ่งในสี่
746
ย้อนหลัง
ฝ่าฟัน
ตามฤดูกาล
Ne@@
ีร@@
นิกาย
FA@@
งงงวย
7.2
ให@@
ใยพืช
สัม@@
CBT
ปรบ@@
ค์@@
ไม้จิ้มฟัน
%@@@
RO
รวมกลุ่ม
ตาบอด
สง@@
ค่าจ้าง
บอกกล่าว
ฏ
WikiFX
วัฏจักร
ข้าม@@
ลิตร
บ่น
353
ชะมัด
โยธา
วงจร@@
9.5
ing@@
นัล
รับมอบ
ทำใจ
China
ู้
สู่ขอ
ไร้ความรู้สึก
ตะลึง
530@@
ฟูก
บัค
ธุระ
มีฤทธิ์
ด่าง
005
จิว
กาล
ความจำเป็น
778
Ex@@
สล@@
ค่าแรง
ก้ม@@
ทำงานบ้าน
ผลการวิจัย
โหมกระหน่ำ
ตระการตา
AS
538
ดังกล่าวข้างต้น
เนื้อโลหะ
หอบหืด
่วย
ตุล
หนอง
แผ่ออก
มิน@@
637
กค
ยาย
248
โคน
เจี้ยน)
คอนโทรลเลอร์
ทุกข์ทรมาน
โบ้
โฮ@@
32375
.....
รุ่ง@@
578
ดะ
1401005571
สโลป
อลิซาเบธ
โปรโมต
pp@@
511
กลับกัน
ชักจะ
Be@@
731
ชิง@@
ลิต
4.25
SPA
361
497
น้อม
เจ็บใจ
แผ่นดินใหญ่
สก็อต
คิคอล\
หวาดระแวง
เชย
ความชำนาญ
ผ่าน@@
แข้ง
266
ภิ@@
อิมัลชัน
·เจิ้น·
มัง
ดอลลาร์
ไม่ดี
ชก
แสง@@
ความเกี่ยวข้อง
โทมัส
dow@@
DS
บัญชา
ที่ทาง
15300
2240
69@@
จับต้อง
ช้อน
537
สินค้าออก
ไข่ไก่
ออปติคอล
กำลัง@@
ia
1499
เหรียญทองแดง
นี่แหละ
ได้คืน
...@@
ถุ@@
ไส้@@
มู@@
ook
บริการเสริม
การแสดงความคิดเห็น
·เฟรด
860
เรนโบว์
กระทรวง@@
อน@@
ื้น
งเจิล
~\
ความเข้มแข็ง
เชื่อถือ
พระสงฆ์
๑๔
รู้อยู่
ขั้ว@@
เจี้ยน：
คำสาบาน
มัธยม
2,000
;ถก
เผยความลับ
1480
สวัสดิการ
คนโง่
เครื่องอุปกรณ์
การชะ
118@@
ิด@@
รับโทษ
UVA
ตรง@@
ผู้อำนวยการ
DB
สิ้นดี
พอได้
คงเดิม
ภาวะ@@
สัตว์ป่า
ขาวสะอาด
บ๊อก
ce@@
แก้ว@@
ผักขม
ice
งานบ้าน
7430
10350
แข็งๆ
ภัณฑ
ลูกขนไก่
เกลื้อน
สุดความสามารถ
ขยันหมั่นเพียร
ใน@@
เท็จจริง
ตอนเย็น
เพ่งเล็ง
รับฟัง
สงวนสิทธิ์
เมือ
เลป
22.5
kWh
ve
ข้าวสาลี
655
มิ่ง
พญา
เท่าตัว
หยาบคาย
การยับยั้ง
สวน@@
ึก
จุดต่อ
กัญชา
ชุ@@
เงียบสงัด
160000
ประถม
โรคผิวหนัง
งบประมาณ
BA@@
BAK
ิ้น
เดินตาม
่ะ
เหม@@
ถึงกับ
ึก@@
ใจร้อน
ข่ม@@
ขนถ่าย
619
ท้องแบน
735
ฝา@@
174
มีข้อบกพร่อง
แกว่งไกว
ซ่าง
น้ำผลไม้
ความดีงาม
2025
อุตส่าห์
Huawei
อานม้า
คลี
150000
มีเงิน
การปฏิวัติ
มุ@@
เสียรูปทรง
ตรวจตรา
ร้านค้าปลีก
ร่ายรำ
ปีเกิด
เพศหญิง
ทับ@@
การค้าขาย
ด้วยว่า
________@@
เผิง
ภ
เหอะ
ล่วง
อส
การบ้าน
990
เสียสติ
ความหวาดกลัว
การบังคับใช้
Zhuhai
เช็น
๒.@@
ทั้งชาติ
พนักงานบริการ
สต์
ใด้
มัฟฟิน
An@@
ให้พร
ทางลาด
อ่างล้างหน้า
ซิลเวีย
เฟย
ก้@@
hhh
คาราวาน
366
ผน@@
ตื่นตา
AB
ทาร์
fi@@
เขตเมือง
AAA
ชัง
มีระเบียบ
ควอทซ์
นิ่มนวล
เลี้ยงสัตว์
บรอดแบนด์
หัวแม่เท้า
รพิ
แซ@@
คม@@
ข่าวกรอง
ขิง
Gu@@
ge
การออกอากาศ
เสียโฉม
เงยหน้า
กำลังใจ
มือดี
cu@@
481
GD
ขึ้นอยู่
อัลตรา
!#
Logo
ทำงานหนัก
พนักงาน@@
ชำ@@
ps
แนวความคิด
ความหมายแฝง
หายใจ@@
หาว่า
ศาล@@
ดาร
ือก
ห้าง
รดน้ำ
651
ตัวพิมพ์
638
GMC
>●
เซ็นทรัล
ภูเก็ต
ียด
10625
เลด
บู
373
จิ่ง
741
รท
bo@@
เงินสเตอร์ลิง
สายน้ำ
ช่อ
EI
1125
คำพิพากษา
3296
ตัวบ่งชี้
มิลลิลิตร
คลื่นวิทยุ
end
อวบอ้วน
TE@@
344
คิคอล
สเตอร์
อาน
กรา@@
3900
ให้ผล
ต้นตอ
LULULUN
กํา
ความเพลิดเพลิน
ผิดรูป
แน่ชัด
สันติภาพ
LCD
อยู่ในเส้นทาง
ความหวาน
ขั้น@@
8.8
จัดกิจกรรม
669
กีดขวาง
USD
ปวด@@
เลว
ท้ายที่สุด
Energy
ไขควง
742
ข้าน้อย
ราคา@@
ซักรีด
！（
เหมียว
สัมพันธ์
28000
เทพ@@
้ม@@
ทางตะวันตก
ุก@@
นด
LAOGESHI
อาชา
นตน
แบ็ค
ภักดี
ุ่น
อะตอม
แต่@@
อยากรู้
ุน@@
ผ้านวม
2290
พร้อย
ช่วง@@
สีสด
แถลง
ผ้าอ้อม
【ส้าวเฮ่า】
ขี@@
University
5.8
บ้าน@@
ใจมา
กอบกู้
ยืนนาน
สามัคคี
ครอว์
·อวี้เหิง·
เมื้อ
อี่
ชอบด้วยกฎหมาย
ขับเคลื่อนด้วย
็ก@@
ตราชั่ง
แจ@@
ลี้ลับ
11060
UM@@
ทางทหาร
ฟักทอง
มีธุระ
หกล้ม
เปี่ยม
เกลา
หมายรวม
ไฟแดง
7.8
0.06
เกิดเหตุ
เปล@@
ปิ่นปักผม
ซิบ
ดึงดูดสายตา
ในแง่
นย
เสียสละ
ปัด
0.4
บอดี้การ์ด
คอปาด
549
เด็ด
ราศีมีน
ยิ่งกว่านั้น
แจ้งให้ทราบ
แคดเมียม
ประนีประนอม
อุษาคเนย์
ๆๆ@@
เชื่อใจ
แอล
ถอด@@
ผ้าขี้ริ้ว
ปิ้ง
ประหาร
ผ้าคลุมไหล่
แว่นขยาย
ได้รับการยกย่อง
ตีเมือง
ัง@@
ทอร์นาโด
เท่านี้
ตำ@@
ร์:
แออัด
ผ้@@
กะรัต
ตรงๆ
พลัน
นิว@@
ฉับ@@
พายุ@@
ที่เชื่อถือได้
วิธีใช้
น้ำมันพืช
269
758
ชด
หลับสนิท
คาร์@@
เนต
เอบีเอส
ขนคิ้ว
พิเษศ
ความยิ่งใหญ่
1401006919
693
หน้าใหม่
เซลฟี่
ความหนืด
ว่าย
1525
สุจริต
จิตสำนึก
ข้อเรียกร้อง
ยืดเวลา
color
สมนาคุณ
ระดับความสูง
Terminal
Unit
Integrated
Totals
โปรโตคอล
กางเขน
วย@@
เฉพาะ@@
การฟ้องร้อง
การสาน
........@@
ถ่วง
ตอง
116@@
ผลข้างเคียง
613
FMC
ถึงชีวิต
นง
531
0.9.0
DI
SLR
เก่าๆ
า
ตำหนิ
4050
Dual
อุจจาระ
ชะตาชีวิต
ขออนุมัติ
เนเธอร์แลนด์
ร้อน@@
623
มวล
ดำเนินต่อไป
โอ่อ่า
ับ@@
อำ@@
ly@@
น้ำยา@@
ver
res@@
๒๕
สลุบ
ขายส่ง
18250
หมายปล่อย
ตอนท้าย
80@@
แวววับ
ความเคลื่อนไหว
แพทย
เคราติน
สำริด
ิ้ม
ยู๋
ถุงลม
ขาออก
683
ให@@
กันสาด
เอส@@
21500
app
9999
เป็นที่ยอมรับ
200@@
ลื่นไหล
เด็กโต
แซ่
วิทยา@@
เวลาเริ่ม
681
สำนวน
33000
is
อิตาเลียน
โป๊
คล้ายคลึง
ขมวดคิ้ว
กระเป๋ากางเกง
หึ่ง
จอง@@
1440000
ฟินิกซ์
บวมน้ำ
โน้ตบุ๊ก
อัพ@@
ทีน
คำประกาศ
กบฎ
GORE-TEX
กล่าว@@
เรื้อรัง
สะท้าน
ยืด@@
ตุ
ห้องเรียน
ครอส
พลา@@
764
าบ
เทศ
ให้แรง
ทุกหนทุกแห่ง
แสดงท่าทาง
เลต
ลุ่มน้ำ
เทือกเขา
632
787
งาช้าง
ห้องอาบน้ำ
ใหม
769
ภูมิอากาศ
ปศุสัตว์
รุน
ตรา@@
ปม
ภาวนา
เซียร์
พระราชวัง
ผลกรรม
เท้าหลัง
ทางเท้า
ทนายความ
คำแปล
ควรจะเป็น
รักษา@@
ิง@@
ซิ@@
แปรผัน
ดังที่
billion
699
DEX
รังเกียจ
น】
เกื้อกูล
ขึ้นชื่อ
รถเมล์
ชบา
แล@@
มีความรู้
หะ
654
628
แดนดิน
ในนาม
เอาเป็นว่า
.กด
ฟองอากาศ
ไอซ์
398
ข้อเสีย
จับกุม
ตาราง@@
หนังสือพิมพ์
คงไว้
1320
ภูมิ@@
ให้เหตุผล
CC
ประกอบการ
สบ@@
POLO
16889
หม
ุ่ม
พลวัต
อัดลม
วลี
ฏ@@
ริม@@
2175
ตร์
ผัง
409
เบริลเลียม
ฟอกสี
วาจา
บุรุษ
แฟกซ์
YA@@
สกิล·ส
ข้าว@@
ทั้งคน
พุทธะ
ไมโครอิเล็กทรอนิกส์
ีบ@@
สติ@@
88.80
ยิ่งนัก
ษา
ตกใน
13.3
เหที่ย
CU@@
ส่
ตาเปล่า
ผูก@@
วีไอพี
โต๊ะ@@
๊
หวั่นไหว
ครุ@@
ต่อตัว
สะอาดสะอ้าน
โดยทันที
ตรงข้าม
โลภ
โกรธแค้น
281
ชาม
แผ่ซ่าน
คีบอร์ด
http
กระจก@@
คละ
are
การตอบโต้
1100000
ได้ข่าว
๑๑
mom@@
สิบ@@
alth
สวีเดน
474
ตอนหลัง
ประกา@@
โนะ
บาสเกตบอล
โบราณกาล
เอพี
ยื่น@@
นัดหมาย
แยกจาก
คนร้าย
หมุนรอบ
ทะล@@
มหู
กลางดึก
ไกล่เกลี่ย
isho@@
เคือง
ความสามัคคี
ตั้งใจจริง
เอาแต่ใจ
หุบปาก
ศักราช
เทพบุตร
อนุรักษ์
ไม่เห็นจะ
ประเมินค่า
ถึงแม้
ตอนจบ
ene
anv@@
รวด
ออกแรง
เจาะตลาด
เป็นที่ชื่นชอบ
เหตุนี้
าว
ความเจริญ
0.01
$@@
กลม@@
facebook
ฝัง@@
การตกปลา
）×
ขอบ@@
สก
หารือ
AP@@
เท่าเทียม
ก็ต่อเมื่อ
<>[]
สกอตแลนด์
สภา
สภาพ@@
แสด
หยิ่ง
พลิ้ว
เดินสาย
OP@@
มีสติปัญญา
ออกคำสั่ง
กวาวเครือ
ดำคล้ำ
คีบ
อ่อนหัด
ความเปลี่ยนแปลง
TO@@
1,099
นิ้วหัวแม่มือ
พ.ย.|
เอ้ย
ข้อมูลขนาดใหญ่
ทิ้ง@@
การเก็บเงิน
ty
HONG
น่าดู
ku@@
รซ
ยานยนต์
ทรงไว้
คติ
ที่ทำการ
อาชญากรรม
3850
คนชรา
อ่าว
ท่า@@
1999
โรย
ใช้เนื้อ
น้อย@@
เสียเงิน
หนักหน่วง
เรดาร์
ack
สตี้
แวว
ทด
เหนือ@@
749
MU@@
นิคมอุตสาหกรรม
----------------------------@@
นุ่ง
หว่าน
กระท@@
TC
MoTianJi
ช่วงแรก
.8
ภาษีมูลค่าเพิ่ม
（/
องค์การบริหารส่วนตำบล
ชานเมือง
ken
ในทันที
กิลด์】
เมนบอร์ด
กลาง@@
เหยียนฮ
อ้างว้าง
มีเจ้าของ
35@@
พ่าย
บุกเบิก
โป@@
การโค้ง
se@@
งาย
จสกิล+
ฉุด
ผิวกาย
นักสิ่งแวดล้อม
ลุก
12875
โปรเซสเซอร์
สถิตย์
การณ์@@
ขัดขืน
เรียก@@
น่าเป็นห่วง
เขียง
เบิร์ด
Faces
ความคาดหวัง
การฝังเข็ม
้ำ@@
ออร์@@
เปิดสวิตช์
รับศึก
6800
ความสุขสบาย
ผืน@@
อัล@@
มือสอง
มี้@@
Places
ith
ke@@
บูติก
บิสซิเนส
ความเป็นมิตร
าร@@
การเสริมสวย
Leg@@
tal
การค้นคว้า
มันดี
ส่งกลับ
เข
19920
ปัด@@
นรา
262
กาลเทศะ
รูปหล่อ
ลิ่ง
AT@@
นัด@@
วัสดุก่อสร้าง
พัวพัน
แล้ง
5.3
Taobao
Te@@
เบิร์น
าน
เรย์
นักพรต
โรล
เรียน@@
เพียร
บรัด
ดิ้นรน
ผู้แพ้
ซึมเศร้า
["
นั้นมา
ฯ,
crypto
การร้องขอ
:<
0000
ชาวบ้าน
เก็บเกี่ยว
ถนอม
Type
ข้ามคืน
ม
ฟิล
จี่
ค
ale@@
ใบชา
ชุดแต่งงาน
จำกัด@@
He@@
โบราณวัตถุ
q@@
กระเป๋าเอกสาร
น้ำค้างแข็ง
บิน@@
1.7
มง
อานุภาพ
ผ้าคลุมเตียง
ความทะเยอทะยาน
มัสลิน
YA
เวลาทำการ
จั@@
ยัด
สุขุม
ทางอากาศ
ึ้ง
บาร์เรล
จ๊อกกิ้ง
เย็บ@@
กระชาก
ทำท่า
ค์+
2925
you@@
เห้
วาบ
วบ
นักบิน
ทันตแพทย์
เสียงสะท้อน
ิบ
PMMA
วังวน
โคมดอกไม้
ยืม
้วย@@
1115
ฟลอ
เอกภาพ
คำร้องขอ
หยุด@@
บี@@
ถ้า@@
เพลง@@
รายการโทรทัศน์
วิธีวัด
ข./
นข
น\
ยึดติด
xff
การจัดเตรียม
สนิทสนม
น้ำใจ
กิ่งไม้
เฝ้าดู
มีไหวพริบ
นบ
1198
พริบตา
รวม@@
แม่แบบ
ลึกล้ำ
น่าสงสัย
เห้น
คริสตจักร
ใบแจ้งหนี้
แต@@
WE
KE
แทนที่จะ
0.075
2365
เวิร์ม
Pol@@
ญญ@@
Pin@@
ยื่นคำขอ
เกี่ยว@@
2555
ตามตัว
แย@@
รจ์
เหี่ยว
วุ@@
ประกอบ@@
เดร@@
ลอง@@
เปล
เสียที
str
Mon@@
AB@@
พระราชบัญญัติ
การฝึกซ้อม
บาร์บีคิว
สปอต
จมน้ำ
Mate
กระจ@@
first
ลองจิจูด
อุณห
ภั@@
พันธ์
ตกตะกอน
น้ำแร่
ไข้@@
ลายมือ
OC
จอดรถ
สิ้นหวัง
ช่วงต้น
ศิ@@
ละติจูด
มือเบา
าร์
๑๓
เข้ากันได้ดี
เมคอัพ
IPS
าง
็ด
รงควัตถุ
BI@@
สึกิ
49@@
หน่วยงานรัฐ
บัญญัติ
บงการ
จุดขาย
เพลิงไหม้
216
โทรคมนาคม
กระบอกสูบ
นิดนึง
5627
คนจริง
เหย@@
ใจชั่ว
สมัย@@
หงุดหงิด
ตั้งแต่@@
0.045
855
ประสาท@@
นานา
งานประจำวัน
มือซ้าย
ใจถึง
หัวเรื่อง
ซาอุดีอาระเบีย
เลี้ยว
กระดาษสี
car@@
ian@@
3.2.2
แบนเนอร์
17500
Origin
เวียดนาม
..@@
ค้อ
ric
พรี@@
มอยส์เจอร์
ning
8888
ตระหง่าน
Met@@
8.6
นัยน์ตา
ข้ออ้าง
ๆๆ
ศิลปวัตถุ
เพิ่มมากขึ้น
มิ้ง\
ci
Dr
.)
ครึก@@
ใฝ่ฝัน
เฟ
The
】——
แยงซีเกียง
ทีละ@@
tCode
กิลด์！
สาหร่ายทะเล
การปลดปล่อย
คำรับรอง
่วม
เบอร์โทรศัพท์
น้ำทะเล
เยน
เศษอาหาร
นุกรม
การเกิดใหม่
การทหาร
__@@
หัวสะพาน
618
","
สาเก
การบุก
MC
แนว@@
ขาด@@
ตามนั้น
สํา@@
น่ารังเกียจ
ไฟ@@
ver@@
3608
ร้านเสริมสวย
การพิสูจน์
ไม่มีที่เปรียบ
เสียงหัวเราะ
ถูกจับ
X-@@
เด็กชาย
การลา
ห้องทดลอง
พัฟ
วส\
Bo@@
ขับ@@
นส์
ปริมาณ@@
MAJOR
วายุภักษ์
9.9
%,
TE
ลูลูลูน
1498
การกู้
ขึ้นราคา
6.2
687
เป็นหนี้
จัด@@
กล่า
หด@@
การออกไป
่าย
แพ็ก￥
ANA
้องกัน
ได้การ
แพร์
3320
1408
หล่อเลี้ยง
https
eed
สิ้นเดือน
โทรศัพท์เคลื่อนที่
ลอจิสติกส์
เจ้าของ@@
ตรงไปตรงมา
Lyocell
แผน@@
เบะ
ข้างน้อย
ยืดยาว
เป็@@
ชำรุด
คชั่น
กราก
สส
เป็นใจ
ทวีคูณ
ซุ
ีม
ักษณ์
7100
8500
การวน
ง+
อ้าว
linical
VN
12212
Biomass
788
อาการหนัก
ปากทาง
ทาน@@
เอกชน
OM
กลีเซ@@
SU
คุกกี้
ยุคสมัย
เนื้อวัว
ตุ้น
oom
แท
รนด
การดำรงชีวิต
ล้ม@@
กระเด็น
รับโทรศัพท์
AL@@
พลังงานจลน์
446
Hi-Fi
Thermal
ตัวการ
Power
Project
คับ
fer@@
นว@@
Id
กราบ
วุธ
เทวดา
2916
1731
แพร่พันธุ์
กระป๋อง
ไฉ@@
การจัดแต่ง
2060
รูปไข่
ประจำสัปดาห์
ผสมพันธุ์
OLED
32000
MU-
ดอล
เครื่องมือแพทย์
zer@@
วินิจฉัย
สูง@@
สไ@@
ี้@@
ซามูไร
ผู้แทน
มินท์
อาการ@@
9783
2935
การแก้ปัญหา
CN@@
ไพ่
ตายตัว
ล่า@@
หมายกำหนดการ
คูณ
เมื่อนานมาแล้ว
GMV
7.0
ตื่นตระหนก
Lin@@
๓.๒
เป็นหวัด
กอล์ฟ
การรัด
ผู้บุกรุก
สุขาภิบาล
น่าหลงใหล
กำลังดี
PLAYBOY
บัญชาการ
ลือชื่อ
การปะทะ
exc@@
ทำชั่ว
หมอน@@
๊า
ตามตรง
ทำดี
"ผม
กิริ@@
เย็น@@
ศักดิ์ศรี
การปรับตัว
เกรงใจ
ข้อยกเว้น
ไฮเทค
ส่@@
มหา@@
ขาย@@
ตะเกียบ
เพาะปลูก
ส้อม
ถาง
แตก@@
์+
cha@@
พลิก@@
mer@@
ภัตตาคาร
ทู@@
UAS@@
เป็นน้ำ
#！
5000@@
500146
สวดมนต์
ออกโรง
แท็กซี่
น้ำเปล่า
ทอง@@
ส่าน
วิทยาลัยครู
การเพิ่มเติม
”(
แคช
GEN
ลูกไฟ
คว
ด่า
ดอลล่าร์
ไพ@@
ลึ@@
เอช
4475
-C@@
เปร
PA@@
คอนเสิร์ต
ก่อความวุ่นวาย
5,000
เข็ง
ดูดกลืน
ประสบ@@
สื่อ@@
มัธยม@@
59000
ต้อน
แอล@@
ลาง
เรียง@@
แฮ่ม
----------------@@
สารท
ป้อนข้อมูล
นัส
KV
หม้อแปลง
หมาง
641
เต็มดวง
ta
กช
ค่าเงิน
ลุ้น
หงาย
ชอง
【ผู่
การผ่อนคลาย
วหา
โอกาสดี
อยู่@@
กษิ
ครรภ
ถั่วลิสง
เหนอะหนะ
โพ@@
Modal
ไน@@
？！
sk@@
วิ่งหนี
เข้ารอบ
ตั้งถิ่นฐาน
วัส
ยึด@@
โยก
สักวันหนึ่ง
2009
รื่นเริง
สด@@
กุ้ง
ไอเดีย
ช่างทำ@@
ียง
MARSHALL
เตาเผาขยะ
ค่ำคืน
เฟิ่ง
อื@@
ทั้งเป็น
「
เบาะลม
UE
หนังกลับ
แองเจลิน่า
คนใด
ระเบียน
ศิลปะการแสดง
YouTube
ฟ้องร้อง
เลขคี่
(ก)
ด้าง
eteams
ธาตุแท้
ตรงจุด
นะจ๊ะ
ตาสว่าง
แซะ
เพื่อนบ้าน
ผู้รับมอบอำนาจ
ดำเนินคดี
4645
ขู่
CM-
ปลายนิ้ว
คาร@@
NO@@
SP
นก@@
กติก
ครั้งก่อน
วล
ียด@@
กระบอง
พลั@@
กิจ@@
คิก
เถ้าแก่เนี้ย
สืบพันธุ์
798
กระเทียม
แสงอินฟราเรด
ลูกหลาน
จะ@@
มินิ@@
จูง
เข้าใส่
ฌ
พาล
คลาน
BCL@@
................................@@
................................................................@@
เต๋
ตรึงใจ
มตา
๒๘
%!
พริ้ว
กล้องจุลทรรศน์
1650
พึงพอใจ
100,000
BE@@
ออร์แกนิค
ล้ำ@@
TR@@
มีผลบังคับ
ทธ@@
ดีไซน์เนอร์
Vivo
คริสต์
ญ】
เจลลี่
go@@
ให้อาหาร
โรคหัวใจ
FDA
435
แชมเปญ
3.6
เฉดสี
ผู้ให้ข้อมูล
0.9
การปฏิรูป
วิทยาลัย
อุตสาห
sec@@
อร์ด
【ฝู
RO@@
กสิ
Dermatix
//
เป็นครั้งคราว
โสม
นักปราชญ์
การเล่นกีฬา
วากะ
อท
712
เพียงเท่านี้
ล้น@@
นาง@@
๊บ
สุกงอม
ศา@@
25250
7.6
สูด
จุดแข็ง
หัวต่อ
โค้ช
ld
ดำรงชีวิต
mail
วิสามัญ
หิมาลัย
พักพิง
ชู@@
รอง@@
562
จับมือ
สุดท้ายนี้
ล่อใจ
ล้าหลัง
เรื่อง@@
เอคโค่
ควบคุม@@
รักษ์
มองโลกในแง่ดี
880
ว่
·ฟิ
แต่เช้า
394
ส่อง@@
สุลต่าน
ฟุกุโอกะ
zip
ประกวดราคา
เลิศ
657
โดรน
ไลบรารี
low@@
สนามบิน
Com@@
เสื้อนอก
ปลั๊กไฟ
แซนน์
สร้างตัว
(อัพ
กลอน
คับ@@
แขวง
แจ็ก
ซาลา@@
9.8
ยล
น่าตื่นเต้น
เรือนจำ
โซลูชัน
ass@@
1747
2946
เวลาพักผ่อน
เบี้ยเลี้ยง
เอก@@
มูล@@
อ่อนน้อม
ท็@@
องด@@
รีบร้อน
โชคลาภ
เร็จ
ตัวประกอบ
ตกทอด
un
ก์
เสียภาษี
ที่ดิน
WhatsApp
WABA
172
37500
น้องชาย
ฐ@@
ต้อย
มีอิสระ
tion@@
1,000
กลางเมือง
โกล@@
พลังจิต
SPU
รอดไป
ขวด@@
นางพยาบาล
การฟังเสียง
แทน@@
ราย@@
การจัดประเภท
กระทรวงสาธารณสุข
กลับหัว
TS@@
สง่าผ่าเผย
API
เซลล์@@
ต้นสน
ลเวย์
ํา้
เหมือนเคย
แผนปัจจุบัน
ซีดี
เวย
หลับใน
๋ว
ประปา
เสื่อมถอย
#@@
54000
เน่า
ซอมบี้
โดยไม่จำเป็น
men@@
บอด
กวา
พันธุกรรม
ออกผล
เข็ม@@
OL@@
ระลอกคลื่น
คลื่น@@
met@@
สหพันธ์
logo
สลบ
Wacoal
ดูออก
น้ำซึม
เวหา
เป็นคุณ
เสียได้
3100
ร้อนแรง
ไต้
ขยาย@@
ชง
ฃ@@
เข้าทาง
、ผู่กง
SNCR
คราวหน้า
707
เสื้อ@@
ซัล@@
3344
ALT
·อ
__
สาวก
หย่ง
ซีน
ยากจน
เสื่อม@@
ลาก@@
ภู
HK
คั่ง
เซ็นเตอร์
ถัวเฉลี่ย
สถานีตำรวจ
preme
อุ้งเท้า
เลิกเล่น
ศาสตราวุธ
ทอด@@
เวลาว่าง
รัฐ@@
AG@@
Reta@@
por@@
ลิด
pro@@
เสริมกำลัง
I-
ปีกกา
เบรียล\
ยีน
นขา
การหุ้ม
stra@@
โทษทางอาญา
จูน
อึ@@
1860
ย้อมผม
เท้าหน้า
1465
สอ
เหลือ@@
ื
-T
NipponKodo
วงเงิน
KO@@
การประมวลผลข้อมูล
รถเข็น
6.1
อุปกรณ์พกพา
นิเวศวิทยา
Ra@@
Fracora
ได้ความ
๕๐
ทั้งเมือง
​@@
684
ผนวก
เป็นพื้น
Sh@@
พลบค่ำ
13.10.@@
ตัวเมีย
บิดา
น้ำยาง
ขนสัตว์
140@@
IPHONE
ตีกลับ
พุทธ
ห้องทำงาน
กิน@@
0931
สามขา
=#
<>@@
คัน@@
เจียระไน
๒๐@@
VII
ตัวหนังสือ
ผู้ใด
ชำ
ไช@@
34250
】；
he@@
2784
เชื้อเพลิง
เป็นอันขาด
ขนลุก
ระเบียบ@@
ผู้อยู่อาศัย
ริ้น
ภูมิหลัง
9.7
boss@@
Pos@@
หก@@
็ง
ตัวผู้
รอบสะโพก
ส่วนขยาย
วารสาร
381
18.@@
นีบาต
ดัม
ฟฟิน
กลอเรีย
คอนกรีต
ัว
ปิดสวิตช์
ราชการ
ซ·
2888
เปิดโลก
512000
ดตัว
ปะทุ
กรวม
เฉพาะทาง
เงินย่อย
2012
โมเมนตัม
สุขใจ
per@@
จริงอยู่
ในสังกัด
4090
NE@@
แมกนีเซียม
สหรัฐ
เรือ@@
แต่ต้น
ความคึกคัก
การติดต่อสื่อสาร
ครึ่งวงกลม
shop@@
ยม@@
1950
ตราบ@@
เพรา
ผู่ตง
อิ่มเอิบ
676
พูดมาก
6720
ี๋@@
เซ็ท
ไดร์
%คน
729
เว่ย
09@@
Con@@
ตามแฟชั่น
T-@@
สะดึง
รู้สึกตัว
คล้ายๆ
โหม
แหล่ง@@
ออส@@
อินโดนีเซีย
【ฮง
ws
จอมพล
Ip@@
ภูติ
ตราสินค้า
JPEG
ทวน
โภคภัณฑ์
เวลาจริง
ซัพพลาย
ดัดผม
รูด
โหด
เขียนจดหมาย
กระแสนิยม
เพนท์
กระทรวง
19.8
อนุกรม
WORD
ชัก
ชุด@@
·ลด
๑๘
ไหลผ่าน
แมส
วันเดียวกัน
784
ทาวน์
โฆษก
GIF
reported
gro@@
สิ่งกีดขวาง
inco@@
คอเต่า
ba@@
ตั้งอกตั้งใจ
ไลซ์
โอะ
29500
แคะ
เฟอร์
สิน
626
zed
LYCRA
เยี่ยง
เปรี้ยวจี๊ด
ขี้ขลาด
เลื่อน@@
สำเร็จการศึกษา
·จิ่ว
ว\
ละเมิดสิทธิ์
การทุ่มเท
ฮึกเหิม
ตากผ้า
Cr-v
๔๐
3751
กูรู
ต้อ
เปลือกหอย
ร่าง@@
11040
วัญ
lip@@
หดห@@
ประกัน@@
จุ่ม
ฌ@@
วิสุทธิ์
นิวยอร์ก
ฟาก
เบ้า
การล้ม
ลาออก
อารมณ์เสีย
้อย
ถุง@@
dec@@
คณะ@@
ฟอรั่ม
พืน@@
ผง@@
……@@
ยื@@
24375
≤
ภาษา@@
8.00
พิณ
**@@
ini@@
เจิน
กำราบ
เอล
Bra@@
ระแบบ
อิ่ม@@
มีชัย
·นก
โยนทิ้ง
Tiger
แอนดรอยด์
แฮ@@
ผ้าแดง
เยี่ยม@@
๒๕๕๕
ตั้งโต๊ะ
2868
กรุ๊ป
5.25
เก็ย
จ่าย@@
usiness
;//
เด็กดี
สุดสัปดาห์
·ล
แรกเกิด
add@@
บัคเก็ต
ภาย@@
ไฟสูง
าง@@
เที่ยงตรง
หยุดชะงัก
มตะ
โฟลว์
ศั@@
ับหลัง
ส่วนน้อย
ชนั
แรงจูงใจ
สำรับ
513@@
St@@
แปรพักตร์
สอง@@
๒๕๖๐
เล็บเท้า
SO
บันดาลใจ
เว็ป
สาหัส
admin
ระลึกถึง
สายยาง
ผุ
คำหลัก
2880
ุม@@
19.6
HO@@
เหยียบย่ำ
ขััน
การกรอก
เข้าถ้ำ
method
ตัดไม้
20.@@
ป็@@
ชัดแจ้ง
สงบเงียบ
！,
ลท์
ของกอง
คำสอน
เข้ารหัส
ลอก@@
ข้างมาก
ใบตราส่ง
การเยียวยา
TS
HANKEY
Lo@@
ลูกศิษย์
สีจาง
เข้าออก
ภาษาท้องถิ่น
การเที่ยว
์วูฟ
ผวา
ปอกเปลือก
DE
อ้อ
เบ่งบาน
แสยะ
ชำระคืน
คิดผิด
ื้อ@@
ในใจ
คนญี่ปุ่น
เวส
๓.๑
ชุ
ในเครือ
พิ่ม
enc@@
เพราะฉะนั้น
บ้านเรือน
หว่ะ
อาญา
ตามใจคุณ
แพ่ง
เห็นภาพ
หุ@@
gra@@
หน้าด้าน
818@@
high@@
ตรัสรู้
ดวงใจ
เชิ@@
ฟิก
ค.ศ
เนื่อ
สะใจ
5100
เขน
อันโต
คุณชาย
ช่องคลอด
โน๊@@
iFi
ฮ๊อด
สละ@@
ไว้ชีวิต
แกรนด์
ละครใน
ลอยฟ้า
spectro@@
ปรับโครงสร้าง
lasma
DR
ประธา@@
100800
pled
โดนใจ
จี๋
เซนส์
เนื่องใน
หาความ
ขยับตัว
ยืนกราน
-on
เบิ้ล
การประ@@
ser@@
อเร@@
IX
จิ้ม
Sequence
สารอินทรีย์
เหยียนเฉิง
ประจำเมือง
กรณ์
รวด@@
ทัน@@
ัล
กษั@@
ดิจิทัล
ตุ้
การกวาดล้าง
rate
้วย
แก้ต่าง
ne@@
เม็ดมะยม
ัย
ฮอส
ริมทะเล
Induct@@
Vortecon
เปียก@@
15500
ผู้เริ่มต้น
ทิศตะวันออก
สาระ
โกฐ
ลมร้อน
ทศนิยม
ขัดถู
ประกันสังคม
บน้ำ
ความเฉลียวฉลาด
แนง
โซเดียม
ร.
714
น้ำเกลือ
ICA
LIN@@
แสดงหลักฐาน
1078
เอ็@@
ton
【อวี้
ชั้นพิเศษ
การจำแนกประเภท
ส่งจดหมาย
med@@
ก้อนหิน
กิลด์】@@
18650
ไลเนอร์
มีน้ำใจ
อ่อนไหว
เภ@@
พอที่
เทฟลอน
ระดับชั้น
รุ่น@@
ความตื่นเต้น
มื@@
เรียกหา
โดยอิสระ
เลิ@@
น้ำดื่ม
man@@
Sale
แจกัน
๊ก@@
งัด
กัก@@
all@@
Tencel
สันติ
ก้อย
ปู@@
เอาท์@@
พิธ@@
ไฮดรอลิก
ษฏ@@
พู@@
เกลียด@@
-WHITE
ze
ข้ออ้างอิง
โผ@@
NA
1,199
กลุ่มย่อย
ไมโคร@@
กัก
น้ำมันมะกอก
JBL
0.055
าร์ด
แผล@@
เฝ้าบ้าน
ล่ว
โควิด
ซาติน
เป่ย
วญ
ตั่ว
ห้องพัก
1240
เยี่อ
ชั่น@@
ศีล@@
ัม
"คน
ดาวรุ่ง
ิว
ความคลาด
ที่โล่ง
รักษาการณ์
Vertex
เครื่องหอม
On@@
Zn@@
UO
เผ@@
เห็นแก่
แข็งขัน
ไม@@
รอบ@@
พารา
ยุ
วัก
เสิ่น
ื้น@@
ADI@@
ยำ
อะนะ
ความลำบาก
พลาดโอกาส
ทุ่งหญ้า
เข้าแบบ
Tric@@
ซี่โครง
เรื่องไร้สาระ
แอ่ง
กร้าน
sun@@
พจน์
สัญญาณรบกวน
คร
ลัส
ราษฎ@@
xi@@
อะลูมิเนียม
1220
โหยหา
หมดแรง
หัวกะโหลก
เจ้าเล่ห์
ภาคเหนือ
เพล็กซ์
บาดเจ็บสาหัส
คนสำคัญ
ความดีใจ
ทั่ง
กลางเวหา
ทพ
นาม@@
​
ตอ
ิ่น@@
PH
Tal@@
White
น้ำผึ้ง
%...
Micro@@
ค่าสูงสุด
2840
zz@@
ศัตรูพืช
....................
นิสัย@@
เบา@@
บันทึกภาพ
dd
ถา@@
คุณย่า
เสน่หา
เล็@@
จิ้งหรีด
ส)
แวะ
รือ
เพาะ
ล้อ@@
ราะ@@
ๆจน
เบอร์รี
กุล
ุ่น
ต้อกระจก
UI
xfef
หยุดงาน
ประมวล
หวนคืน
เสมอ@@
เถ@@
ท่วงทำนอง
ฟอนต์
ฝน@@
ย่ำรุ่ง
ขสมก.
ปี่
ปอน
So@@
"%
LY
ครู่หนึ่ง
ke
ดัง@@
DAC@@
เต้อ
ลดขั้น
ผืด
%/
Jo@@
โทรม
;#
การลอก
ทุกคืน
มด@@
—@@
คลาย@@
ขาดหาย
HH
vip
เออะ
โคล@@
ห้าม@@
เซฟ
เพรียวบาง
เฝ้ามอง
การปล้น
ดื่มด่ำ
สักการะ
เท้าสาน
เลอะ
÷
ฟักตัว
KIN@@
รฟฟรุ้ต
Mic@@
IE@@
Spectro@@
igh@@
บูลด็อก
โรคเหน็บชา
dust@@
คีย์บอร์ด
เหลา
เก็น
con@@
นักแปล
อยู่ร่วม
ยั้ง
ดื่มเหล้า
เช็ก
ผ้าสำลี
6.8
webp
ผุด
แต่วัน
001
16200
DA
คา@@
ดินทราย
CHAR@@
ฮุ่ย
หญ่า
คำตัดสิน
แด่
ผ้าโพกหัว
หลู
บาทหลวง
ทังสเตน
สตริง
เป
RUNBEN
เก่งกาจ
การยกมือ
หมายความ
เลื่อ
เหนียน
เข้าตา
พลิ้วไหว
ซีกโลก
าก
เนรเทศ
้อน
็ต
6.4
ROH@@
ได้เสีย
น่าเอ็นดู
KE@@
เคอร์@@
TV@@
Co@@
จิก
แพ็ด
เปล่าๆ
แฟล@@
เด้
พุทธศาสนา
game
พลิกแพลง
กล่าวคือ
เฝ้าคอย
เก้าอี้โยก
โมรา
South
：/
เขย
วา
>สกิล
ยับยั้งชั่งใจ
้าม
ทานข้าว
GER
มะนาว
เรื่องจริง
อุปมา
สัญญา@@
กษ@@
ลลี่
เหยียน@@
๋อ@@
จู่ๆ
สุนทรีย์
ใบเสร็จรับเงิน
แนวตรง
HC@@
เครื่องบันทึก
ช้อย
หันไป
หุ้น
ใส่@@
CNC
ทวี@@
รถถัง
ความหิวโหย
พืช@@
เต้
Typ@@
จอแสดงภาพ
bas@@
RS-
คนจน
ฟรีสไตล์
หินยาน
SGS
ลอนดอน
เชิด
sti@@
ลายคราม
เอ็กซ์คลูซีฟ
0501006079
โดยเจตนา
ทารกในครรภ์
เสนอ@@
ตัวต่อตัว
ฝันหวาน
ระบ@@
แย่มาก
ลูกอัณฑะ
มูฟ
2808
จักจั่น
กระต่าย@@
ของเก่า
บับเบิ้ล@@
มุ่น
เท่าใด
ฝั่ง@@
เสาอากาศ
ต้อง@@
พิพากษ์
เปิดทาง
ไม้แดง
แป๊ก
ตามอำเภอใจ
สย@@
0.035
Sp@@
เหน็บ
พระพุทธเจ้า
ฟู@@
ควรระวัง
ลู่
มัว@@
1698
ทัศนียภาพ
15.6
ชัวร์
เก่
สูญเปล่า
ทะเลาะ
โพก
200,000
ความสมเหตุสมผล
คิดค้น
เงินอุดหนุน
โรคติดเชื้อ
กลีบ@@
ลบล้าง
ร์ม่า·
ull
ผักบุ้ง
เล่า@@
สัตว์@@
ตื่นนอน
รับภาระ
3128
ซึ@@
ปฎิ
หาเงิน
ทาวเวอร์
เขต@@
วิจิตร@@
อุบัติ
ไว@@
การสืบพันธุ์
ทางเพศ
ใบสั่งซื้อ
กร่าง
ใบอนุญาตขับขี่
การออกแบบผลิตภัณฑ์
5750
1701
ตระ@@
ดุลพินิจ
้าย
เสื้อกันฝน
MUJI
นยักษ์
แย้ม
MAC
SHI
0.96
ชั้นวางของ
loans
ปรึกษาหารือ
หรรษา
half
พอกับ
นิก
เบื้องล่าง
ดุจ@@
ไดรเวอร์
เร่าร้อน
ลอกคราบ
RF
ธัญพืช
โพง
หลบ@@
ล้างน้ำ
BIRKENSTOCK
12.75
ประจุไฟฟ้า
ไอน้ำ
รอก
99.99
ตราสาร
ระดับ@@
4140
การคมนาคม
ลังกา
1015
ค่าปรับ
2001
ควอนตัม
ยิน
ขัดรองเท้า
เชื่อได้
ตีสนิท
KB@@
ใคร@@
ปิดประตู
2.9
9.75
วางก@@
ฉื่อ
1.9
โรคเรื้อรัง
lene
1598
VI
น(
หินอ่อน
ตาขอ
นีคสกิล
การเต้นรำ
ปฐ@@
นิว
ย้ายออก
รู้ซึ้ง
การละทิ้ง
เจอร์@@
ครบ@@
ปูน@@
lec@@
เหล็กใน
เปรย
นักเดินทาง
tic
รุ่ง
สกิล【
ในขณะนั้น
ๆๆ！
เพียงลำพัง
ความคิด@@
โกเมน
เรื่องตลก
แดงก่ำ
ความอยู่รอด
แวดล้อม
อ่า
เฟิง@@
การเซ็นสัญญา
ผู้ส่ง
TD
เครื่องทำความเย็น
ขนย้าย
มีรส
ร้านอาหาร
พุทรา
ปล่อยวาง
ล่องเรือ
น่าสยดสยอง
23@@
เรียส
โค้ท
76380
Ying@@
2182
ลืม@@
16.8
อวัยวะเพศ
กวัดแกว่ง
เอเชียตะวันออกเฉียงใต้
ไอโฟน
653
ประชาชาติ
21.5
สตรอ@@
.อัพเล
สระน้ำ
อู๋
ความพ่ายแพ้
าว
เลขทะเบียน
ดุ@@
พิธีกร
ความโลภ
แน่ว
แหม
2750
ชิ้นเอก
รำ@@
พึง
อยู่ในเกณฑ์
คุ้น
Au@@
ช่างมันเถอะ
การแผ่รังสี
〔
ทางหลวง
ue
บ้านเดี่ยว
ี่ยว
แปรธาตุ
ปัญ
ดาวเหนือ
นางรำ
เปิดกว้าง
233@@
8400
tor
cont@@
ปล่อง
วก@@
อดไม่ไหว
〕
ราชสำนัก
แคร์
พิธี@@
มหาลัย
เอาใจใส่
ISO
ผ้าปูที่นอน
การจำลอง
tro@@
ผม@@
รืน
MP@@
ลำเลียง
เรือนกระจก
ไล่ออก
เทียบ@@
เนี@@
guideline
EU
CA@@
ตาดำ
บล็อกเกอร์
ฟากฟ้า
Aiweier
การส@@
สถานีรถไฟ
ค.
ศ.
อพาร์@@
ขุด@@
tic@@
cn
ผู้ทำลาย
ลายเซ็น
รณ@@
อำนาจ@@
ทำแต้ม
เยาว์วัย
tml
การสุ่มตัวอย่าง
นํา้
สิน@@
วอลล์
ถ่องแท้
ตระหนักถึง
ุณ
dur@@
ance
5080
โคร@@
14250
ญาติพี่น้อง
ของว่าง
GIA
พราย
ข้าพเจ้า
ทุกแห่ง
ไพร
1190
890
์|
ห่อตัว
ก์ชั่
ผู้สนับสนุน
มร
ซ้ํา
สังเกต@@
ไคล
เเท้
หลว
ชุดเจ้าสาว
เกะกะ
อ่อนวัย
กัว
พิบัติ
พอด@@
ึง
รพ
พีซี
วีรชน
724
ดวูด
มะละกา
จับกลุ่ม
ยอมจำนน
แชนแนล
คาเฟอีน
คาร์บอนมอนอกไซด์
แฮม
era@@
คนจีน
ตสห
โชนัน
ine
สาปแช่ง
อรัลด์
เปี๊ยก
สายโทรศัพท์
กลัด
ฉูดฉาด
น้ำดิบ
140340
ถัดจาก
กรีก
ซูเปอร์@@
การย่อยอาหาร
มนุษย@@
ดาราศาสตร์
กินที่
HI
นาฬิกาทราย
สายอากาศ
จับเป็น
อ้างว่า
ี่ยน
พุทธองค์
ผลการเรียน
จอม@@
ดรอป
ระคาย
นั่นเอง
IC
3800
ler
ตกอยู่ในอันตราย
สู@@
eri@@
บุคคล@@
ชอง
0.085
เลิฟ
เบ้าตา
เหลียง
แบ๊ว
มหันต์
207008
5883
5273
11245
3200000
บัต
กลุ่มตัวอย่าง
๑.๑
คาดการณ์
บอล@@
prof@@
ตัดต่อ
ขวาง@@
แต่เพียง
【เฟิง
mAH
น้ำส้มสายชู
MINI
EM
6650
จำนวนเต็มบวก
multiflorum
Polygonum
เชื้ต
ปาล์ม
จัม@@
ศูนย์ถ่วง
กุลสตรี
แพทช์
อรุณ@@
ฝุ่น
เป็นระยะ
UVB
จัดจำหน่าย
น่าพอใจ
รังแก
ings
rease
inc@@
ks
น่ารื่นรมย์
็จ
yl
CB@@
ทั่วประเทศ
เก็บ@@
ประมวลผล
หลาน@@
วีน
โอหัง
ผู้สูงศักดิ์
No
เข้าแถว
งานก่อสร้าง
Heav@@
เสา@@
30400
เพื้อ
การผลักดัน
0.08
2740
อาหารเสริม
มั่นคงแข็งแรง
ลดน้อยลง
เนื่องจากว่า
โปรดปราน
เปิดศึก
สักขีพยาน
คู่บ่าวสาว
หยิบ@@
โพ้ง
การขัดข้อง
at
หรา
เอื้อม
ดาน
ดูท่า
คัดออก
เทคโน
ืิ@@
อุดมการณ์
ฮอลลี@@
วิตก@@
ร้@@
52500
KPU
คัด@@
ไทร
24.2
ผู้ให้กำเนิด
พุ
กึ่ง@@
บัก
645
ีน
เกณฑ์ทหาร
แฟคเตอร์
เธ@@
รักษาตัว
ES
คิดมาก
สละสิทธิ์
แกง
เจือปน
บิก
funding-cost
management
กล้อง@@
ขี่ม้า
นาฬิกาจับเวลา
ข้อมูลออก
@@
ช่าย
อาฆาต
3850@@
ระเหิด
บังคับ@@
ทรัพยากรธรรมชาติ
ราบคาบ
ฤต
เทคโนโลยีสารสนเทศ
อัก
1599
แอนิเมชั่น
แบทช์
ผันแปร
38182
ผ้าก๊อซ
เด็กอ่อน
เมือง@@
Wrangler
หยอกล้อ
หาด
orse
เริ่มแรก
การฟื้น
NF
ปก@@
ประถมศึกษา
วิถี@@
HEPA
ปีกค้างคาว
ส่วนสูง
sunfes
KI@@
แบบเรียน
ฉวยโอกาส
พื้นโลก
เอ่ย
แดงสด
ร์ม
ข้าวโพดคั่ว
สร้างภาพ
รัด@@
ption
ภาพพิมพ์
ปั่น@@
ดอลลาร์@@
HFP
เทศบาล
กาแล็กซี่
2559
กินี
/)
เซลลูไลท์
ทุกซอกทุกมุม
ไถ่@@
ถล่ม
WINNER
ถ่อ
คนเดินเท้า
อิเล็ก@@
รีโมต
กระจุ@@
แอโรบิค
เสมอกัน
ถี@@
ซีลีเนียม
nBuff
หัตถ์
ฟิวชั่น
เพิกเฉย
กรีฑา
PD
กอบ
หนัน
แช
ตำแหน่งงาน
1536
·ห
อิเล็กตรอน
ฟแวร์
บ่งบอกถึง
eng@@
เบญจมาศ
vers@@
การขโมย
หลังยาว
3650
ฐานทัพ
โฮโลแกรม
ost
แง่มุม
ชุม
พักร้อน
ฮวงจุ้ย
ปีหน้า
นครราชสีมา
ลักษณะเด่น
บาร@@
เซิร์ฟ！
๑.@@
ุ้ม
ื่ง
อุปกรณ์@@
เช่อผิ่น
เปียว
ลาด@@
JP
ขี้เหร่
ลัง@@
Black
ฮอล
เข้านอน
แก่@@
ความว่างเปล่า
ฉี่
ริมถนน
ล·
แข็ง@@
โสภณ
ช่วย@@
เป็นแผล
ตัวกลาง
หนองคาย
_#@@
ปลอบใจ
2005
VAN@@
DO
มิด
เป็นที่@@
โบกมือ
ชึ@@
ทศ
สลัด
กระดาษ@@
พิธีการ
ตูม
ยืดอก
มั่น@@
ปลูกถ่าย
ปิรามิด
ระเกะระกะ
9378
·จื่อเว@@
พิมเสน
โจ๊ก
มะเขือเทศ
ละคร@@
นด@@
บัตรประจำตัว
สเปก
ลอตเตอรี่
เพรส
เจี้ย@@
12.6
Off@@
เมล็ดพันธุ์
xlsx
หลาม
สมรรถภาพทางกาย
JFT
หลัว
จู๋
พ้นตัว
ลายไม้
บำ@@
ทางเดินอาหาร
๋ง
ประคับประคอง
เป็นชั้นๆ
ใด@@
ใหน
ถัมภ์
เนื่อง
eb@@
่อน
10.4
เฉียบพลัน
ความประหลาดใจ
stitu@@
Science
ร้อย@@
csv
TER
เลส
ips
มัต
สะระแหน่
วิง
23000
อาเจียน
ปลายจมูก
ห้ามไม่ให้
โหว
ส่วย
ปฏิบัติ@@
งู@@
ออกตัว
ฆาตกร
เคลียร์พื้นที่
อากาศ@@
อารมณ์ขัน
ท้อ@@
Pe@@
3.1.1
รรค์
ถี
จุดสนใจ
,500
6480
ก้นบึ้ง
xls
การโจรกรรม
จุดหมายปลายทาง
ตะกล@@
โหย
spectrophotomet@@
สลับซับซ้อน
Hear@@
สอด@@
เชิด@@
จาก@@
Miyake
lssey
ทิศ@@
ทางรถไฟ
」
43250
บราซิล
VER@@
กระหม่อม
Redline
เขียว@@
รบศึก
bo
Richell
สเกิร์ต
ทุกราย
โย่ว
หักคะแนน
ดมกลิ่น
ข้อผูกพัน
อุปนัย
กลับตัว
เจตนาร้าย
โดด
วุฒ@@
ทองคำขาว
เลียน
นอนลง
ไพ
ฟู้ด
เม้
กระด้าง
เหน@@
ฟู่
รัม
เป็นส่วนใหญ่
tea
ฉง
50,000
***
ไหนล่ะ
mA
เถียง
เอีย@@
เหนี่ยวนำ
หูด
มาตรฐานอุตสาหกรรม
ผู้ชำนาญ
เจิดจ้า
ความเร่ง
ror
Landing
Page
องค์ความรู้
ไก่งวง
วิบวับ
bu@@
ency
par@@
ี่ยม
yi
อุตุนิยมวิทยา
ขั@@
นนาน
ไนท์
【ฉงฉี】
IC@@
เสื้อแขนกุด
เอม
การสลายตัว
ตะวันตกเฉียงใต้
ACC
ci@@
ทธิ@@
ตัวเอก
แยบ@@
สเกตบอร์ด
ขบ@@
bil@@
สำนักงาน@@
ถอนพิษ
โด้
ไชน่า
ป็น
เดน
เสะ
Note
นับ@@
น่าเศร้า
อ้อม@@
ขายตรง
กุทัณฑ์
็อกเก็ต
เด็กประถม
กล่อง@@
เครื่องเขียน
อ่าน@@
IO
ภูมิลำเนา
เยียวยา
มัวเมา
une
โกรธเกรี้ยว
เย็ย
PR
STAYREAL
1640
เครื่องเคลือบ
ุม
ท์@@
าส
การละ
แคทรีนา
ถีบ
หวีดหวิว
เจ้าบ่าว
ขึ@@
แทรกแซง
ตั้งตรง
Br@@
พน@@
สวด
ระเริง
กลมกลึง
๒@@
ลิฟต์
จารย์
ประสิทธิ
กง@@
NAME
วงใน
พิษ@@
วูล
สดๆ
นู@@
เสินหนง
ใหญ่@@
นายหน้า
ดลใจ
16800
อีกา
เรือนร่าง
key
กระดูกเหล็ก
MIN@@
ครรภ์
Xia@@
สกิล）
ผ้าลาย
สแน@@
ําหนด
ขึ้
เผลอ
ศก
ก็ช่าง
็ด@@
นักงาน
ปวดเมื่อย
ช.
ความถ่วง
ขอลา
นั้นๆ
เลี้ยง@@
ตัส
ESLOE
้อย@@
ไนโตรเจนออกไซด์
yl@@
เสินหนง@@
iph@@
อนุ@@
ผด
ไม้โท
LR
การทาสี
อริ@@
KRACIE
KT
85200
่อน@@
ระนาบ
ทรั@@
เนีย@@
แนนซ์
ชื่นใจ
กิ่งทองใบหยก
GOYARD
เปลี่ยนสภาพ
ner
เครื่องกำเนิดไฟฟ้า
มลทิน
1.6
การทำร้าย
นุ่น
ได้คิด
ุด@@
ตัวนำ
เผิน
แต่งเล็บ
เพ้นท์
q
TPE
ศูนย์ปฏิบัติการ
เกตุ
จีวร
12.1
77@@
บ้าบ๋า
สเต็ก
บทละคร
พลู
ฟัง@@
ีกา
มิใช่
ฆ่า@@
เมษ
ดัก@@
อ้ว@@
สกิลรถ
ไอโอดีน
handle
แฟ้ม
3000000
เมืองท่องเที่ยว
คอนเทนเนอร์
WS
เฟิร์ม
กิเลส
ความน่าเชื่อถือ
โลก@@
พฤ@@
16.25
รีต
สะด@@
ดอกไม้@@
cel
ชิน@@
ข้าวหลามตัด
เครือ
)×
2011
BB
.ค.
ขยันขันแข็ง
2022
วต
เปลี่ยนตัว
ต้นแบบ
เกร็ง
วันดับ
ทหาร@@
อาหรับ
หากว่า
＞
2360
ค์】
950
แฮะ
ชื้อ
บับเบิ้ล：
วจี
ถนน@@
OT
เครา
พลาด@@
ยาคุ
เดียน
ชาน
Inching
สว่าน
ฉ
คำเติม
ระดม
ปลายปี
สร
ก้องกังวาน
TOYO@@
ตีน
๘๐
กวี
เศษ@@
8.3
:+
อย@@
ตั้งคำถาม
ระบบปฏิบัติการ
เป็นระเบียบเรียบร้อย
747
มิลค์
................@@
ลัย
เกียจคร้าน
se
เบลอ
ระเบียง
อยู่
ไม้กระดาน
กระบองเพชร
ี้ยว@@
มูท
sh
ขีดความสามารถ
28.@@
แยกสี
คารวะ
สลายตัว
ทิฟ
งผล
ต้@@
อายุ@@
old
ไร้ประโยชน์
การย้อนกลับ
ity
count
กระดูก@@
พอเหมาะ
เจริญพันธุ์
เช็ดมือ
หูหนวก
ความเป็นมนุษย์
ชักชวน
ตรี@@
ย\
ไม้กวาด
อโร@@
การคุมประพฤติ
89@@
สวัสดิ์
อิส@@
นิทรรศการ
Bank
เจตจำนง
สมรู้ร่วมคิด
เห็นแก่ตัว
1855
3875
18550
ดั้ง
แลนส์
ตามหน้าที่
เพื่อนรัก
มาร์ท
red
12340
๒๐
22.@@
คะแนนเต็ม
เลี้ยว@@
ชมพูทวีป
เฉลิมฉลอง
Skill
การคุ
Messenger
เทศ@@
ไก
ภาพล@@
su
รีบ@@
เยื่อบุจมูก
เน็ท
ไม่ได้
ติน
ู้ด
แน่@@
ey
นำมา@@
ี๊@@
ปูน
แก่เฒ่า
โฮะ
สุนทรีย@@
POL@@
mass
โพล@@
yp@@
แต่ยังไง
CON@@
เป็นธรรม
ล็@@
แล็ค
แมนเดอร์
Code
นะ@@
แสดงหญิง
แต่ง@@
）”
ไส้กรอก
โป้ง
แจ้งความ
เร่งรีบ
อป@@
เหรียญ@@
เรียด
ื้@@
เสิร์@@
แนะ@@
เร่
จร@@
ก่อน@@
ขยับ@@
โมซิส
ใจกล้า
เบาหวิว
แล็ต
อรีน
้ต
แดดจัด
แมงกานีส
ชิต
หาร@@
สูต
ศัลย@@
เท็กซ์
เฟรช
、เล
เน็ตเวิร์ก
หล่อ@@
ศัย
ณา@@
ไขลาน
ใช
า@@
กะโหล@@
โภค
เฟ้น
เผือก
BA
ยน@@
แฮ็กเกอร์
แล็กเกอร์
โชว
Man@@
เที่@@
แพทเทิร์น
บ๊@@
ําร@@
เต็@@
rac@@
ลื@@
โปสเตอร์
จือ
เรียบๆ
โฟ@@
โดยตั้งใจ
แฉ่
๒๕๕๗
บกพร่อง
สห
โทษให้
งเปน
ถ่าน@@
มพ์
ฟิล@@
ไช
ปฎ@@
บัติ
ปลุ@@
โตร@@
โดนัท
กางเกง@@
ไม้เป็น
เพิ่มปริมาณ
แผ่ขยาย
ฟื@@
โข่ว
โวหาร
ฐาน@@
ข้อง
→→
กฎ@@
ทาร@@
แม่นม
โมร็อกโก
โตมา
HON@@
เยาะ
เลนไทน์
ไถ
มม@@
เมี่ยน
กรด@@
ียม
ค้า@@
ราช
เป็นกอง
ฉาย@@
ให้ความเพลิดเพลิน
ญญา@@
เล็บมือ
โดยดี
เติบ
ทัล
บันทึก@@
แผ@@
ผุ@@
๐๐
23.@@
โรม
็ป
เช็ด@@
ตัล
เวดจ์
ฟ้อง@@
โอ๊ย
โซม
วัสดุ@@
reas@@
บร@@
แจ้ง@@
สำนึก
0.00
ฟอ@@
ไท@@
ให
Ⅰ@@
เมิ่ง@@
เต้นท์
ฝ
เวิน
้งก่า
เต็มปาก
ลูน
วุโส
Red@@
รอป
ไร่นา
นม@@
เลื่อมใส
เปลี่ยนใจ
พิพาท
เป็นรายบุคคล
เทอร์โบ
แรงขับ
ซ้ำแล้วซ้ำ@@
เอ๋ย
ดุริยางค์
ขม@@
เสี่ย
เอาผิด
ผี@@
หวัด
ไซน์
โว@@
เสียงก้อง
โง่เขลา
โพ้นทะเล
เลขา
เย้
สมั@@
ตาย@@
ทุ่ง@@
โด่ง
โปรดิวเซอร์
เพียว
เรก
หม้อ@@
ิต@@
เบลเยียม
๔๑
กลำ@@
แบเรียม
น์@@
เอกสารราชการ
เร็ต
ใจรัก
แอฟริกา
Sa@@
ไฟฟ้า@@
้นรูป
เหลือบ@@
์ส
็ค@@
๓๐๐,๐๐๐,๐๐๐
เลยเวลา
หน่วง
แสงอ่อน
เต้า
เนก
เหว่
โมงค์
วรร@@
โฮม@@
สิง@@
แด@@
ซิลิ@@
จา@@
เมมโมรี่
ิล@@
เทียน@@
ตำแหน่ง@@
เฟล
ดำรง@@
TEX
แค่เอื้อม
AL
ไปซ้ำมา
เวท@@
ดิส@@
โลกาวินาศ
เลิก@@
ฮาร์ด@@
【ฮุ่นตุ้น】
cost
ไอศกรีม
เลง
ยาก@@
ฉี@@
เมี่ยว@@
เน้น@@
โจ
ขาว@@
เรื่องเล่า
เปราะ
เมื่อเช้านี้
เสี่ยงอันตราย
แก้ตัว
สมา@@
ในเวลานั้น
ษฐาน
กรีน
วเตอร์
ตีน@@
สถ์
เลใจ
เรื่อย@@
เปล่งเสียง
วัติ
ไคโตซาน
ได้ตัว
เคยชิน
แพ้ชนะ
บัส
ประยุ@@
____@@
________________@@
----@@
เศรษฐ@@
ฮั@@
เปรียบ@@
นำ@@
Ⅳ
่าร้าง
คัก
แยแส
มนตร์
โจทย์
๒๑
เป็นต้นเหตุ
ป่า@@
แตงโม
เปล่ง
เคียง
เอกสารอ้างอิง
เลี้ยงลูก
พยา@@
】*
กระด@@
คุก@@
ปัจจัย@@
่วงที
เอะอะ
จื่อ@@
ดอก@@
มล้อ
โมเมนต์
ต่@@
แปลความหมาย
เมินเฉย
โดยไม่ตั้งใจ
เอ็ก
quiv@@
【พั่วจ
ฟอร์@@
”\
ต@@
ใหใช
ิส@@
แวบเดียว
แอว
แอบซ่อน
แคลคูลัส
โรงเรียนมัธยม
ีย์
ชี้@@
คาเฟ@@
เยียน
สรร
กี@@
สห@@
ปัก@@
✘
มวล@@
เช่น@@
พฤษ@@
ภ์
่นมัว
ยุทธ@@
เซล
กิ่ง@@
ซ่าน
คัญ
เป็นกันเอง
ต่อเมื่อ
เย็นตัว
ไวนิล
โบราณคดี
ea@@
เพราะ@@
ใยแมงมุม
ใบพัด
เงา@@
โพธิ์
เทคโนโลยีชีวภาพ
เจาะ@@
เสแสร้ง
กราย
เศษไม้
ฝาก@@
เอน@@
ํารวจ
เปิ้ล
๋มกระจิ๋ม
นซ์
เคราะ@@
หาย@@
โน้ม
็น@@
ญา@@
ใดอย่างหนึ่ง
เบนซิน
หอ@@
ฤ
du@@
เท่า@@
๊อ
่าชีวิต
ไร้ผล
เส้อ
ให้กำลังใจ
็ท
ทิว@@
เป็นประกาย
่อยครั้ง
ใหญ่หลวง
เล็กซานเดอร์
แก๊@@
เซีย@@
เวิ@@
กรรมการ@@
แรม@@
โคมไฟตั้งโต๊ะ
่าย@@
ตาล
มาร@@
เจตนา
เห่
hop@@
ครั@@
โครงสร้างพื้นฐาน
ไม่ถึง
เปื่อย
ัต@@
Le@@
ได้เปรียบ
、คม
ไฟเบรก
เผ็ด
สัมผ@@
อสุ@@
๙@@
TEVI@@
เอื้อมมือ
Shop@@
โกรท
รวบ@@
ษย์
BC@@
ทุก@@
เนลย์
ขย@@
【กิลด์
มีด@@
งก@@
ไต่@@
สตร@@
（/）\
แบล็คลิสต์
ไมา
สาป
้านำเข้า
เพื่อ@@
เจอร์
็อต
เอ็น@@
เผยแผ่
แรงดึงดูด
เบ็ด@@
ปลีก
_]@@
เพื่อนร่วมห้อง
แอนิเมชัน
เหยา
xf@@
ฮา@@
โลวีน
เมนต์
ให้โชค
ว้าง
เสียหน้า
หัส
ผจ@@
ประก@@
พิทักษ@@
์ทรัพย์
-W@@
IF@@
ักษ์
สุภาพ@@
แฟชั่@@
แปลภาษา
tex
แคร่
ไม่เบา
ฮอร์@@
ซื่อสัต@@
มหั@@
เลือกตั้ง
เนื้@@
ไกลๆ
ริยะ
GD@@
เต็มอิ่ม
ไซด์
เสม@@
]@@
นด์
ใหล@@
เคียง@@
ก์@@
แมกม่า
ปัน
หนุน
เที่ย·
ไปนอก
ลิก
ted
เรื่องเล็ก
โท@@
่อมราชวงศ์
ฑ@@
ไข้เลือดออก
เท้าช้าง
ๆๆ……
เสก
เวง
าย
⑥
อนุบาล
ไม่เป็น@@
โลง
แมรี่
เที่ยง@@
ต้องโทษ
เกิด@@
ตย์
๊ค
กซ์
ทรง@@
มีส่วน@@
อารย@@
ทัศน@@
สี่@@
หวงห้าม
โปรเจ็กเตอร์
sta@@
เลื่อย
พิ
ไมแน
ก๊@@
กรีด
่วิทยุ
างเชน
โบกี้
​​
ศจรรย์
เบื่อหน่าย
ใจความ
ไฮด@@
》（@@
เบิร์ช
ite@@
ังก@@
ําหนด@@
อล@@
GE@@
สโล@@
โป่ง
็อค
เลข@@
、แพ็ก
เอซ
ทำความ@@
ส้ม@@
YO@@
％@@
พื@@
แฟรนไชส์
โปรง
เลอะ@@
รวจ
ึกษา@@
เปิดหูเปิดตา
เย้ายวน
แฮร์
แคง
ไทม์
เฟือย
ถน@@
โครง@@
่อย
แปลก@@
！？
เมอร์
เย่อหยิ่ง
แพ@@
เมะ
บุป@@
PV@@
68@@
ทันต@@
เระ
บริ@@
เลือน@@
เอฟโอ
ี้ยน
โคไล
แคนดิดา
ลักษณะ@@
เที่ย@@
เอางาน
นัท
ไฟเขียว
วิศว@@
wif@@
คลับ
เอาเปรียบ
ในการนี้
โก้หรู
วิธี@@
คัส
、ผล
ไฟ้
MS
ประพฤติ
ต้องสงสัย
็อก@@
ศาส@@
ล็ด@@
ไส@@
ครึ่ง@@
เก่ง@@
้วนแต่
ศาสตรา@@
เผาขน
ธ์
บริหาร@@
แป๊ะ
แม่น
เป็นไข้
ใจได้
เหยี่ย@@
เชื่อ@@
il
แอมป์
เมเนียม
ให้ราคา
65@@
ีท
ียว
NS
เอทิลีน
เพีย@@
ใช@@
เมารถ
Log@@
่าง@@
ช้า@@
ใส่รหัส
จิตร@@
์·
แรกเริ่ม
88@@
เพื่อนร่วม@@
เป็นกำลัง
แย้ง
แล้วด้วย
ฑ
สรรพ@@
LOG@@
กังวาน
jp@@
】：
แผ่นดินไหว
หิวโหย
ีด
พันธ@@
รส@@
ใจคอ
้อง@@
โอลิมปิก
แพร่@@
เบือ
พิศ@@
๖๔
IFI
อร์น
หนาว@@
Pro@@
แปรเปลี่ยน
โดยสังเขป
เรือธง
ไข่@@
ตราย
แขนง
กรุ@@
ได้กลิ่น
Fac@@
ตะวันออกเฉียงใต้
โดยง่าย
โชก
โพธิ@@
แปดสิบ
BT
เหี่ยวแห้ง
ไซ@@
day
หวั่น@@
เสื้อกันหนาว
ไหว้วาน
ญญากาศ
เบรน
โทร@@
เบาะ@@
เฟค
ิร์@@
็บ
ไล@@
ณฑ@@
จอ@@
ฝีปาก
เปนตน
โดยสรุป
เป็นกรด
พัง@@
→+
ุ่น@@
,๐๐๐,๐๐๐
ไลฟ์
แอพพลิเคชั่น
คู@@
ใช้อำนาจปกครอง
ในบ้าน
รองเท้า@@
นิเวศ
เสี่ยง@@
。\
่วงใย
อัลตรา@@
โฟลเดอร์
หลัก@@
เฟร@@
ไม้กางเขน
แคลอรี
พย@@
col@@
๑.๓.@@
โก๋
บด@@
จ้าง@@
คอม@@
แข่ง@@
มพร้อม
จิต@@
แต
ใข่
ทึ@@
๋า
๔๘๕
้าฝรั่น
นิเม@@
ตเต@@
แก้ปวด
็อบ
Ⅰ...
สิทธิ@@
เอฟ@@
แกล้ง
เหี่ยวเฉา
ิก
ลฟ@@
โรงภาพยนตร์
TP@@
ปลอด@@
โต้@@
แปร@@
อนด์
ma
๖.๑๕
ฮ
เมดิเตอร์เรเนียน
เรียกตัว
、/
แก๊ป
เถียน
ทา@@
อรี
ก้อน@@
ล่อ@@
สถานี@@
ื่อง@@
๒๕๓๗
……………………@@
เย็นเยียบ
--@@
โข@@
24.@@
เน่าเสีย
แบล็กลิสต์
ู่
เรน@@
แฟลกซ์
CR@@
โล่งใจ
เท่าที่จำเป็น
โรงเรียนอนุบาล
hh@@
าง@@
ิ่ว
ให้ยืม
เล็น
❤
ใดคนหนึ่ง
จำแน@@
เสี้ยน
แต่แรก
วิสัย
โดยไม่@@
สีมา
กร่อน
คํา@@
hai
ปุ่น
โอกาสพิเศษ
ไมค์
ษณ@@
แยกร่าง
เภสัชกร
่ห์
โห@@
เป็นสุข
ไบต์
ฤษฎ@@
วด์
โรคศิลปะ
โต้แย้ง
สี่เหลี่ยม@@
ล์@@
โยกย้าย
》@@
แจ๋ว
ละม่อม
ยี@@
เถ้าแก่
ซอ@@
ศิลป@@
ินท@@
ธรรม@@
เปลี่ยน@@
ูด@@
วรรณ@@
ขม
เฟลม
คณิต
ดูแล@@
เทอร์โมมิเตอร์
ฝึก@@
ric@@
VA
ตะกร@@
มั่ง@@
เอวบาง
Hua@@
หุบ@@
น่าย@@
ตู้@@
โย@@
ต่างชาติ
！）
แปลกปลอม
่วย@@
้วน@@
1401005@@
เกีย@@
เมฆ@@
เสือดำ
ไม้ซุง
ทุกข์@@
เติ้ล
หลุม@@
เลิกเรียน
โบน
ครู่@@
หนัก@@
เปร@@
สโ@@
ไมย
แบ่งส่วน
นคร
ใบสั่งของ
บัว@@
ดำเนิน@@
OC@@
ฟเฟอร์
หัต@@
od@@
สถ@@
AME
ถง
ers@@
±@@
เลียง
สุล@@
ปรั@@
@@
เข้าใจ@@
จัย
แย่@@
dle
ครั้ง@@
กระบวน@@
่วน
EX@@
เจริญ@@
hone
กับ@@
Bio@@
่าว@@
iEngli@@
ซอม@@
กว่า@@
ซึม@@
ถอย@@
ศู@@
ตื่น@@
ขนาด@@
ออปติ@@
ประสา@@
สถา@@
↵
เบีย
ควง
ฟอก@@
ี้ยว
ยนต์
ทรู
เร็@@
ียล
ดื่ม@@
ตระหน@@
เซน@@
กอก
ศจ@@
๓.@@
ลอ@@
เหร@@
ii@@
แซง
Sel@@
ปฏิกิริ@@
อสัง@@
แบนด์
พย์
คลาด
ธนา@@
อุต@@
เบียน
โฉ@@
เฟิร์@@
น้@@
กษุ
line
คุม@@
แปด@@
ท่อง@@
บัด@@
กล้าม@@
โชย
ควอ@@
พพ@@
คาบ
ผู่
’
เช็ดตัว
‘
แสร้ง
fac@@
led
หลีก@@
orte@@
ให้เกิด
ล่ม@@
เกอร์
อีย@@
กเก@@
บ่าว
สำมะ@@
ระบาด
43@@
คาง@@
MAR@@
ล็ด
ให้เห็น
จมูก@@
กะโหลก
อื่น@@
ไกร
ท่วง@@
สัต@@
รูปร@@
ยุค@@
แบร@@
สนุน
ิบ@@
คอบ
สรรค์
คลิ@@
คืบ@@
เครื่องทำความ@@
pc
มทรัพย์
นัน
แทรก@@
จ๊@@
ตรว@@
ละม@@
EXP@@
แพลต@@
®
เบ็ด
ทรว@@
กาจ
บำเพ็@@
ทัศ@@
เบล@@
ประเพ@@
โคว@@
แตะ@@
ชื่อ@@
อุตสาห@@
ื่อย
ขนม@@
โรงเรียน@@
ยูนิ@@
บาด@@
min@@
แปล@@
โฉม@@
การสืบ@@
มัธ@@
AF@@
ปาร์@@
ตุ๊ก@@
๊อป
MG
ครึ@@
AA
เต้น@@
มมือ
ไดนามิ@@
เบิก@@
โปร@@
ซีเมนต์
แขวน@@
บุก@@
การจัด@@
คลัง@@
ชาว@@
คาร์บอน@@
ลุ่ม@@
เตา@@
เว็บ@@
เชื้อ@@
สู้@@
ละเอีย@@
เมิน
ี่ยง@@
ไว้@@
ต้า@@
ตบุ@@
หลีก
ไถ@@
ข.@@
เมี่ยม
อีก@@
ตอบโต้
ใส@@
อินเตอร์@@
ดาวน์@@
จริ@@
แฟค@@
ทันหัน
นด์@@
หมุน@@
เจต@@
ทรัพย์@@
ศูนย์@@
สง่า@@
๊ด
เกษ@@
หาง@@
ยุ่ง@@
ไซม์
ศัพท์
32@@
ซาบ@@
ย่ำ
สเตอร์ลิง
เปน@@
สงสาร
สะพ@@
ภาษ@@
พันธุ@@
ปราศ@@
แร่@@
…@@
เนื่อง@@
เหนียว@@
‰
โลห@@
yg@@
ข้า@@
AO@@
VC
นั่น@@
สนม
ชอป
่าน@@
เวิร์@@
พ้น@@
⑦
นิจ
หวง@@
พุต
อย่างไร@@
แปลง@@
๊ด@@
ทึ่ง
erBiz
เวีย@@
บ้า@@
๕@@
ความยินดี
ตาก@@
หมั่น@@
แถ@@
หลาย@@
S-
โส@@
หุ่น@@
ก์ชั@@
เวิร์ก
ina
ดาย
LULULU@@
หวน@@
อกไซด์
้วน
ราว@@
ล่อน
เวอร์@@
ย่อ@@
wind
วิชา@@
Ⅵ@@
คั่ว
ีร์
จ๊ะ
ป์
ชม@@
โรแมน@@
ความด@@
พัน@@
’@@
สร้อย@@
เฉลียวฉลาด
ทอ@@
ปรารถ@@
you
เรต@@
เพิ่ม@@
HI@@
เทอร์@@
i-Fi
You@@
เท้า@@
ฮอ@@
เคี้ยว
เจร@@
wei
้าย@@
อู@@
XX
ตุ้น
หัด
ence
CR
สัญ@@
ergy
อรี่
พยพ
นคร@@
กู@@
คอป@@
ปราม
จี@@
ans
นิร@@
โอลิม@@
กประเภท
แว่น@@
จุล@@
วัต@@
โลกา@@
โค้@@
หนัง@@
ศ์
กิ้ง
เดียม
นาฬิกา@@
ฆ@@
LAYBOY
บาก@@
กาย@@
ล็อต
รายบุคคล
วส@@
เอ็ก@@
ประน@@
หิ@@
วียน
เว้น@@
Pag@@
แมต@@
มนุษ@@
โกง
tu@@
อค
หน่ว@@
ฟิต@@
วิก@@
จริต
รฟฟ@@
dro@@
ศรี@@
ชีวิต@@
ล\
อาร@@
ละเอียด@@
เต็ม@@
กล้า@@
สึก@@
ผันผวน
๋ม
@@
AD
ักษ@@
ิ่@@
พริ@@
หนืด
พ.@@
สเป@@
วนา
ไหม@@
ชง@@
ือบ
รำคา@@
อรุณ
เฝ้า@@
่อม
ลัย@@
เครื่องมือ@@
คี@@
มเป@@
ify
ิตย์
จื@@
โทษ@@
ไห้
็กซ์
เซีย
ผู้ว่า@@
ใกล้@@
มส์
กรณ์@@
วิท@@
โทรทรรศน์
สุ่มตัวอย่าง
ทซ์
ฟุ@@
เจี๋@@
ิ้ง
ฟเฟ@@
สถาบัน@@
ไต้@@
～
ดึง@@
ส่า@@
เสื่อ@@
ล่ม
ระเบียบเรียบร้อย
ขืน
ราญ
112@@
เมด
Engli@@
PEG
น้อง@@
ละอ@@
[@@
ป่วน
ora
แอพ@@
พลิเคชัน
เด็ด@@
บอบ@@
ียม@@
เหมาะ@@
ฮุ@@
ื่อ@@
โปรเจ@@
TH@@
ผลัก@@
อยล์
ทอน
ป้าย@@
ยิ่ง@@
บับเบิ้@@
79@@
เฉียง@@
ือย@@
เฝ@@
คบ@@
500@@
พรร@@
เร่ง@@
ก้าว@@
มึน@@
จ่าง
แพท@@
ห่าง@@
างค์
คารา@@
ุ่นตุ้น@@
พี่@@
นัย
แลก@@
หลับ@@
ประเมิน@@
ถิ่น@@
ี้ย
MV
ีต
นเลส
อัต@@
กลึง
อ๊@@
จง@@
ตึง@@
ไก@@
เวย์
ill
สวัสดิ@@
ฺ@@
กระบ@@
รียว
web@@
เก็@@
บอน
สะอ@@
สามั@@
ชื่น@@
¥
นีประนอม
คริสต์@@
สงค์
สรร@@
หล
บึ้ง
โมน
เติ@@
ค่อน@@
IE
กัล@@
กรับ
แหล@@
ภู@@
เปอร์@@
เฉียบ@@
ดว@@
เต็มไป@@
โส
（/@@
110@@
เนอร์
ี่ยง
Inte@@
บลู@@
ใข@@
คัมภ@@
ิติ
สมรรถ@@
เยือก
คืบหน้า
ันธ์
ย้อน@@
มืด@@
ซาน@@
โคมไฟ@@
θ
ปันผล
HE@@
ยาม@@
ปัจ@@
ื่น@@
ประมวล@@
rig@@
่ย@@
ไหน@@
ฬิ@@
พระคุณ
i-@@
ไหว@@
เศร้า@@
เมล็ด@@
บตา
เจน@@
＆
เหลี่ย@@
CM@@
เพลิง@@
บูรณ์
ราก@@
ตรึง@@
ประสิทธิ์
การย@@
Mod@@
ถัด@@
และ@@
°@@
24@@
เครื่องจักร@@
ซิน@@
ใคร่
บ่าวสาว
rang@@
นี้ไป
พาณิช@@
9.0
วัฒ@@
แห่ง@@
ขาม
๊อก
นานมาแล้ว
บิด@@
เถ้า@@
ยอด@@
ขนา@@
¥@@
พุทธ@@
ชุ่ม@@
;@@
เบื้อง
่วง@@
๋ย
บอก@@
j
-D@@
อัจฉ@@
Th@@
เฟอร์@@
ฮาร์@@
photomet@@
ปลอก@@
โหย@@
เซลเซียส
จำน@@
ประค@@
ame
636@@
อุบัติ@@
กต์
เอฟเฟ@@
GO@@
ผู่กง
สวม@@
ช้อ@@
ฬ@@
้ย@@
แฝ@@
กรง@@
เครื่องดูด@@
แพร@@
ผู้มา@@
เนส
WikiF@@
าสต@@
ls
ลเลียม
HP@@
สับ@@
ตตา@@
ทธ
_#*@@
เอื้อ@@
คื@@
มาน
ษา@@
จักรยานยนต์
ครึ้ม
เตอร์@@
้าว
ชัย
บัล@@
ื้อน
ทธิ
เพาะ@@
ถัง@@
สัย
ซักฟอก
รั้น
รม@@
ณ์@@
แก้@@
Ⅲ@@
✔
จุกจิก
hod
พาร์@@
85@@
ด้ว@@
สัมผัส@@
สัญญาณ@@
แวว@@
√
Zhu@@
มุ่งหมาย
ถั่ว@@
cs@@
《@@
º
GI@@
วด@@
lin@@
สกิลด์
สาธารณ@@
ูป@@
เชียล
พ.ย.@@
เลย@@
เริ่@@
ช็@@
minal
โกแลต
ห่ำ
จักร@@
สวิ@@
หยาบ@@
ร็@@
ประมง
บิส@@
เป็นอัน@@
ละเม@@
พิรุ@@
67@@
เขา@@
ออน@@
แสวง@@
ซัก@@
กาง@@
นีเซีย
อัตรา@@
้อน@@
มอบ@@
ผู้อา@@
สะท@@
ประโย@@
ราบ@@
พ.ย@@
เสริ@@
ิป@@
ide@@
รายการ@@
34@@
PM@@
รอด@@
ส่งสาร
113@@
เหมา@@
------------------------@@
บุพ@@
ใบอนุญาต@@
นิยม@@
ฆา@@
วกหู
หมั่นเพียร
๖๐
ชาญ
รู้สึก@@
สะเท@@
own@@
โอด@@
เย้าย@@
ซิ่น
-in@@
แขน@@
บัตร@@
ผ่า@@
เซิ@@
ูด
▲
…………@@
สาว@@
Boo@@
Pu@@
ง@@
โหว@@
ชุม@@
กาใต้
ยาน@@
เป็นต้น@@
บับ@@
JB@@
ซ่อม@@
กส์
อเมริ@@
ย่า@@
โศก
ลย์
ฮอล์
พลิเคชั่น
เร้น
de
แอป@@
สติก
ุ่
หาริ@@
ย่าง@@
โพรง@@
หน่วยงาน@@
งับ
ือง
เหง@@
ef
ร้อง@@
แดด@@
คัดล@@
เมา@@
าม@@
องค์@@
ชิ้น@@
ร์ท
เท็@@
kill
ปลอบ@@
เหล่า@@
งก์
ฟัก@@
พอลิ@@
ียว@@
ไอศ@@
ตย@@
ร้อ@@
ญาต
คึก@@
ทรัพยากร@@
คะ@@
เพลีย
โครก
hal@@
อาทิ@@
รีด@@
ทางเดิน@@
จาร@@
㎡@@
≠
ีด@@
เตาร@@
เท้
เข้
ควบ@@
เกลี่ย
๐@@
NF@@
เซล@@
ุ่ม@@
Ⅸ
สนี
โหม@@
เมริ@@
เห็@@
ณฑ์@@
ขี
bing
ไกล@@
บริการ@@
ฉง@@
ภาระ@@
ฮวง@@
วินิจฉ@@
ฟื้น@@
นัม
เทีย@@
งกัส@@
คี่
โฟล@@
ประชา@@
UV@@
ng
Ji
เดิ@@
จสกิล@@
นิรั@@
สัก@@
เล็ก@@
tom@@
พาก@@
มัล@@
มภ@@
คลอด@@
ual
ect
Fle@@
สมบูรณ์@@
ักษา
เบิ้@@
ย้าย@@
โอน@@
งด@@
เกียรติ@@
โยก@@
เจ็บ@@
สมาชิ@@
มหานคร
ia@@
เฒ@@
Tao@@
ไวโอ@@
เมน@@
กำลังกาย
145@@
มป์
ฤษ
ห่ม
ยการ
มณี
ฟา@@
SN@@
ชีวิ@@
ปีก@@
ทักษ@@
เบรีย@@
ง่
็กเตอร์
พวง@@
เพอร์@@
บรรจุ@@
1,0@@
หรีด
ปรัก@@
เพ็@@
จำนวน@@
โน้@@
มข@@
รกาย
³@@
สาธารณสุข
No@@
ปุก
ก)
ณิช@@
จัก@@
ดู่
มพล
วิศ@@
เรื้อ@@
knit
ical
บำรุง@@
gram
ือง@@
ถู@@
แปรง@@
าณ
ให้อ@@
ำนา@@
MAT@@
ดน@@
งบ@@
Ban@@
＜
เอะ@@
ึ่ง@@
เอกสาร@@
เน็@@
อซ
©
กระดา@@
ิ้@@
เภสัช@@
หั่ว@@
เลื่อ@@
เบื้อง@@
ฺ
ขี่@@
กร้อง
ทธา
Ⅳ@@
๊ป
ตริ@@
โต@@
เมียม
องน้ำ
gle
สำมะโน@@
แวง
แพลง
ฝุ่น@@
ลูลู@@
กู้@@
พิสู@@
์อักษร
สะอ้าน
เบอร์รี่
เช้านี้
แสดงความยินดี
376@@
บับ
lac@@
กั๊ก
ียน@@
ขณะนั้น
ย่ำ@@
ryp@@
จัน
ฮี@@
มีน
สะพร@@
โกรธ@@
แพด
หนก@@
ัติ
สูบ@@
ถุ
Ⅴ@@
อาชญา@@
แกร@@
เฮ่า】
้งาน
ฟต์@@
◆@@
One@@
ํ
่อย@@
สุนั@@
พระราช@@
เซอร์@@
เผล@@
ลื่น@@
」@@
าญ
๘@@
สมุด@@
ือน
บัค@@
ใหญ@@
โต๊@@
้ว@@
ด้าน@@
ผ้าพัน@@
์น
ฝัน@@
Se@@
lion
แบน@@
HU@@
นแรง
cyc@@
เรน
หลอดเลือด@@
คุ้น@@
ใย@@
วงศ์

BU@@
ซิล@@
ธี
เภท
ียนแบบ
อารมณ์@@
เล้ว
Ω
ในทาง@@
เซ้น@@
พึ่ง@@
โกร@@
ing-@@
เอ็นดู
พบ@@
ฉั@@
AY@@
เดียว@@
อเว@@
คอัพ
ว้
LY@@
ญญา
ม่าน@@
Ⅵ
ปรุ@@
จุก@@
เข็น
ทุ่ม@@
พลัส@@
เพชร@@
ทะเล@@
ลัพ@@
่อม@@
แปลกหน้า
แข็@@
้าน@@
ละมุ@@
เย้ย
oss
ครี@@
เษ@@
นาน@@
เพ้อ@@
บัต@@
PG
ร้าย@@
้าน
ลด์
ากร
เกียจ
เบบ
EXC@@
SG@@
สาลี
Insta@@
คมนาคม
ชัก@@
ผู้อย@@
μ
²
แพล@@
กรอบ@@
เทียม@@
①@@
จัง@@
ชชั่น
＝
เศ@@
สัมประสิทธิ์
gy
coun@@
ที่อ@@
มอน@@
ื่อน@@
ห่อ@@
อเน@@

อวด@@
เห็นจะ
ัส@@
ส่ว@@
multifl@@
เฉล@@
วร์
ฟลู@@
ไรด์
พฤติ@@
ฝี@@
แยง
เขียน@@
ประคอง
กล้าง
แคลน
ฬ
ถือหุ้น
แซน@@
เมินผล
เล็ต
Ⅴ
ao@@
มัด@@
ปิฏ@@
เอมิเรตส์
ทศ@@
WIN@@
gu@@
เกจ
แยก@@
นุภาพ
ดั้ง@@
ภัก@@
ปัญ@@
สนอง@@
ทำงาน@@
เริ่ม@@
อัก@@
・
ube

พิก@@
จ์
หนา@@
เกรง@@
พึง@@
กู๊ด@@
ตน
งเจ@@
BOSS@@
อัณฑะ
ดน้ำ
มนุ@@
on-@@
ซัม@@
gel@@
ควร@@
รบ@@
ข้น
ใบสั่ง@@
กระป@@
่วง
ปุ่ม@@
เบน@@
หนึ่ง@@
โอห@@
pho@@
แล้ว@@

ฯ@@
ฮอป
ปลูกสร้าง
ย่อย@@
ผู้รับ@@
ทรัพย@@
สมบัติ@@
อะมิโน
เร็ก@@
⑧
LOE
เตร@@
ไฮโดร@@
ธา
ข่าว@@
ภาษี@@
ผ่อน@@
ip
วังชา
PD@@
หยัด
ประจั@@
บเดียว
ี่ยว@@
ทช์
10510
ตัดสิน@@
ซิส
จินต@@
ทัด
เติบ@@
ณาการ
เครือ@@
ค้ำ@@
ฟอง@@
ริย@@
สุขา@@
กูล
ณฑ์
ร่ว@@
กรีต
ศัก@@
ดาน
เริง
สลับ@@
พัล@@
yo@@
พระพุทธ@@
--------@@
เครื่องใช้@@
แจ่ม@@
ใฝ่@@
เซ็นต์
ษะ
ฝังศพ
หวีด@@
ควา@@
โธ@@
่าว
องศ@@
รมย์
่อยู่
เล็บ@@
ชาร์@@
๖@@
ั่ง@@
bile
แลง
หย่อนใจ
Ⅷ
มัลติ@@
เสริม@@
กอบ@@
อธิ@@
👈
ภัณ@@
ค้าน
ข้าวโพ@@
คัท@@
จู@@
รกร@@
เตรียม@@
โคม@@
คอร์น
Pri@@
ใต้@@
โภ@@
เปลี่ย@@
ู่อาศัย
เพ่ง@@
ระกะ
่เอ@@
ค้าง@@
อลล@@
เปเปอร์
เหน็บชา
ูป
ถัน
เป้า@@
อาระเบีย
〜
ข้างเคียง
ธา@@
นิติ@@
สิวหัว@@
ปณิ@@
คง@@
เกต@@
ประวัติ@@
ฟิว@@
จูง@@
ดจ์
ล็อบ@@
ไลต์
เดี๋ยว@@
วับ
โชค@@
แผ่น@@
กระถาง@@
้นท์
สรี@@
สุก@@
กุ้ย@@
สัย@@
อกล@@
ญา
vir@@
เตือน@@
ซึ่ง@@
STOC@@
บันดา@@
นย์
กเกอร์
มัติ
ผู้เดียว
คะแนน@@
≤@@
เฉา
อัป@@
กล้ำ
กร้าว
โ
ทรา
Ren@@
ในแง่@@
ท้าย@@
ตะวันตก@@
ความไม่@@
แฉ@@
์เฟ@@
ดัด@@
เลือก@@
ฎ@@
แกะ@@
iy@@
ake
บวับ
ไม่น@@
นาญ
ortecon
ติธรรม
log@@
กำเร@@
โปรด@@
แกล@@
Derma@@
เหนี่ยว@@
ฝัก@@
ลึกถึง
ยาว@@
สื@@
การออก@@
เยี่ย@@
ปราย
อร์ม
˴
pp
กร้อย
ind
ิสต์
เนร@@
บว@@
้ง\
ทน@@
ปล่อง@@
คลึง
เข็@@
ครอบ@@
จิ้ง@@
ถ่ายทอด@@
ธาตุ@@
ใฝ@@
ศัพ@@
กลิ่น@@
team@@
นอกเหนือ@@
ซุป@@
cy@@
ซิน
แยง@@
ออร์แก@@
ระลึก
ระแวง
ความดัน@@
ที่เหลือ
าซ
เปล่า@@
เบร@@
อุ่น@@
ตะวันออก@@
พ้อง
บุค@@
กภาพ
เอี๊@@
ิ่ม@@
พร้อม@@
ebuff
นีค@@
มอยส์@@
เพียง@@
ลอยด์
Dub@@
แบล็@@
ช@@
os
ปลด@@
ปน@@
ระนา@@
เงียบ@@
fund@@
AU@@
นัย@@
ตอ@@
ร่วง@@
\@@
ติดต่อสื่อสาร
tif@@
รบก@@
กษา
ศี@@
เขม่า
บัญชี@@
โปร่ง@@
★@@
ๅ@@
นิ่ง@@
sx
หรั@@
เพศ@@
ตัน@@
คาร์บอนมอน@@
IT
ครา@@
109@@
ement
มลพิษทาง@@
ผิ@@
เพช@@
ฆาต
〇
อุก@@
เรีย@@
หลอ@@
แอม@@
พลิ@@
จูด
อิมัล@@
เลว@@
เงื่อน@@
ฟฟ@@
โดด@@
ไขปัญหา
เช้า@@
กประสงค์
ียบ
￥@@
ร้า@@
อินท@@
อุดหนุน
ออกซิเด@@
มาลัย
ษั@@
ตุรัส
ฯล@@
เหล็ก@@
วัต
กระหน่ำ
ปิก
teams
erma@@
ผสม@@
วล@@
NI@@
ฟอน@@
อัม@@
HAI
อวี้เห@@
เอาเป็น@@
กีด@@
รื่นรมย์
ฅ@@
ปาน@@
สูญ@@
ณู
ก่า
ล์ม
คนหนึ่ง
Ⅶ
เภสั@@
ห้าง@@
ไวโอเลต
รามา
ดึก@@
้าง
ไตร@@
pon@@
สบ
ตาเดียว
920
วัฏ@@
มต่อ
PRO@@
bos@@
ึง@@
พรหม@@
้อม@@
พร้อ@@
