<s>
<pad>
</s>
<unk>
и
в
на
с
по
для
(@@
не
о
что
к
В
от
или
-
а
из
также
за
,
-@@
Объединенных
.
Организации
не@@
при
как
года
их
)
его
т
которые
Наций
до
;
1
"@@
м
за@@
чтобы
ли
более
области
я
ной
С@@
на@@
2
ные
у@@
:
соответствии
по@@
ный
л
ть
ли@@
),
связи
ного
).
том
ным
будет
отношении
но
ных
быть
в@@
3
ная
между
3@@
та
вы@@
ла
ка
с@@
этой
ее
/@@
ное
«@@
того,
том,
всех
е
ка@@
ки
бы
ва@@
2@@
ными
у
ном
должны
В@@
является
об
ти@@
до@@
.@@
во
все
О@@
от@@
4@@
системы
но@@
рамках
н@@
А@@
было
со
м@@
может
5@@
т@@
м,
4
при@@
были
ты
о@@
ни@@
про@@
деятельности
У@@
то
5
ко@@
следует
м.
ную
прав
со@@
С
6@@
и@@
время
целях
8@@
ре@@
<<@@
ро@@
после
На
работы
ма@@
"
развития
де@@
долл.
х@@
вопросам
10@@
9@@
других
то@@
обеспечения
ш@@
К@@
М@@
7@@
Д@@
та@@
те
пере@@
ра@@
и,
Т@@
резолюции
й@@
во@@
этих
6
которых
ми@@
к@@
ри@@
этом
д@@
это
0@@
а@@
те@@
я@@
е@@
И@@
человека
ку
мо@@
этого
под
году
тем
под@@
р
Комитет
качестве
Р@@
раз@@
ться
женщин
года,
н
8
ле@@
они
же
ло
»
включая
период
При
ция
сессии
--
ч@@
осуществления
р@@
Генерального
был
Генеральной
Совета
1@@
ность
ют
ю
–
ке
ль@@
2002
7
могут
П@@
20@@
й,
й
ви@@
ны
вать
ет
который
он
если
основе
ется
12@@
я,
2000
л@@
ла@@
ло@@
ди@@
да@@
будут
ному
мы
ки,
9
Для
электро@@
ру@@
1.
2.
Н@@
своей
№
Г@@
го@@
помощи
ве@@
10
ности
ра
стран
х
случае
управления
2001
Б@@
необходимо
);
п@@
должен
т,
б@@
об@@
ются
только
г@@
ходе
е,
жи@@
си@@
безопасности
се@@
секретаря
ста@@
13@@
без
должна
года.
права
з@@
доклад
ния
ж@@
программы
3.
была
учетом
2003
которая
ской
Е@@
1999
тов
ку@@
И
ст@@
ции
По
меры
течение
лись
ения,
C@@
та,
15@@
К
ем
ции,
своих
па@@
ского
уровне
средств
так
кой
Кроме
таких
га@@
ющих
су@@
можно
са@@
ба@@
когда
ения.
международного
информации
14@@
Э@@
Л@@
чи@@
бо@@
решения
организации
вой
S@@
ча@@
.1@@
ту
числе
ка,
проведения
вых
чных
она
им
30
че@@
зо@@
пла@@
ки@@
х,
ме@@
ении
19@@
ние
США
через
части
свои
статьи
которой
результате
являются
11@@
согласно
мм
ми
работ
й.
защиты
15
4.
Комиссии
По@@
1998
16@@
менее
ением
правам
20
ля@@
да
д
Ф@@
-1@@
,@@
5.
0,@@
целью
положения
сто@@
вые
против
вая
ни
ы
>>
мер
внимание
Наций,
ен@@
газа
А
чем
эти
За@@
действий
международных
A@@
них
право
соответствующих
обеспечить
000
E@@
вого
декабря
особенно
вается
воды
ции.
данных
ть,
ф@@
З@@
P@@
г.
12
цию
выполнения
сти@@
другие
цией
проекта
ту@@
страны
но-@@
еще
пи@@
.2@@
свою
ены
30@@
Х@@
ческие
ты,
имеет
енных
M
использования
ми,
b)
На@@
чной
ресурсов
D@@
ений
ских
должно
оборудования
усилия
группы
=@@
i@@
сотрудничества
дня
-2@@
стороны
18@@
проект
са
ю@@
вания
и.
льного
подготовки
призна@@
тных
ение
на,
э@@
ны,
е.
программ
F@@
ющие
водо@@
чного
1-@@
6.
ческой
",
лся
ей
ский
основных
настоящее
вание
ение,
Ц@@
уже
контроля
решение
пункт
емых
Республики
возможность
участие
+@@
та.
Конвенции
ские
-0@@
принять
работе
%
этот
Про@@
0
вопрос
тель@@
17@@
7.
которое
ров
Мы
мира
бе@@
путем
L@@
ши@@
той
1,
Безопасности
тов,
50@@
Ка@@
ческого
тся
лась
пре@@
развивающихся
членов
территории
касается
значение
тельных
це@@
ра,
ению
ь@@
ности,
составляет
ду@@
пункте
ческих
государств
тные
200@@
ности.
ки.
новых
различных
би@@
льные
поскольку
ми.
лен@@
млн.
Совет
)@@
8.
.4@@
T@@
т.
частности
где
деятельность
но,
частности,
ями
M@@
Группа
всего
2004
уровня
ческим
льный
пе@@
ков
50
ре
ческий
Если
этим
собой
R@@
ками
e@@
из@@
ис@@
того
ском
При@@
s@@
вопросу
V@@
то,
".
00@@
№@@
ская
ин@@
лось
относительно
тельной
ний
борьбе
ли,
политики
возможности
ю,
льных
ения
расходов
рас@@
емые
связанных
образом
зна@@
двух
:@@
ну@@
г
.3@@
применения
1,@@
I@@
окружающей
оста@@
тель
N@@
хо@@
национальных
ша@@
сло@@
ком
ма
телей
зи@@
Это
ры@@
2,
Он
вает
ГОСТ
ги@@
в,
счет
?
ла,
помощь
Ассамблеи
установки
рования
год
целей
ена
вым
оценки
льной
14
х.
лишь
пункта
ющий
a@@
o@@
июня
лиц,
11
9.
всем
детей
Комитета
ений,
ях
25
Комиссия
Р
ровать
нии
правительства
тной
теля
После
производства
процесса
мая
либо
стра@@
размере
обеспечению
группа
25@@
ак@@
поддержку
100
жа@@
процессе
ы,
тного
Вы@@
июля
13
ры
строительства
необходимость
ства,
ва
пятьдесят
создания
H@@
ям
над
ностью
B@@
информацию
40@@
лет
другими
л,
(см.
своем
принятия
Однако
комитета
.1
ющего
2-@@
которого
бу@@
действия
тах
пред@@
газо@@
16
вают
Я
общего
лы
странах
человека,
населения
соответствующие
тем,
тами
енные
к,
работу
имеют
правительство
интересах
среди
котором
ваться
проек@@
тех
ческая
осуществлении
00
осуществление
деле
роль
достижения
1997
получения
18
два
ющей
тельные
вер@@
пу@@
докладе
35@@
ческое
рассмотрения
ющим
я.
органов
Ж@@
ства
тор
тный
ках
ты@@
развития,
цен@@
ле
данные
число
ционной
О
ния,
поддержки
60@@
.5@@
кон@@
ским
ление
га
енного
24@@
щие
услуг
ско@@
ряд
следующие
мере
ваются
Под@@
.0@@
ений.
мен@@
сотрудников
ней
государства
ениях
ления
настоящего
м;
чные
образования
обеспечение
вновь
система
представить
ры,
70@@
стран,
3-@@
лиц
помощью
ь
право@@
систем
комитет
тор@@
развитию
ционного
Ч@@
31
ль
участия
категории
Ассамблея
го
международной
такие
Со@@
условий
Конференции
Специальный
да,
содействия
d@@
решений
повестки
средства
фа@@
осуществлению
емой
один
потенциала
данной
ром
него
одного
t@@
заседании
ы@@
защи@@
m@@
разработки
состоя@@
воз@@
Я@@
Ю@@
бы@@
От@@
Председателя
перед
доклада
p@@
женщин,
чный
—
там
45@@
данного
н,
*
ке,
процентов
/2@@
G@@
П
O@@
ему
ство@@
ционных
числа
необходимости
такой
себя
3,
одной
те,
оказания
му
>>.
Ш@@
ения@@
ци@@
2,@@
эксплуатации
часть
указа@@
силу
ник
условиях
С,
финансовых
ка.
реализации
организаций
a)
::
откры@@
тельного
такого
нем
показа@@
тов.
персонала
р,
давления
общей
призывает
разработке
ется,
условия
17
x@@
расходы
связанные
ров@@
касающихся
ство,
М
кра@@
тельный
ня@@
рассмотрение
само@@
ку,
Н
Ре@@
опера@@
статье
линии
лю@@
щи@@
Что
Т
требованиям
ных,
тора
нее
ше@@
объем
наиболее
Наций.
некоторых
c@@
Как
/5@@
27@@
степени
Ко@@
ства.
цели
l@@
льное
ликвидации
ответственность
провести
в.
ны.
стро@@
место
емого
качества
гаранти@@
му@@
/
4,
все@@
изменения
развитие
ение.
проектов
общества
ц@@
ков,
борьбы
контексте
иметь
времени
сентября
ру
точки
22
стан@@
ч.
повышения
технического
своего
кам
вали
конструк@@
язы@@
вод@@
контроль
координации
стандар@@
ной,
g@@
октября
ды
укрепления
(в
рекомендации
вал
199@@
Не@@
X@@
представляет
не,
26@@
а)
сти
ющая
ря@@
вании
же@@
деятельности,
рование
этому
ени@@
дом
рных
плане
вала
проведение
име@@
ющее
доступа
рабочих
ны@@
ность,
апреля
100@@
оружия
технической
осуществляется
У
19
проблемы
полностью
региональных
3,@@
нных
мероприятий
вом
положений
СТ@@
основании
лов
вое
Д
Международного
определения
ан@@
Все
тели
положение
гра@@
направл@@
образом,
подготовке
материалов
телем
n@@
января
W@@
систему
нию
трубопроводов
дней
Эти
1)
мы@@
возможностей
4-@@
ним
марта
бюджета
Организация
24
создание
Статья
учета
.2
норма@@
част@@
Генеральная
процесс
ров.
свое
процедуры
устойчивого
Специального
эффективности
прави@@
ма,
23@@
21
л.
технических
енной
торговли
жизни
23
многих
Ма@@
ха@@
новые
ством
u@@
ними
80@@
вый
см.
200
х;
ников
требования
».
у,
которым
продолжать
нача@@
2)
принимать
некоторые
ю.
на.
что,
догово@@
ран@@
шта@@
40
обще@@
второй
порядке
рекомендует
Всемирной
ски@@
28@@
де
тро@@
США,
наде@@
тра@@
авто@@
информации,
поли@@
рной
ство
нам
участников
з
имени
объек@@
льном
использование
поддержанию
ет,
случаях
мм,
тная
ё@@
производ@@
вление
зу@@
Генеральный
конкретных
действи@@
жение
системе
социального
b@@
переда@@
вания,
потребностей
ща@@
2.@@
операций
енным
ких
ваемых
необходимые
работа@@
Поэтому
Группы
жен@@
рами
среды
вопроса
развития.
льная
использовать
ено
нные
три
1.@@
ющими
обязатель@@
графи@@
ОС@@
первой
нии,
Ра@@
>>,
6-@@
ос@@
I
однако
координа@@
ем,
»,
лу@@
дискриминации
сотрудничество
экспертов
ноября
Ва@@
1996
касающиеся
Ли@@
ну
стали
точ@@
охраны
ении,
полу@@
с,
c)
к.
вопросов
гидро@@
рассмотреть
осно@@
Раз@@
38@@
вой@@
ениями
Да@@
представителей
тия
представления
государственных
голо@@
*@@
вопросы
ими
защите
вос@@
сети
стве
Председатель
гражданского
дел
жения
срок
осуществля@@
ядерного
финансирования
10.
Пере@@
фон@@
сфере
кВ
труда
Она
ные,
усилий
d)
зрения
ПРООН
6,
реш@@
соста@@
ций
рабочей
оно
ток
сы@@
учреждений
тельное
выми
h@@
ческими
ениям
емый
тное
K@@
да.
ника
каждого
ров,
НИ@@
хотя
станции
делегация
лом
6,@@
ем@@
й;
документа@@
Российской
3)
ска@@
конференции
26
вы
экономического
ответственности
се
Об@@
вления
фак@@
5-@@
ющихся
начала
страны,
енный
фо@@
Е
рованных
28
уровень
обеспечи@@
содержа@@
спо@@
проведении
новой
–@@
ке.
продук@@
r@@
много@@
48@@
могли
са,
обра@@
жд@@
Б
предоставления
воздуха
кар@@
тельным
5,
ля
Республика
видов
всей
эта@@
доро@@
объема
странам
ционные
настоятельно
типа
документов
но.
выше
сотрудничестве
ре,
технологи@@
ар@@
безопасности,
коренных
Са@@
1995
кого
ция,
групп
Программы
которую
пода@@
сек@@
количество
90@@
ния.
таким
Доклад
РА@@
меж@@
000@@
назна@@
=
комплек@@
льным
ген@@
выполнение
ва,
сы
три@@
щей
Верховного
ванию
состав
контрак@@
каждой
чение
учрежд@@
ты.
ств
другим
щ@@
.6@@
представителя
лей
проблем
ме
ения;
форма@@
47@@
передачи
уда@@
проводить
пор@@
U@@
k@@
ению,
возвра@@
ции@@
Они
созда@@
процен@@
сро@@
Согласно
гу@@
сче@@
вших
обслуживания
Га@@
одним
местах
тельная
чего
ги
.3
периода
ческую
4,@@
ков@@
ми;
другой
сом
документации
отдельных
законодатель@@
доступ
предоставля@@
пита@@
трех
Ба@@
высшем
теле@@
меся@@
До@@
подписа@@
тя@@
ческом
США.
ционный
иностранных
м:
содействовать
просит
разде@@
международным
свой
вопросам,
цию,
рные
больше
важное
рова@@
давление
ющую
несколько
ы.
ным,
сть
Ассамблее
ор@@
гла@@
2005
делам
мер@@
рен@@
ти
оборо@@
сред@@
пы@@
проводи@@
взаимо@@
результатов
ведения
эту
виде
тру@@
лу
тот
дов
вклю@@
кор@@
дать
ван@@
поверхности
полной
пози@@
национального
жных
суб@@
Соединенных
принял
соглаш@@
вен@@
плана
нового
27
явля@@
@@
ца
шко@@
чным
сов
испыта@@
тным
щего
информация
социальной
процента
Хотя
августа
Управление
мой
инвести@@
тер@@
экономической
ть@@
полити@@
фи@@
услуги
кру@@
годы
Эта
службы
отде@@
использо@@
нет
ниже
предлож@@
человека.
вод
60
закон@@
сты@@
имя
случаях,
экономи@@
поводу
роли
меры,
полож@@
Рабочей
С.
сво@@
кро@@
конвенции
утвержд@@
чная
б
закры@@
пути
году,
тепло@@
нной
S/@@
осуществлять
обязательств
Организацией
12.
телей,
щих
национальной
29@@
детей,
целом
лица
ресурсов,
применяется
политических
с)
вопросов,
даже
соглашения
.7@@
обязательства
местных
план
КО@@
процеду@@
бес@@
центра@@
нов@@
ением,
лы@@
специальных
рного
'@@
необходимых
торов
социальных
стратегии
Пре@@
и/или
ке@@
пол@@
организо@@
посредством
г.@@
предложения
поло@@
объекта
сте@@
грани@@
следующих
го,
ству@@
принятых
стой@@
таблице
бло@@
e
рах
имеющих
общих
зависимости
эта
ко
рует
пункты
расширения
Декларации
управление
ту,
механизмов
ями,
е)
устройства
ще@@
сме@@
лением
ское
работ@@
пределах
содействие
сведению
.,
комиссара
пожа@@
ра.
обеспечивать
пли@@
годов
вающих
анализ
f@@
хозяй@@
собствен@@
мер,
докладчик
щим
производи@@
er@@
граждан@@
представитель
11.
члены
Мо@@
беженцев
ком@@
запре@@
внутреннего
СО@@
организа@@
оборудования,
оборудование
Бу@@
правил
бра@@
считает,
данном
ции;
принципов
совещания
креди@@
орга@@
он@@
29
ес@@
рам
Международной
способствовать
кто
s
году.
v@@
последствий
Этот
ПР@@
тить
чески
с.
государственного
цев
основные
включа@@
предусматривается
противо@@
кана@@
стоимости
дов,
ванных
Кон@@
Ирака
скими
требований
пунктом
5,@@
):
объектов
высокого
правовой
чения
распространения
ца@@
международное
ск@@
конфлик@@
Во
практи@@
внимания
одно@@
состоянию
исполнение
говорит,
требу@@
ций,
поч@@
ждение
Г
национальном
места
чное
1990
сообщ@@
специальной
3/@@
насо@@
многие
каче@@
опо@@
ц
применя@@
представители
созданию
ей,
нием
посе@@
правах
установить
причи@@
людей
ших
рез@@
весьма
II
вани@@
основной
настоящей
Се@@
опас@@
процес@@
Следует
8,
правительством
конферен@@
СС@@
35
Си@@
мар@@
безопас@@
р.
февраля
нного
скую
промышлен@@
ве
чном
учреждения
щен@@
не.
администра@@
тые
температу@@
применение
ответ@@
здоровья
решении
измен@@
тых
наличие
выражает
руется
щение
международном
общи@@
Во@@
коллек@@
труб
сов@@
й)
соответствующим
С-@@
вентиля@@
эффективного
составе
развитых
197@@
дополнительных
ожида@@
исключением
стратеги@@
ВО@@
случае,
женщины
ству
содержится
вую
ков.
щий
нарушения
(М@@
результаты
докумен@@
мероприятия
СП@@
жного
А,
слож@@
долж@@
попрежнему
преступ@@
скому
АТ@@
ь,
двухгодичный
чер@@
Вместе
документе
ге@@
элементов
сокращения
37@@
народов
н.
работы,
сделать
Рабочая
лении
кабе@@
представля@@
дами
мира,
территори@@
нами
пунк@@
?@@
вались
состоит
сравнению
программа
това@@
вести
получа@@
вки
форме
бюдже@@
класса
сил
заяви@@
шие
случаев
реаль@@
покрытия
500
организация
емая
поддержке
непосредственно
ства@@
стен@@
принима@@
ней@@
нефте@@
укреплению
тен@@
шение
бан@@
которыми
тый
тельно
оказывать
За
теля,
торы
1994
Ме@@
33@@
способ@@
правила
пункту
предложение
ть.
заключается
сумму
й:
вклад
полного
2/@@
функции
занима@@
рный
реак@@
государственной
вной
экспер@@
ение@@
кие
S
чен@@
отмечает,
род@@
режи@@
питания
проверки
АР@@
усили@@
ку.
чен
емым
труд@@
предприяти@@
поста@@
находится
принятие
создании
сов,
дела@@
принимает
секретарь
анализа
разработа@@
рекомендаций
цы
разме@@
км
циями
СП
грузо@@
насилия
З
ям,
месте
комиссии
1/@@
пер@@
доба@@
свар@@
зоны
стране
вет@@
соответствующими
неправительственных
а,
дополнительные
Было
продолжа@@
около
тив@@
организациями
няя
ственных
грун@@
оказанию
вне@@
государств,
блока
льную
г,
последние
п.
дли@@
районах
жда@@
мм.
.20@@
ях,
гру@@
выполнять
оказы@@
РЕ@@
международные
низ@@
конкретные
стов
трубы
сведения
вания.
вра@@
вопросы,
бро@@
—@@
технологии
учиты@@
зем@@
(А@@
ру,
последствия
подготовку
вед@@
странами
строитель@@
A
форм
.)
му,
стоя@@
создать
раз
странах,
действий,
толщиной
дол@@
ход@@
поэтому
суммы
д.
Но@@
докладов
рав@@
исполнения
доклады
фор@@
хи@@
фер@@
манда@@
права,
контро@@
деятельности.
те.
мом
вл@@
массовой
ственного
рованные
учебных
трубопровода
тво@@
обсуждения
9,
военных
правитель@@
документа
консультации
шей
22@@
далее
статьей
комите@@
оказание
профессиональной
Г-н
ден@@
составля@@
КТ@@
заседаний
представлен@@
отсутствие
должности
страхо@@
содержание
вана
приорите@@
39@@
предусматрива@@
.4
конденса@@
организаций,
технические
DN@@
6/@@
рованы
мест@@
состояния
уста@@
сами
диаметром
власти
ванием
норм
материа@@
главным
например,
Ми@@
тными
культу@@
финансовые
y@@
15.
технологических
приветствует
указанных
представлены
тивного
Управления
районе
действие
ения:
использованием
завершения
Система
мых
нения
характер
транспор@@
заклю@@
всеми
ход
там,
состава
потребности
вместе
зданий
зада@@
увеличи@@
Рё@@
взносов
основном
тки
радио@@
прежде
структу@@
поро@@
тек@@
момента
щее
отношений
получить
роста
емо@@
роди@@
предусмотрено
положении
гу
сторон
ЮН@@
наличии
7,@@
Из@@
Договора
J@@
давл@@
ций.
защиту
образования,
тяже@@
суд
вшихся
»@@
ды@@
тивные
образ@@
работ,
совместно
мм@@
различные
организации,
бед@@
тивный
лица,
докла@@
безопасности.
предпринима@@
отмеча@@
определя@@
ванные
i)
лож@@
силы
соблюдения
Й
данным
дов.
оцен@@
оказа@@
жной
им@@
выде@@
C
РО@@
информацией
Ку@@
Па@@
выполнить
клапан
ж
КП@@
4)
УВКБ
настоящему
Подрядчик
лет@@
стран.
наименее
циям
чены
ЕН@@
требованиями
ется.
Америки
са.
экономических
мые
Го@@
Ин@@
и;
внутренних
щения
ВА@@
(С@@
То@@
программам
жные
мужчин
7,
финансовой
заявление
ет@@
кое
реши@@
49@@
международными
ры.
верх@@
эксплуата@@
членами
Африки
устройство
обо@@
НО@@
первого
исследований
пен@@
любой
дах
ей.
принципы
состоянии
нищеты
государства,
75@@
предоставление
консультаций
проекту
обязан
соз@@
ния@@
36@@
2;
вало
документы
чить
шего
примерно
13.
80
ряда
ООН
вить
распреде@@
льно
сер@@
чную
кла@@
ПО@@
Республике
делегации
Установка
оценке
in@@
благодаря
гов
зда@@
средств,
выше@@
плани@@
третьей
я)
В,
вка
Таким
показателей
две
предлага@@
%@@
обеспечивает
возможно,
укрепление
А.
объя@@
взя@@
шим
органами
выбо@@
ЮНКТАД
ника@@
ваемые
Проект
ком,
кий
7-@@
пар@@
четвертой
высоко@@
руководящих
жа
устрой@@
м3
чению
я:
данный
включает
распростран@@
хотел
консульта@@
увеличение
предоставить
резолюцию
случа@@
раство@@
ремон@@
материалы
цией,
аппара@@
Догово@@
ция@@
политической
излож@@
ким
года@@
Не
гре@@
нало@@
наблюда@@
Ассамблеи,
масштабов
соответствовать
температуры
чено
сельских
строительных
ющиеся
аль@@
(199@@
енное
сумма
логи@@
кур@@
момент
ченные
пунктах
нов
сбор@@
НА@@
0,0@@
примени@@
д,
8-@@
Правительство
Р°@@
ению.
методов
Устройство
по-прежнему
отношения
клапа@@
сооруж@@
компании
ресурсы
нение
вания@@
стоимость
мость
позволяет
газ
сбо@@
женщин.
57@@
двух@@
день
an@@
мнению
семь@@
ние,
тов@@
ционная
тии
протоко@@
цель
бето@@
даты
ПК@@
прода@@
декларации
ранее
подачи
пока
вных
Q@@
информи@@
Проек@@
проведению
смер@@
приложение
Та@@
любых
ла.
допускается
существу@@
ба
ге
год@@
кре@@
органы
МПа
КН@@
e)
нен@@
вля@@
чно
же,
ью
трудо@@
34@@
важность
приня@@
дета@@
программу
микро@@
операции
очистки
документ
опы@@
вано
крат@@
изда@@
инструк@@
совета
четвер@@
внутри
кто@@
телями
B
сти,
новый
гражданских
здания
веду@@
челове@@
ar@@
мисси@@
.10@@
вов
мет@@
у.
рь@@
управля@@
сообщество
Де@@
%,
товаров
зы
нашей
делега@@
жела@@
строительство
здравоохранения
значения
удовлетворением
ли.
тном
срока
из-за
переговоров
тая
поощрения
благо@@
рованного
СР@@
обзор
щая
2000@@
включить
процедур
большей
ваны
вшие
стре@@
Л
Уста@@
лан@@
направленных
показатели
ст
правительств
эффектив@@
ческому
провод@@
вооруженных
направленные
Сторо@@
объеме
работа
ными,
чением
международному
специалистов
щую
результа@@
пло@@
участ@@
тивной
обмена
повышение
должностей
ный,
щими
19.
ность.
9-@@
регулирования
договора
рассмотрению
рованной
обы@@
вода
преступл@@
ждения
заня@@
продукции
Су@@
ТО@@
ДО@@
шен@@
положениями
Европейского
взно@@
содержания
изменений
пять
решению
300
контак@@
источников
населения,
обслужи@@
несмотря
уг@@
ровка
\@@
20.
мероприяти@@
рная
м)
техни@@
кой,
носи@@
ченных
годо@@
ле,
трех@@
нему
ду
Штатов
определяется
аспек@@
проводится
тивных
нару@@
t
ственной
улучшения
см@@
сказа@@
разработать
труб@@
сбора
обязанности
уголовного
есть
заявления
держа@@
распределения
управления,
представлять
ления,
грунта
(1)
женщи@@
тно-@@
функ@@
компенсации
преде@@
предусмотренных
экспор@@
тную
предполага@@
III
сной
закона
гиб@@
воздействия
a
ют,
соответствующего
тами,
5)
ност@@
согласо@@
ственные
16.
вный
Советом
телю
Ста@@
взрыво@@
17.
14.
управл@@
ющейся
интере@@
каждый
5/@@
валю@@
именно
заключение
приняли
количества
де,
1993
45
кая
опублико@@
оценку
понима@@
механиз@@
сектора
практики
программе
уче@@
просила
принятые
национальные
нный
заявл@@
Безопасности,
выда@@
Закон
ении.
йской
.9@@
этапе
спе@@
предусматривает
.5
электри@@
актив@@
институ@@
настоящим
стороны,
чески@@
собра@@
повышению
сных
высо@@
механизма
охваты@@
капита@@
резер@@
обеспечении
увеличения
ограничен@@
закуп@@
мент
бор@@
установок
Контрак@@
трубопрово@@
выполнении
характера
ки;
выз@@
элемен@@
Соединенные
задач
региональном
протяжении
сбро@@
ограничи@@
проблем,
предупреждения
любого
соответствующей
партне@@
рост
нах
уз@@
ответствен@@
факт,
подготови@@
преступности
самым
ники
извест@@
демократи@@
работы.
существующих
относятся
озабоченность
198@@
установка
ясь
ющи@@
ЮНФПА
енными
образование
введ@@
150@@
Представитель
рекомендо@@
мор@@
устойчивому
равенства
ством,
.8@@
вид@@
та;
рассматривать
особое
РѕР@@
тиру@@
дить
претензии
ением.
сни@@
1.1@@
ль,
ситуации
палестин@@
стар@@
помощи,
покры@@
конструкций
поддерживает
прогресса
ковой
конвен@@
автомати@@
сессии.
воды,
помещения
нескольких
требует
частью
су
прилож@@
изоля@@
жный
РУ@@
ности@@
Гла@@
ЮНИСЕФ
выпла@@
помещений
пя@@
механизмы
приложении
заме@@
тие
(резолюция
циях
пра@@
сооружений
Стороны
энерго@@
автомоби@@
порядка
мас@@
лению
действующих
движения
II@@
кроме
эк@@
прием@@
18.
техники
установления
Ар@@
мнение
начале
тивным
ситуа@@
вающие
ИН@@
конкре@@
Необходимо
План
ван
персона@@
фору@@
подход
секто@@
Конвенции,
ло,
прожи@@
страны.
форми@@
Закона
обслуживание
документов,
материалов,
расовой
том.
физи@@
жи
ма.
-10@@
фонд
подготовка
определение
слоя
Федерации
вяз@@
дея@@
предотвращения
соедин@@
например
площад@@
нюю
компетен@@
ного,
-4@@
ем.
одна
ровании
мощ@@
ре.
Ассамбле@@
помещ@@
Бо@@
ном,
стратегий
рекоменда@@
зы@@
ше
год,
частного
9/@@
Письмо
позволит
влении
безопасность
услови@@
обучения
1992
зации
пяти
уровнях
каса@@
информационных
приняла
определить
ребенка
лиза@@
Пер@@
подтвержда@@
пунктов
претензий
ровани@@
выполня@@
7/@@
тради@@
испытания
аналоги@@
перечень
инициативы
обществ@@
Штаты
Совету
гото@@
такое
несет
Рµ@@
тации
воздействие
комплекс@@
МО@@
технологий
нефти
идет
скважи@@
независимо
армату@@
нная
доли
лет.
дей@@
регионе
ходя@@
рабочего
законодательства
70
Й@@
государство-участник
68@@
тон@@
хода
регулиру@@
тур@@
сторо@@
конструкции
Фонда
%.
едини@@
следующим
учреждениями
производство
ванного
зоне
имущества
тах,
фонда
доста@@
(пункт
много
ностью,
пору@@
соверша@@
обработки
емое
иде@@
мира.
двадцать
виде@@
правовых
т-@@
d
(говорит
части@@
регули@@
ер@@
рия
Государ@@
счита@@
предлагает
рассмотрении
500@@
оконча@@
пожарной
дам
еди@@
конце
Бе@@
отнош@@
совещание
Основные
N
возмож@@
запа@@
соглашений
43@@
сдела@@
регистра@@
кле@@
утвержда@@
-1
тому,
ман@@
представлен
числу
9,@@
критери@@
Программа
приняты
жо@@
водных
ту.
вправе
доля
вного
полном
категори@@
Z@@
данному
оценка
т.@@
общества,
энергии
Департамент
теку@@
сообщества
провер@@
запро@@
важных
ВИ@@
порядок
ч
место@@
шения
способность
свобод@@
контролю
ста
мест
Генеральным
мости
фу@@
улучшению
выше,
человек
вла@@
ками,
Его
гово@@
рии
вопросами
уточ@@
сту@@
сокращение
находятся
150
лот@@
лось,
отмечает
отметить,
хранения
которому
служб
Северной
води@@
лых
системой
влены
РК
лесо@@
исключительно
исследования
соответствие
рования,
проблемам
сты
рение
мето@@
последующей
высокой
работников
щается
участием
стать
бере@@
вре@@
потреби@@
46@@
подлежа@@
спор@@
(I@@
охва@@
без@@
телей.
региональные
обзора
нарушение
пря@@
разработку
разделе
га,
положи@@
гуманитарной
ГПЗ@@
СЕ@@
щению
ционным
задолженности
тельную
нагруз@@
МООН@@
8/@@
назначения
вому
нали@@
бетона
Несмотря
ЕР@@
резолюции,
В.
выступа@@
регистрации
призы@@
африканских
м3/@@
полез@@
применять
ЕТ@@
ственный
соответствует
важным
подроб@@
цемен@@
знач@@
транспорта
рой
гражданской
изгото@@
испытаний
ванный
добы@@
термо@@
ме,
электронной
кры@@
вные
зако@@
Монтаж
вы,
местного
добиться
существует
моби@@
жении
нормы
Из
пр@@
ровки
судебных
лах
нять
режима
рии,
поддержи@@
ти,
ениях,
рын@@
уде@@
ТП@@
тельном
экологи@@
затем
тивное
настоящем
независи@@
Заказчика
я;
получение
анти@@
Миссии
скважин
охране
соответственно
правило,
прибо@@
м/@@
щать
нес@@
восстановления
32@@
тока
Х
гор@@
связанной
отсутствия
производится
ИК@@
цеп@@
совет@@
полиции
тре@@
учитывать
транспорти@@
есте@@
бе
(статья
честь
Секретариат
осу@@
министров
основного
относится
ОБ@@
торговле
разум@@
горо@@
зов
резолюцией
ляется
температура
основным
лен
распредели@@
(2@@
ен
ii)
опасных
мым
закреп@@
тором
дискримина@@
вание,
двумя
прош@@
реша@@
функций
прово@@
ванной
ЛО@@
связь
раздел
входят
Щ@@
большой
работающих
возрасте
формы
400
Рас@@
суда
особо
бы,
признательность
приведены
перевоз@@
расхо@@
вленные
суд@@
ООН@@
Ком@@
цию.
урегулирования
постро@@
коле@@
гуманитарного
инвестиций
продолжает
оружия,
о,
технологического
опасности
-3@@
конденсата
причем
остро@@
шка@@
ениями,
конститу@@
выра@@
семина@@
поправ@@
миро@@
следо@@
шестой
РЅ@@
незакон@@
п
интеграции
нк@@
структуры
х)
(К@@
замечания
Схема
сохраня@@
мы,
ек@@
жизнь
решения,
соедини@@
требовани@@
цией.
водоснабжения
зе@@
комисси@@
льными
ком.
го.
выхода
лизации
ок@@
колон@@
почти
заключения
прав@@
8,@@
сотрудни@@
ведение
мирного
использованию
сы,
способности
итогам
установ@@
движ@@
V
круп@@
располож@@
рам@@
участка
общий
четырех
арен@@
en@@
судебного
чными
СН@@
сигнализа@@
результатам
Рабо@@
пенси@@
енная
ь.
миссии
.1,
усилия,
т/@@
65@@
заболе@@
сти.
природ@@
раствора
нарушений
Заказчи@@
предусмотреть
замеча@@
четко
представи@@
влением
внутри@@
соединения
основания
зирован@@
находящихся
ющегося
состояние
ках,
функциони@@
времен@@
проблемы,
мати@@
нор@@
ИТ@@
зер@@
выполнению
топли@@
on@@
приме@@
иных
никаких
плате@@
ство.
задержа@@
свидетель@@
общественной
встречи
боль@@
песча@@
обмен@@
отвечает
клад@@
32
заседания
I,
шее
проекте
ваний
ц,
Сторон
предоста@@
теля@@
доступ@@
заседа@@
уст@@
рованный
сла@@
предусмотрен@@
Техни@@
Африке
площадки
кодек@@
осуществляться
большинство
убежд@@
секретаря,
очень
уро@@
мов
л.@@
1).
ответ
ственным
рами,
государство
600
ствами
ственное
прилага@@
окру@@
политики,
конец
утверждения
непосред@@
сли@@
ший
т.е.
/Add@@
объ@@
торов,
работать
разрешения
часто
типо@@
расходов,
Администра@@
ведом@@
НП@@
Ки@@
тно
иной
теля.
валось
проекты
телям
(с
расширение
задачи
вное
осуществляет
изыска@@
простран@@
жения,
включать
устанавли@@
двига@@
государствами
участвовать
полно@@
крупных
надзора
должност@@
ться,
ограни@@
един@@
Ни@@
ене@@
маши@@
сессии,
используется
корректи@@
Кита@@
расчета
резолюций
f)
ции:
себе
справедли@@
Экономического
очист@@
развитии
достижению
луч@@
Новой
A/@@
распространение
предприятия
Электро@@
Афри@@
поставки
клапана
(1@@
прибы@@
сре@@
тому
лег@@
Постоянного
СЃ@@
кан@@
Латинской
услуг,
подхода
ЗА@@
проектной
профи@@
наи@@
дает
тым
т:
государствам
предусмотрены
виды
плот@@
Д.
наме@@
региона
согласия
активно
с-@@
сокра@@
положения,
органа
чена
представляют
схема
планирования
ресурсов.
уничто@@
поз@@
своим
мнения
Воз@@
GB@@
финансового
е;
удовлетворения
одно
года;
бер@@
университе@@
опла@@
6)
достижение
ъ@@
торго@@
33
од@@
средствами
вающего
роваться
установленных
предоставлять
включают
трансформа@@
горизонта@@
представитель@@
исклю@@
учреждений,
гро@@
составляют
проектирования
90
пересе@@
применением
ным.
включения
тамож@@
.1.
предназна@@
динами@@
отра@@
стату@@
потери
поддержка
посред@@
наруш@@
обно@@
большое
участни@@
гео@@
ства;
Поскольку
деятельностью
допуска@@
имеются
общее
положению
успеш@@
отношение
Э
последстви@@
гермети@@
последних
вным
претензи@@
предупреждению
Пункт
высказа@@
любые
ствовать
программ,
лам@@
эффективной
85@@
ООО
чей
рованию
дни@@
II.
народ@@
сорок
механизм
полномочий
областях,
судь@@
300@@
лет,
Некоторые
вне
каз@@
ченного
совеща@@
поряд@@
сного
пятой
меня@@
лка
обуч@@
провед@@
йного
ствен@@
уголо@@
системати@@
учеб@@
Конвенции.
тех,
промы@@
внутренней
44@@
лица@@
44
функционирования
95@@
Y@@
уровне,
°@@
мое
ав@@
малых
био@@
Генеральному
ющимся
Пред@@
государства@@
расследо@@
отметил,
внутрен@@
четыре
значительно
осуществлением
концеп@@
Ассамблеей
вспомогательных
емыми
райо@@
метал@@
актов
бассей@@
детей.
жная
+
Южной
иностран@@
поврежд@@
препят@@
свидетельствует
Тем
практике
Комитету
предоставлении
конфликтов
Демократической
публи@@
1991
Социального
чки
санита@@
общие
служ@@
мя@@
эксплуатацию
лы,
областях
коммуника@@
наро@@
(на
лений
организацией
ениям,
стве,
субъек@@
Помимо
характеристи@@
уделять
м-@@
=1,@@
сигна@@
осве@@
КА@@
ti@@
влен@@
упомяну@@
СНиП
Фонд
блоки@@
став@@
мого
ва.
объедин@@
импор@@
Таблица
имеющихся
выплаты
бал@@
йского
вследствие
оказать
год.
Комитетом
ну,
получен@@
скважины
треть@@
разработка
Секретариата
газа,
избира@@
исследо@@
продуктов
стальной
предложений
лены
финанси@@
Те@@
ресур@@
чении
законодательством
сум@@
обусло@@
этого,
_@@
75
выплачи@@
страна@@
мени@@
правительству
последующих
дер@@
Росси@@
Ви@@
Ак@@
ду,
вшиеся
ционное
ляются
Ан@@
кВ@@
группе
ной.
второго
свыше
планов
интер@@
вариан@@
информа@@
напряжения
людских
сов.
тенден@@
разных
отче@@
×@@
лицензи@@
жением
(например,
дан@@
рован
позволя@@
сотрудниче@@
законо@@
требуется
тельства
минима@@
строй@@
восьмой
30.
осмот@@
рению
года)
количе@@
месяцев
над@@
механи@@
рассматрива@@
федераль@@
уго@@
произвед@@
4/@@
пересмотрен@@
чи
секретариат
комплекса
центра
специали@@
привести
предприятий
ряде
сообщения
одном
т.д.
взры@@
клады@@
представление
обязан@@
работ.
качество
существ@@
Комиссией
Гн
семьи
Объек@@
внима@@
ниж@@
Заказчик
дальнейшего
энергети@@
диалога
остается
социальным
мн@@
обстоятель@@
резолю@@
Международная
ито@@
2.1@@
коэффициент
йских
прод@@
этими
стандартов
ГПЗ
смот@@
принятии
валась
х:
трещи@@
важную
све@@
очередь
авиа@@
неу@@
путей
марки
поле@@
измери@@
3.1@@
данных,
НПО
тивная
руководящие
налого@@
мый
пользова@@
глобаль@@
or@@
уменьшения
конкур@@
22.
завод@@
применяются
вя@@
заседание
перемещенных
обосно@@
компрессо@@
мента@@
различными
23.
ЦИ@@
D
дискриминации,
текст
1:@@
изоляции
месторождения
сроки
региональными
коррози@@
110@@
Ы
ву
центров
коло@@
вам
МП@@
(200@@
фе@@
шими
лизация
сесси@@
всегда
оцени@@
диа@@
взносы
ремонта
обмен
(A/5@@
сеть
корпора@@
ско-@@
документы,
выбро@@
ориенти@@
нов,
дро@@
слова
сам
другого
исходя
универса@@
представляется
ступ@@
реформы
С)
…@@
вспомога@@
допусти@@
просьбой
рен
защита
людей,
оказывает
рово@@
отношению
ств.
ме.
г-@@
Например,
Устава
монтаж
пригла@@
очи@@
пользу
практику@@
(S/@@
ограничения
находи@@
ядерных
располага@@
базы
эффективность
недостаточ@@
помо@@
Це@@
деся@@
административных
вар@@
зая@@
рования.
мую
обсужда@@
рения
ступа@@
рассматри@@
режим
терми@@
регионального
монтажа
продолжить
ву@@
рным
пользования
докладчи@@
апелля@@
использовании
оружи@@
формули@@
правосудия
Западной
сообщи@@
мире
эн@@
стало
постоянного
66@@
нам,
наших
ровали
намер@@
исполнении
серо@@
табли@@
отража@@
ными.
в;
потреб@@
ца,
среде
улуч@@
поставля@@
A/5@@
ссылаясь
членам
Гру@@
сварки
До
предлагается
моду@@
/199@@
выя@@
ственная
направля@@
-20@@
седьмой
определенных
насоса
сторон@@
рован@@
Пе@@
современ@@
(включая
управлению
нное
приз@@
значительной
мирных
политику
связа@@
вооруж@@
генера@@
мента
аспектов
21.
утра@@
собственности
измер@@
государств-членов
Республика,
груз@@
дар@@
привед@@
сертифика@@
соответ@@
методы
внеш@@
Рѕ@@
вопросах
консенсу@@
среды,
основу
бежен@@
1-1@@
устанавливается
занятости
7)
лки
мина@@
ваемой
подтвержд@@
СК@@
возможных
рей@@
36
кость
глав@@
влено
Тимо@@
усло@@
ний,
сотрудничеству
XXI
8)
ное,
ори@@
34
ради@@
нии.
линей@@
руют
1;
важ@@
поступа@@
разоружения
ств@@
наличия
кисло@@
степень
ратифици@@
цо@@
органов,
относи@@
наз@@
опыт
обеспокоенность
участники
ез@@
принимается
ющем
сть,
надо
назы@@
медицин@@
заказчи@@
перемещ@@
интересов
решений,
(В@@
дела
цы,
использу@@
вший
обращения
оборудо@@
недавно
бума@@
отвеча@@
транспортных
Р,
двусторон@@
своими
Ча@@
вин@@
бол@@
Ы@@
Отдел
енном
читель@@
социаль@@
совмест@@
сове@@
яви@@
культуры
систем@@
ваго@@
кой.
слоев
полученных
фундамен@@
гендерной
альных
рована
щении
раб@@
одновременно
грунтов
ев
необходимой
группа@@
согласи@@
касающимся
таких,
завер@@
вол@@
уровне.
подо@@
город@@
воздухо@@
потенциаль@@
затраги@@
каза@@
чь
руются
описа@@
Интерне@@
бедстви@@
поддержания
сса@@
сооружения
орган
истори@@
ная,
мало@@
отделения
-8@@
ья
ПРО@@
государству-участнику
расче@@
Международный
Анго@@
магистра@@
приемле@@
обеспе@@
сферы
обучение
средней
Маль@@
спи@@
лек@@
показатель
адвока@@
сси@@
исполнитель@@
стенки
пуска
центр
превышает
ваемого
дирек@@
заключа@@
статисти@@
образо@@
пото@@
жден
базо@@
бюджет
рах,
содействии
инспек@@
65
специальные
шести
первую
выполн@@
тельными
S/2001/@@
хими@@
III@@
района
26.
действовать
Федера@@
цен
Ду@@
каждом
проекти@@
re@@
77
СУ@@
пределами
граждан
персонала,
прекра@@
млрд.
I.
нельзя
ревизи@@
монта@@
решением
сохранения
зарегистри@@
(О@@
постоянно
надеж@@
финансирование
системы,
разрабаты@@
пользо@@
Европейский
масшта@@
холо@@
поставщи@@
отбо@@
сь
ри
никами
действий.
главных
соответствия
проч@@
предварительного
жное
ВВ@@
расширению
указы@@
полное
цами
кадров
31.
справо@@
географи@@
пара@@
кам,
т)
подоб@@
хоро@@
связей
ото@@
полномочи@@
профилакти@@
п.@@
обе@@
обязанностей
метро@@
сотрудничать
должностных
друг
широкого
мир@@
лицо
развити@@
вертика@@
будущем
мерах
Р»@@
(E@@
серы
приборов
ровано
дра@@
провода
соблюдение
дискусси@@
st@@
странах.
42
снаб@@
дели@@
изучения
организациями,
ности;
рус@@
группу
опыта
ся@@
сельского
культурных
отдел@@
56@@
земле@@
разнообрази@@
w@@
партии
предвари@@
судебной
лии
повысить
области.
вающей
r
коне@@
заинтересованных
it@@
влия@@
влияние
свед@@
элементы
повестку
сен@@
статей
мероприятий,
правительствами
принято
крити@@
а.
экономическим
шу@@
енную
номина@@
внести
использоваться
Add@@
акти@@
ще
Центральной
нау@@
Азии
обрати@@
получи@@
выполняется
Пу@@
направлении
39
снижения
арматуры
енность
ул.
общая
любое
ГИ@@
инфраструктуры
воздействи@@
всеобъемлю@@
ниям
могла
доброволь@@
извле@@
дру@@
Герцегови@@
делу
развивающиеся
ST@@
затра@@
Экономи@@
выража@@
первый
Ле@@
))
Карибского
входит
жест@@
голосо@@
народа
сы.
компонен@@
та)
направления
Центра@@
возобно@@
размещения
плен@@
пяти@@
производственных
ущерба
Исполнительного
ник@@
жению
нас
ями.
отве@@
пуска@@
законом
метри@@
печа@@
достаточ@@
техническим
чрезвычай@@
отчет
хозяйства
програм@@
дрена@@
влаж@@
буду@@
сть@@
сделан@@
ленных
каких-либо
политика
кри@@
бли@@
де.
температуре
она@@
ред@@
устройств
лов,
ру.
открытого
противопожа@@
вающий
перио@@
инициати@@
Приложение
беженцев,
программы,
переходной
ств,
эффективно
ой
установку
шая
тельность
какие
страда@@
кли@@
1.0@@
нынеш@@
гарантии
дня@@
эффективных
29.
вшим
страна
имеется
сегодня
конференций
рамки
продолжи@@
определен@@
Прави@@
производить
сотрудников,
трас@@
-110@@
региональной
искус@@
сообща@@
кер@@
℃@@
прекращения
дет
серьезные
доно@@
докладчика
Докумен@@
организациям
стадии
ды,
информацион@@
осуществл@@
тес@@
едино@@
2(@@
руководства
ний.
примен@@
зон
оказании
2.0@@
связ@@
заключитель@@
внед@@
проду@@
общую
оккупации
ностей
населения.
рассчита@@
говори@@
представителями
глобальной
Безопасности.
196@@
Консультативный
законодательство
обращ@@
деятель@@
оплаты
помощ@@
ми:
обычно
принимая
связи,
Ди@@
ствами,
ложи@@
свобо@@
представил
счета
наблюдения
праве
визи@@
темати@@
прогно@@
соглашение
труда,
свободы
представленных
временных
образу@@
дороги
устойчи@@
тыс.
позднее
ш
ностью.
водя@@
ян@@
Великобритании
подверга@@
связаны
СИ@@
влен
стихийных
тами.
районов
участниками
обнару@@
g)
утверждает,
пы
руковод@@
достаточно
встре@@
содержит
.2.1@@
участке
уско@@
мандата
подписания
АВ@@
африкан@@
главы
совместного
супру@@
подзем@@
Инди@@
СМ@@
ию@@
37
сле@@
кими
принадлежа@@
подразде@@
экономики
подготовить
этапа
затрат
подчерки@@
ГЭ@@
поддержа@@
воль@@
станция
экономические
27.
совет
платы
редак@@
тору
месторожд@@
дня,
НЫХ
пос@@
характер@@
адеква@@
оперативной
ра;
99@@
строительной
ствам
тов;
указанием
носит
писа@@
внешней
факе@@
ки:
покупа@@
профессиональ@@
моло@@
развивающимся
предложено
48
своевремен@@
факто@@
района@@
сва@@
Участ@@
оборудовани@@
41
55
парти@@
север@@
секретарю
также,
судов
мне
изменение
Департамента
уте@@
банков@@
предоставляет
отчетности
закон
расположения
приходится
упро@@
.6
тип
уязви@@
бой
25.
меша@@
соединений
лицам
очеред@@
группой
вать,
применении
принцип
руководя@@
первом
туры
перегово@@
Лю@@
обсужд@@
потенциа@@
ность@@
считается
следующей
одну
компенсацию
руководи@@
лин@@
ущерб
обязательств,
основы@@
формирования
повтор@@
устранения
АО
отме@@
свете
це
отда@@
та:
меньшин@@
Ла@@
период,
подрядчи@@
снабжения
знаний
комитетом
Заказчиком
гуманитарных
повыш@@
Шта@@
женщинами
чения,
вая,
нагрузки
такая
территории,
следу@@
фика@@
нер@@
Пла@@
Конвенция
делегаций
прогресс
ду.
Королев@@
(II)
юриди@@
Специальным
мир
ложения
включены
факти@@
Конференция
акты
чет@@
союза
неде@@
информации.
моноли@@
компания
партнер@@
покрытие
*1,@@
материала
действу@@
рам,
вели@@
пуль@@
воро@@
емости
лли@@
рассмотр@@
режиме
33.
стабильности
зии
прису@@
рей
мости,
МИ@@
проектов,
сфе@@
долго@@
будущих
стерж@@
отсутствии
кти@@
коэффициен@@
трубопровод
тин@@
военной
Времен@@
ОО@@
разбиратель@@
руководителей
готовности
жесто@@
сетей
Настоящий
См.
организацию
лами
РІ@@
Суда@@
кг
которые,
зву@@
привлечения
уровне@@
йной
ic@@
возник@@
поощрять
возра@@
цион@@
адре@@
зиру@@
выход@@
договоров
24.
науч@@
техническое
позиции
распределение
американ@@
протокола
78@@
отказа@@
приложения
письмен@@
al@@
расход
бывшей
судеб@@
облада@@
частей
руководство
удовлетво@@
секторе
компани@@
Строительство
частных
рекомендуется
отрица@@
І@@
Ха@@
ы:
ровал
ходатай@@
област@@
новым
мед@@
диаметр
просил
допу@@
вызывает
призыв
насел@@
мониторинга
определенные
паро@@
проводит
0,5
напря@@
дохо@@
лей,
РФ
крас@@
СА@@
вызы@@
ях.
вступи@@
клиен@@
ПП@@
ня
поя@@
нуть
Рє@@
запад@@
бур@@
информацию,
перекры@@
методи@@
надлежа@@
время,
директоров
анали@@
наказа@@
помещении
просьбе
Новая
мах
исполн@@
выш@@
жерт@@
ы;
программ@@
представленные
пола
угро@@
Мин@@
государственные
совещаний
пласти@@
емы@@
люд@@
какой
размещ@@
кот@@
нормативных
Ри@@
(
осуществить
концентра@@
защиты,
говорится
чё@@
соблюдать
содержащиеся
выходе
сотрудники
600@@
47
ко-@@
мы.
издели@@
являющихся
дов@@
льно@@
ходить
официаль@@
предохрани@@
58@@
)/@@
глобальных
удоб@@
присут@@
альные
уровнем
секретариата
инвали@@
поступлений
указанные
мужчи@@
администрации
пись@@
китай@@
автоно@@
55@@
вшего
подчеркну@@
ленной
кандида@@
%)
влению
кол@@
Комплек@@
оборудования.
ЮНИДО
мобилизации
тор,
права@@
ввода
источника
энерги@@
возникновения
уполномо@@
возраста@@
заверши@@
рованным
Конститу@@
шесть
технологической
ниях
выступили
ссо@@
Технологи@@
права.
изоли@@
(при
Ассамблеи.
емую
43
пробле@@
чать
тогда
ются,
играть
рассматривается
области,
и:
ратификации
вами
инфраструкту@@
аре@@
дополнитель@@
2).
мог
совокуп@@
ПК
самостоя@@
научных
проблемати@@
факторов
площадь
тари@@
хранение
прида@@
помощи.
официальных
России
вторжения
оккупа@@
тридцать
at@@
35.
чист@@
Центральных
1,0@@
бое@@
угрозу
парламен@@
израиль@@
указано
рон@@
базе
сосредото@@
причине
дня.
400@@
емом
дефек@@
определяются
1000@@
образовани@@
равен@@
лить
Перед
имеющие
участков
нным
основы
.7
чрезвычайной
секретариа@@
целей,
природных
осна@@
иные
гли@@
выполни@@
ины
министерства
результатах
тора,
штуце@@
130@@
подчеркивает
выключа@@
управления.
планы
нима@@
ниями
проблеме
озаглавленный
Нидерлан@@
ковых
задача
раздела
секретарем
Югославии
величи@@
веществ
Фран@@
колонны
тельство
сель@@
поверхност@@
правом
щем
торговой
ками.
28.
необходимым
предыдущих
800
Кувей@@
долю
15,
циаль@@
принят
размер
материаль@@
аварий@@
выс@@
(от
КР@@
Соединенное
подлежит
сформули@@
применительно
альтерна@@
неофициальных
расчет@@
жидко@@
вле@@
так@@
во-@@
момен@@
океа@@
га.
сою@@
заседаниях
стаби@@
избра@@
экологических
настоя@@
40.
приверженность
агресси@@
льному
одино@@
m
переговоры
крайне
речь
ирак@@
упомина@@
выступ@@
Гвине@@
меньше
предостави@@
урегули@@
НР@@
превыша@@
проверить
обвиня@@
принципа
промышленности
Суд
ф
практически
жений
Бюро
надлежащих
МА@@
управляющих
промежуточ@@
жиль@@
специаль@@
квалифици@@
специального
поддерживать
мыми
ляет
рассматриваются
ЛА@@
ур@@
м.@@
сейчас
государства-члены
Координа@@
Конго
йных
2010
конкурен@@
проводов
Консульта@@
жертв
Кувейт
уделя@@
политического
ющийся
департамен@@
возмещения
ОАО
изучить
Сою@@
Эритре@@
охран@@
вступления
класс
общества.
выбросов
условиями
Комиссии,
деталей
ят
ам@@
техническую
отдельные
высоте
32.
Рј@@
комиссия
всесторон@@
законов
поз.
лам
лежа@@
проектом
енности
ОТ@@
экспорта
воздуш@@
вления,
разли@@
торо@@
существенно
чита@@
ченной
исполни@@
ей@@
газ@@
достижении
ение:
отходов
ленные
получать
емко@@
заработной
заплани@@
стран@@
принуди@@
персонал
размеры
регламен@@
ум@@
1998/@@
прав,
Разработка
организаций.
мин
рующих
моде@@
98@@
означает
эти@@
дача
статуса
инициатив
существо@@
1-0@@
прось@@
шт.@@
веще@@
лия
выполнены
рабочем
50.
помимо
жным
яс@@
обязательство
событи@@
оплачи@@
Комите@@
пара
учитывая
.2.
рекоменду@@
нище@@
морских
крайней
девятой
ею
занимается
Кувейта
обследо@@
Подрядчи@@
1999/@@
оптима@@
й-@@
нищеты,
нь
диало@@
тр@@
Строитель@@
нагнета@@
совещании
лые
занимающихся
медицинских
подхо@@
нести
кую
-5@@
болез@@
цу
происходит
120@@
рными
улучшение
подготовлен@@
носят
жидкости
компенса@@
нную
Такие
получили
инженер@@
ениями.
йти
Ира@@
лиц@@
ального
достиг@@
рабочий
сопровожда@@
креп@@
циркуля@@
блок
потребност@@
дело@@
Консультативного
начина@@
Республи@@
необходи@@
сварных
льни@@
дного
Региональ@@
толщина
разреш@@
за,
имуще@@
учи@@
пру@@
годы,
Работ
подлежат
государствен@@
облег@@
al
потерь
рассмотрел
признаку
обу@@
рованием
союз
процессов
Женеве
прочности
установи@@
вов,
науки
разоруж@@
измерения
коммер@@
КК@@
Add.1@@
основное
принятой
инструмен@@
председа@@
обеспечить,
избежание
рами.
твер@@
чрезвычайных
лок
мож@@
особенности
женщинам
служит
транзи@@
Жене@@
втори@@
лист
должность
ностей,
большого
om@@
A/ES-10/@@
46
сложности
дной
мигран@@
проведенных
запасов
представлена
укрепить
комплексного
среднего
(по
перехода
Косово
приводит
учебные
преступления
мень@@
лой
Кор@@
(2)
Цель
палестинских
площадке
чает
тол@@
массового
дне@@
насы@@
непреры@@
щает
постановила
кло@@
подве@@
случаев,
доноров
3).
определении
Так,
консультан@@
согласован@@
достичь
обработ@@
ОП@@
ются.
доказатель@@
поступления
220@@
отбора
принимаются
34.
ежегод@@
тысячелетия
най@@
кВт
е:
ЕЛ@@
наши
рода
нужда@@
подраздел@@
органам
министер@@
них,
широкое
важно
неправительственные
Расче@@
стала
Стра@@
группы,
строительству
стана
трубопровод@@
лов@@
3),
распоряжении
работни@@
Ве@@
1/2@@
партнерских
!
ения)
созы@@
недо@@
убий@@
ст.
вытека@@
Другие
стальных
газа@@
ений@@
нужно
выпу@@
ПИ@@
(0,@@
ных@@
ти.
щен
отвечать
просить
Соглашения
дных
вах
сейсми@@
вс@@
основными
наблюд@@
опытом
мировой
сжа@@
толко@@
доби@@
хотела
бре@@
ный@@
промысло@@
корпуса
используются
установлены
человека@@
водится
вида
[@@
такую
пассажи@@
содержащихся
служить
тка
оп@@
указанной
совершенствования
активизировать
альной
ений;
странам,
числен@@
изделий
Рї@@
ках.
расстояние
содержатся
поощрение
y
сь@@
годах
Север@@
ством.
комитету
мандат
сня@@
Субподрядчи@@
нов.
-9@@
окончания
сжи@@
пони@@
поправки
ты:
какой-либо
дополня@@
ция.
ol@@
2006
агрега@@
бога@@
свидетельствуют
зона
ключевых
печи
ДА@@
пользоваться
июне
завед@@
продо@@
Члены
средства,
ребен@@
ние@@
)(@@
проводятся
ющему
йки
-2
бассейна
труба
59@@
сверх@@
многосторонних
вариант
-120@@
местах,
г/@@
временного
вку
вшегося
изменя@@
границы
приемки
аспекты
обсуждение
промышленной
дело
рис@@
ениях.
76@@
письмо
большинстве
внешних
лять
прошлом
ки)
постав@@
тое
кабелей
~@@
воен@@
услуг.
контра@@
доходов
вши@@
тни@@
действует
транс@@
ПС
тыми
стить
ни,
ка)
активизации
вался
нами.
пригово@@
свободной
ственную
угле@@
религиоз@@
Россия,
фици@@
земли
изготовления
проведением
мнению,
затрону@@
iii)
масла
исключитель@@
Пак@@
входя@@
жу
согласованных
Глоб@@
вывод
стью
2.2@@
мыш@@
дополнение
ДК@@
начиная
чу@@
сигнализации
огром@@
общественного
представляется,
отчет@@
чка
взаимодействия
се,
скон@@
(I)
особого
руководством
потенциал
активной
рное
декабре
сная
топливного
ГП@@
провозгла@@
производстве
обстанов@@
голосования
140@@
вытя@@
органом
субсиди@@
предстоя@@
4.1@@
развитию,
ческих,
помочь
мин.
какого-либо
Ц
существующие
Конвен@@
Председа@@
слу@@
тую
частично
глобального
пор
ПА@@
земе@@
дете@@
времени,
скры@@
П,
Управлением
подробно
обозна@@
кг/@@
...
Зна@@
ввиду
сда@@
сессия
гом
удовлетворение
Суда
космического
(для
отли@@
горя@@
ся
лицам,
БО@@
политике
вная
юрисдик@@
самых
С‚@@
тация
репродуктивного
Результаты
Ис@@
происхождения
первонача@@
III.
нами,
пунктам
щенных
ЕЛЬ@@
ле.
равно@@
объемом
общем
заниматься
мужчинами
мно@@
отношениях
экземпля@@
%);
предше@@
самого
долгосро@@
Таилан@@
внешнего
железнодоро@@
49
мера
глубо@@
серьез@@
целесообраз@@
учреждения,
ги,
юридических
делать
Центр
кадро@@
Более
ям.
черте@@
штаб-кварти@@
инвалидов
дальнейшей
Общая
правительствам
подразделений
тах.
онной
впредь
неблагоприя@@
комитета,
(E/CN.4@@
связанным
ЗП@@
эксперимента@@
активное
Япо@@
торговли,
лу,
сно@@
Общества
ухуд@@
/C@@
мощностью
главного
уч@@
меньшинств
зация
канализа@@
оборудование,
охлаждения
надца@@
ровала
выво@@
неф@@
Фон@@
информационно-@@
военного
присоедин@@
заявлениями
стороне
относя@@
региона@@
рную
точной
страновых
включение
передаче
сложи@@
вред@@
охвата
стратегических
необходимы
национальным
горю@@
чая
геологи@@
одоб@@
убежи@@
наилуч@@
выборов
енно
свето@@
щены
Перечень
правозащи@@
Представи@@
постоянных
фа
интересы
скорость
циям,
продолжительность
инженерно-@@
параметров
Иерусали@@
имущества,
жу@@
цев,
Мьян@@
пропа@@
ВК@@
ща
правительства,
2009
машин@@
ц.
чность
51
внесения
живо@@
главе
надлежащим
восстано@@
стом
дут
соответствующее
средств.
кампа@@
преж@@
Секретариа@@
сторонами
вся@@
предусмотренные
регуля@@
напряжением
судей
муф@@
ро
осуществляются
ассоциа@@
шки
ет.
табл.
зависит
годов,
заместителя
статья
распоря@@
националь@@
осуществ@@
Заказчику
жалоб@@
1.2@@
торговых
антикоррози@@
Отде@@
тельности
цилинд@@
Поль@@
прове@@
праву
ресурса@@
шо@@
схемы
влена
отлож@@
распространяется
стальные
700
поступает
подтверди@@
раль@@
выполнением
за.
отрас@@
давлением
бюджете
направлены
несут
ДИ@@
пак@@
слой
имуществ@@
периоди@@
>>@@
исчезнов@@
зе
A.
гуманита@@
прекращении
“@@
партнеров
Эфиопи@@
каким
важней@@
чности
приоритетных
весь
постоян@@
цены
организованной
рации
статус
сообщений
es@@
авари@@
Обще@@
ходом
функциональ@@
кабеля
работой
говой
входе
газов
сбаланси@@
финансо@@
Количество
экспертов,
передви@@
собрания
ходит
Соединенного
стрелкового
ству,
Договора,
крыш@@
ствующие
Туни@@
такими
косми@@
национальными
упла@@
стер@@
шириной
методом
дене@@
избежать
корот@@
вместо
информационной
многосторон@@
тивы
Восточ@@
арбитра@@
вопро@@
чаются
слишком
массо@@
Подрядчиком
надлежащего
фланце@@
ствам,
рабо@@
подня@@
средних
кредито@@
главной
разоружению
СЂ@@
следующий
Н.
паспор@@
тысячелетия,
средне@@
ути@@
арми@@
контроли@@
ванная
сотрудничества,
показы@@
напо@@
расхода
принимают
вопроса@@
регулярно
местные
c
деятельность,
лицами
отметила,
стей
лей@@
загрязн@@
государств.
Запад@@
учет
ником
ремонт
насили@@
3;
дви@@
проводиться
достигну@@
(П@@
участии
жными
м2
огне@@
выразить
укреп@@
своему
льго@@
сокращению
морской
общин
Поставщик
2),
зачастую
поставленных
вынес@@
угрозы
указания
низкого
основани@@
лко@@
промышленного
Когда
Деклара@@
Мекси@@
конференция
т;
проя@@
тери@@
ля,
союз@@
шаги
кризи@@
интегра@@
работу,
соблюда@@
оперативных
условиях,
смен@@
Амери@@
ления.
сан@@
технологии,
воды.
хорошо
имущество
предусмотрена
обязательства,
замен@@
ВС@@
/T@@
политические
оборудования@@
гендерного
отвер@@
обеспечивается
против@@
цве@@
Мар@@
инциден@@
совместных
ново@@
ядерным
(II@@
гового
большим
жать
выполненных
расстоянии
провел
проектиру@@
Целевой
вно
эко@@
внутренние
выводы
али@@
лиц.
Королевство
муж@@
мощность
(C@@
Ти@@
ri@@
интерес
заво@@
применяться
поступи@@
забо@@
в)
юще@@
(1
призвала
укло@@
концепции
чертеж
проблема
отмен@@
38
выработки
2,5
культурного
выявления
мину@@
(И@@
установленного
38.
ядер@@
собира@@
имели
неправительственными
нах,
4.@@
68
капитала
социальные
зы,
террориз@@
перво@@
трибуна@@
используемых
годов.
серьезных
110
учреждениях
товаров,
циа@@
равенство
несу@@
ассигнования
условии
человек,
Высо@@
вает,
обратиться
)-@@
____@@
шли
институциональ@@
коль@@
Хорва@@
расширить
сные
обез@@
силами
лицо,
приводится
повед@@
Африки,
тия,
сей
41.
»;
города
это@@
стал
самой
данны@@
МГ@@
категорий
O
дах,
квалифика@@
Предста@@
руб@@
установке
доверия
3.0@@
согласие
удо@@
мета@@
причин
незаконного
нейтра@@
учреди@@
рожд@@
немедленно
рекомендации,
(А/5@@
Принци@@
свой@@
аген@@
пожела@@
мае
задолжен@@
коман@@
Международное
справедливого
собственных
данное
5.1@@
государственным
выделя@@
согласования
Ф
странами,
Швейца@@
77@@
Рисунок
раза
длина
комплекс
препятстви@@
развивающимися
нося@@
Министерство
Совета.
3.2@@
ЗП=@@
ключение
цена@@
условиям
разры@@
проекта,
глобализации
способствует
спутни@@
1000
практических
административным
Восточной
зака@@
адрес
сталкиваются
садо@@
скорее
ЛИ@@
ал@@
расход@@
влений
ибо
Но
конца
оправ@@
равных
тели,
сп@@
Также
шении
тивную
кни@@
аналити@@
межправительствен@@
получают
конкретным
Гватема@@
шва
54@@
нном
89@@
предварительной
фла@@
3.@@
группами
семе@@
кос@@
размера
20,
представила
сков
понимания
дополнительного
условий,
алма@@
задерж@@
среднем
промышленных
движение
подтверждает
поворо@@
стой
Саудовской
обвин@@
хран@@
успе@@
мной
взгля@@
лока@@
Конго,
види@@
ющимися
предме@@
привле@@
жи,
і@@
питания,
МОТ
("@@
сай@@
проходи@@
новую
трибунала
архи@@
принята
превышать
местном
проез@@
ряет
соответствующую
удалось
медицинского
Всемирного
фильтра@@
бе,
вентиляции
переход@@
120
всю
здравоохранения,
жид@@
A,
разви@@
ресурсы,
ние.
87@@
Общие
деформа@@
10,@@
проведено
ежегодно
Еще
зазем@@
36.
Сьерра-Леоне
последова@@
аб@@
Восто@@
Сторон,
назем@@
<@@
договор
изготови@@
ГО@@
9)
вход@@
надцатой
дис@@
иного
создана
дополнительной
равной
-либо
значитель@@
други@@
(b)
любом
возраст@@
лено
необходимости,
установленном
снижение
ровой
па
рованная
сформулированных
процессу
загрязнения
максима@@
совместной
населенных
альный
запраши@@
КС
джа@@
июле
Америки,
взаим@@
ассигно@@
умень@@
изуча@@
докладах
ные@@
спек@@
че
зай@@
действо@@
слово
балан@@
Анализ
проектам
научно-исследователь@@
соответствуют
ватель@@
добровольных
лена
экономических,
этни@@
Ру@@
устанавливаются
альная
ствах
ауди@@
стимули@@
бных
регулярного
эффективное
численности
аварийного
государств@@
получил
скорости
Пи@@
j@@
Опера@@
ноябре
фикация
положить
.00@@
предусматривать
вшейся
централизо@@
ад@@
новое
Создание
заявил,
полномочия
районах,
Африке,
вающим
источни@@
Положение
ОР@@
рефор@@
надзо@@
оператив@@
лучше
законодательных
un@@
КИ@@
Участники
руемых
возможност@@
судо@@
НА
заменить
отражает
Повестки
межучрежден@@
наркоти@@
МЕ@@
заверш@@
стол@@
расследования
указанного
Зеланди@@
бин@@
вляет
возвращения
космической
зажи@@
Правила
часов
воздушного
органи@@
Орга@@
информировать
подготов@@
терроризма
Боснии
проведен
юри@@
поощрению
ственном
прочих
предотвращению
сор@@
67@@
мо
носить
определены
соблюдением
ФОТ
влияния
самоле@@
арабских
предстоит
системы.
Руководя@@
К,
Договору
войны
жертвами
контракта
земля@@
террористических
параметры
направляется
начало
технологий,
б.
выступил
фундамента
el@@
900
точного
точных
производства,
слой@@
действия,
ников,
мощности
замести@@
положениям
участок
гендерных
бюро
Многие
привлека@@
целевых
Организа@@
сроков
выдачи
Европы
выразил
общественных
1.3@@
призвал
Требования
Аргенти@@
марте
дами,
НД@@
военные
душ@@
продолжают
Законом
проведены
рациональ@@
сило@@
оружия.
Ше@@
налажи@@
Объем
обороны
их,
Данный
ходящих
лый
рекла@@
ЛЬ@@
постановляет
см
чно-@@
установлению
°С
углуб@@
впервые
производству
12,
предусматриваются
тесно
насос
ю;
обслуживани@@
очередной
государства-участника
отсутствием
ЛЕ@@
финансовым
злоупотреб@@
местной
сем@@
социально-@@
пространства
стру@@
пространство
государственными
of
ТЗ@@
значительные
подземных
производственного
принадлеж@@
проверке
беремен@@
Совет@@
ционными
веща@@
назнач@@
нахождения
необходимо@@
разделу
запис@@
ресурсами
несен@@
Российская
ES@@
авторов
методологи@@
приспособ@@
Уган@@
рак@@
дина@@
52@@
рекомендаций,
годы.
ровке
________________@@
металли@@
постановил
нагрева@@
разбирательства
годи@@
применению
следующем
президен@@
Мини@@
настоящих
стреми@@
хлори@@
E
64
сказал
существуют
разработаны
штра@@
миссий
длиной
(далее
незаконной
подстан@@
ве,
ждает
составления
содействию
Африкан@@
провела
Королевства
мигра@@
научно-@@
достигнутый
докладов,
моно@@
прямо
сотрудника
провод
вали@@
материалы,
посвящ@@
Объедин@@
очереди
и)
последнее
вшей
вид
R
F
широко
рядом
тори@@
проле@@
сдержи@@
этап
привело
дата
налога
лестни@@
ПУ@@
правами
Ал@@
Cl@@
фактически
хва@@
млрд
росси@@
каждому
высота
характеристики
приобрета@@
сный
Сторонами
боевых
втор@@
56/@@
тили
Министерства
ём@@
земель
контроля,
камен@@
стране,
емся
Кана@@
Туркмениста@@
введения
лизации,
85
CO@@
Дополнитель@@
след@@
различным
экономическое
запас@@
обоих
описание
сок
2007
бюджетных
выражен@@
рассматриваться
.8
ди
усилиях
Комитета,
ста,
мерно
мети@@
тивном
шт.
проблема@@
Решение
дипломати@@
доб@@
высоком
газового
правосуди@@
максимально
Были
ением@@
жизн@@
прямых
шению
целе@@
т.д.@@
форма
12,@@
отм.
бедствий
професси@@
сут@@
ката@@
ГО
Ряд
ог@@
Меж@@
правительственных
IV
Полу@@
Руан@@
такие,
последователь@@
Саха@@
Афганиста@@
стать@@
сь,
растор@@
Международным
недостат@@
S/2002/@@
медицинской
ченным
государств-участников
Подкомиссии
and
направление
решить
очевид@@
подрост@@
исследовани@@
A/C.3@@
специализированных
замечаний
жен
наруша@@
представленный
осозна@@
действительно
Совета,
дополнительно
требование
циями,
потребления
ено@@
удар@@
процентов.
согла@@
поездки
народов,
резолюции.
изменении
легких
выразили
заключ@@
широ@@
Д,
сохран@@
ционную
L=@@
2015
тура
Исполнительный
потерпе@@
установлен
достигнут
азо@@
Коре@@
рос@@
теме
одному
тан@@
храни@@
Расходы
услуги,
да;
огово@@
ка;
документации,
жены
предыду@@
ной@@
схеме
важные
Г-жа
ходят
горизон@@
ров;
удаления
участках
сточных
стоимо@@
удовлетвори@@
¬@@
считает
автоматического
большинства
МТ@@
мигрантов
гендер@@
ня,
II,
африканского
PN@@
шую
список
маршру@@
42.
тормо@@
верси@@
енному
полученные
проверку
гн
проходит
стого
верхней
ограниченной
Покупа@@
99
h)
министерство
временной
выполняются
чрезмер@@
ности:
установленной
новая
диалог
партнерства
ключе@@
помещениях
перви@@
островных
ниже@@
ск,
слуша@@
рамо@@
просьбы
объекты
вленный
преследо@@
консульти@@
укреплении
дизе@@
ac@@
циях,
сентябре
тай@@
владель@@
Ближнем
население
реализацию
Эк@@
теплоизоля@@
конту@@
конфликта
сили@@
56
№1
нить
ЮНЕП
народонаселения
ций;
распространя@@
МПа,
Договор
физических
as@@
государство@@
внес
влад@@
строительства,
льности
которо@@
флан@@
Ро@@
полиэтилено@@
онных
бюджетным
приводятся
издерж@@
месяца
пор,
Все@@
фикси@@
нынешней
вленного
девочек
трубопроводы
подключения
обязаны
Трибуна@@
зале@@
10-@@
участво@@
пропаган@@
указанным
трансграни@@
дет@@
низа@@
рование,
долла@@
регенера@@
расходы,
различи@@
финансовую
низким
l
своевременно
техническому
таком
0,5@@
ЧЕ@@
проход@@
целенаправл@@
утверждение
гну@@
женщин-@@
попере@@
(3@@
втором
предпринять
±@@
кам@@
размеров
Специальному
B.
кового
денежных
жилищ@@
веден
ЭСК@@
частным
Брази@@
г-н
семей@@
представителем
(или)
ящи@@
интеллектуальной
ликвида@@
гани@@
году@@
кгс/см@@
беспла@@
резервуа@@
47.
поверхность
рыболов@@
причины
лии,
свиде@@
продовольственной
что@@
ГА@@
открытом
1),
разби@@
плат@@
проведена
вок
оснований
сах
предмет
ленного
к-@@
пласт@@
студен@@
клю@@
стве.
42@@
Технические
выступает
пис@@
Осуществление
тся,
кости
наказания
тех@@
предъя@@
нищеты.
исход@@
стая
мг/@@
каз
передо@@
Правительства
обязуется
испыты@@
53.
подстанции
район@@
низко@@
Ази@@
ль.
сообще@@
признания
р-@@
участию
вносить
вести@@
рыно@@
предусматри@@
вых,
договорен@@
общим
Ь@@
питание
Кра@@
приема
захва@@
Иорда@@
вленной
Тер@@
посвящен@@
групп,
предприятий,
Колумби@@
Отдела
дистан@@
Израиль
биту@@
прокуро@@
организации.
женных
направлений
перспек@@
отвода
пыта@@
льность
ro@@
46.
Эквадо@@
37.
(или
датчи@@
могло
УВКПЧ
Палестин@@
приняло
актуаль@@
пособи@@
сбор
мероприятия,
порядке,
уси@@
принятию
рабочие
РК@@
/58/L@@
расши@@
тельному
КНР
наконец,
одновремен@@
играет
здравоохран@@
народо@@
запрещается
заинтересован@@
дву@@
установлен@@
зия
насколько
РИ@@
16,
токо@@
Герма@@
восто@@
оговор@@
услу@@
действуют
товары
обеспокоен
УТ@@
помещение
рассчиты@@
≤@@
Благодаря
быстро@@
Вам
ТИ@@
следующего
факторов,
полную
благоприя@@
цах
2008
Rev@@
центри@@
климата
жизни,
Подрядчика
места@@
доклада,
резиден@@
дымо@@
семей
хот@@
организация@@
сравни@@
обычных
правовым
традиционных
перемещения
предусмотрен
Тру@@
ница
проклад@@
публика@@
государствам-членам
местными
Коста-Ри@@
вери@@
фир@@
ционном
Кувейта.
сете@@
эффективные
отказа
конкретной
возможные
дости@@
мате@@
рабочее
Фа@@
никогда
компонентов
сумме
магни@@
подви@@
вооружений
способ
раскры@@
электрической
Испа@@
Венесуэ@@
правилами
Нью-Йор@@
(У@@
ч,
ка:
обзо@@
Наций@@
временно
подры@@
первоочеред@@
шири@@
подъем@@
давления,
Вен@@
перевод
апреле
вес
Информа@@
Протоко@@
работо@@
десятой
проис@@
механизмов,
г)
палестинского
программами
коммерческих
n
превен@@
уважения
Была
токси@@
вспомогательного
сократи@@
DC@@
региональ@@
заземля@@
первых
пособия
Кар@@
работода@@
большую
служи@@
юридического
трудности
разру@@
ться.
борьбу
..@@
спро@@
раст@@
стабили@@
программ.
биологи@@
ПВ@@
39.
здесь
среды.
чи,
Китая
состоится
88@@
филиа@@
материал
финансированию
столь
полный
Сан@@
поддержание
1,5
состоявшейся
како@@
Гу@@
исто@@
Бан@@
пала@@
глава
ваний,
ней.
возможно
il@@
англий@@
выдвину@@
сессий
проволо@@
араб@@
поезд@@
док
Му@@
клапанов
вскры@@
кризис@@
o
цам
лами,
государственном
электродвига@@
ны;
тран@@
ля.
равно
b
оружием
исследователь@@
государствами-членами
Намиби@@
рынке
мещ@@
незначитель@@
1373
сепара@@
третьего
3/2@@
конечном
сопря@@
ванным
призываем
выпуска@@
превра@@
м/р
сами@@
Осно@@
ря
250
производственной
задача@@
строительстве
товара
Расчет
воде
вкла@@
уведомления
компенси@@
характера,
поня@@
месту
основой
воспользоваться
реконструк@@
одина@@
рах.
участника
ора@@
экологической
расту@@
ну.
P
7.1@@
абсолю@@
оформ@@
документация
компьютер@@
Камеру@@
регулирование
чертеже
кров@@
му.
связано
года).
специально
стальная
IS@@
уведомл@@
член@@
крепления
Одна
скорей@@
заявитель
соответствующий
исправл@@
тем@@
опти@@
девя@@
достовер@@
сом,
признание
осво@@
уделяется
дальнейшем
жения.
возрос@@
хозяйственной
испытание
схе@@
эгидой
распоряжение
общественности
дный
достига@@
ост@@
закупок
недав@@
щенной
дети
напряжение
сделали
результатом
PR@@
по-@@
перемен@@
ца.
ченными
пти@@
96
;№@@
хро@@
внедрения
ми-@@
беженцев.
конвенций
Проверка
освещения
найти
я),
памя@@
нарушением
пересмот@@
договорных
ствующих
получении
залож@@
ЭС
позволяют
дов;
представительства
значи@@
дав@@
важной
домаш@@
коррозии
ванное
ковые
14,
Встре@@
процессу@@
пога@@
миграции
ПРООН,
ши
развитием
стан
вопрос@@
обратить
форума
ЕНИЯ
сообщение
парла@@
левой
тности
45.
43.
прошед@@
статью
чному
Основ@@
мин@@
Чи@@
обществен@@
концентрации
Че@@
страхования
целый
лы.
начать
узла
лом,
городских
вдоль
водород@@
участником
целом.
Число
МВ@@
контролем
потенциала,
глу@@
соединение
МК@@
потер@@
44.
Непа@@
концу
ассигнований
рассматривает
Однако,
ТА@@
щело@@
гах
ДЕ@@
дальней@@
Либе@@
данная
6.1@@
Пол@@
Конституции
всеобъемлющего
инфек@@
живу@@
водорода
совершения
бюджета,
здоровья,
доклад,
высоким
указаны
нской
его,
высказы@@
встрече
рекомендовал
условии,
к;
совой
сочета@@
стены
совершен@@
количестве
0-@@
укреплять
приостано@@
отделений
Комитета.
США)
63
5.@@
местным
общество
причин@@
суль@@
54
стати@@
0000@@
подпрограммы
52/@@
очищенного
z@@
стремится
поверх@@
P/@@
оде@@
обла@@
мещение
Работ@@
комплексной
''@@
повреждения
SR@@
Конвенцию
провин@@
ровало
ги.
08@@
высоко
контролиру@@
сектор
уровнях,
Егип@@
уровнях.
предназначены
рабочи@@
копи@@
постоянной
преобразо@@
пуск
выбора
полага@@
предлагаемого
доклада.
шагом
лик@@
меди@@
48.
твор@@
ных.
работает
Евро@@
машин
этнических
Арабская
D.
установленные
фондов
аван@@
Югослави@@
оперативного
толщи@@
РП@@
прогресс,
составил
поступ@@
серии
осуществи@@
выполняет
банка
смеси
приблизительно
конфиденциаль@@
дел,
(A/56/@@
стр.
замены
риа@@
УНИ@@
Верховный
товар@@
проверка
160
теперь
лью
численность
-6@@
МПа.
Одним
обеспеч@@
оте@@
поддерж@@
гарантий
детьми
семьи,
номер
передать
сексу@@
положений,
Ирландии,
территорий
состоявшемся
Пя@@
жено
Центра
касаются
увеличить
установленным
Паки@@
второ@@
инфици@@
условия,
которы@@
целост@@
исследований,
ющаяся
B,
гер@@
Вер@@
независимости
мм)
группо@@
миру
зор@@
спа@@
подразделения
заявлений
сте
заполн@@
директора
национальный
оказывают
ЗПм=@@
убеди@@
защиты.
брига@@
ев,
сторона
бира@@
международный
Израиля
избы@@
члена
лом@@
преступлений
Б.
сессиях
водой
форму@@
выпуска
активного
воздушное
г-на
становится
PL@@
воды@@
СКО@@
A/57/@@
дистанционного
услуга@@
подотчет@@
изобра@@
Предлага@@
измени@@
Южная
имел
содержать
Вы
теплообмен@@
мероприятиях
напад@@
(Б@@
Моск@@
улучшить
искоренения
погруз@@
развива@@
соч@@
кой@@
молодежи
электроснабжения
отделение
реги@@
принципа@@
выделения
мене@@
высшего
мер.
новатор@@
правовые
вуа@@
жить
рынка
люди
Македо@@
отмечается
ВЛ
менее,
следить
свер@@
рованными
перед@@
рези@@
регио@@
жно
ставить
(2001)
государством
остаются
переработки
57/@@
.:
утвержденных
предъявля@@
дату
2003/@@
О,
заполни@@
индивидуаль@@
51.
жей
жном
ter@@
ревизии
стави@@
пересмотреть
серьезную
занято@@
прокладки
ней,
сохранение
переч@@
ВИЧ/СПИДо@@
наблюдателей
стремя@@
обратной
Рґ@@
названием
бо
лини@@
опоры
отсе@@
управлен@@
протяжен@@
H2@@
требуют
габари@@
эквивален@@
тыс.@@
ФА@@
завершить
Контро@@
позволили
кампании
вклада
человече@@
опира@@
созна@@
Интер@@
широких
Име@@
конфликтов,
чисты@@
Совете
пле@@
дисципли@@
специализирован@@
пане@@
Р.
конкретно
стри@@
реза@@
оро@@
ью@@
вари@@
активов
ции)
разверты@@
зали@@
расчет
нашего
низкой
шем
управлении
Труба
аналогичных
учреждениями,
человек.
ве.
партнерами
Казахстан
терроризмом
газосборной
пуск@@
(3)
насилия,
the
Союзной
сад@@
Данные
Затем
Эсто@@
лага@@
отко@@
ровать,
Афгани@@
покрыти@@
зом
низации
отдельно
79
широкий
связана
сферу
ника,
фото@@
видео@@
профессиональных
озабочен@@
Социальный
стабиль@@
год)
событий
тному
способствуют
Экономический
гой
погло@@
заместитель
Боливи@@
завода
тность
обеих
Часть
бой@@
АС@@
-10
ража@@
побу@@
сделал
21,
(S@@
нормам
газа.
исте@@
изделия
УСВН
de@@
проводят
утечки
сопротивления
чается
пыток
данных.
административные
жителей
Настоя@@
религи@@
кодекса
мире.
МС@@
Б,
Соедин@@
рее@@
передача
монтажных
x
уби@@
высотой
принципи@@
инду@@
образования.
различия
кноп@@
сообщить
проб
ДК
основополага@@
проводимых
составила
Сове@@
Давление
предприятия,
краткосро@@
ec@@
зуются
лиф@@
йские
каль@@
путе@@
придержи@@
сточной
к:
Оно
шах@@
квалификации
уплотн@@
площади
ограничений
взять
ur@@
линий
ситуация
нными
человеческого
када@@
препроводить
подъ@@
фрак@@
(Д@@
гидравли@@
мя
Соответ@@
важный
ЭМ@@
сить
кварта@@
ОА@@
Откры@@
бедных
означает,
ры:
международ@@
ены,
инициативы,
продукции,
Комисси@@
планируется
транспарен@@
55/@@
охра@@
Арави@@
шла@@
97
согласованные
можем
активи@@
выбира@@
изъя@@
беспристраст@@
программах
рель@@
-12@@
нынешнего
соблюдении
вовле@@
трудовых
смерти
специальный
двухгодичного
должным
обладает
практика
предложил
2-0@@
развед@@
Ад@@
на;
следующее:
ху
Тор@@
государственный
средствах
службы,
49.
расшири@@
паке@@
решительно
остальных
ряд@@
грузки
стан,
Температура
дальнейших
несовершеннолет@@
удостовер@@
газовых
ВС
Порядок
ска
мерах,
стражей
считаем,
необходимо,
индика@@
основе,
IC@@
характер,
оболоч@@
быстро
Ответ@@
53/@@
дам,
персонала.
ВЕ@@
журна@@
счете
воду
произ@@
члена@@
ть:
бр@@
признает
дре@@
73
ха
шел
Один
мов,
Расход
помощь,
меро@@
отмечено,
просве@@
ЮНЕСКО
корпу@@
прочность
станет
снабжение
уязвимых
конкуренции
указать
последнего
эстака@@
конкретного
Подготовка
Иран
уника@@
чь@@
сваро@@
ко,
зоны,
ущер@@
плата
требований,
набо@@
нормальной
по-английски):
произо@@
вы.
энергии,
геноци@@
недвижи@@
рия,
60.
контейне@@
внес@@
направить
поез@@
административного
ков;
случаи
касающейся
А-@@
П.
Стату@@
Алжи@@
Японии
удержа@@
Федерации,
Треть@@
подряд@@
разработ@@
освобождения
выразила
л/@@
предусматривают
роз@@
Азербайджа@@
заземления
йте
0,4@@
сторону
правительств,
циях.
созданы
смаз@@
имеющиеся
моей
чет
нормами
потом
создает
причиной
НК@@
типа@@
проб@@
ниче@@
тию
тури@@
обеспечивают
предо@@
соединя@@
топлива
Ге@@
наряду
существующей
МЕН@@
лле@@
каких
уменьшению
ении@@
инженерных
метр
США).
Дру@@
регла@@
то-@@
ЭК@@
Стоимость
иным
Восточном
большее
is@@
ЦИИ
ке;
сотрудникам
регионах
Контроль
стиму@@
договору
се.
пери@@
ЕНИ@@
масштаб@@
канализации
гания
докладу
разо@@
ченный
последу@@
дачу
перевозки
Авто@@
территорию
людей.
предста@@
сталь
работают
предполагает
осушки
ситуации,
ратифика@@
автор
положением
пожароту@@
«А@@
дополнительную
моти@@
ка-@@
ребенка,
освоения
в:
контроле
консенсуса
преступления,
секретариатом
Г.
Срок
ПО
присоединились
Специаль@@
ственными
ром,
пленарном
\sect@@
чис@@
усилиям
Федерального
ностей.
чений
зелен@@
мон@@
пожилых
односторон@@
сет@@
смыс@@
нега@@
Сред@@
ую
Согла@@
съем@@
прочие
включенных
требованиям,
НР=@@
;@@
цент@@
модели
Подготови@@
Всемирный
действующим
минист@@
час
продовольстви@@
масштабы
вается,
зами
брифин@@
1(@@
репатриа@@
ологи@@
масса
/С@@
(1);
готови@@
Узбеки@@
азиат@@
воздушных
швов
реализа@@
комисса@@
ренных
последний
лого@@
Объединенной
усть@@
стратегия
перечис@@
Ло@@
(Р@@
IP@@
комплекту@@
реки
S-@@
чу
осведомленности
расчете
природного
зон@@
лиш@@
Республики,
безопасного
сектора,
отмечая
стек@@
исполня@@
лега@@
сно
-00@@
обеспечения,
Исполни@@
стов,
ФО@@
Ши@@
стациона@@
вец
ЕНИЕ
тендер@@
ми)
нализа@@
официального
нижней
быто@@
вш@@
Материа@@
заявлением
-участни@@
Национальной
оптими@@
участвующих
предупрежд@@
ваемый
Законодатель@@
лями
министр
эксплуатации,
ствует
потока
жена
оккупированных
организовать
…
хи
тивному
бла@@
санкций
щаются
материальных
уни@@
Мисси@@
няет
предоставляется
сечения
дифферен@@
меньшей
Монго@@
обслуживания,
жей,
Укрепление
кВ,
(A/C@@
скоро@@
щему
задач,
информационные
тировать
>
длительного
интересам
брь
рабочая
свободу
Пра@@
финансиру@@
вооружен@@
бран@@
судов,
реактора
0,
прямой
элемента
запрещении
предложить
освобо@@
рю@@
возраста
тюрь@@
торе
народов.
морского
пограни@@
…………@@
отка@@
кси@@
Под
больших
проблемой
акт
правового
реализо@@
программой
двой@@
санитарно-@@
гражданским
рованное
сельскохозяй@@
открыть
зма
ча
обеспечивающих
химического
целлюло@@
ствуют
миротвор@@
лицами,
устойчивости
ницы
назначение
гать
сх@@
винов@@
секции
водом
имеющим
значительного
преступлений,
узлов
h
тема@@
рассмотре@@
вые,
резервуара
железобетонных
Латви@@
10,
доказа@@
окончательного
№2
шкафа
прогре@@
плиты
семь
ист@@
незамедлительно
террористи@@
на:
2002/@@
двусторонних
мусо@@
C.
вленных
клима@@
комплект
увеличению
С;
61
миллионов
дальнейшее
монтаж@@
скоордини@@
Водо@@
закупки
тием
лизацию
современных
От
Сы@@
рационального
приведена
Национального
круг
компьюте@@
ul@@
Общий
аэропор@@
лич@@
колод@@
охватывает
разоружения,
71
Румы@@
норм,
центрального
деми@@
хода@@
эффективным
озаглавлен@@
чрезвычайно
/57/L@@
рек@@
там.
A/C.2@@
камеры
ведет
ла;
летний
Соглаш@@
серьезно
Израи@@
систем,
действующими
определенной
надлежащей
комна@@
Рассмотрение
нец
пой@@
Всемирная
самом
УС@@
позволило
палестинской
большие
ровку
ДНЯ@@
выступая
школ
мой,
вагонов
сексуальной
ноя@@
____________@@
ственно
осуществляемых
";
Такая
решать
осуществляют
источником
лю
судебные
грузов
изучение
вполне
потребность
объе@@
горе@@
акционе@@
отдельным
оси
открытых
Женщины
вызо@@
расходов.
обраща@@
транспарентности
государств-членов,
протокол
насе@@
ют.
7.@@
ственно-@@
данные,
умер@@
пласто@@
возлож@@
ствах,
выбор
66
ческо@@
наземных
ut@@
резолюция
опреде@@
очере@@
местах.
свя@@
кислот@@
ВТО
Возмож@@
фундаментов
лекар@@
моего
определять
просьбу
предотвра@@
эвакуа@@
оружием,
обладающих
Группой
жду@@
фаз@@
исследование
Оценка
IV@@
Нару@@
пропуск@@
народ
принципов,
СП=@@
Пеки@@
важнейших
упомянутых
просто
банк
тора.
инвестиции
Малай@@
Европей@@
Сер@@
ский,
электроэнергии
дом,
октя@@
T
НЫЕ
Ее
направленной
процесса,
усиления
изложенных
создавать
емкости
обуча@@
вную
характер.
женщины,
1989
ходы
.2.2@@
высоких
М.
тен
Хо@@
сов;
регионе.
В.@@
марки@@
лес@@
Среди
тел@@
понимание
Гре@@
программных
опор
КМ@@
обслуживанию
основе.
________@@
левого
покрытием
филь@@
снить
УСТ@@
региональным
рены
приступить
приверженности
жа,
рамок
метод
Дополнение
отметки
неопределен@@
учесть
радиа@@
техническими
оби@@
е-@@
летнего
КИП
чи.
тель,
(a)
стратегического
октябре
соверши@@
ing
/57/@@
континен@@
десятилетия
строительства.
телем,
Отделение
военнослужа@@
частот@@
аспектам
поведения
ЮНЕ@@
9).
МОТ@@
съ@@
возможным
·@@
дорог
н.@@
кирпи@@
карка@@
men@@
разреша@@
ление,
автоматически
официально
трав@@
определи@@
вской
Дви@@
Сек@@
область,
л:
таблицы
части,
надежности
4).
скла@@
убыт@@
особых
Диа@@
уничтожения
останов@@
отчетный
кад@@
обсуждений
установление
таблица
фло@@
19,
косвен@@
отмет@@
исключения
район
центре
прес@@
трево@@
принимаемых
Акт
рых
подогре@@
108@@
Сѓ@@
-140@@
щения,
Ø@@
законодательства,
аппарата
технический
клас@@
обсад@@
тща@@
кабель
широкой
емому
рь
торговлей
подготовлен
обога@@
образование,
ен,
так,
Тур@@
процента.
десяти
случай
здание
предложения,
ждать
успешно
потребуется
окси@@
15-@@
потенциальных
вводи@@
континген@@
ктор
технологические
техническая
стабилизации
финансировании
защитного
связи.
статистических
неофициаль@@
74
недостаточно
региона,
км.
ется@@
сне@@
www.@@
фикации
надлежащие
РАЗ@@
проф@@
S/200@@
навы@@
стров
ную,
Ша@@
запреща@@
деклара@@
биологического
экра@@
реформ
действуя
гарантировать
уплотни@@
документах
57
Международ@@
ТОО
ЕД@@
безопасной
президента
проблемы.
продажи
вном
постано@@
УП@@
Португа@@
восстановлению
ют@@
250@@
влять
сопротивление
отклю@@
жек@@
Председателем
расширен@@
тельно,
сопоста@@
сожалению,
обоснование
сельскохозяйственных
торговли.
группам
неприемле@@
MP@@
-3
вленная
ОСТ@@
вало@@
определению
ат@@
хотели
вят
”
дома
Наций;
тивными
работка
расизма,
_
тов)
з,
синте@@
целевой
ксенофобии
степен@@
химических
экологически
ж/@@
Генподрядчи@@
дума@@
получены
ций@@
навли@@
напомни@@
препара@@
накоплен@@
металлических
внесены
Националь@@
продолжительности
природоохран@@
компа@@
Пунк@@
группи@@
LT@@
генераль@@
обжало@@
акта
Ирак
наркотиками
спроса
30,
подлежащих
13,
рекомендовала
гряз@@
________________________________@@
засу@@
комплексных
обладают
%),
веб-сай@@
йский
психи@@
ланд@@
остальные
(10@@
инструментов
посо@@
кам.
грузка
Плана
стыков
попу@@
Лу@@
возможного
доказательств
паралле@@
Существу@@
11,
сообществу
новыми
Цен@@
Сто@@
52.
феде@@
Табл.
Факультативного
лах,
принципе
азота
справедливо@@
2019
приступи@@
емость
надеется,
искрен@@
Замби@@
правительственной
въез@@
Аль@@
уровня,
напряж@@
материалов.
Само@@
кладных
оплату
собственной
реаги@@
полн@@
Стандар@@
темпы
95
Ю
тифици@@
основная
дела,
обычного
Кодек@@
француз@@
образованию
увер@@
стран-@@
двухгоди@@
цели,
гене@@
производиться
проблематики
ГОСТ@@
пород@@
стандарты
предложи@@
Ниге@@
тихоокеан@@
никакого
связанного
сотрудниками
тчи@@
посел@@
Ж
Камбод@@
2000/@@
06@@
зависи@@
С‹@@
вшийся
Полити@@
представлению
возможности,
государства.
ПУ
внесенными
ок
металло@@
нетерпи@@
комиссией
сих
время.
лиде@@
нее,
ресурсах
Азии,
письма
(D@@
Организации.
планирует
хранили@@
0,4
данными
мини@@
занимает
ника.
пресе@@
Компания
ваясь
призвали
мнение,
шь
аккреди@@
наружной
произво@@
Красного
Норвеги@@
Китая,
сырь@@
выше.
сократить
Государство
бор
августе
дохода
бар@@
играют
поко@@
значительный
Поставщи@@
говых
Лива@@
механических
налогообложения
многочисленные
относящихся
временные
нотари@@
ные.
поступл@@
образова@@
дере@@
оценок
требования,
бри@@
солидар@@
ск
мони@@
тий
цена
специфи@@
/59/@@
йская
атмосфер@@
ше,
отказ
глинисты@@
онного
стояние
Народ@@
т"
иска@@
подходя@@
1988
визу@@
Поз@@
транспортировки
принципами
гос@@
грави@@
поль@@
ниях,
ЮНФП@@
стано@@
частях
рассмотрены
пересмотра
грам@@
целя@@
зап@@
суммы,
совершенствованию
м3,
н-@@
отчеты
ширина
производительность
засып@@
HS@@
сентя@@
преимуще@@
наращи@@
,5
услугами
ностями
необходимого
63@@
третьих
”@@
предполагается
(ман@@
ation@@
снижа@@
будучи
приобретения
ение)
свободного
2001/@@
(4@@
стратегию
дили
отверсти@@
психологи@@
дно
55.
зарубе@@
клапаны
программного
98
теп@@
Протокол
осе@@
последующие
детали
53
координи@@
02
надлежащее
вариантов
особые
сложных
грунт
встреч
официальной
уровня@@
подчи@@
развитые
совершении
Указа@@
гид@@
ходи@@
G
Социаль@@
упо@@
зя@@
снижению
колони@@
необходимыми
Об
Арабской
Данная
……@@
отправления
источ@@
пригото@@
финансовый
базу
дополн@@
корруп@@
подпис@@
оба
желез@@
года);
ению@@
54/@@
фов
нала@@
сооружений,
Чтобы
угрожа@@
планирование
ста.
выплате
льно-@@
индивидуальной
последней
серви@@
Вопрос
положительно
переме@@
наступ@@
руб.):
окружающую
значений
компаний
проектных
станций
ознаком@@
Национальный
принципо@@
выну@@
трубопроводе
нефтя@@
разрешение
форму
соглашения,
перерабаты@@
упорядо@@
услугам
ющееся
политическую
туа@@
котла
Форума
перспекти@@
разнообраз@@
ву,
перечня
●
военно-@@
реконструкции
ты;
...@@
Аб@@
КС@@
атомной
мальчи@@
52
Мон@@
медлен@@
учащихся
Казах@@
Сент-@@
завершении
L
детского
Ирак@@
защищен@@
Содержание
восстановление
них.
автора
зм
разработан
регулярных
тяж@@
безнаказан@@
эпидеми@@
устран@@
присоединения
0,00@@
смертности
мных
нен
магистрали
ложить
объектов,
правля@@
устранению
правительствен@@
пира@@
опасность
разруша@@
ВЛ@@
посети@@
Р°
Европейской
сигналов
проявля@@
Дирек@@
отверстия
занимающиеся
реагирования
выделить
проблему
сист@@
той,
Продол@@
опро@@
команди@@
Би@@
сегодняш@@
совмести@@
М,
НЫЙ
распространению
программы.
о.
межправительственных
i
плану
затраты
сти;
просро@@
однако,
существования
предупре@@
продолжения
наимено@@
ухода
преодол@@
Учитывая
сброса
практику
самое
среднесро@@
санкциони@@
ЮНИ@@
центры
районов,
лагер@@
ша
жно-@@
куп@@
щенный
д.@@
растя@@
оценки,
ид@@
их.
"Е@@
находиться
феврале
____
H
58
документ,
возду@@
изменить
стен
надзор@@
углеводородов
le@@
Граждан@@
шается
нев@@
90-@@
сформи@@
определ@@
условиях.
защитной
мире,
будем
рассмотрен@@
толщины
открытия
гна
вебсай@@
газопровода
счетов
вро@@
испраши@@
54.
индивидуальных
критериев
пласта
гласи@@
Программе
Пакта
насчиты@@
развития;
вывода
опор@@
ad@@
уменьшить
операциях
Сальвадо@@
сток
встреча@@
160@@
экономикой
трубо@@
действующие
восточ@@
PC@@
стра
заключении
свобод
трубопроводов,
проверя@@
консультаций,
граждани@@
сильно
куда
продемонстри@@
макро@@
водоснаб@@
бен@@
циф@@
ного@@
бремени
произвести
система@@
XV@@
«Правила
новка
лого
м3/сут@@
рит
участник
сельской
вление,
новом
Резолюция
учреждение
Работа
Департаментом
критерии
долгосрочной
яче@@
измеря@@
дыха@@
вышеупомяну@@
ская,
питьевой
стади@@
обвини@@
потеря@@
гражданства
игра@@
оккупированной
свойств
сбере@@
максимальной
уважение
огранич@@
возмещение
21@@
трудно
дво@@
транснациональной
Примечание:
Институт
невозможно
70.
пошли@@
6).
пление
подтверждения
экологического
агент@@
регулирующих
выводов
развитию.
ch@@
МАТ@@
СТВ@@
полот@@
вопросом
оцинко@@
официальные
цвет@@
интерфей@@
погру@@
светиль@@
водного
приведет
демографи@@
составит
агрегата
стоит
ответственных
границ
живания
вами,
ВЫ@@
регулировать
ректи@@
Первый
Мозамби@@
семейных
ить
ЭКО@@
грузоподъем@@
наружного
ПГ@@
покуп@@
грунто@@
Безопас@@
чие
действующего
дале@@
правилом
впоследствии
формирование
Такое
5.2@@
Блок
находя@@
Заказчика,
привлечь
Дата
Re@@
ассоциации
проекта.
охлаждающей
Ита@@
ей;
заинтересованными
платежей
постепен@@
fo@@
мп@@
женного
информация,
документа,
дой
коммуна@@
курсов
Йемен@@
числом
другом
Нача@@
Со
цифро@@
продукта
рять
тизации
освобожд@@
Шве@@
ВАНИ@@
Кабель
войск
Р·@@
начисленных
постконфлик@@
приведен
национальном,
мм;
учреждениям
уровней
большая
Руковод@@
рением
мира@@
масштабах
организу@@
рекомендовать
«С@@
ниже.
5%
проводимой
преследования
грамот@@
принимающих
тип@@
сигнал
.3.
стоящих
даль@@
15.5@@
АРИ@@
языках
диагности@@
пояс@@
глобальном
системами
выполняют
аэ@@
территории.
газовой
шовная
сотруднича@@
ек,
ъез@@
вкой
будуще@@
зону
народу
обеспечива@@
предложила
ами@@
капитального
отражены
др.
изменения,
Гра@@
принципах
подшип@@
сып@@
компетенции
программа@@
--@@
опустыни@@
задолженности,
Секрета@@
приоритетов
документов.
добиваться
Можно
важно,
Инженер@@
будущей
м),
уменьшение
ориен@@
шаро@@
мам
пас@@
Полож@@
глобализа@@
чувстви@@
бухгалтер@@
поис@@
строи@@
___
ведомости
циональ@@
водоро@@
вления.
ра:
Боль@@
детя@@
групп@@
транспортной
бу
решет@@
всему
привет@@
БАПОР
-100@@
прекратить
теле
годы@@
характеристик
пород
Ь
указывается
коро@@
Необходи@@
ствами.
Палести@@
выступи@@
К)
процесса.
присоедини@@
дач@@
поддержкой
пола,
объектом
началь@@
представленной
Тепло@@
возника@@
Европе
договора,
оригина@@
идентифика@@
нному
ота
устойчивое
тивности
оратор
1,2
выдаче
баланса
сигнала
особен@@
членом
контр@@
экономически@@
скважин@@
санк@@
расизма
контакты
Ф,
р.@@
вво@@
возникает
пуско@@
располагает
Компании
верхнего
роль,
профессионального
дами.
средством
20-@@
труда.
Второй
зировать
примет
ими@@
предметом
средствам
инструкции
бесе@@
Оборудование
интенсив@@
готовность
4.3@@
лежит
шенных
применить
on
никам
эксплуатации.
комитетов
дискуссии
глубокую
теми
отчу@@
Китай
сери@@
иностранной
Обеспечение
водной
учредить
вперед
воздуха,
безотлага@@
рассмотрела
земельных
вокруг
нием,
двер@@
чивается
защитные
принадлежащих
участи@@
СЂРѕР@@
тно@@
значительное
вооруженного
обоснован@@
/C/@@
составлять
плане@@
свет@@
си,
регионе,
Газо@@
постепенно
обсуждении
товой
частные
отказы@@
календарных
Сегодня
разработана
объясняется
сообщил
усиление
пособий
оф@@
вленную
Ос@@
спис@@
сторон.
метра@@
горячей
служба@@
отметка
очередь,
транше@@
приводи@@
сухо@@
Обо@@
корпус
88
покол@@
поте@@
подозре@@
Канады
первоначального
обеспоко@@
рабочую
ведется
Америке
объект
ставка
последствиях
поддержать
европе@@
физического
84
Применя@@
близ@@
настоящий
стране.
сохранить
истре@@
направлена
расширя@@
хар@@
основ@@
К.
91
видам
ение;
реинтеграции
сторон,
ряду
ИК
океана
периода,
З,
одинако@@
страну
тацию
отметить
Сторона
76
убе@@
объяви@@
организационных
многочисленных
источник
ном.
ежедне@@
координато@@
накло@@
правилам
интенси@@
перевода
перека@@
откло@@
выез@@
надежду
данную
газосбо@@
лаборатори@@
восточной
01
in
Танза@@
провинции
проси@@
ом
международная
тью
фактических
директор
привели
министра
уве@@
представили
Наличие
рок
Зем@@
поме@@
рно-@@
предварительно
Миссия
ТУ
Совмест@@
ствовали
Послед@@
геодези@@
власт@@
употреб@@
постановляющей
Джамахи@@
4;
чему
доход
недоста@@
Европе@@
12)
72
A/C.1/57/L@@
исполнительной
электронных
интегри@@
характе@@
.2,
узел
принадлежности
L.1@@
км,
серьезной
Ведомость
IV.
восьми
персоналу
подготовки,
письме
58.
Од@@
тей@@
значение,
успешного
(A/55/@@
59
института
Программой
кувейт@@
совершенствовать
комплекта
зале
пользуются
участвовали
ЭММ=@@
Комиссию
сообщества,
железной
Трубы
ядерной
(поз.
виду
железобето@@
вынужд@@
соб@@
МООНС@@
величина
предметов
ществ@@
период.
архитек@@
сообществом
высказано
ревизоров
проведенного
сможет
операциям
казом
молодых
нередко
ния)
сматри@@
Эффек@@
ответственностью
повыша@@
чеб@@
обследования
емкость
долларов
доклад@@
рынков
слы@@
структура
П)
плоско@@
попытки
письменного
факт
помещений,
предоставляются
PV@@
мся
Проверить
перечисленных
тенденции
листо@@
тиза@@
Вклю@@
прекращение
2017
шка
масло@@
равни@@
Государства
продви@@
мол@@
систе@@
ступени
требованию
совещаниях
«О
расходо@@
ны-@@
лю,
Италия,
лон@@
щением
периодического
тар@@
вз@@
холодной
Статисти@@
(2
mm@@
Постано@@
сфер@@
Украи@@
предприниматель@@
Департамен@@
семинар
почто@@
сектораль@@
процессы
ватори@@
банк@@
первые
C,
шить
59.
вопросам.
ведущих
мыс@@
ускорения
проблем.
довери@@
Араб@@
НОГО
препровождающее
размини@@
Блока
заключен@@
вод,
резерви@@
ль-@@
договорной
пребывания
*1,68;
09@@
строительные
принципы,
оне@@
преобразова@@
пробе@@
А.@@
Чешская
езда@@
В-@@
информированности
строго
наблюдению
никакой
космических
Объекта
предыдущие
тысяч
оговорки
Правил
контролировать
потоков
рез
стихий@@
нию,
отметил
лки@@
Источ@@
-20
к)
тщательно
торных
договоренности
.4,
решимости
координацию
уваж@@
62.
62
отсутствует
сточ@@
строя
чистого
участвуют
ходов
резюме
Описание
содержащий
лабора@@
тонн
15,@@
69@@
вредных
ТП
мяг@@
г.,
10%
административной
оказаться
оставаться
кризиса
A/C.5@@
стандартам
сли
районы
споров
находились
меморанду@@
взве@@
вному
в.@@
прочного
НРС
совершенствование
дук@@
превыш@@
аппаратов
СТО@@
текущей
гов,
упу@@
короб@@
соблюдению
размером
вопросу.
пуске
Corr@@
пут@@
воздух
йся
усугуб@@
CC@@
тором,
имен@@
Сьерра-Леоне,
вшими
баш@@
рном
терроризма,
беременности
прилагать
получает
прока@@
меня
рация
циали@@
энергетики
заявляет,
начис@@
финансовыми
непре@@
мен
расположенных
ma@@
политики.
окружа@@
затруд@@
гуманитарным
Бельги@@
ющуюся
электрических
документации.
контрольных
закупо@@
(A/57/@@
молоде@@
Наконец,
4),
погрузки
ВИЧ/СПИДа@@
подпи@@
дебиторской
собственного
проектируемого
спаса@@
создан
проте@@
производства.
Таджики@@
держи@@
дка
массы
мало
мни@@
отчетов
исключа@@
осад@@
.9
туаль@@
ложение
Определение
Остро@@
пыт@@
представительство
Кабе@@
вязки
Китай,
резервуаров
Марокко
няется
Ав@@
7).
отчетного
Исланди@@
нтов
цов
одобрен@@
муль@@
проклады@@
3-1@@
800@@
устройству
ставки
управлением
Именно
жизни.
решений.
выплат
любую
8.1@@
Н,
ная@@
действующей
уходу
регистри@@
3130@@
наве@@
Зая@@
лись.
заглу@@
устанавливать
Канада,
ТЭ@@
касающегося
копии
крупные
продолж@@
советом
�@@
Кот-д'И@@
конвенция
(Е@@
афган@@
аккумуля@@
ограждения
видах
граф@@
лись,
этапах
гает
средняя
мировых
юридической
рского
рекомендацию
учитываются
подобных
юаней
Туркменистана
процедуры,
США),
ляри@@
Исламской
прецеден@@
уделением
•
экспорт
ково@@
'
закрыть
уплот@@
ность:
геологических
специальным
НПО,
Договора.
тов:
Такой
цей
Европейским
глубина
Большинство
лем
законодательные
АК@@
Право
возможностью
постановления
пользование
ступи@@
Принятие
прямо@@
ром.
вблизи
-200@@
*0,@@
учреждений.
республи@@
объектах
дная
работе,
согласованию
ально
нагре@@
колеба@@
кандидатов
Информация
уведомление
объем@@
подходов
55/2@@
цев@@
шкаф
полезных
ционно-@@
обеспокоен@@
планированию
бы.
Директора-исполнителя
изуч@@
особую
органами,
институт
тических
E/CN.4@@
оплате
насосной
военнослужащих
Оборудо@@
С),
Директор
переход
путь
-1,
конструкций,
.30@@
приемке
внедрение
сдел@@
мано@@
Рис@@
резко
изо@@
инфраструктуры,
Найроб@@
Нью-Йорке
Финлянди@@
докладчиком
50/@@
глас@@
варианта
(1999)
курс
мирового
предложений,
изменением
гендерным
достижений
блоков
010@@
разрабатывать
Аравии
способов
кок@@
иное
вычис@@
℃,
ключа@@
бю@@
Фор@@
транспортного
риска
облегчения
структуру
партнерские
-А@@
автодоро@@
проблемами
экономический
шек
.3.1@@
.4.1@@
диапа@@
центром
будущем.
известно,
ссыл@@
просьба
органов.
Монта@@
Серби@@
инициатив,
Ф.
Был
объекте
боро@@
полиции,
бывших
ния:
Кла@@
надба@@
директивных
ровкой
довой
СПИ@@
интерва@@
Исламская
Прокладка
78
ДС
Регу@@
кожу@@
/54/@@
ПРЕД@@
урегулированию
щимися
развитие,
чре@@
щу@@
Гаранти@@
У,
политическим
глубиной
сколь@@
частный
лите@@
НПО@@
ожи@@
сол@@
Усили@@
бая
типов
кладка
ЧЕСКИ@@
активных
Гц
/2002/@@
вов.
союза,
наружных
пунктами
усилий,
терроризма.
57/2@@
сто
наследи@@
тепловой
возлага@@
56/2@@
нисты@@
пресс-@@
млн
телевид@@
огражд@@
Монтер@@
A/C@@
дожде@@
кому
сырье@@
лесов
лечения
ств;
67
многолет@@
смогут
добросовест@@
меры.
(если
признается
брать
си
тков
НК
ью,
Н.@@
Уголо@@
сразу
Конструкция
монтажные
нацелен@@
04@@
развитым
предназначена
МИ
нашу
холоди@@
собы@@
возбу@@
координация
беспокой@@
пожаротушения
благоприятных
вания;
Каждый
формированию
ди,
далеко
объемов
истечении
вибра@@
кварти@@
огнестойкости
нагрузка
отражение
ликвидацию
производственные
X
кладки
эффек@@
статусе
децентра@@
наб@@
Африке.
наблюдается
ви
вшись
обработка
25,
английском
77.
рассе@@
напряжен@@
цик@@
Соглашение
ископа@@
местности
Служ@@
реали@@
нападения
обзор@@
входящих
жилых
изза
повышении
гне@@
исправ@@
Болга@@
терроризмом,
раствор
ровок
эксперти@@
соединяется
АБ@@
делает
Ираке
денежной
Акта
деву@@
сказы@@
текущего
надлежит
задачи,
ровки,
тысячелетия.
правления
ник,
суммар@@
зин@@
35-@@
переговоров,
добавить
работников,
ассоции@@
вопросу,
законных
закона,
Прежде
изложенные
(8@@
ны:
ском,
отказаться
перестрой@@
тации,
академи@@
(Г@@
каждые
Деятельность
директо@@
потребителей
пада@@
ху@@
Постоянный
.01.@@
свободных
пространстве
(A@@
бенефициа@@
возобновления
нке
ваемым
жде@@
актов,
мужчины
мери@@
здоровь@@
морскому
наем@@
выпуск@@
Основная
гри@@
проинформи@@
обусловлено
75.
тельством
передачу
отхо@@
___@@
специфика@@
ционному
3-0@@
свободно
ано@@
платформы
обязательного
расчетов
избран@@
МФ@@
агентства
составляла
коммерческой
первоначально
минераль@@
лизо@@
ром@@
изложены
гражданское
назначения,
измерений
предварительную
ир@@
нарушениях
тия.
площа@@
нах.
обстоятельствах
56.
жизненно
вой,
продукты
сотрудничества.
/58/@@
бак@@
институтов
машины
прибе@@
испан@@
пыле@@
куля@@
наруши@@
рабаты@@
УР@@
зов,
Делегация
ликвиди@@
точности
бака
развертывания
готовы
предотвращение
ветра
процессом
Чили,
страновом
фильтро@@
Анти@@
концесси@@
нынешних
КГ@@
Верхо@@
площадью
82
дских
ума
иннова@@
стви@@
двум
94
утверждении
выступать
суды
сообщества.
людьми
прямые
способы
пользу@@
правило
Еди@@
Заявитель
взрос@@
населенным
заполня@@
алюминие@@
личного
глав
Председатель,
возможной
больни@@
жилья
11,@@
имело
Компа@@
докладе,
Пятого
трансформатора
центро@@
.00-@@
(Блок
индек@@
заполнения
Положения
хе@@
инструмента
автотранспортных
Комиссии.
Фид@@
раннего
сожаление
увели@@
ениям.
колле@@
этапа@@
СР
суверените@@
статистические
Беларусь
лесного
веро@@
4.2@@
пакта
чертежа@@
годовой
Програм@@
приста@@
D-@@
показателя
оккупи@@
тских
мониторин@@
Предвари@@
щенного
служа@@
отправл@@
V.
колонн
крепе@@
говоря@@
обши@@
узна@@
окис@@
О)
ощ@@
прав.
обязанностей,
удовлетворя@@
американских
субсидии
социальное
вплоть
предыдущем
Либерии
первых,
апре@@
Особ@@
периодические
страни@@
издание
пункта,
сим@@
74@@
Ⅱ@@
дерев@@
СВ@@
говорит
оружие
демократии
ЧА@@
целом,
содержащейся
защитных
ресурсами,
заявила,
исчерпа@@
Объ@@
принятым
соответственно,
образом:
перспективы
Уровень
консультативных
семей,
дации
нака@@
потребностей,
начальной
Вла@@
лови@@
подклю@@
Ги@@
обрабаты@@
после@@
поиска
законы
чий
активную
знания
разбивкой
ваемая
ЮНЕСКО@@
с:
Проведение
лицом
существующего
таблицу
ситуаций
Специальной
PS@@
Конференции.
служеб@@
5;
101
оценивает
1-2@@
квалифицированных
рая
доход@@
старших
швы
склади@@
Услови@@
ежемеся@@
власти,
отсутствуют
обоб@@
Уругва@@
перен@@
погиб@@
Увеличение
участки
ведении
неоднократно
искоренению
Министер@@
кольце@@
неисправ@@
службе
Никарагу@@
десять
инвалид@@
широком
прибыль
отклон@@
объекта,
заслужи@@
НЕ@@
лся,
регион@@
Обра@@
Африки.
лым
определяет
заменя@@
процента,
подается
ущерб,
государствам,
закрытия
лета@@
Казахстан@@
Регла@@
ОД@@
снизи@@
карто@@
авторите@@
слабо@@
получила
поставку
фри@@
64.
всеобщего
казы@@
последующим
большего
сопроти@@
заявля@@
(до
Работы
фай@@
будь
непред@@
тонне@@
женщин@@
Гидро@@
ловой
Сингапу@@
суще@@
дополнительный
Сома@@
69
Австра@@
продоволь@@
пе,
соображения
телям,
темпов
Сво@@
неотъемле@@
разнообразия
январе
пригод@@
И,
всестороннего
содержанием
ба,
территорий,
приводя@@
прибыли
всеобъемлющий
надеемся,
всеобъемлющей
жертвам
третьим
большо@@
договора.
Кубы
Совещание
явно
государствами,
эффективному
Федерация,
разъ@@
ш-@@
изменению
хра@@
стимулирования
стандартных
приобрет@@
Моско@@
месторождении
50,
иногда
точке
заявляет
тенденция
,0
лез@@
Рё
писы@@
уважа@@
работники
Площадь
лыми
двери
школы
поанглийски):
хло@@
лях
гранулирования
80.
лю.
пом
ВОКНТА
(не
сомн@@
Пакта.
смягчения
Стратеги@@
взыска@@
потому
сом.
гай@@
буде@@
A/C.1@@
десят
брутто
континента@@
процентов,
вывать
структур
шли@@
инфля@@
обращение
достаточной
уча@@
рыча@@
обязано
муниципа@@
Финансирование
предлагаемых
6),
рующей
обсу@@
направлено
"С@@
противореча@@
подли@@
Насо@@
подвергаются
определяют
пожарных
пожара
установо@@
шему
набор
смешан@@
температурой
зданий,
день,
уведомить
Фунда@@
10кВ
вопросах,
уполномоченных
1,6
соображ@@
аммиа@@
")
Резер@@
сеч@@
ляют
дах.
целесообразно
находящиеся
рить
лось.
(5@@
жную
Крас@@
давно
трассы
используемые
предыдущего
контактов
финансовом
занимаются
стана,
банкрот@@
83
рази@@
прива@@
вступ@@
6.@@
Председателю
мужчин,
наименование
полицейских
ситуаций,
ab@@
разъясн@@
Представители
сначала
веществ,
ти)
классифика@@
Филиппи@@
электродвигателя
плодо@@
собственные
климати@@
ностью@@
форум
электрического
правл@@
северо-@@
пострадавших
языке
оборудованием
условия@@
максимального
аварии
события
юрисдикции
Г,
выход
ему@@
зим@@
способствовало
становятся
спут@@
преимущественно
международно-@@
нанес@@
островов
ЕС
Исходя
юридические
57.
ы)
оценить
1986
вест@@
утвердил
крупно@@
основную
устранить
обработке
аз@@
другое
участвует
необходимое
туриз@@
отсутству@@
РµРЅ@@
мнить
временем
por@@
Корея,
ссы@@
положение,
выполнен
детям
жили@@
самоопредел@@
лев@@
метров
=1,15;
южной
неформа@@
Германия,
рынки
вопроса,
Бени@@
бытовых
легко
ция)
прямого
прогнози@@
шает
защищать
точно
отече@@
товых
расширять
(III)
тельности,
мест,
прияти@@
__
оправда@@
Агент@@
школьного
объединения
NF@@
высокие
выбра@@
духо@@
дают
предназначенные
техники,
широкие
глубоко
провели
статьям
США;
аспектах
ТЗТ@@
сотрудник
ся.
пан@@
используют
семье
НР
означа@@
регуляр@@
подлин@@
смо@@
государства-@@
Пари@@
уведом@@
Словаки@@
Лесо@@
установки,
кв.@@
выводу
Пекинской
пределы
Багтыярлы@@
развивать
92
ём
L.3@@
приемо@@
просветитель@@
налад@@
мов.
чек
гар@@
нищетой
необходимую
фами@@
%;
государству@@
нского
предоставлению
ЮНИСЕ@@
проживания
выплату
Практи@@
разно@@
распределении
указано,
письменном
неправи@@
переходного
выделение
1,0
мо,
выполнена
соглас@@
обязательств.
месте.
кий,
истечения
резервуар
подтверждение
источники
сть.
Маври@@
глубине
1997/@@
114@@
смогли
склад@@
эро@@
добычи
зах
выгод@@
разногласи@@
таж
структурной
отражают
задолженность
масля@@
властями
твердых
установленный
нормы,
благодар@@
дальнейшему
инжене@@
др.@@
делах
безработи@@
нужды
экономики,
Контракта
первым
Секция
Ман@@
Обяза@@
Бло@@
Механиз@@
кремния
ежегодных
б)
одо@@
судом
Пара@@
вляется
щают
нки
спла@@
практические
систем.
рисков
горных
сметной
возникнов@@
/200@@
104@@
ленный
ВИЧ/СПИДа
оценкам,
пожаро@@
рабочим
детьми,
нижеследу@@
зонди@@
Рис.
контроля.
утвержденной
медико-санита@@
хозяйства,
схему
достаточное
мерам
Группе
пад@@
способствовали
ства:
защитой
син@@
коллективных
подкреп@@
нке@@
комиссии,
довести
ваний.
/CRP@@
Характеристи@@
вось@@
осуществляемой
50;
присутствие
тового
примыка@@
Бахрей@@
аресто@@
высокую
аналогичные
самые
Соединенными
выдвига@@
=0,@@
Площа@@
решения.
ло.
препровожда@@
бесчелове@@
автоматической
участникам
требовать
повыси@@
бря,
квар@@
расти@@
Ввиду
м3@@
школах
Шри-Лан@@
преры@@
существование
сохранении
Сертифика@@
осужд@@
итоге
обеспечением
Типо@@
исполнительного
380@@
чил
(<<@@
полевых
исчис@@
ID@@
согласование
биз@@
еся
периоде
фабри@@
РП
первое
СО
двадца@@
бетон
прилега@@
ствия
Франция,
х.@@
последующего
контек@@
Обвини@@
пусть
периоды
цеха
86
любым
Вас
87
пище@@
секторов
период@@
претен@@
шт.)
участву@@
практики,
дальнейшие
ье
Буркина-Фасо,
предусмотренной
противоречи@@
РПООН@@
тему
мораль@@
Право@@
Москва,
ненных
разработкой
вей@@
реабилитации
гая
зонах
цом
матери@@
отличие
контролле@@
силы,
консультантов
ПРИ@@
Соответствен@@
проектированию
областях.
изве@@
сталкивается
твердо@@
-м
65.
желает
шением
Несколько
вке
относящиеся
поставить
Внутрен@@
обстоятельств
внутренним
показателей,
Дол@@
кали@@
порта@@
поясни@@
противопожарной
вопло@@
поощ@@
61.
бюджетные
ребенка.
ведомо@@
удовлетворять
Казахстан,
обес@@
функции,
релье@@
гами
проводя@@
религиозных
транспортные
Утвер@@
Чешской
нес
Опо@@
приложение).
чаще
обеспечит
контракт
иско@@
добровольной
призывом
Распреде@@
век
Защита
>@@
работе.
устройства,
достигнутого
противоправ@@
кругло@@
ВИЧ@@
распростра@@
DN
цено@@
железобетонные
Гаа@@
содержат
Гос@@
публикации
es
дорожной
нется
с.@@
ФАО
Же@@
независимых
Секции
совершенно
планиру@@
неотлож@@
ли:
гора@@
Организации,
установленными
Измен@@
производительности
тии,
несколь@@
тюре@@
сви@@
скорректи@@
описы@@
/55/@@
бов
темы
приобретение
незаконных
городах
Протокола
предпринимаемые
устра@@
шан@@
организациям,
независимого
посвя@@
верну@@
расстоя@@
мнениями
тер
т.ч.
стремиться
прямым
мами
КА
предписа@@
обращается
ближай@@
представлено
взаимодополня@@
б,
63.
ек
городе
тивно-@@
содейство@@
завершен@@
службы.
семинара
шту@@
окончании
Острова,
ун@@
дефици@@
ски
Алба@@
диаграм@@
цы.
благосостояния
заявлении
гражда@@
учебного
областей
персоналом
друго@@
Инициа@@
телем.
Межучрежден@@
консультативного
пес@@
траншеи
затрагиваемых
воли
результатов,
ган@@
месяц
точный
Пана@@
закону
расширении
Рѕ
собственности,
Нидерланды,
32-@@
часто@@
круга
постоянное
непрерывного
130
нуждаются
куль@@
Индии,
Стороны,
гистра@@
сторож@@
человека;
родного
устранение
достой@@
оборотной
единства
Неф@@
гораздо
вателя
tr@@
баз
Трибунала
альным
спект@@
op@@
эмбарго
терроризмом.
приходит
нужд@@
вступает
/1999/@@
Генподрядчик
заявки
зированных
.12.@@
имену@@
набора
нефти,
инициатив@@
людскими
бюджету
конвейе@@
ресурсам
материально-@@
отмы@@
полице@@
2000-2001
держек
членов,
женщинами,
/2000/@@
прогрес@@
органах
совместное
шать
МАГАТЭ
правовую
СПЕ@@
1987
Р)
напоминает
Рі@@
опробо@@
сессию
торной
Конструк@@
поддержку,
L.2@@
Карибском
рубле@@
подготовленный
существу
возмещ@@
мм2
ровая
ченная
пленарных
ГУ@@
бок
сей@@
тита@@
опе@@
дные
1.4@@
электромагни@@
Подготовительного
2-1@@
17,
обе
соглашений,
дей
способом
водов
происхождения,
вающая
реального
обществе
вяза@@
протоколов
гна@@
председатель@@
взима@@
ванную
ПАО
коренного
нями
фрон@@
герметичность
Перу,
определенного
заинтересованные
поставок
голь@@
ИКТ
Международному
68.
млад@@
ул.@@
страной
упаков@@
Совещания
Десятиле@@
аппарату@@
s,
карти@@
финансированием
сельскохозяйственной
предоставляют
представлении
WG@@
формуле
Индия,
Венг@@
совер@@
открытой
НТ@@
контрактов
Мадагаска@@
ввести
насиль@@
подвергну@@
средо@@
Канцелярии
иден@@
Предоста@@
связанными
Нор@@
расположены
смяг@@
вооруженные
реинтегра@@
заявили
размер@@
ручной
платеж@@
говорить
Тихого
щенные
достиж@@
щено
Ката@@
совместные
волок@@
7.2@@
см.@@
зара@@
космо@@
борьба
КУ@@
йный
МО
66.
пят@@
подчеркивает,
потенциала.
Доминикан@@
2018
фраг@@
необходима
нержаве@@
политическими
столько
Организацию
корректировки
магистральных
средство
среднее
определенный
процедура
качеству
звен@@
заседании,
использовались
экспери@@
__@@
указывает
Джа@@
личности
времени.
сдви@@
резервного
Р±@@
продвижения
пп@@
чке
процедуру
FCCC/SB@@
посвященных
рассмотрен
излага@@
Независи@@
водозабо@@
поощря@@
AP@@
персонале
Федераль@@
джи@@
Общество
Мак@@
10/@@
ЩЕ@@
нужд
станции,
исключить
показывает,
чистой
другую
виру@@
эффективную
группы.
учре@@
леги@@
ассамбле@@
формах
ски):
пы.
инициативу
марги@@
последни@@
ТА
возглавля@@
периодически
модерниза@@
line@@
обратного
Моя
МПа@@
арматура
чув@@
прочего,
это,
вающее
квадра@@
НОЙ
зафикси@@
продолжал
8).
вам,
вли@@
сумм
увеличением
рьер@@
асфальто@@
территориальной
душу
линия
взаимной
нди@@
канала
объясня@@
вации
пожарного
остров@@
ПРА@@
всего,
вки,
81
собран@@
категориям
репродук@@
постанови@@
изоляцией
Нам
диаметро@@
модель
рующие
тивно
обоснования
причита@@
2014
родителей
самостоятельно
побе@@
разоружению,
именно:
барье@@
следовательно,
русском
торговля
учтены
КЛ@@
достигнутом
Общее
Дета@@
актами
союзом
программам,
дж@@
180@@
инвесто@@
D-2@@
повестке
воспита@@
ежегодной
Рµ
автоматизации
толщ@@
подхода,
признать
щи
Сумма
Рамочной
оди@@
низо@@
Обеспе@@
полученной
грузовых
ра-@@
пром@@
женских
индивиду@@
солидарности
компании,
среду
экономии
)).
вида@@
стами
насосов
вторых,
записи
рис.
ation
прой@@
приве@@
способство@@
детей-@@
реализация
государства-участники
учрежденного
щебено@@
расходах
реаген@@
ых
(A/54/@@
Здание
негативных
-7@@
исходных
ослаб@@
подтвердить
предназначенных
туризма
ору@@
его.
IN@@
должностными
3,5
С).
нераспростран@@
резолюций,
моя
стоимостью
числены
Бер@@
Ниже
пробо@@
удовлетворить
патен@@
почему
контрольно-@@
структуре
he@@
аварийных
сделано
нику
Ирландии
акций
..
установлении
изучению
пострада@@
назнача@@
информационного
программи@@
отста@@
Вели@@
судебное
ER@@
демонстра@@
15)
насып@@
отнес@@
сколько
законов,
элементами
подпада@@
компанией
Контртеррористи@@
фильтр
коэффициента
Бангладеш,
позволят
приш@@
циона@@
ОВ@@
ваканси@@
телефон@@
проявления
СН
00)
круг@@
Норма@@
вавших
появи@@
считать
технология
стипенди@@
ный)
Кри@@
сборных
самолета
стремл@@
вот
длины
производительностью
информацией,
Трубопровод
канцеля@@
рию
Мест@@
месте,
Президента
вез@@
количеством
поз.@@
ускорить
установкой
несовершеннолетних
предприятие
эксплуатиру@@
каждая
трудового
гам@@
Испания,
Хабита@@
противоречит
ски,
народы
тридца@@
ныне
применяемых
телями,
аттеста@@
иными
ция:
мероприятий.
шель@@
Текст
точная
будущего
7/2@@
стабильность
Одной
Коэффициент
держ@@
компрессора
Молдо@@
шины
ге,
Кипр,
ВОО
труба@@
резь@@
график
риско@@
Имею
являются:
практикой
др@@
нова@@
скор@@
менты
Дей@@
курса
представляющих
глоба@@
автоматизирован@@
каждое
дачи
записка
истории
коррек@@
задачей
выступить
(XX@@
садки
мере,
вознагражд@@
Сотрудни@@
93
AT@@
кг@@
ситуациях
Раздел
среда
материально-технического
циями.
го)
организ@@
признавая
трудности,
щик
выче@@
РД@@
адаптации
обеща@@
чертежей
классов
подрядчик
тора@@
89
транспорта,
Общества,
разъяснения
мести@@
приводить
отобра@@
городов
Стать@@
лей.
постоянный
текст@@
подготовкой
Прилож@@
подробные
щеб@@
потребо@@
происшестви@@
(продолжение)
жизне@@
фран@@
Гаити
процедур,
составили
подход,
катодной
достигнутых
ры;
перенос@@
наша
ВТ@@
продолжала
повышать
самолеты
характеризо@@
тако@@
имеющими
граждан,
классификации
Марокко,
охраня@@
Приня@@
территориях
м3.
заводской
требования@@
pro@@
первая
Кыргыз@@
позиция
системах
Над@@
сен
единиц
Требо@@
сессия,
досро@@
активные
поправок
воин@@
поддержки,
пера@@
повторя@@
180
отдельного
нам.
замен
неправительственным
сожа@@
2/2@@
am@@
поражения
Австралия,
регулярной
81.
расцен@@
оформления
освещ@@
мом,
практической
продолжительностью
табл@@
лове@@
нарушении
содержащуюся
ковый
ПГ
экипа@@
акционеров
дефицита
(P@@
1);
дискриминации.
достаточных
условий.
аннули@@
себ@@
препода@@
тематических
поручению
согласовать
ванном
отверстий
злоупотребления
Пала@@
организационной
Сан-@@
достигнуто
Ближ@@
10)
не;
S,
бытовой
национальное
≥@@
Допускается
Жа@@
взносов,
суди@@
емы
учтен@@
параметра@@
отопления
нормативно-@@
принципам
девочек,
обращает
глубины
использованы
предпочт@@
Сле@@
приводом
элементов,
охрану
кает
выдели@@
май@@
Конферен@@
устройством
стороной
духе
промышленности,
системы@@
сведений
обслуживания.
НОСТ@@
ура@@
вил
экзамен@@
проделан@@
прохода
спу@@
надея@@
лице@@
постоянные
тверды@@
являться
диспетчер@@
лесных
потребностям
приходи@@
просвещения
этажа
дат
член
конфликтов.
разре@@
оборота
ect@@
вооружений,
ходу
ВТО@@
Процесс
ниями,
контура
накопи@@
Ассигнования
затво@@
терпи@@
иммуните@@
(Н@@
Сотрудничество
Австри@@
6.2@@
возникающих
условием
(за
специалистов,
возро@@
Работ,
40/Add@@
"А@@
год).
привилеги@@
тива
строительством
минера@@
следующее
Исследо@@
никто
проектов.
минус
служат
пора@@
технике
оказанием
насилием
рыб@@
совершенные
принципу
передается
тности,
претензия
касающийся
сталки@@
предоставляемых
учебной
Гжа
Государство-участник
земли,
ставок
партнерство
220
призвать
достоинство
час.
органа,
минимум
выработке
х-@@
строительного
Гайа@@
Тре@@
хождение
Япония
подходы
материалов@@
te@@
диамет@@
принимающей
ответы
для@@
Спецификация
преподава@@
гам
единственным
научные
равного
лов.
мах,
Сомали
S/2000/@@
обработа@@
сульфа@@
нь@@
выяс@@
последовательно
запу@@
Наиболее
видами
наше
сным
шения,
остаток
девоч@@
водоснабжения,
вспомогательные
сырьевых
аварийной
сугли@@
веса
перевозок
ктора
Фору@@
там@@
обзору
инициативе
РЅРѕР@@
ЮНИДО@@
ете
качества,
наш
78.
электронного
ВИЧ
продукции.
Ливи@@
потребовать
журнали@@
иностранные
занятых
ом@@
°
произошло
Управл@@
текущих
стимулировать
внесен@@
Итого
состоявшихся
государствами-члена@@
рука@@
правительственные
необходимостью
око@@
сами,
Вопросы
срабаты@@
еха@@
тов-@@
л)
навыков
Гаити,
Конвенцией
щит
90.
деби@@
монтажу
молодеж@@
Использование
лё@@
сероочистки
показано
жа.
въ@@
пневмати@@
коксо@@
Кре@@
тетрахлорида
анализи@@
67.
эвакуации
региональный
ступен@@
S/2003/@@
механизмы,
рассматриваемого
комментарии
иг@@
правил,
социальную
отоп@@
Африканского
террористической
оказались
-Н@@
изно@@
Add.1
разведки
финансировани@@
Законе
установлена
ниже,
AC@@
1(1@@
среднесрочного
письменной
давлении
послан@@
инструменты
базиру@@
Автомати@@
главный
целями
Дополнительные
просло@@
Венской
финансирования,
назначить
проведенной
единого
уступ@@
руководствоваться
начального
лло@@
Территори@@
рованную
специальными
Эль-@@
воло@@
текста
Мас@@
перевод@@
озаглавленного
Эфиопии
полицей@@
конкурсной
предусматривает,
Колумбия,
Беларусь,
Канад@@
сторонам
подразуме@@
Институ@@
iv)
деградации
Постоян@@
AS@@
имею
экономическому
сухой
Материалы
переклю@@
заявление,
плотности
край@@
вынесения
ная.
альное
Между
замыка@@
ственность
(197@@
сопостави@@
ЮНОПС
заключенных
согласу@@
Федеральным
коридо@@
конструкция
рубе@@
Всего
числе:
подъез@@
обстановки
содержащих
числе,
После@@
Турции
термина@@
18,
устанавливает
Индии
км@@
преем@@
-1,@@
прочи@@
международную
вопросов.
Университе@@
фра@@
обращаться
ПЛ@@
сельское
юго-@@
курсы
клапаном
усовершенство@@
чее
л.,
разрыва
железобетон@@
груза
вет
техно@@
Сенега@@
институциональных
быстрого
препятствий
социально-экономического
нераспространении
упа@@
приветствуем
Объединенная
высокий
величины
консультативный
грунтовых
Рез@@
середине
дней,
кв.
отклонения
отметили
Фи@@
игнори@@
удержи@@
нач@@
срока,
/2001/@@
цу,
ТЕ@@
бюллетен@@
3.3@@
5).
ствуя
Мала@@
ними,
оценки.
кризис
Демократическая
тического
льник
млн.@@
ви,
ении;
зрения,
воздержа@@
составлению
государствами-участни@@
комиссар
Австрали@@
записку
секрета@@
ния;
Польша,
диверси@@
телях
76.
импуль@@
трудовой
сектора.
>>;
полнение
координатора
осях
большин@@
Обзор
СЂР°@@
поблагодарить
цвета
целостности
отметили,
составление
Четвер@@
изменениями
крупной
войска
Зако@@
строить
надзор
базовых
характеризуется
ники,
назад
бази@@
1%
окаж@@
монтаже
гно@@
Подроб@@
Оратор
привержен@@
правила@@
государства-участни@@
вступа@@
объеме,
лицу
ЮНИСЕФ,
Трубопроводы
влияет
незамедли@@
шаг
докладом
существенных
внесении
цию@@
банковских
Бельгия,
десятилетие
сметных
si@@
отдельными
Финансо@@
имела
Федерации.
расиз@@
смазо@@
операций,
Максима@@
резервуар@@
являющиеся
позитивных
сил,
1.5@@
зало@@
же.
.1)
доставки
Сил
сбы@@
ущерба,
иммигра@@
бай@@
дил
82@@
Пожа@@
завершение
подчеркнуть,
28,
фонды
испари@@
строительно-монтажных
цело@@
запасы
разрешается
должностей,
здоровье
альтернативных
односторонних
ядерные
вок,
Кип@@
народа,
обмену
са;
Прода@@
началом
каки@@
JB@@
сде@@
Призна@@
перемещение
валютного
нан@@
повседне@@
культурные
корен@@
аттестации
вакуум@@
ави@@
поднима@@
ого@@
районах.
ЭКЛА@@
Израиле@@
интеллек@@
облегчить
ка),
зы.
обессеривания
позиций
экономическую
физической
ним,
комбини@@
ПВХ
ознакомиться
властей
организациями.
Меры
Права
нормати@@
ум
процесс,
пусты@@
уголовной
конфигу@@
усыно@@
расследование
бетонной
Закон@@
СЏ
сообщениям,
вышеуказанных
еспособ@@
стью,
СЭ@@
Штатами
прими@@
безработ@@
делается
Их
несущих
преда@@
отслежи@@
тка@@
мин,
отвечают
главу
73.
нетто@@
(E/CN@@
периодических
карбона@@
порт@@
минимальной
учен@@
прибре@@
факторы
неза@@
правоохранительных
49/@@
Женев@@
внесение
Отчет
широкую
ИЗ@@
региона.
торами
потери@@
придает
О.
региональное
присутствия
правосудия,
ние:
Противо@@
электросвар@@
ренной
занятости,
рской
НЫ@@
позволи@@
ческие,
медицинское
недель
Ямай@@
.2.0@@
(0@@
повестка
ответа
кци@@
пропорционально
центральной
раздели@@
2.3@@
определенное
отразить
расследований
золо@@
­@@
позицию
Интернет
решение,
330
соглашения.
сбору
либера@@
онная
натураль@@
автомобильной
.13330.20@@
Ъ@@
превыси@@
ли;
выключатель
парамет@@
Помощ@@
вода,
цев.
общин,
границах
ются@@
50-@@
сроки,
Грена@@
И.
щаться
договором
различие
Плат@@
коренным
Афганистане
реагировать
отличается
определенную
половине
ЖД@@
санкций,
положении,
нологи@@
профессиональную
напомина@@
ох@@
разделения
патру@@
чила
иностранного
открытие
предел
W
говарива@@
заслуша@@
несовмести@@
освещение
объемы
диапазоне
выпуск
(A/53/@@
125
передвижения
1996/@@
попы@@
смежных
снятия
обеспечивающие
24,
Норвегия,
марок
Международном
занимают
Ботсва@@
усилению
подпункте
агре@@
взаимодействие
Основной
-150@@
приобре@@
00,
лице
целям
вру@@
отработа@@
органы,
I)
закрытие
Справо@@
53@@
чая@@
Венгрия,
уще@@
иракских
таре@@
направлении.
пыли
теоре@@
69.
нии@@
запор@@
затя@@
унижа@@
работу.
запуги@@
стрелковым
домов
Г)
страхование
распространить
ООНВ@@
Производство
правила,
площадо@@
подготовительного
Так
тся.
точек
надзору
уменьши@@
планом
нита@@
железнодорожного
ЗА
Института
Применение
сущ@@
его@@
четкое
противопехотных
высы@@
судебном
вероятно,
присоединиться
утвердить
ценности
гуманитарные
граду@@
возможностями
медицинские
химической
7),
законодательстве
/2003/@@
Вопро@@
равноправ@@
чих
Сооб@@
Время
бины
Там
включая,
государством-участни@@
служебных
проектирование
продлить
ленная
вас
(решение
кабельных
Ду
участников,
входи@@
муниципальных
реабили@@
потол@@
Туркмени@@
Форма
производятся
компенсация
принятого
инвестиционных
Подрядчику
профсою@@
согласовы@@
способа@@
спира@@
монти@@
сектором
показания
хотелось
плюс
Апелля@@
государствах
состоялось
религии
обнаружения
субрегиональных
2:
денежные
террори@@
A-@@
Уголовного
плотность
Дан@@
сила@@
проанализировать
безвозмез@@
ровую
рекомендация
Азиатско-Тихоокеан@@
ФИ@@
фактором
хлоп@@
скважин,
случаю
сплош@@
невозможности
обрет@@
крана
й»
соответствующая
брасы@@
столкнов@@
РД
служба
адап@@
Транспор@@
Всеобщей
Системы
технологическим
ОЗ@@
Киотского
Плани@@
гале@@
Бетон
роб@@
сети,
пункт,
Примеча@@
полнения
Э,
вают,
темпа@@
резолюциях
преимуществ@@
приведено
коммуникации
наблюдение
встро@@
хся,
Гор@@
ный.
СТВО
обнаружи@@
рии.
З)
торговле@@
основополагающих
напор@@
рым
подор@@
предварительных
2016
AC.26/@@
недопусти@@
Кувейта,
своевременного
ПЗ@@
стоков
ЩИ@@
приобретен@@
произволь@@
привлекать
секретариату
РМ@@
Черногори@@
фактов
Бал@@
Тринида@@
ввоз@@
требо@@
Рекоменда@@
шен
целей.
углеводоро@@
Банков@@
комиссий
шестер@@
ЮНКТА@@
Руанде
школьных
ремонте
Тоба@@
ванием,
качеством
наружным
Докла@@
ющих,
заработ@@
изысканий
подчеркнул
панели
элемент
Групп@@
начали
особой
8.@@
муниципалите@@
стного
имо@@
пред
жалоб
СССР
основание
взаимосвязи
затрагивающих
СТ
последствиями
задвиж@@
твердо
пост
Инструк@@
наркотика@@
ъем@@
8),
сумм,
Египе@@
Впоследствии
сетя@@
развитие.
ено,
режимов
ссыла@@
Белару@@
развитыми
поверхностей
обязательно
как,
нда@@
повторного
внебюджетных
вооруженными
установлено
Бю@@
суда,
/CO@@
1967
лоб@@
грунтов@@
смеси@@
ценностей
инвестиций,
обязательным
’@@
уделить
изоляция
древеси@@
обмени@@
Оста@@
градо@@
ёр@@
мониторинг
степенью
-изготови@@
проходить
плав@@
Претен@@
использует
геологические
заявителя
обсудить
статьи,
стр
тела
реб@@
тиль@@
℃
объедини@@
отстаи@@
тологи@@
сторонами,
подробную
Повышение
1982
окра@@
предусмотренным
претво@@
Испыта@@
задач.
жиз@@
Токела@@
выражено
касающееся
падения
Пар@@
присво@@
Прокуро@@
существенного
прия@@
водопровод@@
дам@@
руб.
подписы@@
обыча@@
водные
%).
массой
неисправности
содействует
вмеша@@
расчетных
здоровья.
руч@@
престаре@@
нок
доноры
подобные
добро@@
какие-либо
нехватки
Бар@@
Слов@@
Dec@@
реорганизации
компонента
сжатого
генерального
падает
Общего
техника
конкуренто@@
выгоды
ПРЕДСЕДАТЕЛЬ
Соб@@
недопущения
вшаяся
ответственности,
депози@@
руки
останови@@
представителю
отверстие
должное
1:
постановление
цин@@
VII
чник
передовой
ща,
Вз@@
справедливости
коробки
альную
дже@@
ПР
ati@@
меру
ограничение
бульдозе@@
референду@@
пособие
попыт@@
созданием
продав@@
мелко@@
таблице@@
владе@@
Подкомиссия
ними.
ностях
подверг@@
SYMBOL@@
Замеча@@
Ст@@
стратегии,
м).
1,5@@
стекло@@
Наци@@
итоги
огня
72.
в-@@
массовых
водятся
щиеся
я-@@
ощу@@
форме,
посторон@@
сексуального
Десятилетия
ошиб@@
смеж@@
INF@@
нераспространения
тесном
Народно-Демократическая
пребы@@
включении
ЗАО
Дох@@
циони@@
100%
стей,
климата,
основанием
варо@@
краска
симметри@@
тенденций
положения.
факторы,
Ф)
посяга@@
меров
вопросами,
лась,
1200@@
формировани@@
излагаются
введение
юстиции
культур@@
разведо@@
обстоятельства,
облицо@@
говорится,
либерализации
нынешнем
доказательства
жим
вто@@
A/54/@@
подъема
/S@@
оси@@
end@@
поэтап@@
прибрежных
уров@@
\-@@
Номер
обяза@@
доклады,
площадок
Дет@@
племен@@
pp@@
бедствий,
уплаты
составной
границе
Клапан
приборы
высокая
Ген@@
живущих
вторая
связи@@
граждане
загото@@
подчеркнули
oc@@
м3/ч
президент
Развитие
Плате@@
Пен@@
четкого
финансируемых
дисциплина@@
продаже
дека@@
проектировании
свари@@
торской
ческого,
вышеизлож@@
бук@@
Вспомога@@
Эмира@@
некоторым
характеризу@@
Вто@@
тыся@@
коди@@
Вос@@
регулируется
чины
бир@@
Спе@@
задейство@@
г.)
недавне@@
Табли@@
консер@@
электроснаб@@
кВт,
пута@@
любому
существенный
года:
считаются
находящегося
стремление
Узел
прокладка
правоохрани@@
демократических
принци@@
содержаще@@
функционирование
раба@@
сдачи
Исполняющий
замора@@
(т.е.
цами,
лова@@
86@@
облага@@
учреждения@@
III,
Наша
цио@@
ПМ@@
постановил,
Предполагается,
бе.
позволить
насилие
АТО
дипло@@
достигает
прошлого
уровня.
пог@@
,,
Центральноафрикан@@
редко
дал
нена@@
следствием
подпункт
европейских
116@@
неизмен@@
Выбор
примирения
.4.
сын
делеги@@
Корей@@
Вентиля@@
семинаров
Целе@@
элементом
шести@@
УХ@@
переговоров.
заранее
проектировани@@
Производи@@
фундамента@@
дипломатической
комитета.
пережи@@
Руанды
Барбадо@@
охлади@@
»)
ктов,
фактического
·
экономики.
учреждениях,
тельностью
цикла
соответствующем
внимательно
С‡@@
РЭ@@
ядерное
опыта,
эффективный
Изменение
ющемся
жер@@
сроком
бак
Второ@@
Индонези@@
составило
деформации
передавать
ОЛ@@
усмот@@
состави@@
нуждается
стрело@@
0,1
L.4@@
иму@@
подтверждая
Расширение
порядка,
Автор
охлажд@@
считать,
семи
материального
Научно-@@
экономическая
город
ность;
КЛА@@
5.0@@
мерами
взаимного
прояви@@
отмети@@
долгосрочных
кВ.
брак@@
трой@@
тского
ау@@
-исполни@@
неравенства
наблюдатель@@
4.0@@
Диаметр
цели.
географического
54/2@@
товые
третий
стических
Чили
Бес@@
(кроме
разрушения
руководителя
непри@@
Г-@@
Оборудования
Измер@@
ятся
86.
In@@
результатами
договоров,
суверенитета
сохранять
претензии,
допускать
дным
инвента@@
шла
следующими
обзоре
семьи.
Бурунди,
Австрия,
Косово,
финансов
быст@@
Длина
четы@@
составлении
отчета
Инструкция
организует
убы@@
домашних
принимаемые
рань@@
седь@@
дози@@
Сей@@
Д-@@
находяще@@
переры@@
катастро@@
мандатов
закончившийся
шу
обследование
док@@
Конгрес@@
вающими
110кВ
полни@@
нами@@
Юриди@@
прессо@@
Ирака,
атмосферу
вская
территориях,
ов
Румыния,
женной
приниматься
широкому
Методи@@
целевые
РС@@
снять
попыта@@
развития@@
96.
путях
(19@@
связан
разъяс@@
Субподрядчик
преамбулы
личных
зии,
Африка
ознакоми@@
Дания,
культурной
(без
ДЛЯ
израильские
газе@@
СЃС‚@@
оказывается
заинтересо@@
отходов,
96@@
проживающих
коммута@@
управленческой
происхожд@@
проходят
уголовных
налоговых
потеря
100.
налаживания
ствовала
расщепля@@
бург@@
дубли@@
Рим@@
Тип
технико-@@
библиоте@@
югу
х),
разные
ослож@@
окон@@
зави@@
здравоохранения.
росту
менить
пей
оперативные
ситуацию
восстанови@@
уплотнения
4,5
реализу@@
бле@@
равномер@@
руп@@
нская
проекты,
18-@@
вшимся
дается
вносит
сохранению
Осуществ@@
аппаратуры
Ат@@
рассмотрением
конфиска@@
отсро@@
отправ@@
могу@@
онное
Приложении
ся,
оцинкованной
обсуждению
опасные
красо@@
ite@@
сообра@@
Франции
юридическую
низкий
преми@@
Закры@@
специальную
нуж@@
поставщик
SC@@
работникам
лишения
потерь,
служащи@@
углерода
месяцев.
Правитель@@
раун@@
содержаться
V=@@
важного
Административного
субъектов
Чер@@
ж.
совершили
��@@
Экспер@@
способны
осуществляемые
сельскохозяйственного
нет@@
купа@@
**
примеча@@
2020
подрядных
значительную
ях:
событий,
попада@@
закачки
ктов.
совых
компенсации,
Поста@@
занимающимися
Факульта@@
конвенции,
раствори@@
стойчи@@
увяза@@
субсидий
ты)
83@@
перегре@@
сопрово@@
указание
дорого@@
ИОС@@
обстоятельств,
Лит@@
кабели
снизить
мобилизо@@
F-1@@
ству.
НАЯ
предприятия.
опалуб@@
контроле@@
указанный
насилия.
вооружениями
A/AC@@
Внеш@@
распространяются
МПП
бури@@
Мексики
ОК@@
Аналоги@@
декларацию
губ@@
уполномоченным
нией
возраста,
системам
щихся
вно-@@
чугу@@
Повест@@
целях,
ясно,
каком@@
ЕМ@@
некоторыми
общины
приток
нашему
способо@@
ГР@@
БИ@@
те;
зр@@
рении
комбина@@
нский
ленным
суд,
учреждении
отмечалось
свидете@@
предусмотренного
/CP@@
неграмот@@
TD/B@@
изу@@
но;
Кру@@
циви@@
телефонной
странами.
пять@@
инвалидности
ВИЧ/СПИД@@
родо@@
заявления,
встреча
сотрудничает
огнестой@@
Челябин@@
той.
Мали,
личные
здоро@@
Хабитат
2004/@@
явл@@
изги@@
Востоке
твердой
325@@
сварного
AN@@
аэро@@
образом.
зар@@
Самми@@
областей,
бетонных
выработа@@
подаче
угроз
планирования,
рыбо@@
ол@@
намерение
совая
бурового
труд
недели
Болгария,
покинуть
неизбе@@
израильских
рубежо@@
(2000)
послед@@
культурным
ственному
ОН@@
утвердила
технологии.
секретаре@@
Вьет@@
риск
дискре@@
душе@@
труб,
глико@@
Графи@@
преодоления
безопасностью
учащи@@
метра
перепа@@
создают
Каждая
проверять
анкер@@
станцию
ены.
Проектирование
виден@@
М-@@
рисунке
рые
Важ@@
препятствует
уволь@@
онные
Заказчика.
позволяющие
жи.
им.
КИ
методологии
четкие
явление
МООНДРК
прогресса,
застрой@@
Уча@@
ОС
нормативные
готова
отношений,
евро@@
поле
вызывают
50%
социальному
меньшинств,
нагрузок
площадку
сравн@@
вопросы@@
выполняемых
используя
уголовному
производством
http://@@
поставщиков
сухого
функций,
отпуск
коммуникаций
деятельность.
/0@@
7;
читься
городского
береж@@
(а)
экспертизы
перифе@@
возвращение
МИС
офице@@
ссылки
зной
，@@
ижди@@
BAPF-20@@
эма@@
Нормы
списа@@
смы@@
считаться
достоин@@
пасси@@
аппарат
лу.
ЮНКТАД,
вышеупомянутых
культур
смертной
орган,
перспектив@@
предложению
сечением
компаний,
возникающие
равноправия
трудящихся
антен@@
Размеры
порядке.
дюй@@
подготовки.
двигателя
Греция,
Без
пришел
оса@@
рай@@
направлению
луби@@
Т.
специализированные
виновных
турец@@
результаты,
Египет,
неофициальные
характера.
сохрани@@
тельских
ню
заключению
23,
шин@@
комбата@@
немец@@
ят@@
возможное
уделено
предсказу@@
каза
слов
5-1@@
налогоплательщи@@
способностью
/56/@@
каналов
§@@
Вин@@
жение,
Конкре@@
eb@@
образцов
йное
макроэкономической
-02-0@@
недействи@@
остано@@
беженцам
КТН@@
вшее
степени,
Ожидается,
Изо@@
межсесси@@
единой
поощрении
разоружения.
представит
Форум
обезуглероживания
подготавли@@
чести
технологический
мости.
нических
СПИДо@@
пост@@
рыночной
стоимост@@
пове@@
Минима@@
полному
Оконча@@
пенсию
результатов.
UR@@
Доля
численные
правах,
ей:
л;
проница@@
бедного
самми@@
сег@@
секторах
утверждает
товарище@@
название
уход
перепис@@
хлористого
состоянием
Юг-Ю@@
атмосфе@@
просты@@
ничего
процвета@@
Секретариата,
да:
гражданами
СТА@@
рских
АП@@
Зеландии
Перу
Даль@@
заседаний,
наимень@@
мные
построения
вернуться
многом
выработать
штей@@
=1,0@@
чество
/COP@@
мастер@@
Вене
уме@@
проектах
тысячеле@@
структурных
(2002)
Стро@@
энергии.
следующе@@
полня@@
вместимостью
Андор@@
пользуется
года),
многосторонней
десятиле@@
вертоле@@
экономической,
(в@@
склада
пе
нике
работающие
угрозой
пройти
Мето@@
произве@@
миротворческих
исключение
натя@@
преднамер@@
перспективе
вопрос,
вленным
смесь
стерео@@
жды
Партнер@@
Конкур@@
хе
сового
строительства@@
ужа@@
наза@@
стя@@
кольцо
немедлен@@
деловых
земельного
обстоятельства
освобождение
Бон@@
источников,
сельском
j
слабы@@
сцена@@
рой,
EC@@
обязанность
преподавателей
достаточные
2+@@
подвер@@
образователь@@
q@@
пропагандист@@
оспари@@
являлись
трем
сумму,
уровни
виде,
ванию,
происшед@@
одобрила
g
бесшо@@
следующие:
ЗИ@@
вно@@
Сейчас
Просьба
выделенных
ения),
Свя@@
Республикой
люви@@
другому
касающуюся
наладо@@
ненный
(S/2000/@@
ВВП
устройств,
телей@@
значительным
такому
Канады,
119@@
159@@
ТЕХ@@
силу,
94@@
Гондурас@@
структуры,
КОМ@@
риф@@
санкции
консультативной
Сме@@
указыва@@
85.
et@@
практического
причин,
заказчика
вавшие
Руководство
экстра@@
прекрати@@
больш@@
проявлять
отдел
нормального
здо@@
зного
на)
3,0
угроза
вращения
толщ.
Исполнитель@@
государством,
Место
ань@@
исключ@@
обновление
комментари@@
задачу
Бразилия,
представителям
крытие
рационализации
ведомость
инди@@
Записка
Теле@@
ВОЗ
определена
первичной
правозащитных
Вооруженных
демобилизации
согласились
Сирийская
дежур@@
оформл@@
явления
профессионально-@@
равным
128@@
гиги@@
знак
веществ@@
ши,
причинам
соблюд@@
газом
пламен@@
Средняя
силь@@
входного
энергетических
коррупцией
автор@@
стекля@@
ходатайства
верши@@
обществом
полномочий,
Све@@
скло@@
неодно@@
календар@@
Багда@@
ПРООН.
значительных
организациях
Всеми@@
женные
авгу@@
деятельностью,
нетерпимости
Участие
т.д.)
прибора
успех
СЏ@@
анализа@@
приоритетное
Жана@@
Юго-Восточной
указаний
Делега@@
Через
штаб-квартире
RC@@
ствования
жидкой
представляются
коммерческого
ce@@
примеры
di@@
направи@@
закрепленных
Соста@@
спецификации
пересмотр
торного
товый
коррупции
утвержденного
информацию.
ений:
задержки
Экономической
топ@@
искоренение
задвижки
стрии
груп@@
привлечение
направил
упор
-0,@@
B.2@@
себе@@
клет@@
статьях
влиять
телевизи@@
современной
с;
TD@@
уязвимости
расположение
пленар@@
Агентства
бу,
/T
ориентирово@@
отметке
озна@@
Основными
достаточного
зу
организации@@
совещания,
рый
другая
держать
желе@@
конференции,
Италии
платежи
Рекомен@@
продолжение
получено
заявил
Агентство
26,
высказали
титана
Отделом
Концессионе@@
Категори@@
довольно
УВК@@
комплекте
равное
металлические
неотъемлемой
оперативно
(№
реле
Рекоменду@@
серьезным
события,
100,
ска,
НьюЙор@@
мем@@
литари@@
номера
анализу
беспере@@
секторальных
участвующие
полагает,
гло@@
давать
тера@@
сувер@@
.10
лом.
станции.
сири@@
Лаос@@
негативно
несомненно,
экономическом
модели@@
привар@@
пользователей
вини@@
безопасных
хода,
но-
скорост@@
невосточ@@
соверш@@
теплоноси@@
обя@@
день@@
Габо@@
рассчитывать
ссии
Докладчи@@
осуществления,
Американ@@
платежа
правомер@@
возникают
стандартами
цем
прие@@
обратился
бензо@@
безопасности@@
Мексика,
друга
глубокого
половину
параллельно
место,
эпокси@@
ненадлежа@@
модуль
зло@@
газ,
ростом
метода
сочетании
сделан
дней.
ды.
достигнуты
разведы@@
вакантных
выборе
стов.
предусматривается,
a,
проявл@@
буд@@
ЭК
Президен@@
землетряс@@
ингиби@@
разрабатывает
размещение
служащих
претензиям
минимуму
организаци@@
вещества
ток,
меркапта@@
высших
языка
трудоспособ@@
(приложение
четырех@@
министерством
сообщать
конструкции,
испытаний,
негативные
образцо@@
Норвегии
культуры,
нагля@@
отдела
фильтра
многообрази@@
12-@@
навод@@
руководители
(ЮН@@
сепарации
прохождения
40-@@
нахожд@@
Аму@@
жестокого
вторы@@
рующего
пересечения
датель@@
средним
ников.
кабине@@
ковая
газопрово@@
отключения
Чу@@
устано@@
предотвращении
УВКПЧ@@
ключ@@
ваемую
плит
КОМП@@
толкования
демократии,
Особое
Израилем
тет
имея
инвалидов,
отпуска
трихлорсила@@
амор@@
Канцелярия
кило@@
прошли
понеде@@
21-@@
зис@@
оценивать
технологий.
перево@@
k
Φ@@
ответственности.
лений,
деколо@@
воздерживаться
.3,
револю@@
невозмож@@
политикой
пус@@
местный
налага@@
обладать
нку
институционального
цифровой
листа
крупней@@
ренные
Мероприятия
промывки
центральных
тор.
РАС@@
Программу
самосва@@
стры
цистер@@
временное
контакт
коммуникационных
результат
тся:
покрытий
пола.
периода.
нежела@@
рок,
рую
отчасти
запроекти@@
недостатков
дополнительное
-DR-0@@
ке:
важными
фикса@@
отложения
вание.
существенные
определен
Плот@@
капиталовлож@@
ассоциация
почвы
техническом
встрети@@
ледо@@
лопа@@
МНООН@@
лагерях
заключалась
АНИ@@
морю,
понятие
79@@
ченное
бывшая
дублирования
73@@
БА@@
равные
Дур@@
*1,15;
ГАТ@@
тской
запи@@
чку
конфликта.
Гамби@@
проти@@
Маврита@@
несоответстви@@
работке
ремонту
17,@@
.1.0@@
разбор@@
(ПРООН@@
20%
распространи@@
стена@@
загрузки
стали,
Пакта,
возникнуть
дь
сед@@
гума@@
инструментом
объекта.
диапазон
рованном
Бута@@
u
наличием
рам.
пори@@
огражда@@
ваю
Изготовление
судьи
Только
договоры
котло@@
накопления
количеству
рассматриваемый
привела
примир@@
торная
йское
преферен@@
охлажда@@
50х@@
высококаче@@
отно@@
84@@
док,
разрыв
тоже
пенсии
1984
жет
2х@@
распределительного
реститу@@
Биса@@
вского
ностям
вмешательства
нату@@
воздухе
.1/@@
довер@@
зиди@@
пожелает
буровых
море
биле@@
мой.
обвинения
Укра@@
тебя
женщина
Энер@@
инспекции
ратифицировать
активизи@@
Бру@@
политику,
собо@@
Наряду
водный
измерение
Вариант
выно@@
контрабан@@
.org@@
ситуации.
сокращением
последнем
шкаф@@
чик
като@@
цепи
ржав@@
Куба,
сила
обладающие
несостоятельности
руководителями
пресечения
дна
гендерные
отложить
отражающие
2-2@@
вывоз@@
ближ@@
чисто@@
направлен
скоростью
механизмом
обре@@
полная
кранов
младен@@
отстой@@
ответственного
нефтепродуктов
карье@@
компании.
предоставлены
бюджета.
ковшо@@
хвосто@@
нашем
людьми,
единицы
интерак@@
органу
родствен@@
108
хи,
адресу@@
год),
претензий,
расследованию
безопасности;
Глобального
израсходо@@
(п.
определенным
расходами
радиу@@
установлено,
согласился
гу,
спас@@
среду,
гов.
представляющие
частном
фундамент
выклю@@
столкну@@
известно
разделом
Эксплуа@@
полосы
рина
внутреннем
нижнего
база
Cr@@
EDAW@@
КТ
Котд'И@@
потребует
масси@@
воздушном
боеприпа@@
ведены
чили
масло
сварка
парниковых
правонаруши@@
магази@@
абор@@
договорились
пористо@@
140
1м
важности
урегулирование
земле
A/58/@@
климатических
выполняться
или,
образца
содержании
опу@@
нефтяной
Генподрядчиком
ситуациях,
Поли@@
ДА
целевого
долей
вига@@
вынести
заказчиком
ФЗ
неизменно
постоянным
мел@@
доступе
сферах
полнить
указывается,
посещения
оболо@@
ЯТ@@
ВЗ@@
А/@@
храня@@
бытового
докладчику
уровню
Суб@@
назначении
Ремо@@
объединя@@
мебе@@
круглым
Финляндия,
характеристика
государствам-членам,
UN@@
выходной
контролируется
тел
оба@@
Пот@@
усилить
должностные
порации
Действи@@
субрегиональном
ё
наркотиков
чертежи
мани@@
равноправи@@
деревь@@
свидетельства
волю@@
друже@@
товари@@
Предложение
Отделении
ских,
ломо@@
доказы@@
вступление
добровольные
председательством
лицензии
вероя@@
вными
-образ@@
выражении
отрасле@@
сона@@
народами
2009@@
позитивные
детьми.
SY@@
обогре@@
Шкаф
наследия
худ@@
волокон@@
сками
подтверждается
выста@@
рующий
Индонезия,
продувки
покину@@
та).
дороги,
лок,
буро@@
жалобы
рес@@
поможет
особый
реформе
проанализи@@
окончательный
Швеции
водяного
Южный
Джибу@@
Нигерии
контрактам
Това@@
две@@
дорога
Мощность
71.
буровой
компенсации.
специализированными
тремя
причинам,
деятельности;
сборо@@
него.
незаконным
47/@@
переключа@@
говорилось
контингентам
рассмот@@
параметро@@
уважать
телей;
Обу@@
2011
вопросе
Утверждение
свойства
отдели@@
Демон@@
сырья
устойчивость
точка
миссия
сь.
несамоуправляющихся
неизрасходо@@
платфор@@
голосования.
утвержденные
должностях
ОАЕ
судоход@@
расположен
Наблюда@@
балок
влечет
противном
компо@@
процент
парка
ближайшем
девяти
флю@@
Словения,
бреттон-ву@@
остановки
потребление
материнской
подготовлены
.В
порш@@
ответов
предполагаемых
A/55/@@
К-@@
Колле@@
метеорологи@@
завися@@
деревя@@
её
минимального
Конденса@@
таб@@
Тай@@
акционер@@
Филипп@@
Глобальной
Зимбабве,
опустыниванием
ба.
одиннадца@@
точные
Миро@@
йные
потребуются
ным@@
выделены
члены,
компонент
письменных
ограниченного
компрессорной
специальная
ПЕРЕ@@
Наимено@@
ХХ@@
нарушениями
споль@@
варианты
наш@@
мероприятиях,
ровщи@@
ослабления
(V@@
сепаратора
ЧИК@@
методам
минимальный
преимущества
замена
коллективной
стандартов,
Югославии,
фильтрации
многостороннего
термин
79.
ориентированных
застройки
жается
Роль
con@@
ставке
бетони@@
потому,
Спи@@
Третий
представлением
14,@@
констати@@
разрешить
работок
более,
зуется
повер@@
учё@@
Максимальная
факульта@@
катализа@@
более@@
(Ц@@
кислорода
членов.
восстановл@@
элементы,
дорожного
подростков
(и
Два
периодический
начальника
Зеландия,
инспекционной
пострадав@@
Германии
классифици@@
наблюдатель
начальных
сообщает
проник@@
подчеркнул,
Превосходительство
льской
реформа
декабрь
Заседа@@
(12@@
трубы,
множество
D,
социальная
консоли@@
возобновленной
мосто@@
существенное
году;
безусло@@
Западном
(Т@@
щена
рги@@
щимся
попутного
01.0@@
национальную
Швеция,
Суда,
дискриминацией
армии
водов,
чистых
дове@@
приведенные
закона.
ПОДРЯД@@
постановля@@
опове@@
Сенегал,
образованием
Каса@@
регулирующие
исполнением
фона@@
ток.
вручную
(4)
пользования,
ООН,
Много@@
Всемирным
гражданские
водоот@@
казни
благого
симпози@@
an
успехов
кристалли@@
сессии;
услуг@@
(6@@
-25@@
29,
противостоя@@
ВИЧ/СПИ@@
располагают
корпусе
руководитель
Конференцией
РУ
котлова@@
гаран@@
05
выявленных
нт
отрицательно
несправедли@@
торговли@@
Уставом
Трибунал
долгосрочные
независимый
принадлежит
вперед@@
разработки,
112@@
1980
обзоров
окончательно
бах
Америки.
").
Гибралта@@
00-@@
представленного
сооружения,
16,@@
жене@@
выключателя
рачи@@
проезжей
стической
половины
отклонение
сырьевого
содействи@@
Среди@@
малые
покров@@
аргу@@
нашим
батареи
возникновении
конеч@@
II)
Rev.1
малым
приведения
Аналогичным
Исполнительному
Кыргызской
юридическое
фа,
смысле
E.
предпринимать
демонстри@@
Китайской
дальше
шю@@
целого
ске
лицом,
PT@@
ла:
безо@@
льник,
ежегодный
выявление
сказывается
совершенство@@
подчеркнуть
службу
милли@@
нападений
коллеги@@
Установить
тивность
Запре@@
(20@@
этом,
болтов
промежуточных
примером
Гвинея,
модернизации
автоматическое
открыто@@
доходы
нова
эксплуатационных
ву.
Мона@@
содержащийся
ра)
срок,
полным
предложение,
отвечающих
ошибо@@
неприкоснов@@
крем@@
ткой
к»
принятая
последствия,
Сов@@
связы@@
Отсутствие
Образо@@
5),
(резолюции
Сирийской
190@@
перевозо@@
войска,
Ниж@@
отлича@@
II-ой
°С.
соотношение
us@@
фигури@@
вызвать
Превосходи@@
360@@
пожи@@
Кодекса
брита@@
субподрядчи@@
валового
ет:
бурения
повстан@@
опасности,
балки
приоритеты
предлагаемой
доступности
позволила
Строительной
помощи@@
утверждены
С.@@
просьб
двенадца@@
Опреде@@
Совеща@@
принятием
легкой
возраст
Корпора@@
1+@@
многочислен@@
мися
править
фирмы
вдо@@
биологическом
ВЕР@@
поддерживаем
совершение
заслуживает
утилизации
fa@@
транспорт
Мари@@
следующи@@
Следу@@
доли@@
выборо@@
вочного
Люксембург,
болезни
направляются
Q2@@
согласилась
З.
(п@@
надзем@@
начал
очищенный
координировать
общен@@
различного
выдерж@@
информационно-пропагандистской
оператора
возобновляемых
загряз@@
пон@@
работы;
упомянутые
вах@@
5.3@@
видимому,
выполнено
исполнению
понесенных
рожда@@
автобу@@
пунктов,
стве@@
описания
и).
Свар@@
Д)
N-2@@
длине
ультразву@@
кондиционирования
произошед@@
иниции@@
.02.@@
энер@@
операции,
мут
намеревается
нормативными
подпункта
стый
Женеве,
газопровод@@
акту@@
реже
департамента
конголез@@
37,
Постоянное
силы.
смог
таки@@
(A/58/@@
Германии,
ваемое
Рамо@@
будсмен@@
включаются
чика
найма
проведет
молекуля@@
направляет
регулярные
выступления
баланс
Запись
т»
1985
40,
озо@@
Ту@@
матери
сделки
предела@@
потребоваться
сооб@@
насыпи
попечи@@
та),
документами
(H@@
Концессионного
УВКБ,
многим
документу
упор@@
социально-экономических
4-1@@
им,
восстановить
тей
оказываются
стратегий,
Иэмм=@@
здания,
Продоволь@@
предыдущим
вынуждены
пришлось
обеспечения.
уделялось
адапти@@
пропор@@
течении
особенностей
одобрил
соседних
0/@@
<
÷@@
Концеден@@
увязы@@
диспетче@@
да)
меча@@
Сбор@@
озер@@
мерза@@
шлан@@
Ежегод@@
флюи@@
урегулировании
Израиля,
огнестре@@
Сокращение
Чэн@@
Предварительная
эксплуатацией
работку
молча@@
крепить
"),
подписанного
власти.
присоединя@@
безработицы
миниму@@
МООНК
предотвратить
накопленного
заказ@@
планах
1500
ПИИ
теб@@
поиск
Кипра@@
заключаются
покрыть
перегород@@
/2,
зор
станут
сообщили
A/AC.109/@@
знаниями
материалами
Сх@@
ПРООН@@
МЧ@@
дипломатических
вен
здании
Транс@@
цер@@
сорци@@
Q=@@
Мне
74.
работ;
получило
кувейтских
призванных
вании,
временный
конструи@@
должника
регионов
/2004/@@
вступил
регулирующего
сыграть
U
сослаться
поездов
Того,
коксового
КОН@@
борь@@
хол@@
нефть@@
информационно-коммуникационных
РµСЂ@@
ской,
Межправительствен@@
Аргентина,
выборах
позволяющих
предприняты
1,68;
пе.
земно@@
замо@@
научной
ино@@
0\@@
Проектной
этнического
ремонтных
Пакистан,
совершенных
Португалия,
Индонезии
Свазилен@@
ас@@
СИТ@@
Суд@@
умест@@
дом@@
тической
RT@@
йским
наличности
(рис.
нов;
ющемуся
ОЭ@@
трети
глуби@@
V,
непрерывно
показателям
Колумбии
множе@@
возврати@@
верховен@@
Босния
Метод
ПС@@
Потребности
электропитания
коксовой
запись
больший
Бей@@
миллиона
нехва@@
гостини@@
испытывает
зависеть
сути
тря@@
тариф@@
банком
106
обусловли@@
конфликта,
рей,
этапу
освидетель@@
нци@@
способа
организацией,
должности,
наказание
стрел@@
ни.
2012
Изп=11,895;
устными
закончи@@
общесистем@@
французском
такими,
смогла
Величи@@
предпринимаемых
многосторонние
пар
мелких
SYB@@
определяться
партий
н)
Креста
заглуш@@
торные
клапана,
цикло@@
таможенных
ментов
затрагивает
Саудовская
ще,
предварительный
Бурунди
хозяйство
Н/@@
признателен
колебаний
подвергаться
аудитори@@
включ@@
конкурентоспособ@@
активности
самоопределение
денег
Верх@@
сертификат
"D@@
Республики.
Заявление
т.д..
судах
соответствующему
ходной
малень@@
условного
Ирландия,
излу@@
образовательных
восемь
МСП
калиб@@
финансовое
Функ@@
Други@@
Турции,
область
Содружества
впечат@@
2.5
Испытание
нефтяных
трудящи@@
44/@@
территория
повышенной
проценты
РѕРґ@@
директором
житель@@
наря@@
имущества.
зон,
сетей,
2006@@
прибли@@
золота
(а@@
вающихся
-130@@
взаимозависи@@
облига@@
Фла@@
89.
строго@@
Лихтенштейн,
лам,
приветствовал
террористические
зам,
лое
глубин@@
внесла
неизбира@@
несли
острова
каждую
подключа@@
ку;
содержащие
несостоя@@
физическими
Комитет,
функциональных
тируется
патруб@@
ж,
АЛЬ@@
толщине
налогооблож@@
обязана
заявили,
механизирован@@
работки
писание
компетентным
разделяет
информирования
mm
РАН@@
дки
знаний,
заземли@@
ЮНИФЕМ
управляющей
острове
разруши@@
Т-0@@
Словакия,
(10
Уганды
Дву@@
расписа@@
Настоящая
создается
голоса
Трансформа@@
конвейер@@
саль@@
раз,
циям.
ПОЛ@@
крышки
среде,
Рј
морские
понесенные
30-@@
вертикальной
перечисленные
сосед@@
на-@@
выбрать
мпи@@
92.
Дости@@
секретаря.
серьезный
Директор-исполнитель
экономике
моди@@
ДОГОВО@@
предоставленных
фактической
Рос@@
председателя
генерации
изложить
гиль@@
воздуха@@
адвокатов
пересмотре
Национальные
КИПиА
находящимся
поездок
товара,
электрические
реформы,
сталь@@
жил
отм.@@
совсем
Состав
ваемости
приложением
9.@@
годы:
0,7
вся
признает,
ошибки
пари@@
Ливана
респонден@@
просто@@
характеру
Ассоциация
Финансовые
дель@@
налогов
заявок
жел@@
ht@@
мусуль@@
политическая
сма@@
Покупатель
работы@@
голов@@
ха,
Принима@@
взаимодействии
.2019
кандидатов,
конф@@
.11
документацию
мера@@
отключа@@
разбирательство
диаметра
расы,
преодолеть
предметы
мная
газоно@@
каждым
задержи@@
мена
Е.
давлением@@
ственности
офи@@
Лон@@
него,
влияют
легкими
возможностей,
стоянки
представляемых
механизмами
приемка
ограничить
ориентации
несен
северной
серд@@
клу@@
заднего
ведут
достигнутые
подача
(UN@@
лестницы
Хорватия,
Господ@@
балло@@
трубной
вознаграждения
анома@@
ное.
Штатов,
консультаций.
экскаватором
торговлю
Европы,
чую
Пробле@@
органических
прогрессе,
Кения,
подразделениями
коренные
обеспеченности
Армения,
окла@@
чай@@
Фак@@
ГЭФ
подписали
коммерческие
сосредоточить
евро
поворота
B-@@
трубопроводов@@
металла
дроссе@@
лся.
зданиях
увеличилось
серы,
убытков
МВФ
чности,
запорной
накоп@@
взаимопонимании
возмещении
страдают
ОПР
жертвы
санитарных
(Ф@@
т),
буду
солне@@
следует,
альном
Иран@@
приветствуя
точе@@
оформление
та-@@
сторонами.
ограничивается
чт@@
тром
ского@@
нарушения,
торгов
призваны
мк@@
вентилятор
Ке@@
Национальная
судна
ваем
традиционно
Ливийская
иммуно@@
Государства-участни@@
НЕПА@@
мату@@
доброво@@
трубопроводов.
прокладываются
неш@@
Магнитогор@@
целесообразным
выборы
избегать
Сте@@
организованного
л-@@
каком
вводе
резерва
должного
указал,
отчетности,
изготовление
премьер-министра
Методы
следи@@
прину@@
наблюдателя
БОТ@@
силу.
Каждое
инициатива
первоначальный
и),
«Об
гут
Заключитель@@
само
ватель
Совер@@
58/@@
класса@@
отключение
годы)
внешне@@
дания
прогнозиру@@
конденсата,
изме@@
водить
налог
ут@@
0,2
воздуха.
генератора
подготовленных
статистики
ИГ@@
силовой
I-ой
расчеты
достигнутым
опробования
трансформаторов
имеющего
ниях.
Высота
предупреди@@
емых,
аренду
GC@@
департа@@
присутствии
автомобильных
Аппара@@
РКИК@@
личи@@
Название:@@
ожидается,
противника
Средства
молодежи,
типа,
механической
вшееся
необосно@@
отказе
аналитической
вание:
ТХС
происходи@@
больше,
язык
наращивания
Предусмотреть
давления.
месяцев,
Органи@@
87.
подтвердили
выравни@@
малой
подтверждает,
ровались
Фили@@
наращиванию
датчика
Ассоциации
пыток,
Класс
предъявления
реть
высказанные
завод
приложить
105
несение
2010@@
организационные
год:
кПа
части.
признании
решениями
E/@@
рованность
Межамерикан@@
полезной
Во-вторых,
«Р@@
шестидесятой
женщин;
два@@
максимальная
прессов@@
принятое
6;
служебной
препрово@@
групп.
пределом
ли)
допустить
эр@@
озаглавленному
м-участни@@
спраши@@
особым
мобилизация
тируемые
АН@@
е"
остатка
мл@@
шивания
3-2@@
Бы@@
ДКП
(A/C.5@@
разверну@@
Директора
разряда
песко@@
огромное
(поз.@@
рена
советника
М39932-@@
масштабе
очистке
9.1@@
анализе
забот@@
эфи@@
ления@@
Бри@@
применяемые
даст
остановить
операций.
кво@@
Гер@@
Китае
реализовать
государств-участников,
синхро@@
интеграцию
гресс
городской
cl@@
КБОООН
Социальному
нефть
Далее
поступают
места,
процентных
поки@@
традиционные
ICC@@
священ@@
вскоре
Устано@@
окрас@@
гибели
84.
возникших
эксперты
экспортных
подтверждающие
GB
определить,
норми@@
#@@
стандарта
национальная
700@@
Электри@@
руководствуясь
протокола,
расписание
1.1
ъю@@
теля;
скоб@@
серьезное
отдель@@
явилось
укомплекто@@
повре@@
час,
обязательства.
налогового
возбужд@@
Конференции,
кредиторов
перемещением
рекомендациями
Главный
сварочных
расчетной
Одновремен@@
личе@@
проблемами,
законе
плоти@@
министров,
новки
всеобъемлющем
сооружение
129@@
кодекс
торов.
4х@@
интересо@@
процессах
внутреннее
наказания,
возвраща@@
подгото@@
праздно@@
обязательствам
КТП
склад
дефектов
(N@@
Исход@@
переменного
Шанха@@
Япония.
законы,
говари@@
Пятый
6.3@@
устойчивой
автомобиля
таковые
оли@@
рису@@
преступление
высоты
тогда,
хоз@@
приветствовали
военный
УППГ-@@
51/@@
благоприятные
баланси@@
показал,
вом,
Австралии,
лосо@@
Алжир,
привода
архитекту@@
миссии,
юся
гигиени@@
80%
утверди@@
трудящихся-@@
частоты
судей,
горячего
анке@@
Выполнение
ствовал
предоставлением
рынках
дом.
межправительственные
КАБ@@
керами@@
реальной
расстояния
экскава@@
дисп@@
ценных
списка
Малайзия,
смыслу
продолжали
продуктов,
независимой
ставших
США);
мок
Заместитель
115@@
сам@@
ИГЭ@@
1.2
Требу@@
Важно
середи@@
инструмента@@
вероятность
Во-первых,
те:
типовых
информационно-пропагандист@@
навига@@
заим@@
газовый
эпо@@
................................@@
(5)
стабилиза@@
РФ.
Ок@@
резерв@@
тский
ема
враща@@
негативное
реестр
Новые
хозяйств
кипри@@
насти@@
обору@@
абсолютно
видно,
предложении
народам
государственное
лия,
поставленные
лишены
первоначальных
включена
Груп@@
отзы@@
ft@@
придать
отделениях
импульс
стороны.
говор@@
касающимися
цени@@
ению;
испытанию
старшего
действия.
подряда
ведению
VI
/Sub.2@@
жизнь,
a.
донорами
бата@@
рынок
ниже).
заболеваний,
су.
выполненные
предложением
Народно-Демократической
Сметные
нг@@
вшая
лаборатории
учени@@
шаровой
13,@@
перестройки
ая
заноси@@
-1.
привлечению
щ
добави@@
программам.
лицо@@
оз@@
чес@@
Скоро@@
Кара@@
гражданам
цы@@
планирово@@
работах
напла@@
решимость
подключение
намерении
капитале
уплате
контрольного
вал,
кристал@@
избе@@
третьих,
РОЙ@@
номинальной
государств-членов.
правах.
члено@@
пластин@@
питье@@
том@@
постави@@
(d)
воздушной
приведенных
глобальную
входа
тами@@
трамбо@@
порошко@@
превос@@
вклад@@
Государственного
Литва,
вуар,
Провер@@
выделении
экономическими
телями.
Тон@@
ближайшее
установок,
Кур@@
НДС
L.@@
т.д.,
югославская
ть)
минимальных
ев.
акцент
финан@@
предприятий.
экс@@
договоренность
2-х
статистического
нно
замену
подрядчиком
сказал,
Координационного
кандидату@@
разъедини@@
несчастных
предлагаемом
дома@@
группиров@@
уменьша@@
СЂСѓ@@
вторжением
Управлению
свободы,
стабильности,
пресси@@
содержащей
министром
изучи@@
чения.
проводились
выбран@@
уставном
завода-изготови@@
возложена
С/@@
ционе@@
социально-экономической
согласиться
зия,
жин@@
Факти@@
щебня
подшипника
Нигерия,
меморандум
консультативные
турби@@
Арен@@
Федеральный
нет,
ключевые
этапов
20,@@
(МООН@@
сертификации
А)
излиш@@
промежуточный
зависят
нанести
общественные
этнической
Судан,
одежды
сорти@@
онлай@@
ня.
Пери@@
народонаселению
пострадавшим
22,
выявить
финансовая
Исполнительным
1998-1999
оздоро@@
гром@@
двойного
закан@@
A/C.4@@
средний
разряд@@
опасной
силой
предупреждении
Стратегия
мотиви@@
Секретариату
ПОД@@
ний@@
нехватка
1999/2@@
одобри@@
вшу@@
направленную
ляция
мужчин.
1500@@
зажигани@@
метры
прокурату@@
Предусматри@@
преоблада@@
ченную
ИД@@
кПа@@
SS@@
Показатели
считы@@
01.01.@@
заблаго@@
ЭКА
улавли@@
препятствия
всасы@@
девоче@@
делегации,
полиурета@@
точку
С…@@
выявлять
.06@@
вышед@@
Республику
б.@@
требованиям.
насильственных
контракта,
проектируемой
помощь.
Правилами
природные
Цент@@
выплаченных
единенных
войны,
леса
приступил
хлорсила@@
-то
эффект
границу
-2-@@
юаней,
Судеб@@
следующую
во,
особ@@
Тен@@
бо-@@
интересу@@
автоматический
боры
напоминает,
жно@@
Индонезии,
7-1@@
задвижек
воспитание
разработанных
постановлением
общими
обита@@
десятилети@@
поря@@
ю:
одностороннем
правосудия.
Турция,
поздне@@
благо
мот@@
тюрем@@
або@@
статьями
тележ@@
Экономическому
обозначение
лично
оставить
D/@@
фарма@@
словами
бухгалтерского
рекульти@@
юсь
экономически
ствие
углеродистой
сам,
моря
8/2@@
нях
замечания,
индекс
Услу@@
песчаным
НЕПАД
ляр@@
публикаций
говая
реальные
Парагва@@
компоненты
проявляется
трубопровода.
Дарусса@@
кратчайшие
ОБС@@
огра@@
дожд@@
-40@@
йскими
лемен@@
Пакистан
трук@@
решениях
силового
каким-либо
плю@@
программные
гают
Официальные
столе@@
включается
Исполнитель
цию;
сохраняется
пылева@@
охватывают
кредитов
вляют
244@@
свин@@
Первонача@@
освобожда@@
включали
защища@@
ev@@
транспортом
,*
11)
разминировани@@
паль@@
детских
стратегические
Ч
СКИ@@
полови@@
Йоханнес@@
звена
государство,
мат=@@
отдыха
понятия
прямоуго@@
ит
кредитования
абсорб@@
Толщина
чувство
банка,
Вьетнам,
шесть@@
ссылается
полиции.
доноров,
Вашингто@@
сокращ@@
(1),
Нельзя
средние
агрегатов
широкомасштаб@@
брони@@
педагоги@@
щегося
бензи@@
предпринимательской
обслуживание,
позво@@
пов@@
№1,
Процеду@@
бом
атмо@@
Габари@@
лась.
Швейцария,
чатого
роста,
факты
дроб@@
товары,
руб.)
ст,
онный
(Ⅰ@@
адсор@@
оговорок
западной
арсена@@
материн@@
благоприят@@
номер@@
конференцию
эконо@@
главную
строения
заведений
фильт@@
Ираком
сотрудников.
импорта
век@@
Вт
брак
ключевую
сиг@@
миллиар@@
полимер@@
инструмент
мено@@
уведоми@@
нем,
25-@@
моро@@
поручено
декларация
перена@@
Израиль,
ного)
просили
Государственной
оружения
каби@@
лесам
Украина,
растительного
воздействием
упаково@@
пробы
нагрева
Папу@@
вноси@@
металлической
подчеркивается
актуа@@
агентство
увеличении
48/@@
наста@@
2/5@@
индустри@@
домо@@
празд@@
удостоверя@@
распоряди@@
WP@@
*.
руко@@
посвященный
Add.2@@
пропаганди@@
12.1@@
Служба
VI@@
ООН-Хабитат
полов
обновления
комиссии.
глубокой
строительство,
охраной
Жи@@
обществ
фут@@
отметила
медными
корпус@@
цель@@
максимальный
Группы,
8;
законности
тун@@
рациональное
сух@@
бря.
датчиков
замкну@@
открыто
напряженности
марка
составлял
полевой
заяв@@
зен@@
устраи@@
ставит
ья@@
понес@@
насосом
содержащимся
худо@@
ответить
указываются
Бангладе@@
рующая
расчетного
образование.
жения@@
пенсионного
хочу
тил
изменений,
лурги@@
торже@@
крова@@
очевидно,
приборов,
продовольствия
ого
первоначальной
погрузо@@
удаст@@
коопера@@
категорию
путевых
зарегистрированных
станцией
указывают
хозяйстве
реа@@
прогрессе
опубликован
одобряет
тика@@
компания@@
представило
диверсификации
ваку@@
поиско@@
маркировки
уничтожения.
обязы@@
подтвердила
пришли
поверхностью
требуются
ТХ@@
эпидемиологи@@
н.)
структури@@
ень
укрепля@@
мки
способствующих
заявить
трудностей
касающаяся
ется:
дж
землю
последующий
принимали
транспорта.
поступающих
выдви@@
Официаль@@
печата@@
случая
специ@@
пневмо@@
максимальное
учитываться
человеческой
сама
разъясни@@
лову@@
друга@@
зачис@@
эй@@
фланца
формиру@@
котельной
установки.
индивидуального
отрасли
успеха
предпринимает
идеа@@
концепция
чиков
содержащегося
компроми@@
чере@@
p
о-де-@@
электростанции
государству
загрязняющих
конференциях
цементного
туда
основа
обязательное
составить
отражения
кровли
Подгото@@
предпочти@@
н;
крест@@
годовщины
страновой
сепаратор
происхождения.
копию
уди@@
дополнения
классу
загрязни@@
основанной
посвященные
серьезного
капитала,
недро@@
основанных
уставом
указанными
зации,
обогрева
упаковки
дний
нормальных
Предусмот@@
свай
разбивке
огнетуши@@
перь
ориентированного
национа@@
дела.
точным
неравномер@@
экономикой,
которая,
горит@@
юрисдикцию
цар@@
соответственно.
тепла
значения,
девять
канал
помещения,
ведо@@
хоти@@
убийства
полномо@@
Зе@@
закрепления
Производ@@
секций
МАГАТ@@
черт.
ности)
суде
объектов.
хозяйственных
предоставлена
центрах
высокими
проектного
пересека@@
предприятиях
материала,
цехо@@
плату
ожидаемых
комитете
детской
предназначен
югославской
д-@@
транспарент@@
плаз@@
расчетные
прошедших
гнуть
нанесения
женской
пети@@
XX@@
кондиционе@@
препровождающая
пусти@@
соображениям
непроница@@
подозри@@
ров-резиден@@
испрашивает
законным
па,
площадки,
предпосы@@
соответстви@@
оборудовании
момент,
дискриминацию
Результа@@
домини@@
купи@@
продемонстрировать
часа
нищетой,
обмот@@
положительного
заключить
су,
предложенных
ман,
резьбо@@
мак@@
ато@@
окладов
якобы
осадков
изготавли@@
формулировку
УПП@@
организованы
система,
погашения
неудовлетвори@@
расположенные
отменить
запрет
зная
голосование
членского
кислоты
продление
укрепи@@
понимается
экспериментальных
приглаш@@
хле@@
политической,
реда@@
сопри@@
значении
КБ@@
м³@@
достоинства
конвер@@
рели@@
недостатки
табе@@
отступ@@
роли@@
пона@@
колли@@
шкафу
ссе@@
гих
Юго-@@
экспортной
принятый
кажды@@
площадка
неадеква@@
считают,
рекомендаций.
спло@@
регулированию
пто@@
поддержки.
рета@@
но:
Ор@@
кратко@@
еде@@
�
Генераль@@
обеспечен@@
ллю@@
юа@@
ó@@
уль@@
свое@@
здоров@@
макси@@
запо@@
Њ@@
разуме@@
взаимодействи@@
многи@@
задач@@
вырази@@
ись
каж@@
Наи@@
пов
сыгра@@
сажи@@
исчер@@
Науч@@
оружен@@
наличи@@
тека@@
э
нар@@
природо@@
кондициони@@
џ@@
устойчиво@@
обстоя@@
консуль@@
объеди@@
Тихоокеан@@
яр@@
Сум@@
Три@@
реди@@
успехо@@
нут
срав@@
станови@@
фек@@
щийся
Бол@@
III)
рациона@@
сообществ@@
\s@@
Зимбаб@@
сса,
Турк@@
праз@@
th@@
щита
утвер@@
битра@@
K
Таб@@
ступ
станов@@
клад
Вну@@
УСВ@@
возгла@@
предусмот@@
Реги@@
ню@@
-за
озабо@@
министра@@
1999@@
соответствен@@
углероди@@
есси@@
подход@@
посы@@
Резолю@@
еры
населению
ООО@@
м=@@
готов@@
Показа@@
недопу@@
преамбу@@
инициа@@
трак@@
класси@@
Канцеля@@
w
благода@@
φ@@
v)
гда
……………………@@
ются:
е-либо
позд@@
МН@@
º@@
дополни@@
сунок
Женщи@@
Руко@@
ев@@
Азиат@@
скоре@@
кровл@@
ксенофоби@@
ДН@@
февра@@
дегра@@
нарко@@
мбо@@
стрем@@
секре@@
избежа@@
Лихтенштей@@
Бурунди@@
следстви@@
приложение@@
следствие
ФП@@
инве@@
сосла@@
рудни@@
соби@@
верхо@@
Деся@@
изы@@
М=@@
абсор@@
годовщи@@
Люксембур@@
DR@@
даче
репатри@@
праши@@
тирование
ческой,
щества
возобновля@@
ранду@@
держание
Камбо@@
@@@
рованности
дется
`@@
возме@@
времени@@
ува@@
вейца@@
веси@@
Благо@@
±
проводы
ревизо@@
коно@@
премьер-@@
предъ@@
пси@@
мога@@
объяс@@
Рассмот@@
ГОС@@
пени@@
акцен@@
І
Ирланди@@
носто@@
вание@@
Ожида@@
повто@@
характери@@
протя@@
демон@@
гено@@
искорен@@
новремен@@
меха@@
эксплуа@@
осла@@
десь
Арм@@
Сьерра-Лео@@
опа@@
кори@@
#
один@@
пособ@@
кну@@
лай@@
либе@@
виду@@
рату@@
произош@@
сейс@@
рок@@
Кариб@@
Ѵ@@
Сегод@@
хожд@@
Концесси@@
комп@@
кно@@
капиталов@@
этилен@@
Шка@@
…………………………………………@@
f
нкер@@
гал@@
лля@@
оруж@@
суде@@
ден
ъек@@
четыре@@
，
боле@@
....@@
-10/@@
коми@@
кис@@
вероят@@
Произ@@
инте@@
дей.
Ря@@
спекти@@
Преду@@
крепление
государ@@
стрелко@@
рена@@
ланди@@
ассо@@
Коро@@
рье@@
Потреб@@
Гон@@
Меха@@
Директо@@
«
цир@@
J
внут@@
дцать
эф@@
Бела@@
----@@
Пор@@
сосе@@
Уз@@
вязы@@
промеж@@
кладчи@@
лота
Великобрита@@
¶@@
Косово@@
юсти@@
ональ@@
ПЕ@@
чительно
Сен@@
мером
(2000@@
повсе@@
спон@@
мостью
США@@
ряс@@
Пос@@
зора
z
яза@@
намере@@
плек@@
стройки
отказ@@
ремен@@
любо@@
ся:
безна@@
хлор@@
Ⅲ@@
рост@@
вива@@
алю@@
Усло@@
€@@
вше@@
зам@@
государств-участни@@
FCCC@@
Государства@@
прежнему
любы@@
отрази@@
электрод@@
]
каких@@
щаяся
‰@@
яз@@
гля@@
дание
жай@@
млр@@
ллек@@
особы@@
какой@@
итель@@
хорош@@
приветству@@
ритори@@
вательно,
Сист@@
ква@@
грес@@
де-@@
Анали@@
емов
разъя@@
―@@
батаре@@
терии
Уру@@
этап@@
Тех@@
изи@@
шед@@
сообраз@@
инвен@@
ница@@
Ир@@
разу
нализации
Чис@@
отсут@@
риб@@
−
•@@
Жен@@
Перво@@
Ё@@
Ⅰ@@
о-@@
Законо@@
-2001
культи@@
гря@@
безу@@
полиэтилен@@
терро@@
диспе@@
КБООО@@
дю@@
предпоч@@
обли@@
безот@@
сились
、@@
Предполага@@
ї@@
Демократи@@
шестви@@
охла@@
патри@@
→@@
Ѓ
присутстви@@
взаимопонима@@
преду@@
Мос@@
вну@@
гибе@@
Ѕ@@
жур@@
конфли@@
пления
пы,
юме
Хор@@
бот@@
иску@@
-Ри@@
муся
Сва@@
-участнику
особо@@
чрез@@
ڧ@@
дца@@
֧@@
пропорциональ@@
читы@@
хся
Температу@@
ߧ@@
Саль@@
ров-@@
Ш
военно@@
мог@@
государств-@@
иск@@
тетра@@
Ие@@
мбар@@
тифика@@
трен@@
гие
вуар@@
бора@@
Ø
Стан@@
соли@@
15;
ционер@@
тю@@
Фу@@
ЕЛЬ
‹
били@@
стака@@
цилин@@
гори@@
пля@@
контей@@
Шри-@@
Еже@@
вмести@@
Коми@@
Аф@@
Кан@@
―
Киот@@
жало@@
щуюся
проку@@
солю@@
вычай@@
зопас@@
Оцен@@
сена@@
δ@@
укомплек@@
воспользо@@
зах@@
вознагра@@
награ@@
ритре@@
попе@@
Марок@@
Домини@@
трудни@@
ини@@
яг@@
сегод@@
договори@@
Бето@@
соответству@@
руководству@@
вопросу@@
пенди@@
коммента@@
Q
Y
(и@@
аф@@
янва@@
γ@@
Юри@@
развер@@
RP@@
Син@@
доне@@
Ћ@@
соседни@@
цинко@@
регу@@
последо@@
кратно
какого@@
хоте@@
людь@@
гда,
гле@@
Расши@@
фили@@
Тек@@
Z
правляет
Њ
........@@
реви@@
$@@
кара@@
приблизи@@
ря.
число@@
комму@@
стоян@@
заку@@
равли@@
удосто@@
фаль@@
океан@@
эмбар@@
напри@@
Пло@@
выявля@@
нагрузо@@
крепи@@
загрязня@@
правед@@
Заяви@@
пой
зад@@
Уни@@
ционно
гва@@
поправо@@
полнен
лина
Тран@@
дево@@
ящихся
подоз@@
публико@@
енефициа@@
носторон@@
Кы@@
щество
важи@@
................@@
ждая
Элек@@
преодоле@@
широко@@
ра-Ле@@
ЮНИД@@
леж@@
фин@@
ратор
є@@
Существ@@
（@@
http@@
кумуля@@
ьет@@
гости@@
разбира@@
цо
Бос@@
кса@@
крати@@
ООН-@@
трод@@
кап@@
Учиты@@
вщи@@
ксен@@
поблагода@@
атте@@
Слу@@
цесси@@
завода@@
опи@@
орите@@
і
коснов@@
ЮНОП@@
интеллекту@@
дек@@
Азиатско-@@
СНи@@
эпи@@
мули@@
бру@@
A/AC.10@@
степени@@
кнов@@
торговл@@
верить
месторо@@
.26/@@
екла@@
титель@@
Шан@@
3330.20@@
терроризмо@@
компью@@
исчез@@
воздержи@@
Коэффициен@@
конча@@
численных
осведомлен@@
Харак@@
расще@@
фар@@
собую
ВОКН@@
принцип@@
б-@@
т=@@
БАПО@@
угрозо@@
хся@@
МООНД@@
каждо@@
гина@@
Разви@@
Юго@@
верто@@
љ@@
плательщи@@
подот@@
гни@@
ў@@
„@@
секретар@@
†@@
жду
Наб@@
стере@@
еся@@
элек@@
эваку@@
алюмини@@
несамоуправля@@
асфаль@@
дик@@
лению,
щебен@@
²
диф@@
цеден@@
-ой
иммуни@@
исполнителя
вока@@
содержи@@
《@@
лее
струк@@
кото@@
》@@
дор@@
″@@
Ассигно@@
нара@@
Буркина-Фа@@
Па
конку@@
µ@@
Изгото@@
продли@@
ганди@@
серь@@
методо@@
Тем@@
гети@@
^@@
ЮНИФЕ@@
лицен@@
Лан@@
MB@@
петен@@
Мно@@
блиоте@@
рудо@@
лежи@@
ј
обви@@
Мероприяти@@
△@@
конди@@
объемлю@@
Най@@
/CN@@
ьян@@
Трубо@@
ub@@
Парт@@
проче@@
руководство@@
Количе@@
&@@
нако@@
≥
Устрой@@
отсле@@
несе@@
тео@@
веро-@@
сово@@
сохра@@
денциаль@@
бари@@
жек
~
Латин@@
оши@@
беспоко@@
стор@@
усу@@
мыка@@
экспе@@
бремен@@
маль@@
психо@@
ܧ@@
ED@@
сс
енно,
декла@@
конфи@@
Слова@@
мбле@@
вшемся
терна@@
банкро@@
хан@@
кгс/@@
СШ@@
Гви@@
льдо@@
§
несомн@@
привер@@
противоре@@
исполь@@
DR-0@@
осведом@@
Содруже@@
ј@@
рец@@
промыш@@
дует
имено@@
Уров@@
ферен@@
беспри@@
ФЕ@@
сиди@@
сказу@@
Заклю@@
числе@@
→
стои@@
Ассоциа@@
Поря@@
подтвер@@
фигу@@
бухгал@@
µ
онов
потребу@@
кадеми@@
неправительствен@@
бита@@
Гай@@
Кот@@
взы@@
Ў@@
ранти@@
дин
Гаи@@
Ђ
A/ES@@
замедли@@
é@@
ДАТ@@
каким@@
демо@@
образи@@
спосо@@
жде
влетво@@
вско@@
orr@@
с/@@
://@@
рядо@@
∅@@
ґ
рами@@
ї
енесуэ@@
чень
тье@@
тиле@@
ѧ@@
пехот@@
‚
Тол@@
Йе@@
жды@@
њ@@
гранули@@
ржа@@
парен@@
Директора-@@
средото@@
емся,
брут@@
сыно@@
бух@@
π@@
неот@@
вополага@@
×
Дея@@
Повыш@@
струи@@
шип@@
≤
σ@@
луб@@
Процес@@
Экспе@@
голез@@
веб@@
строительно-@@
■
Сири@@
лумби@@
повест@@
приви@@
Гонду@@
модер@@
ine@@
ρ@@
соеди@@
ливи@@
ша,
противопехот@@
пнев@@
КТА@@
Судан@@
казан@@
Наз@@
комен@@
моле@@
сасы@@
частую
кращение
TD/@@
хлорида
ула@@
карбо@@
педа@@
Нью-@@
Бангладеш@@
Бла@@
туга@@
²@@
³
люда@@
!@@
КИПи@@
здра@@
екси@@
95;
○@@
отды@@
v
потен@@
ссей@@
твра@@
Бах@@
квали@@
Финан@@
Тан@@
фля@@
Коста@@
руб.@@
седа@@
ярлы@@
хозя@@
отмечен@@
Фин@@
Допуска@@
льги@@
1998-@@
Пись@@
новь
и/@@
Δ@@
лендар@@
полнитель@@
печат@@
тразву@@
дини@@
СКО
мби@@
Использо@@
дним
Ведо@@
）@@
Прось@@
мьер-@@
движи@@
Сьер@@
диск@@
Каме@@
цес@@
ститу@@
верса@@
изъ@@
’
совершеннолет@@
|@@
Джи@@
жида@@
лакти@@
льта@@
глоб@@
со,
учрежден@@
q
венадца@@
Увели@@
сутствие
огнету@@
④@@
Рес@@
Замести@@
лест@@
торин@@
②@@
OL@@
Ислам@@
Мол@@
иност@@
Изп@@
вадо@@
тенси@@
Клапа@@
Мощ@@
возмез@@
исче@@
Черно@@
ри-@@
лта@@
досто@@
РЯ@@
Вариан@@
Бур@@
хого
охрани@@
бульдо@@
гы@@
ћ@@
кома@@
Нес@@
AW@@
вакан@@
Ў
зербайджа@@
распро@@
Ⅳ@@
жаве@@
^
направ@@
амбу@@
Бурки@@
рпи@@
оке@@
сяга@@
Ⅲ
ѓ
є
выси@@
педаго@@
эки@@
.or@@
муни@@
гую
автори@@
испы@@
чета@@
затро@@
Народно-@@
сегодня@@
Ќ@@
начи@@
дых
куро@@
Ⅹ@@
слави@@
①@@
]@@
ази@@
ллетен@@
кратчай@@
совершенно@@
Демо@@
еже@@
Так@@
яко@@
налоги@@
Пале@@
фей@@
гося
ݧ@@
Магнито@@
вза@@
Стати@@
схем@@
оза@@
раси@@
бадо@@
давне@@
◆
сали@@
●@@
Ара@@
амми@@
гапу@@
Мис@@
хождения
сельско@@
Норве@@
отсутстви@@
бую
мяну@@
цуз@@
③@@
настояще@@
государствами@@
ыду@@
≈@@
глий@@
нули@@
－@@
фраструкту@@
Ћ
енесу@@
Особо@@
старе@@
роме
Ad@@
фрикан@@
Специ@@
▽@@
ЛЯ
праведли@@
рабан@@
деть@@
нодоро@@
гент@@
ждо@@
лишком
μ@@
льз@@
Ⅱ
～@@
д'И@@
мми@@
Макси@@
менно
озагла@@
Обес@@
телен
↑@@
хся-@@
Гва@@
шаяся
доволь@@
муля@@
Проти@@
обходи@@
ӧ@@
никовых
состои@@
рет@@
Йор@@
√@@
Запис@@
β@@
Вре@@
неме@@
ρ
ьер@@
стихи@@
Иор@@
Ⅰ
Центрально@@
Государство@@
α@@
тельщи@@
приоб@@
ПРЕДСЕДАТ@@
ђ@@
Ј@@
видетель@@
осуще@@
α
´@@
è@@
членам,
гови@@
преодо@@
Кажды@@
Бли@@
постра@@
//@@
дерлан@@

է@@
боепри@@
люде@@
​@@
ާ@@
▼@@
ректо@@
щина
полне
）
оче@@
tp@@
Департа@@
“
луа@@
имму@@
Ó@@
³@@
бреттон@@
парт@@
Мате@@
/CN.4@@
⑤@@
Ґ@@
λ@@
Офи@@
−@@
\
Исполня@@
π
теорологи@@
®@@
|
‰
＋@@
@@
врем@@
подчер@@
Вашинг@@
Љ@@
Ини@@
″
[
английски):
вплот@@
Арген@@
68;
Каждо@@
счи@@
ا@@
шру@@
веб-@@
Директор@@
Напри@@
вание:@@
‐@@
ципа@@
деква@@
югосла@@
ќ@@
сульта@@
самоуправля@@
Финанси@@
скава@@
аври@@
٧@@
геоде@@
сенсу@@
∙@@
★@@
гиби@@
Α@@
□
глеро@@
∙
。
отсва@@
(продолж@@
деб@@
жамерикан@@
доль
@@
вивален@@
Қ@@
рекомен@@
қ@@
$
полиу@@
мемо@@
υ@@
-ву@@
зел
ø
страст@@
Декла@@
ждан@@
〜@@
проми@@
комби@@
конвей@@
η
рица@@
ъемле@@
государствам-@@
енега@@
①
∆@@
аправл@@
Ѕ
Трини@@
т.д@@
медико-@@
хтен@@
теги@@
ппара@@
на-Фа@@
цеду@@
замби@@
ª@@

работи@@

личие
зима@@
ордина@@
②
смотря
гности@@
©
женер@@
τ@@
ъ
раи@@
мине@@
´
илан@@
δ
ⅹ@@
ципли@@
ксеноф@@
÷
тегори@@
здраво@@
％@@
близи
＞@@
ГОВО@@
=11,895;
Тад@@
гладе@@
@@
тинен@@
юго@@
ү@@
=11,@@
Ⅶ@@

инстру@@
ε@@
Ј
‖
η@@
〇@@
железобе@@
еследу@@
④
@@
ра-Лео@@
3330@@
SYMB@@
потре@@
™
контрол@@
обезу@@
@@
ргыз@@
Зим@@
Юг-@@
одол@@
ҧ@@
Велико@@
референ@@
корро@@
Щ
Саудо@@
@@
есле@@
ξ@@
≯@@
Эфи@@
⑦@@
гнори@@
наблю@@
ресу@@
º
á@@

леко
ú@@
Йо@@
：@@
@@
¹
「@@
ѐ@@
продол@@
впред@@
едо@@
бюд@@
Участи@@
›@@
Ⅷ@@
видимо@@
земпля@@
Косо@@
культа@@
Магни@@
русали@@
Ω
тинген@@
≈
@@
судар@@
＜@@
≮@@
М39@@
беки@@
принад@@
Сот@@
‒
последствии
½
эги@@
конец,
™@@
сутстви@@

φ
проде@@
ў
налогооб@@
​
：
шинг@@
Контр@@
гнета@@
/SB@@
Филип@@
↑
зульта@@
́@@
скваж@@
Таджи@@
‘@@
Примен@@
мимо
σ
дискри@@
компен@@
цвета@@
офор@@
∅
готавли@@
Ω@@

Чеш@@
ордини@@
криста@@
государствами-@@
γ
˝@@
ø@@
тысяче@@
обезуглеро@@
министро@@
ада@@
лько
пустыни@@
реттон@@
@
ң
„

₃
ý
М399@@

─@@
разили
Ъ
ң@@
Ә@@
поддер@@
←@@
ргы@@
Ⅳ
адлежа@@
Ѓ@@
【@@
ѓ@@
Ⅸ@@
─
﻿@@
ϕ@@
теоро@@
é
трабан@@
'И@@
‡
махи@@
скольку
эмм@@
нако
＜
£@@
Характери@@
провожда@@

@@
@@
денса@@
ü@@
целен@@
￠
■@@
Ι
□@@
Кот-@@
ганиза@@
Ι@@
даря
Φ
Нью@@
】
ѵ@@
ŋ@@
Ψ@@
·@@
котора@@
Â@@
Ⅵ@@
постоя@@
@@
миби@@
ψ@@
спользо@@
㎝@@
€
енераль@@
⑩@@
¼
эффициен@@
ub.2@@
FCC@@
б-кварти@@
мага@@
⊥
ԧ@@
Ѳ@@
ѳ@@

@@
увей@@
ß@@
❶@@
­
Ｍ@@
диску@@
ó

кумен@@
ссоциа@@
∆
À
˚@@
сдик@@
тавли@@
́
μ
Эф@@
Гибра@@
тиля@@
；
зербай@@
целлю@@
ä@@
å@@
ò
ã@@
à@@
ç@@
à
ґ@@
Бурун@@
›
⌀@@
меркап@@
шинство
мерикан@@
Ї@@
ђ
Во-@@
∞
баб@@
⑧@@
Буру@@
≪@@
≫@@
895;
ζ@@
χ
̆
фициа@@
Ú@@
ᶾ
эффици@@
③
⑤
′@@
ş@@
канди@@
иж@@
Баг@@
β
www@@
раст
ените@@
》
ò@@
Ё
задолж@@
⑪
í@@
@@
¾
．@@
℉@@
Ⅴ@@
дага@@
á
ω@@
☆@@
Стоимо@@
ˉ@@
Α
▲@@
пелля@@
Δ
версите@@
-исполнитель
・
⑥
BAPF@@
£
язви@@
фунда@@
ψ
❸@@
акры@@
мла@@
восходи@@
эмм=@@
Ө@@
ә@@
Ǿ@@
