<s>
<pad>
</s>
<unk>
的
，
。
和
、
在
.
/
-
）
（
年
,
；
了
)
(
是
第
为
对
中
：
与
月
委员会
并
1
或
将
》
《
问题
国家
"
会议
进行
日
不
2
有
其
报告
应
工作
上
联合国
提供
—
号
国际
发展
以及
关于
以
组织
情况
到
时
所
3
包括
方案
规定
根据
及
这些
通过
该
有关
其他
要求
执行
向
特别
一个
机构
项目
4
决议
系统
下
社会
安全
所有
活动
人
5
技术
可
方面
政府
内
建议
我们
6
就
也
文件
10
使用
区域
设备
而
由
这
地
妇女
A
行动
还
12
提出
于
公约
必须
他
经济
从
7
大会
被
各
代表
本
决定
需要
后
没有
装置
条
人权
段
使
合作
理事会
已
=
主要
但
法律
保护
都
可以
新
8
等
个
С
影响
儿童
公司
可能
措施
安装
采取
采用
9
秘书长
人员
任何
权利
设计
它
服务
他们
2000
11
提交
确定
管理
认为
至
2002
标准
部分
政策
;
加强
考虑
如果
促进
”
费用
作为
继续
条件
用
之间
“
这种
2001
确保
期间
建立
信息
草案
支持
来
计划
处理
能力
因此
其中
注意
目标
20
小组
一些
工程
审查
和平
1999
我
环境
增加
15
--
预算
*
一
程序
资源
作出
用于
努力
基金
按照
合同
教育
2003
审议
说
П
Т
更
生产
各国
领域
:
缔约国
基础
管道
实施
这一
资料
举行
研究
及其
要
地区
者
会
重要
给
由于
主席
一项
美元
米
施工
性
得到
按
实现
结构
a
区
援助
完成
参与
范围
·
方式
成员
说明
30
请
材料
作用
1998
控制
已经
方法
工作人员
符合
以下
前
中心
代表团
行为
世界
有效
协调
应当
最
讨论
非洲
它们
必要
支助
部门
见
发展中国家
同
间
持续
战略
附件
16
具有
保证
未
压力
同时
以便
能够
获得
是否
14
计算
毫米
过程
因为
指出
提高
解决
制定
表示
目前
时间
各种
多
进一步
批准
取得
表
人民
任务
原则
减少
参加
总
评估
事务
人口
法
需
意见
S
检查
13
为了
结果
．
培训
К
开展
办事处
秘书处
能
对于
发生
相关
利用
…
18
b
产生
框架
开始
设施
造成
全球
数据
国
进程
超过
政治
把
分析
议程
混凝土
图
期
建设
正在
+
21
则
目的
企业
许多
负责
制度
50
次
А
О
责任
适当
索赔
支付
25
条约
义务
水
应该
处
款
投资
均
行政
2004
如
工作组
监测
名
17
B
站
承包商
机制
非
非政府
各项
Р
设立
消除
22
天然气
这个
产品
100
即
适用
直接
关系
专家
19
不同
先生
而且
难民
下列
办法
工艺
具体
％
带
31
外
000
强调
或者
受
自
特派团
此外
基本
形式
试验
存在
调查
充分
23
法院
业主
伊拉克
地方
这方面
设置
24
В
质量
恐怖主义
式
涉及
Н
并且
40
经
资金
57
一种
全面
协定
损失
维持
协助
文化
两个
发言
建筑
不能
运行
贸易
Г
5@@
1997
最后
严重
现有
但是
报告员
生活
履行
国内
М
共同
E
作
综合
规则
电缆
家庭
希望
部队
安排
收到
临时
出
会员国
28
进展
26
型
成为
类
级
上述
项
о
层
受到
一次
因
例如
承诺
单位
接受
武器
C
－
冲突
c
缔约方
高
出现
0
规范
之后
作业
鼓励
分
温度
工业
日至
进入
小于
运输
性别
机会
尤其
这样
允许
你
内容
自己
协商
价格
平等
防止
之前
监督
协议
数量
事项
实际
业务
制订
不@@
阶段
6@@
改革
遵守
这项
她
个人
27
连接
编制
联合
美国
俄罗斯
同意
做法
D
通知
当局
之
8@@
欢迎
又
咨询
领土
俄罗斯联邦
29
经费
当
点
7@@
限制
以色列
宣言
管
达到
议定书
一切
d
线
两年
关注
一份
55
成果
一般
着
优先
测量
不是
军事
线路
0@@
占
焊接
х
记录
独立
无
表明
司法
以上
稳定
立法
人道主义
一@@
35
9@@
m
评价
开发计划署
歧视
直径
每
组成
т
水平
某些
最大
自由
01
帮助
因素
部
内部
很
大
原因
做
比
市场
3@@
e
巴勒斯坦
健康
违反
发达国家
条款
尽管
58
里
结束
调整
联系
钢筋
安理会
中国
变化
确认
境内
满足
禁止
其它
4@@
56
改善
补充
厅
收入
状况
准备
危险
а
条例
如何
程度
清单
保障
整个
出口
方
集团
证明
地位
有权
54
让
自动
导致
起
成员国
不得
无法
较
以来
扩大
量
'
操作
完全
气
赔偿
积极
论坛
и
当地
位置
约
除
科威特
利益
专业
指标
1996
广泛
重申
纳入
通信
仍然
明确
气体
事件
规划
重新
此
如下
最近
另
器
货物
选择
р
板
再
机械
财产
单元
认识
请求
预防
厚度
拟订
双方
承认
列入
属于
日期
中@@
定期
过
组
依据
案件
仍
P
У
值
大@@
200
签署
每个
I
国家标准
介绍
管线
谈判
状态
机
所述
编写
53
伙伴关系
倡议
来自
水@@
土地
土壤
经验
然而
增长
艾滋病
采购
针对
全国
现在
那些
联邦
分配
2@@
第五
н
正式
人类
人数
社区
相应
等级
恢复
法庭
二
32
长期
1990
保持
网络
财政
现象
52
实行
登记
手段
森林
~
加入
45
准则
银行
信号
с
只有
土著
立方米
1995
非法
检测
员额
工资
该国
建筑物
60
改进
M@@
科学
后续
关切
基金会
公民
虽然
过去
0.@@
无@@
保健
道
呼吁
反映
指导
发挥
小
开发
办公室
10@@
我国
室
维护
结论
选举
侵犯
空气
小时
高级专员
高度
经常
理由
贫穷
需求
就业
化
对话
类型
空间
提到
推动
欧洲
授权
给予
33
首脑会议
了解
一部分
地点
达成
威胁
打击
从而
市
审计
形成
е
石油
80
人们
挑战
犯罪
价值
件
显示
城市
供
02
召开
1@@
保留
提议
2005
从事
更加
台
500
申请
支出
权
mm
标高
只
文书
重点
信
固定
占领
群体
重大
泵
34
A@@
期限
特殊
分别
h
一级
公共
℃
1.@@
车辆
引起
P@@
度
管制
岁
万美元
尺寸
就是
性质
仪表
检验
表面
卫生
解释
47
发现
И
有助于
工具
36
题为
D@@
拥有
S@@
构成
48
–
低
加以
财务
V
节
法官
方向
权力
且
44
系数
纲领
Д
B@@
全部
51
修改
井
人@@
统一
网
克
享有
？
声明
T@@
C@@
42
成立
机关
燃料
旨在
～
平均
生效
这是
有@@
×
MPa
吨
提案
39
之一
金属
多@@
艾滋病毒
外国
正常
证据
现场
率
L
答复
副
学校
紧急
承担
职能
若干
维修
暴力
蒸汽
避免
一名
农业
类似
国际法
37
千年
民主
F
阀门
同样
收集
人权委员会
行动计划
详细
宪章
成功
达
贸发
14@@
含
长
41
物
修订
宪法
59
数额
参数
地面
K@@
49
专员
至少
第一
上@@
低于
70
火灾
局势
第二
不断
大量
38
Б
可@@
核武器
面临
商品
生物
领导
主任
付款
子
依照
每年
制造
12@@
反对
外部
页
经过
裁军
1994
排放
共和国
宣传
交流
比例
距离
降低
举办
1.2
改变
g
鉴于
欧洲联盟
最高
列
伙伴
协会
№
启动
阀
劳动
统计
强度
位于
指定
资产
供应
模式
流离失所
损害
传统
力
00
今后
一致
天
观点
热
м
三
未来
专门
予以
基于
2.@@
日内瓦
分@@
300
尊重
长度
去
道路
1.1
访问
农村
非常
破坏
43
п
科索沃
为此
事故
总部
风险
R@@
一起
电气
困难
宣布
好
三个
知识
你们
46
证书
电压
阿富汗
反应
债务
十年
尚未
H@@
к
警察
03
内@@
最终
千伏
m3
外@@
普遍
t
验收
一直
成本
步骤
75
合理
有人
场地
缺乏
加拿大
及时
13@@
应用
90
处理厂
II
宗教
制
关闭
F@@
贡献
头
罪行
另外
费
З
而言
筹备
此类
拉@@
面积
Ф
额
下降
多边
本合同
大于
有些
20@@
回顾
各方
车
估计
敷设
电源
商业
住房
战争
实体
油
刑事
400
集中
单独
州
在内
基础设施
主题
任命
预期
司
体
能源
本国
以前
自愿
金额
采取行动
日本
商定
罐
主
扩散
以外
高@@
二@@
体制
下@@
得
官员
G@@
重要性
停止
私营部门
汇编
非正式
观察员
建
索赔人
现行
消防
交易
指示
通常
液
两@@
调节
公路
担任
联合王国
核准
通风
比较
许可证
土
面
视为
此种
受害者
印度
大学
斯
名称
民间
职业
仅
L.@@
加
趋势
局
落实
运作
一年
T
签订
含量
R
L@@
接头
亿美元
关键
反
自动化
良好
600
电子
法兰
数
指
4.@@
77
来源
相互
概念
1993
Е
N@@
拒绝
新闻
工人
训练
凝析油
发出
成
年度
迅速
机器
经营
讲习班
应@@
3.@@
与会者
物质
厂
150
处于
届
实质性
尔
效率
行使
们
运动
不会
各@@
公平
然后
槽
加@@
发表
正
首先
所作
接触
主管
三@@
载
再次
联盟
卢布
功率
危机
口
总统
Э
利润
后果
贫困
i
高级
常驻
居民
定义
位
对@@
创造
古巴
科
事实
她们
1992
行
塔
65
特性
特点
单@@
°
几个
相对
大多数
除了
部长
立即
功能
防腐
初步
速度
卡@@
时候
据
拘留
不仅
一样
16@@
铁路
所涉
套
用户
体系
净化
车间
还有
本身
顾问
公众
股东
15@@
门
开关
亚洲
最佳
海洋
总额
场
应急
合格
飞机
医疗
不过
全球化
议会
路
自@@
职责
平衡
铺设
销售
学生
捐款
小@@
发@@
接地
才
第三
Ⅱ
却
回收
少数
钢
转让
卢旺达
85
什么
延长
带来
住
曾
药物
足够
筹资
股份公司
粮食
还是
遭受
提请
雇主
劳工
不可
f
之外
敦促
最低
感到
供电
组成部分
民族
边界
应对
哈萨克斯坦
s
特定
法国
格式
通道
做出
中央
预计
拉
酷刑
意义
资格
单
热@@
有限
密封
04
终止
缺陷
设
Л
一点
故障
截至
报警
出席
核
流量
в
同@@
阿@@
介质
德国
钢管
X@@
布置
移民
配备
电@@
传播
明显
数字
死亡
指数
气@@
编号
地层
场所
各个
资助
入
返回
加勒比
变电站
г
一定
一系列
室内
上诉
更换
公开
地@@
份
开支
研讨会
储存
课程
署
支架
自然
哈萨克斯坦共和国
沿
深度
重视
评论
容器
事
十分
感谢
相同
须
研究所
一般性
家
拟议
复杂
布@@
Х
#
寻求
V@@
员
世纪
05
95
数目
Add.1
更好
辩论
98
语言
性能
I@@
投入
想
1.5
M
0.5
厚
照明
若
之@@
1991
干线
基@@
制裁
各级
66
妇女地位
N
法令
理解
带有
新@@
平台
用@@
包含
不足
孔
障碍
亚
知道
来说
t@@
平民
审判
以@@
法规
分类
共
5.@@
上文
图纸
110
以后
62
千克
s@@
种族歧视
四@@
种族主义
起来
2.5
测试
青年
输入
O@@
决策
预测
股
团
拉丁美洲
捐助
x@@
日益
执行局
书面
多样性
800
GOST
主@@
核心
刚果民主共和国
平面图
K
阿拉伯
76
96
座
第一次
身份
称
绝缘
工厂
女士
养
л
非@@
H
气田
罪
其@@
循环
才能
64
男子
料
外地
随后
有限责任
表决
南斯拉夫
出@@
公正
克@@
加工
塞拉利昂
信托
贩运
19@@
武装冲突
邀请
土库曼斯坦
大规模
污染
120
命令
地雷
负荷
取决于
土耳其
除外
竞争
中间
万
难民署
压缩机
订正
款项
装备
17@@
位号
修正
贷款
拟定
官方
重建
全@@
提及
国际公约
赞赏
99
正确
学习
有限公司
高压
之日起
全体会议
兆
汽车
时期
63
焊缝
供货商
许可
箱
特
块
协调员
压
四
帕
救济
很大
套管
未能
纽约
用途
入侵
公里
澳大利亚
名单
立场
部署
金
检察官
甚至
混合
防@@
特@@
2.2
00@@
查明
打开
进口
密度
附属
计量
时@@
剂
金融
墨西哥
便利
诉讼
东帝汶
重
表现
专题
指南
前@@
疾病
本@@
可靠
宽度
专家组
今天
国民
当前
额外
移徙
机组
接收
往往
06
W@@
流动
分离
埃及
诸如
受@@
89
所以
只是
2.1
省
西@@
78
71
平方米
74
变压器
不利
分布
磋商
团体
列出
辅助
7.@@
残疾人
河
变更
手册
部件
雇员
84
享受
致力于
放空
电话
c@@
过渡
那么
可能性
重量
各自
秒
票
年代
集体
分发
亚@@
卡
数据库
87
增强
污水
津贴
结合
截面
CN.4
68
技能
制作
子女
88
连续
6.@@
同一
低@@
螺栓
年龄
1000
电流
董事会
恤金
历史
补偿
媒体
起草
进
指控
国家一级
装
年@@
86
律师
开采
特设
未经
移动
81
开@@
18@@
所@@
案
工发
尔@@
d@@
排除
基
世界银行
2010
书
维也纳
双边
风
如此
通讯
申诉
Ⅰ
十@@
相@@
安@@
3.1
女性
J@@
既
利@@
真正
工作队
у
背景
新西兰
相
签字
电
间接
改造
科@@
精神
越来越
硫磺
类别
职务
英语
买方
输送
82
五
核查
起诉
愿意
原料
分包商
25@@
重@@
极限
94
那
构件
大约
管@@
语文
l@@
太平洋
该@@
锅炉
几乎
61
至关重要
建造
为@@
油@@
碎石
炉
片
气候
裁决
全
配置
控制系统
工程处
取
美利坚合众国
5%
章
盘
250
黎巴嫩
案文
司机
邮编
开
罗@@
G
97
两性
在于
德
帐户
地下
这@@
这次
争端
减轻
修建
粘土
苏联
南非
主流
规程
2009
发
概算
转移
很多
外交
税
E@@
见表
似乎
监控
增进
房间
哥伦比亚
赋予
莫斯科
容忍
南
治疗
79
m@@
高级别
利比里亚
管理局
居住
构筑物
乌干达
防护
载有
打算
带@@
对此
通报
轴
输出
意大利
地质
巴@@
流
适应
应付
常设
保险
日@@
普通
马@@
清楚
中期
福利
利
和@@
合法
2006
作战
油田
腐蚀
a@@
接@@
组件
清洁
苏丹
工
所载
应有
国@@
挪威
73
浓度
私人
埃塞俄比亚
专用
一套
事务部
便
桩
危害
种族
沥青
700
1.15
赞同
巴基斯坦
账户
对象
防治
职位
尽可能
鉴定
交换
探讨
资本
93
展开
0.4
机@@
双@@
捐助者
投标
制止
构
大部分
当@@
公@@
相当
国籍
万@@
67
颁布
街
生
购买
现金
91
即使
%
损坏
3.2
2015
创新
领导人
管子
角度
有利于
加热
主席团
严格
出版物
杆
元件
实际上
意味着
主持
投标人
未@@
72
食品
之下
塔@@
柱
国际法庭
是因为
学
动力
员工
从@@
以期
德@@
态度
第二次
荷兰
69
残疾
总@@
e@@
波@@
个别
30@@
证实
钻井
з
赞成
km
形
ч
多年
担保
相信
p@@
海关
标志
印度尼西亚
源
观察
荒漠化
92
细则
规模
地基
合并
取消
б
08
供货
预防犯罪
布
83
意识
调动
学院
宽
_
该项
唯一
酌情
平@@
解决办法
成@@
信息技术
特征
哪些
整体
50@@
区块
争取
厂房
看法
摩洛哥
配套
男女
任择
水泥
具备
原子能
筑物
获取
欧盟
纳
人力
9.@@
全世界
物品
采取措施
h@@
供资
年底
像
观察团
小型
卫星
文
o
种
柜
正如
U@@
来文
尼@@
变@@
详见
工段
发放
构造
房
待遇
更新
言
化学
只能
每@@
24@@
判决
心理
»
联@@
室外
品
安哥拉
含有
攻击
有害
厄立特里亚
光
过滤器
如@@
首次
瑞典
手动
补贴
拆除
变形
接
样品
队
W
附加
客户
转
注
架
瑞士
在@@
情报
冷却
梁
分钟
附近
供水
转递
人力资源
自然资源
打@@
显然
的话
文@@
100@@
i@@
石
白俄罗斯
900
o@@
两
结算
井@@
丹麦
清理
转@@
任
III
海@@
西班牙
长@@
那样
调@@
南@@
发布
乌克兰
端
导线
压@@
分离器
心
09
电气设备
其余
一位
用来
巴西
专门机构
格@@
经委会
教科文组织
货币
中东
波兰
Z@@
单方面
阿根廷
最小
备忘录
妨碍
除非
令
出版
吁请
列@@
含@@
周期
飞行
零件
标记
生殖
火炬
最新
波斯尼亚
27@@
图@@
业
b@@
塞浦路斯
并@@
相比
离开
ь
n@@
意愿
放在
集气
规格
候选人
仪器
参见
液体
法@@
力量
教师
低压
开放
额定
公布
股份
角
总体
盖
而是
议事规则
Q@@
聚乙烯
地震
界
女
回
有利
干
多数
地址
口头
送
废物
kg
看到
23@@
库
实@@
看
与其
1.0
澄清
次级
r@@
制@@
条@@
根
8.@@
Ц
全体
土@@
法人
进度
距
2019
电机
驻
1.68
反@@
智利
伊@@
设想
现代
补救
夫
不再
办理
决心
分摊
正@@
设有
遭到
随着
网站
招标
天@@
因而
130
助理
±
油气
小岛屿
审理
军队
07
派
巴
平面
防爆
架空
促使
比@@
雇用
满意
或@@
C.1
风@@
属
免费
O
本条
地段
体积
紧急情况
种类
备用
注重
克罗地亚
四个
那里
尼日利亚
自治
电力
软件
安置
氮气
108
份额
l
途径
突出
父母
斗争
д
频率
调试
5.1
语
交付
推广
之中
排
系
工@@
k@@
交通
高于
划分
示意图
墙
北@@
体@@
人道主义法
脱硫
实验室
回路
参照
干事
变电所
海地
卖方
遵循
风机
主动
谨
边
流@@
§
101
规约
模块
拨款
纲要
知识产权
检修
无线电
U
效力
表格
级别
3%
基准
作@@
一方
组合
所有人
勘察
第三次
2008
型号
\
逐步
估计数
规划署
数@@
事先
将会
事实上
灾害
包装
最@@
产量
业绩
爆炸
参考
«
各类
使得
竣工
储罐
协作
工程地质
生命
共同体
黑塞哥维那
世贸组织
第三方
任意
C.3
交@@
剥削
国别
促请
轮
差异
中有
1.3
后@@
出来
不要
厘米
已有
状
效果
剥夺
说明书
曲线
某
绝对
无论
生@@
透明度
信任
传感器
萨@@
军
分段
手
因@@
两种
受理
DN@@
设法
潜在
岩
Ⅲ
超@@
成分
上午
试样
移交
斯@@
必需
行业
第一个
负担
驱动
女童
混合物
深
焊
2%
派遣
气候变化
供应商
此时
奥地利
1%
排@@
更为
索马里
f@@
g@@
错误
局部
生态
管辖
160
情形
门@@
改为
钢制
跨国
阐述
令人
上升
完
施工现场
准确
收@@
成套
今年
起@@
联合会
五@@
捷克共和国
讨论会
电网
奥@@
北京
支撑
手@@
第四
底
赞扬
下午
罗马尼亚
管理人员
消耗
垂直
芯
容易
界定
几@@
要素
推迟
2.3
方@@
侧
裁定
并非
示范
车@@
代理
空@@
清洗
匈牙利
发起
一条
标桩
母亲
描述
征聘
委会
排水
40@@
负责人
环
.1
民众
哈@@
执法
潜力
重复
会计
指挥
仲裁
清除
过滤
布隆迪
吹
刚果
公称
面前
定于
回@@
干预
动
初级
㈡
替代
伤害
工艺流程
两次
26@@
强迫
最好
死亡率
产出
酸
信息系统
提供援助
修正案
谅解
进@@
秘书
发动机
马来西亚
基地
提@@
失踪
筹措
纳@@
点@@
应为
荷载
10%
1.6
希腊
掌握
利息
概述
102
族裔
2007
倍
3.5
用品
行@@
科特迪瓦
融资
拟
an@@
偿还
国际@@
运营
五个
经@@
共识
成绩
阿尔及利亚
220
安
价
涂层
差
地下水
强制性
kW
肯尼亚
破产
领取
可靠性
容量
快速
密切
镀锌
薪金
突尼斯
保温
取@@
冷凝
青少年
认真
化@@
5.2
----
u@@
沙特阿拉伯
自身
维和
接入
证
2012
C.2
加固
仪
视
推@@
定@@
体现
就此
尽快
升
.@@
岩石
管网
4.1
核可
Q
平
光@@
供@@
谴责
向@@
通@@
转交
不少
劳动力
比利时
城
遇到
瓦
人工
Y@@
取代
巨大
协商一致
拟建
y@@
大韩民国
灯
营地
政治权利
少
保存
机场
轨道
分庭
确立
燃烧
六
入口
加速
模型
等于
监狱
缅甸
南部
新闻部
2017
干@@
公务员
所列
任期
质
释放
前往
库@@
旅行
差距
ы
分享
灭火
老年人
找到
植物
放@@
暂停
渔业
断路器
用水
微@@
逮捕
学@@
持久
泰国
亿
时应
虐待
列车
姆
底部
加快
确实
暴力行为
阻碍
原
偏差
注册
动@@
X
三年
物资
修理
实地
一体化
第六
4.2
惩罚
法案
合
巩固
完善
存放
期@@
核@@
格
牌号
不应
后来
装配
投票
原@@
卷
计算机
办
进步
选
er@@
冲洗
玻璃
认证
由@@
<
视察
宗旨
每月
惯例
很少
只要
工程师
用电
人士
古@@
现浇
称为
东道国
伊
提升
金@@
不论
10kV
主权
接口
部长级
共有
过境
125
适合
葡萄牙
东@@
过@@
...
日起
成就
保@@
西
副本
振动
族
女孩
信贷
本法
线@@
沙@@
输电线
金融机构
当时
北爱尔兰
捐助国
提前
管辖权
船
切@@
定
孩子
涵盖
秘鲁
芬兰
承包方
制品
通用
大气
电动
钢@@
马耳他
透明
核算
菲律宾
因特网
性@@
≤
缴纳
7%
主义
产
网址
完整
大型
C.5
in@@
神
债权人
及@@
减@@
有时
工况
所示
约旦
有所
层@@
6%
切实
2.4
保加利亚
车站
何种
尽
维@@
仇外
报道
多个
危地马拉
被告
名义
关心
预@@
`
防火
认定
密切合作
配合
得@@
格鲁吉亚
60@@
n
外层空间
本届
以往
耐@@
船舶
海洋法
总数
仓库
覆盖
普@@
无核武器
认可
泄漏
运
深入
减贫
注明
复@@
五年
一方面
应由
别
开启
排雷
Ø
还要
原油
委内瑞拉
侵略
坚持
雷
明@@
袭击
母线
除@@
还应
顶
边缘
并未
溶液
环境署
哥斯达黎加
即将
极
最初
合同规定
防
运用
斯洛伐克
将来
钢板
一道
分为
粮农组织
入@@
字
方针
加上
犯
毁灭性
>
出售
已@@
简要
测定
区内
收益
简化
抗@@
en@@
守则
少数民族
铜
失@@
本次
走
发送
裁军谈判
声称
值得
日历
简称
合@@
现实
3.3
载于
增压
k
隔离
2018
ar@@
Rev.1
出于
按@@
强
乌@@
和解
摊款
必@@
期内
阿
批
厄瓜多尔
140
为止
轻武器
米@@
人居
食物
优势
1.4
吸收
版
孟加拉国
利比亚
远程
摘要
配
斯克
象
方便
计
勘探
火@@
所用
必要性
证人
当事方
2014
6.1
核裁军
限度
受益
钻石
至于
瓦@@
融入
犯下
年度报告
预处理
面对
联
配电装置
制成
应力
表@@
干燥
常常
阁下
完工
此项
市@@
美洲
脆弱
顺序
两名
半
预制
订立
稳定性
得出
整@@
此@@
圈
手续
改@@
辐射
马
合作伙伴
依然
比率
包
㈠
增值税
儿子
池
发给
1989
集
取样
依法
周围
告知
武装力量
别@@
控制室
英国
报
焊条
每天
.2
塞内加尔
公报
丧失
数值
脱水
西亚
外交部长
指@@
工艺设备
备选
推进
那@@
理论
起重机
�
直@@
庇护
爱尔兰
削减
强烈
大不列颠
集@@
先前
系列
冰@@
伏
必
й
0.1
流程
外壳
而@@
得以
感染
照顾
给水
旅游
乌拉圭
遣返
重返
文本
坚决
章节
他人
180
易
刑法
专@@
液位
消费
净
印发
公式
待
运送
死刑
据称
院
运@@
p
衡量
引@@
第四次
领空
石@@
铁@@
20%
电站
有效期
矿物
亚美尼亚
十
共计
否则
另一方面
深@@
行政当局
续
委托
岛
六@@
章程
螺母
前景
事态
可行
Ш
国外
接近
6.2
伊朗伊斯兰共和国
颗粒
十五届
任务书
大家
托@@
浆
纵向
债务人
勒
2011
莫@@
战@@
雷@@
法治
南斯拉夫联盟共和国
显著
试图
设在
例子
渠道
Add.@@
公民权利
电视
轴承
太@@
团结
4.5
北部
恶化
世界各地
国标
电动机
引渡
采暖
2016
以此
第一@@
关@@
焊@@
吸引
缔结
劳动报酬
帕@@
工程施工
自然灾害
切断
大楼
第二个
隧道
男女平等
选用
剩余
三氯氢硅
下面
死
柴油
法定
尼泊尔
路@@
军@@
为期
里@@
会@@
m2
引入
横向
多样化
短期
砂
柬埔寨
期望
人人
报表
轴线
不到
8%
之内
好处
净额
立陶宛
电阻
储量
难以
处罚
医院
所有权
组@@
现代化
置于
随时
再生
切
博@@
配@@
效益
先@@
楼
星期
冬季
x
汇率
会议室
较大
见图
103
间距
来看
冷却器
1373
抽@@
权@@
越南
波
租赁
技术设备
名@@
0.7
电路
罗马
近东
200@@
劳动保护
武力
标@@
少年
彻底
105
综合体
会上
签发
思想
调度
斯里兰卡
火
近@@
发电机
盟约
工会
千瓦
壁厚
几年
物理
呢
量@@
主体
空
反应堆
缺少
先
这里
掉
举措
解除
实验
后勤
颁发
申请书
自行
对应
50%
一词
汇报
上部
第五十八
104
合成
坐标
住宅
47@@
代@@
两项
结@@
路面
半@@
专门知识
去年
阿塞拜疆
权限
污染物
液压
撤回
西非
106
选定
支柱
or@@
直至
也许
咨询服务
索@@
审评
感兴趣
国际法院
外输
调解
一旦
可用
001
冷@@
2013
热水
贩卖
武装
区段
分公司
阻止
纠正
工作量
巴勒斯坦人
余额
灵活
冲击
附录
诺@@
资源管理
十六届
发了
财务报表
所得
工作文件
穿越
抗
亿元
动员
施工图
限于
处决
失业
主张
喀麦隆
现@@
罚款
4%
现
GB
发射
商
班
增@@
推荐
洛@@
交
十一届
心@@
达@@
路线
内部监督
被@@
排放量
底漆
自由化
J
教学
等等
阿拉伯叙利亚共和国
保护区
林@@
永久
发言者
至@@
报酬
秩序
IV
相符
下述
执行机构
换@@
32@@
销毁
截止
月份
怀疑
治理
斯洛文尼亚
您
木材
驻地
相当于
尽量
一国
原始
林
王
口@@
克服
消费者
容积
操作员
停@@
废料
往
环境保护
1988
联合国开发计划署
大使
定位
¡
___
补@@
37@@
假
通行
需@@
预先
短
议题
联锁
百分比
警卫
纳米比亚
出厂
水泵
着重
计划署
册
男性
提醒
负
球阀
al@@
接管
润滑油
地带
材质
差别
面@@
失去
拉脱维亚
试@@
管理系统
地域
家庭暴力
脱
速
海
爱沙尼亚
航空
v@@
流入
监禁
职
诺
询问
这份
35@@
精@@
理@@
查@@
删除
某一
空中
钢结构
供给
杀伤
0.0@@
丈夫
立@@
罗
经济@@
选@@
饮用水
焦炉
科技咨询
二级
前提
补编
农@@
消灭
时限
远@@
形势
制造商
交给
例外
不妨
空调
房屋
输送机
积极参与
采@@
由此
一览表
7.2
螺纹
井口
12.@@
穷人
听取
对付
я
矿
二次
传@@
成型
色
行动者
at@@
违背
信@@
好@@
直到
问
正是
马里
填@@
蒙古
叙利亚
即@@
出生
逐渐
跨
部@@
受害人
依赖
玻利维亚
顶部
塞@@
硅
表达
控
纳税人
干扰
冷
分子
到@@
实践
当事人
区@@
论证
档案
零
小学
设计方案
港口
药品
排出
补助
工程量
动物
职权范围
114
当然
岩心
某种
地形
连@@
均匀
陈述
现已
网@@
促成
也门
内罗毕
旋转
会费
脱@@
托
填写
扩展
规章
税收
配件
0.2
委员
28@@
销
近
cm
实质
多次
环保
布基纳法索
养@@
父亲
动态
粉
冲@@
经理
有着
超出
min
〕
有用
寻找
变动
难
估算
4.3
联塞
结
联合国大会
更大
杂质
壁
按钮
交接
内外
排气
另有
肯定
45@@
温室
广播
苏@@
垫层
泵房
千@@
联络
相反
2020
r
3.4
周
转向
新建
大大
着手
3.0
el@@
发展权
我@@
宏观经济
裂缝
0.8
毛额
铭记
限
技术转让
不够
教@@
10.@@
附
预算外
修复
观测
组装
撤销
津巴布韦
迄今
来@@
kV
指令
案例
第五十四届
处境
英文
滥用
放
中等
散发
〔
国际贸易
报@@
姓名
成品
靠
埃@@
不得不
北
11@@
随@@
山@@
意
合格证
下部
中应
壳
均衡
y
储备
飞@@
脚
更@@
头@@
7.5
其他人
放弃
共@@
年初
满
兰
社会保障
孔@@
水资源
2.0
物@@
常会
80@@
传输
告诉
调
冻结
配偶
111
萨尔瓦多
吉@@
提
序言
依靠
期待
区别
中部
马其顿共和国
这类
术语
童工
登记册
编@@
水源
木@@
人事
具
矿@@
目录
互@@
FCCC
钻探
费率
替换
14.@@
安全阀
后者
雅@@
DN
自决
塑料
多种
注入
交货
与此同时
镇
战斗
时代
水位
扫
凡
对待
身
生产总值
制约
下文
上面
温@@
伤
作出贡献
做好
底@@
争议
便于
备
聚氯乙烯
户
标
µ
千米
初次
123
侦察
恐怖
湿
交叉
000@@
腐败
层面
强制
处置
协调会
接线
缴款
养护
股权
22@@
耶路撒冷
难民营
关
•
6.3
预付款
反应器
卫生组织
高兴
耐火
七
依
分包
萨
液@@
节@@
融合
离@@
武装部队
设定
培养
简单
第二届
减
更改
产@@
赞比亚
13330
运转
所谓
LT@@
终了
根本
气管
第三@@
暂时
7.1
cm2
氮
质@@
双
申请人
病
喷@@
遗憾
所在地
极为
增长率
1980
不予
支
采矿
砂土
配电
敏感
集装箱
尊严
个@@
拖延
锅炉房
元
集输
典型
15.5
填充
伊朗
可燃
零@@
所在
无缝钢管
排斥
林业
建@@
夏季
行事
民事
自从
民警
开挖
500@@
关联
on@@
经济体
尼
莫斯科市
接通
纤维
矿石
清@@
模拟
DR
经社理事会
159
动作
感
充足
政党
转换
坚定
壳体
筹备工作
电能
勒@@
美@@
www
间隙
极@@
雨水
康复
安全@@
自然人
罩
防水
开列
115
竞争力
盐
15.@@
始终
轮@@
常@@
合适
电子商务
识别
承租人
群
用以
推行
城@@
第一届
日内
农民
季度
名额
环@@
非统组织
担心
控制器
HSE
列为
程
Corr.1
反恐
w@@
5.3
河@@
点火
通
施加
不久
不管
日常
先进
函
欧元
东部
细@@
军备
核实
另一方
350
看来
有力
国际劳工组织
区分
桥梁
给出
每一
一天
条文
Y
主办
申诉人
东
9%
载荷
48@@
穷国
压缩空气
持有
继电器
膜
发生器
发包方
300@@
再生能源
万吨
时间表
本人
洗@@
志愿人员
疏散
董事
婚姻
规范性
使@@
简报
穿
合计
端子
解@@
转型
导@@
京都
获
平面布置
报价
管理@@
制动
明
尽早
测@@
5.4
期限内
旅费
j@@
汇@@
兴趣
装车
强@@
缝
DP
热处理
支配
致@@
首@@
地上
病@@
转型期
轻@@
首长
用作
南方
转变
纳税
豁免
包@@
地球
任何人
奇@@
自备
复员
坑
PN@@
112
袋
还原
货
变
垫片
压缩
外交部
声
标识
例
盒
权益
互联网
≥
建设性
马格尼
坡
恰当
一层
顺利
负有
仅仅
道德
铺
或是
折@@
单井
申报
总结
保护装置
升级
白俄罗斯共和国
冰岛
作法
一半
0.6
职工
露天
编
吸@@
家@@
该部
企图
回填
付
饱和
绘制
119
132
钻
岗位
乌兹别克斯坦
税务
列支敦士登
罐区
图书馆
j
赠款
夫@@
外径
要@@
延迟
中小企业
第二@@
筋
SR.@@
装@@
圆@@
as@@
培训班
中断
总管
砂岩
第十@@
117
经历
再@@
兹
工作日
区域合作
谋求
怀孕
输气管道
指导方针
模板
商@@
135
所属
邻国
支援
同次
理想
不锈钢
莫桑比克
约束力
炉@@
4.0
截止阀
生态系统
大街
甲方
千
几内亚
职等
击
加纳
116
创建
ro@@
沿海
投@@
信函
装卸
补助金
另@@
技术规范
封闭
六个
拆卸
涂
根源
看@@
政府首脑
11.@@
剖面
兵
私营
承受
皮
110kV
纸
窗
广告
处@@
36@@
屋面
硫化氢
水管
每次
受益人
总共
国家元首
我要
氢
欧洲委员会
各位
砖
消防安全
留@@
约定
营
河流
初始
床
谁
离
回答
敌人
第五十九
款额
文字
kgf
席位
化学品
曾经
1967
会议议程
同等
122
损伤
转化
货币基金
熔@@
旅游业
33@@
材
常
100%
碳
1986
极其
亲@@
温
落
乙方
身@@
保函
次数
气动
.4
450
做到
任用
任职
规格书
2.7
压实
分列
假设
家属
代码
空缺
本地
Ю
阿尔@@
烃
禁运
客观
开办
别的
寿命
真空
货@@
用地
应收款
118
201
5.0
预防性
收取
指明
目
词
市场准入
公司章程
关税
尼加拉瓜
加热器
1200
近年来
有机
营养
考试
17.@@
浮@@
特遣队
病毒
地板
坡度
沉积层
1987
军事行动
阴极保护
贝宁
ad@@
边境
呈
极大
屋顶
中学
㈢
灵活性
退@@
部位
开设
获悉
军事@@
工作日内
变得
周@@
误差
八@@
路基
痛苦
弯曲
经济委员会
全套
粮食安全
索
退化
丰富
测
事业
科技
首席
算
多哥
曼
倾向
29@@
橡胶
诉
见@@
首要
给排水
能@@
沟
观念
扣除
图中
农村妇女
优惠
响应
监察
轴@@
高等教育
他@@
艺术
标准化
核定
4.4
Add.2
合金
声音
英@@
愿望
新加坡
换热器
可行性
女@@
代
总干事
彼此
当选
支@@
有益
草稿
展@@
107
没收
斐济
估价
披露
总量
记@@
翻译
8.1
作出努力
地理
物体
油井
发行
兼
样
断@@
归还
121
字@@
想法
泡沫
四氯化钛
强化
独特
谈到
er
村
埋
第纳尔
封@@
效应
对外
调查结果
探索
124
讲
流体
罪犯
16.@@
st@@
原则上
吊@@
版本
最高法院
存@@
圆桌会议
异常
岛屿
各个方面
年前
结婚
板@@
2.6
回返
延期
氧化
卢森堡
保密
侵害
总理
地表
1982
43@@
阿尔巴尼亚
120@@
80%
授予
灯具
分散
氧
筒
婴儿
意图
种种
水井
初期
免除
39@@
30%
牌
必要措施
人均
楼板
变革
奇
准许
刑事法庭
能否
审
人为
水量
供热
化学武器
患者
士
配有
选出
协调一致
征求
社会@@
5.5
人格
连
发电机组
叫
开会
材料费
什
流通
调节阀
倒
牙买加
H2S
撤离
假定
无需
承@@
所指
单个
装有
产妇
服务@@
精度
第五十七届
验证
岩@@
ж
能量
断
240
月底
基坑
高专
免受
沃
终端
角@@
联刚
百@@
度@@
名册
人工成本
实
铁
类@@
投资者
愿
109
谢@@
163
间隔
诊断
第六条
1500
预留
务
船只
垃圾
标准文件
节省
文明
放置
圣@@
203
南部非洲
基本上
直
工序
迄今为止
il@@
问责制
上方
挖掘机
特权
红@@
将@@
港
15%
情
法律援助
TD
次序
编列
保护层
燃气
海上
为主
第一阶段
加重
杀害
粗@@
态
mm2
技术@@
____
隔@@
印刷
快
0.3
左右
木
更多地
发达
布置图
磁@@
马达加斯加
塞
照料
背@@
归
指导性
20.@@
说法
外国人
健全
山
天然
七@@
纪念
熟悉
职业培训
干净
切割
待@@
墙体
垫
128
伊斯兰
约束
站@@
定额
填料
缓慢
项@@
大修
分歧
落@@
远
一类
平方厘米
班@@
自我
第二阶段
简@@
中华人民共和国
软
独联体
离婚
扎@@
存
然
十届
注@@
多晶硅
毛里求斯
有效性
意外
堆
党
底座
修@@
约@@
身体
建筑工程
四年
咨商
蒙特雷
招聘
师
换
废除
亦
到达
推土机
国际标准
管沟
42@@
挑选
附上
棒
塞尔维亚
情@@
降
职类
投产
境外
公用
特许
参与者
断裂
设计规范
无论是
E2
国防部
am@@
水力
放射性
白@@
造
紧
£
现状
改组
赫兹
泥浆
长时间
保护措施
列举
义
查阅
奥
退休
残@@
送交
沉积
阐明
监视
微
／
拿
单一
协同
库存
麻
无效
毫克
北方
建筑安装
不动产
保安
联检
湿度
管路
参@@
订约
聚@@
法语
第二章
进气
海外
司长
档
辆
行政@@
分担
完毕
对接
普遍性
界限
草@@
Z
公共行政
十三届
罐@@
打
冷却水
公共@@
出资
.3
承重
刷
矿床
钻@@
封
征@@
委托书
除尘
种族灭绝
类土
众多
第二十@@
省@@
储层
感@@
等待
民
借助
核电站
施政
巴黎
护理
排污
蒙@@
造价
副@@
是从
面板
库房
吊车
380
标题
旋@@
害
z@@
代表性
贝@@
粗
表中
指称
138
闸阀
加剧
会晤
厂家
代理人
取值
0.75
医生
备件
眼
收回
插入
泥@@
固体
汽气
正义
绳
回应
受伤
水下
6.5
哈
裂纹
un@@
子@@
战
总站
脱离
兰@@
可持续性
公共部门
改建
防御
戈@@
________________@@
含义
议员
撰文
提起
议定
第三届
第三个
中亚
固@@
施@@
134
层次
短@@
订
萨摩亚
早
会谈
全球性
硬
压力容器
总图
代替
款@@
113
按规定
公斤
噪声
编辑
70@@
提名
弥补
生成
听
增多
1201
金属@@
比如
膨胀
费@@
公认
判例
栏
平均值
署长
开工
不可抗力
声@@
并用
越@@
走向
沃@@
三通
13.@@
一步
药@@
裂变
围墙
夹层
皮@@
大小
一段
2.8
该法
25%
IN@@
干旱
讲@@
生存
递交
高质量
司@@
以内
供暖
Ж
变成
1.8
爱
自决权
载列
作物
洁净
任@@
工业@@
中所
极端
优@@
封闭式
本图
外债
履行合同
被迫
盐水
0.000
生长
流程图
巴林
热力
聘用
齿轮
航行
短路
44@@
18.@@
办公
泵站
非洲联盟
具体@@
理
容许
顺@@
水泥砂浆
力求
危险性
药
发票
kPa
顾及
油漆
间@@
梅@@
沿@@
希@@
133
腐蚀性
购置
废水
托哥尔
形@@
牵引
倡导
各地
注销
世界贸易组织
德雷
老@@
厂区
负债
求@@
内陆
第五次
液化气
申明
电线
0.9
勘测
倒@@
巴格
迹象
停车
传真
异@@
归@@
预警
负面影响
球
行驶
草
圭亚那
机车
料@@
产业
46@@
战术
学术
坦桑尼亚联合共和国
通知书
阿姆河
奖励
拉加
夹@@
闸门
注册资本
官
当中
股东大会
无害
承包
洪都拉斯
平整
阀室
多米尼加共和国
不人道
磨@@
边@@
相连
排水管
此后
对抗
清算
母@@
失败
第十届
波动
细节
接地装置
跨界
求
各部
杜@@
脱烃
边疆区
出具
激@@
第二条
体育
试点
合伙人
重组
流量计
第五届
中美洲
3.6
原来
110@@
进行谈判
软@@
中止
集气站
一贯
总局
平行
平方毫米
承包单位
基层
an
型材
短缺
货运
负载
略@@
85@@
教训
9.1
170
什@@
考核
PE
化合物
242
桥
计@@
联合国秘书处
总计
&
判断
断开
多少
莱索托
鱼类
独立性
铝
定为
西部
丙烷
存储
沙
停车场
审核
赫@@
捕鱼
留在
居
裁减
57@@
教授
煤@@
电梯
土层
何@@
如同
朝鲜民主主义人民共和国
生产能力
反馈
！
电焊
看出
系统@@
压力表
援引
年间
租让
盖@@
利率
鲁@@
日志
153
花@@
为什么
摧毁
持续时间
152
移@@
ch@@
耶@@
房@@
制备
综合性
重叠
第一批
照
混@@
158
闭会
应立即
全权
38@@
差额
蒸发
开口
129
或许
巴拿马
一致意见
界面
弹性
横梁
书面形式
叙述
净@@
合同条款
杰@@
市政
兵力
外汇
..
无人
到期
合伙
工业化
二十一
令人满意
常规
该条
吉尔吉斯斯坦
事宜
胶@@
产物
90%
降@@
跟踪
延误
半径
Ј
对比
佩@@
解
视@@
链
公顷
氧气
缩短
指示灯
免@@
杂项
妇发
监管
热量
黑@@
悬挂
校
海事
警@@
新增
it@@
博茨瓦纳
气区
联合国环境规划署
支承
末
生境
70%
居民点
余@@
事@@
减免
暂行
定居点
巴拉圭
起到
可见
165
套@@
坚戈
不受
楼层
阳极
直升机
种植
持
当代
发电站
钻机
控制柜
8.3
7.3
国家@@
倾@@
药物滥用
ri@@
足以
信息@@
卢@@
采集
145
控制台
法律事务
宝贵
最为
扭转
未成年人
脚@@
加沙
零部件
输电
控@@
植被
本着
文化遗产
压气
置
收
社会保险
中所载
民@@
增
预定
引进
大众
u
探@@
段@@
人身
燃烧器
ab@@
士兵
振兴
缴付
延@@
尚
写
标明
钻孔
得不到
区间
紧迫
其次
堆芯
巴巴多斯
第五条
充@@
一个月
无关
某个
神@@
400@@
阻力
塔吉克斯坦
举@@
19.@@
占用
大门
技术人员
记者
卡塔尔
第四@@
保养
妻子
世界人权宣言
126
具体情况
大幅度
租金
z
遵照
政
高温
每日
只@@
于@@
增补
127
浸@@
生育
灰@@
首站
粉尘
in
应予
迪@@
老年
证件
辩护
逐@@
领土完整
西岸
用量
合法性
完好
劳@@
国际原子能机构
硫醇
领@@
控制@@
解除武装
面向
喷淋
青年人
我谨
和平解决
●
矿藏
常规武器
堆@@
职权
歧视性
提取
传动
143
雪
横@@
60%
计划生育
ic@@
和平利用
ST
倾斜
撤出
水域
强有力
花
流行病
入境
330
赫
莱@@
时刻
作出反应
AS@@
咨
应是
少@@
系统地
一人
召集
核试验
子系统
庆祝
盲板
155
进出口
剖面图
入口处
钛
硬@@
软管
视频
经营者
1973
习惯
炼油厂
尽@@
裁谈会
砂@@
原有
单价
紧固件
添加
托克劳
盘@@
起飞
胁迫
碱
精简
标注
环形
道岔
烟
孔隙
下来
塞人
卫生部
废@@
当事
青@@
预
即可
总务
国内法
西撒哈拉
等@@
话
工作者
粒度
素
特立尼达和多巴哥
迫切需要
三名
紧张
石英
所说
阻@@
清
运输工具
宽@@
家庭成员
恩
独@@
收费
认捐
优化
雨@@
力@@
路段
基本工资
直布罗陀
观
随
外形尺寸
刺激
适宜
具体措施
阿拉伯联合酋长国
伤@@
服
多哈
组分
通风机
焊口
驱逐
1100
一笔
漆
冶金
液化
大纲
次@@
看作
警告
安盟
低温
防雷
循环水
团长
否认
疟疾
氯化氢
耶
一家
行车
拖欠
中将
海牙
230
铜@@
异议
水体
宜
0000@@
全额
酒
日前
欧安组织
栋
转速
利亚
节能
场@@
并于
至今
136
号@@
秘密
酸@@
寄@@
阵线
代号
绝@@
囚犯
角色
站场
光缆
一下
³
151
初@@
进料
俄
AC.26
书记
护@@
检查和
继承
比额
迁移
装入
1.03
八
汽@@
原理图
配电盘
楼梯
早期
偏@@
渣
强调指出
人体
联合国总部
死@@
继
严@@
详图
目的地
一架
散@@
消耗量
联合体
141
第四届
追@@
脉冲
__
检@@
称@@
客@@
洗
普查
进出
CP@@
奠定
不间断
147
第一条
第二款
民兵
普
矿产
前进
根@@
俄文
有形
网上
相邻
构架
表示感谢
建设项目
信中
缩小
恰@@
下届
遥感
更正
这笔
联网
车里雅宾斯克
生气
137
履约
储@@
亿@@
照@@
先决条件
缴
布雷顿
原先
硅@@
活力
切换
血@@
1985
139
40%
蒸气
分区
股@@
强大
统计数据
城镇
id@@
仔细
墙壁
有辱
付@@
CS
税率
忽视
造@@
169
尽管如此
方可
移动式
两级
削弱
机械化
144
斜坡
硫
对方
靠近
引
杀
一事
学员
键
固有
病人
第一款
义务教育
奉
洞
生产厂家
211
论述
紧固
群岛
永远
展示
螺钉
密封性
贸易法
家园
受害
146
尼日尔
梁@@
3000
有毒
斜@@
牢固
升@@
非正规
书@@
此事
房舍
线性
伊拉克政府
驳回
跨国公司
ol@@
年轻人
A.@@
大地测量
汇
教学@@
赔偿额
明斯克
国防
密@@
解决方案
检
尊重人权
钱
侵蚀
一致性
若@@
合理化
火焰
确切
犯罪行为
第一章
征收
http
安全性
虫
通往
志愿
权力下放
射线
哪
予
监督局
无损
初
采
还@@
圣
框
职员
is@@
砂质
防空
用尽
扎
弹簧
圆
第十四条
营业
法典
专利
毁坏
游@@
第四十@@
生物@@
CA@@
查
较@@
灰色
复原
ah
援
导
爆发
废气
稳@@
矛盾
填补
设计院
本来
行政部门
表决权
征得
必然
无权
人发
树
二十@@
1.7
批评
属@@
走廊
过渡时期
信仰
幅度
仅@@
离子
据说
产假
1984
较为
恩@@
不丹
讲话
阿克
环境@@
研训
天内
烟囱
安道尔
细
质疑
马拉维
BAPF
抚养
解释性
广@@
酶
承付
必不可少
通廊
调查表
重债
六个月
订@@
山区
90@@
化学@@
采纳
尼亚
Φ
导向
漏
分项
飞越
下游
乳@@
电信
事务处
º
1101
荷
总是
150@@
笔
标签
AC.@@
玛@@
办@@
公证
难@@
商业@@
纪
处在
润滑
违法行为
ma@@
农产品
风速
中所列
两者
锁
砾石
订单
探测器
1981
胡@@
保
限额
244@@
7.4
吃
张@@
保管
碎片
恶劣
9.2
邮@@
茨
IP@@
望
预审
铁路运输
犯有
弯管
219
送@@
累计
翻@@
冈比亚
统计数字
法外
一百@@
德班
发电
尽力
微型
完整性
185
硬度
协@@
土库曼
百万美元
190
救援
去除
远远
搜索
准
87@@
法律文书
致
消@@
标号
石油@@
评定
无疑
org
从未
延伸
凝@@
审批
不当
198
不适
承担责任
司法部
灭火器
我方
工位
002
煤
股票
下方
多项
12.1
地中海
分组
区域性
伊斯兰会议组织
325
听@@
中非共和国
漏@@
丝
示
证明书
所得税
正规
增大
变送器
住@@
研制
管件
众
ш
离职
祝贺
遗产
会见
前面
减压
财政@@
关键作用
照片
启@@
内阁
摩尔多瓦共和国
片@@
陆@@
排风
8.2
备注
损耗
卷@@
步@@
紧@@
运输@@
外空
音@@
第四条
部长会议
论点
ac@@
积累
脱碳
分解
检查组
保温层
全文
黄@@
弹药
骚扰
很@@
试运行
走@@
国立
修
传动装置
石棉
脆弱性
探测
示@@
亚太经社会
校@@
75%
橇
活@@
157
就业机会
俄罗斯联邦政府
做@@
充分利用
骨架
发挥作用
严禁
基本权利
几内亚比绍
铺@@
154
于是
威@@
业@@
学科
事情
就@@
居@@
巴格达
156
坦@@
龙@@
GOST@@
边坡
起动
官长
电池
自主
过度
re@@
债券
220V
婚@@
吉
致使
万人
贾@@
撒哈拉
接到
隐蔽
1.18
装载
充分@@
事务司
204
以供
第三国
繁荣
PV.@@
附有
高效
选民
条中
找
为何
应从
100mm
蒙特利尔
人工智能
联合国儿童基金会
受过
大陆
1970
密
鞋
三项
执行@@
实物
66@@
吸附
逻辑
免疫
借此机会
报警器
环境温度
摩纳哥
220@@
张
关押
计入
获益
GB@@
传送
水质
对本
经验教训
乘客
mg
发言人
医学
异
真实
AC.109
堆放
智能
卫生@@
弹
发育
活性
监@@
消息
毛里塔尼亚
特使
CEDAW
保险@@
少于
213
黑山
工作@@
输油管道
氢气
云母
硫酸盐
柱@@
三分之一
其后
风力
教育部
委
凭证
动议
军人
改动
穆@@
φ
经常性
摆脱
捷@@
全厂
焦
比例尺
沉淀
交通@@
伸@@
人才
50mm
碳钢
有所增加
油品
182
欧洲共同体
写@@
生产@@
光纤
密实
地图
线圈
按时
独立国家
杂项费用
W6
少量
需求量
严格遵守
弃权
ES@@
展望
美国@@
无辜
el
沿着
岩层
台@@
价值观
电极
考察
家庭@@
鱼
维奇
22.@@
劳动法
电伴
采取有效
原材料
精确
颜色
负@@
土著居民
4.6
观@@
种群
滤@@
分开
图像
壁@@
埋@@
阶
迈出
第七条
转运
主管部门
测井
星期一
立
为准
转动
每周
被害人
手中
轻
的确
定罪
11.895
经合组织
滑@@
稿
205
沙特
预埋件
乱
管架
步
吉布提
技术装备
不可分割
水池
路上
两国
耗@@
革新
百万
算@@
转子
西南
斯威士兰
给@@
SS
明细表
薪
电脑
公告
有害物质
增设
县
商务
伴生气
识别码
图表
此一
馆
扣押
CP
加蓬
Add.4
传媒
ot@@
212
普及
老挝人民民主共和国
尺
原件
第三条
轨
节流
奖
撒
电器
政@@
自控
美
九
定量
绝大多数
迎接
原理
支线
绕组
使用寿命
伯@@
值@@
电杆
接纳
注水
粒
es@@
缓解
科研
59@@
传
谨慎
止回阀
人口@@
警报
安全措施
后面
调压
机械师
九@@
节约
错@@
出发
贯彻
围绕
详情
三条
援助团
行预
助@@
将要
针对性
措辞
Щ
筹备会议
穿过
村庄
2021
指派
三相
税@@
临
家具
证券
很难
决策者
斯基
电子邮件
蔓延
水流
210
传递
04@@
第八条
无条件
西伯利亚
夯实
屏
土壤@@
南南合作
着重指出
微生物
生产力
刑法典
屏蔽
毛@@
迫使
媒介
后裔
残忍
插座
园
―
守@@
借款
击@@
3.7
达成协议
补给
低收入
260
工程项目
非殖民化
堤
故意
吹@@
总成
符号
社
动机
句
相结合
相互作用
息
科夫
教
标书
EA
赛
绩效
积@@
急@@
乌
斯克市
开放式
洛
失业率
ST@@
后方
142
联发援
夹
截断
共同@@
娃
普通照会
申@@
友好
34@@
住所
新鲜
单层
免遭
形象
该司
乌拉尔
1.02
司法制度
钢材
请@@
器具
250@@
LA@@
55@@
胶
善@@
双重
相一致
十二届
侵入
食
意@@
企业家
162
人民法院
排入
1300
出租方
成效
太
立柱
装运
水罐
精
管径
易@@
合营企业
科学技术
引出
详尽
驻科
昼夜
撤消
出缺
备@@
配电箱
购@@
回到
海底
谢
外来
饮水
DC
一所
复合
一件
换算
ISO
所提
法律顾问
不幸
物料
清管
习俗
结余
禁@@
补
项下
阳
减缓
PLC
校准
数据处理
9.3
增编
早日
上次
这场
合作社
塞族
处以
范畴
伦@@
深切
见下文
局面
新型
可拆卸
汽油
浇筑
革命
多边贸易
当作
记
东欧
船@@
焊工
复
医@@
反腐败
166
沟通
铸铁
权威
薄
立式
俱乐部
供方
75@@
ou@@
组建
案情
地块
占@@
湿@@
侧@@
卫生保健
口译
纪律
第五@@
周年
蒸馏
0.65
追踪
兼顾
节目
双层
拨
涅@@
送入
民法
Dec.@@
一场
臂
娜
海洋环境
天线
置@@
法文
训研
JB
氧化@@
St@@
冷却系统
妇女组织
氨
所称
扶持
245
资
字母
务@@
极为重要
雷达
CN.9
320
底板
护栏
怎样
洗涤
罐内
忆及
谈
登@@
221
侧重于
蚀
毒
181
分子筛
CO@@
收养
І
扣留
构想
€
法制
内置
创@@
土著人
恐吓
势
XX@@
月@@
成熟
CO2
预防措施
联合国贸易和发展会议
持久和平
177
发表意见
旧
164
几十年
维
争@@
吸取
检察长
舍@@
搅拌
214
第八届
273
福
签订合同
涂料
IS@@
管理机构
救
隔离墙
而定
分支
满@@
Ч
旁
一段时间
波恩
SYBD
叶@@
四氯化硅
松@@
良@@
查询
催化剂
服务器
扁钢
封锁
邻@@
建设工程
沿线
钥匙
起重量
电子@@
192
二氧化碳
众所周知
优质
扩@@
真@@
该处
制造厂
树@@
国有
信心
柴油机
经济区
额度
CD
演@@
起重
UPS
一届
签证
技术规程
划界
成都
男孩
一侧
插@@
采样
初步设计
射@@
殖民主义
第六届
敌方
疑问
储备金
警官
华盛顿
财务状况
一节
V1
进度表
公证人
提高认识
导言
姆@@
盐@@
第三十@@
矿山
轻型
创立
博士
北约
围@@
77@@
机会均等
王@@
成人
混乱
诺夫
ц
】
届会
领袖
生产商
退出
所致
士@@
显@@
液位计
转运站
告
家人
通货膨胀
汽
非国家
甲@@
课
税款
系@@
日子
167
红十字
那时
警方
饥饿
提倡
et@@
175
225
敌对行动
复印件
208
锌
协商会议
根除
政权
常任理事
94@@
快@@
厂@@
抗震
下表
【
不变
蓄电池
主管机构
活塞
CT@@
差@@
各项规定
煽动
判@@
131
改
审查会议
土方
印
区域间
切实可行
刑事诉讼
首都
中子
有无
录@@
民族和解
暗@@
第九条
之二
绿色
爱@@
废
28.@@
违约金
航@@
阅读
149
两侧
303
捕捞
对称
拜
从中
超声波
国内外
国民议会
永久性
米处
172
中非
同步
第十一届
伤亡
滚@@
也就是说
贫@@
胎
当今
劳
非洲人
无须
钉
大批
办公@@
四条
引发
治@@
斜
挖掘
第九届
优点
捍卫
195
三种
处理@@
吊顶
措词
违约
签名
架次
正当
节点
西方
0101
管段
同事
充分考虑
共同努力
301
投入使用
治安
6.0
位@@
急剧
声援
扫@@
置换
代价
一期
形状
新闻@@
护
第一步
0%
财富
棚
这使
39932
研发
C.@@
送到
270
言@@
结构调整
ur@@
建筑材料
晚
藏
暴行
看待
流行
聚氨酯
吉尔吉斯共和国
星期四
单体
8.4
闪
元素
750
20mm
173
电化学
HV
机柜
知
监察员
226
→
升高
1.13
ay@@
局长
样@@
明确规定
向前
逾期
便@@
06@@
堡
技术性
福@@
斗
服@@
235
论
］
留
［
复兴
管理体系
松
减小
Si@@
霍@@
印@@
进攻
近期
三层
不利于
编码
苯@@
分量
莫
一组
w
么
比重
梯@@
199
流向
个体
有待
不仅仅
审@@
1.9
铀
650
大力
硅酸盐
大厅
阿曼
加大
将近
顿
锻件
Sub.2
孕妇
之上
0.00@@
气温
现行标准
些
抑制
周边
语@@
贴@@
以免
207
大幅
划@@
科学研究
168
血
公共卫生
事例
献@@
肉
操作@@
造林
固定资产
顶@@
金融@@
出去
瓶
乘@@
私有化
24.@@
矿区
涡轮
干涉
湾
下属
35kV
ul@@
品牌
凝结水
148
裂@@
世@@
主管机关
债权
刀
泰@@
Ў
圣卢西亚
进站
恶@@
全民投票
卡车
广大
非洲统一组织
破坏性
儿
附@@
241
偏离
东耶路撒冷
局@@
两条
土地利用
车道
预见
三方
工程设计
泥
速@@
决定性
哥@@
阿拉木图
总价
数据@@
下次
违规行为
贵方
教育@@
社会主义
除去
符合要求
收容
不足以
坚信
标准值
烟@@
罪@@
凸@@
薄弱
相似
1971
蒸煮
被捕
压制
氯硅烷
伦敦
马尔代夫
碱液
存款
活
污水处理
载@@
有罪
330kV
阀@@
弱
HA@@
_____
额@@
要点
os@@
贮存
65%
冰
10.5
供气
选取
6.4
噪音
男人
输@@
益处
地球物理
西欧
租用
准@@
挡
破碎
惩处
绿@@
行径
遗@@
如图
物种
经共体
衣服
财务报告
CONF.@@
文莱达鲁萨兰国
烧@@
最终用户
早@@
个人@@
徒刑
南亚
生计
见解
碎屑
铝@@
兹@@
202
抵@@
跨@@
假@@
使用者
纸@@
续会
水箱
________________________________@@
采伐
邦
op@@
所有者
批@@
终@@
适@@
穆斯林
腔
据此
星期三
280
桶
阿斯塔纳
险
所定
值班
v
本项
气藏
承
令人鼓舞
富有
参加者
限定
炉子
关键问题
130@@
EC
波黑
附图
核对
影@@
灰
限制性
提纯
左@@
欧@@
大多
令人遗憾
会期
故
IP
电缆沟
舍
餐
取得成功
6.7
实时
股东会
无人机
蒂
含水层
增至
排水系统
胺
旅馆
记入
判定
隔墙
浆@@
公营
不用
警察部队
受压
平原
蒂@@
十周年
储蓄
侧面
季@@
莫斯科州
境况
克拉
军火
标称
拆@@
公
弯
民主化
中央银行
铲除
一台
席
杀人
换气
历@@
开幕
CH@@
生产率
贵
一次性
动用
希族
塔利班
ag@@
免于
控告
信号@@
引用
0.05
ґ
级@@
陷入
判处
综管
思考
该段
基座
条所
号令
和平@@
证明文件
含硫
铠装
去@@
过于
突@@
时至
05@@
劳动@@
法律@@
260@@
聚集
带式
第十九条
大西洋
结论性
刑事责任
183
原籍
州@@
ER@@
司法@@
下放
油管
任何一方
外交@@
绝缘层
产能
调车
谷
科目
管壁
号法
直缝
扩建
C.6
转换器
弯头
吧
累积
证@@
钩
试压
危及
触@@
μ
想@@
呈@@
虽
67@@
艾@@
问@@
甄选
板材
治
携带
布局
宗
依@@
索引
水中
气氛
机动
拉伸
已于
分析仪
获@@
原产地
坡口
玛
沉@@
梯
水文
测量范围
分支机构
巷道
下达
汉@@
两位
乐观
合资企业
方应
停
资@@
热带
变为
1977
妇@@
码
统筹
进口@@
600@@
VI
七个
螺旋
籍
非洲大陆
收缩
公共服务
核动力
第七届
此处
统计资料
脂
购
161
位移
眼@@
女生
文职人员
划
相互@@
添加剂
资金来源
一支
计算@@
销@@
盖板
季
停火
空运
填
清偿
追加
ak@@
直线
确@@
力矩
扫盲
充满
限@@
租@@
地铁
没
借@@
E4
队伍
佛得角
每种
老龄
om@@
明年
载入
计算结果
SA@@
减灾
设@@
02@@
该次
评@@
遥控
高程
学会
古
家长
年内
实例
知情
规
招@@
夫斯基
很快
¬
基线
非常@@
注射
197
牛@@
俄语
水电站
电台
水文地质
窗@@
财政年度
佩
科技@@
难以@@
巴布亚新几内亚
床@@
不明
三十@@
空隙
缓
白
花费
配制
薪酬
共享
几次
函@@
财务@@
2500
191
食@@
239
驾驶员
保持@@
算法
职@@
总经理
乙@@
布鲁塞尔
既定
细粒
5.7
全苏
概览
履行义务
保护法
过分
团@@
可取
开发署
军官
264
工地
架@@
氯
百分之@@
争论
准确性
东西
不符
尔斯
生产者
汽轮机
财政部
阀体
1951
毒@@
阿布哈兹
燃@@
缓冲
地说
逆@@
1401
护照
如今
AN@@
涂@@
连续性
环境影响
跨部门
科学@@
两份
莱
经济社会
手柄
环节
意志
业已
路线图
朝鲜
藏@@
冷却剂
国政府
易燃
5.6
缺点
化工
在线
训
巡逻
自然@@
全面禁止
梯子
演变
断面
身上
丁@@
拿@@
一语
绿化
捷
50Hz
埋藏
回注
218
屠杀
轴向
扇
基本@@
1983
率@@
新闻稿
发动
服务费
命运
总收入
捏
陆地
特种
ф
征税
连同
Q235
提出申请
Ch@@
人权法
生育率
针@@
1978
保护@@
外形
中型
核证
波罗的海
23.@@
潮
第十一条
参与性
薄膜
检查站
ir@@
174
边缘化
缔约
公务
导电
后期
时要
遭
碳@@
保留意见
99@@
埃
基本建设
院长
分成
产品质量
挖
牺牲
稀@@
联合国安全理事会
营养不良
开罗
结果表明
司法部门
均@@
墙@@
胶结
多方面
环氧
ec@@
高速
公海
输油
每台
1975
im@@
水库
出庭
联黎
韦@@
工期
专题讨论
右岸
401
派@@
所起
增列
10.2
______
逃@@
外观
立交桥
ESD
0.0
退还
中小型
焦@@
诊所
三分之二
义@@
政府部门
销售@@
艰难
更具
色情
季节
互动
沉降
挂
KV
借口
认@@
触点
径
磨损
199@@
期满
排列
修订版
育儿
石墨
完@@
360
足
概况
罚金
炮
经管
灯@@
末端
箱@@
几何
齐@@
断层
埋地
总产值
同类
21.@@
连接处
施行
严厉
散热器
使用@@
远距离
与会
损
这两项
¢
发生变化
下去
AP@@
ru
突然
营@@
一周
1001
慷慨
留下
住区
止@@
富@@
街头
国家机关
光盘
本案
民用
自动装置
负债表
海军
文献
筛选
雅
黑色
气象
出境
失效
止
百
已知
世界卫生组织
调拨
卧式
生命权
对策
1.25
洛夫
征
堵塞
锚固
适足
全国性
370
泄露
赔偿金
越
各届
令人@@
不法行为
里奥
有意
检查@@
雪@@
渗透
残疾儿童
文盲
教会
帐
粒径
市场@@
碎
犯罪活动
故@@
弱@@
适用范围
书面通知
柱子
联委会
终身
机房
机械设备
职司
550
抗压强度
担保人
64@@
街道
直流
余热
年轻
交存
树木
不但
第五章
香@@
定稿
准予
自治区
允许浓度
中未
Ä
税务机关
题目
缸
源@@
贵国
244
划拨
订购
状@@
纠纷
皮带
定居
海岸
万名
矩形
坎@@
泵@@
RE@@
联合国人口基金
尽量减少
嘴
溶解
技术咨询
卫生标准
104m3
欠款
户@@
4.7
抗议
阶层
坛
抵达
三级
al
维修@@
展览
补救措施
鲁
侦查
附表
DN50
γ
世界@@
巴哈马
产品@@
en
年份
市镇
导体
招募
混合气
乏
健康状况
循环泵
筹集
PR
IC
on
雇佣军
1974
文职
久
症
尊敬
制图
浮动
铲斗
勘查
煤气
闪@@
行李
最多
弯@@
约翰内斯堡
表层
三次
0.15
森
输气
两层
子公司
抽样
缓@@
DCS
制件
绳之以法
地下室
深刻
两端
这么
使命
刑
东南亚
苦难
油罐
日常生活
液态
紧急状态
楼梯间
坏
亲属
附带
占有
精神@@
1979
蒸发器
大陆架
阳@@
监督机构
堕胎
重大进展
坝
梅
田
第一份
微额
S1
防水层
径向
化验室
获准
排水沟
临时代办
休
扣
两类
尘@@
反射
砌筑
@
审讯
贫
107@@
护套
毒性
之时
PN
查验
端@@
投标书
图册
说@@
通向
露点
必要条件
输
兵@@
本款
Mpa
分队
第二项
金融危机
息@@
GB50@@
第五十@@
标定
ES
四周
应收
8.02
雨
集成
伴热
贮@@
信用证
搭接
会员
计算机@@
柜@@
命
编纂
东盟
辩护律师
会计@@
惩治
公职
调节器
互感器
内向
指挥官
运距
课@@
26.@@
接缝
思@@
集中@@
0.01
竞争法
248
美洲国家组织
停工
场内
偷@@
用房
1400
紧张局势
SP@@
自卫
燃
WG
模
频
联合国日内瓦办事处
蓄意
缺
被告人
年级
违@@
共用
SP
体检
0.85
苏里南
烟气
171
势头
并入
菌
聚
不良
朝
轻油
0.5%
松动
入学
程序@@
CO
切断阀
社会福利
看见
一根
接着
镁
油泵
几项
公共政策
釜
继续执行
举
银@@
内径
操纵
杆@@
创收
诸
相辅相成
保险费
电位
ic
189
L.1
管材
预算编制
186
想要
齐全
粉状
派出
Á
圣马力诺
PS
土建
01@@
聘请
重大@@
支座
犯人
并不@@
罗姆人
组织@@
抛@@
养恤
恶
整改
超越
固定式
手工
折旧
不确定性
钻井液
泥质
为本
远离
器@@
222
积
除此之外
渔@@
该类
屋@@
美国政府
散
消防系统
兴@@
引导
206
铅
人身安全
赤字
消极影响
一批
批款
os
找出
687
休@@
保障@@
表述
抓@@
面层
0.25
云
风向
1949
苯
联合声明
球@@
火器
抹
拖@@
随函
切实有效
解决问题
持@@
祭司
容
财力
账单
ov@@
可疑
火力
使该
驾驶
克斯
传染病
预热
泵送
总面积
地貌
PC@@
179
开发@@
卫@@
呼叫
警
辨析
配电室
95%
登记簿
中欧
补充协议
跨越
焦油
C3
出版社
王国
1000@@
涉嫌
＊
复制
监理
阿鲁沙
解雇
涂漆
走私
包容性
众人
遇
偏见
交流经验
井段
埋深
通风@@
保护器
谈话
乍得
00mm
斯德哥尔摩
扶@@
返还
电话@@
年来
强制执行
容纳
悬@@
破裂
钻头
’
尤@@
略
休息
磨
选择性
慢
电力电缆
©
棉@@
pp@@
遏制
甲
足额
石化
灌@@
拟@@
相互依存
上应
价格指数
梁赞
采取任何
担忧
380V
维护者
与@@
In@@
乘
商业活动
疫苗
基桑加尼
焦炉煤气
考@@
破@@
价格@@
察
2.01
捐赠
COP
178
朝着
SY
节余
243
欧洲人
表压
战略性
书记官
制造业
述
IT@@
家里
许@@
购方
亮
DN100
转入
国际货币基金组织
暴@@
今@@
2000@@
不必
二条
硫@@
以南
铅@@
超
参考@@
阻燃
赤贫
目@@
犹大
电子版
撒@@
227
白色
押
两用
65@@
起吊
兄弟
伦
参股
西班牙语
麻@@
谋杀
004
学年
CC
室@@
桥架
420
仍@@
授@@
赤道几内亚
困境
拨出
拍卖
庭长
搬@@
丝@@
送达
目测
扳手
油气田
鼓舞
男@@
判刑
ET@@
许
左岸
国务@@
品种
打印
导航
气井
往来
深感
履行职责
不结盟运动
朋友
舱
404
宣告
欠@@
牛
4.8
坦
其管辖
圆形
艘
多名
深信
0.00
GS
探伤
Hz
交流信息
暖@@
依次
总长
词@@
报纸
订货
庭
债
一揽子
遮@@
自动控制
俄@@
保证金
评注
粘合
分析@@
出口@@
²
诱@@
阿拉伯国家联盟
不愿
磁
加深
抵消
中标
碳酸盐
耕地
试车
星期五
南极
新闻界
占据
八个
五名
毫无疑问
所在国
真相
钙
时所
防范
默@@
大程度
素质
财产损失
尾@@
ut@@
成年人
高等法院
关键性
总的来说
12.5
星
轮廓
沟@@
预备
脂@@
哈瓦那
工程技术
放电
欠
着重于
杂志
自动@@
科摩罗
237
and@@
国营
四方
逃避
238
色@@
中毒
称赞
总统令
哥本哈根
铁路@@
管理制度
安提瓜和巴布达
抗硫
大地
存入
7.6
性别歧视
209
文化@@
世
了@@
分层
麻醉品
施工进度
汇总
索取
无论如何
妥协
351
3.8
单一制
臭氧
委托人
天气
89@@
之所以
废弃物
序号
封头
＋
钢丝绳
救@@
食堂
就要
在建
小额
议@@
є
登记号
星期二
挑@@
结构图
从前
推
发运
等国
完全符合
送往
西撒
读数
地坪
自费
策略
特别法庭
相称
苦
婚
正面
E.@@
配筋
没@@
文中
316
百姓
氧@@
夜@@
扬
阴@@
PC
上层
用具
聚合物
200mm
增订
⑴
居留
233
洛坦
四十@@
驻@@
8.5
基因
湖
移
创伤
复杂性
性暴力
可行性研究
2x@@
单据
刚性
直通
麻醉药品
伴随
之日
10.1
鞋@@
战斗人员
结构性
孤@@
现况
价@@
起始
着@@
清晰
舆论
03@@
天数
1.012
冲
起点
法兰式
建设部
敷
硫酸
河谷
Re@@
见本
SBSTA
静
岸
填土
筒体
ap@@
堆积
报导
灭绝种族
孤立
消毒
PS@@
加紧努力
0000
内有
本文
斯特
售@@
卢萨卡
灾难
长石
输送到
在职
礼@@
用语
分至
消防泵
得出结论
临界
活跃
搭@@
弹道导弹
透@@
酸气
接线图
前后
当年
停留
贯穿
纵@@
锛
枢纽
渔船
气密性
充当
程@@
一并
10.3
少女
静@@
德罗
格林纳达
定向
氯化
重计
193
拨@@
七条
领
氨@@
建立联系
房间内
上级
政治@@
高级官员
码头
博
之际
防护@@
水温
投
赞助
砌
列于
受援国
精馏
塔盘
述及
δ
益
据@@
射
投资@@
上海
236
选矿
热能
回水
多地
粘度
风管
11%
大臣
仇恨
消防栓
官@@
_____________
冷战
河床
亏损
作者
善
味
果@@
不宜
1600
核不扩散
质量保证
挤压
塑性
仓
田@@
马力
小组讨论
刑罚
器材
烧
灭
缺@@
Add.3
一同
夫妻
双方同意
暖
223
发明
年限
严峻
效
方位
读
UN@@
86@@
OC
殖民地
固井
炼
筹@@
肥@@
众@@
箍
群@@
甲醇
爆@@
罐车
捍卫者
平均@@
羊
Na@@
检测仪表
民防
C.4
法律义务
汇款
助
研究院
似@@
气量
交通工具
新兴
253
追求
甘醇
主导
亿立方米
告@@
外勤
伐
扫描
1948
令@@
第七章
甲烷
硬件
鸿沟
减去
^
在场
长期@@
东亚
上涨
牲畜
伸出
两台
外国投资
界线
FPA
辊
既@@
断电
纹
可否
妥善
一大
样本
孔洞
南北
支管
验收报告
和平部队
证词
103@@
拖拉机
一章
254
紧密
准备金
伯利兹
机遇
吗
甚@@
激励
女儿
毁
217
此次
法律效力
据报
寒冷
缓蚀剂
仅限于
奴隶制
信息中心
高频
北极
新喀里多尼亚
痕
大力@@
拧紧
违规
例@@
助长
偶@@
69@@
安保
堆焊
活动@@
物流
MC
14.1
消极
重新@@
宣称
应于
殴打
艰巨
灾
组织者
派驻
1972
PL
卫生间
历史性
128@@
VII
耶夫
铭牌
430
潜@@
全力支持
上学
信誉
卡拉
选型
华
谋@@
304
相关性
第九
会议记录
批准书
挖@@
49@@
中文
5.9
即决
督@@
184
贴
拉杆
冻@@
保全
消失
洪@@
发表声明
矿浆
联邦政府
市政府
302
丁
对照
圣文森特
地质@@
南约
境
PG
沙漠
勤
尚@@
水分
法律法规
希尔
老
窗户
民主@@
聚合
粘@@
禁
管理处
人工@@
买@@
界@@
LE@@
丢失
同一个
伤者
闸
整套
人道
窗口
高出
纸质
杀@@
型式
段落
涓
常见
福祉
300mm
陪同
错
溶剂
不论是
定价
迟@@
带到
保持一致
剪@@
焦炭
显示器
刑事诉讼法
暂@@
专项
人质
闭@@
贷@@
电力系统
抵押
医疗保健
复苏
日向
刻
某项
凡@@
短管
私@@
删去
使用费
综合@@
监事会
资发
井场
业务@@
自卸
体罚
246
买
热电站
as
居住地
猛@@
传达
突破
科学家
空气调节
货车
平等权利
格林纳丁斯
着眼于
CE
裁@@
268
第二份
型@@
真诚
弃
工程质量
285
善政
耗
人孔
评审
车轮
入学率
碱@@
财产权
阿拉伯文
座@@
斯特@@
出口处
案@@
炎
车厢
H8@@
9.5
0.10
束
舰
氢化
平稳
07@@
1976
齿
系指
右
坚固
234
关岛
前任
劳动合同
守
㈣
冷器
本章
再度
禁令
航天器
审定
感到遗憾
包容
建成
194
......
锁@@
不可避免
红十字会
卸@@
互助
责
女工
涂抹
处理量
非标
封堵
沉积物
末@@
统一@@
短时间
养老金
民航
吸收塔
电磁@@
国际金融
庭@@
第二十三届
接待
装修
76@@
承包合同
检索
衣@@
调查@@
不满
MW
以使
覆盖层
旅@@
可是
全面@@
技术标准
品@@
立方分米
拔@@
凹@@
驱@@
侧重
内政部
eg@@
电容
EN@@
薄@@
灌溉
形态
屑
几种
6kV
制度化
高强度
馏分
50x@@
测量@@
迹
原始数据
290
深化
尘
焊道
意思
LS
使用权
身心
闭幕
注意力
以为
留有
社@@
老龄化
以致
穿@@
违法
那种
迪
酸性
de@@
堂
供水管
187
理事
奉行
公共秩序
易于
诉诸
焊丝
炮@@
乡村
病例
受益者
刊
灵
顾客
额定值
接点
黑
实务
洪水
忽略
工件
范@@
执@@
纳若尔
构@@
监测@@
292
粉砂
推出
增加@@
密封圈
DN150
犯罪者
钢丝
之类
登记@@
范例
贵@@
兆瓦
吸入
晶@@
不限
分部
相等
291
COP@@
厂内
每隔
频繁
不合理
毡
十四届
Sh@@
春季
道@@
路肩
Ð
出入
旧@@
232
垫圈
RF
管理工作
阵
土族
客运
围栏
发展局
跳@@
铸@@
明白
撤@@
基督
核能
那个
2301
冻土
失望
性虐待
加紧
108m3
af@@
九条
338
345
校正
重型
朝@@
轮胎
涂刷
谈@@
服务质量
社团
悬臂
残余
各项措施
亚的斯亚贝巴
但@@
峰
淡水
1220
齐
直流电
ia
00000000@@
后代
圣灵
出席会议
年龄组
[
解散
电力@@
确信
悲剧
召@@
包商
阀件
回复
金属表面
付给
结构@@
224
斯诺达尔
摄像头
塞浦路斯共和国
乃是
设定值
返@@
第七十@@
伯
广
小计
表示满意
第八@@
土方工程
碳素钢
kVA
帐目
效能
路堤
端面
客
⑵
混合@@
过高
IDB.@@
辅@@
作证
荒@@
发生冲突
跟
损@@
继续加强
幅
卸
贫液
急需
国民经济
育@@
恐怖活动
剧@@
廊
消火栓
310
远东
金属结构
曼谷
上下
停火协定
上游
螺柱
液面
厚@@
迫切
弗@@
热收缩
赛@@
″
麦@@
战略规划
水压
多万
高层
恐惧
交易所
技术支持
创造性
碎@@
武@@
努@@
吊架
对焊
公开招标
吸收@@
路径
保险合同
驱
英
列明
中转
砂浆
出色
毗邻
延续
压路机
商业性
读@@
88@@
残渣
宁
财@@
永@@
福利金
密切联系
取出
指挥系统
东北
标准@@
第三章
欧
us@@
埋设
会议纪要
执法人员
AR@@
存货
蒙
摄氏度
4x@@
介入
遭遇
右侧
主机
女子
解放
作好
钠
个案
杂@@
版@@
宣读
燃油
ib@@
KW
和谐
年满
分娩
指责
司法程序
值班员
丙@@
役
2.04
红十字国际委员会
执照
深表
试验报告
菲@@
陶@@
记得
6.6
硬质
齿@@
第二十届
消防@@
配额
候@@
底层
电气化
闭
律师协会
仆人
宪法法院
216
缘
奖@@
缺口
第三款
积雪
第八
泽@@
龙
坐@@
项中
野@@
监核
兽
矿业
95@@
188
世界粮食计划署
甲基
井下
63@@
市场经济
27.@@
地理信息系统
呼吸
桌@@
计算方法
分在
怕
第二节
南共体
司法机关
控制点
多么
肇事者
1244
塔顶
精矿
氩气
邮政
占领军
刚才
人员@@
签
进而
递@@
劳务
凯@@
800@@
油层
放入
优秀
未决
塔底
方括号
电视@@
序@@
305
刚@@
还会
一句
]
战斗@@
前应
卡拉@@
隔热
开车
康@@
习
行业标准
给水管
交换意见
目前为止
降压
地震烈度
托盘
沉重
电磁
诉@@
自然环境
浇注
坚硬
展
报复
反应炉
纯@@
汇总表
内在
发送给
文件@@
实习
装饰
支护
福克兰群岛
焚烧
30.@@
10.0
IX
孤儿
胺液
85%
夫人
远景
PVC
芯@@
艰苦
上半年
II@@
亚人
空压机
爆
概要
建筑设计
址
陆军
曲@@
免
五条
种子
矿井
剥离
排放物
池@@
双边@@
发射@@
实际@@
会计师
闭合
听到
陈@@
房地产
振
0.35
复合@@
战略武器
导弹
部落
教育权
追究
播放
攸关
智慧
耐火等级
编入
截@@
统@@
西班牙文
陆
三年期
发货
仅为
哪@@
转账
在外
晋升
总和
贸易协定
其他费用
银
机密
衣
050
60.30
格栅
扬@@
弧焊
AK@@
第六次
ek@@
文章
进线
局限于
丹
6000
工程建设
休会
金融市场
树脂
261
契约
觉
纸浆
道理
供其
左
小册子
闪蒸
配电站
Tr@@
12.2
往@@
Al
得知
中请
领导@@
银行@@
水流量
气流
吸烟
支票
污
宫
增添
网络@@
1969
衬里
之害
图位
第四十六届
无数
竖向
热炉
78@@
标出
010
村@@
船员
源于
公司@@
父
批次
避@@
房地
名字
全年
代表作
西非国家
地质勘探
CRP.@@
凭
抬@@
委托方
沉陷
料斗
劳动者
掩@@
坡@@
这部分
分析表明
工程@@
溶@@
龄
氯@@
价值观念
成长
剩下
总协定
大致
宁@@
捕@@
加压
风化
残留
勤@@
合资
非法行为
内战
打破
灯光
折
425
850
喷射
时为
专长
数据表
Cl@@
月初
实力
5000
一再
二层
伟大
企业主
论@@
日后
一新
人群
简介
脉
1301
历史@@
RA@@
春@@
院校
细胞
右@@
平方公里
农场
肤色
高炉
旋风
卵石
设计标准
图见
账
机密信息
多余
否决权
1390
1966
刚刚
避孕
垄断
312
接种
003
闭锁
操作规程
借鉴
巡@@
第十二届
2.9
细菌
阻
保修
桥@@
桑@@
176
太阳能
教材
其所
录
智@@
十一
出身
决@@
5mm
宿舍
怀@@
地面站
10000
紫外线
文学
乙二醇
停机
施
经销商
品质
改良
分阶段
协
含水
杯
试剂
每一项
AB@@
翼
无误
植@@
某@@
缩@@
镇压
恢复性
减量
互相
1501
不必要
奴役
下令
牙@@
1.10
波纹管
工作服
推定
隐@@
习惯法
拉姆
CRC
276
6.8
监护人
遍
亡
它@@
就业@@
穿孔
花岗岩
羊@@
美属
警察局
率为
搅拌器
试
振@@
备品备件
单套
娱乐
125@@
祭
团伙
受损
融@@
零下
吸
oc@@
介绍性
事务所
气压
预应力
55%
抵触
电工
监护
时机
受伤害
斯卡亚
石油化工
随附
管理信息系统
生物武器
可望
黄金
1950
积极@@
通货膨胀率
干熄焦
脚手架
播@@
SC@@
饮食
紧急@@
缩减
焦点
2m
徒
诸@@
最大值
泰
值得注意
祖@@
除锈
定期检查
老人
公正性
公职人员
医务人员
合作项目
氦
百分@@
内应
受害国
忧虑
通径
建筑@@
师@@
承包人
静态
兵种
410
前所未有
2100
绕@@
固
贝加尔
柔性
依托
民法典
调集
防卫
115@@
SBI
达喀尔
严重威胁
油箱
全俄
能源@@
塑料@@
付出
dB
收购
既然
采气
经济合作与发展组织
金融服务
外墙
处分
渗透率
瓦努阿图
戈
加注
照会
贿赂
轻烃
CN@@
厂商
两套
尝试
损失赔偿
饲料
第二十六条
不安
载明
负面
联席会议
玻璃@@
出线
透露
刚
锥@@
农
民间团体
针
钢制成
中国政府
灰尘
160@@
950
然@@
地下@@
妇女@@
1700
99.@@
控诉
过热
不可或缺
径流
可怕
联合国粮食及农业组织
Pa
接线盒
藉
中以
PI@@
墨西哥政府
记录@@
言论
八条
总工程师
变频器
缠绕
第@@
307
退休金
荣幸
摩@@
褐色
258
答辩
495
被控
或非
影响力
第四章
DN25
泛@@
砂砾
第二期
文档
号井
技合
国会
茨@@
亲自
枚
换热
热轧
水面
密切相关
评
孔隙率
加拿大政府
锤
第三节
可达
款中
电气@@
刷@@
国情
仓储
E3
屈服
总督
分级
草拟
最长
深加工
际
农发
RT@@
一本
各段
教廷
定性
未曾
水解
联合@@
仲裁庭
极其重要
相关者
专业化
回流
C2
安圭拉
Al@@
设防
抵销
O2
呈现
饱和度
镇@@
制冷
知@@
偿债
马德里
为限
四川
刻@@
269
瞬@@
十分@@
很小
施加压力
访
耐
涉@@
215
可予
测试@@
不能@@
Nm3
栏@@
院@@
453
两天
严重@@
下层
抢劫
砂石
艇
漂@@
投诉
香港
品位
俄罗斯@@
撬
簿
重大贡献
大国
AI
赤@@
耗量
乐@@
牧@@
249
本质
横截面
管内
万元
1.0@@
贸易谈判
研磨
和平谈判
反倾销
社会工作者
覆@@
起诉书
筑
章@@
器官
连贯
毫无
13130
切合实际
墩
腹@@
制造@@
竖@@
微米
UN
矿层
口井
石油气
大卫
普斯卡
潜水
第十二条
鞋业
劝@@
试采
名誉
幼@@
经社
AL@@
辛@@
无力
340
波利萨
加热炉
临@@
ICCD
足@@
链@@
上限
偿付
压差
第七
梅托
触发
交由
熄
一边
例外情况
集会
星@@
污@@
一体
致命
伴@@
腐@@
生产性
夫斯
粉末
气阀
氢@@
灯泡
中线
337
嫌疑人
水道
泄@@
q
住宿
届满
联安
602
冗余
询价
投资人
电解@@
研@@
无线电通信
都市
Ѵ
民用航空
离散
五周年
上市
技术参数
电子对抗
升降
精力
港@@
民族@@
247
贝鲁特
应向
塞尔维亚共和国
种@@
弱势群体
9.4
508
一回
犯罪@@
早先
150mm
or
楼@@
GB500@@
防火@@
引线
统治
详细情况
棱@@
顿@@
余量
补偿金
＝
迎@@
摊@@
____________
施工单位
气液
弗
暂定
介@@
0.95
使团
照管
220kV
发电量
俄联邦
哪个
核爆炸
拯救
多边合作
立面
成套设备
一致同意
酒精
磷@@
却是
PN1.6
信念
急救
密集
ov
谨向
巴特
信息网
速率
时说
高处
SR@@
智力
PRST
创业
ER
摄像机
标段
典
扣@@
本色
红色
几天
栅
危
探井
救灾
机能
沿岸
F200
29.@@
努力实现
总之
联机
害怕
高效率
深入@@
煤气管道
竞争性
令人不安
SC
B1
负有责任
要么
磁漆
F3
丧生
隔板
全权代表
富
塔吉克斯坦共和国
绞车
格局
吊
侵权行为
投运
贸易@@
商品@@
桥墩
尾气
军用飞机
极少
00.@@
IM@@
指示器
觉得
刑警
低压配电
表示遗憾
4000
CPE
南非洲
肉@@
舱@@
无视
钻井队
过渡政府
桁架
光电
代表大会
调查员
绝缘子
爆破
高达
粒@@
糖@@
隔热层
历来
以色列政府
284
较差
差压
繁重
DN200
概@@
东京
化学成分
构建
un
协力
迫害
速器
ar
角钢
密封面
自由@@
域
挖土
工商
图标
保温材料
立面图
丅
军事装备
正当@@
合作@@
流速
英镑
79@@
已婚
铬
砍伐
母
三十
流失
年版
便携式
现任
京@@
智
挂钩
2200
石灰
原子
式@@
昂
重力
采石场
渥太华
kN
被占领土
惠
野外
阶@@
线桥
灌浆
开展业务
除尘器
84@@
频@@
仪式
表示同意
交换机
鱼@@
单相
某人
AT
降水
特委会
减至
十个
小国
顶板
bar
航空@@
旨
降水量
疗法
否
该区
景@@
轴流
至多
误
栏杆
74@@
污泥
面漆
海洋@@
INF.@@
雾
EM@@
常用
废止
最低工资
箭头
机油
热工
¦
环境卫生
可信
263
致函
产层
测绘
006
德国马克
值为
金刚石
重新安排
接地线
头部
视委
家中
凝液
搬运
缝隙
公用事业
暴
动乱
颈
宿@@
咨询机构
约瑟
45.@@
空气压缩机
传染
地名
泽
二十
CP.4
收货人
第一项
排污管
IS
012
调度员
同居
经由
高等
气象@@
耶和华
gt
教育领域
河水
解体
总值
供水系统
140@@
本规程
枪
各省
man
零售
关键因素
人民币
围
利用率
sk@@
le@@
68@@
休假
第二年
研讨
砾岩
扭曲
烈度
机泵
夺@@
旁通
真
108@@
az@@
不让
升压
排空
后备
建筑施工
逍遥法外
免税
端部
Add.5
196
3mm
浮选
殿
柏林
多方
卫生设施
来到
边境地区
自由贸易
商店
整理
合格证书
电视台
7.0
秋季
付费
全长
硅棒
增值
全力
身份证
匹配
设计@@
发展部
前途
cm3
杂物
第六@@
联合行动
松开
征地
书面@@
SYMBOL@@
面谈
剂量
贸
转为
减排
开辟
作业区
叛@@
发病率
户外
反对派
э
晚@@
参议院
下跌
kh@@
拉特
绳索
划定
汇集
1106
公然
湖区
本协定
中央@@
下水道
栅@@
查看
津
ch
重新考虑
271
卡尔
不想
千帕
额定功率
员@@
男女@@
书籍
堵@@
势力
晚些时候
机器人
炼@@
跑
1102
管理层
空军
过载
停电
始@@
各种各样
CN.@@
Nm
咖啡
万立方米
借助于
凝析气
AM@@
强行
he@@
男
联格
地理位置
剥@@
流动性
非洲@@
论文
抱
若干@@
帐@@
邻近
叛乱
卷入
AS
启用
交通事故
商品价格
Cl
资本@@
粉碎
缝@@
交往
过大
奥尔@@
es
这件
镶@@
262
体育@@
得益于
营销
学术界
遍@@
每届
刹车
出差
相位
基础教育
季节性
广告@@
林木
核武库
承运人
学前教育
这段
工作岗位
SD@@
卖
记载
鉴@@
障
贬值
保守
乘以
不顾
伤残
积极行动
宪兵
安全区
iy@@
宾
椭圆形
3000@@
数字@@
盛@@
女鞋
扬程
AD
第七@@
救助
760
火车
而成
8.7
盆地
归因于
创造条件
坚@@
经济危机
干部
惊@@
谋生
管接头
一倍
吨@@
标的
袋@@
结社自由
干式
输送@@
圆满@@
336
学位
珊瑚礁
滤芯
升降机
高位
夏@@
伊科
以防
革@@
九个
持久性
CC@@
每人
联系国
530
易燃易爆
电子战
奖学金
搜查
误@@
其为
父@@
PL@@
HR@@
人行道
自杀
坦克
过来
印象
感激
十二
基建
251
涨
ml
10704
开立
干燥@@
数据传输
调控
延米
图片
项目@@
票@@
似
犹太人
氯气
25mm
毕业
立法机构
日止
34.@@
列克
淡@@
安全部队
责令
纠宾
反复
火车站
保护套
晶体
加勒比地区
竞标
同期
示例
白云石
沙土
膨胀@@
卢
日本政府
距@@
药剂
sect@@
球罐
感应
信件
固定@@
各个领域
结构件
大会决议
捐@@
明确指出
砼
一般来说
英尺
功能@@
回归
斟酌
出租
审计报告
偷运
泡沫塑料
党派
收件人
望@@
财务管理
理事国
地为
半成品
ev@@
中间@@
先知
涅
各处
海运
碳氢化合物
TB@@
罐中
440
3500
惠益
平方@@
运至
加班
些@@
筛@@
烟雾
监事
挡@@
割
421443.032
音
关系@@
扩充
出口商
7.7
每套
两倍
校长
略有
箱内
轨@@
第九@@
第一节
所处
规律
马上
犹太
失
凭@@
教育法
致力
专业知识
左侧
露@@
尾矿
229
at
ah@@
雷斯
拿出
肩@@
管汇
丽@@
固态
管理员
轮换
高中
高峰
树立
处长
服务中心
回合
温度计
科学院
洁
英寸
理念
才@@
坦桑尼亚
参看
30mm
努
A2
店
本专题
造福
途
供电系统
令人担忧
机械@@
冷却液
按本
缩
Ö
零位
变配电
礼
结清
档案@@
列表
化验
任一
266
恐@@
如上所述
平等待遇
亲
CN.7
外界
EN
兼@@
住宅区
冒@@
公益
不如
手套
指望
现阶段
整
今日
税费
报销
儿@@
楔形
柜内
铵
震@@
已建
浅
生活@@
念
工作面
眼前
解放@@
自力更生
ig@@
应予以
批发
侦@@
容@@
CE@@
赐给
混
卸载
连接件
鸟
希亚
研究@@
刀@@
读者
20m
全体成员
锚@@
至迟
湖泊
35%
杜
经济指标
平均气温
华@@
发布@@
送回
联络点
航天局
不致
拘禁
500mm
敌对
腰@@
附加费
兆@@
连接线
操作台
拆
给水泵
10.4
情报@@
阿拉伯@@
报警装置
避雷
悲惨
冷水
察@@
护士
民间组织
插头
固化
315
暴力事件
第四十七届
180@@
KO@@
通讯@@
出示
1961
特区
逗留
小组会议
报废
垫板
破
阿特
水压试验
ter@@
综合楼
焹
惰性气体
围护结构
近来
熔化
电弧焊
交接点
分工
te@@
元首
试验性
物件
甚
弦
法郎
某种程度
彼得
配电柜
Ь
286
图瓦卢
浓缩
OG
见证
听证会
委@@
有效率
宫@@
党@@
扣减
结构设计
内务部
SS@@
餐厅
含油
消耗性
网页
医药
刮@@
追回
本手册
油脂
一辆
吃@@
每项
228
1960
渗@@
毫@@
大有
重心
中小学
防火门
专用@@
势@@
羁押
食品安全
蓄@@
估值
涉
吊装
绝热
患
受到限制
中等教育
不迟于
西北
联接
第一类
疑@@
相对湿度
渡@@
tr@@
电线杆
无线电台
建筑面积
分贝
第一期
划线
民政
....
7.8
亦@@
妇人
悬浮物
动器
元@@
无缝
平坦
不良影响
降至
但须
旋
仲裁员
信道
渗漏
东南欧
模@@
分裂
领事
图上
AC.105
合办
架构
责任制
lt
根本@@
夜间
镀@@
尖@@
十五
计划@@
水源地
三天
CNPCI
257
美化
辐射@@
5.8
充电
旁@@
中为
避开
锡
乱@@
死者
验@@
8.8
奖金
中立
里克
无形资产
学家
程序性
威慑
北美
之处
XV@@
淹没
烘干
有序
构成威胁
朗
卸货
旱@@
雇佣
动植物
聘
485
基底
运费
配管
以色列国防军
一座
原厂
破产法
医疗@@
给定
借
受力
不结盟
323
原告
改正
试运
修补
狭@@
喀@@
专题@@
申请者
配线
控制中心
真诚地
终
GC.@@
扣款
差价
扶贫
运出
剂@@
104@@
制剂
归类
减速器
一个@@
当天
F1
钻杆
脸@@
好像
各点
层位
辅助生产
机具
口头报告
待命
TDS
CR@@
第二十二届
岩性
抑@@
到底
成本@@
318
就近
此案
服装
公路运输
符合标准
可赔
迁
患@@
筛
第四个
极化
讲习会
公园
架上
核设施
诚@@
都@@
马克
胜利
工种
四分之一
法医
英联邦
第二类
end@@
流产
整合
人民@@
熄焦
拥挤
π
ka
8.9
在此期间
童
参考资料
大大提高
已获
红新月会
保卫
40mm
021
363
何时
首
疏@@
空气@@
两届
罢工
欺@@
金斯克
流出
＜
挡板
图示
苏
警戒
预备@@
画
固体废物
平衡表
生产线
之地
焦室
双向
防火墙
RTU
卡斯
截面积
新闻处
防静电
绝
姓
纲
红
第十三届
气站
几位
跟@@
弱势
¶
杰
幼儿园
吸尘
阴
硫化物
怎么
呼
浓@@
巨大@@
亚太
柜子
珠宝
苏维埃
总体@@
诚意
沿海地区
非传统
加油
拒@@
向上
母公司
加速度
冷凝器
湿气
该款
队@@
萨赫勒
叶
牢@@
多层
自由选择
沼泽
会议@@
´
231
生命@@
决议案
ã
十二@@
毕业生
饰
赞@@
行为人
盒@@
促@@
累@@
初等教育
820
密切@@
谈论
砟
弹@@
小节
效率高
迁@@
需用
目视
败
原文
326
米尔
曼@@
1503
中心线
48.@@
RO@@
酮
TE@@
硝酸盐
轮流
12.3
破损
重物
分之一
非军事区
胜@@
毫不
迦@@
逃离
自营
我愿
住宅楼
配对法
501
愿@@
十大
份@@
外皮
以求
应享
请愿
埃厄
透
条形
场合
空管
ce
坡道
巴尔干
立方厘米
生物资源
自有
劳动量
这时
双头
根本原因
孔板
................@@
详述
建安
自动开关
还原炉
套筒
中心@@
激发
第四纪
早些时候
此基础
夹杂
单身
座位
全盘
滤
南太平洋
岸@@
凝结
杰出
弹头
工商@@
A1
不同于
森林资源
电厂
汞
乔@@
林地
掠夺
AC
瓷砖
利害关系
多元化
偏心
正本
国家主权
怒
显
账款
五项
和表
折扣
割@@
质量指标
50m
科研@@
专委
应适当
心理@@
飓风
起初
356
未付
乡@@
洲
火花
风量
衬@@
底物
详细资料
常数
中国@@
贫困@@
麦捷
国家级
欣@@
全球@@
热源
同情
预料
落后
商标
交易@@
井中
锚
冻
纸板
最易
责任@@
最少
的@@
互利
DS@@
水利
关键@@
菜单
上述情况
疗@@
打印机
氟@@
屏幕
2mm
课题
汲取
到位
DS
打磨
外交政策
斯坦
举报
严重性
技巧
烃类
12%
无国籍
活门
数个
练
阿拉伯人
粉@@
进修
第六十@@
C1
信用
法律咨询
游客
移送
视图
PN16
气门
商讨
戈尔斯
根据上述
词语
半数
20x@@
锈
N2
涂装
前线
税额
多种@@
275
视察员
实用
B型
保温管
661
楼房
先例
总裁
ё
半自动
机务段
制动器
换言之
惜
空间科学
FI@@
占领国
植
受让人
优先权
肘
税法
塌
见到
易爆
能源部
应以
反洗钱
三聚氰胺
专业@@
诊
街@@
1.45
校验
塑@@
252
丘@@
6m
归入
私法
砌体
007
注册@@
us
KZ@@
溢出
乌兹别克斯坦共和国
本信
布尔
迈@@
敬@@
电缆线
成因
镜
连接点
出租人
有机@@
氧化物
押@@
am
车臣
已作
况
水泥浆
呼吸@@
水平面
竞选
3.05
av@@
准军事
L.4
皇家
情事
拼@@
综@@
童@@
Kar@@
日于
块@@
董事长
热水器
æ
概率
两周
256
填方
第十九届
槽@@
气缸
ILB@@
钢级
运到
腿
玻璃钢
审计@@
牵@@
统计表
中所作
字样
空前
三角洲
乙烯
正常化
另行
螺@@
中空玻璃
出台
部委
伪造
H812
印刷@@
货物运输
调解人
审慎
触电
线段
杂费
荣誉
履@@
消费品
定子
专门@@
裂
缴@@
ї
资源分配
遇@@
锯材
意见@@
技术培训
逃
操作室
海湾
INF
抵抗
耐候
户主
第十次
帐单
废弃
强加
心里
车行道
国有企业
lin@@
幕
否定
保育
力度
503
肉类
乡
KS
勾@@
基加利
外汇@@
便是
负责管理
开关柜
外运
图集
立刻
通行证
倍@@
改革方案
此前
退回
426
游离
登记表
力图
煤炭
组态
54@@
1203
工艺@@
谋
断定
520
中是
矩阵
各不相同
忙
优先@@
欧姆
辩@@
诉人
有机物
泛
兑换
台阶
ρ
核心@@
农作物
壁垒
提高效率
益@@
沃尔@@
自主权
吸引力
空气污染
402
饮料
眼睛
逆
世界市场
补强
504
发生@@
一块
同行
巴塞尔
谱
稠度
组织法
合法权利
610
ind@@
查出
基石
预付
放射
编队
表示@@
异型
统
炭@@
尤为
约翰
研究生
卖@@
10mm
劳力
概括
螺旋@@
萨马拉州
弱点
230@@
函件
曾@@
厕所
2.11
生存能力
百慕大
民盟
航空航天
拒绝接受
规@@
索偿
律
行程
包裹
顾@@
her@@
限制器
公私
天主教
储气库
特许权
妥
隆@@
塑
来信
伸缩缝
航道
等离子
前提条件
综述
陶瓷
件@@
标的物
509
感觉
异径管
单项
刻度
铲@@
意识形态
农业@@
动力@@
塔姆
注意事项
骨
台湾
裁
反驳
耗费
带电
0.45
2.03
象@@
获释
较少
反导
宇@@
L.7
一式两份
定员
8mm
女儿墙
贫民窟
钚
同侪
虚@@
塌@@
隆
穷@@
停车位
愈@@
提供者
夺
判
培训中心
烈
同位素
光谱
乎
杂
有所改善
访@@
¼
普遍认为
从来
452
同日
照明灯
蓝@@
疏散出口
朝向
出生@@
驶@@
稍
实施@@
通信@@
癌
质量标准
保护环境
革
府
电涌
胶粘剂
all@@
军备竞赛
敦
工业区
高空
ect@@
兼容
熟@@
采暖系统
全人类
帽
虑
KT
UNEP
城乡
凝
匮乏
G1
NPT
里亚
劳工@@
中油
气举
门窗
宗教@@
彩@@
团队
因数
放下
闲@@
致意
加班费
所获
种族隔离
密封胶
碰撞
调查团
衡
佳
砌块
一般而言
转角
引爆
假期
运载工具
人员培训
生活费
积压
组别
危@@
淋@@
产权
作用力
运抵
频谱
麦
散装
酒@@
382
005
V2
浸
赶@@
浅@@
奶@@
复印
气态
灌木
国际收支
3.9
供应@@
定居者
托架
桑
非洲地区
0.02
潜艇
立体
卫生防疫
替代性
作业@@
长期以来
轻质
五次
禁试
百分点
锯@@
加强@@
担@@
幼儿
URL
扭矩
联大
过错
款人
延
中级
矿产资源
2A
群众
1955
该科
衡@@
应得
文第
酸洗
专利@@
60.@@
要件
电讯
盖子
牢
完全@@
服兵役
低价
预报
雷电
文凭
入帐
罗夫
钢索
非营利
编制工作
终端@@
良心
应能
衬砌
改装
海绵
水利枢纽
焦化
献
询
环发
深处
务必
Ex@@
失误
减让
借贷
WP@@
21@@
不罚
下沉
来讲
希
酯
173@@
_______
暗示
FT
挖出
刑@@
撰写
立法机关
浮
药皮
外籍
东欧国家
号码
搬迁
人员编制
额为
______________
抹@@
30m
简明
当量
N1
补偿器
榜样
架设
识字
排水管道
建筑设施
忘记
级配
TS
WG@@
衰@@
1267
PA
½
过多
拘押
帮@@
广播@@
搅拌机
中等@@
紧急状况
密克罗尼西亚联邦
98@@
尸体
坑@@
余地
通量
Sch@@
满足@@
事务局
首相
瓦斯
订于
草原
全会
880
拉力
列宁格勒
上网
辖区
寒
管式
安第斯
原定
疫@@
游说
脱除
血统
战略@@
使馆
空间@@
围护
服役
加入书
菲
隔开
学费
表达@@
促
周转
国民@@
地级市
名叫
克什米尔
277
检察
α
线上
瑙鲁
不带
石头
像@@
二氧化@@
一代
如上
充实
力学性能
D1
CCPR
骨料
00x@@
纪要
耳@@
灌注
设计阶段
差动
所罗门群岛
岛@@
倾倒
560
响
议
工业生产
旁边
ob@@
战俘
蒸@@
欧洲理事会
石膏
ј
注视
回填土
责任人
耐压
粗糙度
指导@@
接线箱
第比利斯
野生
开孔
栖@@
区域@@
慢@@
运往
勃@@
185@@
IDB.26
颗
战胜
下级
塔斯
输气管
面值
头上
109@@
W4
纯粹
宣@@
紧急行动
态@@
农业部门
L.19
第一百@@
掌@@
加药
反渗透
疫
互补性
分将
多达
与非
8.6
取缔
一向
攻@@
密闭
钻进
水层
协调@@
拉斯
19.2
0.1%
井身
细目
暴露
COM@@
前期
昆@@
祖国
养费
指挥机构
1402
鲜@@
参加国
CP.7
240@@
丆
2030
摇@@
法律依据
光源
复垦
栈桥
全线
余压
288
镍
NA@@
高加索
毫无@@
砾
脑@@
用水量
库克群岛
σ
描@@
温暖
Mar@@
污物
信号灯
困@@
筑@@
全境
Я
新闻媒体
加共体
sp@@
陷
投票@@
脏
大家庭
教徒
中均
泡
辅导
叶片
过失
风险管理
天花板
耳
贸易中心
派别
保修期
差值
预热器
两国@@
R1
绢
AN
质粒
og@@
2300
开放@@
四次
吉尔吉斯斯坦共和国
鼓@@
空袭
Í
max
EL
Sam@@
迅@@
晚上
束@@
溢流
上校
骨@@
检疫
再循环
前端
预案
枪@@
马拉
答
拨给
5m
瓶@@
和善
驾驶室
词汇
走访
隐患
配线架
污染源
DI
保证@@
决不能
剪切
矿体
无功
维亚
残酷
积层
武装集团
所长
流器
计划表
395
棉
压力计
城市化
军用
选矿厂
演习
反向
第三阶段
大使馆
进来
1103
黑人
服从
及第
竭尽全力
阅
科威特政府
签定
贫胺
台上
总则
或作
报警信号
防护用品
VA
教育部门
NA
面上
破碎机
价款
巴拉
105%
mol
产业@@
以下内容
航
绕行
挫折
居住区
遵约
各项政策
连接器
涨@@
绞@@
男童
离心@@
释
取水
防爆型
著名
遗传
防尘
体制改革
平均数
奉@@
丛@@
焊件
开除
伍@@
辞
脱乙烷
C30
试验@@
子孙
育
动火
怀
迟
美洲@@
亚太地区
植物@@
周期性
趋@@
内为
弧@@
能效
不容
薪资
国际性
降到
十分重视
非常任
人命
液硫@@
橡胶@@
281
里夫
旧版
纤维素
渴望
烟草
阴极
129@@
市区
三类
K1
专属经济区
土地@@
该所
日程
哥
美容
放样
审案
不好
休闲
ol
肆@@
安哥拉政府
河滩地
学者
二人
作品
提法
连杆
精算
第十条
寿@@
两人
RES
退
载重量
性健康
继续下去
喝
承办
时才
6mm
滑
圆钢
吩咐
第四十二届
史@@
随意
兰政府
SO@@
未予
Î
果断
报关
1202
地理@@
逼@@
加气
所能
洞口
情况@@
离心泵
沟渠
31.@@
pH
CF@@
答@@
人次
各人
斯塔@@
预算内
加以@@
结核病
灵敏度
分割
C0
合同@@
患有
巴斯
对准
鼓泡
考绩
357
行进
挖土机
承载
不可逆转
sh@@
轰炸
检测@@
荷兰政府
感到高兴
霍尔果斯
递延
5781
胶粘带
DN15
伍
25.@@
and
摘@@
参与@@
渔业@@
多功能
受欢迎
残
珍@@
一部
炉膛
规划@@
被判
商会
船上
印度尼西亚政府
高度重视
390
买卖
扩张
但应
方形
遣
戴@@
摄影
井底
美好
资源@@
候
律法
安全壳
尊@@
石灰岩
第十三条
IA
锡@@
集器
勇@@
适用法律
转达
毫升
狂@@
热情
低成本
消费量
接触器
问卷
_________
旅游@@
一经
第二十七届
松散
族@@
https
准入
积极支持
第一百
控制棒
山脉
su@@
电阻率
韩国
01.@@
拱@@
有益于
WP.@@
弟兄
宾@@
低合金钢
265
高昂
贸@@
执
假如
公司法
金钱
创新性
竞赛
服务站
火山@@
油料
反叛
鼻@@
身心健康
伦理
大胆
国防军
0855
额定电流
喷砂
射孔
汤加
反洗
男女之间
时数
铝合金
记住
晶
千伏安
公差
粘胶
硝@@
刚度
该股
4.13130
六种
08.00
情节
敬意
易受
相互尊重
以利
受雇
功@@
伊斯坦布尔
浴
儿童@@
抵
即便
中性
保险公司
百名
资料@@
Ar@@
业经
屏@@
燃烧@@
遥@@
美丽
荒漠
0.2%
合闸
所行
杀菌
识字率
载运
中央政府
明智
阵地
戒@@
突击
319
010@@
航空公司
使人
精馏塔
迁徙
符合条件
婴
公共汽车
491
隔间
携手
一日
金矿
纯度
ICEF
亚共和国
睦@@
AB
隔
景观
融
432
发包人
365
交流@@
公路@@
有时候
损毁
喜欢
接至
海盗
据估计
斯科
例行
伐@@
KC
冲积
内载
半年
圣彼得堡
力学
多人
运输费
一整套
猪
接下来
政令
继电保护
庇护所
通信网
边际
Ó
大会堂
访谈
糖
开端
贮
军事院校
维尔
і
行星
发出通知
备案
压井
氮@@
果
久@@
稳步
L.8
钢轨
if@@
转到
梦@@
马拉@@
45%
双边协定
流经
联营
重整
进去
向本
1945
技@@
款下
TP@@
灰岩
255
两大
戏@@
验
题
外面
ass@@
母语
宿
反垄断
辅助@@
中旬
健@@
重油
3.01
行走
浓
开具
遗弃
航运
锚栓
道路交通
古伊
提具
图例
听见
274
工业部
工业部门
比值
洋@@
水电
承力
桩基
野
规章制度
公吨
刑事犯罪
决策@@
基数
支持@@
空白
阀座
518
磨机
演练
夹芯板
喀布尔
这会
特别强调
5.00
氏
套损
IN
序
∅
回避
漆@@
泄
人均收入
1A
一栏
非暴力
裁判
变速箱
收支
劳工法
七年
物理学
疏忽
东南
预支
口粮
下陷
块状
气孔
FV@@
揭露
所知
分立
制取
IEC
抗渗
服务业
升至
策划
6.10
经合
培@@
超长
XV
局限
放宽
表面@@
万维网
TC@@
社会群体
南区
生物质
坚实
汽机
黄色
看守
家务
人民政府
ppm
Pro@@
型钢
2202
需在
虚拟
属性
布拉克
二氧化硫
机动车辆
da
饭
TS@@
滑油
能耗
态势
383
串
领导层
解除合同
生活水准
101.325
车辆@@
突
ub@@
符合@@
法兰@@
is
刺@@
1m
油库
有色金属
症状
转帐
现金流量
认
老化
召
推翻
─
统计局
缓和
津@@
斯克@@
生产工艺
操作系统
停产
锭
找@@
垫@@
963
问责
标牌
排料
分隔
1.13130
决算
模块化
瘤
施工工艺
骑@@
自律
现存
边防
620
为数
电力供应
组和
棚@@
培育
萨曼杰
开发银行
山地
沸腾
海拔
敌意
艺术@@
铺板
接受@@
通过培训
垃圾@@
飞行员
列国
失业者
海报
预警系统
279
体面
结冰
酬金
年鉴
11.2
充气
裁研
请求书
嫌疑
彼@@
缆
收缴
气点
一只
估@@
复制件
圣彼得堡市
溢@@
水准
五十
进风
战役
阿拉伯语
1.05
297
运营商
色谱
要项
水气
硫酸@@
摄@@
采访
德尔
不懈努力
奴隶
272
模量
1104
避难
435
云@@
欠缺
只会
售
进厂
流水线
国产
每层
粘性
扶养
多元
ISO@@
梯度
障碍物
行为准则
QC
偏低
戈兰
精神药物
上届
项目部
接触面
预算@@
捷克
意向
拒
２
突发
500kV
临时性
1250
纪@@
男生
戴
600mm
成形
乌拉尔河
南美洲
EC@@
起因
1160
607
电量
534
川
3.02
清扫
有所@@
DA@@
挪@@
说话
车库
进场
毛
赢得
1.35
简短
圈闭
HV@@
em@@
DE@@
比赛
裂解
芬@@
占地
语音
408
293
16%
侨民
克拉斯诺亚尔斯克
布线
裔
冷冻
结成
不均
卜@@
上报
下落
喷嘴
印章
盐酸
争辩
AP
兴起
地表水
国为
控制措施
善意
无法控制
实况
肺结核
283
282
译员
数次
△
筹委会
安全法
校舍
递
339
书目
受检
1941
着陆
污油
翼@@
最起码
济@@
L.2
电弧
广义
溶
盈余
TC
317
应税
289
消防站
输油管
三位
第三十七届
单台
同盟
牢房
痕迹
折算
730
厨房
爱国
命@@
滞@@
Triazavirin
极端主义
11.3
悬而未决
共同利益
儿女
戈尔
沟槽
遵行
滑动
堵
井眼
3.10
扬声器
意大利政府
640
行人
催@@
托管
of@@
详@@
矿脉
浸渍
培训@@
资质
所设
1946
挂@@
建筑业
拉紧
有效@@
抽出
风门
回炉
Mo@@
端口
旗
列示
串@@
加装
是@@
园@@
迈进
漫长
旅客
频道
画面
按下
墙上
独立宣言
格拉
杂项收入
371
ex@@
归档
287
乎@@
电平
质量@@
外交使团
特殊要求
核苷
上岗
630
惟@@
比较@@
黄铁矿
交互
知名人士
T703
亿人
发展前景
5000@@
反过来
评级
气源
秋@@
3m
法定@@
13%
立管
名为
主持人
昨天
收获
登记处
该厅
选项
尼亚@@
iyah
100x@@
致密
南联盟
复审
地下资源
可为
现成
油位
Add.7
笼统
水槽
吊销
呼@@
经济援助
友好关系
币
挖方
就是说
活产
第三批
排污@@
364
确保安全
¹
8000
347
继@@
情绪
七月
牌@@
严密
353
各种类型
外壁
试用
时向
379
急剧下降
三国
办公楼
电控
现实情况
抢@@
多于
第十
H806
示威
波多黎各
进一步提高
默认
耐火@@
行政法院
354
信通
野蛮
开曼群岛
水口
信仰自由
是否是
增长速度
DC@@
叶轮
犯@@
MIS@@
专用工具
为例
Di@@
机票
第十四次
备有
技术指标
适用性
三厂
充分发挥
海洋生物
钢铁
土墙
海里
小规模
六次
志@@
294
亮@@
#@@
明示
液流
477
逸
9.0
利息收入
平板
分数
培
岛上
武器@@
诉讼@@
医疗保险
移至
危险区
奥斯@@
单机
机械性能
情势
主导地位
桌
137@@
22.5
陈旧
应先
对流
庄严
震惊
刊物
六名
象征
轻微
委派
１
运输系统
遥远
日为
时起
敏感性
调配
冲压
轰@@
就位
这点
衬垫
五天
未成年
聚结
国主义
居民区
示意
显得
粘合剂
TiCl4
喀山
输水管
交叉处
阻抗
策
地方@@
喝@@
安全带
房子
节日
歪曲
朱@@
计量泵
宏观
始
惠@@
潮湿
疲@@
决
特有
开裂
囊
机车车辆
相适应
水生
晚于
52%
259
安全部门
乙烷
警卫@@
118@@
一端
本金
客体
写明
施工人员
研所
拆毁
抗冻
219@@
养育
裂隙
变量
化物
EX
转弯
金融部门
一封信
总人口
商人
照度
②
草坪
第二十六届
高铁
依赖于
泥土
普遍存在
编织
插
12.4
沙尔
标准规范
焊机
恒定
372
本区
农业部
................................@@
盘管
异径
˙
LED
708
32.@@
交点
还给
根深蒂固
10m
轿车
而作
辐照
安卡拉
圆柱
地缘
296
刨@@
各州
An@@
卡拉姆
厄
大都
隆起
水阀
闪长岩
总公司
CCW
地势
检定
反而
挣@@
Ca@@
不太
金属管
x4
电抗器
筒@@
SM@@
.6
金沙萨
转载
ing@@
宗@@
金融资产
步行
交联
卡箍
转油
决不
支流
导管
___________
巧@@
助益
麻管局
胎@@
392
伏@@
帕拉
é
522
消费税
生化
HSES
外层
可不
跨境
屈@@
坠落
推销
基准线
占领区
带头
压降
HF
北美洲
战士
短时
事后
毫无根据
局域网
东非
共同市场
消息来源
SI
战略目标
利亚政府
撑
第四款
高等职业
页码
10.9
T47@@
漏斗
TE
坐
选票
可研
标示
参与方
贪污
C20
x6
餐@@
720
成型机
货款
填充物
定压
悉
保持联系
含水量
职业病
反贪污
持有人
无偿
菌@@
决策机构
磷
欧洲@@
难度
第五节
殖民
47.@@
配电网
斡旋
幸福
295
排烟
出水
第十一次
it
城市@@
不晚
鞍@@
制定@@
借款人
集合
马尔维纳斯
援@@
汽车@@
归咎于
3262
米拉
37.@@
职业@@
利用@@
®
行为能力
铁塔
外贸
质保
密码
放款
伊尔
顽@@
键@@
娱乐@@
第四十八届
SG@@
幸@@
码@@
可控
同其
玻璃纤维
柴@@
跨度
kA
分布图
叛军
未经许可
亿吨
335
所持
账@@
反思
浪费
ud@@
盖章
通电
荣@@
威
分设
缅@@
集团公司
声纳
278
喷涂
中说
本期
EP@@
第二段
万国@@
紧要
磨碎
享@@
扎伊尔
导热
排水@@
大大增加
本土
副博士
岩土
不大
387
限期
检查报告
斜度
挤@@
加倍努力
厌@@
专业培训
恨
奶
联轴器
目睹
局限性
案中
管中
参数值
预制板
航空兵
PV
几十@@
投了
灾@@
加工厂
经济效益
未获
kv
冒
um
反对党
烤
不计
毁灭
量化
涵洞
丹@@
地向
蒙受
压紧
表演
定型
滥@@
硼酸
309
出入口
战时
川庆
放射性物质
蔬菜
轮调
账目
私立
防护罩
畅通
提供@@
顶面
ad
H2@@
宽容
手术
端头
L1
点燃
卸下
降落
氯化物
价格表
不佳
投资额
著作
妥当
锥
超声
相干
法定代表
314
起着
大桥
即应
灭@@
途中
伸
锰
敞@@
不许
回国
É
再用
864
L.31
崩溃
银行业务
摩
3x@@
298
往年
信号机
盲@@
误解
僵局
欧共体
震
消防车
1403
密封件
续@@
兑
打死
包壳
彻底消除
通讯设备
抓住
35.@@
将军
衔接
利润@@
包装@@
庞大
何处
桌子
成年
教育工作者
外围
营业@@
对话@@
军事力量
ht@@
考古
降雨
提示
减除
第八章
越境
巡逻队
中压
气罐
丘
有何
第三十三届
注释
US
太平洋地区
中继
金伯利
证券@@
455
留存
505
摩尔
1800
334
条约法
放松
融化
开头
烟道
本节
余下
发展趋势
打入
实心
载体
ra
投保
佳@@
苯酚
菜
劣@@
矿场
叙@@
金属材料
合乎
提出异议
肋
国际贸易中心
狭窄
电解
新西伯利亚
予@@
外流
硕士
正好
淤泥
各区
器件
极限值
坝体
赔偿损失
利政府
ON
碾压
毫不@@
边远地区
受限制
ir
铸件
外侨
重新部署
分期
管理费用
喷
录像
按着
四项
印度@@
分离@@
妻
多边条约
IL@@
肥
51@@
多国部队
调解@@
通告
监
环氧树脂
锥形
2000m3
人应
311
深井
水平@@
预埋
效@@
印度洋
段时间
袭
证据不足
大赦
背后
个人身份
增效
平滑
等效
铁矿
银行担保
庆
410@@
常压
FO@@
葡萄牙@@
时间@@
政策措施
螺杆
空间数据
385
403
遗属
前来
可燃@@
企业@@
欧亚
罐底
托夫
2600
牵头
急性
应付账款
塔板
在政治上
杀死
02.@@
随之
沟道
签署国
训练班
升温
而已
合法化
丰@@
产后
五十周年
地籍
钢质
亚洲开发银行
东北部
十四
枯@@
Ⅳ
郊@@
井内
年产
乌德
冲刷
ⅹ
引至
2.00
20G
符合国际
运河
普遍@@
等值
席@@
358
应负
计划外
尼科西亚
熄灭
受权
16.2
归纳
海湾合作委员会
罕
ker
佐证
偿还债务
715
对非
通信线路
船长
ari
控制站
Am@@
105@@
通盘
分布@@
相符合
审判程序
十字@@
外侧
稳定@@
社会科学
3.03
区域环境
物理@@
战斗机
视听
叠@@
不分@@
地沟
行者
充分认识
日益严重
人口普查
项目管理
思维
房租
婚姻@@
细致
器械
牧场
转发
IP54
9544
周转基金
国家有关
织物
于本
沙丘
基本要素
携@@
乃至
大为
秋
克隆
买主
CRP.2
就读
堆场
1500@@
有利条件
半岛
第七次
减弱
园区
景
催化
起伏
健康权
过重
前后一致
返修
草地
互补
民主联盟
圈梁
举例@@
顺利@@
抵制
佣@@
系统性
基阵
多孔
毫无道理
赔偿@@
农田
前者
同化
读取
服刑
纯
绝不能
署@@
两国间
底盘
合营
螺丝
桨
览
区域开发
死亡@@
国际协会
下半年
指挥部
哺乳
主要参数
激光
咨询@@
总体目标
利于
旗@@
宇宙
践踏
CP.@@
83%
膜@@
陡@@
评析
15m
正压
评述
霍
250mm
友谊
建筑工地
沸点
拥@@
萃取
里面
乙
资深
项目经理
各政党
出卖
中亚@@
443
比什凯克
辱
管道穿越
不易
367
发出@@
隐藏
1968
提出@@
肯
上来
枝@@
织@@
土质
总的说来
会后
摩尔多瓦
窝
杆塔
踏步
卫星@@
58@@
邻
年末
总署
括号
别人
纺@@
飞
露出
便宜
拆装
全民
代人
840
法学家
转输
一百一十
XXX@@
夯
CO3
378
衰退
黄铜
--------@@
工作效率
励@@
气体净化
14.3
分册
须@@
差别待遇
倒入
卸料
MP@@
塔内
管理程序
雅各
岂
时有
16.3
精神病
商业化
过流
316@@
萨哈
ha
库尔@@
戈梅利
笔@@
352
正直
罪孽
深远
听从
普里
六角
靠@@
签@@
按期
行政法
合用
哺乳@@
摩擦
办公厅
氟塑料
盛
因果关系
网格
在下文
接头处
上将
操纵@@
医疗卫生
排放系统
钳
切尔诺贝利
43.@@
谨请
肆意
应计
饼
东南部
尿@@
红外
ii
影
396
辖
总线
转变成
陶
生病
气机
第三季度
灾难性
寻@@
________________________________________________@@
穿着
拖车
41@@
DIN
焙@@
库姆
要约
圣地亚哥
教室
开通
工作台
设计师
骄傲
有损
战线
高校
国际海事组织
价格水平
1000mm
矿棉
饰面
前几次
管束
哈萨克
超支
电视节目
损害赔偿
銆
下限
股长
钻开
SCADA
无形
欢@@
成组
以米计
减速
214@@
96@@
否决
样板
船旗国
负压
方案设计
钢筋混凝
会计核算
代谢
隐瞒
试运转
长短
1397
OH
严格执行
警示
爆炸性
木素
孕@@
污垢
772
3.56
教员
大大减少
漆雾
招待会
缘@@
装货
EL@@
月度
COP.1
危急
纬@@
先后
重质
两根
航班
步兵
吊钩
CRP.1
用性
佩气区
凭单
适于
相近
次要
副总经理
厄尔尼诺
盆
环境监测
下设
后应
第一卷
铰@@
辉@@
普惠制
难题
既有
传输@@
笔译
第十一
搁
助手
多米尼克
报告@@
缠绕式
之友
щ
平静
19%
量程
案文见
粒子
房产
浴室
930
组合式
波器
杰佩
粮食@@
全日制
GT
421
锻钢
扰乱
加密
招标人
机体
起源
1000m3
326@@
弃@@
À
等同
海员
操作者
2.6@@
域@@
里约热内卢
481
轧制
密切注意
带走
摄
伊拉克人
滋@@
试行
无线@@
①
比照
框图
329
脏@@
x10
12.01
装甲
CL@@
关税@@
血液
滥用职权
岌@@
多重
购物
认真@@
完好性
15mm
射击
产卵
届时
灵@@
侵权
禁产
下诺夫哥罗德
PT
交通部
胜
扎尔
廉
教科书
尚待
复核
ik@@
4m
发包
热水锅炉
html
焊时
B3
深海
内政
PP
内部@@
国防部长
墙面
私人@@
证据规则
丹麦政府
供配电
交战
600x@@
无意
断言
020
任何理由
不准
各次
48%
江
铸造
暂按
洛斯
仪@@
离合器
盆@@
蒸馏@@
栽@@
FR@@
利益冲突
宝@@
间断
加权
建议书
汶
424
梯形
六条
任务@@
彼得@@
译
方向@@
著
对外贸易
传给
09@@
钾
轧@@
联阵
蜂@@
敌@@
撬装
就绪
苏丹政府
解放运动
8.0
应使
墙板
井筒
小车
回来
刑期
油缸
坑道
限值
皮肤
堑
温度传感器
对面
嫌疑犯
代理商
时效
丁烷
气外输
世界知识产权组织
劳动部
维捷布斯克
营业执照
五日
精密
第二十四届
担保@@
十三
请拨
承担义务
进驻
前体
盟
net
座椅
组成员
SO
假日
东道
KM
烷
三份
HT
诚实
74.@@
具@@
100m
油藏
IT
SK
妻@@
之用
国际电信联盟
在世界上
河滩
........@@
现代@@
储气罐
凝析
1020
排气阀
713
科沃
工伤
BO@@
典@@
不算
独立@@
最小值
角度看
老挝
60mm
列宁
连通
祸
322
公共利益
谷@@
沉默
自用
放空气
um@@
侯@@
伪@@
ò
搞@@
当日
古巴政府
扬古
市长
斯洛伐克共和国
仔细检查
虚线
刊登
特派
生态环境
鞑靼斯坦
各阶层
T3
选举法
层间
利雅得
希伯@@
不足之处
被忽视
体内
用气
图里
忽@@
拦截
由该
玩@@
柬埔寨政府
J1
不良@@
管道工程
最低标准
二年
捣@@
译成
系统对
士学位
承载力
工商界
法学@@
AL
愤怒
驳船
严
铲
短暂
亚非
不起
人员配备
痛
光谱分析
尚有
日益@@
隔音
参阅
回报率
紧急停车
A3
壤土
这位
系统化
蓬@@
混淆
苗
闸板
306
0103
建工程
Cr@@
同工同酬
五分之一
捕
有所提高
无理
周转@@
事务部长
ed@@
明火
归属
出站
国立大学
买卖@@
邮件
装箱单
Rb@@
掘
IR@@
审计工作
工作温度
村民
营运
获利
较长
连锁
第二天
分类@@
检查员
相互配合
单线
国土
抹灰
见于
不断@@
交通安全
经济学
涡轮机
取用
清偿债务
性病
Æ
就此结束
收发
E1
碳酸@@
动阀
灰渣
测深
第三十届
银行贷款
综合症
4.9
淡
令人震惊
16Mn
隔膜
总费用
激烈
记忆
意在
带上
籍@@
卡河
sub131f191
水事
槽钢
私有
耐热@@
警务
习@@
漫@@
合金钢
硐
拧
本表
解放后
稀少
侵@@
ery@@
EPC
恰
水坑
LG@@
吸附@@
加元
富液
1502
机组人员
发现@@
÷
液硫
三角
二十世纪
最有
拌
卫生部门
紧缩
络
生理
有价证券
如表
一读
1105
摆在
1958
第一句
非军事化
廊道
Cl3
粪@@
812
保障系统
秘
软化
驱赶
公允
即审
列报
13.2
团聚
杨@@
千牛
蒸汽锅炉
职守
城市规划
环境退化
IC@@
向下
联络处
一九九@@
强劲
裸露
纵剖面
整流
ø
停运
布料
六氟化硫
塔架
MT
释@@
遣@@
捆扎
精炼
经济学家
详
带薪
管状
石灰@@
忠诚
Ti
德黑兰
甘@@
净化@@
回转
运输设备
一篇
集体行动
流域
剑
四名
残障
加油站
478
彻底@@
广阔
构成犯罪
入库
很长
搞
CB
CERD
两道
土中
大气@@
变性
个月
未婚
结核
土地规划
PO@@
前南
兼容性
河岸
om
克制
肩
511
实际收入
服务提供者
愚@@
分会
不成
AT@@
新生儿
窃
门徒
涌入
绑
肯@@
偏移
靴
让步
色彩
文物
蛋白质
访问期间
拾
零上
第三十五届
会同
克罗地亚共和国
亚历山@@
交流电
河道
可预测性
512
时所作
耕作
扇@@
015
VIII
所犯
佐夫
供入
此人
电容器
警卫人员
泥岩
储存@@
第四十届
臂@@
拓@@
实效
下水
政和
洪
垂直@@
优先购买
商业界
崇高
沉淀池
圆周
色灯
终于
BC
抽
1965
按表
XXX
运土
钠@@
170@@
密切协作
陷@@
辜@@
归于
宗教信仰
监督管理
显而易见
按计划
型飞机
除名
包装材料
凿
常委会
Si
馈@@
乘坐
缆@@
路口
严重后果
每班
ash@@
焊接设备
泉
而应
化剂
受托人
制服
线缆
腺@@
44%
119@@
尼亚共和国
459
圈@@
SF@@
期中
低估
泡@@
日增
控器
权威性
摆@@
DN80
855
大力支持
沿已
阴影
联海
葬
朝鲜半岛
游戏
闻
Salman
422
L.3
十九
ang@@
有点
棘手
装船
388
基点
喷水
广播节目
赶
辩护@@
惩戒
布宜诺斯艾利斯
中子@@
聚会
修理@@
正确性
台式
24V
就业率
比索
反补贴
经纪人
国际事务
接合
非核心
牙
货币政策
金融交易
超高
厅@@
镜@@
论及
文化部
442
在此之前
排液
笑
框架结构
一律
消
SI@@
伴
地使
精确度
李@@
无限期
油污
及早
捆@@
与会@@
转送
705
奋斗
岩棉
加工@@
检测器
数学
财
斯卡娅
杜绝
常务@@
游
慢性
aw@@
机床
MD@@
2.09
乐
出口国
此等
性骚扰
个体@@
ot
停战
生物降解
355
犹@@
固定装置
船队
马尔
文盲率
各款
各种因素
检察@@
过渡@@
忠@@
中方
焊剂
技师
闻@@
技术开发
排定
实践@@
生产区
宪政
世人
第三十六条
条对
匝@@
差旅费
讯
峰@@
经营@@
El@@
开门
导轨
环路
客车
首脑
Sa@@
18%
访问@@
业务管理
漏油
桥式起重
羞@@
姘
乳胶漆
挨@@
拒绝执行
结转
大宗
符合规定
大气压
质量检查
反射@@
窄
之三
放到
什么样
在技术上
这名
381
沃土
重振
尤
穆
境地
竟
34%
随机
疏
如能
夯@@
活化
转出
违犯
卫生防护
沼泽地
di@@
结晶
第四十九届
全自动
酱
2C
邮寄
绝大部分
页数
专有
并行
救生
讯问
2400
无机
迟迟
祝愿
刑事案件
最高级别
医务
ost@@
高级@@
415
六年
电器设备
巴尔
泥石流
最差
粘贴
快开
主权国家
就职
直接参与
结果显示
460
滴@@
著@@
阻挠
合力
樘
纴
不需
2025
审计员
盘存
海港
去世
ow@@
换能器
浏@@
刷漆
芯线
第一种
议会选举
动荡
播
自立
帝力
聚苯乙烯
广场
9.7
女人
短期内
疏浚
数码
土堆
一百零@@
密集型
马扎
贫民
值时
肥料
研究成果
法院院长
第二十五届
债@@
325@@
13.3
友
垢
分散@@
资历
53@@
IDB.24
外勤人员
神圣
母婴
举出
弓形
复位
仪器仪表
实在
号召
婚姻法
第四项
漏失
科尔
俄国
水器
应请
稍@@
舞弊
测量点
探
强制@@
重沸器
解放阵线
巴伊
荡@@
软件@@
拐@@
常任
垂@@
补偿@@
端的
多半
ini
供应量
16.01
011
可观
普通法
聘任
触及
座谈会
勃
阻泡剂
建设@@
阿布贾
减损
称之为
储蓄银行
里程碑
电动@@
海水
EB@@
判处死刑
明细
反制
第三十六届
终结
低下
以东
工资@@
MO@@
535
所订
视觉
4500
386
模拟@@
脊@@
㈤
另见
1km
第十五届
最终目标
高水平
学习@@
马尔@@
政治化
塞舌尔
圣多美和普林西比
入式
贯彻执行
揭示
记录表
探访
储备@@
侵占
臭氧层
民事@@
一面
擦@@
特殊教育
C25
电话号码
合约
市政当局
绝缘@@
固定翼
赠@@
推动力
216@@
亚美尼亚人
夜
初中
一时期
炸弹
启动装置
外币
称重
装在
追溯
接收器
Canal
路标
960
白炽灯
发展@@
其余部分
At@@
328
1601
判决书
时针
通信机房
获知
撬@@
第十七条
蒸
提要
选举权
被动
货币@@
634
一轮
660
艺
水文气象
居住@@
最具
灭绝
下应
及时@@
透平
洲@@
数字化
事故@@
职业技能
芳香
商议
蒸馏水
哀@@
DN400
国在
豆
封存
妇
‰
F300
饱受
辞职
国际公法
赶走
灵敏
东北@@
纪念@@
自来水
普及教育
不定
三维
未必
售后服务
格罗德诺
夕
灾祸
西帝
哨
薄层
兄@@
采购@@
本函
扁@@
1205
罩@@
对手
贮器
害@@
硅芯
停放
砖@@
肯特
È
湖@@
表二
控制权
保障制度
最高@@
来源国
656
用户@@
白人
发明@@
明确@@
电热
电影
新近
征用
白皮书
各项任务
另行@@
本批
译文
人选
最低水平
欲
感染@@
ect
欣见
钢绳
资格证书
沙子
1221
¿
645
433
慈善
虐
两国政府
再也
非歧视
回报
参观
每根
原木
气瓶
环境污染
中性@@
渐进
稳固
狱@@
徒@@
Ê
波浪
457
舒@@
Ì
司将
si
识
诺尔
¨
星期日
真实@@
过剩
荧光灯
偶然
佛@@
过电压
精英
重伤
乐意
自卸车
令人信服
努力提高
千名
!
航天
诸多
运走
监查
1.09
L.9
述@@
锁紧
数项
胀
H2
进攻性
531
营养@@
轨道电路
et
现正
C.12
扰动
谈会
高压线
传统习俗
里斯
碱性
单证
富有成效
枪支
主变
边界地区
存储器
的是
寡妇
万英镑
MPa@@
雷克
右边
概念@@
繁@@
范本
浇
等到
优良
㈥
纪念活动
社会关系
钻具
EI
增拨
科长
第二十八届
绳@@
本应
源自
HS
好几个
葫芦
全称
口径
哪里
防烟
贷方
质量检验
尔特
所生
调研
稀释
1.5%
旅
446
B2
卷宗
悲哀
姿@@
牢记
曲线图
各层
PCNICC
年龄@@
政变
凡是
承保人
图号
拘留所
Bar@@
罐壁
研究员
偏高
43%
余
200x@@
T7@@
面向@@
饮@@
哥伦比亚政府
470
水土@@
盗@@
阿姆@@
经济制裁
商业银行
613
过滤@@
施工队
微妙
水坝
氯化镁
压裂
利害攸关
结垢
极端@@
la@@
sp
岸边
暂时性
725
来访
拍@@
④
盗
布拉@@
油封
与否
纪念日
Add.23
高等学校
部在
历
外部@@
操作工
377
427
新设
DB@@
印制
切削
417
第十七届
开关@@
SGB
煤层
蓝色
贷
板式
谈及
蜗@@
尚无
换句话说
律师@@
AK
524
暖通
自由权
过早
优
剧院
虫@@
岩体
跨距
柴
节中
__________
充满@@
本底
工商业
柱塞
恢复正常
直辖市
水泵房
雄@@
讨@@
GC
民事责任
知识@@
自愿@@
声光报警
更长
长远
塔尔@@
砷
CN.6
本国货币
马恩岛
宜@@
第二十三条
管辖区
输出模块
时钟
稳压器
900@@
就学
圣地
偏好
农民@@
毕业@@
姆斯
越过
青
站点
禁毒
耐磨
通风设备
螺塞
年终
枕木
车队
多元性
耕@@
酸盐
462
多样
全新
尔格
单位名称
两点
远见
其实
58.@@
父称
发电厂
膜片
omp@@
香
366
喷射泵
工龄
诚信
拜@@
私营化
上海@@
加盖
广泛@@
客货
辅
事实证明
链条
萨曼捷
让@@
发证
472
跌@@
赎
我必
XXVI
温差
弧
水利工程
冷凝水
总体而言
444
该届
＞
医
大道
哀悼
362
道路@@
照明设备
酸钠
氨水
硬化
瓦尔
年均
统计@@
军事冲突
高风险
分配@@
翻修
媒@@
接线柱
电位@@
有偿
公立
711
土工
总长度
页@@
Ò
侵蚀性
考
动力学
国家统计局
光学
合法@@
缓冲区
彩色
阳性
里亚@@
甲苯
过量
油机
囚@@
工具@@
快乐
Ü
焊钢
泊
当值
密性
自给自足
卫生条件
tn@@
第十八条
散水
消防器材
官兵
联邦@@
缉@@
装载机
不断扩大
基本法
第三十四届
备煤
六项
哥伦比亚特区
连带
ў
加尔@@
防潮
等候
高压@@
清管器
粮@@
炼油
参数@@
刑事@@
18.2
确有
庆@@
¤
欧洲法院
探测系统
自然保护区
腾@@
长老
平均工资
一职
帐款
历次
奋@@
合理性
保护性
伞
11.5
丝毫
打底
制宪
所欠
政治局势
斜角
舰队
印第安人
多数@@
监察@@
钦@@
大选
整体式
安全装置
lek@@
0.23
缅甸政府
赴
免征
绠
新任
双重标准
洒@@
锚定
政府@@
办事@@
证书编号
张贴
俗
开式
侮辱
惰
阈值
SE@@
官方@@
总金额
诉状
Ni@@
时段
D4
内腔
渗透@@
14.2
耗材
609
初级@@
管理部
L.10
匠
下才
塑料管
抚@@
联阿
演讲
恶人
宵禁
冈@@
油器
肢
QF1
PS101
侵略者
祈@@
联动
屋面板
控室
录像带
冲销
偏向
民族解放
人物
le
获得@@
积极合作
熟练@@
泥炭
神经
严格控制
广为
劫持
滞留
义务人
L.23
疲劳
军事法庭
阻塞
国对
困
W8
应由@@
2302
670
加勒比@@
蹄@@
模数
Bak@@
放大器
摊派
包装箱
该案
保险丝
Aga
绵@@
44.@@
担负
con@@
符
省份
复查
工程验收
风扇
柜式
杀虫剂
密封@@
期付款
电气石
住院@@
时能
摆动
市级
邪恶
简述
世界秩序
皮书
道口
宣传@@
况@@
订货人
库茨克
润滑剂
试验室
潜能
建筑师
不稳定性
条至
协调会议
蕔
号线
熟练
创意
造纸@@
财务会计
勿
够
狱
吉隆坡
鮹
XL@@
催化@@
分界线
赞成票
98%
接触@@
BP
偿@@
第八次
慢慢
采油
.....
步伐
赔
核燃料
补充@@
直埋
检漏
脉动
或用
到来
尾矿库
优惠待遇
暴雨
操@@
创造@@
搜@@
论据
肠@@
掩埋
掘进
胞
十八
L.20
Add.6
财政状况
Add.8
附于
坚实基础
安全设备
死因
航空器
693
柬
开度
吻合
非法@@
aj@@
话@@
更高
摆
先令
醛
ª
保险法
端盖
有鉴于此
8.10
滚动
停火@@
12.6
---
帝
两架
首领
工时
Add.11
斑
一处
廖夫
0.03
装药
送风
0.30
壁挂式
私营企业
协议书
口岸
遵@@
双面
电影@@
电子化
储运
年期
命名
曲轴
种植@@
交替
苏格兰
控制阀
罪名
导航系统
顶盖
赦免
荒凉
盗窃
退休年龄
开来
母材
Rev@@
钢号
负担得起
更替
准备@@
冰冻
覆
预先@@
迭
广泛支持
遵从
多国
腐
海岸线
阿根廷政府
斗@@
土耳其@@
使本
消防队
震动
030
剥夺权利
温度@@
意外事故
圣城
隐私
189@@
1.04
动式
外包
峡@@
舒适
遗传@@
还须
叠
岗@@
1.75
兼职
挖斗
克孜@@
朗@@
Kon@@
阿穆尔
北极星
浇灌
嵌入
椐
1504
三氮唑
辩
52.@@
压缩@@
内墙
煤塔
和平共处
及本
芯数
百叶窗
逊
L.5
专题报告
想象
聪明
空中交通
族人
基里巴斯
拘@@
874
气口
FZ
卡纳克
夸@@
究竟
志愿者
恒温
协约
罕@@
⑶
159@@
抽查
中东@@
毁@@
Bo@@
矩
净水
第一季度
393
视野
上空
质谱
碳酸盐岩
推移
硅片
四川省
追查
ZR
受损害
违约责任
一案
豪@@
引人注目
阵@@
38.@@
78.@@
空心
eng@@
境@@
保管@@
填埋
地基@@
财政政策
钢带
荣耀
贯彻落实
记录在案
热电偶
Class150
付诸实施
客观性
专家团
第二种
代表权
过时
小儿麻痹症
411
夺去
澳@@
9.8
瑞@@
详细@@
巨额
计量器
Par@@
还同
运载
交通系统
扼@@
深受
407
装设
始终@@
电磁阀
攻
终点
少数几个
Δ
无记名
755
普通@@
自流
感染率
国防@@
九年
消费@@
服务处
安全网
986
布尔@@
国家银行
弄清
野生动物
意大利@@
轮轴
挪威政府
宾馆
你@@
到期日
切口
特里
中向
1.00
VAC
相容
土耳其政府
君王
润@@
纷@@
结盟
有酬
大块
惯常
赖@@
持续性
Ad@@
夫妇
集体@@
DN300
431
夹具
虚假
B15
每名
方法学
卤@@
编组
简易
记录器
敞车
高技术
水幕
中东地区
手持
壤
1.21
更是如此
漏气
登
共存
譬如
直接费用
财政困难
维持费
汉
静电
继承人
医治
集群
现出
不偏不倚
运动@@
赔@@
欧国家
专注
Add.9
凹陷
相对@@
专用线
遗失
545
椅
蝶阀
而来
兑现
ation
单面
环境因素
特克斯
凯科
国应
GB150
达标
MB@@
单纯
装箱
雅加达
332
瓷漆
招收
下同
嫁@@
燃气@@
时会
美金
动力装置
直通式
倒角
租
090
括
赞助者
癌症
20mA
尿素
车身
IP65
400x@@
莱斯
似宜
涌@@
困扰
辩称
G2
T9@@
在经济上
誓@@
国有@@
切除
空天军
擦
薄钢板
369
昂@@
泵入
日趋
电报
审视
跨空
婚姻状况
中间人
哨所
46.@@
惑
酌@@
垂
该组
饭店
黑暗
屋
计量站
人中
躲避
引述
供参考
锁定
消防设备
分配情况
阴谋
食品@@
1980@@
窒息
法人@@
加利@@
547
其能
真空@@
关系式
猎@@
喜
控制面板
一分钟
342
孙@@
政治性
另一名
呼吸器
静力
覆盖面
贝
会计年度
非全时
壮@@
联合国@@
62.@@
外交官
葡萄@@
引信
拥有者
试用期
商界
外长
流落
票数
之初
辛
定值
酵
IM
L.18
开机
小企业
住院
480
明天
Ab@@
毒素
行之有效
严肃
电炉
并非@@
UR@@
MJ
把手
传染@@
QA
赢@@
伊拉@@
接箍
HP
MI
工单
因果
CN.17
移转
入场
辩方
尾
高原
分配器
竖面
均匀@@
阿尔及尔
考验
藐视
舰艇
井架
整流器
十月
幸存者
不遗余力
水泥石
曾多次
往返
谨@@
值得@@
08@@
每米
存档
不久前
451
深深
331
别国
眼镜
露
门卫
个别@@
众议院
0.07
留下来
铁路线
主页
滨海
1944
渣@@
L.6
客人
Bas@@
贷项
工程预算
股息
36.@@
勘
核可@@
475
533
交通运输
开创
000.00
盾
对受
长明灯
437
供风
竞@@
堤@@
调压阀
还原@@
PR@@
聚力
维和部队
悬浮液
武装@@
罗姆
天气@@
避孕药
紊乱
姓氏
肥力
施工@@
缘故
叶卡捷琳堡
PT@@
晓
毛利@@
手提式
自我@@
伏尔@@
率领
账簿
财物
年里
翻车
ew@@
方在
C15
536
甜@@
SA1902.030@@
恒温器
管壳
透彻
大体
螺孔
巴勒斯坦@@
666
保持稳定
UO@@
几周
pro@@
虹吸管
Mu@@
299
56@@
TRA@@
度为
理应
生产量
掩盖
空闲
交织
1050
下称
衷
巴勒斯坦国
登录
旨@@
DWG
私
基洛夫
年会
再版
巴塞罗@@
无线
富裕
环线
摸@@
篇幅
类中
浇铸
效用
加氢裂化
热流
稍后
AC.96
资料库
车组
宣传教育
计税
万军
北非
归功于
PD@@
99%
时地
敏@@
言语
盔
Ï
绑扎
压力@@
仇敌
赔款
基亚
不高
6.9
创作
瑞士政府
检测仪
出资额
畜
绑@@
3200
稳
发援会
妇幼
﹑
陪伴
电动工具
真理
祸害
870
骗
二是
各条
控制板
纬
缔造
一是
主人
可比
来函
GS@@
苛@@
醇
巴西@@
管道局
坏@@
覆盖率
氟
热交换器
特殊性
5.10
火箭
门口
滤清器
硝酸
失散
各派
肿
事务@@
利马
米亚
真的
禁止@@
弟@@
内燃@@
做成
关断
探头
错误@@
球形
工长
1.11
毛坯
西北部
鲍@@
DA
色谱@@
蛋@@
值守
CDI
月间
斯克区
488
770
背道而驰
黑海
ort
近似
较强
2050
间隔@@
维尔京群岛
慎@@
落入
早已
盈利
4.11
当地政府
档@@
工程管线
L.38
竞争者
35KV
山坡
大幅度@@
目标群体
era
电源模块
承保
肌@@
称量
590
运输机
残暴
狩猎
035
483
12mm
学说
兽医
航空安全
奥伦堡
数年
现金流
冻结@@
饱@@
地质学
赞
数学@@
姐妹
砍伐森林
行政长官
操纵杆
RS485
歼@@
板坯
高架桥
救护
循环基金
砾@@
棍
单列
专科@@
邀请@@
无人@@
相互依赖
检察署
第二批
通知单
com
345@@
AP.@@
活塞@@
拆下
飞行器
顶气
汁
太空
抽气
051
任何@@
倒退
开采量
划出
斯塔
译@@
657
金枪鱼
二期工程
张力
污染@@
下端
479
经理部
步兵@@
吸水
镄
惯性
里海
L.15
欧空局
超标
凶@@
尽头
ME@@
证言
缺水
陆路
轨距
6A
下图
内壁
导弹@@
成功经验
L.13
0.52
古老
伤员
一视同仁
探明
活动分子
按键
DN65
ex
灵魂
复活
确定性
磅
之以
转给
ta
固然
订定
犯罪集团
服务设施
CT
77810
Ћ
撤
法国@@
结社
烧毁
fa@@
路灯
918
音像
巴比伦
Artawi
科威特人
装配图
两期
L.32
一律平等
歌@@
5200
导员
一共
连贯性
235@@
啮合
集料
金融中心
内侧
汇管
道义
协理
T8@@
转让技术
乙基
载重
引风机
辈
树皮
操作手册
3.12
3A
ess
放权
气味
1018@@
银联
V3
修整
文件夹
者之间
非标准
魁@@
这家
提供数据
流行病学
条下
战斗员
妈
排气管
说服
难于
创始人
409
分线@@
怎@@
光纤通信
纽@@
从业
GF
医师
US@@
想到
专
采购计划
429
陈
压阀
薄壁
ON@@
110KV
伊朗政府
萨拉@@
调查报告
丽亚
在一起
拔
奈
一氧化@@
ef
704
工资总额
皆
恢复原状
常温
嫔
单管
住脚
嫌@@
声誉
殑
AR
上年
11.1
商检
婴@@
9001
森@@
赎罪
海关监管
ill@@
第二次世界大战
一切@@
洋
空天
不容@@
削
输站
中除
工伤事故
造粒
加厚
红新月
埋入
竭
210@@
伊斯
印尼
古巴@@
1204
更为重要
公会
397
磁粉
刚果人
多米尼加
适度
藏室
清洗@@
DD
htm
埃塞俄比@@
劫
扼要
丑
看看
油水
列夫
特别@@
畅
手续费
56.@@
残液
国际商会
食用
脱落
API
2303
臣@@
无助于
馏出物
2.13
湿地
前瞻性
PN110
经济合作@@
CRP.3
第二卷
ing
扪
未作
扮演
值得一提的是
坟墓
事物
八国集团
V6
喊
重新分配
敢
十天
3.13
Su@@
取样器
溴
支派
滚子
并经
差不多
以北
消防用水
暴风@@
车位
Add.24
颇@@
旷野
契@@
鲜明
经济基础
第三十二届
组长
MM
11.4
GE
599
孕
庄@@
极易
维修车间
审阅
值班室
591
水区
弥@@
纽约市
方有权
地脚
引擎
挥@@
散热
洛美
1930
630@@
井位
南斯拉夫联邦
308
自然通风
猪@@
整顿
版权
劳资
弄@@
乙炔
附注
评分
非正常
一生
体上
视作
发言@@
驱逐出境
方方面面
52@@
件数
皂@@
轿厢
son
昂贵
4000@@
公诉
应用程序
忧@@
大城市
基金@@
MCC
内地
兵役
仍旧
火山
成败
60V
镀层
奥地@@
尖锐
市场份额
犯罪预防
初步@@
浸湿
延至
寒@@
调度室
染@@
桩子
55.@@
ant@@
财产@@
夺取
L.29
削@@
名录
把握
曝@@
极少数
维护@@
缸盖
绕过
采矿场
担
盐渍
社发
瘫痪
礁
上一年
务实
公共交通
单靠
以法
饱和状态
祖
进口国
Ô
大陆性气候
616
安曼
454
涂覆
擦拭
装配@@
加德满都
跑@@
恐怖行动
搜集
分权
广播电台
集团军
ova
专职
越界
放心
规定值
无罪
采办
模拟器
物力
621
第十五条
压型
苏呼米
陀@@
ek
连任
分流
新闻自由
人身@@
相比之下
M5
柳@@
优于
漠@@
579
以西
制性
第二十九届
洗涤剂
1325
Pl@@
.0
逃跑
漏电
比勒陀利亚
擅自
取压
超滤
新闻记者
通路
39.@@
各节
如前所述
.-
虽@@
二极管
荷@@
________________
实践经验
持械
盈@@
贝尔格莱德
安全可靠
第三者
心态
迟交
联合国国际贸易法委员会
溶解@@
里程
完井
司令@@
富国
埥
依法@@
指认
int
移民局
拦@@
坝@@
亚克
ans@@
今天上午
悈
诚挚
帴
宇
发言权
合法权益
财政部长
企@@
卫国战争
家族
不向
槽内
压机
LC
7000
伽@@
生命周期
流动资金
物质@@
701
馈线
500x@@
内以
埃拉
批量
福利@@
春
装机
oy@@
est
一谈
邀
修筑
锻@@
尼斯
承包者
中所@@
内螺纹
硼
毛刺
气相
中华民国
ass
授课
Ë
锈蚀
中要
转换成
AC.182
中华人民共和@@
1956
贮罐
应比
商务@@
江@@
佩戴
逆向
周边@@
匈牙@@
传授
振幅
英属维尔京群岛
阿拉@@
降解
案子
潜水员
14%
7.9
中西部
欢喜
付清
夹带
力争
周围环境
悬殊
钳@@
白垩
评估所
纺织品
浮筒
摘自
保卫@@
递解
功效
踏板
轴瓦
340@@
默
领先
列车运行
省煤器
老师
正确@@
○
合理@@
高度@@
列述
民生
斯特拉斯堡
五倍
器皿
发生率
水站
廉@@
洁@@
相吻合
三大
训练@@
手无@@
砂矿
33259
寄居
海关@@
提问
交出
符合国家
根层
侏罗@@
遇到困难
不燃
收割
过热器
钼
救济金
照相
层厚
残疾者
冈
途@@
卢克
罗斯托@@
专人
总重量
XCV
亏
克族
化为
钢铁@@
3.11
极高
虎
赡@@
地处
题@@
独一无二
瓣
凯
收集器
法拉
吊索
2km
放大
穿戴
荷兰@@
识@@
D10
妊娠
秽
人力@@
泊@@
护卫
摩擦@@
丝扣
唱@@
技术改造
话音
典范
76.@@
D2
拆开
enn@@
正当理由
惊人
633
第一副
uk@@
管制@@
4200
重要@@
岭
und@@
桨叶
方程
全面性
定位系统
变数
低速
爱滋病
插件
颠覆
割机
并联
双语
ac
搟
集中力量
干粉
2801
治罪
扩音
妹
哲学
mA
工商企业
阿卜杜拉
BT@@
指针
期刊
对数
绿泥石
合处
尤为重要
人因
泊车
出生日期
保证期
出对
帐务
马舍尔
高时
当务之急
捐赠者
怪
该省
直管
术
复杂化
514
解决@@
完全同意
览会
柱间
交付给
客观@@
烘@@
ok@@
­
加料
中午
第一轮
举升
维护和平
近几@@
成本计算
向南
收据
严重破坏
方便@@
歇@@
水轮机
联塔
自助
辆车
海平面
020@@
流网
原产
日渐
雕@@
溢
0.6%
西班牙政府
胶带
承压
合成@@
育院
天后
间歇
kl
交互@@
117@@
测定@@
电镀
稳压
极力
比亚
监察局
624
防腐@@
按图
一月
医药@@
采光
室温
1801
焊接式
肺@@
限位
教养
一百零五
盟@@
经营范围
美好@@
放射性核素
地产
对外@@
体重
绝望
以本
喷洒
熔
石块
旱地
报送
法学
特罗
LO@@
耕种
优惠@@
转换开关
音频
液滴
纳亚
lex
发性
湿润
以下几点
防腐蚀
零序
〉
停顿
不利条件
2201
门槛
无故
短节
冠@@
可编程
除氧器
执业
艺术品
公开@@
施焊
中央财政
MB
认同
控制程序
清真寺
革命@@
59.@@
绝热层
选拔
机械加工
夏比
鲁伊斯
裙@@
新政府
1015
持续增长
保险费用
上用
燃油箱
必备
结婚@@
爬@@
报告期
新版
托拉斯
圆柱体
se@@
海牙公约
ю
传送带
制冷系统
360@@
凝固
充
科伦坡
有毒气体
演
贮池
书写
特种部队
热电阻
战略伙伴
测量方法
紧密@@
这样一来
无家可归
窜
福利部
大大@@
内所
棒束
沉重@@
己
黏土
馏
1954
专案
也@@
载述
小屋
1957
宣扬
寸
________
0Cr18Ni@@
搣
344
走出
尼日@@
殖@@
轴上
壳@@
T4730
酰胺
开拓
现金@@
502
异物
程序法
练@@
离境
工业界
〈
荧光
度计
SA
县级
L3
木片
雾@@
出入境
行政事务
半球
267
针叶
盘式
机械制造
受众
质检
法老
邦@@
基准点
热电
651
81.@@
祭@@
唤
约组织
DT
巡视
凌辱
大众@@
工作进展
隶属
避雷器
910
EM
武
702
防喷@@
蜡
流捕
商事
危险废物
第九十@@
志
鄂@@
帐幕
MU@@
兼并
木斯克
迟延
人力资本
陷于
按下式
第三十八届
雷达站
大气层
开发区
热网
普及率
营企业
TRAC
凯恩
敞开
第一年
休息时间
皮特
斯拉夫
答案
成千上万
原第
㈦
诫
4401
抢险
耽搁
整体性
象征@@
马绍尔群岛
保证书
10.6
筹集资金
625
设计局
MA@@
气象条件
单边
氧化铝
水灾
饲养
响@@
拷贝
夏天
碳酸
这条
¾
绝对值
检察院
吸水@@
名词
焊后
13.5
17.2
画@@
非常重视
河漫滩
第六章
表见
摘录
国民收入
带动
306@@
465
环状
0.38
恫吓
自行决定
1281291
无故障
23%
公共设施
0.98
糊
绩
案文@@
EB
绘
市内
稍微
预警飞机
线路图
114@@
学历
DE
时需
防锈
多种多样
密封垫
电刷
井喷
千兆
从业人员
营区
书中
骤@@
冰水
醒
线或
710
思
减征
1962
值应
SDR
化妆品
单根
马里@@
DN20
澳大@@
423
宣判
罪恶
额外@@
强力
微观
滑坡
黎@@
ab
弗拉基米尔
红利
禽
1963
在此@@
面罩
提高@@
No.@@
阁楼
排气量
570
斯坦@@
循环系统
排除故障
脉@@
瓦西
允许值
大面积
叉
逐年
伤害@@
ion@@
糊不清
监测中心
金融工具
380@@
电源@@
法律条文
ich@@
民主政体
旺
各气区
居留@@
变质
鼠
6.11
361
康
客户@@
克朗
营养状况
传动@@
浇@@
酸化
ASME
高低
枢密院
韦
新德里
215@@
充填
段次
机箱
拟于
敬
两岸
接线板
2500@@
3.34
军方
煨
15.3
一群
备灾
NO@@
金属构件
各个部门
誓
装订
384
组办
热线
工作站
必将
打电话
哈拉
涵@@
无障碍
FS
旱灾
挖泥船
坯料
订方
无可@@
相互了解
心中
第二级
滤渣
mail
小型企业
损失@@
琴@@
娶
安宁
南盟
土壤改良
起码
瑟
级制
展现
旁路
呼吸道
聘@@
交谈
逐个
全职
联轴节
稻@@
充作
织
讲述
1420mm
钢格板
排量
强烈@@
水工
不肯
73%
银子
2101
全民教育
蛋白
低级
焦耳
BA
得多
有线@@
埋场
领先@@
MMK
迦勒
己方
957
翘@@
联系方式
附在
险@@
68.@@
裕量
电设备
连测
急
可憎
菱铁矿
加宽
单亲
全身
私下
狗@@
黄土
净化系统
紧迫性
一和@@
水力发电站
推测
分则
每位
0.8%
上去
缩写
TPL
遣散
适应性
SY@@
ξ
不太可能
决定@@
试验设备
时则
抑制剂
疏松
原本
分派
懂
德意志联邦共和国
椭@@
公民权
SH
滥杀
努力争取
轨迹
被保险人
lig@@
人身自由
公平@@
良
蓬
砍
销售部
稠@@
留给
危险@@
帘
巡检
下均
转而
EP
汽提塔
计算机化
气泡
480@@
TV
计量@@
阀前
信徒
413
应同
来往
受到破坏
单方
伊特
烈@@
物资@@
瑟@@
铹
露天矿
车架
现实意义
招待@@
多大
奔@@
须知
克共和国
42.@@
九次
首位
毕@@
雄
西斯
操作过程
不具
排减
停滞
边线
TA
节能@@
第二号
热镀锌
折现
罐盖
气中
公民投票
年青人
栅栏
全面实施
Ω
SO2
装满
偏
棉花
安插
设计标高
728
察看
之手
77%
转向架
加氢精制
16.1
1333
税务@@
衬
fo@@
纸浆厂
客运专线
Con@@
日托
粘结@@
天然@@
收益率
挠性
图样
型板
装配式
日刊
式化
背
攻击@@
这套
贫困线
迦
加利
约束性
贫困人口
聚丙烯
钢丝@@
檩条
仪表盘
db
轴箱
水泥管
ion
修订案
斗式
隔离@@
ula@@
水果
l0
吉尔吉斯
竞争能力
该局
墩@@
Phone
氧水
售出
两院
兼任
进风@@
联络小组
具体来说
茶@@
航天@@
登上
正文
抗硫@@
保质期
车箱
所在@@
ols@@
内部事务
分线
下滑
社会工作
凸起
连接起来
非裔
喀斯特
灯头
配量
CP.8
战略部署
L.14
拉线
特兰
少年儿童
排球
3D
改叙为
490
马科
渗
而论
一般@@
灭失
渔民
杆件
规费
B25
卓@@
612
525
反悔
804
投票权
碳化
迫切@@
GC.9
轨道@@
层理
醚
13.4
野外@@
装填
就业人口
X4
住房@@
相关联
仓@@
F150
保释
抱怨
开发计划
区系
划入
uc@@
供选择
空气质量
赚取
373
千人
1.075
热烈@@
752
狱警
中约
越南@@
边界@@
监护权
转弯处
降温
坚持不懈
肯基
汛
波纹
机壳
县@@
供应者
幻@@
防锈漆
653
801
荡
仁纳街
里斯科
军用@@
失踪案
灼@@
长期存在
声级
裕
时间段
LIN@@
595
职业妇女
行政区
890
百叶
除油
逐项
标界
逆转
罗马@@
NPT@@
H7@@
压迫
731
轧机
11.6
塑钢@@
分配原则
浓缩@@
非全日制
世界卫生
生活区
喜悦
圣保罗
巴甫@@
压榨
社区服务
方对
涂上
铝制
人人平等
打造
工会@@
NO3
三极
储水
忍@@
计算机网络
1701
议事@@
铁芯
狮子
信息网络
喜乐
平米
筹划
567
占地面积
原则@@
国旗
波罗
净利润
正火
围困
信息化
小学生
竭@@
堵头
入账
德国人
下未
斑岩
新股
学术@@
分额
变频
峰值
债务国
铬@@
模具
赢
设计所
停滞不前
橡@@
分选
SYMBOL
消防设施
546
一百
年届
偷渡
389
疆@@
强烈建议
该分
572
1kV
珊瑚
L.42
阔
相当@@
自治@@
706
89%
油气@@
Rb
条为
Br@@
晨
污水净化
Й
TO@@
025
球蛋白
利士
爆炸事件
赛人
冬天
133@@
免得
L.30
音器
锥体
木质
文摘
总参谋部
草图
仿效
C10
联系人
3.00
修理厂
污辱
颇
荣
L.35
SW@@
根本性
制冷剂
不规则
反应@@
775
门户
0.68
数月
战区
个人所得税
子宫@@
乌兰@@
立法@@
警惕
枢
iz@@
脱开
早就
装甲@@
↑
22%
浸入
漂
这批
依法追究
写信给
镐
勉强
418
一番
完美
薪水
危地马拉政府
京
格外
最新进展
具体步骤
适时
勇敢
知晓
主义@@
帝@@
1002
牵引力
候选国
绝对@@
性能指标
完全一致
Busayyah
希腊@@
足轻重
定时
篇
水套
法国政府
搭
银行存款
备份
戈兰高地
接触网
交代
铂
阿富汗人
wt
伴生
1284
外输@@
取证
中介
交涉
前置
纵深
日照
Rev.2
材料库
中继@@
密不可分
两边
排名
公立学校
提单
想象力
撕裂
受力钢筋
861
自上而下
会面
10.13130
始于
犹太@@
1108
热器
世界性
合作部
使用量
身份证件
第六十一条
陪审@@
媒
WW@@
宪@@
应自
毫无意义
建模
科研所
编拟
失业问题
市政@@
第二十四条
新斯科舍
构筑
关停
各界
地业
报单
中作
3.15
领事馆
高能
配方
不容许
喜@@
疾@@
家用电器
采行
熟
球面
冗@@
具体位置
得益
就座
浪@@
处理程序
德国政府
为数不多
升降梯
达格
积分
指挥所
im
郎
更广
ep@@
就象
紧邻
甘
见度
494
友@@
ABB
慰问
韦茨@@
板上
一张
独任
地球@@
购单
英文版
47%
防备
脊
失控
用处
葵花籽
滚筒
公文
回收率
实地@@
一艘
胶管
推车
1353
利益集团
租赁@@
信封
Q245@@
认明
奇姆肯特
斯顿
三角形
水洗
0.001
刚果共和国
注气
求职者
每升
本年度
226@@
新闻媒介
转售
临近
嵌
劫持@@
底图
散布
湿法
蒸汽@@
BU@@
若干项
施恩
入点
零点
1220mm
崩@@
Sam
显示屏
PE@@
场址
流水
耐久性
喀什
后勤@@
生意
行不通
撬块
特殊@@
少年犯
迈向
装高
七名
绘@@
国际刑警组织
渠
拌合
支杆
一切权利
年生
耙
耕
洞@@
土工布
舞台
联络人
芳香@@
伦理学
抚恤金
北大西洋
OD@@
厄@@
殖
冲积@@
200m
校对
保费
热爱
贵重@@
耻
水龙带
司在
逐一
工频
梦
较弱
混凝土块
相互支持
为界
31%
几段
PV@@
并作
积聚
十条
交换所
卧@@
现行@@
主要@@
拍
第四节
生态学
卡亚
内层
426@@
人有
监督员
Cr17Ni12Mo2
勋章
感情
技术员
龄@@
808
鸟@@
米歇尔
42%
杆式
除以
374
分配资源
AG@@
布尼亚
戈马派
离任
机架
毒害
En@@
配套工程
兑换率
防火剂
七次
粘结
疆
69%
1804
工作液
细分
导热油
第五十五
佳普佩
检测法
使用暴力
誉@@
抗拉强度
受审
繁忙
音乐
换成
替@@
隐私权
千卡
□
当事国
Mc@@
医疗机构
自由贸易区
处应
独自
751
科威特国
应可
签约
15.2
弊@@
因子
军工
管理者
灭亡
五十@@
广泛传播
iv@@
SYMBOLSYMBOL@@
070@@
发起人
议长
588
观测站
总统@@
773
昆
脚注
540
有功
振荡
凸面
币@@
用手
膏
III@@
私立学校
书面报告
就任
2X@@
处所
单轨
销售额
人事管理
电力公司
阿什哈巴德
第五十
位置图
宣传材料
3.17
互层
ary
68%
od@@
等径
石膏板
0.22
第五十一条
穷
KAFCO
申
禾@@
抗旱
亟@@
欧洲议会
463
关税同盟
INF@@
USB
追偿
责成
乘务组
宝石
相处
康复中心
流阀
436
重金属
添@@
马尔维纳斯群岛
下一代
借以
苦@@
单晶
后退
肋@@
滑车
畔
雅悯
电子政务
板状
本品
当有
考查
纪律@@
坚定不移
各用
坍@@
静止
撞击
政体
卓越
脸
每批
舵
是非
缅
电子计算机
需对
惧怕
表彰
协商@@
飞机场
机械厂
烯@@
信息管理
圆柱形
决策人员
实际行动
梅洛
武装斗争
起泡
知识库
后经
修订@@
悲@@
受访者
讯@@
桩@@
经受
完工后
凉@@
宪
不知
最低@@
监督@@
包装纸
植土
海军@@
贡
反之
0.20
硝化@@
一小@@
时用
环境标准
笼@@
驶入
天上
己@@
复耕
珥
水蒸气
婆
交叉点
腰
一至
烫
冬@@
掠@@
家用
氯化@@
堪@@
公共财政
岩系
46%
贸易壁垒
澶
可信性
过期
CER
听讯
筒形
代表处
恤
纪录
出发点
年月日
巡航导弹
NI@@
腐败@@
检验@@
迫@@
控制箱
九十年代
门洞
金属软管
浸出
芬
爵士
阿卜杜@@
替代@@
邮票
框@@
轴流式
住房问题
AH
特拉特
洛尔科
507
观察站
囚禁
薪@@
正交
纵轴
无家可归者
双绞线
离子@@
61.@@
扫射
MS
阿穆尔@@
扶梯
过渡期
掺@@
543
高速公路
9000
门斗
鼠@@
1195
O3
备料
活性@@
下线
外资
服务部
Kr@@
高等@@
讲座
中砂
从本
咨询中心
分裂主义
转接
鼓风机
停炉
Gr@@
增幅
暗
断线
昏@@
可视
防腐涂料
遗址
603
电子设备
NG@@
542
PH@@
辍学率
WFP
EB.3
维斯
不远
柄
16Mn@@
圣基茨
简便
汗
攠
安定
皮带@@
平均温度
千万
992
尊
钻井@@
2.02
28%
吃惊
控系统
使者
国际劳工局
压力降
气经
周密
第七批
二百@@
0.24
跨构
防冻@@
11.8
诊断系统
阿尔巴尼亚族
第五十二
补口
Ã
接班
har@@
变通
464
滑轮
688
4.10
审判权
辨认
不了
木板
节流阀
601
大概
中位
外交关系
跟随
异形
已达
渗透性
亚伦
楔@@
奥林匹克@@
112@@
非农业
滩
恩斯
赫勒拿
尤鲁波@@
运动会
8732
世纪末
驳斥
知悉
无限
施工期
745
各章
赠
利亚@@
来源于
上诉书
托儿所
行使权力
圆满
溯@@
国与国
临界@@
抢夺
16mm
造船@@
冲击韧性
L.47
传真@@
摸
居所
崇高目标
卧
模糊
流浪
投放
夹板
10000@@
1127
油量
大湖地区
FIC
南环路
浪涌
硬石膏
科斯
锌矿
712
横断面
性别差异
蒸馏塔
调和
避雷线
打击犯罪
遏止
交易成本
ala
与此有关
第二十七条
地砖
国家杜马
专业技能
径流量
最远
制浆
经验丰富
格斯
多沃
外伤
丛
莫杰
州政府
Â
履带式
除应
JB47@@
外露
不定@@
降落@@
上风
核化
后天免疫
各异
航线
嘴@@
第二十条
摩托@@
拧@@
贸易条件
休息室
申请表
寄发
废油
接电源
529
高科技
干扰@@
714
阿拉
--@@
溅
联系@@
私人资本
说是
惠及
创办
焚烧炉
暴力@@
ý
洽
氏@@
M1
佐@@
病假
公寓
差错
L.26
DN32
化肥
午@@
487
他国
蓝图
ant
第三类
126@@
囚
狱中
二者
九月
入境签证
CF
函中
数以千计
土地法
ers
鸡
心理学
支腿
反省
405
装料
卡塔赫纳
马尔默
ach@@
借此
中较
OP
宗教自由
付诸@@
琳
6B
踏@@
入伍
神经网络
大屠杀
轧材
𬭼
诚
博物@@
选择权
祝@@
顶层
叫@@
估
dwg
Add.10
持有者
841
555
浩@@
缺席
上作
明文规定
遴选
谷物
476
卡尔@@
mb@@
Class600
监督机制
潮@@
雇工
认罪
973
侧重点
轨电车
L.21
洄游
说来
煤油
清册
河北
公共安全
饰@@
水沟
井井
服务小组
悖逆
一大步
仍应
HIC
大小@@
非法活动
Ú
wa
阶地
之道
叠纪
律@@
++
海域
国家计划
积极主动
黑液
敦请
are
政策@@
空档
郊
闭塞
多媒体
镶
兑@@
动物@@
首要@@
15.1
出任
水合物
遇见
断面图
装机容量
积水
硫化@@
内衬
应涂
裁武
FRLS
佩斯
UNA0@@
储藏
Ъ
冶@@
乌萨@@
恒
递送
未向
属实
祷
实收
台湾@@
1420
筋@@
RU
qu@@
两件
GN
1302
钨
直流@@
辰
49%
减振器
应用软件
瓷@@
已同
高为
坠毁
纸张
漂白
_______________
分配利润
范
网状
学龄前
1940
与此相反
拉丹
附着力
需作
资讯
尔多@@
繁殖
STM
师资
跨学科
592
枢@@
KN
25000
不善
Bal@@
电文
对立
49.@@
只应
衷心
巴什
45.21
查封
斯拉@@
摩托化
寄养
水冷
动性
半导体
口中
御@@
强国
棕@@
可比性
链接
职业者
炭
人以
审判@@
贯@@
配重
正由
多家
玉@@
睡@@
酚
接待@@
闪烁
专门从事
接收@@
7.20
20X@@
第四十三届
开户@@
Ѕ
上传
装载量
核电
倡导者
购买者
三期
厂用
9.9
确诊
向外
安大@@
群落
教派
分辨@@
传播@@
误导
拖
27%
屽
街上
红树林
电阻值
劳资@@
保留@@
疯狂
海图
b1
债款
工业电视
票价
调制
诈
基本概念
简历
800mm
自豪
895
募集
液下泵
ink
对敌
贪污@@
仰@@
六月
核扩散
第三项
复会
第十六条
341
17.1
ou
借调
更衣室
模拟信号
第十七
0.08
财产法
联会
奈@@
玫@@
359
轻重缓急
讲授
热风@@
PRO@@
五岁
牙买加政府
一遍
ity
虫害
Energ@@
条所列
输往
资金短缺
放射源
钝@@
惊奇
单位制
仅能
紧急措施
参谋
管程
O型
输至
0.13
克里
结尾
价格行情
畜牧业
以待
813
未注明
应急照明
复杂程度
Ñ
警报@@
翻译成
雅库特
询@@
齐兹
Sama@@
两张
申请加入
责任感
油池
达尔
一分
弗朗@@
录音
在结构上
这事
接受国
工程造价
个人信息
q@@
不用说
矫@@
唯@@
活性炭
时性
dex
扩增
巴赫
深埋
水表
雄心勃勃
晄
B.@@
转向器
458
允@@
基岩
填充料
5km
IO@@
ó
餐饮
厄瓜多尔@@
416
防止出现
求职
衍生
重复@@
报关单
CONF
强加于人
层为
重合
监控室
团结一致
M10
空降@@
特别感谢
遥感技术
忠实
未遂
发来
滤液
移除
贪@@
4540@@
位数
车场
km2
堤坝
引接
退款
Jalibah
锰@@
更是
民选
碰@@
不下
销售量
搁置
威尔士
L.45
再次@@
敌
谨此
软件包
拓展
罚@@
沫@@
残废
衍生物
iri@@
违反@@
工程量表
部将
山岳
0.14
分局
拉美
求偿
挂车
赚钱
零售@@
拼接
积极开展
愈
购电
氛围
蔑@@
核反应堆
纤维板
贬低
送至
硕士学位
定位@@
钝
Cr18Ni@@
根部
开工日期
早晨
经销
第二季度
着力
极度
战机
役@@
突地区
液压@@
液氨
赖
长远@@
盼
洗钱
螺帽
恳请
跳闸
技术部
转向灯
钮
邻居
秀@@
过低
高精度
玉米
第一版
气象站
弹性模量
拖曳
房客
招生
无知
社会活动
文版
每件
玄@@
不得@@
辊@@
餐具
电焊工
直接@@
期票
趋向
■
纸机
心脏
接地系统
谢尔@@
拟合
所要
愚昧
年人
水泥厂
砂子
相连接
置式
侵略@@
普通教育
道义@@
管理费
手法
风压
留时间
股本
舞@@
科学界
抛光
简图
附加值
喻
SB@@
不太@@
斯敦
税收制度
牵涉到
油灰
勘@@
自重
科尔@@
结案
沙特阿拉伯王国
现役军人
资金@@
维生素
罗德@@
集结
扳道员
戈比
泄压
铺筑
糕
临时@@
管控
统筹@@
第七天
训练有素
瑞典政府
转播
受到@@
水文学
遗留
经济性
沦@@
烘炉
瓦街
弃权票
梡
马其顿
佣
换向@@
不见
弗里@@
η
濒@@
运输车
选址
继电
该署
空载
廖@@
岁@@
渐渐
合物
迫击@@
撤退
着重@@
反对@@
股票市场
巨@@
白天
隔离带
连通@@
米长
热烈
垛
造型
餐室
每组
毕竟
腾出
案研究
洗钱法
自力式
新一轮
鐢
菜@@
指示牌
清水
盘梯
联利
努力@@
所付
消泡剂
民族团结
每桶
领水
计划书
特工
能以
810
表面质量
拰
镉
创
布鲁@@
标线
钴
领海
第十六届
旋风式
恶意
种姓
过长
所在位置
轮机
婍
成品@@
货运单
能源消耗
第一号
鉴定@@
柳
纳斯
机和
族人民
改叙
来临
未人
沃洛@@
继而
票据
锅
骨折
牛奶
瓦解
245@@
水渠
请购
斯韦@@
质量体系
浮游@@
第六款
欣慰
期货
推杆
珠
肢体
抗辩
覆盖范围
贸易部
膝@@
泻
粒级
管理权
斯科@@
贝尔
环保@@
止一次
身体健康
厨@@
救援队
改写
阔@@
啤@@
更进一步
情景
苏联@@
视线
置疑
踏勘
才干
却@@
耶利米
杀伤@@
贝尔纳
抚养@@
本级
孙
芳烃
日报
核证@@
衬板
技术水平
亵@@
推荐@@
定期@@
连续@@
帅
几
核电厂
退役
沉淀物
水性
球队
孢@@
文化交流
克兰
招标书
输水管线
芦@@
彩
石英@@
$
襺
进路
方解石
紧接着
编辑@@
未缴
摩加迪沙
均等
搬
金库
站线
殷@@
九十@@
新世
母乳喂养
肠
撩
白垩纪
生产厂
砖混
佛
提取@@
清算组
日程表
á
迷惑
巴德
颈@@
靶@@
第十六
经济体制
统称
赶上
楼面
福音
灾后
服务区
面试
非线性
邀@@
本站
运单
西侧
达巴
传统@@
诺贝尔@@
开始@@
水柱
遮挡
秒钟
气候@@
账面
〜
挑战性
纯金
责任法
无遗
可能@@
滚动轴承
电源线
穆萨
顺利完成
标准规定
桥式
灯台
辑
网络空间
阀杆
该名
本部
|
电费
登载
苔@@
无期徒刑
纽埃
平衡@@
调查队
廉价
尤鲁@@
迁出
瀵
嗗
矿渣
建房
温带
面具
耦
海地区
该市
㎡
索姆
流体@@
视频@@
部际
码器
水平线
燃滑
纽带
通风柜
赐
弄
阵列
附加条件
有效载荷
启
炉门
打孔
方格
来文@@
畜@@
闸刀
特拉
服务项目
紧凑
艾哈迈德
作出@@
视像
战后
这应
诉方
斯托
须要
馆舍
阿克@@
矿化度
节理
依赖@@
行为@@
最低温度
警察所
计算机程序
液压油
道德@@
所得@@
气候系统
汇入
话题
银行业
短期@@
耐腐蚀
柬埔寨@@
往复@@
杂草
里斯@@
砖墙
柱上
理算
寿
篡@@
酸水
钖
破坏@@
沮丧
德拜
搜寻
泥浆@@
KA@@
有形资产
焊接件
矫正
吐
阿斯马拉
肺炎
电子产品
开幕式
经贸
有载
波尔
测线
截获
游击队
瞄@@
肺
箱式
铁丝网
接触式
鼓掌
第三级
服用
蠕@@
测定法
磁性
痛@@
ga
绘图
腻子
责任保险
暗杀
插图
疼@@
yah
顶界
过份
规避
跳
豫@@
蕴
校内
支票@@
憎@@
介
所附
甲乙双方
质询
篮@@
达尔富尔
符拉迪沃斯托克
水泥@@
福利制度
树种
自治机关
豁免权
日俱增
溪
选择地
抵扣
职人员
当期
钮@@
拖欠款项
主导@@
无害化
突出@@
高低压
电脑化
德拉
列宁格@@
灌
锁闭
保罗
随即
效法
过梁
物价@@
蛇@@
箱体
社会化
斑@@
条应
透镜
遮盖
海观
疗
载人
光灯
计提
亚洲@@
本细则
污水排放
标准状态
逃亡
阶梯
简而言之
觉@@
髓@@
救护车
若有
麦克@@
远控
几点
气浮
紧张@@
合格@@
代表@@
驾驶@@
炼焦
横杆
纤
休息@@
联邦区
比拉
硬性
执法机关
餐饮@@
洼地
部族
抵御
扰
气囊
HS@@
科航
高棉
不可@@
配给
敌军
起誓
明知
Ç
混输
劫@@
标值
禁毒署
面包
涸
熊@@
扳道
薪给
联运
不足@@
水带
塞尔维@@
生态旅游
消声器
所负
第七十六条
解冻
数十@@
舱口
蒙特塞
相交
伊斯@@
照着
迈
横滨
幅@@
灌溉@@
继承权
桥面
还债
翅膀
预冷
第十四届
电表
炉体
部级
涡
非商业
涡@@
竟然
驱逐令
水准@@
格陵@@
方程式
测验
狗
脱轨
摇臂
测得
放行
本件
寄
砂轮
泌
淘汰
转盘
防滑
货人
过后
英里
瑞士法郎
管理工具
第三世界
为数@@
魏@@
违法@@
近地
电力机车
务人员
数百@@
族长
管理法
无阻
相间
浅滩
现值
顺
陵@@
总结经验
纽约@@
手术@@
雪水
麻烦
试油
高素质
母乳
计数
诸位
每份
谚语
相互之间
扣缴
机动车
贯
表现形式
烧结
海关检查
诊@@
存储@@
◆
瓦罗
蒙皮
技术顾问
扑灭
侣
热缩
数据分析
ICC
达州
总包方
本体
引水
承重@@
掉@@
销孔
禁雷
罗夫斯基
林业@@
储
施暴
维持@@
主管@@
燔
繁多
旬
联络官
末尾
挂号信
料仓
电加热
第十八届
核发
效仿
生殖@@
武力威胁
微量
自治州
娃@@
患病
结构化
本保函
软弱
丧@@
自杀@@
建有
炸死
石土
陆战队
裂化
辨明
等同于
恐怖集团
微处理器
畏
攀枝@@
车皮
钛业
送电
出版@@
薄板
义务@@
自筹资金
鉴定结论
担保书
皮碗
意书
部厅
水溶液
汽包
浪
墨西哥@@
塞尔
纱
痛惜
机载
重大意义
操作温度
坎
鍦
酸碱
逐案
涉贸
示范@@
联合国安理会
特种@@
液相
自由行动
阿斯
钻遇
酒吧
罪责
第三十八条
悲剧性
检查表
透过
逻辑@@
直升飞机
燃气管
黄油
框内
¸
团结@@
相互合作
Є
剩
镁@@
重新占领
骸
高等院校
渊@@
颁
开出
兔
桩基础
录取
开庭
首席法官
建材
需要量
气候区
空线
尺@@
营房
电流值
悲
马加丹
治国
皵
潜水泵
高速铁路
远处
接替
检验证书
绞
管端
逮捕@@
森林工业
行动不便
统计学
花岗
穆尔特
果说
198@@
霍尔
氏体
铁素体
规模较
移动电话
整齐
深灰色
仁@@
观看
运载火箭
淹
更能
性化
积金
移动@@
通则
玛丽
请参阅
管托
赫尔辛基
骇
弗雷@@
王后
灏
微机
盟国
篮
欧表
炉中
雾器
凌@@
组份
锯
澳门特别行政区
弗拉
睡
诞生
矿物@@
β
形变
迄今@@
滤波
欧盟委员会
非凡
播种
新厂
直角
负担@@
航员
电工@@
支出@@
终局
东南@@
仔细@@
猜@@
饮用
药芯
法域
拉尔
臭@@
轮式
视镜
饭@@
护坡
整备
嵌@@
民事诉讼
第十三次
货运量
惊讶
循
集水
浇水
蔓@@
焊层
悬浮
自给
利害@@
礁@@
无法@@
捐
径@@
莲@@
仟
贰
炎@@
酚@@
集成@@
队形
机修@@
线束
正值
叉@@
皱
牵引@@
率先
齿轮@@
观察@@
斯季
异常情况
第七节
萨尔
塔吉@@
锋
棒@@
获得成功
沙姆@@
缺失
长满
长久
霸@@
贫困率
计数器
妨@@
生涯
吐@@
吞@@
济
难者
抗剪
计算长度
迎战
特尔
顶棚
瑰
失业@@
重开
槹
监视器
钱@@
堦
颈癌
死于
国公司
认缴
难以获得
照明@@
卫
突显
铆@@
立陶宛@@
期为
𪥿
锻造
脱硝
数据交换
麻疹
解聘
精制
站不@@
黄
-@@
核能力
波斯@@
第三十九届
辨别
新生
恒@@
那次
清洁度
非金属
派往
捣
群组
重大事故
−
截然不同
接零
梫
菲律宾@@
很差
谎
很广
电子邮箱
获取信息
玻璃幕墙
面貌
流血
炸机
电部
债权@@
负起
气溶胶
洛夫斯
树林
光谱@@
隔绝
放器
旱
接收国
液化气罐
生态@@
镀锌铁
验算
热风机
润滑脂
妈@@
高均
寺@@
诉讼法
明显增加
管制系统
嫩
罗夫斯克
删@@
蜜@@
环卫
莫吉廖夫
形形色色
籽@@
止使用
购买力
鹿特丹
%@@
设备设计
符合规范
往来@@
沙质
点火器
维克@@
曲柄
落地式
恶性循环
特征@@
微小
转折点
邑
灌木@@
拟出
清洁@@
职能@@
驾@@
建筑用
鹰
覆盖@@
开阔
预示
饥荒
这才
电视广播
哭
申根
滥伤
璁
柱状
皂白
水文@@
情报局
试井
看不见
驻扎
高得
民营
录入
雷击
胶合板
史
显示装置
退伙
萨克@@
详细信息
联危
每季度
祸@@
避
尖
钛@@
糟@@
Α
旦
ß
慰
釜@@
颠@@
开展@@
暇
糊@@
郡
掌
钥
▽
膳@@
犹
巴拉@@
羟@@
晒
茹@@
纵
生育@@
诺夫@@
争
pa
茂@@
悖
尔斯克
湄@@
鼓
伙@@
宸
观测@@
盲
窄@@
社区@@
爆炸@@
惩@@
恋
瓜
岖
忧
岂@@
桁@@
匀
秘@@
双重@@
靰
藻
谊@@
忌
瓜@@
期徒刑
驳
í
帇
絮@@
高加@@
_@@
捉@@
拮@@
３
傲
择
吞
佰@@
扔
侨@@
避雷@@
４
檐
贫民@@
履行@@
紫@@
ュ
新西@@
﹒
运营@@
券
株@@
骚@@
冷凝@@
染
贿
玻利@@
巷
收款
脑
谟
憰
蚛
欲@@
克拉@@
卑@@
揭@@
λ
味@@
输油@@
募
倡@@
il
祝
主持@@
崇
挪威@@
质性
监视@@
帽@@
肿@@
宴@@
谎@@
东道@@
壏
挂式
上所述
库特
届@@
曲
隙
格兰
衍@@
纱@@
迟于
封信
完好@@
电阻@@
No@@
亨@@
电流@@
杨
冷却@@
君@@
侯
曐
零零@@
吓
览@@
----@@
珐@@
森林@@
缉
仿@@
值班@@
纤@@
帜
湴
盼@@
驴
陪
颖
耀
年度@@
唑
豫
忘
冲击@@
嫩@@
映
魔@@
涌
𫔄
拽
绕
糟
送给
锷
唆
穥
耦@@
沉积@@
自行@@
唐
输出@@
研
碰
肪
衔
锐@@
汞@@
贩@@
水利@@
克罗地@@
倾
挣
适应@@
纽
辞@@
酰
掘@@
楚@@
梭
乌兹别@@
缃
理学
压器
幼
知名@@
欢
剩@@
僚@@
全时
洒
甸
茶
挫@@
迫
摊
乏@@
匿
脳
暑
Ti@@
芘
嘉@@
酋@@
亡@@
辙@@
越来@@
确度
四届
人事@@
慈@@
逾
舰@@
咒@@
滥用@@
沸器
枝
RD
返
柠@@
淫@@
透明@@
处理器
紧迫@@
锤@@
檬@@
煅@@
饲@@
剖@@
替
潘@@
循@@
钞@@
萘
权代表
③
哥伦比@@
固体@@
量计
淬@@
蒸发@@
钶
垦
愧
砌@@
睦
标人
仆
身体@@
墓@@
扰@@
消极@@
抄@@
星期@@
廖
干达
掳
电信@@
某种@@
泪
绾
症@@
阴极@@
遂@@
啡@@
扭@@
尘器
妄@@
搴
郁
滕
与此@@
轧
亩
俯@@
à
艰@@
前后@@
失踪@@
蛇
霜
屯
埚
晰
歌
卤
弦@@
豆@@
边境@@
烷@@
奥林匹@@
宏@@
潜水@@
陵
殿@@
MM@@
素@@
爪
撑@@
析
民用@@
纹@@
鏀
​
‘
愁
遭@@
酗@@
渡
炸@@
褐@@
电车
____@@
挽@@
设备@@
踩
拐
惯@@
羔
加拿大@@
寡
挤
咖@@
恕
武库
疑
花板
挠
滴
刊@@
酷
瞩@@
瘟@@
定书
摩洛@@
而言之
喉
专家@@
仑
辽@@
撰
者@@
咽@@
苇
噪
基础@@
宰
棘
厦
富有@@
谊
姊@@
330@@
祷@@
颂
扩
俘@@
僚
夏
虏
Ý
乔
资企业
侵
翻
伪
产值
钒
应用@@
驾
电脑@@
穆尔@@
缓冲@@
警察@@
涝
刺
雹
偶
加勒@@
扁
尽全力
肆
洗涤@@
氟化@@
悔@@
瓷
纳米@@
粘
哭@@
学金
贾
伟
不多
皇@@
札@@
议案
拣@@
原子能@@
住宅@@
滥
阐@@
氰@@
塘
逼
么@@
晶硅
独
责@@
颜@@
比利@@
忋
夊
通过@@
Њ
斯托@@
闱
阿布@@
巭
艺@@
蔽@@
玢
敌对@@
擅@@
郑@@
亚政府
逢
剧
砸@@
产地
锦@@
伯利@@
起重@@
翁
朱
抢
开采@@
墨@@
纠
掩
悖@@
竹@@
𡶴
烤@@
洽@@
耽@@
电缆@@
巴布@@
横
丢
BD
新加@@
远地区
毋@@
赚
伙
猫
握@@
氩
铸
闸@@
芽
铣@@
㎜
氦@@
信用@@
兢@@
噪@@
５
啊
各样
性别@@
奏@@
忌@@
僵@@
ａ
佸
璇
≈
放射@@
碍
鞭@@
手提@@
主教
痹
蓄
崩
出租@@
０
理会
率高
∙
ö
流水@@
腔@@
签订@@
浆厂
愤@@
土工@@
凝结@@
店@@
茵
驼@@
惰@@
讫
肝@@
根据@@
人权宣言
暂
壹@@
烫@@
赐@@
槩
杯@@
CON@@
资格@@
浠
摒@@
翔@@
RS@@
谦@@
琅@@
功
改革@@
褶@@
箭@@
劣
毯
牧
崎
惩
谍
连接@@
钉@@
授
寸@@
寜
迷@@
原始@@
烯
经常@@
敤
涵
屡@@
′
顾
娴
晹
公用@@
倾销
烂
恼@@
利息@@
敲@@
帘@@
屑@@
套设备
轭
胆
配电@@
捆
绿
稽@@
庙
谤
代理@@
搁@@
⑤
鸭
不通
暨
穴@@
冤@@
粮
肮@@
氡
被告@@
酬
气体@@
保人
疾
毂
窝@@
仗
尉
暖系统
沾
铍
F.@@
镀
韢
总结@@
全体@@
行使@@
劲
宝
妆
撇
貌
常规@@
维尔@@
萝@@
亏@@
忆
丽
颗@@
慌
★
墓
鍑
Õ
偿
塞浦路斯@@
惯
凹
刮
ð
瑕
辖@@
箍@@
贺@@
漫
椎@@
铐
空中@@
配套@@
日内瓦@@
愉@@
败@@
惨@@
少数@@
般
擛
赋@@
戮
巴基@@
歉@@
辍@@
雕
姐
发电@@
骄@@
醋@@
洗钱@@
琼@@
采取@@
拌@@
畅@@
ѕ
晓@@
俗@@
奏
择@@
駗
排放@@
胚@@
甩@@
鳏@@
爱尔@@
维纳@@
汤@@
进行@@
幕@@
扑@@
策@@
腹
以色列@@
阿鲁@@
逾@@
喷射@@
荆@@
机车@@
规模@@
尼泊@@
最新@@
焚@@
杠@@
违
防爆@@
俟
缮
峡
酵@@
抱@@
茫
骂
雇
虹
隶@@
抬
鍙
韧性
Ⅴ
宙@@
蛋
窍
揬
驴@@
偷
瑞士@@
颂@@
吴@@
蹂@@
卜
躏
三角@@
番@@
量表
泣
摇
沸
欣
瘾
钩@@
丢@@
又@@
乳
德里
至关@@
显示@@
闲
羧@@
咐
合组织
亚太经@@
仇
厘
Cl4
袖@@
匿@@
路图
熏@@
障@@
裓
栓
滞
掷
机器@@
地震@@
碘
陋@@
样器
共处
整体@@
桅@@
仿
趣
蝳
WF@@
镙
事实@@
虾
跃
莉@@
廷
美利坚合众@@
妹@@
奠@@
线图
农村@@
置图
煌
壮
竟@@
杠
逐
鸡@@
窿
藓
寓@@
晴@@
滨@@
碘@@
疏散@@
坩@@
密集@@
唐@@
Class@@
攀@@
润
清算@@
赫尔@@
932
酯@@
躲
究
钟@@
胸@@
幸
剔@@
腊
流动@@
妄
伊斯兰共和国
抗力
健
表盘
不清
敏
基准@@
斯洛文@@
地面@@
＃
拾@@
学龄@@
穴
￠
管局
纺织@@
谁@@
达成@@
流行@@
不列颠
缔@@
娑
聂@@
磺@@
确
弗拉@@
ô
釉@@
脆@@
公民@@
篷
德国@@
偿还@@
烹@@
陛@@
紊@@
增长@@
冠
摘
太阳@@
钽@@
....@@
碛
仲裁@@
敞
珊
大西@@
踢
膏@@
歉
胞@@
孩
椅@@
詹@@
截止@@
厉@@
藜
言之
蕴@@
柏@@
131@@
Jal@@
当地@@
饪
彻@@
截
机动@@
诲
蚂@@
绛
匀@@
鄂
釆
夸
罚
莎@@
拞
新生@@
专线
卯
揪
撼
稀
沥@@
淀@@
鲑@@
悼@@
调节@@
诞@@
皇
虚
Ⅹ
缸@@
披@@
韩@@
贯彻@@
邮箱
宴
札
嘱@@
凿@@
沸@@
诅
利斯
宏观@@
奴
镀锌@@
昭@@
沼@@
芒
无缝@@
助于
斤
葛@@
斤@@
操
可靠@@
尸
硝
方面@@
幌@@
氩@@
络@@
剪
跌
蔽
跃@@
稽
享
抛
训@@
栖
栓@@
吕@@
黎巴@@
衷@@
邮
恳@@
旷@@
哀
镑
盥@@
同酬
誉
今
阃
扮@@
UNA@@
清管@@
亭
娗
滚
面图
摼
阅@@
生素
肢@@
‐
JB@@
舌@@
添
唤@@
胡
怂@@
恿
牧业
ù
拢
螺
锅炉@@
隘
ъ
饱
宰@@
筵@@
嘱
行业@@
委内瑞@@
鸥
拉政府
公法
茄
声波
潜
澡
慕
锈@@
供电@@
不懈
寂@@
惧@@
马格@@
援助@@
一来
茄@@
萌@@
噺
倘@@
腾
岭@@
桠
榫
价值@@
绞线
撞
挠@@
契
有害@@
莲
国家联盟
踢@@
霉@@
挺
斥@@
锆
神经@@
兢
绥@@
加拉@@
承包@@
么样
穹@@
泡剂
丄
布罗@@
茎
钨@@
帮
性能@@
唱
酿@@
娅
岑
注意@@
明书
㈧
西亚@@
徐@@
罗夫@@
踏
扭
兴
惧
浦@@
哲@@
鍖
娘
幽@@
â
正常@@
镓
凑@@
Ⅷ
嫙
累
笼
囧
肤
喘@@
嬫
瀷
酪
斥
∶
索赔@@
▼
埲
行情
倦
虞
Ω
饱和@@
犊
猛
缚
漠化
裨@@
曙@@
椆
杈
𨱒
三届
婃
阆
岀
盎@@
胺@@
Å
预制@@
在案
牲@@
储蓄@@
刘@@
窑
恪@@
佹
再生@@
褐
劝
楷@@
请求@@
驼
阈
佺
茨克
华盛@@
谐@@
穗
明显@@
蒿@@
收率
鏂
醒@@
ќ
𣸣
贬@@
７
姞
腑
棱
碴
袒
爪@@
橄@@
澳门@@
酶@@
铓
晕
绌
海湾@@
罄
峭
窜@@
彷@@
莅@@
唛
电器@@
壥
拭@@
恳
舌
妙
鍐
掕
恢复@@
申请@@
七届
承载@@
璺
毫
醇@@
玩
骗@@
把@@
夎
溃@@
不便
怴
矢@@
皂
加尔
骞
辨
Þ
铋
肾@@
寮
钟
养老@@
蜜
保加@@
辙
指挥@@
赋
露天@@
躺
拳@@
交换@@
机会@@
坪
蛚
可信@@
撕@@
镦
芳@@
传送@@
岔@@
瑙@@
玉
丧
纷
赘
克罗@@
ぉ
匆@@
孟@@
缠
讥@@
复印@@
哄
流式
俾@@
念@@
＿
捌
+@@
骆@@
选择@@
炸
032
矮
怜@@
夛
瑞
遂
ㄥ
黏@@
喇@@
叭
悟
土机
猖@@
朝鲜@@
ｂ
瑞典@@
舒
蹄
格鲁吉@@
编程
凉
包方
颤@@
贩
廊@@
拱
幢
陌@@
慨
珠@@
接地@@
现实@@
皆@@
奴@@
秤
碌
灪
腥
邪@@
炬
捉
镗@@
㈨
录像@@
挺@@
椡
丑@@
拷@@
钾@@
讨
锅@@
∆
负债@@
叁
循环@@
下式
鸣@@
数以@@
摧@@
廷@@
尽量@@
切实@@
凶
且@@
儒@@
呆
聋@@
囤@@
闯@@
联络@@
怠@@
娠@@
可预@@
勃勃
阿塞拜@@
甩
囊@@
剧性
波罗的@@
衅
萝
戚
世界大战
停车@@
大陆@@
非共和国
伞@@
闹
异常@@
傲@@
选举@@
寻
‹
诽@@
谓
相关@@
庸@@
材@@
溜@@
括@@
验收@@
椤
概
严格@@
宏
空局
解释@@
妓@@
惑@@
岗
喂
袄
滩地
叁@@
叙
恶性@@
渝
平面@@
最大@@
摉
崎@@
缠@@
未经@@
继续@@
触
Ї
坯@@
病学
捻@@
㈩
棵
稻
狸
𫭢
渍
砍@@
崭@@
徽@@
泳
冯@@
蹈
疵
瑕@@
渐@@
昨@@
楞@@
嫁
熨@@
难民@@
有限@@
强加@@
erg@@
√
粘合@@
棘@@
酷@@
榄@@
麻醉@@
粡
尯
参
低压@@
铣
刨
萧@@
基金组织
怨@@
委员@@
尿
亚美@@
坞
纝
辱@@
荒
巴勒@@
浊@@
耶利@@
氱
洼
岃
芭@@
绚@@
混凝土@@
色金属
磐@@
购买@@
敢@@
特网
懈
疤
甫
议会@@
尔河
饤
萤@@
综
钽
通行@@
悯
茅@@
携
锑
日本@@
灦
然不同
闅
缕
李
垮
运站
翔
铌
烧炉
胆@@
⑷

赏@@
务部
能器
匝
贺
嘉
滩@@
Ђ
Sal@@
姑@@
崇@@
绸
粕
株
肼
因于
卿
壶
诀@@
原状
外国@@
锗
敕@@
唆@@
刹
锹
霸
蒺@@
酐
究@@
敲
晾@@
萘@@
谬@@
信服
榓
馏@@
蔑
肚@@
甜
缠绕@@
嫌
屉
蚊@@
彰
郭@@
沛
婢@@
习惯@@
记名
勇
追
措
惶
纭
占领@@

靖
瞎@@
・
蓝
消耗@@
弹性@@
搙
浴@@
几内@@
斯特拉@@
臭氧@@
堂@@
惹@@
姏
科索@@
够@@
襟
椰@@
妊@@
磅@@
魂
特别行政区
膨@@
闩
溃
廓@@
讨论@@
颓@@
埃塞@@
奎@@
锘
午
矢
需求@@
婆@@
喂养
水龙@@
裸
加剂
贡@@
盈
蟷
珊@@
蒽
柔
厖
丙
这样@@
隙@@
材料@@
搅拌@@
周期@@
奢@@
冕
柯@@
俱
溴@@
墟
琝
交叉@@
应急@@
仇@@
斯卡
峊
矩@@
伊斯兰@@
哑@@
铠@@
加油@@
蕉
膀@@
摈@@
总表
鉴
鐞
眉@@
柟
帆@@
次世界大战
徇@@
酝@@
酿
犬
镣
虹@@
诬@@
募@@
舞
税收@@
轭@@
沪@@
人民共和国
避孕@@
8.00
发表@@
番
诋@@
熊
混凝@@
腌@@
明细@@
爽
怜
搅@@
撞@@
稼
呆@@
助者
激
秧@@
嗤@@
绸@@
吓@@
履
糙
獗
瑰@@
雀@@
爬
怪@@
忙@@
竹
粥
不锈@@
感器
秉@@
搂
堰
允
î
椂
组合@@
笞
哄@@
ê
全民@@
蜂
瘠
督
谱@@
硕
管道@@

喂@@
甄@@
擞
尸@@
寝@@
叹
从业@@
哈萨克@@
庡
营利
建立@@
溪@@
葱
垣
吟
牲
婪
狄@@
缄@@
硼@@
戏
馏塔
牟@@
玻
搪@@
股票@@
崴
继承@@
纳尔
醉
伺@@
惭@@
胸
彨
未有
帖
暷
证据@@
利比@@
桃
戚@@
卡纳@@
制冷@@
罢@@
杉
臭
毯@@
呵@@
莱德
塞拉@@
布隆@@
铰
抓
萎@@
酬@@
趋
壑
水力@@
胃@@
映@@
鎺
运人
绋
障碍@@
丸
乍@@
溜
筐
件人
捞
鿔
顽
恨@@
棕
弊
撰@@
锲@@
务员
位计
需要@@
洙
舷
悠@@
™
议院
Cor@@
助金
对性
赎@@
釉
烘
υ
高速@@
谅
斿
Ａ
人权@@
叔@@
鎴
朔@@
ε
梯间
规范@@
伏安
克兰@@
斯洛伐@@
阿尔巴尼亚@@
畸@@
灶
杊
醋
渺@@
姿
经验@@
钋
漠
茬
跪
候选@@
亭@@
蚕@@
兰卡
呕@@
苗@@
Corr@@
格林@@
匣
仪器@@
__@@
箔
铂@@
卸车
030@@
尼亚人
保险人
Ґ
颚
券@@
苏丹@@
波利@@
屯@@
各项@@
孀
钓@@
委托@@
８
喊@@
囔
俊@@
客运@@
通货@@
９
Ｂ
鲤
敷@@
仑@@
内政@@
诱
瘦@@
姬
蝇
勶
芙
敯
ヨ
𨰾
獙
高地
貌@@
朵
术@@
掸@@
肖@@
鍗
‚
长岩
愬
编制@@
烦
绔
嘲@@
悉@@
丙烯
姥
穆尔
潘
爱沙@@
琴
勮
赏
扑
匪@@
缁
蝶
一百一@@
劧
儹
╃
发起@@
笛
一无@@
鬼
å
ME
啦
鸽@@
巿
析@@
忆@@
外线
砜
酋
烙@@
窑@@
窟@@
斧
垒
灞
恐怖@@
卵
全国@@
多斯
ü
琐
膝
𪩎
摔@@
忱
悦@@
单位@@
销商
桶@@
耿@@
值得一@@
桳
雇@@
耿
碑
骑
浜
恐
奋
鬼@@
逊@@
溯
啸
拦
生存@@
巴拿@@

拙
秩@@
铡
堪
域网
馆@@
榴@@
斯卡@@
匹@@
常任@@
鸦
锦
涛@@
共体
收益@@
馈
卑
轰
繁
升降@@
霭
浣
倚@@
霜@@
揿
娲
布雷@@
平等@@
惮
慑@@
淬
莭
篷@@
寺
詹
今天@@
銄
浑@@
瘑
龛
剖
导热@@
嶆
呐@@
ú
猎
孜
Υ
饥@@
陋
国内@@
袍
τ
绮
翅
迎
莎
捏@@
彼
慈
虐@@
SYM@@
壕@@
尔吉@@
竞争@@
蝗@@
参谋@@
弓
¯
陕@@
腱
檐@@
肃@@
否@@
般@@
迷
预防@@
烛
句@@
裤@@
纳税@@
狮
适
绉
⑹
介绍@@
峙
握
诠@@
咸@@
佐
勉
渎
唾@@
帝汶
视察@@
幔
隼
诩
奴隶@@
囗
炫@@
佰
佃
盏
联邦共和国
诗
研讨@@
Ы
龟
有者
巾
诵
鸣
尝@@
醹
愯
暑@@
阿斯@@
小组@@
⑦
紫
𫚔
殌
＆
掠
裹
绍@@
府@@
咬@@
用力
晒@@
瀹
缀
臣
哈马
阿卜@@
胳@@
目的@@
杏@@
滕@@
惀
黒
诉书
饵
阿尔巴@@
肓
一体@@
Ｎ
稿@@
除此@@
弛
瘫

不前


庤
圭亚@@
遐@@
黑塞@@
汤
陪@@
馶
绅@@
技术上
席会议
违约@@
索托
斧@@
犬@@
拘
谬
恭
锉@@
比克
饿
动产
谕
觐
耻@@
防疫
游击@@
湾@@
埵
敏感@@
耍@@
种族@@
尴
庴
配线@@
妒
苟
馑
八届
揽
坚
册@@
梭@@
瀮
羽@@
焕@@
橛@@
愆
漩@@
董事@@
公正@@
踪
出物
澳
毕
措@@
鸵@@
惍
惈
妥@@
撪
婘
妮
GO@@
迂@@
朳
娘@@
琢@@
迥@@
用期
澈
承担@@
宍
聊
丗
鹅@@
肾
原子@@
岘
柔@@
‖
踩@@
槻
锆@@
娆
孜@@
斾
贞@@
榍
杭
俭@@
囩
岥
矸@@
窃@@
恖
稣@@
琳@@
挞
马耳@@
姚@@
毡@@
鹜
恣@@
纺
舾@@
簇
呜
噩@@
赦
腮@@
湛@@
忠
焓
懦@@
躲@@
›
卫者
妫
嫉@@
嬮
橙@@
晤@@
﹤
腮
硅烷
诿
棍@@
竖
抟
权威@@
晃
圣马@@
旺@@
梵@@
犁
投入@@
肤@@
庇
睽
裤
睽@@
芜@@
判处@@
石流
企
崛@@
拇@@
姣
制度@@
解除@@
骇@@
焰@@
各个@@
驰
马来@@
勤人员
架结构
锉
弛@@
锐
墅
弩
奔
怒@@
抻
忿@@
鹬
崔
侈
夷
鹅
热水@@
受益@@
遗
出资@@
焲
＂
噗
ﾔ
勪
筏
容性
枕@@
屦
斯加
厘@@
淋
簬
≮
沫
自足
黯@@
骸@@
自给@@
胁
嵟
驰@@
琅
Ｐ
刹@@
迄@@
ps
无论@@
乃
姝
愕
郳
筡
辟
纫
竴
头处
蚀剂
佑
退休@@
睫
歇
痉@@
鐣
志愿@@
蜱
挨
萨尔@@
鲈
民间@@
少年@@

﹕
闹@@
粱
挛@@
楀
鳞@@
拭
圳@@
玻@@
渍@@
北极@@
利亚共和国
坯
日常@@
泥船
驳@@
卵@@
绒@@
寋
瑙
鹤
宠
涩
忓
淤
孺
艰
ｅ
蒿
ㄩ
梅利
鸿
邱@@
伊朗@@
勾
牺@@
绩@@
普林@@
阿根廷@@
哗
寡@@
鍏
娌
庢
渤
〃
谜@@
韩
歧@@
渤@@
朊
孩@@
不移
掳@@
ç
阿尔及@@
丝网
疟
濯
咄@@
诞
苍@@
梳
极管
苏里@@
卢森@@
楞
胫@@
鱿@@
股份@@
踝
衹
狐@@
鍧
基里@@
鏅
Ｍ
权力@@
帧
锂@@
绫
庨
曽
⑥
矽@@
其他@@
娜@@
最小@@
分子@@
特许@@
扒
谤@@
罹@@
参加@@
笛@@
锌@@
哥伦@@
赈
厌
蹲@@
鸻
鹭
葱@@
病率
邸
加入@@
羔@@
Û
﹩
指示@@
卢旺@@
ibah
ㄧ
芙@@
法院@@
夭@@
竿@@
囬
逞
壬
执法@@
榄
访者
纲@@
聚氨@@
盯
徽
铵@@
闭式
装箱@@
咨@@
朄
诫@@
謢
铟
瘦
庶
炴
茑
幔@@
俩
楂
杩
𫐎
繎
川@@
货运@@
玷@@
汛@@
鹿
炳@@
撇@@
碑@@
不论@@
里程@@
乌兹@@
贻@@
渎@@
施加@@

遣队
ョ
诊断@@
夋
煮
沪
敛
苛
曢
崭
巤
聆@@
伙伴@@
昼
敖@@
婉@@
侨
臆@@
盾@@
桦
曳
若尔
狂
焉
秸
秆
秸@@
葵
嬩
杉@@
璧
廋
珯
楅
叆
ñ
簕
沼泽@@
勋
昔@@
秃
衣室
琦
厢@@
毗
肪@@
经理@@
锇
之为
鲨@@
塼
犻
懱
滨
同仁
沾@@
世纪@@
肝
畬
懘
旀
哥伦比亚@@
阌
绍
泻@@
梗
嚼
剔
暔
燕@@
侍@@
嘛
璐
捞@@
锂
衫
≯
栧
诗@@
浊
厢
靘
氲
绊@@
温器
ä
卉
邃
翌@@
小儿麻@@
幕式
犺
堡@@
幼儿@@
消息@@
褰
主席@@
矮@@
庸
慕@@
劈@@
芳
煞
报警@@
厫
玢@@
媦
蚓
狡@@
蚯@@
着眼@@
油厂
抉@@
仲@@
健康@@
碟@@
而易@@
ㄦ
љ
绂
行道
吉隆@@
士兰
秤@@
仆@@
暧
谐
翠@@
碍@@
枕
戊@@
烛@@
赘@@
闂
孵@@
崌
厥
靤
普佩
杖
夌
小型@@
姨@@
褥@@
STA
馨
骪
疮
坠@@
蒜
侵权@@
啮@@
昁
諁
毙
禽@@
榛@@
烃@@
雄心@@
重于
慧@@
攞
芮
裱@@
灸
润滑@@
侏@@
庣
咒
鍓
CV
打击@@
巡逻@@
送器
聚氯@@
腿@@
綔
ヤ
瞭@@
笨@@
SCA@@
堕
凌
事会
仰
跺
符@@
犳
保温@@
淇
〇
濊
Ё
掸
驱逐@@
Ќ
冬
皑
安第@@
蚀性
殖民@@
盂
菊@@
惂
俸
⌀
羞
滋
坊@@
儡
傀@@
褪@@
偄
葵@@
抖
煎
蠢
鼎
閰
舷@@
甸@@
眠

宯
阒
΅
彜
黎
亚历@@
南斯拉夫@@
稠
黏
朋@@
缔
裹@@
口处
潢
钼@@
奸@@
堟
1291
晻
揰
裕@@
诈@@
擖
玖@@
茹
菏
腺
威尔@@
昼@@
铃
闺@@
瞪@@
蚁
悺
睑
惹
𫭟
𢽾
砷@@
寥@@
辨@@
锨
慨@@
于人
谕@@
粹@@
除氧@@
骥
闀
ご
Ι
聪@@
Dec@@
谍@@
钡
谜
厩
曳@@
搏
白云@@
身份@@
壸
新斯科@@
泌@@
旦@@
汲
胀@@
鞣@@
金刚@@
驭
⑸
羚
棵@@
海岸@@
戈兰@@
嵩@@
繺
蚕
匹
蚱
辄
熄@@
伟@@
屉@@
蘸
克劳
浙@@
泳@@
货物@@
勫
印度尼西@@
斋@@
缎
稴
廓
摍
刃@@
葬@@
麓
莉
枾
裸@@
坳
忢
稗@@
χ
发援
长官
叶卡捷琳@@
地式
步提高
晰@@
巯@@
居民@@
鹤@@
颏
屠@@
坠
姐@@
友好@@
娓
何
粪
鼻
镰@@
僻@@
防锈@@
岦
嗦
邪
摓
恃@@
裙
无线电@@
沉
幻
柒@@
榻
太平洋@@
曷
皱@@
磐
扯
勭
镗
磋
辋
增值@@
畏@@
忘@@
晋@@
岔
榜
翅@@
慌@@
哮
吼@@
陀
亚太@@
琐@@
６
咆@@
总的@@
焊接@@
缂
ㄨ
浔
汽提@@
笟
帅@@
大步
私有@@
慷@@
滀
趣@@
佷
方程@@
﹐
钙@@
迹@@
厉
ì
荤
蘑@@
˾
厨
董
跷
刚果@@
鄙
圭
ļ
列车@@
拳
伦堡
萨卡
所罗@@
Ù
泉@@
谴@@
地面积
‡
恭@@
芝@@
菇
敦@@
罗姆@@
凸
膳
潎
修期
熀
秺
酏
挹@@
ww@@
踊@@
喃
贱
啼@@
大会@@
Ｌ
圳
酊@@
轶@@
悗
螂
绐
汀
胯
硷
秉
痘
布基@@
砸
摂
糕@@
嫭
Ѓ
呮
栫
苄@@
耚
摵
Ν
愁@@
袁@@
杜马
鏄
幌
躺@@
殆@@
汪@@
叕
饼@@
棣
匮@@
移民@@
卡塔@@
邓
㖞
炵
巴尔@@
瓑
儆
呋@@
印第@@
源地
荐
仙@@
珍
伸缩@@
西班牙@@
纳街
馥@@
誊@@
吵
逛
Ⅶ
恫
虹吸@@
式起重
嬴@@
相比@@

ň
嗪
哩@@
祼
魂@@
旷
𬣞
哉
趾@@
漫滩
膺
⑪
毅@@
氙
多元@@
隧@@
穧
穆斯@@
hon@@
⑧
咳
ђ
埌
颚@@
袜
改叙@@
特丹
阁
敔
峭@@
紊
蟑@@
抨@@
壹
互
弝
污水@@
𫖯
殡@@
歹@@
惊
二届
兽@@
鳞

寝
合实际
荟
法索
亨
砧
柽@@
匣@@
箎
蔓
掀@@
证书@@
妃@@
辈@@
技
箕@@
周知
∽
唇
⑻
拈@@
葵花@@
坛@@
电保护
锋@@
赴@@
鸷@@
╋
樻
臷
垄
垄@@
ŋ
巾@@
丈
地中@@
赳
衅@@
匠@@
枡
勬
堣
鏋
愮
曞
洰
镩
庯
箣
遏
阄
部长@@
晖
▍
柘
冭
笀
尔尼@@
芑
4214@@
421443.@@
噢
娈@@
惃
椫
紑
哜
饿@@
肃
驮
蔡
啸@@
唿@@
哨@@
鳍
醉@@
勿@@
话说
六届
诧@@
问责@@
宋@@
鐑
靛
鬟
诅@@
躬@@
栵
伄
纰
𪵑
簲
霞
药物@@
驹@@
谦
年轻@@
抲
帺
杮
绳之@@
ㄤ
创新@@
弥
蝾
腓
矣
淘@@
撵@@
扔@@
嗅
此结束
阏
抚
自筹@@
密克罗尼@@
Cr17Ni@@
僧@@
Mo2
澡@@
枚@@
央@@
惋@@
勉@@
弟
傅
钦
遥
惶@@
苇@@
簩
剨
绅
︺
悇
棌
呭
贼
霏
茫@@
虎@@
碧@@
顷@@
燥@@
瞻
⑽
芯板
佛得@@
涘
▋
埔@@
役军人
痒
郸@@
邯@@
椽@@
鲤@@
濮
壬@@
畕
涜
鹃
苹@@
鲸@@
加拿@@
幵
岑@@
愧@@
敝@@
礅
识别@@
股东@@
瓦多
ϕ
弘@@
领土@@
衍
尧@@
坊
寅
搀@@
呀
加德@@
雀
辔
鹟
啄@@
鸮
合金@@
复杂@@
瞠@@
葺
单一@@
亘@@
徐
庚@@
感到@@
楠
巨
壔
摴
慠
揤
慜
辐@@
俱@@
悔
Ǿ
阡@@
翘
髓
阉@@
撷
鹿@@
绰@@
鸽
彰@@
毂@@
茜@@
奸
丹麦@@
毛里塔@@
妾
遮
讽
觹
﹟
秀
101.@@
比绍
魇
桷
犭
琦@@
𫗠
嘲
掅
崀
斀
焄
懪
婲
堷
溇
扙
徏
·
劲@@
炽@@
燎@@
蜗
接线@@
篦
福克兰@@
荫@@
舔
捅
炒@@
棋
卒@@
矛
篁
漓
力支持
圑
←
叛
宣
剥
愣@@
叩@@
扯@@
牒
啰
爵
穑
稼@@
満
傝
楄
楩
棃
奿
猴
狭
纛
您@@
膀
趴@@
泞
dw@@
窘@@
代办
晌@@
簸
厎
杵
韭@@
菁
砰@@
大幅@@
赫勒@@
踵@@
萎
洼@@
笆
篱@@
褊@@
袭@@
htt@@
跫
口头@@
陖
湅
涚
龟@@
鑶
毉
蝎@@
缭@@
总参谋@@
鳟
拉迪@@
鳄
仔
澹
受让@@
寂
帤
雏@@
涧
镣@@
艾哈@@
蜡@@
湛
折点
痢@@
魅
醭
瓒
呯
瑁
嗙
俯
㔉
粍
附加@@
俑@@
愙
珮
娼
冥@@
娶@@
扳@@
丈@@
讃
皗
渒
岰
惉
楬
桼
ㄣ
悓
婕
秱
愭
敮
摄像@@
枫@@
瘪
凳
扛
θ
蛮@@
榈@@
Қ
先决@@
Љ
沧
鏊
瓿@@
自来@@
CRP@@
癖@@
人人@@
钓
捡
櫒
橀
铡@@
搓@@
剃
道尔
褫@@
刃
简
悦
珐
理事@@
昧
琹
贼@@
铤@@
岳@@
ぷ
耆@@
荧@@
亵
猥@@
纤维@@
戒
攃
拲
尧
莽@@
溅@@
芒@@
Ψ
羧
羟
叼
馐@@
梏
桎@@
愪
吀
湁
洂
杳@@
额定@@
人民共和@@
朝鲜民主主义@@
曹@@
祥@@
确性
饶
ㄍ
诹
讳
膺@@
氰胺
呤
鳢
厦@@
筹备@@
祆
爸@@
倔@@
扅
扐
伎@@
栗@@
蕙@@
橘@@
摹@@
牭
灚
紩
﹀
勺
咸
墅@@
吉布@@
垦@@
用说
址@@
行动@@
骤
蔬
錾
锸
剌
鸦@@
恵
环氧@@
腋
蠢@@
爸
嘌@@
堄
测性
饶@@
祀
划署
榴
萄
葡@@
人道@@
淹@@
辫@@
₃
塞舌@@

酥@@
遽@@
惜@@
揈
阍
啶
吡@@
漕@@
民国
疽
脆
唬
汐
础
巢@@
戝
懢
上万
秒@@
驯@@
扳
亢@@
朴@@
隅
补救@@
悯@@
瀣@@
歪
求斯
翁@@
辐
喻@@
莽
沆@@
吵@@
嫍
旸
苷
媣
塱
拪
捠
樃
戳
笗
冨
嗭
柗
琛
繘
帜@@
泓@@
曽@@
大战
渴@@
蕾
霉
砑
酪@@
特里亚
捂@@
粈
祦
姹
墡
崡
刘
动轴承
︰
变速@@
坚持@@
舟
冶
镍@@
拫
16M@@
聋
钵
许可@@
直布罗@@
些时候
铊
艮@@
铗
茂
桘
谒@@
孽
泙
堈
弩@@
涮@@
剑@@
胄
躁
鲍
羮
＄
跻@@
剜
删
﹙
柯
暹@@
计数@@
庞
巧
坽
嚗
仔@@
铪
腋@@
扉@@
厈
兑换@@
诡
跪@@
嗣@@
野生@@
抧
柧
嵄
晞
负责@@
峻
趟
剃@@
免权
菊
赦@@
搐
哼
唉
痔@@
稤
构成@@
绯@@
灸@@
布宜诺斯艾@@
þ
厕@@
ｃ
桃@@
绪@@
洅
蹬
榉
332@@
潇
潇@@
鐌
懂@@
巽@@
悬浮@@
悜
哕
彭@@
┛
憾
夐
多巴哥
憩
娇@@
肽
胱@@
硒
挟@@
洊
规格@@
澄@@
娴@@
潴
澷
棫
约翰@@
狼@@
偻
郾
楠@@
肌
凫@@
钺
刑警@@
鶀
小儿@@
㎝
濒
励
樱@@
旔
柶
敋
郧
婋
锶
铯
梧
招
曺
瘤@@
弌
悂
狈
伲
莠
抳
石场
稣
凤@@
姰
胖
懅
加迪@@
怣
▲
憎
幐
阂
蹋
莠@@
戍
碾
菩@@
圡
内斯堡
翰
吴
忔
塘@@
湮
螽@@
闫
劬@@
惗
鋧
煽@@
骅
沧@@
郑
屼
ゆ
彂
曪
艳
谣@@
狞@@
皑@@
巢
妃
搪
加达
镎
民主共和国
肟@@
帩
ω
饥
⑩
廃
枧
嫬
惔
庝
睹
盐岩
禧
氓
乞@@
攫@@
茵@@
贝利
矾
Η
海牙@@
妲@@
酞
嫖@@
挛
渐
耸@@
谓@@
中华@@
唧@@
庚
鬈
均收入
侮@@
赀@@
调度@@
蝴@@
颖@@
☆
缋
弈@@
雌
榨



甫@@
蜿@@
新几内亚
涛
蜒
鳄@@
吏
籀
渝@@
蚱@@
蜢
Ｈ
⒉
胫
舟@@
剿
电线@@
报关@@
碲
瘘
壒
痰
蕉@@
漉@@
迖
尬
尴@@
藉@@
巌
嶕
曻
尨
垛@@
眷@@
里约热@@
庐
嗜
溶胶
瞧
熬@@
疡
ぇ
转弯@@
耀@@
痊@@
Ⅵ
喀
祴
贝尔@@
里约@@
傛
垮@@
è
旈
漉
泏
搅
kg@@
畾
晨@@
喀里多尼亚
螨@@
欧安@@
茨瓦@@
糠@@
蚀@@
尔科
本哈@@
掏@@
撂
❶
辫
赁
放大@@
箭
五届
波罗@@
尼科@@
胃
懒@@
性气体
喘
夿
僻
镊
墋
緭
易燃@@
旇
汁@@
分裂@@
罄@@
噬
轿@@
疹
魄@@
﹝
﹞
氰
姓@@
淤@@
寰
比性
四川@@
波多@@
罔@@
亇
栾
瓟
Ｄ
寎
𫔔
撶
洿
入境@@
岞
珀@@
则@@
癌@@
隧
涤@@
婇
雌@@
液化@@
豚@@
姥@@
∞
苏维@@
濈
婂
町
颊
牦@@
镆
涮
铒
朽@@
艾
铑
钌
铱
钯
睢
汜
趾
寨
眦
蔷@@
踹


Œ
鄚
窋

涹
𣃁
梌
矛@@
薇
咏
救济@@
砧@@
熆
ソ
眰
犵
笁
绗
渴
荫
莫桑@@
冦
锣
姻
酥
巣
燕
Ա
ǩ
Ӹ
ǹ
ӡ
稞
ͬ
⺯
Tri@@
渽
涠
酉
瞰@@
ˣ
拣
崖
姨
拒绝@@
熏
拎
屈
笺
铽
墷
巎
賩
Ȩ
ҵ
诘@@
诡@@
irin
唁
格达
嗽
咳@@
懈@@
怠
藑
抄
挖掘@@
⊥
蚊
窛
嵥
幆
马其顿@@
光纤@@
引力
佬
锭@@
拉脱@@
柬@@
̧
ͷ
ֽ
Ƶ
酰@@
忣
颁@@
稗
炊@@
﹣
梿
徊
徘@@
虔
媾@@
产权@@
肇@@
岢
诺夫哥罗德
泼
猾
哆@@
论性
楻
尝
沛@@
怯@@
忲
揢
岤
岓
塅
楍
旕
蒙特@@
恼
粤@@
邓@@
魅@@
虑@@
贸易区
庇护@@
渿
挫
偕@@
扮
揭
﹡
同工@@
铤
际@@
违规@@
孟加拉@@
隗@@
踪@@
岖@@
酜
戊
沉淀@@
襟@@
粳@@
黜
斯托克
贤
矶
懦
鑫
鑫@@
乍
雧
襦
禹@@
寲
绺
皿
棋@@
圭@@
赤道@@
妣
矜@@
差别@@
蹿
圣地亚@@
逝@@
„
浑
韧
渭
巼
忕
笚
卞@@
橱@@
娣
矡
恃
乃@@
肛@@
咱@@
屿
榔
槟@@
煏
℉
斐
亳@@
堰@@
岪
趁@@
绪
冯
篱
弎
匙
ICC@@
尹@@
哇
ICE@@
力于
坷
萜@@
酮@@
杏
诀
昞
傦
戟
豌@@
瞒
嬬
𪲔
彷
辰@@
铃@@
..@@
膊
纠@@
侀
痫@@
泤
癫@@
耍
汹@@
贿@@
烽@@
鲻
魔
讼
臀@@
sub@@
𫄲
劾
涔
抖@@
度表
君
澎@@
富尔
更生
加班@@
殁
瘽
氥
墽
姳
叾
熶
脓@@
胰@@
明灯
褪
篇@@
Ｃ
湪
猫@@
虺
绣
镊@@
瞰
鐗
晥
浄
︼
Ｅ
Ｆ
讳@@
预警@@
橐
姩
尕
颜
适用@@
碗
橱
跚
蹒@@
鲜
瞬
鲕
讹
乌拉@@
ү
崄
埗
ⅲ
巶
跋@@
斩@@
莼@@
簧@@
桔
阿拉木@@
ζ
⒊
吾
筹
嗕
椒
扶
型机
哥本哈@@
贸易组织
箕
撮@@
贰@@
得起
殊@@
⑿
擂
渶
叿
巩@@
妞@@
甭
斫
噙
眨
讹@@
岄
栽
钣
椄
蹰@@
踟@@
墿
薯
✱
㎏
桦@@
珀
琥@@
輠
斟@@
轼
閮
垎
鹰@@
必不可@@
剁
杞@@
挗
腕@@
愤
湡
煞@@
魄
醷
椼
梳@@
藤
熵
娱
殉@@
悟@@
疵@@
巴比@@
陡
滔@@
学前@@
忏@@
ｱ
ﾎ
ﾋ
摔
残疾@@
她@@
ψ
谩@@
茅
坚定@@
椿
岳
钎
鲈@@
堕@@
捐助@@
颅@@
上而下
醌
蒽@@
用电器
哥尔
楔
吁@@
鳟@@
鲑
趁
蒡
壌
弱性
锻
藓@@
蕨@@
藿@@
婄
煎@@
粨
湍@@
枣@@
圃
刽@@
捡@@
荻
煸
殴@@
国际海事@@
穋
通式
沦
骚
黻@@
确保@@
灵敏@@
牵
芹@@
茴@@
瑾
切尔@@
𣱝
孳@@
歪@@
眬
螯@@
嫎
匪
眩@@
爵@@
妧
绷@@
胝
胼@@
筚@@
鹦
挪
米尼@@
槌
闄
鍜
鐭
粹
揪@@
赅
完整@@
蚁@@
戕@@
姤
鍨
湀
锲
铻
铈
耸
帄
镭
聪
鞭
祥
阱
癸@@
叏
暣
爴
私营@@
怎
碌@@
沬
狼
嫂
貉@@
埋件
靓
秦@@
哩
逸@@
锄@@
缪
ｆ
侈@@
脲
槛
樟@@
宅@@
ә
Ө
簧
喧@@
腻
桴
渔
蕾@@
桂@@
琪
缰
荚
敹
簳
粠
堜
妗
皠
煤器
犁@@
觐@@
意志@@
靏
臃@@
˚
鲌
芥
涕
持续@@
杭@@
萨赫@@
联合共和国
荞@@
稷
诮
ⅴ
痕@@
讷
恸
綦@@
蔚@@
救援@@
本国@@
决于
眪
庄
惘@@
嗯
❸
袜@@
斯威@@
冇
昔
爣
鳅
昌
菱@@
久前
敝
圄
囹@@
茔
坟@@
辎@@
帷@@
觅
汰
嘎@@
豹
垅
上述@@
亥
职者
轻重
芪
耶路撒@@
碾@@
斯诺@@
掱
憡
斉@@
嶲
戜
旌@@
寞
