{
  "<s>": 128403,
  "<pad>": 128402,
  "</s>": 128401,
  "<unk>": 128400,
  "的": 128393,
  "，": 91338,
  "。": 69501,
  "和": 46589,
  "、": 36122,
  "在": 28168,
  ".": 18258,
  "/": 15778,
  "-": 14987,
  "）": 14982,
  "（": 14570,
  "年": 12451,
  ",": 12338,
  "；": 11657,
  "了": 11619,
  ")": 11565,
  "(": 11355,
  "是": 10997,
  "第": 9907,
  "为": 9665,
  "对": 9582,
  "中": 8373,
  "：": 8178,
  "与": 8132,
  "月": 7973,
  "委员会": 7550,
  "并": 7411,
  "1": 7244,
  "或": 7094,
  "将": 6882,
  "》": 6806,
  "《": 6794,
  "问题": 6576,
  "国家": 6473,
  "\"": 6336,
  "会议": 6282,
  "进行": 6254,
  "日": 5883,
  "不": 5794,
  "2": 5532,
  "有": 5371,
  "其": 5303,
  "报告": 5236,
  "应": 5190,
  "工作": 5154,
  "上": 5142,
  "联合国": 5073,
  "提供": 4885,
  "—": 4759,
  "号": 4715,
  "国际": 4604,
  "发展": 4581,
  "以及": 4504,
  "关于": 4471,
  "以": 4421,
  "组织": 4374,
  "情况": 4344,
  "到": 4321,
  "时": 4301,
  "所": 4243,
  "3": 4221,
  "包括": 4182,
  "方案": 4123,
  "规定": 4118,
  "根据": 4031,
  "及": 4028,
  "这些": 3993,
  "通过": 3967,
  "该": 3938,
  "有关": 3865,
  "其他": 3737,
  "要求": 3654,
  "执行": 3618,
  "向": 3617,
  "特别": 3533,
  "一个": 3530,
  "机构": 3475,
  "项目": 3439,
  "4": 3399,
  "决议": 3367,
  "系统": 3323,
  "下": 3312,
  "社会": 3280,
  "安全": 3234,
  "所有": 3191,
  "活动": 3186,
  "人": 3162,
  "5": 3161,
  "技术": 3132,
  "可": 3079,
  "方面": 3064,
  "政府": 3016,
  "内": 2999,
  "建议": 2939,
  "我们": 2906,
  "6": 2895,
  "就": 2857,
  "也": 2807,
  "文件": 2803,
  "10": 2791,
  "使用": 2774,
  "区域": 2760,
  "设备": 2739,
  "而": 2723,
  "由": 2710,
  "这": 2699,
  "地": 2692,
  "妇女": 2689,
  "A": 2656,
  "行动": 2617,
  "还": 2585,
  "12": 2570,
  "提出": 2537,
  "于": 2523,
  "公约": 2498,
  "必须": 2440,
  "他": 2428,
  "经济": 2424,
  "从": 2388,
  "7": 2377,
  "大会": 2369,
  "被": 2332,
  "各": 2322,
  "代表": 2300,
  "本": 2288,
  "决定": 2286,
  "需要": 2263,
  "后": 2253,
  "没有": 2236,
  "装置": 2231,
  "条": 2221,
  "人权": 2140,
  "段": 2137,
  "使": 2114,
  "合作": 2108,
  "理事会": 2106,
  "已": 2102,
  "=": 2079,
  "主要": 2067,
  "但": 2066,
  "法律": 2058,
  "保护": 2050,
  "都": 2024,
  "可以": 2020,
  "新": 1986,
  "8": 1973,
  "等": 1963,
  "个": 1962,
  "С": 1952,
  "影响": 1927,
  "儿童": 1925,
  "公司": 1918,
  "可能": 1911,
  "措施": 1879,
  "安装": 1874,
  "采取": 1873,
  "采用": 1865,
  "9": 1849,
  "秘书长": 1840,
  "人员": 1827,
  "任何": 1826,
  "权利": 1823,
  "设计": 1822,
  "它": 1821,
  "服务": 1802,
  "他们": 1793,
  "2000": 1788,
  "11": 1770,
  "提交": 1747,
  "确定": 1746,
  "管理": 1741,
  "认为": 1740,
  "至": 1738,
  "2002": 1736,
  "标准": 1727,
  "部分": 1707,
  "政策": 1690,
  ";": 1685,
  "加强": 1670,
  "考虑": 1663,
  "如果": 1661,
  "促进": 1648,
  "”": 1643,
  "费用": 1637,
  "作为": 1637,
  "继续": 1628,
  "条件": 1626,
  "用": 1621,
  "之间": 1621,
  "“": 1617,
  "这种": 1605,
  "2001": 1600,
  "确保": 1598,
  "期间": 1583,
  "建立": 1581,
  "信息": 1572,
  "草案": 1569,
  "支持": 1560,
  "来": 1557,
  "计划": 1552,
  "处理": 1544,
  "能力": 1538,
  "因此": 1533,
  "其中": 1532,
  "注意": 1519,
  "目标": 1516,
  "20": 1515,
  "小组": 1504,
  "一些": 1497,
  "工程": 1487,
  "审查": 1485,
  "和平": 1479,
  "1999": 1472,
  "我": 1461,
  "环境": 1456,
  "增加": 1448,
  "15": 1447,
  "--": 1443,
  "预算": 1440,
  "*": 1433,
  "一": 1405,
  "程序": 1402,
  "资源": 1395,
  "作出": 1392,
  "用于": 1390,
  "努力": 1390,
  "基金": 1389,
  "按照": 1388,
  "合同": 1384,
  "教育": 1384,
  "2003": 1380,
  "审议": 1378,
  "说": 1376,
  "П": 1371,
  "Т": 1369,
  "更": 1368,
  "生产": 1365,
  "各国": 1363,
  "领域": 1361,
  ":": 1359,
  "缔约国": 1356,
  "基础": 1356,
  "管道": 1354,
  "实施": 1336,
  "这一": 1327,
  "资料": 1326,
  "举行": 1326,
  "研究": 1325,
  "及其": 1322,
  "要": 1319,
  "地区": 1317,
  "者": 1316,
  "会": 1312,
  "重要": 1309,
  "给": 1307,
  "由于": 1281,
  "主席": 1281,
  "一项": 1269,
  "美元": 1266,
  "米": 1265,
  "施工": 1263,
  "性": 1261,
  "得到": 1260,
  "按": 1257,
  "实现": 1257,
  "结构": 1254,
  "a": 1241,
  "区": 1230,
  "援助": 1229,
  "完成": 1226,
  "参与": 1225,
  "范围": 1223,
  "·": 1218,
  "方式": 1217,
  "成员": 1215,
  "说明": 1212,
  "30": 1207,
  "请": 1204,
  "材料": 1196,
  "作用": 1195,
  "1998": 1183,
  "控制": 1180,
  "已经": 1174,
  "方法": 1171,
  "工作人员": 1171,
  "符合": 1169,
  "以下": 1166,
  "前": 1166,
  "中心": 1163,
  "代表团": 1160,
  "行为": 1159,
  "世界": 1156,
  "有效": 1148,
  "协调": 1148,
  "应当": 1133,
  "最": 1116,
  "讨论": 1102,
  "非洲": 1099,
  "它们": 1098,
  "必要": 1098,
  "支助": 1094,
  "部门": 1094,
  "见": 1092,
  "发展中国家": 1088,
  "同": 1088,
  "间": 1085,
  "持续": 1082,
  "战略": 1080,
  "附件": 1080,
  "16": 1072,
  "具有": 1069,
  "保证": 1067,
  "未": 1062,
  "压力": 1062,
  "同时": 1061,
  "以便": 1059,
  "能够": 1058,
  "获得": 1053,
  "是否": 1043,
  "14": 1040,
  "计算": 1032,
  "毫米": 1031,
  "过程": 1028,
  "因为": 1022,
  "指出": 1021,
  "提高": 1020,
  "解决": 1020,
  "制定": 1018,
  "表示": 1016,
  "目前": 1011,
  "时间": 1010,
  "各种": 1008,
  "多": 999,
  "进一步": 994,
  "批准": 991,
  "取得": 989,
  "表": 988,
  "人民": 987,
  "任务": 986,
  "原则": 983,
  "减少": 980,
  "参加": 976,
  "总": 976,
  "评估": 975,
  "事务": 973,
  "人口": 972,
  "法": 972,
  "需": 969,
  "意见": 969,
  "S": 968,
  "检查": 965,
  "13": 963,
  "为了": 963,
  "结果": 962,
  "．": 960,
  "培训": 956,
  "К": 955,
  "开展": 953,
  "办事处": 952,
  "秘书处": 952,
  "能": 951,
  "对于": 950,
  "发生": 948,
  "相关": 947,
  "利用": 946,
  "…": 943,
  "18": 942,
  "b": 942,
  "产生": 936,
  "框架": 935,
  "开始": 933,
  "设施": 928,
  "造成": 926,
  "全球": 926,
  "数据": 923,
  "国": 921,
  "进程": 914,
  "超过": 912,
  "政治": 909,
  "把": 905,
  "分析": 903,
  "议程": 902,
  "混凝土": 900,
  "图": 900,
  "期": 897,
  "建设": 895,
  "正在": 893,
  "+": 892,
  "21": 892,
  "则": 892,
  "目的": 890,
  "企业": 888,
  "许多": 884,
  "负责": 884,
  "制度": 881,
  "50": 878,
  "次": 877,
  "А": 877,
  "О": 876,
  "责任": 872,
  "适当": 871,
  "索赔": 867,
  "支付": 862,
  "25": 862,
  "条约": 861,
  "义务": 860,
  "水": 858,
  "应该": 856,
  "处": 852,
  "款": 851,
  "投资": 844,
  "均": 844,
  "行政": 844,
  "2004": 843,
  "如": 840,
  "工作组": 840,
  "监测": 840,
  "名": 839,
  "17": 827,
  "B": 827,
  "站": 824,
  "承包商": 822,
  "机制": 821,
  "非": 817,
  "非政府": 815,
  "各项": 813,
  "Р": 813,
  "设立": 810,
  "消除": 809,
  "22": 806,
  "天然气": 806,
  "这个": 804,
  "产品": 802,
  "100": 801,
  "即": 799,
  "适用": 796,
  "直接": 791,
  "关系": 790,
  "专家": 788,
  "19": 787,
  "不同": 786,
  "先生": 785,
  "而且": 785,
  "难民": 784,
  "下列": 783,
  "办法": 783,
  "工艺": 782,
  "具体": 781,
  "％": 781,
  "带": 777,
  "31": 776,
  "外": 775,
  "000": 775,
  "强调": 775,
  "或者": 771,
  "受": 770,
  "自": 770,
  "特派团": 769,
  "此外": 768,
  "基本": 766,
  "形式": 765,
  "试验": 762,
  "存在": 760,
  "调查": 758,
  "充分": 756,
  "23": 754,
  "法院": 750,
  "业主": 747,
  "伊拉克": 747,
  "地方": 747,
  "这方面": 745,
  "设置": 745,
  "24": 744,
  "В": 743,
  "质量": 742,
  "恐怖主义": 741,
  "式": 740,
  "涉及": 740,
  "Н": 733,
  "并且": 732,
  "40": 731,
  "经": 730,
  "资金": 729,
  "57": 727,
  "一种": 726,
  "全面": 725,
  "协定": 724,
  "损失": 723,
  "维持": 723,
  "协助": 721,
  "文化": 719,
  "两个": 719,
  "发言": 719,
  "建筑": 715,
  "不能": 713,
  "运行": 712,
  "贸易": 707,
  "Г": 706,
  "5@@": 706,
  "1997": 705,
  "最后": 699,
  "严重": 697,
  "现有": 697,
  "但是": 695,
  "报告员": 694,
  "生活": 693,
  "履行": 691,
  "国内": 687,
  "М": 687,
  "共同": 686,
  "E": 686,
  "作": 685,
  "综合": 683,
  "规则": 683,
  "电缆": 680,
  "家庭": 680,
  "希望": 680,
  "部队": 680,
  "安排": 676,
  "收到": 676,
  "临时": 675,
  "出": 673,
  "会员国": 671,
  "28": 671,
  "进展": 671,
  "26": 669,
  "型": 667,
  "成为": 665,
  "类": 665,
  "级": 664,
  "上述": 658,
  "项": 658,
  "о": 657,
  "层": 657,
  "受到": 656,
  "一次": 655,
  "因": 653,
  "例如": 653,
  "承诺": 652,
  "单位": 649,
  "接受": 649,
  "武器": 647,
  "C": 647,
  "－": 646,
  "冲突": 645,
  "c": 644,
  "缔约方": 642,
  "高": 642,
  "出现": 641,
  "0": 641,
  "规范": 640,
  "之后": 638,
  "作业": 636,
  "鼓励": 635,
  "分": 635,
  "温度": 635,
  "工业": 635,
  "日至": 633,
  "进入": 633,
  "小于": 632,
  "运输": 630,
  "性别": 629,
  "机会": 628,
  "尤其": 626,
  "这样": 626,
  "允许": 625,
  "你": 624,
  "内容": 622,
  "自己": 622,
  "协商": 621,
  "价格": 621,
  "平等": 618,
  "防止": 617,
  "之前": 616,
  "监督": 616,
  "协议": 615,
  "数量": 615,
  "事项": 615,
  "实际": 615,
  "业务": 614,
  "制订": 613,
  "不@@": 612,
  "阶段": 611,
  "6@@": 605,
  "改革": 605,
  "遵守": 604,
  "这项": 604,
  "她": 602,
  "个人": 602,
  "27": 601,
  "连接": 601,
  "编制": 601,
  "联合": 601,
  "美国": 600,
  "俄罗斯": 598,
  "同意": 597,
  "做法": 595,
  "D": 591,
  "通知": 591,
  "当局": 590,
  "之": 588,
  "8@@": 587,
  "欢迎": 584,
  "又": 584,
  "咨询": 583,
  "领土": 583,
  "俄罗斯联邦": 583,
  "29": 582,
  "经费": 582,
  "当": 581,
  "点": 579,
  "7@@": 579,
  "限制": 577,
  "以色列": 577,
  "宣言": 576,
  "管": 576,
  "达到": 576,
  "议定书": 575,
  "一切": 574,
  "d": 572,
  "线": 570,
  "两年": 568,
  "关注": 567,
  "一份": 565,
  "55": 563,
  "成果": 562,
  "一般": 561,
  "着": 560,
  "优先": 560,
  "测量": 558,
  "不是": 557,
  "军事": 555,
  "线路": 555,
  "0@@": 555,
  "占": 554,
  "焊接": 552,
  "х": 551,
  "记录": 550,
  "独立": 550,
  "无": 549,
  "表明": 548,
  "司法": 548,
  "以上": 547,
  "稳定": 546,
  "立法": 544,
  "人道主义": 543,
  "一@@": 543,
  "35": 541,
  "9@@": 541,
  "m": 540,
  "评价": 540,
  "开发计划署": 539,
  "歧视": 538,
  "直径": 537,
  "每": 537,
  "组成": 536,
  "т": 536,
  "水平": 536,
  "某些": 533,
  "最大": 533,
  "自由": 533,
  "01": 532,
  "帮助": 532,
  "因素": 532,
  "部": 530,
  "内部": 529,
  "很": 527,
  "大": 527,
  "原因": 526,
  "做": 525,
  "比": 525,
  "市场": 525,
  "3@@": 524,
  "e": 523,
  "巴勒斯坦": 523,
  "健康": 522,
  "违反": 522,
  "发达国家": 520,
  "条款": 520,
  "尽管": 520,
  "58": 519,
  "里": 519,
  "结束": 517,
  "调整": 516,
  "联系": 516,
  "钢筋": 516,
  "安理会": 516,
  "中国": 516,
  "变化": 516,
  "确认": 515,
  "境内": 515,
  "满足": 514,
  "禁止": 514,
  "其它": 514,
  "4@@": 514,
  "56": 513,
  "改善": 512,
  "补充": 512,
  "厅": 511,
  "收入": 510,
  "状况": 508,
  "准备": 506,
  "危险": 506,
  "а": 506,
  "条例": 506,
  "如何": 505,
  "程度": 504,
  "清单": 504,
  "保障": 502,
  "整个": 502,
  "出口": 501,
  "方": 500,
  "集团": 499,
  "证明": 499,
  "地位": 498,
  "有权": 498,
  "54": 498,
  "让": 498,
  "自动": 497,
  "导致": 497,
  "起": 496,
  "成员国": 495,
  "不得": 495,
  "无法": 493,
  "较": 493,
  "以来": 491,
  "扩大": 490,
  "量": 489,
  "'": 489,
  "操作": 488,
  "完全": 488,
  "气": 488,
  "赔偿": 488,
  "积极": 486,
  "论坛": 485,
  "и": 485,
  "当地": 484,
  "位置": 484,
  "约": 481,
  "除": 481,
  "科威特": 481,
  "利益": 480,
  "专业": 478,
  "指标": 477,
  "1996": 476,
  "广泛": 475,
  "重申": 474,
  "纳入": 474,
  "通信": 472,
  "仍然": 471,
  "明确": 471,
  "气体": 470,
  "事件": 469,
  "规划": 468,
  "重新": 467,
  "此": 467,
  "如下": 467,
  "最近": 466,
  "另": 465,
  "器": 465,
  "货物": 463,
  "选择": 462,
  "р": 461,
  "板": 460,
  "再": 460,
  "机械": 458,
  "财产": 457,
  "单元": 457,
  "认识": 456,
  "请求": 456,
  "预防": 456,
  "厚度": 456,
  "拟订": 455,
  "双方": 455,
  "承认": 453,
  "列入": 453,
  "属于": 452,
  "日期": 452,
  "中@@": 451,
  "定期": 450,
  "过": 449,
  "组": 449,
  "依据": 448,
  "案件": 447,
  "仍": 445,
  "P": 444,
  "У": 444,
  "值": 443,
  "大@@": 443,
  "200": 443,
  "签署": 443,
  "每个": 442,
  "I": 442,
  "国家标准": 440,
  "介绍": 440,
  "管线": 440,
  "谈判": 439,
  "状态": 439,
  "机": 438,
  "所述": 436,
  "编写": 436,
  "53": 436,
  "伙伴关系": 436,
  "倡议": 436,
  "来自": 435,
  "水@@": 434,
  "土地": 433,
  "土壤": 433,
  "经验": 431,
  "然而": 431,
  "增长": 431,
  "艾滋病": 430,
  "采购": 430,
  "针对": 430,
  "全国": 429,
  "现在": 429,
  "那些": 429,
  "联邦": 428,
  "分配": 428,
  "2@@": 427,
  "第五": 427,
  "н": 427,
  "正式": 426,
  "人类": 426,
  "人数": 425,
  "社区": 424,
  "相应": 424,
  "等级": 424,
  "恢复": 424,
  "法庭": 423,
  "二": 422,
  "32": 421,
  "长期": 421,
  "1990": 420,
  "保持": 420,
  "网络": 420,
  "财政": 420,
  "现象": 420,
  "52": 419,
  "实行": 418,
  "登记": 418,
  "手段": 418,
  "森林": 416,
  "~": 415,
  "加入": 415,
  "45": 415,
  "准则": 415,
  "银行": 413,
  "信号": 413,
  "с": 413,
  "只有": 412,
  "土著": 412,
  "立方米": 411,
  "1995": 411,
  "非法": 410,
  "检测": 410,
  "员额": 409,
  "工资": 408,
  "该国": 407,
  "建筑物": 407,
  "60": 406,
  "改进": 405,
  "M@@": 404,
  "科学": 404,
  "后续": 404,
  "关切": 403,
  "基金会": 403,
  "公民": 403,
  "虽然": 403,
  "过去": 402,
  "0.@@": 401,
  "无@@": 401,
  "保健": 401,
  "道": 400,
  "呼吁": 400,
  "反映": 400,
  "指导": 400,
  "发挥": 400,
  "小": 399,
  "开发": 399,
  "办公室": 398,
  "10@@": 398,
  "我国": 398,
  "室": 397,
  "维护": 396,
  "结论": 394,
  "选举": 394,
  "侵犯": 394,
  "空气": 394,
  "小时": 393,
  "高级专员": 393,
  "高度": 392,
  "经常": 391,
  "理由": 391,
  "贫穷": 391,
  "需求": 390,
  "就业": 390,
  "化": 390,
  "对话": 390,
  "类型": 389,
  "空间": 389,
  "提到": 389,
  "推动": 389,
  "欧洲": 389,
  "授权": 389,
  "给予": 389,
  "33": 389,
  "首脑会议": 389,
  "了解": 389,
  "一部分": 388,
  "地点": 387,
  "达成": 387,
  "威胁": 386,
  "打击": 385,
  "从而": 385,
  "市": 383,
  "审计": 383,
  "形成": 383,
  "е": 383,
  "石油": 383,
  "80": 383,
  "人们": 382,
  "挑战": 382,
  "犯罪": 381,
  "价值": 381,
  "件": 380,
  "显示": 380,
  "城市": 379,
  "供": 378,
  "02": 378,
  "召开": 378,
  "1@@": 377,
  "保留": 376,
  "提议": 376,
  "2005": 375,
  "从事": 374,
  "更加": 374,
  "台": 374,
  "500": 374,
  "申请": 373,
  "支出": 373,
  "权": 372,
  "mm": 372,
  "标高": 371,
  "只": 371,
  "文书": 370,
  "重点": 370,
  "信": 369,
  "固定": 369,
  "占领": 369,
  "群体": 369,
  "重大": 368,
  "泵": 368,
  "34": 368,
  "A@@": 367,
  "期限": 366,
  "特殊": 366,
  "分别": 366,
  "h": 365,
  "一级": 364,
  "公共": 364,
  "℃": 362,
  "1.@@": 362,
  "车辆": 361,
  "引起": 361,
  "P@@": 361,
  "度": 360,
  "管制": 360,
  "岁": 360,
  "万美元": 360,
  "尺寸": 360,
  "就是": 358,
  "性质": 357,
  "仪表": 357,
  "检验": 357,
  "表面": 356,
  "卫生": 356,
  "解释": 356,
  "47": 355,
  "发现": 354,
  "И": 354,
  "有助于": 353,
  "工具": 353,
  "36": 353,
  "题为": 353,
  "D@@": 352,
  "拥有": 352,
  "S@@": 352,
  "构成": 351,
  "48": 351,
  "–": 351,
  "低": 351,
  "加以": 350,
  "财务": 350,
  "V": 349,
  "节": 349,
  "法官": 349,
  "方向": 348,
  "权力": 348,
  "且": 348,
  "44": 348,
  "系数": 347,
  "纲领": 347,
  "Д": 346,
  "B@@": 346,
  "全部": 346,
  "51": 346,
  "修改": 346,
  "井": 344,
  "人@@": 344,
  "统一": 344,
  "网": 344,
  "克": 343,
  "享有": 343,
  "？": 343,
  "声明": 343,
  "T@@": 342,
  "C@@": 341,
  "42": 341,
  "成立": 340,
  "机关": 340,
  "燃料": 339,
  "旨在": 339,
  "～": 338,
  "平均": 338,
  "生效": 338,
  "这是": 337,
  "有@@": 337,
  "×": 337,
  "MPa": 337,
  "吨": 336,
  "提案": 336,
  "39": 336,
  "之一": 336,
  "金属": 336,
  "多@@": 335,
  "艾滋病毒": 335,
  "外国": 333,
  "正常": 333,
  "证据": 333,
  "现场": 333,
  "率": 332,
  "L": 332,
  "答复": 331,
  "副": 331,
  "学校": 331,
  "紧急": 331,
  "承担": 331,
  "职能": 331,
  "若干": 330,
  "维修": 330,
  "暴力": 330,
  "蒸汽": 330,
  "避免": 330,
  "一名": 330,
  "农业": 329,
  "类似": 329,
  "国际法": 329,
  "37": 329,
  "千年": 329,
  "民主": 328,
  "F": 328,
  "阀门": 328,
  "同样": 326,
  "收集": 326,
  "人权委员会": 326,
  "行动计划": 325,
  "详细": 325,
  "宪章": 325,
  "成功": 325,
  "达": 325,
  "贸发": 325,
  "14@@": 324,
  "含": 324,
  "长": 324,
  "41": 324,
  "物": 324,
  "修订": 323,
  "宪法": 323,
  "59": 323,
  "数额": 321,
  "参数": 321,
  "地面": 321,
  "K@@": 321,
  "49": 321,
  "专员": 320,
  "至少": 319,
  "第一": 319,
  "上@@": 319,
  "低于": 319,
  "70": 318,
  "火灾": 318,
  "局势": 318,
  "第二": 318,
  "不断": 318,
  "大量": 318,
  "38": 318,
  "Б": 318,
  "可@@": 318,
  "核武器": 318,
  "面临": 318,
  "商品": 318,
  "生物": 317,
  "领导": 317,
  "主任": 317,
  "付款": 317,
  "子": 317,
  "依照": 317,
  "每年": 316,
  "制造": 316,
  "12@@": 316,
  "反对": 316,
  "外部": 316,
  "页": 316,
  "经过": 316,
  "裁军": 315,
  "1994": 315,
  "排放": 315,
  "共和国": 314,
  "宣传": 313,
  "交流": 313,
  "比例": 313,
  "距离": 312,
  "降低": 312,
  "举办": 311,
  "1.2": 310,
  "改变": 310,
  "g": 310,
  "鉴于": 310,
  "欧洲联盟": 309,
  "最高": 308,
  "列": 308,
  "伙伴": 307,
  "协会": 307,
  "№": 307,
  "启动": 307,
  "阀": 306,
  "劳动": 306,
  "统计": 306,
  "强度": 306,
  "位于": 306,
  "指定": 305,
  "资产": 305,
  "供应": 305,
  "模式": 305,
  "流离失所": 304,
  "损害": 304,
  "传统": 304,
  "力": 304,
  "00": 304,
  "今后": 303,
  "一致": 303,
  "天": 303,
  "观点": 303,
  "热": 302,
  "м": 302,
  "三": 301,
  "未来": 301,
  "专门": 301,
  "予以": 301,
  "基于": 301,
  "2.@@": 301,
  "日内瓦": 300,
  "分@@": 300,
  "300": 300,
  "尊重": 299,
  "长度": 299,
  "去": 298,
  "道路": 298,
  "1.1": 298,
  "访问": 298,
  "农村": 298,
  "非常": 298,
  "破坏": 298,
  "43": 298,
  "п": 298,
  "科索沃": 297,
  "为此": 297,
  "事故": 297,
  "总部": 297,
  "风险": 296,
  "R@@": 295,
  "一起": 295,
  "电气": 295,
  "困难": 295,
  "宣布": 294,
  "好": 294,
  "三个": 294,
  "知识": 294,
  "你们": 294,
  "46": 293,
  "证书": 293,
  "电压": 293,
  "阿富汗": 293,
  "反应": 293,
  "债务": 292,
  "十年": 292,
  "尚未": 291,
  "H@@": 291,
  "к": 291,
  "警察": 290,
  "03": 290,
  "内@@": 290,
  "最终": 289,
  "千伏": 289,
  "m3": 289,
  "外@@": 289,
  "普遍": 288,
  "t": 288,
  "验收": 288,
  "一直": 287,
  "成本": 287,
  "步骤": 286,
  "75": 286,
  "合理": 286,
  "有人": 286,
  "场地": 286,
  "缺乏": 286,
  "加拿大": 285,
  "及时": 285,
  "13@@": 285,
  "应用": 284,
  "90": 284,
  "处理厂": 284,
  "II": 284,
  "宗教": 284,
  "制": 283,
  "关闭": 283,
  "F@@": 283,
  "贡献": 283,
  "头": 282,
  "罪行": 282,
  "另外": 281,
  "费": 281,
  "З": 281,
  "而言": 281,
  "筹备": 281,
  "此类": 281,
  "拉@@": 280,
  "面积": 280,
  "Ф": 280,
  "额": 279,
  "下降": 279,
  "多边": 279,
  "本合同": 279,
  "大于": 279,
  "有些": 278,
  "20@@": 278,
  "回顾": 278,
  "各方": 278,
  "车": 277,
  "估计": 277,
  "敷设": 276,
  "电源": 276,
  "商业": 276,
  "住房": 276,
  "战争": 276,
  "实体": 276,
  "油": 276,
  "刑事": 275,
  "400": 275,
  "集中": 275,
  "单独": 274,
  "州": 274,
  "在内": 274,
  "基础设施": 274,
  "主题": 274,
  "任命": 273,
  "预期": 273,
  "司": 273,
  "体": 273,
  "能源": 273,
  "本国": 273,
  "以前": 273,
  "自愿": 273,
  "金额": 273,
  "采取行动": 272,
  "日本": 272,
  "商定": 271,
  "罐": 271,
  "主": 271,
  "扩散": 271,
  "以外": 270,
  "高@@": 270,
  "二@@": 270,
  "体制": 270,
  "下@@": 270,
  "得": 269,
  "官员": 269,
  "G@@": 269,
  "重要性": 268,
  "停止": 268,
  "私营部门": 268,
  "汇编": 267,
  "非正式": 267,
  "观察员": 267,
  "建": 267,
  "索赔人": 267,
  "现行": 266,
  "消防": 266,
  "交易": 266,
  "指示": 265,
  "通常": 265,
  "液": 265,
  "两@@": 265,
  "调节": 265,
  "公路": 265,
  "担任": 265,
  "联合王国": 265,
  "核准": 265,
  "通风": 265,
  "比较": 265,
  "许可证": 264,
  "土": 264,
  "面": 264,
  "视为": 264,
  "此种": 264,
  "受害者": 264,
  "印度": 264,
  "大学": 264,
  "斯": 263,
  "名称": 263,
  "民间": 263,
  "职业": 263,
  "仅": 262,
  "L.@@": 262,
  "加": 262,
  "趋势": 261,
  "局": 261,
  "落实": 261,
  "运作": 261,
  "一年": 261,
  "T": 261,
  "签订": 260,
  "含量": 260,
  "R": 260,
  "L@@": 260,
  "接头": 259,
  "亿美元": 259,
  "关键": 259,
  "反": 258,
  "自动化": 258,
  "良好": 258,
  "600": 258,
  "电子": 258,
  "法兰": 257,
  "数": 257,
  "指": 257,
  "4.@@": 257,
  "77": 257,
  "来源": 256,
  "相互": 256,
  "概念": 256,
  "1993": 256,
  "Е": 256,
  "N@@": 255,
  "拒绝": 255,
  "新闻": 255,
  "工人": 255,
  "训练": 254,
  "凝析油": 254,
  "发出": 254,
  "成": 254,
  "年度": 253,
  "迅速": 253,
  "机器": 253,
  "经营": 253,
  "讲习班": 253,
  "应@@": 253,
  "3.@@": 253,
  "与会者": 252,
  "物质": 252,
  "厂": 252,
  "150": 252,
  "处于": 252,
  "届": 251,
  "实质性": 251,
  "尔": 251,
  "效率": 251,
  "行使": 250,
  "们": 250,
  "运动": 250,
  "不会": 250,
  "各@@": 250,
  "公平": 250,
  "然后": 249,
  "槽": 248,
  "加@@": 248,
  "发表": 248,
  "正": 248,
  "首先": 248,
  "所作": 248,
  "接触": 247,
  "主管": 247,
  "三@@": 247,
  "载": 247,
  "再次": 247,
  "联盟": 246,
  "卢布": 246,
  "功率": 246,
  "危机": 245,
  "口": 245,
  "总统": 245,
  "Э": 245,
  "利润": 245,
  "后果": 245,
  "贫困": 245,
  "i": 244,
  "高级": 244,
  "常驻": 244,
  "居民": 244,
  "定义": 244,
  "位": 244,
  "对@@": 244,
  "创造": 244,
  "古巴": 244,
  "科": 243,
  "事实": 243,
  "她们": 243,
  "1992": 243,
  "行": 243,
  "塔": 242,
  "65": 241,
  "特性": 241,
  "特点": 241,
  "单@@": 240,
  "°": 240,
  "几个": 240,
  "相对": 240,
  "大多数": 239,
  "除了": 239,
  "部长": 239,
  "立即": 239,
  "功能": 238,
  "防腐": 238,
  "初步": 238,
  "速度": 238,
  "卡@@": 238,
  "时候": 237,
  "据": 237,
  "拘留": 237,
  "不仅": 237,
  "一样": 236,
  "16@@": 236,
  "铁路": 236,
  "所涉": 236,
  "套": 236,
  "用户": 236,
  "体系": 236,
  "净化": 235,
  "车间": 235,
  "还有": 235,
  "本身": 235,
  "顾问": 235,
  "公众": 235,
  "股东": 235,
  "15@@": 234,
  "门": 234,
  "开关": 234,
  "亚洲": 234,
  "最佳": 234,
  "海洋": 234,
  "总额": 234,
  "场": 233,
  "应急": 233,
  "合格": 233,
  "飞机": 233,
  "医疗": 233,
  "不过": 233,
  "全球化": 232,
  "议会": 232,
  "路": 232,
  "自@@": 232,
  "职责": 232,
  "平衡": 232,
  "铺设": 232,
  "销售": 231,
  "学生": 231,
  "捐款": 231,
  "小@@": 231,
  "发@@": 231,
  "接地": 231,
  "才": 231,
  "第三": 231,
  "Ⅱ": 231,
  "却": 230,
  "回收": 230,
  "少数": 230,
  "钢": 230,
  "转让": 230,
  "卢旺达": 230,
  "85": 230,
  "什么": 229,
  "延长": 229,
  "带来": 229,
  "住": 229,
  "曾": 229,
  "药物": 229,
  "足够": 228,
  "筹资": 228,
  "股份公司": 228,
  "粮食": 228,
  "还是": 228,
  "遭受": 228,
  "提请": 228,
  "雇主": 228,
  "劳工": 228,
  "不可": 227,
  "f": 227,
  "之外": 226,
  "敦促": 226,
  "最低": 226,
  "感到": 226,
  "供电": 226,
  "组成部分": 226,
  "民族": 225,
  "边界": 225,
  "应对": 225,
  "哈萨克斯坦": 225,
  "s": 225,
  "特定": 225,
  "法国": 224,
  "格式": 224,
  "通道": 224,
  "做出": 224,
  "中央": 223,
  "预计": 223,
  "拉": 223,
  "酷刑": 223,
  "意义": 223,
  "资格": 223,
  "单": 223,
  "热@@": 223,
  "有限": 222,
  "密封": 222,
  "04": 221,
  "终止": 221,
  "缺陷": 221,
  "设": 221,
  "Л": 221,
  "一点": 221,
  "故障": 221,
  "截至": 220,
  "报警": 220,
  "出席": 220,
  "核": 220,
  "流量": 220,
  "в": 220,
  "同@@": 219,
  "阿@@": 219,
  "介质": 219,
  "德国": 219,
  "钢管": 219,
  "X@@": 219,
  "布置": 219,
  "移民": 219,
  "配备": 218,
  "电@@": 218,
  "传播": 218,
  "明显": 218,
  "数字": 218,
  "死亡": 218,
  "指数": 217,
  "气@@": 217,
  "编号": 217,
  "地层": 217,
  "场所": 217,
  "各个": 217,
  "资助": 217,
  "入": 217,
  "返回": 217,
  "加勒比": 215,
  "变电站": 215,
  "г": 215,
  "一定": 215,
  "一系列": 215,
  "室内": 214,
  "上诉": 214,
  "更换": 214,
  "公开": 214,
  "地@@": 214,
  "份": 214,
  "开支": 214,
  "研讨会": 214,
  "储存": 214,
  "课程": 213,
  "署": 213,
  "支架": 213,
  "自然": 213,
  "哈萨克斯坦共和国": 213,
  "沿": 213,
  "深度": 213,
  "重视": 213,
  "评论": 213,
  "容器": 212,
  "事": 212,
  "十分": 212,
  "感谢": 212,
  "相同": 212,
  "须": 212,
  "研究所": 211,
  "一般性": 211,
  "家": 211,
  "拟议": 211,
  "复杂": 211,
  "布@@": 211,
  "Х": 210,
  "#": 210,
  "寻求": 210,
  "V@@": 210,
  "员": 210,
  "世纪": 210,
  "05": 210,
  "95": 209,
  "数目": 209,
  "Add.1": 209,
  "更好": 209,
  "辩论": 209,
  "98": 209,
  "语言": 209,
  "性能": 209,
  "I@@": 209,
  "投入": 209,
  "想": 208,
  "1.5": 208,
  "M": 208,
  "0.5": 208,
  "厚": 207,
  "照明": 207,
  "若": 207,
  "之@@": 207,
  "1991": 207,
  "干线": 207,
  "基@@": 206,
  "制裁": 206,
  "各级": 206,
  "66": 206,
  "妇女地位": 205,
  "N": 205,
  "法令": 205,
  "理解": 205,
  "带有": 205,
  "新@@": 205,
  "平台": 205,
  "用@@": 205,
  "包含": 205,
  "不足": 205,
  "孔": 204,
  "障碍": 204,
  "亚": 204,
  "知道": 204,
  "来说": 204,
  "t@@": 204,
  "平民": 203,
  "审判": 203,
  "以@@": 203,
  "法规": 203,
  "分类": 203,
  "共": 203,
  "5.@@": 203,
  "上文": 203,
  "图纸": 203,
  "110": 203,
  "以后": 203,
  "62": 202,
  "千克": 202,
  "s@@": 202,
  "种族歧视": 202,
  "四@@": 202,
  "种族主义": 202,
  "起来": 202,
  "2.5": 202,
  "测试": 201,
  "青年": 201,
  "输入": 201,
  "O@@": 201,
  "决策": 201,
  "预测": 201,
  "股": 201,
  "团": 201,
  "拉丁美洲": 201,
  "捐助": 200,
  "x@@": 200,
  "日益": 200,
  "执行局": 200,
  "书面": 200,
  "多样性": 200,
  "800": 200,
  "GOST": 200,
  "主@@": 200,
  "核心": 200,
  "刚果民主共和国": 200,
  "平面图": 200,
  "K": 199,
  "阿拉伯": 199,
  "76": 199,
  "96": 199,
  "座": 199,
  "第一次": 199,
  "身份": 199,
  "称": 199,
  "绝缘": 199,
  "工厂": 199,
  "女士": 199,
  "养": 199,
  "л": 199,
  "非@@": 199,
  "H": 198,
  "气田": 198,
  "罪": 198,
  "其@@": 198,
  "循环": 198,
  "才能": 198,
  "64": 198,
  "男子": 198,
  "料": 197,
  "外地": 197,
  "随后": 197,
  "有限责任": 197,
  "表决": 197,
  "南斯拉夫": 197,
  "出@@": 197,
  "公正": 197,
  "克@@": 197,
  "加工": 197,
  "塞拉利昂": 197,
  "信托": 197,
  "贩运": 197,
  "19@@": 196,
  "武装冲突": 196,
  "邀请": 196,
  "土库曼斯坦": 196,
  "大规模": 196,
  "污染": 195,
  "120": 195,
  "命令": 195,
  "地雷": 195,
  "负荷": 195,
  "取决于": 195,
  "土耳其": 195,
  "除外": 195,
  "竞争": 195,
  "中间": 194,
  "万": 194,
  "难民署": 194,
  "压缩机": 194,
  "订正": 194,
  "款项": 193,
  "装备": 193,
  "17@@": 193,
  "位号": 193,
  "修正": 193,
  "贷款": 192,
  "拟定": 192,
  "官方": 192,
  "重建": 192,
  "全@@": 192,
  "提及": 192,
  "国际公约": 192,
  "赞赏": 191,
  "99": 191,
  "正确": 191,
  "学习": 191,
  "有限公司": 191,
  "高压": 191,
  "之日起": 191,
  "全体会议": 190,
  "兆": 190,
  "汽车": 190,
  "时期": 190,
  "63": 190,
  "焊缝": 190,
  "供货商": 190,
  "许可": 190,
  "箱": 190,
  "特": 190,
  "块": 189,
  "协调员": 189,
  "压": 189,
  "四": 189,
  "帕": 189,
  "救济": 189,
  "很大": 189,
  "套管": 188,
  "未能": 188,
  "纽约": 188,
  "用途": 188,
  "入侵": 187,
  "公里": 187,
  "澳大利亚": 187,
  "名单": 187,
  "立场": 187,
  "部署": 187,
  "金": 187,
  "检察官": 187,
  "甚至": 187,
  "混合": 186,
  "防@@": 186,
  "特@@": 186,
  "2.2": 186,
  "00@@": 186,
  "查明": 186,
  "打开": 186,
  "进口": 186,
  "密度": 186,
  "附属": 186,
  "计量": 185,
  "时@@": 185,
  "剂": 185,
  "金融": 185,
  "墨西哥": 185,
  "便利": 185,
  "诉讼": 185,
  "东帝汶": 185,
  "重": 185,
  "表现": 184,
  "专题": 184,
  "指南": 184,
  "前@@": 184,
  "疾病": 184,
  "本@@": 184,
  "可靠": 184,
  "宽度": 184,
  "专家组": 184,
  "今天": 184,
  "国民": 183,
  "当前": 183,
  "额外": 183,
  "移徙": 183,
  "机组": 183,
  "接收": 183,
  "往往": 183,
  "06": 182,
  "W@@": 182,
  "流动": 182,
  "分离": 182,
  "埃及": 182,
  "诸如": 182,
  "受@@": 182,
  "89": 182,
  "所以": 182,
  "只是": 181,
  "2.1": 181,
  "省": 181,
  "西@@": 181,
  "78": 181,
  "71": 181,
  "平方米": 181,
  "74": 180,
  "变压器": 180,
  "不利": 180,
  "分布": 180,
  "磋商": 180,
  "团体": 180,
  "列出": 180,
  "辅助": 179,
  "7.@@": 179,
  "残疾人": 179,
  "河": 179,
  "变更": 179,
  "手册": 179,
  "部件": 179,
  "雇员": 179,
  "84": 179,
  "享受": 179,
  "致力于": 179,
  "放空": 179,
  "电话": 179,
  "c@@": 179,
  "过渡": 178,
  "那么": 178,
  "可能性": 178,
  "重量": 178,
  "各自": 178,
  "秒": 178,
  "票": 178,
  "年代": 177,
  "集体": 177,
  "分发": 177,
  "亚@@": 177,
  "卡": 177,
  "数据库": 177,
  "87": 177,
  "增强": 177,
  "污水": 176,
  "津贴": 176,
  "结合": 176,
  "截面": 176,
  "CN.4": 176,
  "68": 176,
  "技能": 176,
  "制作": 176,
  "子女": 176,
  "88": 176,
  "连续": 176,
  "6.@@": 175,
  "同一": 175,
  "低@@": 175,
  "螺栓": 175,
  "年龄": 175,
  "1000": 175,
  "电流": 175,
  "董事会": 175,
  "恤金": 175,
  "历史": 175,
  "补偿": 175,
  "媒体": 174,
  "起草": 174,
  "进": 174,
  "指控": 174,
  "国家一级": 174,
  "装": 174,
  "年@@": 174,
  "86": 174,
  "律师": 174,
  "开采": 174,
  "特设": 173,
  "未经": 173,
  "移动": 173,
  "81": 173,
  "开@@": 173,
  "18@@": 173,
  "所@@": 173,
  "案": 173,
  "工发": 173,
  "尔@@": 173,
  "d@@": 173,
  "排除": 172,
  "基": 172,
  "世界银行": 172,
  "2010": 172,
  "书": 172,
  "维也纳": 172,
  "双边": 172,
  "风": 172,
  "如此": 172,
  "通讯": 172,
  "申诉": 172,
  "Ⅰ": 171,
  "十@@": 171,
  "相@@": 171,
  "安@@": 171,
  "3.1": 171,
  "女性": 170,
  "J@@": 170,
  "既": 170,
  "利@@": 170,
  "真正": 170,
  "工作队": 170,
  "у": 170,
  "背景": 170,
  "新西兰": 170,
  "相": 170,
  "签字": 170,
  "电": 170,
  "间接": 169,
  "改造": 169,
  "科@@": 169,
  "精神": 169,
  "越来越": 169,
  "硫磺": 169,
  "类别": 169,
  "职务": 169,
  "英语": 169,
  "买方": 169,
  "输送": 168,
  "82": 168,
  "五": 168,
  "核查": 168,
  "起诉": 168,
  "愿意": 168,
  "原料": 168,
  "分包商": 168,
  "25@@": 168,
  "重@@": 168,
  "极限": 168,
  "94": 168,
  "那": 167,
  "构件": 167,
  "大约": 167,
  "管@@": 167,
  "语文": 167,
  "l@@": 167,
  "太平洋": 167,
  "该@@": 167,
  "锅炉": 167,
  "几乎": 167,
  "61": 166,
  "至关重要": 166,
  "建造": 166,
  "为@@": 166,
  "油@@": 166,
  "碎石": 166,
  "炉": 166,
  "片": 166,
  "气候": 166,
  "裁决": 166,
  "全": 166,
  "配置": 166,
  "控制系统": 165,
  "工程处": 165,
  "取": 165,
  "美利坚合众国": 165,
  "5%": 165,
  "章": 165,
  "盘": 165,
  "250": 165,
  "黎巴嫩": 165,
  "案文": 165,
  "司机": 165,
  "邮编": 165,
  "开": 165,
  "罗@@": 165,
  "G": 165,
  "97": 165,
  "两性": 164,
  "在于": 164,
  "德": 164,
  "帐户": 164,
  "地下": 164,
  "这@@": 164,
  "这次": 164,
  "争端": 164,
  "减轻": 163,
  "修建": 163,
  "粘土": 163,
  "苏联": 163,
  "南非": 163,
  "主流": 163,
  "规程": 162,
  "2009": 162,
  "发": 162,
  "概算": 162,
  "转移": 162,
  "很多": 162,
  "外交": 162,
  "税": 162,
  "E@@": 162,
  "见表": 162,
  "似乎": 162,
  "监控": 162,
  "增进": 162,
  "房间": 161,
  "哥伦比亚": 161,
  "赋予": 161,
  "莫斯科": 161,
  "容忍": 161,
  "南": 161,
  "治疗": 161,
  "79": 161,
  "m@@": 161,
  "高级别": 160,
  "利比里亚": 160,
  "管理局": 160,
  "居住": 160,
  "构筑物": 160,
  "乌干达": 160,
  "防护": 160,
  "载有": 160,
  "打算": 160,
  "带@@": 160,
  "对此": 160,
  "通报": 160,
  "轴": 160,
  "输出": 159,
  "意大利": 159,
  "地质": 159,
  "巴@@": 159,
  "流": 159,
  "适应": 159,
  "应付": 159,
  "常设": 159,
  "保险": 158,
  "日@@": 158,
  "普通": 158,
  "马@@": 158,
  "清楚": 158,
  "中期": 158,
  "福利": 158,
  "利": 158,
  "和@@": 158,
  "合法": 158,
  "2006": 158,
  "作战": 158,
  "油田": 158,
  "腐蚀": 157,
  "a@@": 157,
  "接@@": 157,
  "组件": 157,
  "清洁": 157,
  "苏丹": 157,
  "工": 157,
  "所载": 157,
  "应有": 157,
  "国@@": 157,
  "挪威": 157,
  "73": 157,
  "浓度": 157,
  "私人": 156,
  "埃塞俄比亚": 156,
  "专用": 156,
  "一套": 156,
  "事务部": 156,
  "便": 156,
  "桩": 156,
  "危害": 156,
  "种族": 156,
  "沥青": 155,
  "700": 155,
  "1.15": 155,
  "赞同": 155,
  "巴基斯坦": 155,
  "账户": 155,
  "对象": 155,
  "防治": 155,
  "职位": 155,
  "尽可能": 155,
  "鉴定": 155,
  "交换": 155,
  "探讨": 155,
  "资本": 155,
  "93": 154,
  "展开": 154,
  "0.4": 154,
  "机@@": 154,
  "双@@": 154,
  "捐助者": 154,
  "投标": 153,
  "制止": 153,
  "构": 153,
  "大部分": 153,
  "当@@": 153,
  "公@@": 153,
  "相当": 153,
  "国籍": 153,
  "万@@": 153,
  "67": 153,
  "颁布": 153,
  "街": 153,
  "生": 153,
  "购买": 152,
  "现金": 152,
  "91": 152,
  "即使": 152,
  "%": 152,
  "损坏": 152,
  "3.2": 152,
  "2015": 152,
  "创新": 152,
  "领导人": 152,
  "管子": 152,
  "角度": 151,
  "有利于": 151,
  "加热": 151,
  "主席团": 151,
  "严格": 151,
  "出版物": 151,
  "杆": 151,
  "元件": 151,
  "实际上": 151,
  "意味着": 151,
  "主持": 151,
  "投标人": 151,
  "未@@": 150,
  "72": 150,
  "食品": 150,
  "之下": 150,
  "塔@@": 150,
  "柱": 150,
  "国际法庭": 150,
  "是因为": 150,
  "学": 150,
  "动力": 150,
  "员工": 150,
  "从@@": 150,
  "以期": 150,
  "德@@": 150,
  "态度": 150,
  "第二次": 150,
  "荷兰": 150,
  "69": 150,
  "残疾": 150,
  "总@@": 150,
  "e@@": 149,
  "波@@": 149,
  "个别": 149,
  "30@@": 149,
  "证实": 149,
  "钻井": 149,
  "з": 149,
  "赞成": 149,
  "km": 149,
  "形": 149,
  "ч": 149,
  "多年": 149,
  "担保": 149,
  "相信": 149,
  "p@@": 149,
  "海关": 149,
  "标志": 149,
  "印度尼西亚": 149,
  "源": 149,
  "观察": 149,
  "荒漠化": 149,
  "92": 149,
  "细则": 148,
  "规模": 148,
  "地基": 148,
  "合并": 148,
  "取消": 148,
  "б": 148,
  "08": 148,
  "供货": 148,
  "预防犯罪": 148,
  "布": 147,
  "83": 147,
  "意识": 147,
  "调动": 147,
  "学院": 147,
  "宽": 147,
  "_": 147,
  "该项": 146,
  "唯一": 146,
  "酌情": 146,
  "平@@": 146,
  "解决办法": 146,
  "成@@": 146,
  "信息技术": 146,
  "特征": 146,
  "哪些": 146,
  "整体": 146,
  "50@@": 146,
  "区块": 146,
  "争取": 146,
  "厂房": 146,
  "看法": 146,
  "摩洛哥": 146,
  "配套": 146,
  "男女": 146,
  "任择": 146,
  "水泥": 146,
  "具备": 146,
  "原子能": 145,
  "筑物": 145,
  "获取": 145,
  "欧盟": 145,
  "纳": 145,
  "人力": 145,
  "9.@@": 144,
  "全世界": 144,
  "物品": 144,
  "采取措施": 144,
  "h@@": 144,
  "供资": 144,
  "年底": 144,
  "像": 144,
  "观察团": 144,
  "小型": 144,
  "卫星": 144,
  "文": 143,
  "o": 143,
  "种": 143,
  "柜": 143,
  "正如": 143,
  "U@@": 143,
  "来文": 143,
  "尼@@": 143,
  "变@@": 143,
  "详见": 143,
  "工段": 143,
  "发放": 143,
  "构造": 142,
  "房": 142,
  "待遇": 142,
  "更新": 142,
  "言": 142,
  "化学": 142,
  "只能": 142,
  "每@@": 142,
  "24@@": 142,
  "判决": 142,
  "心理": 142,
  "»": 142,
  "联@@": 142,
  "室外": 142,
  "品": 141,
  "安哥拉": 141,
  "含有": 141,
  "攻击": 141,
  "有害": 141,
  "厄立特里亚": 141,
  "光": 141,
  "过滤器": 141,
  "如@@": 141,
  "首次": 141,
  "瑞典": 141,
  "手动": 141,
  "补贴": 141,
  "拆除": 140,
  "变形": 140,
  "接": 140,
  "样品": 140,
  "队": 140,
  "W": 140,
  "附加": 140,
  "客户": 140,
  "转": 140,
  "注": 140,
  "架": 140,
  "瑞士": 140,
  "在@@": 140,
  "情报": 140,
  "冷却": 140,
  "梁": 140,
  "分钟": 140,
  "附近": 140,
  "供水": 139,
  "转递": 139,
  "人力资源": 139,
  "自然资源": 139,
  "打@@": 139,
  "显然": 139,
  "的话": 139,
  "文@@": 139,
  "100@@": 139,
  "i@@": 139,
  "石": 139,
  "白俄罗斯": 139,
  "900": 139,
  "o@@": 138,
  "两": 138,
  "结算": 138,
  "井@@": 138,
  "丹麦": 138,
  "清理": 138,
  "转@@": 138,
  "任": 138,
  "III": 138,
  "海@@": 138,
  "西班牙": 138,
  "长@@": 138,
  "那样": 138,
  "调@@": 138,
  "南@@": 137,
  "发布": 137,
  "乌克兰": 137,
  "端": 137,
  "导线": 137,
  "压@@": 137,
  "分离器": 137,
  "心": 137,
  "09": 137,
  "电气设备": 137,
  "其余": 137,
  "一位": 137,
  "用来": 137,
  "巴西": 137,
  "专门机构": 137,
  "格@@": 136,
  "经委会": 136,
  "教科文组织": 136,
  "货币": 136,
  "中东": 136,
  "波兰": 136,
  "Z@@": 136,
  "单方面": 136,
  "阿根廷": 136,
  "最小": 136,
  "备忘录": 136,
  "妨碍": 136,
  "除非": 136,
  "令": 136,
  "出版": 136,
  "吁请": 136,
  "列@@": 136,
  "含@@": 135,
  "周期": 135,
  "飞行": 135,
  "零件": 135,
  "标记": 135,
  "生殖": 135,
  "火炬": 135,
  "最新": 135,
  "波斯尼亚": 135,
  "27@@": 135,
  "图@@": 135,
  "业": 135,
  "b@@": 135,
  "塞浦路斯": 135,
  "并@@": 135,
  "相比": 135,
  "离开": 135,
  "ь": 135,
  "n@@": 135,
  "意愿": 134,
  "放在": 134,
  "集气": 134,
  "规格": 134,
  "候选人": 134,
  "仪器": 134,
  "参见": 134,
  "液体": 134,
  "法@@": 134,
  "力量": 134,
  "教师": 134,
  "低压": 134,
  "开放": 134,
  "额定": 134,
  "公布": 134,
  "股份": 134,
  "角": 134,
  "总体": 134,
  "盖": 134,
  "而是": 134,
  "议事规则": 134,
  "Q@@": 134,
  "聚乙烯": 134,
  "地震": 133,
  "界": 133,
  "女": 133,
  "回": 133,
  "有利": 133,
  "干": 133,
  "多数": 133,
  "地址": 133,
  "口头": 133,
  "送": 133,
  "废物": 133,
  "kg": 133,
  "看到": 133,
  "23@@": 133,
  "库": 133,
  "实@@": 133,
  "看": 132,
  "与其": 132,
  "1.0": 132,
  "澄清": 132,
  "次级": 132,
  "r@@": 132,
  "制@@": 132,
  "条@@": 132,
  "根": 132,
  "8.@@": 132,
  "Ц": 132,
  "全体": 132,
  "土@@": 132,
  "法人": 132,
  "进度": 132,
  "距": 132,
  "2019": 132,
  "电机": 132,
  "驻": 132,
  "1.68": 132,
  "反@@": 131,
  "智利": 131,
  "伊@@": 131,
  "设想": 131,
  "现代": 131,
  "补救": 131,
  "夫": 131,
  "不再": 131,
  "办理": 131,
  "决心": 131,
  "分摊": 131,
  "正@@": 131,
  "设有": 131,
  "遭到": 131,
  "随着": 130,
  "网站": 130,
  "招标": 130,
  "天@@": 130,
  "因而": 130,
  "130": 130,
  "助理": 130,
  "±": 130,
  "油气": 130,
  "小岛屿": 130,
  "审理": 130,
  "军队": 130,
  "07": 130,
  "派": 130,
  "巴": 130,
  "平面": 129,
  "防爆": 129,
  "架空": 129,
  "促使": 129,
  "比@@": 129,
  "雇用": 129,
  "满意": 129,
  "或@@": 129,
  "C.1": 129,
  "风@@": 129,
  "属": 129,
  "免费": 129,
  "O": 129,
  "本条": 129,
  "地段": 129,
  "体积": 128,
  "紧急情况": 128,
  "种类": 128,
  "备用": 128,
  "注重": 128,
  "克罗地亚": 128,
  "四个": 128,
  "那里": 128,
  "尼日利亚": 127,
  "自治": 127,
  "电力": 127,
  "软件": 127,
  "安置": 127,
  "氮气": 127,
  "108": 127,
  "份额": 127,
  "l": 127,
  "途径": 127,
  "突出": 127,
  "父母": 127,
  "斗争": 127,
  "д": 127,
  "频率": 127,
  "调试": 127,
  "5.1": 127,
  "语": 127,
  "交付": 127,
  "推广": 127,
  "之中": 127,
  "排": 126,
  "系": 126,
  "工@@": 126,
  "k@@": 126,
  "交通": 126,
  "高于": 126,
  "划分": 126,
  "示意图": 126,
  "墙": 126,
  "北@@": 126,
  "体@@": 126,
  "人道主义法": 126,
  "脱硫": 126,
  "实验室": 126,
  "回路": 126,
  "参照": 126,
  "干事": 126,
  "变电所": 126,
  "海地": 126,
  "卖方": 126,
  "遵循": 125,
  "风机": 125,
  "主动": 125,
  "谨": 125,
  "边": 125,
  "流@@": 125,
  "§": 125,
  "101": 125,
  "规约": 125,
  "模块": 125,
  "拨款": 125,
  "纲要": 125,
  "知识产权": 125,
  "检修": 125,
  "无线电": 124,
  "U": 124,
  "效力": 124,
  "表格": 124,
  "级别": 124,
  "3%": 124,
  "基准": 124,
  "作@@": 124,
  "一方": 124,
  "组合": 124,
  "所有人": 123,
  "勘察": 123,
  "第三次": 123,
  "2008": 123,
  "型号": 123,
  "\\": 123,
  "逐步": 123,
  "估计数": 123,
  "规划署": 123,
  "数@@": 123,
  "事先": 123,
  "将会": 123,
  "事实上": 123,
  "灾害": 123,
  "包装": 123,
  "最@@": 123,
  "产量": 123,
  "业绩": 122,
  "爆炸": 122,
  "参考": 122,
  "«": 122,
  "各类": 122,
  "使得": 122,
  "竣工": 122,
  "储罐": 122,
  "协作": 122,
  "工程地质": 122,
  "生命": 122,
  "共同体": 122,
  "黑塞哥维那": 122,
  "世贸组织": 122,
  "第三方": 122,
  "任意": 122,
  "C.3": 122,
  "交@@": 122,
  "剥削": 122,
  "国别": 122,
  "促请": 122,
  "轮": 121,
  "差异": 121,
  "中有": 121,
  "1.3": 121,
  "后@@": 121,
  "出来": 121,
  "不要": 121,
  "厘米": 121,
  "已有": 121,
  "状": 121,
  "效果": 121,
  "剥夺": 121,
  "说明书": 121,
  "曲线": 121,
  "某": 121,
  "绝对": 121,
  "无论": 121,
  "生@@": 121,
  "透明度": 121,
  "信任": 121,
  "传感器": 121,
  "萨@@": 121,
  "军": 121,
  "分段": 120,
  "手": 120,
  "因@@": 120,
  "两种": 120,
  "受理": 120,
  "DN@@": 120,
  "设法": 120,
  "潜在": 120,
  "岩": 120,
  "Ⅲ": 120,
  "超@@": 120,
  "成分": 120,
  "上午": 120,
  "试样": 120,
  "移交": 119,
  "斯@@": 119,
  "必需": 119,
  "行业": 119,
  "第一个": 119,
  "负担": 119,
  "驱动": 119,
  "女童": 119,
  "混合物": 119,
  "深": 119,
  "焊": 119,
  "2%": 119,
  "派遣": 119,
  "气候变化": 119,
  "供应商": 119,
  "此时": 119,
  "奥地利": 119,
  "1%": 119,
  "排@@": 119,
  "更为": 119,
  "索马里": 119,
  "f@@": 118,
  "g@@": 118,
  "错误": 118,
  "局部": 118,
  "生态": 118,
  "管辖": 118,
  "160": 118,
  "情形": 118,
  "门@@": 118,
  "改为": 118,
  "钢制": 118,
  "跨国": 118,
  "阐述": 118,
  "令人": 118,
  "上升": 118,
  "完": 118,
  "施工现场": 118,
  "准确": 118,
  "收@@": 118,
  "成套": 117,
  "今年": 117,
  "起@@": 117,
  "联合会": 117,
  "五@@": 117,
  "捷克共和国": 117,
  "讨论会": 117,
  "电网": 117,
  "奥@@": 117,
  "北京": 117,
  "支撑": 117,
  "手@@": 117,
  "第四": 117,
  "底": 117,
  "赞扬": 117,
  "下午": 117,
  "罗马尼亚": 117,
  "管理人员": 117,
  "消耗": 117,
  "垂直": 117,
  "芯": 117,
  "容易": 116,
  "界定": 116,
  "几@@": 116,
  "要素": 116,
  "推迟": 116,
  "2.3": 116,
  "方@@": 116,
  "侧": 116,
  "裁定": 116,
  "并非": 116,
  "示范": 116,
  "车@@": 116,
  "代理": 116,
  "空@@": 116,
  "清洗": 116,
  "匈牙利": 116,
  "发起": 116,
  "一条": 116,
  "标桩": 116,
  "母亲": 116,
  "描述": 116,
  "征聘": 116,
  "委会": 116,
  "排水": 116,
  "40@@": 116,
  "负责人": 116,
  "环": 116,
  ".1": 116,
  "民众": 116,
  "哈@@": 116,
  "执法": 116,
  "潜力": 115,
  "重复": 115,
  "会计": 115,
  "指挥": 115,
  "仲裁": 115,
  "清除": 115,
  "过滤": 115,
  "布隆迪": 115,
  "吹": 115,
  "刚果": 115,
  "公称": 115,
  "面前": 115,
  "定于": 115,
  "回@@": 115,
  "干预": 115,
  "动": 115,
  "初级": 115,
  "㈡": 114,
  "替代": 114,
  "伤害": 114,
  "工艺流程": 114,
  "两次": 114,
  "26@@": 114,
  "强迫": 114,
  "最好": 114,
  "死亡率": 114,
  "产出": 114,
  "酸": 113,
  "信息系统": 113,
  "提供援助": 113,
  "修正案": 113,
  "谅解": 113,
  "进@@": 113,
  "秘书": 113,
  "发动机": 113,
  "马来西亚": 113,
  "基地": 113,
  "提@@": 113,
  "失踪": 113,
  "筹措": 113,
  "纳@@": 113,
  "点@@": 113,
  "应为": 113,
  "荷载": 113,
  "10%": 113,
  "1.6": 113,
  "希腊": 113,
  "掌握": 112,
  "利息": 112,
  "概述": 112,
  "102": 112,
  "族裔": 112,
  "2007": 112,
  "倍": 112,
  "3.5": 112,
  "用品": 112,
  "行@@": 112,
  "科特迪瓦": 112,
  "融资": 112,
  "拟": 112,
  "an@@": 112,
  "偿还": 112,
  "国际@@": 112,
  "运营": 112,
  "五个": 112,
  "经@@": 112,
  "共识": 112,
  "成绩": 112,
  "阿尔及利亚": 111,
  "220": 111,
  "安": 111,
  "价": 111,
  "涂层": 111,
  "差": 111,
  "地下水": 111,
  "强制性": 111,
  "kW": 111,
  "肯尼亚": 111,
  "破产": 111,
  "领取": 111,
  "可靠性": 111,
  "容量": 111,
  "快速": 111,
  "密切": 111,
  "镀锌": 111,
  "薪金": 111,
  "突尼斯": 111,
  "保温": 111,
  "取@@": 111,
  "冷凝": 111,
  "青少年": 111,
  "认真": 111,
  "化@@": 111,
  "5.2": 111,
  "----": 111,
  "u@@": 111,
  "沙特阿拉伯": 110,
  "自身": 110,
  "维和": 110,
  "接入": 110,
  "证": 110,
  "2012": 110,
  "C.2": 110,
  "加固": 110,
  "仪": 110,
  "视": 110,
  "推@@": 109,
  "定@@": 109,
  "体现": 109,
  "就此": 109,
  "尽快": 109,
  "升": 109,
  ".@@": 109,
  "岩石": 109,
  "管网": 109,
  "4.1": 109,
  "核可": 109,
  "Q": 109,
  "平": 109,
  "光@@": 109,
  "供@@": 109,
  "谴责": 109,
  "向@@": 109,
  "通@@": 108,
  "转交": 108,
  "不少": 108,
  "劳动力": 108,
  "比利时": 108,
  "城": 108,
  "遇到": 108,
  "瓦": 108,
  "人工": 108,
  "Y@@": 108,
  "取代": 108,
  "巨大": 108,
  "协商一致": 108,
  "拟建": 108,
  "y@@": 108,
  "大韩民国": 108,
  "灯": 108,
  "营地": 108,
  "政治权利": 108,
  "少": 108,
  "保存": 108,
  "机场": 108,
  "轨道": 107,
  "分庭": 107,
  "确立": 107,
  "燃烧": 107,
  "六": 107,
  "入口": 107,
  "加速": 107,
  "模型": 107,
  "等于": 107,
  "监狱": 107,
  "缅甸": 107,
  "南部": 107,
  "新闻部": 107,
  "2017": 107,
  "干@@": 107,
  "公务员": 107,
  "所列": 107,
  "任期": 107,
  "质": 107,
  "释放": 107,
  "前往": 107,
  "库@@": 107,
  "旅行": 107,
  "差距": 107,
  "ы": 107,
  "分享": 107,
  "灭火": 107,
  "老年人": 107,
  "找到": 107,
  "植物": 107,
  "放@@": 106,
  "暂停": 106,
  "渔业": 106,
  "断路器": 106,
  "用水": 106,
  "微@@": 106,
  "逮捕": 106,
  "学@@": 106,
  "持久": 106,
  "泰国": 106,
  "亿": 106,
  "时应": 106,
  "虐待": 106,
  "列车": 106,
  "姆": 106,
  "底部": 106,
  "加快": 106,
  "确实": 106,
  "暴力行为": 106,
  "阻碍": 106,
  "原": 106,
  "偏差": 106,
  "注册": 106,
  "动@@": 106,
  "X": 106,
  "三年": 105,
  "物资": 105,
  "修理": 105,
  "实地": 105,
  "一体化": 105,
  "第六": 105,
  "4.2": 105,
  "惩罚": 105,
  "法案": 105,
  "合": 105,
  "巩固": 105,
  "完善": 105,
  "存放": 105,
  "期@@": 105,
  "核@@": 105,
  "格": 105,
  "牌号": 105,
  "不应": 105,
  "后来": 105,
  "装配": 105,
  "投票": 105,
  "原@@": 105,
  "卷": 105,
  "计算机": 105,
  "办": 104,
  "进步": 104,
  "选": 104,
  "er@@": 104,
  "冲洗": 104,
  "玻璃": 104,
  "认证": 104,
  "由@@": 104,
  "<": 104,
  "视察": 104,
  "宗旨": 104,
  "每月": 104,
  "惯例": 104,
  "很少": 104,
  "只要": 104,
  "工程师": 104,
  "用电": 104,
  "人士": 104,
  "古@@": 104,
  "现浇": 104,
  "称为": 104,
  "东道国": 103,
  "伊": 103,
  "提升": 103,
  "金@@": 103,
  "不论": 103,
  "10kV": 103,
  "主权": 103,
  "接口": 103,
  "部长级": 103,
  "共有": 103,
  "过境": 103,
  "125": 103,
  "适合": 103,
  "葡萄牙": 103,
  "东@@": 103,
  "过@@": 103,
  "...": 103,
  "日起": 103,
  "成就": 103,
  "保@@": 103,
  "西": 103,
  "副本": 103,
  "振动": 103,
  "族": 103,
  "女孩": 103,
  "信贷": 102,
  "本法": 102,
  "线@@": 102,
  "沙@@": 102,
  "输电线": 102,
  "金融机构": 102,
  "当时": 102,
  "北爱尔兰": 102,
  "捐助国": 102,
  "提前": 102,
  "管辖权": 102,
  "船": 102,
  "切@@": 102,
  "定": 102,
  "孩子": 102,
  "涵盖": 102,
  "秘鲁": 102,
  "芬兰": 102,
  "承包方": 102,
  "制品": 102,
  "通用": 102,
  "大气": 102,
  "电动": 102,
  "钢@@": 102,
  "马耳他": 102,
  "透明": 101,
  "核算": 101,
  "菲律宾": 101,
  "因特网": 101,
  "性@@": 101,
  "≤": 101,
  "缴纳": 101,
  "7%": 101,
  "主义": 101,
  "产": 101,
  "网址": 101,
  "完整": 101,
  "大型": 101,
  "C.5": 101,
  "in@@": 101,
  "神": 101,
  "债权人": 101,
  "及@@": 101,
  "减@@": 101,
  "有时": 101,
  "工况": 101,
  "所示": 101,
  "约旦": 101,
  "有所": 101,
  "层@@": 101,
  "6%": 101,
  "切实": 101,
  "2.4": 101,
  "保加利亚": 101,
  "车站": 100,
  "何种": 100,
  "尽": 100,
  "维@@": 100,
  "仇外": 100,
  "报道": 100,
  "多个": 100,
  "危地马拉": 100,
  "被告": 100,
  "名义": 100,
  "关心": 100,
  "预@@": 100,
  "`": 100,
  "防火": 100,
  "认定": 100,
  "密切合作": 100,
  "配合": 100,
  "得@@": 100,
  "格鲁吉亚": 100,
  "60@@": 100,
  "n": 100,
  "外层空间": 100,
  "本届": 100,
  "以往": 100,
  "耐@@": 100,
  "船舶": 99,
  "海洋法": 99,
  "总数": 99,
  "仓库": 99,
  "覆盖": 99,
  "普@@": 99,
  "无核武器": 99,
  "认可": 99,
  "泄漏": 99,
  "运": 99,
  "深入": 99,
  "减贫": 99,
  "注明": 99,
  "复@@": 99,
  "五年": 99,
  "一方面": 99,
  "应由": 98,
  "别": 98,
  "开启": 98,
  "排雷": 98,
  "Ø": 98,
  "还要": 98,
  "原油": 98,
  "委内瑞拉": 98,
  "侵略": 98,
  "坚持": 98,
  "雷": 98,
  "明@@": 98,
  "袭击": 98,
  "母线": 98,
  "除@@": 97,
  "还应": 97,
  "顶": 97,
  "边缘": 97,
  "并未": 97,
  "溶液": 97,
  "环境署": 97,
  "哥斯达黎加": 97,
  "即将": 97,
  "极": 97,
  "最初": 97,
  "合同规定": 97,
  "防": 97,
  "运用": 97,
  "斯洛伐克": 97,
  "将来": 97,
  "钢板": 97,
  "一道": 97,
  "分为": 97,
  "粮农组织": 97,
  "入@@": 97,
  "字": 97,
  "方针": 97,
  "加上": 97,
  "犯": 97,
  "毁灭性": 97,
  ">": 97,
  "出售": 97,
  "已@@": 97,
  "简要": 97,
  "测定": 97,
  "区内": 97,
  "收益": 97,
  "简化": 97,
  "抗@@": 96,
  "en@@": 96,
  "守则": 96,
  "少数民族": 96,
  "铜": 96,
  "失@@": 96,
  "本次": 96,
  "走": 96,
  "发送": 96,
  "裁军谈判": 96,
  "声称": 96,
  "值得": 96,
  "日历": 96,
  "简称": 96,
  "合@@": 96,
  "现实": 96,
  "3.3": 96,
  "载于": 96,
  "增压": 96,
  "k": 96,
  "隔离": 96,
  "2018": 96,
  "ar@@": 96,
  "Rev.1": 96,
  "出于": 96,
  "按@@": 96,
  "强": 95,
  "乌@@": 95,
  "和解": 95,
  "摊款": 95,
  "必@@": 95,
  "期内": 95,
  "阿": 95,
  "批": 95,
  "厄瓜多尔": 95,
  "140": 95,
  "为止": 95,
  "轻武器": 95,
  "米@@": 95,
  "人居": 95,
  "食物": 95,
  "优势": 95,
  "1.4": 95,
  "吸收": 95,
  "版": 95,
  "孟加拉国": 95,
  "利比亚": 95,
  "远程": 95,
  "摘要": 95,
  "配": 95,
  "斯克": 95,
  "象": 95,
  "方便": 95,
  "计": 94,
  "勘探": 94,
  "火@@": 94,
  "所用": 94,
  "必要性": 94,
  "证人": 94,
  "当事方": 94,
  "2014": 94,
  "6.1": 94,
  "核裁军": 94,
  "限度": 94,
  "受益": 94,
  "钻石": 94,
  "至于": 94,
  "瓦@@": 94,
  "融入": 94,
  "犯下": 94,
  "年度报告": 94,
  "预处理": 94,
  "面对": 94,
  "联": 94,
  "配电装置": 94,
  "制成": 94,
  "应力": 94,
  "表@@": 94,
  "干燥": 94,
  "常常": 94,
  "阁下": 93,
  "完工": 93,
  "此项": 93,
  "市@@": 93,
  "美洲": 93,
  "脆弱": 93,
  "顺序": 93,
  "两名": 93,
  "半": 93,
  "预制": 93,
  "订立": 93,
  "稳定性": 93,
  "得出": 93,
  "整@@": 93,
  "此@@": 93,
  "圈": 93,
  "手续": 93,
  "改@@": 93,
  "辐射": 93,
  "马": 92,
  "合作伙伴": 92,
  "依然": 92,
  "比率": 92,
  "包": 92,
  "㈠": 92,
  "增值税": 92,
  "儿子": 92,
  "池": 92,
  "发给": 92,
  "1989": 92,
  "集": 92,
  "取样": 92,
  "依法": 92,
  "周围": 92,
  "告知": 92,
  "武装力量": 92,
  "别@@": 92,
  "控制室": 92,
  "英国": 92,
  "报": 92,
  "焊条": 92,
  "每天": 92,
  ".2": 92,
  "塞内加尔": 92,
  "公报": 91,
  "丧失": 91,
  "数值": 91,
  "脱水": 91,
  "西亚": 91,
  "外交部长": 91,
  "指@@": 91,
  "工艺设备": 91,
  "备选": 91,
  "推进": 91,
  "那@@": 91,
  "理论": 91,
  "起重机": 91,
  "�": 91,
  "直@@": 91,
  "庇护": 91,
  "爱尔兰": 91,
  "削减": 91,
  "强烈": 91,
  "大不列颠": 91,
  "集@@": 91,
  "先前": 91,
  "系列": 91,
  "冰@@": 91,
  "伏": 91,
  "必": 91,
  "й": 91,
  "0.1": 91,
  "流程": 91,
  "外壳": 91,
  "而@@": 90,
  "得以": 90,
  "感染": 90,
  "照顾": 90,
  "给水": 90,
  "旅游": 90,
  "乌拉圭": 90,
  "遣返": 90,
  "重返": 90,
  "文本": 90,
  "坚决": 90,
  "章节": 90,
  "他人": 90,
  "180": 90,
  "易": 90,
  "刑法": 90,
  "专@@": 90,
  "液位": 90,
  "消费": 90,
  "净": 90,
  "印发": 90,
  "公式": 90,
  "待": 90,
  "运送": 90,
  "死刑": 89,
  "据称": 89,
  "院": 89,
  "运@@": 89,
  "p": 89,
  "衡量": 89,
  "引@@": 89,
  "第四次": 89,
  "领空": 89,
  "石@@": 89,
  "铁@@": 89,
  "20%": 89,
  "电站": 89,
  "有效期": 89,
  "矿物": 89,
  "亚美尼亚": 89,
  "十": 89,
  "共计": 89,
  "否则": 89,
  "另一方面": 89,
  "深@@": 89,
  "行政当局": 89,
  "续": 89,
  "委托": 89,
  "岛": 89,
  "六@@": 89,
  "章程": 89,
  "螺母": 89,
  "前景": 89,
  "事态": 89,
  "可行": 89,
  "Ш": 89,
  "国外": 89,
  "接近": 89,
  "6.2": 89,
  "伊朗伊斯兰共和国": 89,
  "颗粒": 88,
  "十五届": 88,
  "任务书": 88,
  "大家": 88,
  "托@@": 88,
  "浆": 88,
  "纵向": 88,
  "债务人": 88,
  "勒": 88,
  "2011": 88,
  "莫@@": 88,
  "战@@": 88,
  "雷@@": 88,
  "法治": 88,
  "南斯拉夫联盟共和国": 88,
  "显著": 88,
  "试图": 88,
  "设在": 88,
  "例子": 88,
  "渠道": 88,
  "Add.@@": 88,
  "公民权利": 88,
  "电视": 88,
  "轴承": 88,
  "太@@": 88,
  "团结": 88,
  "4.5": 88,
  "北部": 88,
  "恶化": 88,
  "世界各地": 88,
  "国标": 88,
  "电动机": 88,
  "引渡": 88,
  "采暖": 88,
  "2016": 87,
  "以此": 87,
  "第一@@": 87,
  "关@@": 87,
  "焊@@": 87,
  "吸引": 87,
  "缔结": 87,
  "劳动报酬": 87,
  "帕@@": 87,
  "工程施工": 87,
  "自然灾害": 87,
  "切断": 87,
  "大楼": 87,
  "第二个": 87,
  "隧道": 87,
  "男女平等": 87,
  "选用": 87,
  "剩余": 87,
  "三氯氢硅": 87,
  "下面": 87,
  "死": 87,
  "柴油": 87,
  "法定": 87,
  "尼泊尔": 87,
  "路@@": 87,
  "军@@": 87,
  "为期": 87,
  "里@@": 86,
  "会@@": 86,
  "m2": 86,
  "引入": 86,
  "横向": 86,
  "多样化": 86,
  "短期": 86,
  "砂": 86,
  "柬埔寨": 86,
  "期望": 86,
  "人人": 86,
  "报表": 86,
  "轴线": 86,
  "不到": 86,
  "8%": 86,
  "之内": 86,
  "好处": 86,
  "净额": 86,
  "立陶宛": 86,
  "电阻": 86,
  "储量": 86,
  "难以": 86,
  "处罚": 86,
  "医院": 86,
  "所有权": 86,
  "组@@": 86,
  "现代化": 86,
  "置于": 86,
  "随时": 86,
  "再生": 86,
  "切": 86,
  "博@@": 86,
  "配@@": 86,
  "效益": 86,
  "先@@": 86,
  "楼": 86,
  "星期": 86,
  "冬季": 86,
  "x": 86,
  "汇率": 85,
  "会议室": 85,
  "较大": 85,
  "见图": 85,
  "103": 85,
  "间距": 85,
  "来看": 85,
  "冷却器": 85,
  "1373": 85,
  "抽@@": 85,
  "权@@": 85,
  "越南": 85,
  "波": 85,
  "租赁": 85,
  "技术设备": 85,
  "名@@": 85,
  "0.7": 85,
  "电路": 85,
  "罗马": 85,
  "近东": 85,
  "200@@": 85,
  "劳动保护": 85,
  "武力": 85,
  "标@@": 85,
  "少年": 85,
  "彻底": 85,
  "105": 85,
  "综合体": 85,
  "会上": 85,
  "签发": 85,
  "思想": 85,
  "调度": 85,
  "斯里兰卡": 85,
  "火": 85,
  "近@@": 85,
  "发电机": 85,
  "盟约": 85,
  "工会": 85,
  "千瓦": 85,
  "壁厚": 85,
  "几年": 85,
  "物理": 84,
  "呢": 84,
  "量@@": 84,
  "主体": 84,
  "空": 84,
  "反应堆": 84,
  "缺少": 84,
  "先": 84,
  "这里": 84,
  "掉": 84,
  "举措": 84,
  "解除": 84,
  "实验": 84,
  "后勤": 84,
  "颁发": 84,
  "申请书": 84,
  "自行": 84,
  "对应": 84,
  "50%": 84,
  "一词": 84,
  "汇报": 84,
  "上部": 84,
  "第五十八": 84,
  "104": 84,
  "合成": 84,
  "坐标": 84,
  "住宅": 84,
  "47@@": 84,
  "代@@": 84,
  "两项": 84,
  "结@@": 84,
  "路面": 84,
  "半@@": 84,
  "专门知识": 84,
  "去年": 84,
  "阿塞拜疆": 84,
  "权限": 84,
  "污染物": 84,
  "液压": 84,
  "撤回": 83,
  "西非": 83,
  "106": 83,
  "选定": 83,
  "支柱": 83,
  "or@@": 83,
  "直至": 83,
  "也许": 83,
  "咨询服务": 83,
  "索@@": 83,
  "审评": 83,
  "感兴趣": 83,
  "国际法院": 83,
  "外输": 83,
  "调解": 83,
  "一旦": 83,
  "可用": 83,
  "001": 83,
  "冷@@": 83,
  "2013": 83,
  "热水": 83,
  "贩卖": 83,
  "武装": 83,
  "区段": 83,
  "分公司": 83,
  "阻止": 83,
  "纠正": 83,
  "工作量": 83,
  "巴勒斯坦人": 83,
  "余额": 83,
  "灵活": 83,
  "冲击": 83,
  "附录": 82,
  "诺@@": 82,
  "资源管理": 82,
  "十六届": 82,
  "发了": 82,
  "财务报表": 82,
  "所得": 82,
  "工作文件": 82,
  "穿越": 82,
  "抗": 82,
  "亿元": 82,
  "动员": 82,
  "施工图": 82,
  "限于": 82,
  "处决": 82,
  "失业": 82,
  "主张": 82,
  "喀麦隆": 82,
  "现@@": 82,
  "罚款": 82,
  "4%": 82,
  "现": 82,
  "GB": 82,
  "发射": 82,
  "商": 82,
  "班": 82,
  "增@@": 82,
  "推荐": 82,
  "洛@@": 82,
  "交": 82,
  "十一届": 82,
  "心@@": 82,
  "达@@": 82,
  "路线": 82,
  "内部监督": 81,
  "被@@": 81,
  "排放量": 81,
  "底漆": 81,
  "自由化": 81,
  "J": 81,
  "教学": 81,
  "等等": 81,
  "阿拉伯叙利亚共和国": 81,
  "保护区": 81,
  "林@@": 81,
  "永久": 81,
  "发言者": 81,
  "至@@": 81,
  "报酬": 81,
  "秩序": 81,
  "IV": 81,
  "相符": 81,
  "下述": 81,
  "执行机构": 81,
  "换@@": 81,
  "32@@": 81,
  "销毁": 81,
  "截止": 81,
  "月份": 81,
  "怀疑": 81,
  "治理": 81,
  "斯洛文尼亚": 81,
  "您": 81,
  "木材": 81,
  "驻地": 81,
  "相当于": 81,
  "尽量": 81,
  "一国": 81,
  "原始": 81,
  "林": 81,
  "王": 81,
  "口@@": 81,
  "克服": 81,
  "消费者": 81,
  "容积": 81,
  "操作员": 81,
  "停@@": 81,
  "废料": 81,
  "往": 81,
  "环境保护": 80,
  "1988": 80,
  "联合国开发计划署": 80,
  "大使": 80,
  "定位": 80,
  "¡": 80,
  "___": 80,
  "补@@": 80,
  "37@@": 80,
  "假": 80,
  "通行": 80,
  "需@@": 80,
  "预先": 80,
  "短": 80,
  "议题": 80,
  "联锁": 80,
  "百分比": 80,
  "警卫": 80,
  "纳米比亚": 80,
  "出厂": 80,
  "水泵": 80,
  "着重": 80,
  "计划署": 80,
  "册": 80,
  "男性": 80,
  "提醒": 80,
  "负": 80,
  "球阀": 80,
  "al@@": 80,
  "接管": 80,
  "润滑油": 80,
  "地带": 80,
  "材质": 80,
  "差别": 79,
  "面@@": 79,
  "失去": 79,
  "拉脱维亚": 79,
  "试@@": 79,
  "管理系统": 79,
  "地域": 79,
  "家庭暴力": 79,
  "脱": 79,
  "速": 79,
  "海": 79,
  "爱沙尼亚": 79,
  "航空": 79,
  "v@@": 79,
  "流入": 79,
  "监禁": 79,
  "职": 79,
  "诺": 79,
  "询问": 79,
  "这份": 79,
  "35@@": 79,
  "精@@": 79,
  "理@@": 79,
  "查@@": 79,
  "删除": 79,
  "某一": 79,
  "空中": 79,
  "钢结构": 79,
  "供给": 79,
  "杀伤": 79,
  "0.0@@": 79,
  "丈夫": 79,
  "立@@": 79,
  "罗": 79,
  "经济@@": 79,
  "选@@": 79,
  "饮用水": 79,
  "焦炉": 79,
  "科技咨询": 79,
  "二级": 79,
  "前提": 79,
  "补编": 79,
  "农@@": 78,
  "消灭": 78,
  "时限": 78,
  "远@@": 78,
  "形势": 78,
  "制造商": 78,
  "交给": 78,
  "例外": 78,
  "不妨": 78,
  "空调": 78,
  "房屋": 78,
  "输送机": 78,
  "积极参与": 78,
  "采@@": 78,
  "由此": 78,
  "一览表": 78,
  "7.2": 78,
  "螺纹": 78,
  "井口": 78,
  "12.@@": 78,
  "穷人": 78,
  "听取": 78,
  "对付": 78,
  "я": 78,
  "矿": 78,
  "二次": 78,
  "传@@": 78,
  "成型": 78,
  "色": 78,
  "行动者": 78,
  "at@@": 78,
  "违背": 78,
  "信@@": 78,
  "好@@": 78,
  "直到": 78,
  "问": 77,
  "正是": 77,
  "马里": 77,
  "填@@": 77,
  "蒙古": 77,
  "叙利亚": 77,
  "即@@": 77,
  "出生": 77,
  "逐渐": 77,
  "跨": 77,
  "部@@": 77,
  "受害人": 77,
  "依赖": 77,
  "玻利维亚": 77,
  "顶部": 77,
  "塞@@": 77,
  "硅": 77,
  "表达": 77,
  "控": 77,
  "纳税人": 77,
  "干扰": 77,
  "冷": 77,
  "分子": 77,
  "到@@": 77,
  "实践": 77,
  "当事人": 77,
  "区@@": 77,
  "论证": 77,
  "档案": 77,
  "零": 77,
  "小学": 77,
  "设计方案": 77,
  "港口": 77,
  "药品": 77,
  "排出": 76,
  "补助": 76,
  "工程量": 76,
  "动物": 76,
  "职权范围": 76,
  "114": 76,
  "当然": 76,
  "岩心": 76,
  "某种": 76,
  "地形": 76,
  "连@@": 76,
  "均匀": 76,
  "陈述": 76,
  "现已": 76,
  "网@@": 76,
  "促成": 76,
  "也门": 76,
  "内罗毕": 76,
  "旋转": 76,
  "会费": 76,
  "脱@@": 76,
  "托": 76,
  "填写": 76,
  "扩展": 76,
  "规章": 76,
  "税收": 76,
  "配件": 76,
  "0.2": 76,
  "委员": 76,
  "28@@": 76,
  "销": 76,
  "近": 76,
  "cm": 76,
  "实质": 76,
  "多次": 76,
  "环保": 76,
  "布基纳法索": 76,
  "养@@": 76,
  "父亲": 76,
  "动态": 76,
  "粉": 76,
  "冲@@": 76,
  "经理": 76,
  "有着": 76,
  "超出": 76,
  "min": 76,
  "〕": 75,
  "有用": 75,
  "寻找": 75,
  "变动": 75,
  "难": 75,
  "估算": 75,
  "4.3": 75,
  "联塞": 75,
  "结": 75,
  "联合国大会": 75,
  "更大": 75,
  "杂质": 75,
  "壁": 75,
  "按钮": 75,
  "交接": 75,
  "内外": 75,
  "排气": 75,
  "另有": 75,
  "肯定": 75,
  "45@@": 75,
  "温室": 75,
  "广播": 75,
  "苏@@": 75,
  "垫层": 75,
  "泵房": 75,
  "千@@": 75,
  "联络": 75,
  "相反": 75,
  "2020": 75,
  "r": 75,
  "3.4": 75,
  "周": 75,
  "转向": 75,
  "新建": 75,
  "大大": 75,
  "着手": 75,
  "3.0": 75,
  "el@@": 75,
  "发展权": 75,
  "我@@": 75,
  "宏观经济": 75,
  "裂缝": 74,
  "0.8": 74,
  "毛额": 74,
  "铭记": 74,
  "限": 74,
  "技术转让": 74,
  "不够": 74,
  "教@@": 74,
  "10.@@": 74,
  "附": 74,
  "预算外": 74,
  "修复": 74,
  "观测": 74,
  "组装": 74,
  "撤销": 74,
  "津巴布韦": 74,
  "迄今": 74,
  "来@@": 74,
  "kV": 74,
  "指令": 74,
  "案例": 74,
  "第五十四届": 74,
  "处境": 74,
  "英文": 74,
  "滥用": 74,
  "放": 74,
  "中等": 74,
  "散发": 74,
  "〔": 74,
  "国际贸易": 74,
  "报@@": 74,
  "姓名": 74,
  "成品": 74,
  "靠": 73,
  "埃@@": 73,
  "不得不": 73,
  "北": 73,
  "11@@": 73,
  "随@@": 73,
  "山@@": 73,
  "意": 73,
  "合格证": 73,
  "下部": 73,
  "中应": 73,
  "壳": 73,
  "均衡": 73,
  "y": 73,
  "储备": 73,
  "飞@@": 73,
  "脚": 73,
  "更@@": 73,
  "头@@": 73,
  "7.5": 73,
  "其他人": 73,
  "放弃": 73,
  "共@@": 73,
  "年初": 73,
  "满": 73,
  "兰": 73,
  "社会保障": 73,
  "孔@@": 73,
  "水资源": 73,
  "2.0": 73,
  "物@@": 73,
  "常会": 73,
  "80@@": 73,
  "传输": 73,
  "告诉": 73,
  "调": 73,
  "冻结": 73,
  "配偶": 73,
  "111": 73,
  "萨尔瓦多": 72,
  "吉@@": 72,
  "提": 72,
  "序言": 72,
  "依靠": 72,
  "期待": 72,
  "区别": 72,
  "中部": 72,
  "马其顿共和国": 72,
  "这类": 72,
  "术语": 72,
  "童工": 72,
  "登记册": 72,
  "编@@": 72,
  "水源": 72,
  "木@@": 72,
  "人事": 72,
  "具": 72,
  "矿@@": 72,
  "目录": 72,
  "互@@": 72,
  "FCCC": 72,
  "钻探": 72,
  "费率": 72,
  "替换": 72,
  "14.@@": 72,
  "安全阀": 72,
  "后者": 72,
  "雅@@": 72,
  "DN": 72,
  "自决": 72,
  "塑料": 72,
  "多种": 72,
  "注入": 72,
  "交货": 72,
  "与此同时": 72,
  "镇": 72,
  "战斗": 72,
  "时代": 72,
  "水位": 72,
  "扫": 72,
  "凡": 72,
  "对待": 72,
  "身": 72,
  "生产总值": 72,
  "制约": 72,
  "下文": 72,
  "上面": 72,
  "温@@": 72,
  "伤": 72,
  "作出贡献": 72,
  "做好": 72,
  "底@@": 72,
  "争议": 72,
  "便于": 72,
  "备": 72,
  "聚氯乙烯": 71,
  "户": 71,
  "标": 71,
  "µ": 71,
  "千米": 71,
  "初次": 71,
  "123": 71,
  "侦察": 71,
  "恐怖": 71,
  "湿": 71,
  "交叉": 71,
  "000@@": 71,
  "腐败": 71,
  "层面": 71,
  "强制": 71,
  "处置": 71,
  "协调会": 71,
  "接线": 71,
  "缴款": 71,
  "养护": 71,
  "股权": 71,
  "22@@": 71,
  "耶路撒冷": 71,
  "难民营": 71,
  "关": 71,
  "•": 71,
  "6.3": 71,
  "预付款": 71,
  "反应器": 71,
  "卫生组织": 71,
  "高兴": 71,
  "耐火": 71,
  "七": 71,
  "依": 71,
  "分包": 71,
  "萨": 71,
  "液@@": 71,
  "节@@": 71,
  "融合": 71,
  "离@@": 71,
  "武装部队": 71,
  "设定": 71,
  "培养": 71,
  "简单": 71,
  "第二届": 71,
  "减": 70,
  "更改": 70,
  "产@@": 70,
  "赞比亚": 70,
  "13330": 70,
  "运转": 70,
  "所谓": 70,
  "LT@@": 70,
  "终了": 70,
  "根本": 70,
  "气管": 70,
  "第三@@": 70,
  "暂时": 70,
  "7.1": 70,
  "cm2": 70,
  "氮": 70,
  "质@@": 70,
  "双": 70,
  "申请人": 70,
  "病": 70,
  "喷@@": 70,
  "遗憾": 70,
  "所在地": 70,
  "极为": 70,
  "增长率": 70,
  "1980": 70,
  "不予": 70,
  "支": 70,
  "采矿": 70,
  "砂土": 70,
  "配电": 70,
  "敏感": 70,
  "集装箱": 70,
  "尊严": 70,
  "个@@": 70,
  "拖延": 70,
  "锅炉房": 70,
  "元": 70,
  "集输": 70,
  "典型": 70,
  "15.5": 70,
  "填充": 70,
  "伊朗": 70,
  "可燃": 70,
  "零@@": 70,
  "所在": 70,
  "无缝钢管": 70,
  "排斥": 70,
  "林业": 70,
  "建@@": 70,
  "夏季": 70,
  "行事": 70,
  "民事": 70,
  "自从": 70,
  "民警": 70,
  "开挖": 69,
  "500@@": 69,
  "关联": 69,
  "on@@": 69,
  "经济体": 69,
  "尼": 69,
  "莫斯科市": 69,
  "接通": 69,
  "纤维": 69,
  "矿石": 69,
  "清@@": 69,
  "模拟": 69,
  "DR": 69,
  "经社理事会": 69,
  "159": 69,
  "动作": 69,
  "感": 69,
  "充足": 69,
  "政党": 69,
  "转换": 69,
  "坚定": 69,
  "壳体": 69,
  "筹备工作": 69,
  "电能": 69,
  "勒@@": 69,
  "美@@": 69,
  "www": 69,
  "间隙": 69,
  "极@@": 69,
  "雨水": 69,
  "康复": 69,
  "安全@@": 69,
  "自然人": 69,
  "罩": 69,
  "防水": 69,
  "开列": 69,
  "115": 69,
  "竞争力": 69,
  "盐": 69,
  "15.@@": 69,
  "始终": 69,
  "轮@@": 69,
  "常@@": 69,
  "合适": 69,
  "电子商务": 69,
  "识别": 69,
  "承租人": 69,
  "群": 69,
  "用以": 69,
  "推行": 68,
  "城@@": 68,
  "第一届": 68,
  "日内": 68,
  "农民": 68,
  "季度": 68,
  "名额": 68,
  "环@@": 68,
  "非统组织": 68,
  "担心": 68,
  "控制器": 68,
  "HSE": 68,
  "列为": 68,
  "程": 68,
  "Corr.1": 68,
  "反恐": 68,
  "w@@": 68,
  "5.3": 68,
  "河@@": 68,
  "点火": 68,
  "通": 68,
  "施加": 68,
  "不久": 68,
  "不管": 68,
  "日常": 68,
  "先进": 68,
  "函": 68,
  "欧元": 68,
  "东部": 68,
  "细@@": 68,
  "军备": 68,
  "核实": 68,
  "另一方": 68,
  "350": 68,
  "看来": 68,
  "有力": 68,
  "国际劳工组织": 68,
  "区分": 68,
  "桥梁": 68,
  "给出": 68,
  "每一": 68,
  "一天": 68,
  "条文": 68,
  "Y": 68,
  "主办": 67,
  "申诉人": 67,
  "东": 67,
  "9%": 67,
  "载荷": 67,
  "48@@": 67,
  "穷国": 67,
  "压缩空气": 67,
  "持有": 67,
  "继电器": 67,
  "膜": 67,
  "发生器": 67,
  "发包方": 67,
  "300@@": 67,
  "再生能源": 67,
  "万吨": 67,
  "时间表": 67,
  "本人": 67,
  "洗@@": 67,
  "志愿人员": 67,
  "疏散": 67,
  "董事": 67,
  "婚姻": 67,
  "规范性": 67,
  "使@@": 67,
  "简报": 67,
  "穿": 67,
  "合计": 67,
  "端子": 67,
  "解@@": 67,
  "转型": 67,
  "导@@": 67,
  "京都": 67,
  "获": 67,
  "平面布置": 67,
  "报价": 67,
  "管理@@": 67,
  "制动": 67,
  "明": 67,
  "尽早": 67,
  "测@@": 66,
  "5.4": 66,
  "期限内": 66,
  "旅费": 66,
  "j@@": 66,
  "汇@@": 66,
  "兴趣": 66,
  "装车": 66,
  "强@@": 66,
  "缝": 66,
  "DP": 66,
  "热处理": 66,
  "支配": 66,
  "致@@": 66,
  "首@@": 66,
  "地上": 66,
  "病@@": 66,
  "转型期": 66,
  "轻@@": 66,
  "首长": 66,
  "用作": 66,
  "南方": 66,
  "转变": 66,
  "纳税": 66,
  "豁免": 66,
  "包@@": 66,
  "地球": 66,
  "任何人": 66,
  "奇@@": 66,
  "自备": 66,
  "复员": 66,
  "坑": 66,
  "PN@@": 66,
  "112": 66,
  "袋": 66,
  "还原": 66,
  "货": 66,
  "变": 66,
  "垫片": 66,
  "压缩": 66,
  "外交部": 66,
  "声": 66,
  "标识": 66,
  "例": 66,
  "盒": 66,
  "权益": 66,
  "互联网": 66,
  "≥": 66,
  "建设性": 66,
  "马格尼": 66,
  "坡": 66,
  "恰当": 66,
  "一层": 66,
  "顺利": 66,
  "负有": 66,
  "仅仅": 66,
  "道德": 66,
  "铺": 65,
  "或是": 65,
  "折@@": 65,
  "单井": 65,
  "申报": 65,
  "总结": 65,
  "保护装置": 65,
  "升级": 65,
  "白俄罗斯共和国": 65,
  "冰岛": 65,
  "作法": 65,
  "一半": 65,
  "0.6": 65,
  "职工": 65,
  "露天": 65,
  "编": 65,
  "吸@@": 65,
  "家@@": 65,
  "该部": 65,
  "企图": 65,
  "回填": 65,
  "付": 65,
  "饱和": 65,
  "绘制": 65,
  "119": 65,
  "132": 65,
  "钻": 65,
  "岗位": 65,
  "乌兹别克斯坦": 65,
  "税务": 65,
  "列支敦士登": 65,
  "罐区": 65,
  "图书馆": 65,
  "j": 65,
  "赠款": 65,
  "夫@@": 65,
  "外径": 65,
  "要@@": 65,
  "延迟": 65,
  "中小企业": 65,
  "第二@@": 65,
  "筋": 65,
  "SR.@@": 65,
  "装@@": 65,
  "圆@@": 65,
  "as@@": 65,
  "培训班": 65,
  "中断": 65,
  "总管": 65,
  "砂岩": 65,
  "第十@@": 64,
  "117": 64,
  "经历": 64,
  "再@@": 64,
  "兹": 64,
  "工作日": 64,
  "区域合作": 64,
  "谋求": 64,
  "怀孕": 64,
  "输气管道": 64,
  "指导方针": 64,
  "模板": 64,
  "商@@": 64,
  "135": 64,
  "所属": 64,
  "邻国": 64,
  "支援": 64,
  "同次": 64,
  "理想": 64,
  "不锈钢": 64,
  "莫桑比克": 64,
  "约束力": 64,
  "炉@@": 64,
  "4.0": 64,
  "截止阀": 64,
  "生态系统": 64,
  "大街": 64,
  "甲方": 64,
  "千": 64,
  "几内亚": 64,
  "职等": 64,
  "击": 64,
  "加纳": 64,
  "116": 64,
  "创建": 64,
  "ro@@": 64,
  "沿海": 64,
  "投@@": 64,
  "信函": 64,
  "装卸": 64,
  "补助金": 64,
  "另@@": 64,
  "技术规范": 64,
  "封闭": 64,
  "六个": 64,
  "拆卸": 64,
  "涂": 64,
  "根源": 64,
  "看@@": 64,
  "政府首脑": 64,
  "11.@@": 64,
  "剖面": 64,
  "兵": 64,
  "私营": 64,
  "承受": 64,
  "皮": 64,
  "110kV": 64,
  "纸": 64,
  "窗": 63,
  "广告": 63,
  "处@@": 63,
  "36@@": 63,
  "屋面": 63,
  "硫化氢": 63,
  "水管": 63,
  "每次": 63,
  "受益人": 63,
  "总共": 63,
  "国家元首": 63,
  "我要": 63,
  "氢": 63,
  "欧洲委员会": 63,
  "各位": 63,
  "砖": 63,
  "消防安全": 63,
  "留@@": 63,
  "约定": 63,
  "营": 63,
  "河流": 63,
  "初始": 63,
  "床": 63,
  "谁": 63,
  "离": 63,
  "回答": 63,
  "敌人": 63,
  "第五十九": 63,
  "款额": 63,
  "文字": 63,
  "kgf": 63,
  "席位": 63,
  "化学品": 63,
  "曾经": 63,
  "1967": 63,
  "会议议程": 63,
  "同等": 63,
  "122": 63,
  "损伤": 63,
  "转化": 63,
  "货币基金": 63,
  "熔@@": 63,
  "旅游业": 63,
  "33@@": 63,
  "材": 63,
  "常": 63,
  "100%": 63,
  "碳": 63,
  "1986": 63,
  "极其": 63,
  "亲@@": 63,
  "温": 63,
  "落": 63,
  "乙方": 63,
  "身@@": 63,
  "保函": 63,
  "次数": 63,
  "气动": 63,
  ".4": 63,
  "450": 63,
  "做到": 63,
  "任用": 62,
  "任职": 62,
  "规格书": 62,
  "2.7": 62,
  "压实": 62,
  "分列": 62,
  "假设": 62,
  "家属": 62,
  "代码": 62,
  "空缺": 62,
  "本地": 62,
  "Ю": 62,
  "阿尔@@": 62,
  "烃": 62,
  "禁运": 62,
  "客观": 62,
  "开办": 62,
  "别的": 62,
  "寿命": 62,
  "真空": 62,
  "货@@": 62,
  "用地": 62,
  "应收款": 62,
  "118": 62,
  "201": 62,
  "5.0": 62,
  "预防性": 62,
  "收取": 62,
  "指明": 62,
  "目": 62,
  "词": 62,
  "市场准入": 62,
  "公司章程": 62,
  "关税": 62,
  "尼加拉瓜": 62,
  "加热器": 62,
  "1200": 62,
  "近年来": 62,
  "有机": 62,
  "营养": 62,
  "考试": 62,
  "17.@@": 62,
  "浮@@": 62,
  "特遣队": 62,
  "病毒": 62,
  "地板": 62,
  "坡度": 62,
  "沉积层": 62,
  "1987": 62,
  "军事行动": 61,
  "阴极保护": 61,
  "贝宁": 61,
  "ad@@": 61,
  "边境": 61,
  "呈": 61,
  "极大": 61,
  "屋顶": 61,
  "中学": 61,
  "㈢": 61,
  "灵活性": 61,
  "退@@": 61,
  "部位": 61,
  "开设": 61,
  "获悉": 61,
  "军事@@": 61,
  "工作日内": 61,
  "变得": 61,
  "周@@": 61,
  "误差": 61,
  "八@@": 61,
  "路基": 61,
  "痛苦": 61,
  "弯曲": 61,
  "经济委员会": 61,
  "全套": 61,
  "粮食安全": 61,
  "索": 61,
  "退化": 61,
  "丰富": 61,
  "测": 61,
  "事业": 61,
  "科技": 61,
  "首席": 61,
  "算": 61,
  "多哥": 61,
  "曼": 61,
  "倾向": 61,
  "29@@": 61,
  "橡胶": 61,
  "诉": 61,
  "见@@": 61,
  "首要": 61,
  "给排水": 61,
  "能@@": 61,
  "沟": 61,
  "观念": 61,
  "扣除": 61,
  "图中": 61,
  "农村妇女": 61,
  "优惠": 61,
  "响应": 61,
  "监察": 61,
  "轴@@": 61,
  "高等教育": 61,
  "他@@": 61,
  "艺术": 61,
  "标准化": 61,
  "核定": 61,
  "4.4": 61,
  "Add.2": 61,
  "合金": 61,
  "声音": 61,
  "英@@": 61,
  "愿望": 60,
  "新加坡": 60,
  "换热器": 60,
  "可行性": 60,
  "女@@": 60,
  "代": 60,
  "总干事": 60,
  "彼此": 60,
  "当选": 60,
  "支@@": 60,
  "有益": 60,
  "草稿": 60,
  "展@@": 60,
  "107": 60,
  "没收": 60,
  "斐济": 60,
  "估价": 60,
  "披露": 60,
  "总量": 60,
  "记@@": 60,
  "翻译": 60,
  "8.1": 60,
  "作出努力": 60,
  "地理": 60,
  "物体": 60,
  "油井": 60,
  "发行": 60,
  "兼": 60,
  "样": 60,
  "断@@": 60,
  "归还": 60,
  "121": 60,
  "字@@": 60,
  "想法": 60,
  "泡沫": 60,
  "四氯化钛": 60,
  "强化": 60,
  "独特": 60,
  "谈到": 60,
  "er": 59,
  "村": 59,
  "埋": 59,
  "第纳尔": 59,
  "封@@": 59,
  "效应": 59,
  "对外": 59,
  "调查结果": 59,
  "探索": 59,
  "124": 59,
  "讲": 59,
  "流体": 59,
  "罪犯": 59,
  "16.@@": 59,
  "st@@": 59,
  "原则上": 59,
  "吊@@": 59,
  "版本": 59,
  "最高法院": 59,
  "存@@": 59,
  "圆桌会议": 59,
  "异常": 59,
  "岛屿": 59,
  "各个方面": 59,
  "年前": 59,
  "结婚": 59,
  "板@@": 59,
  "2.6": 59,
  "回返": 59,
  "延期": 59,
  "氧化": 59,
  "卢森堡": 59,
  "保密": 59,
  "侵害": 59,
  "总理": 59,
  "地表": 59,
  "1982": 59,
  "43@@": 59,
  "阿尔巴尼亚": 59,
  "120@@": 59,
  "80%": 59,
  "授予": 59,
  "灯具": 59,
  "分散": 59,
  "氧": 59,
  "筒": 59,
  "婴儿": 59,
  "意图": 59,
  "种种": 59,
  "水井": 59,
  "初期": 59,
  "免除": 59,
  "39@@": 59,
  "30%": 59,
  "牌": 59,
  "必要措施": 59,
  "人均": 59,
  "楼板": 59,
  "变革": 59,
  "奇": 59,
  "准许": 59,
  "刑事法庭": 59,
  "能否": 58,
  "审": 58,
  "人为": 58,
  "水量": 58,
  "供热": 58,
  "化学武器": 58,
  "患者": 58,
  "士": 58,
  "配有": 58,
  "选出": 58,
  "协调一致": 58,
  "征求": 58,
  "社会@@": 58,
  "5.5": 58,
  "人格": 58,
  "连": 58,
  "发电机组": 58,
  "叫": 58,
  "开会": 58,
  "材料费": 58,
  "什": 58,
  "流通": 58,
  "调节阀": 58,
  "倒": 58,
  "牙买加": 58,
  "H2S": 58,
  "撤离": 58,
  "假定": 58,
  "无需": 58,
  "承@@": 58,
  "所指": 58,
  "单个": 58,
  "装有": 58,
  "产妇": 58,
  "服务@@": 58,
  "精度": 58,
  "第五十七届": 58,
  "验证": 58,
  "岩@@": 58,
  "ж": 58,
  "能量": 58,
  "断": 58,
  "240": 58,
  "月底": 58,
  "基坑": 58,
  "高专": 58,
  "免受": 58,
  "沃": 57,
  "终端": 57,
  "角@@": 57,
  "联刚": 57,
  "百@@": 57,
  "度@@": 57,
  "名册": 57,
  "人工成本": 57,
  "实": 57,
  "铁": 57,
  "类@@": 57,
  "投资者": 57,
  "愿": 57,
  "109": 57,
  "谢@@": 57,
  "163": 57,
  "间隔": 57,
  "诊断": 57,
  "第六条": 57,
  "1500": 57,
  "预留": 57,
  "务": 57,
  "船只": 57,
  "垃圾": 57,
  "标准文件": 57,
  "节省": 57,
  "文明": 57,
  "放置": 57,
  "圣@@": 57,
  "203": 57,
  "南部非洲": 57,
  "基本上": 57,
  "直": 57,
  "工序": 57,
  "迄今为止": 57,
  "il@@": 57,
  "问责制": 57,
  "上方": 57,
  "挖掘机": 57,
  "特权": 57,
  "红@@": 57,
  "将@@": 57,
  "港": 57,
  "15%": 57,
  "情": 57,
  "法律援助": 57,
  "TD": 57,
  "次序": 57,
  "编列": 57,
  "保护层": 57,
  "燃气": 57,
  "海上": 57,
  "为主": 57,
  "第一阶段": 57,
  "加重": 57,
  "杀害": 57,
  "粗@@": 57,
  "态": 57,
  "mm2": 57,
  "技术@@": 57,
  "____": 57,
  "隔@@": 57,
  "印刷": 57,
  "快": 56,
  "0.3": 56,
  "左右": 56,
  "木": 56,
  "更多地": 56,
  "发达": 56,
  "布置图": 56,
  "磁@@": 56,
  "马达加斯加": 56,
  "塞": 56,
  "照料": 56,
  "背@@": 56,
  "归": 56,
  "指导性": 56,
  "20.@@": 56,
  "说法": 56,
  "外国人": 56,
  "健全": 56,
  "山": 56,
  "天然": 56,
  "七@@": 56,
  "纪念": 56,
  "熟悉": 56,
  "职业培训": 56,
  "干净": 56,
  "切割": 56,
  "待@@": 56,
  "墙体": 56,
  "垫": 56,
  "128": 56,
  "伊斯兰": 56,
  "约束": 56,
  "站@@": 56,
  "定额": 56,
  "填料": 56,
  "缓慢": 56,
  "项@@": 56,
  "大修": 56,
  "分歧": 56,
  "落@@": 56,
  "远": 56,
  "一类": 56,
  "平方厘米": 56,
  "班@@": 56,
  "自我": 56,
  "第二阶段": 56,
  "简@@": 56,
  "中华人民共和国": 56,
  "软": 56,
  "独联体": 56,
  "离婚": 56,
  "扎@@": 56,
  "存": 56,
  "然": 56,
  "十届": 56,
  "注@@": 55,
  "多晶硅": 55,
  "毛里求斯": 55,
  "有效性": 55,
  "意外": 55,
  "堆": 55,
  "党": 55,
  "底座": 55,
  "修@@": 55,
  "约@@": 55,
  "身体": 55,
  "建筑工程": 55,
  "四年": 55,
  "咨商": 55,
  "蒙特雷": 55,
  "招聘": 55,
  "师": 55,
  "换": 55,
  "废除": 55,
  "亦": 55,
  "到达": 55,
  "推土机": 55,
  "国际标准": 55,
  "管沟": 55,
  "42@@": 55,
  "挑选": 55,
  "附上": 55,
  "棒": 55,
  "塞尔维亚": 55,
  "情@@": 55,
  "降": 55,
  "职类": 55,
  "投产": 55,
  "境外": 55,
  "公用": 55,
  "特许": 55,
  "参与者": 55,
  "断裂": 55,
  "设计规范": 55,
  "无论是": 55,
  "E2": 55,
  "国防部": 55,
  "am@@": 55,
  "水力": 55,
  "放射性": 55,
  "白@@": 55,
  "造": 55,
  "紧": 55,
  "£": 55,
  "现状": 55,
  "改组": 55,
  "赫兹": 55,
  "泥浆": 55,
  "长时间": 55,
  "保护措施": 55,
  "列举": 55,
  "义": 55,
  "查阅": 54,
  "奥": 54,
  "退休": 54,
  "残@@": 54,
  "送交": 54,
  "沉积": 54,
  "阐明": 54,
  "监视": 54,
  "微": 54,
  "／": 54,
  "拿": 54,
  "单一": 54,
  "协同": 54,
  "库存": 54,
  "麻": 54,
  "无效": 54,
  "毫克": 54,
  "北方": 54,
  "建筑安装": 54,
  "不动产": 54,
  "保安": 54,
  "联检": 54,
  "湿度": 54,
  "管路": 54,
  "参@@": 54,
  "订约": 54,
  "聚@@": 54,
  "法语": 54,
  "第二章": 54,
  "进气": 54,
  "海外": 54,
  "司长": 54,
  "档": 54,
  "辆": 54,
  "行政@@": 54,
  "分担": 54,
  "完毕": 54,
  "对接": 54,
  "普遍性": 54,
  "界限": 54,
  "草@@": 54,
  "Z": 54,
  "公共行政": 54,
  "十三届": 54,
  "罐@@": 54,
  "打": 54,
  "冷却水": 54,
  "公共@@": 54,
  "出资": 54,
  ".3": 54,
  "承重": 54,
  "刷": 54,
  "矿床": 54,
  "钻@@": 54,
  "封": 54,
  "征@@": 54,
  "委托书": 54,
  "除尘": 54,
  "种族灭绝": 54,
  "类土": 54,
  "众多": 54,
  "第二十@@": 54,
  "省@@": 54,
  "储层": 53,
  "感@@": 53,
  "等待": 53,
  "民": 53,
  "借助": 53,
  "核电站": 53,
  "施政": 53,
  "巴黎": 53,
  "护理": 53,
  "排污": 53,
  "蒙@@": 53,
  "造价": 53,
  "副@@": 53,
  "是从": 53,
  "面板": 53,
  "库房": 53,
  "吊车": 53,
  "380": 53,
  "标题": 53,
  "旋@@": 53,
  "害": 53,
  "z@@": 53,
  "代表性": 53,
  "贝@@": 53,
  "粗": 53,
  "表中": 53,
  "指称": 53,
  "138": 53,
  "闸阀": 53,
  "加剧": 53,
  "会晤": 53,
  "厂家": 53,
  "代理人": 53,
  "取值": 53,
  "0.75": 53,
  "医生": 53,
  "备件": 53,
  "眼": 53,
  "收回": 53,
  "插入": 53,
  "泥@@": 53,
  "固体": 53,
  "汽气": 53,
  "正义": 53,
  "绳": 53,
  "回应": 53,
  "受伤": 53,
  "水下": 53,
  "6.5": 53,
  "哈": 53,
  "裂纹": 53,
  "un@@": 53,
  "子@@": 53,
  "战": 53,
  "总站": 53,
  "脱离": 53,
  "兰@@": 53,
  "可持续性": 53,
  "公共部门": 53,
  "改建": 53,
  "防御": 53,
  "戈@@": 53,
  "________________@@": 53,
  "含义": 53,
  "议员": 53,
  "撰文": 53,
  "提起": 53,
  "议定": 53,
  "第三届": 53,
  "第三个": 53,
  "中亚": 53,
  "固@@": 53,
  "施@@": 53,
  "134": 53,
  "层次": 53,
  "短@@": 52,
  "订": 52,
  "萨摩亚": 52,
  "早": 52,
  "会谈": 52,
  "全球性": 52,
  "硬": 52,
  "压力容器": 52,
  "总图": 52,
  "代替": 52,
  "款@@": 52,
  "113": 52,
  "按规定": 52,
  "公斤": 52,
  "噪声": 52,
  "编辑": 52,
  "70@@": 52,
  "提名": 52,
  "弥补": 52,
  "生成": 52,
  "听": 52,
  "增多": 52,
  "1201": 52,
  "金属@@": 52,
  "比如": 52,
  "膨胀": 52,
  "费@@": 52,
  "公认": 52,
  "判例": 52,
  "栏": 52,
  "平均值": 52,
  "署长": 52,
  "开工": 52,
  "不可抗力": 52,
  "声@@": 52,
  "并用": 52,
  "越@@": 52,
  "走向": 52,
  "沃@@": 52,
  "三通": 52,
  "13.@@": 52,
  "一步": 52,
  "药@@": 52,
  "裂变": 52,
  "围墙": 52,
  "夹层": 52,
  "皮@@": 52,
  "大小": 52,
  "一段": 52,
  "2.8": 52,
  "该法": 52,
  "25%": 52,
  "IN@@": 52,
  "干旱": 52,
  "讲@@": 52,
  "生存": 52,
  "递交": 52,
  "高质量": 52,
  "司@@": 52,
  "以内": 52,
  "供暖": 52,
  "Ж": 52,
  "变成": 52,
  "1.8": 52,
  "爱": 52,
  "自决权": 52,
  "载列": 52,
  "作物": 52,
  "洁净": 52,
  "任@@": 52,
  "工业@@": 52,
  "中所": 51,
  "极端": 51,
  "优@@": 51,
  "封闭式": 51,
  "本图": 51,
  "外债": 51,
  "履行合同": 51,
  "被迫": 51,
  "盐水": 51,
  "0.000": 51,
  "生长": 51,
  "流程图": 51,
  "巴林": 51,
  "热力": 51,
  "聘用": 51,
  "齿轮": 51,
  "航行": 51,
  "短路": 51,
  "44@@": 51,
  "18.@@": 51,
  "办公": 51,
  "泵站": 51,
  "非洲联盟": 51,
  "具体@@": 51,
  "理": 51,
  "容许": 51,
  "顺@@": 51,
  "水泥砂浆": 51,
  "力求": 51,
  "危险性": 51,
  "药": 51,
  "发票": 51,
  "kPa": 51,
  "顾及": 51,
  "油漆": 51,
  "间@@": 51,
  "梅@@": 51,
  "沿@@": 51,
  "希@@": 51,
  "133": 51,
  "腐蚀性": 51,
  "购置": 51,
  "废水": 51,
  "托哥尔": 51,
  "形@@": 51,
  "牵引": 51,
  "倡导": 51,
  "各地": 51,
  "注销": 51,
  "世界贸易组织": 51,
  "德雷": 51,
  "老@@": 51,
  "厂区": 51,
  "负债": 51,
  "求@@": 51,
  "内陆": 51,
  "第五次": 51,
  "液化气": 51,
  "申明": 51,
  "电线": 51,
  "0.9": 51,
  "勘测": 51,
  "倒@@": 51,
  "巴格": 51,
  "迹象": 51,
  "停车": 51,
  "传真": 51,
  "异@@": 51,
  "归@@": 51,
  "预警": 51,
  "负面影响": 51,
  "球": 51,
  "行驶": 51,
  "草": 51,
  "圭亚那": 51,
  "机车": 51,
  "料@@": 51,
  "产业": 51,
  "46@@": 51,
  "战术": 51,
  "学术": 51,
  "坦桑尼亚联合共和国": 51,
  "通知书": 51,
  "阿姆河": 51,
  "奖励": 50,
  "拉加": 50,
  "夹@@": 50,
  "闸门": 50,
  "注册资本": 50,
  "官": 50,
  "当中": 50,
  "股东大会": 50,
  "无害": 50,
  "承包": 50,
  "洪都拉斯": 50,
  "平整": 50,
  "阀室": 50,
  "多米尼加共和国": 50,
  "不人道": 50,
  "磨@@": 50,
  "边@@": 50,
  "相连": 50,
  "排水管": 50,
  "此后": 50,
  "对抗": 50,
  "清算": 50,
  "母@@": 50,
  "失败": 50,
  "第十届": 50,
  "波动": 50,
  "细节": 50,
  "接地装置": 50,
  "跨界": 50,
  "求": 50,
  "各部": 50,
  "杜@@": 50,
  "脱烃": 50,
  "边疆区": 50,
  "出具": 50,
  "激@@": 50,
  "第二条": 50,
  "体育": 50,
  "试点": 50,
  "合伙人": 50,
  "重组": 50,
  "流量计": 50,
  "第五届": 50,
  "中美洲": 50,
  "3.6": 50,
  "原来": 50,
  "110@@": 50,
  "进行谈判": 50,
  "软@@": 50,
  "中止": 50,
  "集气站": 50,
  "一贯": 50,
  "总局": 50,
  "平行": 50,
  "平方毫米": 50,
  "承包单位": 50,
  "基层": 50,
  "an": 50,
  "型材": 50,
  "短缺": 50,
  "货运": 50,
  "负载": 50,
  "略@@": 50,
  "85@@": 50,
  "教训": 50,
  "9.1": 50,
  "170": 50,
  "什@@": 50,
  "考核": 50,
  "PE": 50,
  "化合物": 50,
  "242": 50,
  "桥": 50,
  "计@@": 50,
  "联合国秘书处": 50,
  "总计": 50,
  "&": 50,
  "判断": 50,
  "断开": 50,
  "多少": 50,
  "莱索托": 50,
  "鱼类": 49,
  "独立性": 49,
  "铝": 49,
  "定为": 49,
  "西部": 49,
  "丙烷": 49,
  "存储": 49,
  "沙": 49,
  "停车场": 49,
  "审核": 49,
  "赫@@": 49,
  "捕鱼": 49,
  "留在": 49,
  "居": 49,
  "裁减": 49,
  "57@@": 49,
  "教授": 49,
  "煤@@": 49,
  "电梯": 49,
  "土层": 49,
  "何@@": 49,
  "如同": 49,
  "朝鲜民主主义人民共和国": 49,
  "生产能力": 49,
  "反馈": 49,
  "！": 49,
  "电焊": 49,
  "看出": 49,
  "系统@@": 49,
  "压力表": 49,
  "援引": 49,
  "年间": 49,
  "租让": 49,
  "盖@@": 49,
  "利率": 49,
  "鲁@@": 49,
  "日志": 49,
  "153": 49,
  "花@@": 49,
  "为什么": 49,
  "摧毁": 49,
  "持续时间": 49,
  "152": 49,
  "移@@": 49,
  "ch@@": 49,
  "耶@@": 49,
  "房@@": 49,
  "制备": 49,
  "综合性": 49,
  "重叠": 49,
  "第一批": 49,
  "照": 49,
  "混@@": 49,
  "158": 49,
  "闭会": 49,
  "应立即": 49,
  "全权": 49,
  "38@@": 49,
  "差额": 49,
  "蒸发": 49,
  "开口": 49,
  "129": 49,
  "或许": 49,
  "巴拿马": 49,
  "一致意见": 49,
  "界面": 49,
  "弹性": 49,
  "横梁": 49,
  "书面形式": 49,
  "叙述": 49,
  "净@@": 49,
  "合同条款": 49,
  "杰@@": 49,
  "市政": 49,
  "兵力": 49,
  "外汇": 49,
  "..": 49,
  "无人": 49,
  "到期": 49,
  "合伙": 49,
  "工业化": 49,
  "二十一": 49,
  "令人满意": 49,
  "常规": 49,
  "该条": 49,
  "吉尔吉斯斯坦": 49,
  "事宜": 49,
  "胶@@": 49,
  "产物": 49,
  "90%": 49,
  "降@@": 48,
  "跟踪": 48,
  "延误": 48,
  "半径": 48,
  "Ј": 48,
  "对比": 48,
  "佩@@": 48,
  "解": 48,
  "视@@": 48,
  "链": 48,
  "公顷": 48,
  "氧气": 48,
  "缩短": 48,
  "指示灯": 48,
  "免@@": 48,
  "杂项": 48,
  "妇发": 48,
  "监管": 48,
  "热量": 48,
  "黑@@": 48,
  "悬挂": 48,
  "校": 48,
  "海事": 48,
  "警@@": 48,
  "新增": 48,
  "it@@": 48,
  "博茨瓦纳": 48,
  "气区": 48,
  "联合国环境规划署": 48,
  "支承": 48,
  "末": 48,
  "生境": 48,
  "70%": 48,
  "居民点": 48,
  "余@@": 48,
  "事@@": 48,
  "减免": 48,
  "暂行": 48,
  "定居点": 48,
  "巴拉圭": 48,
  "起到": 48,
  "可见": 48,
  "165": 48,
  "套@@": 48,
  "坚戈": 48,
  "不受": 48,
  "楼层": 48,
  "阳极": 48,
  "直升机": 48,
  "种植": 48,
  "持": 48,
  "当代": 48,
  "发电站": 48,
  "钻机": 48,
  "控制柜": 48,
  "8.3": 48,
  "7.3": 48,
  "国家@@": 48,
  "倾@@": 48,
  "药物滥用": 48,
  "ri@@": 48,
  "足以": 48,
  "信息@@": 48,
  "卢@@": 48,
  "采集": 48,
  "145": 48,
  "控制台": 48,
  "法律事务": 48,
  "宝贵": 48,
  "最为": 48,
  "扭转": 48,
  "未成年人": 48,
  "脚@@": 48,
  "加沙": 48,
  "零部件": 48,
  "输电": 48,
  "控@@": 48,
  "植被": 48,
  "本着": 48,
  "文化遗产": 48,
  "压气": 48,
  "置": 48,
  "收": 48,
  "社会保险": 47,
  "中所载": 47,
  "民@@": 47,
  "增": 47,
  "预定": 47,
  "引进": 47,
  "大众": 47,
  "u": 47,
  "探@@": 47,
  "段@@": 47,
  "人身": 47,
  "燃烧器": 47,
  "ab@@": 47,
  "士兵": 47,
  "振兴": 47,
  "缴付": 47,
  "延@@": 47,
  "尚": 47,
  "写": 47,
  "标明": 47,
  "钻孔": 47,
  "得不到": 47,
  "区间": 47,
  "紧迫": 47,
  "其次": 47,
  "堆芯": 47,
  "巴巴多斯": 47,
  "第五条": 47,
  "充@@": 47,
  "一个月": 47,
  "无关": 47,
  "某个": 47,
  "神@@": 47,
  "400@@": 47,
  "阻力": 47,
  "塔吉克斯坦": 47,
  "举@@": 47,
  "19.@@": 47,
  "占用": 47,
  "大门": 47,
  "技术人员": 47,
  "记者": 47,
  "卡塔尔": 47,
  "第四@@": 47,
  "保养": 47,
  "妻子": 47,
  "世界人权宣言": 47,
  "126": 47,
  "具体情况": 47,
  "大幅度": 47,
  "租金": 47,
  "z": 47,
  "遵照": 47,
  "政": 47,
  "高温": 47,
  "每日": 47,
  "只@@": 47,
  "于@@": 47,
  "增补": 47,
  "127": 47,
  "浸@@": 47,
  "生育": 47,
  "灰@@": 47,
  "首站": 47,
  "粉尘": 47,
  "in": 47,
  "应予": 47,
  "迪@@": 47,
  "老年": 47,
  "证件": 47,
  "辩护": 47,
  "逐@@": 47,
  "领土完整": 47,
  "西岸": 47,
  "用量": 47,
  "合法性": 47,
  "完好": 47,
  "劳@@": 47,
  "国际原子能机构": 46,
  "硫醇": 46,
  "领@@": 46,
  "控制@@": 46,
  "解除武装": 46,
  "面向": 46,
  "喷淋": 46,
  "青年人": 46,
  "我谨": 46,
  "和平解决": 46,
  "●": 46,
  "矿藏": 46,
  "常规武器": 46,
  "堆@@": 46,
  "职权": 46,
  "歧视性": 46,
  "提取": 46,
  "传动": 46,
  "143": 46,
  "雪": 46,
  "横@@": 46,
  "60%": 46,
  "计划生育": 46,
  "ic@@": 46,
  "和平利用": 46,
  "ST": 46,
  "倾斜": 46,
  "撤出": 46,
  "水域": 46,
  "强有力": 46,
  "花": 46,
  "流行病": 46,
  "入境": 46,
  "330": 46,
  "赫": 46,
  "莱@@": 46,
  "时刻": 46,
  "作出反应": 46,
  "AS@@": 46,
  "咨": 46,
  "应是": 46,
  "少@@": 46,
  "系统地": 46,
  "一人": 46,
  "召集": 46,
  "核试验": 46,
  "子系统": 46,
  "庆祝": 46,
  "盲板": 46,
  "155": 46,
  "进出口": 46,
  "剖面图": 46,
  "入口处": 46,
  "钛": 46,
  "硬@@": 46,
  "软管": 46,
  "视频": 46,
  "经营者": 46,
  "1973": 46,
  "习惯": 46,
  "炼油厂": 46,
  "尽@@": 46,
  "裁谈会": 46,
  "砂@@": 46,
  "原有": 46,
  "单价": 46,
  "紧固件": 46,
  "添加": 46,
  "托克劳": 46,
  "盘@@": 46,
  "起飞": 46,
  "胁迫": 46,
  "碱": 46,
  "精简": 46,
  "标注": 46,
  "环形": 46,
  "道岔": 46,
  "烟": 46,
  "孔隙": 46,
  "下来": 46,
  "塞人": 46,
  "卫生部": 46,
  "废@@": 46,
  "当事": 46,
  "青@@": 46,
  "预": 46,
  "即可": 46,
  "总务": 46,
  "国内法": 46,
  "西撒哈拉": 46,
  "等@@": 46,
  "话": 46,
  "工作者": 46,
  "粒度": 45,
  "素": 45,
  "特立尼达和多巴哥": 45,
  "迫切需要": 45,
  "三名": 45,
  "紧张": 45,
  "石英": 45,
  "所说": 45,
  "阻@@": 45,
  "清": 45,
  "运输工具": 45,
  "宽@@": 45,
  "家庭成员": 45,
  "恩": 45,
  "独@@": 45,
  "收费": 45,
  "认捐": 45,
  "优化": 45,
  "雨@@": 45,
  "力@@": 45,
  "路段": 45,
  "基本工资": 45,
  "直布罗陀": 45,
  "观": 45,
  "随": 45,
  "外形尺寸": 45,
  "刺激": 45,
  "适宜": 45,
  "具体措施": 45,
  "阿拉伯联合酋长国": 45,
  "伤@@": 45,
  "服": 45,
  "多哈": 45,
  "组分": 45,
  "通风机": 45,
  "焊口": 45,
  "驱逐": 45,
  "1100": 45,
  "一笔": 45,
  "漆": 45,
  "冶金": 45,
  "液化": 45,
  "大纲": 45,
  "次@@": 45,
  "看作": 45,
  "警告": 45,
  "安盟": 45,
  "低温": 45,
  "防雷": 45,
  "循环水": 45,
  "团长": 45,
  "否认": 45,
  "疟疾": 45,
  "氯化氢": 45,
  "耶": 45,
  "一家": 45,
  "行车": 45,
  "拖欠": 45,
  "中将": 45,
  "海牙": 45,
  "230": 45,
  "铜@@": 45,
  "异议": 45,
  "水体": 45,
  "宜": 45,
  "0000@@": 45,
  "全额": 45,
  "酒": 45,
  "日前": 45,
  "欧安组织": 45,
  "栋": 45,
  "转速": 45,
  "利亚": 45,
  "节能": 45,
  "场@@": 45,
  "并于": 45,
  "至今": 45,
  "136": 45,
  "号@@": 45,
  "秘密": 45,
  "酸@@": 45,
  "寄@@": 45,
  "阵线": 45,
  "代号": 45,
  "绝@@": 45,
  "囚犯": 45,
  "角色": 45,
  "站场": 45,
  "光缆": 45,
  "一下": 45,
  "³": 45,
  "151": 45,
  "初@@": 45,
  "进料": 45,
  "俄": 45,
  "AC.26": 45,
  "书记": 44,
  "护@@": 44,
  "检查和": 44,
  "继承": 44,
  "比额": 44,
  "迁移": 44,
  "装入": 44,
  "1.03": 44,
  "八": 44,
  "汽@@": 44,
  "原理图": 44,
  "配电盘": 44,
  "楼梯": 44,
  "早期": 44,
  "偏@@": 44,
  "渣": 44,
  "强调指出": 44,
  "人体": 44,
  "联合国总部": 44,
  "死@@": 44,
  "继": 44,
  "严@@": 44,
  "详图": 44,
  "目的地": 44,
  "一架": 44,
  "散@@": 44,
  "消耗量": 44,
  "联合体": 44,
  "141": 44,
  "第四届": 44,
  "追@@": 44,
  "脉冲": 44,
  "__": 44,
  "检@@": 44,
  "称@@": 44,
  "客@@": 44,
  "洗": 44,
  "普查": 44,
  "进出": 44,
  "CP@@": 44,
  "奠定": 44,
  "不间断": 44,
  "147": 44,
  "第一条": 44,
  "第二款": 44,
  "民兵": 44,
  "普": 44,
  "矿产": 44,
  "前进": 44,
  "根@@": 44,
  "俄文": 44,
  "有形": 44,
  "网上": 44,
  "相邻": 44,
  "构架": 44,
  "表示感谢": 44,
  "建设项目": 44,
  "信中": 44,
  "缩小": 44,
  "恰@@": 44,
  "下届": 44,
  "遥感": 44,
  "更正": 44,
  "这笔": 44,
  "联网": 44,
  "车里雅宾斯克": 44,
  "生气": 44,
  "137": 44,
  "履约": 44,
  "储@@": 44,
  "亿@@": 44,
  "照@@": 44,
  "先决条件": 44,
  "缴": 44,
  "布雷顿": 44,
  "原先": 44,
  "硅@@": 44,
  "活力": 44,
  "切换": 44,
  "血@@": 44,
  "1985": 44,
  "139": 43,
  "40%": 43,
  "蒸气": 43,
  "分区": 43,
  "股@@": 43,
  "强大": 43,
  "统计数据": 43,
  "城镇": 43,
  "id@@": 43,
  "仔细": 43,
  "墙壁": 43,
  "有辱": 43,
  "付@@": 43,
  "CS": 43,
  "税率": 43,
  "忽视": 43,
  "造@@": 43,
  "169": 43,
  "尽管如此": 43,
  "方可": 43,
  "移动式": 43,
  "两级": 43,
  "削弱": 43,
  "机械化": 43,
  "144": 43,
  "斜坡": 43,
  "硫": 43,
  "对方": 43,
  "靠近": 43,
  "引": 43,
  "杀": 43,
  "一事": 43,
  "学员": 43,
  "键": 43,
  "固有": 43,
  "病人": 43,
  "第一款": 43,
  "义务教育": 43,
  "奉": 43,
  "洞": 43,
  "生产厂家": 43,
  "211": 43,
  "论述": 43,
  "紧固": 43,
  "群岛": 43,
  "永远": 43,
  "展示": 43,
  "螺钉": 43,
  "密封性": 43,
  "贸易法": 43,
  "家园": 43,
  "受害": 43,
  "146": 43,
  "尼日尔": 43,
  "梁@@": 43,
  "3000": 43,
  "有毒": 43,
  "斜@@": 43,
  "牢固": 43,
  "升@@": 43,
  "非正规": 43,
  "书@@": 43,
  "此事": 43,
  "房舍": 43,
  "线性": 43,
  "伊拉克政府": 43,
  "驳回": 43,
  "跨国公司": 43,
  "ol@@": 43,
  "年轻人": 43,
  "A.@@": 43,
  "大地测量": 43,
  "汇": 43,
  "教学@@": 43,
  "赔偿额": 43,
  "明斯克": 43,
  "国防": 43,
  "密@@": 43,
  "解决方案": 43,
  "检": 43,
  "尊重人权": 43,
  "钱": 43,
  "侵蚀": 43,
  "一致性": 43,
  "若@@": 43,
  "合理化": 43,
  "火焰": 43,
  "确切": 43,
  "犯罪行为": 43,
  "第一章": 43,
  "征收": 43,
  "http": 43,
  "安全性": 43,
  "虫": 43,
  "通往": 43,
  "志愿": 43,
  "权力下放": 43,
  "射线": 43,
  "哪": 43,
  "予": 43,
  "监督局": 43,
  "无损": 43,
  "初": 43,
  "采": 42,
  "还@@": 42,
  "圣": 42,
  "框": 42,
  "职员": 42,
  "is@@": 42,
  "砂质": 42,
  "防空": 42,
  "用尽": 42,
  "扎": 42,
  "弹簧": 42,
  "圆": 42,
  "第十四条": 42,
  "营业": 42,
  "法典": 42,
  "专利": 42,
  "毁坏": 42,
  "游@@": 42,
  "第四十@@": 42,
  "生物@@": 42,
  "CA@@": 42,
  "查": 42,
  "较@@": 42,
  "灰色": 42,
  "复原": 42,
  "ah": 42,
  "援": 42,
  "导": 42,
  "爆发": 42,
  "废气": 42,
  "稳@@": 42,
  "矛盾": 42,
  "填补": 42,
  "设计院": 42,
  "本来": 42,
  "行政部门": 42,
  "表决权": 42,
  "征得": 42,
  "必然": 42,
  "无权": 42,
  "人发": 42,
  "树": 42,
  "二十@@": 42,
  "1.7": 42,
  "批评": 42,
  "属@@": 42,
  "走廊": 42,
  "过渡时期": 42,
  "信仰": 42,
  "幅度": 42,
  "仅@@": 42,
  "离子": 42,
  "据说": 42,
  "产假": 42,
  "1984": 42,
  "较为": 42,
  "恩@@": 42,
  "不丹": 42,
  "讲话": 42,
  "阿克": 42,
  "环境@@": 42,
  "研训": 42,
  "天内": 42,
  "烟囱": 42,
  "安道尔": 42,
  "细": 42,
  "质疑": 42,
  "马拉维": 42,
  "BAPF": 42,
  "抚养": 42,
  "解释性": 42,
  "广@@": 42,
  "酶": 42,
  "承付": 42,
  "必不可少": 42,
  "通廊": 42,
  "调查表": 42,
  "重债": 42,
  "六个月": 42,
  "订@@": 42,
  "山区": 42,
  "90@@": 42,
  "化学@@": 42,
  "采纳": 42,
  "尼亚": 42,
  "Φ": 42,
  "导向": 42,
  "漏": 42,
  "分项": 42,
  "飞越": 42,
  "下游": 42,
  "乳@@": 42,
  "电信": 42,
  "事务处": 42,
  "º": 42,
  "1101": 42,
  "荷": 42,
  "总是": 42,
  "150@@": 42,
  "笔": 42,
  "标签": 42,
  "AC.@@": 42,
  "玛@@": 42,
  "办@@": 42,
  "公证": 42,
  "难@@": 42,
  "商业@@": 42,
  "纪": 42,
  "处在": 42,
  "润滑": 42,
  "违法行为": 42,
  "ma@@": 42,
  "农产品": 42,
  "风速": 41,
  "中所列": 41,
  "两者": 41,
  "锁": 41,
  "砾石": 41,
  "订单": 41,
  "探测器": 41,
  "1981": 41,
  "胡@@": 41,
  "保": 41,
  "限额": 41,
  "244@@": 41,
  "7.4": 41,
  "吃": 41,
  "张@@": 41,
  "保管": 41,
  "碎片": 41,
  "恶劣": 41,
  "9.2": 41,
  "邮@@": 41,
  "茨": 41,
  "IP@@": 41,
  "望": 41,
  "预审": 41,
  "铁路运输": 41,
  "犯有": 41,
  "弯管": 41,
  "219": 41,
  "送@@": 41,
  "累计": 41,
  "翻@@": 41,
  "冈比亚": 41,
  "统计数字": 41,
  "法外": 41,
  "一百@@": 41,
  "德班": 41,
  "发电": 41,
  "尽力": 41,
  "微型": 41,
  "完整性": 41,
  "185": 41,
  "硬度": 41,
  "协@@": 41,
  "土库曼": 41,
  "百万美元": 41,
  "190": 41,
  "救援": 41,
  "去除": 41,
  "远远": 41,
  "搜索": 41,
  "准": 41,
  "87@@": 41,
  "法律文书": 41,
  "致": 41,
  "消@@": 41,
  "标号": 41,
  "石油@@": 41,
  "评定": 41,
  "无疑": 41,
  "org": 41,
  "从未": 41,
  "延伸": 41,
  "凝@@": 41,
  "审批": 41,
  "不当": 41,
  "198": 41,
  "不适": 41,
  "承担责任": 41,
  "司法部": 41,
  "灭火器": 41,
  "我方": 41,
  "工位": 41,
  "002": 41,
  "煤": 41,
  "股票": 41,
  "下方": 41,
  "多项": 41,
  "12.1": 41,
  "地中海": 41,
  "分组": 41,
  "区域性": 41,
  "伊斯兰会议组织": 41,
  "325": 41,
  "听@@": 41,
  "中非共和国": 41,
  "漏@@": 41,
  "丝": 41,
  "示": 41,
  "证明书": 41,
  "所得税": 41,
  "正规": 41,
  "增大": 41,
  "变送器": 41,
  "住@@": 41,
  "研制": 41,
  "管件": 41,
  "众": 41,
  "ш": 41,
  "离职": 41,
  "祝贺": 41,
  "遗产": 41,
  "会见": 41,
  "前面": 41,
  "减压": 41,
  "财政@@": 41,
  "关键作用": 41,
  "照片": 41,
  "启@@": 41,
  "内阁": 41,
  "摩尔多瓦共和国": 41,
  "片@@": 41,
  "陆@@": 41,
  "排风": 41,
  "8.2": 41,
  "备注": 41,
  "损耗": 41,
  "卷@@": 41,
  "步@@": 41,
  "紧@@": 41,
  "运输@@": 41,
  "外空": 41,
  "音@@": 41,
  "第四条": 41,
  "部长会议": 41,
  "论点": 41,
  "ac@@": 41,
  "积累": 41,
  "脱碳": 41,
  "分解": 41,
  "检查组": 41,
  "保温层": 41,
  "全文": 41,
  "黄@@": 41,
  "弹药": 41,
  "骚扰": 41,
  "很@@": 41,
  "试运行": 40,
  "走@@": 40,
  "国立": 40,
  "修": 40,
  "传动装置": 40,
  "石棉": 40,
  "脆弱性": 40,
  "探测": 40,
  "示@@": 40,
  "亚太经社会": 40,
  "校@@": 40,
  "75%": 40,
  "橇": 40,
  "活@@": 40,
  "157": 40,
  "就业机会": 40,
  "俄罗斯联邦政府": 40,
  "做@@": 40,
  "充分利用": 40,
  "骨架": 40,
  "发挥作用": 40,
  "严禁": 40,
  "基本权利": 40,
  "几内亚比绍": 40,
  "铺@@": 40,
  "154": 40,
  "于是": 40,
  "威@@": 40,
  "业@@": 40,
  "学科": 40,
  "事情": 40,
  "就@@": 40,
  "居@@": 40,
  "巴格达": 40,
  "156": 40,
  "坦@@": 40,
  "龙@@": 40,
  "GOST@@": 40,
  "边坡": 40,
  "起动": 40,
  "官长": 40,
  "电池": 40,
  "自主": 40,
  "过度": 40,
  "re@@": 40,
  "债券": 40,
  "220V": 40,
  "婚@@": 40,
  "吉": 40,
  "致使": 40,
  "万人": 40,
  "贾@@": 40,
  "撒哈拉": 40,
  "接到": 40,
  "隐蔽": 40,
  "1.18": 40,
  "装载": 40,
  "充分@@": 40,
  "事务司": 40,
  "204": 40,
  "以供": 40,
  "第三国": 40,
  "繁荣": 40,
  "PV.@@": 40,
  "附有": 40,
  "高效": 40,
  "选民": 40,
  "条中": 40,
  "找": 40,
  "为何": 40,
  "应从": 40,
  "100mm": 40,
  "蒙特利尔": 40,
  "人工智能": 40,
  "联合国儿童基金会": 40,
  "受过": 40,
  "大陆": 40,
  "1970": 40,
  "密": 40,
  "鞋": 40,
  "三项": 40,
  "执行@@": 40,
  "实物": 40,
  "66@@": 40,
  "吸附": 40,
  "逻辑": 40,
  "免疫": 40,
  "借此机会": 40,
  "报警器": 40,
  "环境温度": 40,
  "摩纳哥": 40,
  "220@@": 40,
  "张": 40,
  "关押": 40,
  "计入": 40,
  "获益": 40,
  "GB@@": 40,
  "传送": 40,
  "水质": 40,
  "对本": 40,
  "经验教训": 40,
  "乘客": 40,
  "mg": 40,
  "发言人": 40,
  "医学": 40,
  "异": 40,
  "真实": 40,
  "AC.109": 40,
  "堆放": 40,
  "智能": 40,
  "卫生@@": 40,
  "弹": 40,
  "发育": 40,
  "活性": 40,
  "监@@": 40,
  "消息": 40,
  "毛里塔尼亚": 40,
  "特使": 40,
  "CEDAW": 40,
  "保险@@": 40,
  "少于": 40,
  "213": 40,
  "黑山": 40,
  "工作@@": 40,
  "输油管道": 40,
  "氢气": 40,
  "云母": 40,
  "硫酸盐": 40,
  "柱@@": 40,
  "三分之一": 39,
  "其后": 39,
  "风力": 39,
  "教育部": 39,
  "委": 39,
  "凭证": 39,
  "动议": 39,
  "军人": 39,
  "改动": 39,
  "穆@@": 39,
  "φ": 39,
  "经常性": 39,
  "摆脱": 39,
  "捷@@": 39,
  "全厂": 39,
  "焦": 39,
  "比例尺": 39,
  "沉淀": 39,
  "交通@@": 39,
  "伸@@": 39,
  "人才": 39,
  "50mm": 39,
  "碳钢": 39,
  "有所增加": 39,
  "油品": 39,
  "182": 39,
  "欧洲共同体": 39,
  "写@@": 39,
  "生产@@": 39,
  "光纤": 39,
  "密实": 39,
  "地图": 39,
  "线圈": 39,
  "按时": 39,
  "独立国家": 39,
  "杂项费用": 39,
  "W6": 39,
  "少量": 39,
  "需求量": 39,
  "严格遵守": 39,
  "弃权": 39,
  "ES@@": 39,
  "展望": 39,
  "美国@@": 39,
  "无辜": 39,
  "el": 39,
  "沿着": 39,
  "岩层": 39,
  "台@@": 39,
  "价值观": 39,
  "电极": 39,
  "考察": 39,
  "家庭@@": 39,
  "鱼": 39,
  "维奇": 39,
  "22.@@": 39,
  "劳动法": 39,
  "电伴": 39,
  "采取有效": 39,
  "原材料": 39,
  "精确": 39,
  "颜色": 39,
  "负@@": 39,
  "土著居民": 39,
  "4.6": 39,
  "观@@": 39,
  "种群": 39,
  "滤@@": 39,
  "分开": 39,
  "图像": 39,
  "壁@@": 39,
  "埋@@": 39,
  "阶": 39,
  "迈出": 39,
  "第七条": 39,
  "转运": 39,
  "主管部门": 39,
  "测井": 39,
  "星期一": 39,
  "立": 39,
  "为准": 39,
  "转动": 39,
  "每周": 39,
  "被害人": 39,
  "手中": 39,
  "轻": 39,
  "的确": 39,
  "定罪": 39,
  "11.895": 39,
  "经合组织": 39,
  "滑@@": 39,
  "稿": 39,
  "205": 39,
  "沙特": 39,
  "预埋件": 39,
  "乱": 39,
  "管架": 39,
  "步": 39,
  "吉布提": 39,
  "技术装备": 39,
  "不可分割": 39,
  "水池": 39,
  "路上": 39,
  "两国": 39,
  "耗@@": 39,
  "革新": 39,
  "百万": 39,
  "算@@": 39,
  "转子": 39,
  "西南": 39,
  "斯威士兰": 39,
  "给@@": 39,
  "SS": 39,
  "明细表": 39,
  "薪": 39,
  "电脑": 39,
  "公告": 39,
  "有害物质": 39,
  "增设": 39,
  "县": 39,
  "商务": 39,
  "伴生气": 39,
  "识别码": 39,
  "图表": 39,
  "此一": 39,
  "馆": 39,
  "扣押": 38,
  "CP": 38,
  "加蓬": 38,
  "Add.4": 38,
  "传媒": 38,
  "ot@@": 38,
  "212": 38,
  "普及": 38,
  "老挝人民民主共和国": 38,
  "尺": 38,
  "原件": 38,
  "第三条": 38,
  "轨": 38,
  "节流": 38,
  "奖": 38,
  "撒": 38,
  "电器": 38,
  "政@@": 38,
  "自控": 38,
  "美": 38,
  "九": 38,
  "定量": 38,
  "绝大多数": 38,
  "迎接": 38,
  "原理": 38,
  "支线": 38,
  "绕组": 38,
  "使用寿命": 38,
  "伯@@": 38,
  "值@@": 38,
  "电杆": 38,
  "接纳": 38,
  "注水": 38,
  "粒": 38,
  "es@@": 38,
  "缓解": 38,
  "科研": 38,
  "59@@": 38,
  "传": 38,
  "谨慎": 38,
  "止回阀": 38,
  "人口@@": 38,
  "警报": 38,
  "安全措施": 38,
  "后面": 38,
  "调压": 38,
  "机械师": 38,
  "九@@": 38,
  "节约": 38,
  "错@@": 38,
  "出发": 38,
  "贯彻": 38,
  "围绕": 38,
  "详情": 38,
  "三条": 38,
  "援助团": 38,
  "行预": 38,
  "助@@": 38,
  "将要": 38,
  "针对性": 38,
  "措辞": 38,
  "Щ": 38,
  "筹备会议": 38,
  "穿过": 38,
  "村庄": 38,
  "2021": 38,
  "指派": 38,
  "三相": 38,
  "税@@": 38,
  "临": 38,
  "家具": 38,
  "证券": 38,
  "很难": 38,
  "决策者": 38,
  "斯基": 38,
  "电子邮件": 38,
  "蔓延": 38,
  "水流": 38,
  "210": 38,
  "传递": 38,
  "04@@": 38,
  "第八条": 38,
  "无条件": 38,
  "西伯利亚": 38,
  "夯实": 38,
  "屏": 38,
  "土壤@@": 38,
  "南南合作": 38,
  "着重指出": 38,
  "微生物": 38,
  "生产力": 38,
  "刑法典": 38,
  "屏蔽": 38,
  "毛@@": 38,
  "迫使": 38,
  "媒介": 38,
  "后裔": 38,
  "残忍": 38,
  "插座": 38,
  "园": 38,
  "―": 38,
  "守@@": 38,
  "借款": 38,
  "击@@": 38,
  "3.7": 38,
  "达成协议": 38,
  "补给": 38,
  "低收入": 38,
  "260": 38,
  "工程项目": 38,
  "非殖民化": 38,
  "堤": 38,
  "故意": 38,
  "吹@@": 38,
  "总成": 38,
  "符号": 38,
  "社": 38,
  "动机": 38,
  "句": 38,
  "相结合": 38,
  "相互作用": 38,
  "息": 38,
  "科夫": 38,
  "教": 38,
  "标书": 38,
  "EA": 38,
  "赛": 38,
  "绩效": 38,
  "积@@": 38,
  "急@@": 38,
  "乌": 38,
  "斯克市": 38,
  "开放式": 38,
  "洛": 38,
  "失业率": 38,
  "ST@@": 38,
  "后方": 38,
  "142": 38,
  "联发援": 38,
  "夹": 38,
  "截断": 37,
  "共同@@": 37,
  "娃": 37,
  "普通照会": 37,
  "申@@": 37,
  "友好": 37,
  "34@@": 37,
  "住所": 37,
  "新鲜": 37,
  "单层": 37,
  "免遭": 37,
  "形象": 37,
  "该司": 37,
  "乌拉尔": 37,
  "1.02": 37,
  "司法制度": 37,
  "钢材": 37,
  "请@@": 37,
  "器具": 37,
  "250@@": 37,
  "LA@@": 37,
  "55@@": 37,
  "胶": 37,
  "善@@": 37,
  "双重": 37,
  "相一致": 37,
  "十二届": 37,
  "侵入": 37,
  "食": 37,
  "意@@": 37,
  "企业家": 37,
  "162": 37,
  "人民法院": 37,
  "排入": 37,
  "1300": 37,
  "出租方": 37,
  "成效": 37,
  "太": 37,
  "立柱": 37,
  "装运": 37,
  "水罐": 37,
  "精": 37,
  "管径": 37,
  "易@@": 37,
  "合营企业": 37,
  "科学技术": 37,
  "引出": 37,
  "详尽": 37,
  "驻科": 37,
  "昼夜": 37,
  "撤消": 37,
  "出缺": 37,
  "备@@": 37,
  "配电箱": 37,
  "购@@": 37,
  "回到": 37,
  "海底": 37,
  "谢": 37,
  "外来": 37,
  "饮水": 37,
  "DC": 37,
  "一所": 37,
  "复合": 37,
  "一件": 37,
  "换算": 37,
  "ISO": 37,
  "所提": 37,
  "法律顾问": 37,
  "不幸": 37,
  "物料": 37,
  "清管": 37,
  "习俗": 37,
  "结余": 37,
  "禁@@": 37,
  "补": 37,
  "项下": 37,
  "阳": 37,
  "减缓": 37,
  "PLC": 37,
  "校准": 37,
  "数据处理": 37,
  "9.3": 37,
  "增编": 37,
  "早日": 37,
  "上次": 37,
  "这场": 37,
  "合作社": 37,
  "塞族": 37,
  "处以": 37,
  "范畴": 37,
  "伦@@": 37,
  "深切": 37,
  "见下文": 37,
  "局面": 37,
  "新型": 37,
  "可拆卸": 37,
  "汽油": 37,
  "浇筑": 37,
  "革命": 37,
  "多边贸易": 37,
  "当作": 37,
  "记": 37,
  "东欧": 37,
  "船@@": 37,
  "焊工": 37,
  "复": 37,
  "医@@": 37,
  "反腐败": 37,
  "166": 37,
  "沟通": 37,
  "铸铁": 37,
  "权威": 37,
  "薄": 37,
  "立式": 37,
  "俱乐部": 37,
  "供方": 37,
  "75@@": 37,
  "ou@@": 37,
  "组建": 37,
  "案情": 37,
  "地块": 37,
  "占@@": 37,
  "湿@@": 37,
  "侧@@": 37,
  "卫生保健": 37,
  "口译": 37,
  "纪律": 37,
  "第五@@": 37,
  "周年": 37,
  "蒸馏": 37,
  "0.65": 37,
  "追踪": 37,
  "兼顾": 36,
  "节目": 36,
  "双层": 36,
  "拨": 36,
  "涅@@": 36,
  "送入": 36,
  "民法": 36,
  "Dec.@@": 36,
  "一场": 36,
  "臂": 36,
  "娜": 36,
  "海洋环境": 36,
  "天线": 36,
  "置@@": 36,
  "法文": 36,
  "训研": 36,
  "JB": 36,
  "氧化@@": 36,
  "St@@": 36,
  "冷却系统": 36,
  "妇女组织": 36,
  "氨": 36,
  "所称": 36,
  "扶持": 36,
  "245": 36,
  "资": 36,
  "字母": 36,
  "务@@": 36,
  "极为重要": 36,
  "雷达": 36,
  "CN.9": 36,
  "320": 36,
  "底板": 36,
  "护栏": 36,
  "怎样": 36,
  "洗涤": 36,
  "罐内": 36,
  "忆及": 36,
  "谈": 36,
  "登@@": 36,
  "221": 36,
  "侧重于": 36,
  "蚀": 36,
  "毒": 36,
  "181": 36,
  "分子筛": 36,
  "CO@@": 36,
  "收养": 36,
  "І": 36,
  "扣留": 36,
  "构想": 36,
  "€": 36,
  "法制": 36,
  "内置": 36,
  "创@@": 36,
  "土著人": 36,
  "恐吓": 36,
  "势": 36,
  "XX@@": 36,
  "月@@": 36,
  "成熟": 36,
  "CO2": 36,
  "预防措施": 36,
  "联合国贸易和发展会议": 36,
  "持久和平": 36,
  "177": 36,
  "发表意见": 36,
  "旧": 36,
  "164": 36,
  "几十年": 36,
  "维": 36,
  "争@@": 36,
  "吸取": 36,
  "检察长": 36,
  "舍@@": 36,
  "搅拌": 36,
  "214": 36,
  "第八届": 36,
  "273": 36,
  "福": 36,
  "签订合同": 36,
  "涂料": 36,
  "IS@@": 36,
  "管理机构": 36,
  "救": 36,
  "隔离墙": 36,
  "而定": 36,
  "分支": 36,
  "满@@": 36,
  "Ч": 36,
  "旁": 36,
  "一段时间": 36,
  "波恩": 36,
  "SYBD": 36,
  "叶@@": 36,
  "四氯化硅": 36,
  "松@@": 36,
  "良@@": 36,
  "查询": 36,
  "催化剂": 36,
  "服务器": 36,
  "扁钢": 36,
  "封锁": 36,
  "邻@@": 36,
  "建设工程": 36,
  "沿线": 36,
  "钥匙": 36,
  "起重量": 36,
  "电子@@": 36,
  "192": 36,
  "二氧化碳": 36,
  "众所周知": 36,
  "优质": 36,
  "扩@@": 36,
  "真@@": 36,
  "该处": 36,
  "制造厂": 36,
  "树@@": 36,
  "国有": 36,
  "信心": 36,
  "柴油机": 36,
  "经济区": 36,
  "额度": 36,
  "CD": 36,
  "演@@": 36,
  "起重": 36,
  "UPS": 36,
  "一届": 36,
  "签证": 36,
  "技术规程": 36,
  "划界": 36,
  "成都": 36,
  "男孩": 36,
  "一侧": 36,
  "插@@": 36,
  "采样": 36,
  "初步设计": 36,
  "射@@": 36,
  "殖民主义": 35,
  "第六届": 35,
  "敌方": 35,
  "疑问": 35,
  "储备金": 35,
  "警官": 35,
  "华盛顿": 35,
  "财务状况": 35,
  "一节": 35,
  "V1": 35,
  "进度表": 35,
  "公证人": 35,
  "提高认识": 35,
  "导言": 35,
  "姆@@": 35,
  "盐@@": 35,
  "第三十@@": 35,
  "矿山": 35,
  "轻型": 35,
  "创立": 35,
  "博士": 35,
  "北约": 35,
  "围@@": 35,
  "77@@": 35,
  "机会均等": 35,
  "王@@": 35,
  "成人": 35,
  "混乱": 35,
  "诺夫": 35,
  "ц": 35,
  "】": 35,
  "届会": 35,
  "领袖": 35,
  "生产商": 35,
  "退出": 35,
  "所致": 35,
  "士@@": 35,
  "显@@": 35,
  "液位计": 35,
  "转运站": 35,
  "告": 35,
  "家人": 35,
  "通货膨胀": 35,
  "汽": 35,
  "非国家": 35,
  "甲@@": 35,
  "课": 35,
  "税款": 35,
  "系@@": 35,
  "日子": 35,
  "167": 35,
  "红十字": 35,
  "那时": 35,
  "警方": 35,
  "饥饿": 35,
  "提倡": 35,
  "et@@": 35,
  "175": 35,
  "225": 35,
  "敌对行动": 35,
  "复印件": 35,
  "208": 35,
  "锌": 35,
  "协商会议": 35,
  "根除": 35,
  "政权": 35,
  "常任理事": 35,
  "94@@": 35,
  "快@@": 35,
  "厂@@": 35,
  "抗震": 35,
  "下表": 35,
  "【": 35,
  "不变": 35,
  "蓄电池": 35,
  "主管机构": 35,
  "活塞": 35,
  "CT@@": 35,
  "差@@": 35,
  "各项规定": 35,
  "煽动": 35,
  "判@@": 35,
  "131": 35,
  "改": 35,
  "审查会议": 35,
  "土方": 35,
  "印": 35,
  "区域间": 35,
  "切实可行": 35,
  "刑事诉讼": 35,
  "首都": 35,
  "中子": 35,
  "有无": 35,
  "录@@": 35,
  "民族和解": 35,
  "暗@@": 35,
  "第九条": 35,
  "之二": 35,
  "绿色": 35,
  "爱@@": 35,
  "废": 35,
  "28.@@": 35,
  "违约金": 35,
  "航@@": 35,
  "阅读": 35,
  "149": 35,
  "两侧": 35,
  "303": 35,
  "捕捞": 35,
  "对称": 35,
  "拜": 35,
  "从中": 35,
  "超声波": 35,
  "国内外": 35,
  "国民议会": 35,
  "永久性": 35,
  "米处": 35,
  "172": 35,
  "中非": 35,
  "同步": 35,
  "第十一届": 35,
  "伤亡": 35,
  "滚@@": 35,
  "也就是说": 35,
  "贫@@": 35,
  "胎": 35,
  "当今": 35,
  "劳": 35,
  "非洲人": 35,
  "无须": 35,
  "钉": 35,
  "大批": 35,
  "办公@@": 35,
  "四条": 35,
  "引发": 35,
  "治@@": 35,
  "斜": 35,
  "挖掘": 35,
  "第九届": 35,
  "优点": 35,
  "捍卫": 35,
  "195": 34,
  "三种": 34,
  "处理@@": 34,
  "吊顶": 34,
  "措词": 34,
  "违约": 34,
  "签名": 34,
  "架次": 34,
  "正当": 34,
  "节点": 34,
  "西方": 34,
  "0101": 34,
  "管段": 34,
  "同事": 34,
  "充分考虑": 34,
  "共同努力": 34,
  "301": 34,
  "投入使用": 34,
  "治安": 34,
  "6.0": 34,
  "位@@": 34,
  "急剧": 34,
  "声援": 34,
  "扫@@": 34,
  "置换": 34,
  "代价": 34,
  "一期": 34,
  "形状": 34,
  "新闻@@": 34,
  "护": 34,
  "第一步": 34,
  "0%": 34,
  "财富": 34,
  "棚": 34,
  "这使": 34,
  "39932": 34,
  "研发": 34,
  "C.@@": 34,
  "送到": 34,
  "270": 34,
  "言@@": 34,
  "结构调整": 34,
  "ur@@": 34,
  "建筑材料": 34,
  "晚": 34,
  "藏": 34,
  "暴行": 34,
  "看待": 34,
  "流行": 34,
  "聚氨酯": 34,
  "吉尔吉斯共和国": 34,
  "星期四": 34,
  "单体": 34,
  "8.4": 34,
  "闪": 34,
  "元素": 34,
  "750": 34,
  "20mm": 34,
  "173": 34,
  "电化学": 34,
  "HV": 34,
  "机柜": 34,
  "知": 34,
  "监察员": 34,
  "226": 34,
  "→": 34,
  "升高": 34,
  "1.13": 34,
  "ay@@": 34,
  "局长": 34,
  "样@@": 34,
  "明确规定": 34,
  "向前": 34,
  "逾期": 34,
  "便@@": 34,
  "06@@": 34,
  "堡": 34,
  "技术性": 34,
  "福@@": 34,
  "斗": 34,
  "服@@": 34,
  "235": 34,
  "论": 34,
  "］": 34,
  "留": 34,
  "［": 34,
  "复兴": 34,
  "管理体系": 34,
  "松": 34,
  "减小": 34,
  "Si@@": 34,
  "霍@@": 34,
  "印@@": 34,
  "进攻": 34,
  "近期": 34,
  "三层": 34,
  "不利于": 34,
  "编码": 34,
  "苯@@": 34,
  "分量": 34,
  "莫": 34,
  "一组": 34,
  "w": 34,
  "么": 34,
  "比重": 34,
  "梯@@": 34,
  "199": 34,
  "流向": 34,
  "个体": 34,
  "有待": 34,
  "不仅仅": 34,
  "审@@": 34,
  "1.9": 34,
  "铀": 34,
  "650": 34,
  "大力": 34,
  "硅酸盐": 34,
  "大厅": 34,
  "阿曼": 34,
  "加大": 34,
  "将近": 34,
  "顿": 34,
  "锻件": 34,
  "Sub.2": 34,
  "孕妇": 34,
  "之上": 34,
  "0.00@@": 34,
  "气温": 34,
  "现行标准": 34,
  "些": 34,
  "抑制": 34,
  "周边": 34,
  "语@@": 34,
  "贴@@": 34,
  "以免": 34,
  "207": 34,
  "大幅": 34,
  "划@@": 34,
  "科学研究": 34,
  "168": 34,
  "血": 34,
  "公共卫生": 34,
  "事例": 34,
  "献@@": 34,
  "肉": 34,
  "操作@@": 34,
  "造林": 34,
  "固定资产": 34,
  "顶@@": 34,
  "金融@@": 34,
  "出去": 34,
  "瓶": 34,
  "乘@@": 34,
  "私有化": 34,
  "24.@@": 34,
  "矿区": 33,
  "涡轮": 33,
  "干涉": 33,
  "湾": 33,
  "下属": 33,
  "35kV": 33,
  "ul@@": 33,
  "品牌": 33,
  "凝结水": 33,
  "148": 33,
  "裂@@": 33,
  "世@@": 33,
  "主管机关": 33,
  "债权": 33,
  "刀": 33,
  "泰@@": 33,
  "Ў": 33,
  "圣卢西亚": 33,
  "进站": 33,
  "恶@@": 33,
  "全民投票": 33,
  "卡车": 33,
  "广大": 33,
  "非洲统一组织": 33,
  "破坏性": 33,
  "儿": 33,
  "附@@": 33,
  "241": 33,
  "偏离": 33,
  "东耶路撒冷": 33,
  "局@@": 33,
  "两条": 33,
  "土地利用": 33,
  "车道": 33,
  "预见": 33,
  "三方": 33,
  "工程设计": 33,
  "泥": 33,
  "速@@": 33,
  "决定性": 33,
  "哥@@": 33,
  "阿拉木图": 33,
  "总价": 33,
  "数据@@": 33,
  "下次": 33,
  "违规行为": 33,
  "贵方": 33,
  "教育@@": 33,
  "社会主义": 33,
  "除去": 33,
  "符合要求": 33,
  "收容": 33,
  "不足以": 33,
  "坚信": 33,
  "标准值": 33,
  "烟@@": 33,
  "罪@@": 33,
  "凸@@": 33,
  "薄弱": 33,
  "相似": 33,
  "1971": 33,
  "蒸煮": 33,
  "被捕": 33,
  "压制": 33,
  "氯硅烷": 33,
  "伦敦": 33,
  "马尔代夫": 33,
  "碱液": 33,
  "存款": 33,
  "活": 33,
  "污水处理": 33,
  "载@@": 33,
  "有罪": 33,
  "330kV": 33,
  "阀@@": 33,
  "弱": 33,
  "HA@@": 33,
  "_____": 33,
  "额@@": 33,
  "要点": 33,
  "os@@": 33,
  "贮存": 33,
  "65%": 33,
  "冰": 33,
  "10.5": 33,
  "供气": 33,
  "选取": 33,
  "6.4": 33,
  "噪音": 33,
  "男人": 33,
  "输@@": 33,
  "益处": 33,
  "地球物理": 33,
  "西欧": 33,
  "租用": 33,
  "准@@": 33,
  "挡": 33,
  "破碎": 33,
  "惩处": 33,
  "绿@@": 33,
  "行径": 33,
  "遗@@": 33,
  "如图": 33,
  "物种": 33,
  "经共体": 33,
  "衣服": 33,
  "财务报告": 33,
  "CONF.@@": 33,
  "文莱达鲁萨兰国": 33,
  "烧@@": 33,
  "最终用户": 33,
  "早@@": 33,
  "个人@@": 33,
  "徒刑": 33,
  "南亚": 33,
  "生计": 33,
  "见解": 33,
  "碎屑": 33,
  "铝@@": 33,
  "兹@@": 33,
  "202": 33,
  "抵@@": 33,
  "跨@@": 33,
  "假@@": 33,
  "使用者": 33,
  "纸@@": 33,
  "续会": 33,
  "水箱": 33,
  "________________________________@@": 33,
  "采伐": 33,
  "邦": 33,
  "op@@": 33,
  "所有者": 33,
  "批@@": 33,
  "终@@": 33,
  "适@@": 33,
  "穆斯林": 33,
  "腔": 33,
  "据此": 33,
  "星期三": 33,
  "280": 33,
  "桶": 33,
  "阿斯塔纳": 33,
  "险": 33,
  "所定": 33,
  "值班": 33,
  "v": 33,
  "本项": 33,
  "气藏": 33,
  "承": 33,
  "令人鼓舞": 33,
  "富有": 33,
  "参加者": 33,
  "限定": 33,
  "炉子": 33,
  "关键问题": 33,
  "130@@": 33,
  "EC": 32,
  "波黑": 32,
  "附图": 32,
  "核对": 32,
  "影@@": 32,
  "灰": 32,
  "限制性": 32,
  "提纯": 32,
  "左@@": 32,
  "欧@@": 32,
  "大多": 32,
  "令人遗憾": 32,
  "会期": 32,
  "故": 32,
  "IP": 32,
  "电缆沟": 32,
  "舍": 32,
  "餐": 32,
  "取得成功": 32,
  "6.7": 32,
  "实时": 32,
  "股东会": 32,
  "无人机": 32,
  "蒂": 32,
  "含水层": 32,
  "增至": 32,
  "排水系统": 32,
  "胺": 32,
  "旅馆": 32,
  "记入": 32,
  "判定": 32,
  "隔墙": 32,
  "浆@@": 32,
  "公营": 32,
  "不用": 32,
  "警察部队": 32,
  "受压": 32,
  "平原": 32,
  "蒂@@": 32,
  "十周年": 32,
  "储蓄": 32,
  "侧面": 32,
  "季@@": 32,
  "莫斯科州": 32,
  "境况": 32,
  "克拉": 32,
  "军火": 32,
  "标称": 32,
  "拆@@": 32,
  "公": 32,
  "弯": 32,
  "民主化": 32,
  "中央银行": 32,
  "铲除": 32,
  "一台": 32,
  "席": 32,
  "杀人": 32,
  "换气": 32,
  "历@@": 32,
  "开幕": 32,
  "CH@@": 32,
  "生产率": 32,
  "贵": 32,
  "一次性": 32,
  "动用": 32,
  "希族": 32,
  "塔利班": 32,
  "ag@@": 32,
  "免于": 32,
  "控告": 32,
  "信号@@": 32,
  "引用": 32,
  "0.05": 32,
  "ґ": 32,
  "级@@": 32,
  "陷入": 32,
  "判处": 32,
  "综管": 32,
  "思考": 32,
  "该段": 32,
  "基座": 32,
  "条所": 32,
  "号令": 32,
  "和平@@": 32,
  "证明文件": 32,
  "含硫": 32,
  "铠装": 32,
  "去@@": 32,
  "过于": 32,
  "突@@": 32,
  "时至": 32,
  "05@@": 32,
  "劳动@@": 32,
  "法律@@": 32,
  "260@@": 32,
  "聚集": 32,
  "带式": 32,
  "第十九条": 32,
  "大西洋": 32,
  "结论性": 32,
  "刑事责任": 32,
  "183": 32,
  "原籍": 32,
  "州@@": 32,
  "ER@@": 32,
  "司法@@": 32,
  "下放": 32,
  "油管": 32,
  "任何一方": 32,
  "外交@@": 32,
  "绝缘层": 32,
  "产能": 32,
  "调车": 32,
  "谷": 32,
  "科目": 32,
  "管壁": 32,
  "号法": 32,
  "直缝": 32,
  "扩建": 32,
  "C.6": 32,
  "转换器": 32,
  "弯头": 32,
  "吧": 32,
  "累积": 32,
  "证@@": 32,
  "钩": 32,
  "试压": 32,
  "危及": 32,
  "触@@": 32,
  "μ": 32,
  "想@@": 32,
  "呈@@": 32,
  "虽": 32,
  "67@@": 32,
  "艾@@": 32,
  "问@@": 32,
  "甄选": 32,
  "板材": 32,
  "治": 32,
  "携带": 32,
  "布局": 32,
  "宗": 32,
  "依@@": 32,
  "索引": 32,
  "水中": 32,
  "气氛": 32,
  "机动": 32,
  "拉伸": 32,
  "已于": 32,
  "分析仪": 32,
  "获@@": 32,
  "原产地": 32,
  "坡口": 32,
  "玛": 32,
  "沉@@": 32,
  "梯": 32,
  "水文": 31,
  "测量范围": 31,
  "分支机构": 31,
  "巷道": 31,
  "下达": 31,
  "汉@@": 31,
  "两位": 31,
  "乐观": 31,
  "合资企业": 31,
  "方应": 31,
  "停": 31,
  "资@@": 31,
  "热带": 31,
  "变为": 31,
  "1977": 31,
  "妇@@": 31,
  "码": 31,
  "统筹": 31,
  "进口@@": 31,
  "600@@": 31,
  "VI": 31,
  "七个": 31,
  "螺旋": 31,
  "籍": 31,
  "非洲大陆": 31,
  "收缩": 31,
  "公共服务": 31,
  "核动力": 31,
  "第七届": 31,
  "此处": 31,
  "统计资料": 31,
  "脂": 31,
  "购": 31,
  "161": 31,
  "位移": 31,
  "眼@@": 31,
  "女生": 31,
  "文职人员": 31,
  "划": 31,
  "相互@@": 31,
  "添加剂": 31,
  "资金来源": 31,
  "一支": 31,
  "计算@@": 31,
  "销@@": 31,
  "盖板": 31,
  "季": 31,
  "停火": 31,
  "空运": 31,
  "填": 31,
  "清偿": 31,
  "追加": 31,
  "ak@@": 31,
  "直线": 31,
  "确@@": 31,
  "力矩": 31,
  "扫盲": 31,
  "充满": 31,
  "限@@": 31,
  "租@@": 31,
  "地铁": 31,
  "没": 31,
  "借@@": 31,
  "E4": 31,
  "队伍": 31,
  "佛得角": 31,
  "每种": 31,
  "老龄": 31,
  "om@@": 31,
  "明年": 31,
  "载入": 31,
  "计算结果": 31,
  "SA@@": 31,
  "减灾": 31,
  "设@@": 31,
  "02@@": 31,
  "该次": 31,
  "评@@": 31,
  "遥控": 31,
  "高程": 31,
  "学会": 31,
  "古": 31,
  "家长": 31,
  "年内": 31,
  "实例": 31,
  "知情": 31,
  "规": 31,
  "招@@": 31,
  "夫斯基": 31,
  "很快": 31,
  "¬": 31,
  "基线": 31,
  "非常@@": 31,
  "注射": 31,
  "197": 31,
  "牛@@": 31,
  "俄语": 31,
  "水电站": 31,
  "电台": 31,
  "水文地质": 31,
  "窗@@": 31,
  "财政年度": 31,
  "佩": 31,
  "科技@@": 31,
  "难以@@": 31,
  "巴布亚新几内亚": 31,
  "床@@": 31,
  "不明": 31,
  "三十@@": 31,
  "空隙": 31,
  "缓": 31,
  "白": 31,
  "花费": 31,
  "配制": 31,
  "薪酬": 31,
  "共享": 31,
  "几次": 31,
  "函@@": 31,
  "财务@@": 31,
  "2500": 31,
  "191": 31,
  "食@@": 31,
  "239": 31,
  "驾驶员": 31,
  "保持@@": 31,
  "算法": 31,
  "职@@": 31,
  "总经理": 31,
  "乙@@": 31,
  "布鲁塞尔": 31,
  "既定": 31,
  "细粒": 31,
  "5.7": 31,
  "全苏": 31,
  "概览": 31,
  "履行义务": 31,
  "保护法": 31,
  "过分": 31,
  "团@@": 31,
  "可取": 31,
  "开发署": 31,
  "军官": 31,
  "264": 31,
  "工地": 31,
  "架@@": 31,
  "氯": 31,
  "百分之@@": 31,
  "争论": 31,
  "准确性": 31,
  "东西": 31,
  "不符": 31,
  "尔斯": 31,
  "生产者": 31,
  "汽轮机": 31,
  "财政部": 31,
  "阀体": 31,
  "1951": 31,
  "毒@@": 31,
  "阿布哈兹": 31,
  "燃@@": 31,
  "缓冲": 31,
  "地说": 31,
  "逆@@": 31,
  "1401": 31,
  "护照": 31,
  "如今": 31,
  "AN@@": 31,
  "涂@@": 31,
  "连续性": 31,
  "环境影响": 31,
  "跨部门": 31,
  "科学@@": 31,
  "两份": 31,
  "莱": 31,
  "经济社会": 31,
  "手柄": 31,
  "环节": 31,
  "意志": 31,
  "业已": 31,
  "路线图": 31,
  "朝鲜": 31,
  "藏@@": 31,
  "冷却剂": 31,
  "国政府": 31,
  "易燃": 31,
  "5.6": 31,
  "缺点": 31,
  "化工": 31,
  "在线": 31,
  "训": 31,
  "巡逻": 31,
  "自然@@": 31,
  "全面禁止": 31,
  "梯子": 31,
  "演变": 30,
  "断面": 30,
  "身上": 30,
  "丁@@": 30,
  "拿@@": 30,
  "一语": 30,
  "绿化": 30,
  "捷": 30,
  "50Hz": 30,
  "埋藏": 30,
  "回注": 30,
  "218": 30,
  "屠杀": 30,
  "轴向": 30,
  "扇": 30,
  "基本@@": 30,
  "1983": 30,
  "率@@": 30,
  "新闻稿": 30,
  "发动": 30,
  "服务费": 30,
  "命运": 30,
  "总收入": 30,
  "捏": 30,
  "陆地": 30,
  "特种": 30,
  "ф": 30,
  "征税": 30,
  "连同": 30,
  "Q235": 30,
  "提出申请": 30,
  "Ch@@": 30,
  "人权法": 30,
  "生育率": 30,
  "针@@": 30,
  "1978": 30,
  "保护@@": 30,
  "外形": 30,
  "中型": 30,
  "核证": 30,
  "波罗的海": 30,
  "23.@@": 30,
  "潮": 30,
  "第十一条": 30,
  "参与性": 30,
  "薄膜": 30,
  "检查站": 30,
  "ir@@": 30,
  "174": 30,
  "边缘化": 30,
  "缔约": 30,
  "公务": 30,
  "导电": 30,
  "后期": 30,
  "时要": 30,
  "遭": 30,
  "碳@@": 30,
  "保留意见": 30,
  "99@@": 30,
  "埃": 30,
  "基本建设": 30,
  "院长": 30,
  "分成": 30,
  "产品质量": 30,
  "挖": 30,
  "牺牲": 30,
  "稀@@": 30,
  "联合国安全理事会": 30,
  "营养不良": 30,
  "开罗": 30,
  "结果表明": 30,
  "司法部门": 30,
  "均@@": 30,
  "墙@@": 30,
  "胶结": 30,
  "多方面": 30,
  "环氧": 30,
  "ec@@": 30,
  "高速": 30,
  "公海": 30,
  "输油": 30,
  "每台": 30,
  "1975": 30,
  "im@@": 30,
  "水库": 30,
  "出庭": 30,
  "联黎": 30,
  "韦@@": 30,
  "工期": 30,
  "专题讨论": 30,
  "右岸": 30,
  "401": 30,
  "派@@": 30,
  "所起": 30,
  "增列": 30,
  "10.2": 30,
  "______": 30,
  "逃@@": 30,
  "外观": 30,
  "立交桥": 30,
  "ESD": 30,
  "0.0": 30,
  "退还": 30,
  "中小型": 30,
  "焦@@": 30,
  "诊所": 30,
  "三分之二": 30,
  "义@@": 30,
  "政府部门": 30,
  "销售@@": 30,
  "艰难": 30,
  "更具": 30,
  "色情": 30,
  "季节": 30,
  "互动": 30,
  "沉降": 30,
  "挂": 30,
  "KV": 30,
  "借口": 30,
  "认@@": 30,
  "触点": 30,
  "径": 30,
  "磨损": 30,
  "199@@": 30,
  "期满": 30,
  "排列": 30,
  "修订版": 30,
  "育儿": 30,
  "石墨": 30,
  "完@@": 30,
  "360": 30,
  "足": 30,
  "概况": 30,
  "罚金": 30,
  "炮": 30,
  "经管": 30,
  "灯@@": 30,
  "末端": 30,
  "箱@@": 30,
  "几何": 30,
  "齐@@": 30,
  "断层": 30,
  "埋地": 30,
  "总产值": 30,
  "同类": 30,
  "21.@@": 30,
  "连接处": 30,
  "施行": 30,
  "严厉": 30,
  "散热器": 30,
  "使用@@": 30,
  "远距离": 30,
  "与会": 30,
  "损": 30,
  "这两项": 30,
  "¢": 30,
  "发生变化": 30,
  "下去": 30,
  "AP@@": 30,
  "ru": 30,
  "突然": 30,
  "营@@": 30,
  "一周": 30,
  "1001": 30,
  "慷慨": 30,
  "留下": 30,
  "住区": 30,
  "止@@": 30,
  "富@@": 30,
  "街头": 30,
  "国家机关": 30,
  "光盘": 30,
  "本案": 30,
  "民用": 30,
  "自动装置": 30,
  "负债表": 30,
  "海军": 30,
  "文献": 30,
  "筛选": 30,
  "雅": 30,
  "黑色": 30,
  "气象": 30,
  "出境": 30,
  "失效": 30,
  "止": 30,
  "百": 30,
  "已知": 29,
  "世界卫生组织": 29,
  "调拨": 29,
  "卧式": 29,
  "生命权": 29,
  "对策": 29,
  "1.25": 29,
  "洛夫": 29,
  "征": 29,
  "堵塞": 29,
  "锚固": 29,
  "适足": 29,
  "全国性": 29,
  "370": 29,
  "泄露": 29,
  "赔偿金": 29,
  "越": 29,
  "各届": 29,
  "令人@@": 29,
  "不法行为": 29,
  "里奥": 29,
  "有意": 29,
  "检查@@": 29,
  "雪@@": 29,
  "渗透": 29,
  "残疾儿童": 29,
  "文盲": 29,
  "教会": 29,
  "帐": 29,
  "粒径": 29,
  "市场@@": 29,
  "碎": 29,
  "犯罪活动": 29,
  "故@@": 29,
  "弱@@": 29,
  "适用范围": 29,
  "书面通知": 29,
  "柱子": 29,
  "联委会": 29,
  "终身": 29,
  "机房": 29,
  "机械设备": 29,
  "职司": 29,
  "550": 29,
  "抗压强度": 29,
  "担保人": 29,
  "64@@": 29,
  "街道": 29,
  "直流": 29,
  "余热": 29,
  "年轻": 29,
  "交存": 29,
  "树木": 29,
  "不但": 29,
  "第五章": 29,
  "香@@": 29,
  "定稿": 29,
  "准予": 29,
  "自治区": 29,
  "允许浓度": 29,
  "中未": 29,
  "Ä": 29,
  "税务机关": 29,
  "题目": 29,
  "缸": 29,
  "源@@": 29,
  "贵国": 29,
  "244": 29,
  "划拨": 29,
  "订购": 29,
  "状@@": 29,
  "纠纷": 29,
  "皮带": 29,
  "定居": 29,
  "海岸": 29,
  "万名": 29,
  "矩形": 29,
  "坎@@": 29,
  "泵@@": 29,
  "RE@@": 29,
  "联合国人口基金": 29,
  "尽量减少": 29,
  "嘴": 29,
  "溶解": 29,
  "技术咨询": 29,
  "卫生标准": 29,
  "104m3": 29,
  "欠款": 29,
  "户@@": 29,
  "4.7": 29,
  "抗议": 29,
  "阶层": 29,
  "坛": 29,
  "抵达": 29,
  "三级": 29,
  "al": 29,
  "维修@@": 29,
  "展览": 29,
  "补救措施": 29,
  "鲁": 29,
  "侦查": 29,
  "附表": 29,
  "DN50": 29,
  "γ": 29,
  "世界@@": 29,
  "巴哈马": 29,
  "产品@@": 29,
  "en": 29,
  "年份": 29,
  "市镇": 29,
  "导体": 29,
  "招募": 29,
  "混合气": 29,
  "乏": 29,
  "健康状况": 29,
  "循环泵": 29,
  "筹集": 29,
  "PR": 29,
  "IC": 29,
  "on": 29,
  "雇佣军": 29,
  "1974": 29,
  "文职": 29,
  "久": 29,
  "症": 29,
  "尊敬": 29,
  "制图": 29,
  "浮动": 29,
  "铲斗": 29,
  "勘查": 29,
  "煤气": 29,
  "闪@@": 29,
  "行李": 29,
  "最多": 29,
  "弯@@": 29,
  "约翰内斯堡": 29,
  "表层": 29,
  "三次": 29,
  "0.15": 29,
  "森": 29,
  "输气": 29,
  "两层": 29,
  "子公司": 29,
  "抽样": 29,
  "缓@@": 29,
  "DCS": 29,
  "制件": 29,
  "绳之以法": 29,
  "地下室": 29,
  "深刻": 29,
  "两端": 29,
  "这么": 29,
  "使命": 29,
  "刑": 29,
  "东南亚": 29,
  "苦难": 29,
  "油罐": 29,
  "日常生活": 29,
  "液态": 29,
  "紧急状态": 29,
  "楼梯间": 29,
  "坏": 29,
  "亲属": 29,
  "附带": 29,
  "占有": 29,
  "精神@@": 29,
  "1979": 29,
  "蒸发器": 29,
  "大陆架": 29,
  "阳@@": 29,
  "监督机构": 29,
  "堕胎": 29,
  "重大进展": 29,
  "坝": 29,
  "梅": 29,
  "田": 29,
  "第一份": 29,
  "微额": 29,
  "S1": 29,
  "防水层": 29,
  "径向": 29,
  "化验室": 29,
  "获准": 29,
  "排水沟": 29,
  "临时代办": 29,
  "休": 29,
  "扣": 29,
  "两类": 29,
  "尘@@": 29,
  "反射": 29,
  "砌筑": 29,
  "@": 29,
  "审讯": 29,
  "贫": 29,
  "107@@": 29,
  "护套": 29,
  "毒性": 29,
  "之时": 29,
  "PN": 29,
  "查验": 29,
  "端@@": 29,
  "投标书": 29,
  "图册": 29,
  "说@@": 29,
  "通向": 29,
  "露点": 29,
  "必要条件": 29,
  "输": 29,
  "兵@@": 29,
  "本款": 29,
  "Mpa": 29,
  "分队": 29,
  "第二项": 29,
  "金融危机": 28,
  "息@@": 28,
  "GB50@@": 28,
  "第五十@@": 28,
  "标定": 28,
  "ES": 28,
  "四周": 28,
  "应收": 28,
  "8.02": 28,
  "雨": 28,
  "集成": 28,
  "伴热": 28,
  "贮@@": 28,
  "信用证": 28,
  "搭接": 28,
  "会员": 28,
  "计算机@@": 28,
  "柜@@": 28,
  "命": 28,
  "编纂": 28,
  "东盟": 28,
  "辩护律师": 28,
  "会计@@": 28,
  "惩治": 28,
  "公职": 28,
  "调节器": 28,
  "互感器": 28,
  "内向": 28,
  "指挥官": 28,
  "运距": 28,
  "课@@": 28,
  "26.@@": 28,
  "接缝": 28,
  "思@@": 28,
  "集中@@": 28,
  "0.01": 28,
  "竞争法": 28,
  "248": 28,
  "美洲国家组织": 28,
  "停工": 28,
  "场内": 28,
  "偷@@": 28,
  "用房": 28,
  "1400": 28,
  "紧张局势": 28,
  "SP@@": 28,
  "自卫": 28,
  "燃": 28,
  "WG": 28,
  "模": 28,
  "频": 28,
  "联合国日内瓦办事处": 28,
  "蓄意": 28,
  "缺": 28,
  "被告人": 28,
  "年级": 28,
  "违@@": 28,
  "共用": 28,
  "SP": 28,
  "体检": 28,
  "0.85": 28,
  "苏里南": 28,
  "烟气": 28,
  "171": 28,
  "势头": 28,
  "并入": 28,
  "菌": 28,
  "聚": 28,
  "不良": 28,
  "朝": 28,
  "轻油": 28,
  "0.5%": 28,
  "松动": 28,
  "入学": 28,
  "程序@@": 28,
  "CO": 28,
  "切断阀": 28,
  "社会福利": 28,
  "看见": 28,
  "一根": 28,
  "接着": 28,
  "镁": 28,
  "油泵": 28,
  "几项": 28,
  "公共政策": 28,
  "釜": 28,
  "继续执行": 28,
  "举": 28,
  "银@@": 28,
  "内径": 28,
  "操纵": 28,
  "杆@@": 28,
  "创收": 28,
  "诸": 28,
  "相辅相成": 28,
  "保险费": 28,
  "电位": 28,
  "ic": 28,
  "189": 28,
  "L.1": 28,
  "管材": 28,
  "预算编制": 28,
  "186": 28,
  "想要": 28,
  "齐全": 28,
  "粉状": 28,
  "派出": 28,
  "Á": 28,
  "圣马力诺": 28,
  "PS": 28,
  "土建": 28,
  "01@@": 28,
  "聘请": 28,
  "重大@@": 28,
  "支座": 28,
  "犯人": 28,
  "并不@@": 28,
  "罗姆人": 28,
  "组织@@": 28,
  "抛@@": 28,
  "养恤": 28,
  "恶": 28,
  "整改": 28,
  "超越": 28,
  "固定式": 28,
  "手工": 28,
  "折旧": 28,
  "不确定性": 28,
  "钻井液": 28,
  "泥质": 28,
  "为本": 28,
  "远离": 28,
  "器@@": 28,
  "222": 28,
  "积": 28,
  "除此之外": 28,
  "渔@@": 28,
  "该类": 28,
  "屋@@": 28,
  "美国政府": 28,
  "散": 28,
  "消防系统": 28,
  "兴@@": 28,
  "引导": 28,
  "206": 28,
  "铅": 28,
  "人身安全": 28,
  "赤字": 28,
  "消极影响": 28,
  "一批": 28,
  "批款": 28,
  "os": 28,
  "找出": 28,
  "687": 28,
  "休@@": 28,
  "保障@@": 28,
  "表述": 28,
  "抓@@": 28,
  "面层": 28,
  "0.25": 28,
  "云": 28,
  "风向": 28,
  "1949": 28,
  "苯": 28,
  "联合声明": 28,
  "球@@": 28,
  "火器": 28,
  "抹": 28,
  "拖@@": 28,
  "随函": 28,
  "切实有效": 28,
  "解决问题": 28,
  "持@@": 28,
  "祭司": 27,
  "容": 27,
  "财力": 27,
  "账单": 27,
  "ov@@": 27,
  "可疑": 27,
  "火力": 27,
  "使该": 27,
  "驾驶": 27,
  "克斯": 27,
  "传染病": 27,
  "预热": 27,
  "泵送": 27,
  "总面积": 27,
  "地貌": 27,
  "PC@@": 27,
  "179": 27,
  "开发@@": 27,
  "卫@@": 27,
  "呼叫": 27,
  "警": 27,
  "辨析": 27,
  "配电室": 27,
  "95%": 27,
  "登记簿": 27,
  "中欧": 27,
  "补充协议": 27,
  "跨越": 27,
  "焦油": 27,
  "C3": 27,
  "出版社": 27,
  "王国": 27,
  "1000@@": 27,
  "涉嫌": 27,
  "＊": 27,
  "复制": 27,
  "监理": 27,
  "阿鲁沙": 27,
  "解雇": 27,
  "涂漆": 27,
  "走私": 27,
  "包容性": 27,
  "众人": 27,
  "遇": 27,
  "偏见": 27,
  "交流经验": 27,
  "井段": 27,
  "埋深": 27,
  "通风@@": 27,
  "保护器": 27,
  "谈话": 27,
  "乍得": 27,
  "00mm": 27,
  "斯德哥尔摩": 27,
  "扶@@": 27,
  "返还": 27,
  "电话@@": 27,
  "年来": 27,
  "强制执行": 27,
  "容纳": 27,
  "悬@@": 27,
  "破裂": 27,
  "钻头": 27,
  "’": 27,
  "尤@@": 27,
  "略": 27,
  "休息": 27,
  "磨": 27,
  "选择性": 27,
  "慢": 27,
  "电力电缆": 27,
  "©": 27,
  "棉@@": 27,
  "pp@@": 27,
  "遏制": 27,
  "甲": 27,
  "足额": 27,
  "石化": 27,
  "灌@@": 27,
  "拟@@": 27,
  "相互依存": 27,
  "上应": 27,
  "价格指数": 27,
  "梁赞": 27,
  "采取任何": 27,
  "担忧": 27,
  "380V": 27,
  "维护者": 27,
  "与@@": 27,
  "In@@": 27,
  "乘": 27,
  "商业活动": 27,
  "疫苗": 27,
  "基桑加尼": 27,
  "焦炉煤气": 27,
  "考@@": 27,
  "破@@": 27,
  "价格@@": 27,
  "察": 27,
  "2.01": 27,
  "捐赠": 27,
  "COP": 27,
  "178": 27,
  "朝着": 27,
  "SY": 27,
  "节余": 27,
  "243": 27,
  "欧洲人": 27,
  "表压": 27,
  "战略性": 27,
  "书记官": 27,
  "制造业": 27,
  "述": 27,
  "IT@@": 27,
  "家里": 27,
  "许@@": 27,
  "购方": 27,
  "亮": 27,
  "DN100": 27,
  "转入": 27,
  "国际货币基金组织": 27,
  "暴@@": 27,
  "今@@": 27,
  "2000@@": 27,
  "不必": 27,
  "二条": 27,
  "硫@@": 27,
  "以南": 27,
  "铅@@": 27,
  "超": 27,
  "参考@@": 27,
  "阻燃": 27,
  "赤贫": 27,
  "目@@": 27,
  "犹大": 27,
  "电子版": 27,
  "撒@@": 27,
  "227": 27,
  "白色": 27,
  "押": 27,
  "两用": 27,
  "65@@": 27,
  "起吊": 27,
  "兄弟": 27,
  "伦": 27,
  "参股": 27,
  "西班牙语": 27,
  "麻@@": 27,
  "谋杀": 27,
  "004": 27,
  "学年": 27,
  "CC": 27,
  "室@@": 27,
  "桥架": 27,
  "420": 27,
  "仍@@": 27,
  "授@@": 27,
  "赤道几内亚": 27,
  "困境": 27,
  "拨出": 27,
  "拍卖": 27,
  "庭长": 27,
  "搬@@": 27,
  "丝@@": 27,
  "送达": 27,
  "目测": 27,
  "扳手": 27,
  "油气田": 27,
  "鼓舞": 27,
  "男@@": 27,
  "判刑": 27,
  "ET@@": 27,
  "许": 27,
  "左岸": 27,
  "国务@@": 27,
  "品种": 27,
  "打印": 27,
  "导航": 27,
  "气井": 27,
  "往来": 27,
  "深感": 27,
  "履行职责": 27,
  "不结盟运动": 27,
  "朋友": 27,
  "舱": 27,
  "404": 27,
  "宣告": 27,
  "欠@@": 27,
  "牛": 27,
  "4.8": 27,
  "坦": 27,
  "其管辖": 27,
  "圆形": 27,
  "艘": 27,
  "多名": 27,
  "深信": 27,
  "0.00": 27,
  "GS": 27,
  "探伤": 27,
  "Hz": 27,
  "交流信息": 27,
  "暖@@": 27,
  "依次": 27,
  "总长": 27,
  "词@@": 27,
  "报纸": 27,
  "订货": 27,
  "庭": 27,
  "债": 27,
  "一揽子": 27,
  "遮@@": 27,
  "自动控制": 27,
  "俄@@": 27,
  "保证金": 27,
  "评注": 27,
  "粘合": 27,
  "分析@@": 27,
  "出口@@": 27,
  "²": 27,
  "诱@@": 27,
  "阿拉伯国家联盟": 27,
  "不愿": 26,
  "磁": 26,
  "加深": 26,
  "抵消": 26,
  "中标": 26,
  "碳酸盐": 26,
  "耕地": 26,
  "试车": 26,
  "星期五": 26,
  "南极": 26,
  "新闻界": 26,
  "占据": 26,
  "八个": 26,
  "五名": 26,
  "毫无疑问": 26,
  "所在国": 26,
  "真相": 26,
  "钙": 26,
  "时所": 26,
  "防范": 26,
  "默@@": 26,
  "大程度": 26,
  "素质": 26,
  "财产损失": 26,
  "尾@@": 26,
  "ut@@": 26,
  "成年人": 26,
  "高等法院": 26,
  "关键性": 26,
  "总的来说": 26,
  "12.5": 26,
  "星": 26,
  "轮廓": 26,
  "沟@@": 26,
  "预备": 26,
  "脂@@": 26,
  "哈瓦那": 26,
  "工程技术": 26,
  "放电": 26,
  "欠": 26,
  "着重于": 26,
  "杂志": 26,
  "自动@@": 26,
  "科摩罗": 26,
  "237": 26,
  "and@@": 26,
  "国营": 26,
  "四方": 26,
  "逃避": 26,
  "238": 26,
  "色@@": 26,
  "中毒": 26,
  "称赞": 26,
  "总统令": 26,
  "哥本哈根": 26,
  "铁路@@": 26,
  "管理制度": 26,
  "安提瓜和巴布达": 26,
  "抗硫": 26,
  "大地": 26,
  "存入": 26,
  "7.6": 26,
  "性别歧视": 26,
  "209": 26,
  "文化@@": 26,
  "世": 26,
  "了@@": 26,
  "分层": 26,
  "麻醉品": 26,
  "施工进度": 26,
  "汇总": 26,
  "索取": 26,
  "无论如何": 26,
  "妥协": 26,
  "351": 26,
  "3.8": 26,
  "单一制": 26,
  "臭氧": 26,
  "委托人": 26,
  "天气": 26,
  "89@@": 26,
  "之所以": 26,
  "废弃物": 26,
  "序号": 26,
  "封头": 26,
  "＋": 26,
  "钢丝绳": 26,
  "救@@": 26,
  "食堂": 26,
  "就要": 26,
  "在建": 26,
  "小额": 26,
  "议@@": 26,
  "є": 26,
  "登记号": 26,
  "星期二": 26,
  "挑@@": 26,
  "结构图": 26,
  "从前": 26,
  "推": 26,
  "发运": 26,
  "等国": 26,
  "完全符合": 26,
  "送往": 26,
  "西撒": 26,
  "读数": 26,
  "地坪": 26,
  "自费": 26,
  "策略": 26,
  "特别法庭": 26,
  "相称": 26,
  "苦": 26,
  "婚": 26,
  "正面": 26,
  "E.@@": 26,
  "配筋": 26,
  "没@@": 26,
  "文中": 26,
  "316": 26,
  "百姓": 26,
  "氧@@": 26,
  "夜@@": 26,
  "扬": 26,
  "阴@@": 26,
  "PC": 26,
  "上层": 26,
  "用具": 26,
  "聚合物": 26,
  "200mm": 26,
  "增订": 26,
  "⑴": 26,
  "居留": 26,
  "233": 26,
  "洛坦": 26,
  "四十@@": 26,
  "驻@@": 26,
  "8.5": 26,
  "基因": 26,
  "湖": 26,
  "移": 26,
  "创伤": 26,
  "复杂性": 26,
  "性暴力": 26,
  "可行性研究": 26,
  "2x@@": 26,
  "单据": 26,
  "刚性": 26,
  "直通": 26,
  "麻醉药品": 26,
  "伴随": 26,
  "之日": 26,
  "10.1": 26,
  "鞋@@": 26,
  "战斗人员": 26,
  "结构性": 26,
  "孤@@": 26,
  "现况": 26,
  "价@@": 26,
  "起始": 26,
  "着@@": 26,
  "清晰": 26,
  "舆论": 26,
  "03@@": 26,
  "天数": 26,
  "1.012": 26,
  "冲": 26,
  "起点": 26,
  "法兰式": 26,
  "建设部": 26,
  "敷": 26,
  "硫酸": 26,
  "河谷": 26,
  "Re@@": 26,
  "见本": 26,
  "SBSTA": 26,
  "静": 26,
  "岸": 26,
  "填土": 26,
  "筒体": 26,
  "ap@@": 26,
  "堆积": 26,
  "报导": 26,
  "灭绝种族": 26,
  "孤立": 26,
  "消毒": 26,
  "PS@@": 26,
  "加紧努力": 26,
  "0000": 26,
  "内有": 26,
  "本文": 26,
  "斯特": 26,
  "售@@": 26,
  "卢萨卡": 26,
  "灾难": 26,
  "长石": 26,
  "输送到": 26,
  "在职": 26,
  "礼@@": 26,
  "用语": 26,
  "分至": 26,
  "消防泵": 26,
  "得出结论": 26,
  "临界": 26,
  "活跃": 26,
  "搭@@": 26,
  "弹道导弹": 26,
  "透@@": 26,
  "酸气": 26,
  "接线图": 26,
  "前后": 26,
  "当年": 26,
  "停留": 26,
  "贯穿": 26,
  "纵@@": 26,
  "锛": 26,
  "枢纽": 26,
  "渔船": 26,
  "气密性": 26,
  "充当": 26,
  "程@@": 26,
  "一并": 26,
  "10.3": 26,
  "少女": 26,
  "静@@": 26,
  "德罗": 26,
  "格林纳达": 26,
  "定向": 26,
  "氯化": 26,
  "重计": 26,
  "193": 26,
  "拨@@": 26,
  "七条": 26,
  "领": 26,
  "氨@@": 26,
  "建立联系": 26,
  "房间内": 26,
  "上级": 26,
  "政治@@": 26,
  "高级官员": 26,
  "码头": 26,
  "博": 26,
  "之际": 26,
  "防护@@": 26,
  "水温": 26,
  "投": 26,
  "赞助": 26,
  "砌": 26,
  "列于": 25,
  "受援国": 25,
  "精馏": 25,
  "塔盘": 25,
  "述及": 25,
  "δ": 25,
  "益": 25,
  "据@@": 25,
  "射": 25,
  "投资@@": 25,
  "上海": 25,
  "236": 25,
  "选矿": 25,
  "热能": 25,
  "回水": 25,
  "多地": 25,
  "粘度": 25,
  "风管": 25,
  "11%": 25,
  "大臣": 25,
  "仇恨": 25,
  "消防栓": 25,
  "官@@": 25,
  "_____________": 25,
  "冷战": 25,
  "河床": 25,
  "亏损": 25,
  "作者": 25,
  "善": 25,
  "味": 25,
  "果@@": 25,
  "不宜": 25,
  "1600": 25,
  "核不扩散": 25,
  "质量保证": 25,
  "挤压": 25,
  "塑性": 25,
  "仓": 25,
  "田@@": 25,
  "马力": 25,
  "小组讨论": 25,
  "刑罚": 25,
  "器材": 25,
  "烧": 25,
  "灭": 25,
  "缺@@": 25,
  "Add.3": 25,
  "一同": 25,
  "夫妻": 25,
  "双方同意": 25,
  "暖": 25,
  "223": 25,
  "发明": 25,
  "年限": 25,
  "严峻": 25,
  "效": 25,
  "方位": 25,
  "读": 25,
  "UN@@": 25,
  "86@@": 25,
  "OC": 25,
  "殖民地": 25,
  "固井": 25,
  "炼": 25,
  "筹@@": 25,
  "肥@@": 25,
  "众@@": 25,
  "箍": 25,
  "群@@": 25,
  "甲醇": 25,
  "爆@@": 25,
  "罐车": 25,
  "捍卫者": 25,
  "平均@@": 25,
  "羊": 25,
  "Na@@": 25,
  "检测仪表": 25,
  "民防": 25,
  "C.4": 25,
  "法律义务": 25,
  "汇款": 25,
  "助": 25,
  "研究院": 25,
  "似@@": 25,
  "气量": 25,
  "交通工具": 25,
  "新兴": 25,
  "253": 25,
  "追求": 25,
  "甘醇": 25,
  "主导": 25,
  "亿立方米": 25,
  "告@@": 25,
  "外勤": 25,
  "伐": 25,
  "扫描": 25,
  "1948": 25,
  "令@@": 25,
  "第七章": 25,
  "甲烷": 25,
  "硬件": 25,
  "鸿沟": 25,
  "减去": 25,
  "^": 25,
  "在场": 25,
  "长期@@": 25,
  "东亚": 25,
  "上涨": 25,
  "牲畜": 25,
  "伸出": 25,
  "两台": 25,
  "外国投资": 25,
  "界线": 25,
  "FPA": 25,
  "辊": 25,
  "既@@": 25,
  "断电": 25,
  "纹": 25,
  "可否": 25,
  "妥善": 25,
  "一大": 25,
  "样本": 25,
  "孔洞": 25,
  "南北": 25,
  "支管": 25,
  "验收报告": 25,
  "和平部队": 25,
  "证词": 25,
  "103@@": 25,
  "拖拉机": 25,
  "一章": 25,
  "254": 25,
  "紧密": 25,
  "准备金": 25,
  "伯利兹": 25,
  "机遇": 25,
  "吗": 25,
  "甚@@": 25,
  "激励": 25,
  "女儿": 25,
  "毁": 25,
  "217": 25,
  "此次": 25,
  "法律效力": 25,
  "据报": 25,
  "寒冷": 25,
  "缓蚀剂": 25,
  "仅限于": 25,
  "奴隶制": 25,
  "信息中心": 25,
  "高频": 25,
  "北极": 25,
  "新喀里多尼亚": 25,
  "痕": 25,
  "大力@@": 25,
  "拧紧": 25,
  "违规": 25,
  "例@@": 25,
  "助长": 25,
  "偶@@": 25,
  "69@@": 25,
  "安保": 25,
  "堆焊": 25,
  "活动@@": 25,
  "物流": 25,
  "MC": 25,
  "14.1": 25,
  "消极": 25,
  "重新@@": 25,
  "宣称": 25,
  "应于": 25,
  "殴打": 25,
  "艰巨": 25,
  "灾": 25,
  "组织者": 25,
  "派驻": 25,
  "1972": 25,
  "PL": 25,
  "卫生间": 25,
  "历史性": 25,
  "128@@": 25,
  "VII": 25,
  "耶夫": 25,
  "铭牌": 25,
  "430": 25,
  "潜@@": 25,
  "全力支持": 25,
  "上学": 25,
  "信誉": 25,
  "卡拉": 25,
  "选型": 25,
  "华": 25,
  "谋@@": 25,
  "304": 25,
  "相关性": 25,
  "第九": 25,
  "会议记录": 25,
  "批准书": 25,
  "挖@@": 25,
  "49@@": 25,
  "中文": 25,
  "5.9": 25,
  "即决": 25,
  "督@@": 25,
  "184": 25,
  "贴": 25,
  "拉杆": 25,
  "冻@@": 25,
  "保全": 25,
  "消失": 25,
  "洪@@": 25,
  "发表声明": 25,
  "矿浆": 25,
  "联邦政府": 25,
  "市政府": 25,
  "302": 25,
  "丁": 25,
  "对照": 25,
  "圣文森特": 25,
  "地质@@": 25,
  "南约": 25,
  "境": 25,
  "PG": 25,
  "沙漠": 25,
  "勤": 25,
  "尚@@": 25,
  "水分": 25,
  "法律法规": 25,
  "希尔": 25,
  "老": 25,
  "窗户": 25,
  "民主@@": 25,
  "聚合": 25,
  "粘@@": 25,
  "禁": 25,
  "管理处": 25,
  "人工@@": 25,
  "买@@": 24,
  "界@@": 24,
  "LE@@": 24,
  "丢失": 24,
  "同一个": 24,
  "伤者": 24,
  "闸": 24,
  "整套": 24,
  "人道": 24,
  "窗口": 24,
  "高出": 24,
  "纸质": 24,
  "杀@@": 24,
  "型式": 24,
  "段落": 24,
  "涓": 24,
  "常见": 24,
  "福祉": 24,
  "300mm": 24,
  "陪同": 24,
  "错": 24,
  "溶剂": 24,
  "不论是": 24,
  "定价": 24,
  "迟@@": 24,
  "带到": 24,
  "保持一致": 24,
  "剪@@": 24,
  "焦炭": 24,
  "显示器": 24,
  "刑事诉讼法": 24,
  "暂@@": 24,
  "专项": 24,
  "人质": 24,
  "闭@@": 24,
  "贷@@": 24,
  "电力系统": 24,
  "抵押": 24,
  "医疗保健": 24,
  "复苏": 24,
  "日向": 24,
  "刻": 24,
  "某项": 24,
  "凡@@": 24,
  "短管": 24,
  "私@@": 24,
  "删去": 24,
  "使用费": 24,
  "综合@@": 24,
  "监事会": 24,
  "资发": 24,
  "井场": 24,
  "业务@@": 24,
  "自卸": 24,
  "体罚": 24,
  "246": 24,
  "买": 24,
  "热电站": 24,
  "as": 24,
  "居住地": 24,
  "猛@@": 24,
  "传达": 24,
  "突破": 24,
  "科学家": 24,
  "空气调节": 24,
  "货车": 24,
  "平等权利": 24,
  "格林纳丁斯": 24,
  "着眼于": 24,
  "CE": 24,
  "裁@@": 24,
  "268": 24,
  "第二份": 24,
  "型@@": 24,
  "真诚": 24,
  "弃": 24,
  "工程质量": 24,
  "285": 24,
  "善政": 24,
  "耗": 24,
  "人孔": 24,
  "评审": 24,
  "车轮": 24,
  "入学率": 24,
  "碱@@": 24,
  "财产权": 24,
  "阿拉伯文": 24,
  "座@@": 24,
  "斯特@@": 24,
  "出口处": 24,
  "案@@": 24,
  "炎": 24,
  "车厢": 24,
  "H8@@": 24,
  "9.5": 24,
  "0.10": 24,
  "束": 24,
  "舰": 24,
  "氢化": 24,
  "平稳": 24,
  "07@@": 24,
  "1976": 24,
  "齿": 24,
  "系指": 24,
  "右": 24,
  "坚固": 24,
  "234": 24,
  "关岛": 24,
  "前任": 24,
  "劳动合同": 24,
  "守": 24,
  "㈣": 24,
  "冷器": 24,
  "本章": 24,
  "再度": 24,
  "禁令": 24,
  "航天器": 24,
  "审定": 24,
  "感到遗憾": 24,
  "包容": 24,
  "建成": 24,
  "194": 24,
  "......": 24,
  "锁@@": 24,
  "不可避免": 24,
  "红十字会": 24,
  "卸@@": 24,
  "互助": 24,
  "责": 24,
  "女工": 24,
  "涂抹": 24,
  "处理量": 24,
  "非标": 24,
  "封堵": 24,
  "沉积物": 24,
  "末@@": 24,
  "统一@@": 24,
  "短时间": 24,
  "养老金": 24,
  "民航": 24,
  "吸收塔": 24,
  "电磁@@": 24,
  "国际金融": 24,
  "庭@@": 24,
  "第二十三届": 24,
  "接待": 24,
  "装修": 24,
  "76@@": 24,
  "承包合同": 24,
  "检索": 24,
  "衣@@": 24,
  "调查@@": 24,
  "不满": 24,
  "MW": 24,
  "以使": 24,
  "覆盖层": 24,
  "旅@@": 24,
  "可是": 24,
  "全面@@": 24,
  "技术标准": 24,
  "品@@": 24,
  "立方分米": 24,
  "拔@@": 24,
  "凹@@": 24,
  "驱@@": 24,
  "侧重": 24,
  "内政部": 24,
  "eg@@": 24,
  "电容": 24,
  "EN@@": 24,
  "薄@@": 24,
  "灌溉": 24,
  "形态": 24,
  "屑": 24,
  "几种": 24,
  "6kV": 24,
  "制度化": 24,
  "高强度": 24,
  "馏分": 24,
  "50x@@": 24,
  "测量@@": 24,
  "迹": 24,
  "原始数据": 24,
  "290": 24,
  "深化": 24,
  "尘": 24,
  "焊道": 24,
  "意思": 24,
  "LS": 24,
  "使用权": 24,
  "身心": 24,
  "闭幕": 24,
  "注意力": 24,
  "以为": 24,
  "留有": 24,
  "社@@": 24,
  "老龄化": 24,
  "以致": 24,
  "穿@@": 24,
  "违法": 24,
  "那种": 24,
  "迪": 24,
  "酸性": 24,
  "de@@": 24,
  "堂": 24,
  "供水管": 24,
  "187": 24,
  "理事": 24,
  "奉行": 24,
  "公共秩序": 24,
  "易于": 24,
  "诉诸": 24,
  "焊丝": 24,
  "炮@@": 24,
  "乡村": 24,
  "病例": 24,
  "受益者": 24,
  "刊": 24,
  "灵": 24,
  "顾客": 24,
  "额定值": 24,
  "接点": 24,
  "黑": 24,
  "实务": 24,
  "洪水": 24,
  "忽略": 24,
  "工件": 24,
  "范@@": 24,
  "执@@": 24,
  "纳若尔": 24,
  "构@@": 24,
  "监测@@": 24,
  "292": 24,
  "粉砂": 24,
  "推出": 24,
  "增加@@": 24,
  "密封圈": 24,
  "DN150": 24,
  "犯罪者": 24,
  "钢丝": 24,
  "之类": 24,
  "登记@@": 24,
  "范例": 24,
  "贵@@": 24,
  "兆瓦": 24,
  "吸入": 24,
  "晶@@": 24,
  "不限": 24,
  "分部": 24,
  "相等": 24,
  "291": 23,
  "COP@@": 23,
  "厂内": 23,
  "每隔": 23,
  "频繁": 23,
  "不合理": 23,
  "毡": 23,
  "十四届": 23,
  "Sh@@": 23,
  "春季": 23,
  "道@@": 23,
  "路肩": 23,
  "Ð": 23,
  "出入": 23,
  "旧@@": 23,
  "232": 23,
  "垫圈": 23,
  "RF": 23,
  "管理工作": 23,
  "阵": 23,
  "土族": 23,
  "客运": 23,
  "围栏": 23,
  "发展局": 23,
  "跳@@": 23,
  "铸@@": 23,
  "明白": 23,
  "撤@@": 23,
  "基督": 23,
  "核能": 23,
  "那个": 23,
  "2301": 23,
  "冻土": 23,
  "失望": 23,
  "性虐待": 23,
  "加紧": 23,
  "108m3": 23,
  "af@@": 23,
  "九条": 23,
  "338": 23,
  "345": 23,
  "校正": 23,
  "重型": 23,
  "朝@@": 23,
  "轮胎": 23,
  "涂刷": 23,
  "谈@@": 23,
  "服务质量": 23,
  "社团": 23,
  "悬臂": 23,
  "残余": 23,
  "各项措施": 23,
  "亚的斯亚贝巴": 23,
  "但@@": 23,
  "峰": 23,
  "淡水": 23,
  "1220": 23,
  "齐": 23,
  "直流电": 23,
  "ia": 23,
  "00000000@@": 23,
  "后代": 23,
  "圣灵": 23,
  "出席会议": 23,
  "年龄组": 23,
  "[": 23,
  "解散": 23,
  "电力@@": 23,
  "确信": 23,
  "悲剧": 23,
  "召@@": 23,
  "包商": 23,
  "阀件": 23,
  "回复": 23,
  "金属表面": 23,
  "付给": 23,
  "结构@@": 23,
  "224": 23,
  "斯诺达尔": 23,
  "摄像头": 23,
  "塞浦路斯共和国": 23,
  "乃是": 23,
  "设定值": 23,
  "返@@": 23,
  "第七十@@": 23,
  "伯": 23,
  "广": 23,
  "小计": 23,
  "表示满意": 23,
  "第八@@": 23,
  "土方工程": 23,
  "碳素钢": 23,
  "kVA": 23,
  "帐目": 23,
  "效能": 23,
  "路堤": 23,
  "端面": 23,
  "客": 23,
  "⑵": 23,
  "混合@@": 23,
  "过高": 23,
  "IDB.@@": 23,
  "辅@@": 23,
  "作证": 23,
  "荒@@": 23,
  "发生冲突": 23,
  "跟": 23,
  "损@@": 23,
  "继续加强": 23,
  "幅": 23,
  "卸": 23,
  "贫液": 23,
  "急需": 23,
  "国民经济": 23,
  "育@@": 23,
  "恐怖活动": 23,
  "剧@@": 23,
  "廊": 23,
  "消火栓": 23,
  "310": 23,
  "远东": 23,
  "金属结构": 23,
  "曼谷": 23,
  "上下": 23,
  "停火协定": 23,
  "上游": 23,
  "螺柱": 23,
  "液面": 23,
  "厚@@": 23,
  "迫切": 23,
  "弗@@": 23,
  "热收缩": 23,
  "赛@@": 23,
  "″": 23,
  "麦@@": 23,
  "战略规划": 23,
  "水压": 23,
  "多万": 23,
  "高层": 23,
  "恐惧": 23,
  "交易所": 23,
  "技术支持": 23,
  "创造性": 23,
  "碎@@": 23,
  "武@@": 23,
  "努@@": 23,
  "吊架": 23,
  "对焊": 23,
  "公开招标": 23,
  "吸收@@": 23,
  "路径": 23,
  "保险合同": 23,
  "驱": 23,
  "英": 23,
  "列明": 23,
  "中转": 23,
  "砂浆": 23,
  "出色": 23,
  "毗邻": 23,
  "延续": 23,
  "压路机": 23,
  "商业性": 23,
  "读@@": 23,
  "88@@": 23,
  "残渣": 23,
  "宁": 23,
  "财@@": 23,
  "永@@": 23,
  "福利金": 23,
  "密切联系": 23,
  "取出": 23,
  "指挥系统": 23,
  "东北": 23,
  "标准@@": 23,
  "第三章": 23,
  "欧": 23,
  "us@@": 23,
  "埋设": 23,
  "会议纪要": 23,
  "执法人员": 23,
  "AR@@": 23,
  "存货": 23,
  "蒙": 23,
  "摄氏度": 23,
  "4x@@": 23,
  "介入": 23,
  "遭遇": 23,
  "右侧": 23,
  "主机": 23,
  "女子": 23,
  "解放": 23,
  "作好": 23,
  "钠": 23,
  "个案": 23,
  "杂@@": 23,
  "版@@": 23,
  "宣读": 23,
  "燃油": 23,
  "ib@@": 23,
  "KW": 23,
  "和谐": 23,
  "年满": 23,
  "分娩": 23,
  "指责": 23,
  "司法程序": 23,
  "值班员": 23,
  "丙@@": 23,
  "役": 23,
  "2.04": 23,
  "红十字国际委员会": 23,
  "执照": 23,
  "深表": 23,
  "试验报告": 23,
  "菲@@": 23,
  "陶@@": 23,
  "记得": 23,
  "6.6": 23,
  "硬质": 23,
  "齿@@": 23,
  "第二十届": 23,
  "消防@@": 23,
  "配额": 23,
  "候@@": 23,
  "底层": 23,
  "电气化": 23,
  "闭": 23,
  "律师协会": 23,
  "仆人": 23,
  "宪法法院": 23,
  "216": 23,
  "缘": 23,
  "奖@@": 23,
  "缺口": 23,
  "第三款": 23,
  "积雪": 23,
  "第八": 23,
  "泽@@": 23,
  "龙": 23,
  "坐@@": 23,
  "项中": 23,
  "野@@": 23,
  "监核": 23,
  "兽": 23,
  "矿业": 23,
  "95@@": 23,
  "188": 23,
  "世界粮食计划署": 23,
  "甲基": 23,
  "井下": 23,
  "63@@": 23,
  "市场经济": 23,
  "27.@@": 23,
  "地理信息系统": 23,
  "呼吸": 22,
  "桌@@": 22,
  "计算方法": 22,
  "分在": 22,
  "怕": 22,
  "第二节": 22,
  "南共体": 22,
  "司法机关": 22,
  "控制点": 22,
  "多么": 22,
  "肇事者": 22,
  "1244": 22,
  "塔顶": 22,
  "精矿": 22,
  "氩气": 22,
  "邮政": 22,
  "占领军": 22,
  "刚才": 22,
  "人员@@": 22,
  "签": 22,
  "进而": 22,
  "递@@": 22,
  "劳务": 22,
  "凯@@": 22,
  "800@@": 22,
  "油层": 22,
  "放入": 22,
  "优秀": 22,
  "未决": 22,
  "塔底": 22,
  "方括号": 22,
  "电视@@": 22,
  "序@@": 22,
  "305": 22,
  "刚@@": 22,
  "还会": 22,
  "一句": 22,
  "]": 22,
  "战斗@@": 22,
  "前应": 22,
  "卡拉@@": 22,
  "隔热": 22,
  "开车": 22,
  "康@@": 22,
  "习": 22,
  "行业标准": 22,
  "给水管": 22,
  "交换意见": 22,
  "目前为止": 22,
  "降压": 22,
  "地震烈度": 22,
  "托盘": 22,
  "沉重": 22,
  "电磁": 22,
  "诉@@": 22,
  "自然环境": 22,
  "浇注": 22,
  "坚硬": 22,
  "展": 22,
  "报复": 22,
  "反应炉": 22,
  "纯@@": 22,
  "汇总表": 22,
  "内在": 22,
  "发送给": 22,
  "文件@@": 22,
  "实习": 22,
  "装饰": 22,
  "支护": 22,
  "福克兰群岛": 22,
  "焚烧": 22,
  "30.@@": 22,
  "10.0": 22,
  "IX": 22,
  "孤儿": 22,
  "胺液": 22,
  "85%": 22,
  "夫人": 22,
  "远景": 22,
  "PVC": 22,
  "芯@@": 22,
  "艰苦": 22,
  "上半年": 22,
  "II@@": 22,
  "亚人": 22,
  "空压机": 22,
  "爆": 22,
  "概要": 22,
  "建筑设计": 22,
  "址": 22,
  "陆军": 22,
  "曲@@": 22,
  "免": 22,
  "五条": 22,
  "种子": 22,
  "矿井": 22,
  "剥离": 22,
  "排放物": 22,
  "池@@": 22,
  "双边@@": 22,
  "发射@@": 22,
  "实际@@": 22,
  "会计师": 22,
  "闭合": 22,
  "听到": 22,
  "陈@@": 22,
  "房地产": 22,
  "振": 22,
  "0.35": 22,
  "复合@@": 22,
  "战略武器": 22,
  "导弹": 22,
  "部落": 22,
  "教育权": 22,
  "追究": 22,
  "播放": 22,
  "攸关": 22,
  "智慧": 22,
  "耐火等级": 22,
  "编入": 22,
  "截@@": 22,
  "统@@": 22,
  "西班牙文": 22,
  "陆": 22,
  "三年期": 22,
  "发货": 22,
  "仅为": 22,
  "哪@@": 22,
  "转账": 22,
  "在外": 22,
  "晋升": 22,
  "总和": 22,
  "贸易协定": 22,
  "其他费用": 22,
  "银": 22,
  "机密": 22,
  "衣": 22,
  "050": 22,
  "60.30": 22,
  "格栅": 22,
  "扬@@": 22,
  "弧焊": 22,
  "AK@@": 22,
  "第六次": 22,
  "ek@@": 22,
  "文章": 22,
  "进线": 22,
  "局限于": 22,
  "丹": 22,
  "6000": 22,
  "工程建设": 22,
  "休会": 22,
  "金融市场": 22,
  "树脂": 22,
  "261": 22,
  "契约": 22,
  "觉": 22,
  "纸浆": 22,
  "道理": 22,
  "供其": 22,
  "左": 22,
  "小册子": 22,
  "闪蒸": 22,
  "配电站": 22,
  "Tr@@": 22,
  "12.2": 22,
  "往@@": 22,
  "Al": 22,
  "得知": 22,
  "中请": 22,
  "领导@@": 22,
  "银行@@": 22,
  "水流量": 22,
  "气流": 22,
  "吸烟": 22,
  "支票": 22,
  "污": 22,
  "宫": 22,
  "增添": 22,
  "网络@@": 22,
  "1969": 22,
  "衬里": 22,
  "之害": 22,
  "图位": 22,
  "第四十六届": 22,
  "无数": 22,
  "竖向": 22,
  "热炉": 22,
  "78@@": 22,
  "标出": 22,
  "010": 22,
  "村@@": 22,
  "船员": 22,
  "源于": 22,
  "公司@@": 22,
  "父": 22,
  "批次": 22,
  "避@@": 22,
  "房地": 22,
  "名字": 22,
  "全年": 22,
  "代表作": 22,
  "西非国家": 22,
  "地质勘探": 22,
  "CRP.@@": 22,
  "凭": 22,
  "抬@@": 22,
  "委托方": 22,
  "沉陷": 22,
  "料斗": 22,
  "劳动者": 22,
  "掩@@": 22,
  "坡@@": 22,
  "这部分": 22,
  "分析表明": 22,
  "工程@@": 22,
  "溶@@": 22,
  "龄": 22,
  "氯@@": 22,
  "价值观念": 22,
  "成长": 22,
  "剩下": 22,
  "总协定": 22,
  "大致": 22,
  "宁@@": 22,
  "捕@@": 22,
  "加压": 22,
  "风化": 22,
  "残留": 22,
  "勤@@": 22,
  "合资": 22,
  "非法行为": 22,
  "内战": 22,
  "打破": 22,
  "灯光": 22,
  "折": 22,
  "425": 22,
  "850": 22,
  "喷射": 22,
  "时为": 22,
  "专长": 22,
  "数据表": 22,
  "Cl@@": 22,
  "月初": 22,
  "实力": 22,
  "5000": 22,
  "一再": 22,
  "二层": 22,
  "伟大": 22,
  "企业主": 22,
  "论@@": 22,
  "日后": 22,
  "一新": 22,
  "人群": 22,
  "简介": 22,
  "脉": 22,
  "1301": 22,
  "历史@@": 22,
  "RA@@": 22,
  "春@@": 22,
  "院校": 22,
  "细胞": 22,
  "右@@": 22,
  "平方公里": 22,
  "农场": 22,
  "肤色": 22,
  "高炉": 22,
  "旋风": 22,
  "卵石": 22,
  "设计标准": 22,
  "图见": 22,
  "账": 22,
  "机密信息": 22,
  "多余": 22,
  "否决权": 22,
  "1390": 22,
  "1966": 22,
  "刚刚": 22,
  "避孕": 22,
  "垄断": 22,
  "312": 22,
  "接种": 22,
  "003": 22,
  "闭锁": 22,
  "操作规程": 22,
  "借鉴": 22,
  "巡@@": 22,
  "第十二届": 22,
  "2.9": 22,
  "细菌": 22,
  "阻": 22,
  "保修": 22,
  "桥@@": 22,
  "桑@@": 22,
  "176": 22,
  "太阳能": 22,
  "教材": 22,
  "其所": 22,
  "录": 22,
  "智@@": 22,
  "十一": 22,
  "出身": 22,
  "决@@": 22,
  "5mm": 21,
  "宿舍": 21,
  "怀@@": 21,
  "地面站": 21,
  "10000": 21,
  "紫外线": 21,
  "文学": 21,
  "乙二醇": 21,
  "停机": 21,
  "施": 21,
  "经销商": 21,
  "品质": 21,
  "改良": 21,
  "分阶段": 21,
  "协": 21,
  "含水": 21,
  "杯": 21,
  "试剂": 21,
  "每一项": 21,
  "AB@@": 21,
  "翼": 21,
  "无误": 21,
  "植@@": 21,
  "某@@": 21,
  "缩@@": 21,
  "镇压": 21,
  "恢复性": 21,
  "减量": 21,
  "互相": 21,
  "1501": 21,
  "不必要": 21,
  "奴役": 21,
  "下令": 21,
  "牙@@": 21,
  "1.10": 21,
  "波纹管": 21,
  "工作服": 21,
  "推定": 21,
  "隐@@": 21,
  "习惯法": 21,
  "拉姆": 21,
  "CRC": 21,
  "276": 21,
  "6.8": 21,
  "监护人": 21,
  "遍": 21,
  "亡": 21,
  "它@@": 21,
  "就业@@": 21,
  "穿孔": 21,
  "花岗岩": 21,
  "羊@@": 21,
  "美属": 21,
  "警察局": 21,
  "率为": 21,
  "搅拌器": 21,
  "试": 21,
  "振@@": 21,
  "备品备件": 21,
  "单套": 21,
  "娱乐": 21,
  "125@@": 21,
  "祭": 21,
  "团伙": 21,
  "受损": 21,
  "融@@": 21,
  "零下": 21,
  "吸": 21,
  "oc@@": 21,
  "介绍性": 21,
  "事务所": 21,
  "气压": 21,
  "预应力": 21,
  "55%": 21,
  "抵触": 21,
  "电工": 21,
  "监护": 21,
  "时机": 21,
  "受伤害": 21,
  "斯卡亚": 21,
  "石油化工": 21,
  "随附": 21,
  "管理信息系统": 21,
  "生物武器": 21,
  "可望": 21,
  "黄金": 21,
  "1950": 21,
  "积极@@": 21,
  "通货膨胀率": 21,
  "干熄焦": 21,
  "脚手架": 21,
  "播@@": 21,
  "SC@@": 21,
  "饮食": 21,
  "紧急@@": 21,
  "缩减": 21,
  "焦点": 21,
  "2m": 21,
  "徒": 21,
  "诸@@": 21,
  "最大值": 21,
  "泰": 21,
  "值得注意": 21,
  "祖@@": 21,
  "除锈": 21,
  "定期检查": 21,
  "老人": 21,
  "公正性": 21,
  "公职人员": 21,
  "医务人员": 21,
  "合作项目": 21,
  "氦": 21,
  "百分@@": 21,
  "内应": 21,
  "受害国": 21,
  "忧虑": 21,
  "通径": 21,
  "建筑@@": 21,
  "师@@": 21,
  "承包人": 21,
  "静态": 21,
  "兵种": 21,
  "410": 21,
  "前所未有": 21,
  "2100": 21,
  "绕@@": 21,
  "固": 21,
  "贝加尔": 21,
  "柔性": 21,
  "依托": 21,
  "民法典": 21,
  "调集": 21,
  "防卫": 21,
  "115@@": 21,
  "SBI": 21,
  "达喀尔": 21,
  "严重威胁": 21,
  "油箱": 21,
  "全俄": 21,
  "能源@@": 21,
  "塑料@@": 21,
  "付出": 21,
  "dB": 21,
  "收购": 21,
  "既然": 21,
  "采气": 21,
  "经济合作与发展组织": 21,
  "金融服务": 21,
  "外墙": 21,
  "处分": 21,
  "渗透率": 21,
  "瓦努阿图": 21,
  "戈": 21,
  "加注": 21,
  "照会": 21,
  "贿赂": 21,
  "轻烃": 21,
  "CN@@": 21,
  "厂商": 21,
  "两套": 21,
  "尝试": 21,
  "损失赔偿": 21,
  "饲料": 21,
  "第二十六条": 21,
  "不安": 21,
  "载明": 21,
  "负面": 21,
  "联席会议": 21,
  "玻璃@@": 21,
  "出线": 21,
  "透露": 21,
  "刚": 21,
  "锥@@": 21,
  "农": 21,
  "民间团体": 21,
  "针": 21,
  "钢制成": 21,
  "中国政府": 21,
  "灰尘": 21,
  "160@@": 21,
  "950": 21,
  "然@@": 21,
  "地下@@": 21,
  "妇女@@": 21,
  "1700": 21,
  "99.@@": 21,
  "控诉": 21,
  "过热": 21,
  "不可或缺": 21,
  "径流": 21,
  "可怕": 21,
  "联合国粮食及农业组织": 21,
  "Pa": 21,
  "接线盒": 21,
  "藉": 21,
  "中以": 21,
  "PI@@": 21,
  "墨西哥政府": 21,
  "记录@@": 21,
  "言论": 21,
  "八条": 21,
  "总工程师": 21,
  "变频器": 21,
  "缠绕": 21,
  "第@@": 21,
  "307": 21,
  "退休金": 21,
  "荣幸": 21,
  "摩@@": 21,
  "褐色": 21,
  "258": 21,
  "答辩": 21,
  "495": 21,
  "被控": 21,
  "或非": 21,
  "影响力": 21,
  "第四章": 21,
  "DN25": 21,
  "泛@@": 21,
  "砂砾": 21,
  "第二期": 21,
  "文档": 21,
  "号井": 21,
  "技合": 21,
  "国会": 21,
  "茨@@": 21,
  "亲自": 21,
  "枚": 21,
  "换热": 21,
  "热轧": 21,
  "水面": 21,
  "密切相关": 21,
  "评": 21,
  "孔隙率": 21,
  "加拿大政府": 21,
  "锤": 21,
  "第三节": 21,
  "可达": 21,
  "款中": 21,
  "电气@@": 21,
  "刷@@": 21,
  "国情": 21,
  "仓储": 21,
  "E3": 21,
  "屈服": 21,
  "总督": 21,
  "分级": 21,
  "草拟": 21,
  "最长": 21,
  "深加工": 21,
  "际": 21,
  "农发": 21,
  "RT@@": 21,
  "一本": 21,
  "各段": 21,
  "教廷": 21,
  "定性": 21,
  "未曾": 21,
  "水解": 21,
  "联合@@": 21,
  "仲裁庭": 21,
  "极其重要": 21,
  "相关者": 21,
  "专业化": 21,
  "回流": 21,
  "C2": 21,
  "安圭拉": 21,
  "Al@@": 21,
  "设防": 21,
  "抵销": 21,
  "O2": 21,
  "呈现": 21,
  "饱和度": 21,
  "镇@@": 21,
  "制冷": 21,
  "知@@": 21,
  "偿债": 21,
  "马德里": 21,
  "为限": 21,
  "四川": 21,
  "刻@@": 21,
  "269": 21,
  "瞬@@": 21,
  "十分@@": 21,
  "很小": 21,
  "施加压力": 21,
  "访": 21,
  "耐": 21,
  "涉@@": 21,
  "215": 21,
  "可予": 21,
  "测试@@": 21,
  "不能@@": 21,
  "Nm3": 21,
  "栏@@": 21,
  "院@@": 21,
  "453": 21,
  "两天": 21,
  "严重@@": 21,
  "下层": 21,
  "抢劫": 21,
  "砂石": 21,
  "艇": 21,
  "漂@@": 21,
  "投诉": 21,
  "香港": 20,
  "品位": 20,
  "俄罗斯@@": 20,
  "撬": 20,
  "簿": 20,
  "重大贡献": 20,
  "大国": 20,
  "AI": 20,
  "赤@@": 20,
  "耗量": 20,
  "乐@@": 20,
  "牧@@": 20,
  "249": 20,
  "本质": 20,
  "横截面": 20,
  "管内": 20,
  "万元": 20,
  "1.0@@": 20,
  "贸易谈判": 20,
  "研磨": 20,
  "和平谈判": 20,
  "反倾销": 20,
  "社会工作者": 20,
  "覆@@": 20,
  "起诉书": 20,
  "筑": 20,
  "章@@": 20,
  "器官": 20,
  "连贯": 20,
  "毫无": 20,
  "13130": 20,
  "切合实际": 20,
  "墩": 20,
  "腹@@": 20,
  "制造@@": 20,
  "竖@@": 20,
  "微米": 20,
  "UN": 20,
  "矿层": 20,
  "口井": 20,
  "石油气": 20,
  "大卫": 20,
  "普斯卡": 20,
  "潜水": 20,
  "第十二条": 20,
  "鞋业": 20,
  "劝@@": 20,
  "试采": 20,
  "名誉": 20,
  "幼@@": 20,
  "经社": 20,
  "AL@@": 20,
  "辛@@": 20,
  "无力": 20,
  "340": 20,
  "波利萨": 20,
  "加热炉": 20,
  "临@@": 20,
  "ICCD": 20,
  "足@@": 20,
  "链@@": 20,
  "上限": 20,
  "偿付": 20,
  "压差": 20,
  "第七": 20,
  "梅托": 20,
  "触发": 20,
  "交由": 20,
  "熄": 20,
  "一边": 20,
  "例外情况": 20,
  "集会": 20,
  "星@@": 20,
  "污@@": 20,
  "一体": 20,
  "致命": 20,
  "伴@@": 20,
  "腐@@": 20,
  "生产性": 20,
  "夫斯": 20,
  "粉末": 20,
  "气阀": 20,
  "氢@@": 20,
  "灯泡": 20,
  "中线": 20,
  "337": 20,
  "嫌疑人": 20,
  "水道": 20,
  "泄@@": 20,
  "q": 20,
  "住宿": 20,
  "届满": 20,
  "联安": 20,
  "602": 20,
  "冗余": 20,
  "询价": 20,
  "投资人": 20,
  "电解@@": 20,
  "研@@": 20,
  "无线电通信": 20,
  "都市": 20,
  "Ѵ": 20,
  "民用航空": 20,
  "离散": 20,
  "五周年": 20,
  "上市": 20,
  "技术参数": 20,
  "电子对抗": 20,
  "升降": 20,
  "精力": 20,
  "港@@": 20,
  "民族@@": 20,
  "247": 20,
  "贝鲁特": 20,
  "应向": 20,
  "塞尔维亚共和国": 20,
  "种@@": 20,
  "弱势群体": 20,
  "9.4": 20,
  "508": 20,
  "一回": 20,
  "犯罪@@": 20,
  "早先": 20,
  "150mm": 20,
  "or": 20,
  "楼@@": 20,
  "GB500@@": 20,
  "防火@@": 20,
  "引线": 20,
  "统治": 20,
  "详细情况": 20,
  "棱@@": 20,
  "顿@@": 20,
  "余量": 20,
  "补偿金": 20,
  "＝": 20,
  "迎@@": 20,
  "摊@@": 20,
  "____________": 20,
  "施工单位": 20,
  "气液": 20,
  "弗": 20,
  "暂定": 20,
  "介@@": 20,
  "0.95": 20,
  "使团": 20,
  "照管": 20,
  "220kV": 20,
  "发电量": 20,
  "俄联邦": 20,
  "哪个": 20,
  "核爆炸": 20,
  "拯救": 20,
  "多边合作": 20,
  "立面": 20,
  "成套设备": 20,
  "一致同意": 20,
  "酒精": 20,
  "磷@@": 20,
  "却是": 20,
  "PN1.6": 20,
  "信念": 20,
  "急救": 20,
  "密集": 20,
  "ov": 20,
  "谨向": 20,
  "巴特": 20,
  "信息网": 20,
  "速率": 20,
  "时说": 20,
  "高处": 20,
  "SR@@": 20,
  "智力": 20,
  "PRST": 20,
  "创业": 20,
  "ER": 20,
  "摄像机": 20,
  "标段": 20,
  "典": 20,
  "扣@@": 20,
  "本色": 20,
  "红色": 20,
  "几天": 20,
  "栅": 20,
  "危": 20,
  "探井": 20,
  "救灾": 20,
  "机能": 20,
  "沿岸": 20,
  "F200": 20,
  "29.@@": 20,
  "努力实现": 20,
  "总之": 20,
  "联机": 20,
  "害怕": 20,
  "高效率": 20,
  "深入@@": 20,
  "煤气管道": 20,
  "竞争性": 20,
  "令人不安": 20,
  "SC": 20,
  "B1": 20,
  "负有责任": 20,
  "要么": 20,
  "磁漆": 20,
  "F3": 20,
  "丧生": 20,
  "隔板": 20,
  "全权代表": 20,
  "富": 20,
  "塔吉克斯坦共和国": 20,
  "绞车": 20,
  "格局": 20,
  "吊": 20,
  "侵权行为": 20,
  "投运": 20,
  "贸易@@": 20,
  "商品@@": 20,
  "桥墩": 20,
  "尾气": 20,
  "军用飞机": 20,
  "极少": 20,
  "00.@@": 20,
  "IM@@": 20,
  "指示器": 20,
  "觉得": 20,
  "刑警": 20,
  "低压配电": 20,
  "表示遗憾": 20,
  "4000": 20,
  "CPE": 20,
  "南非洲": 20,
  "肉@@": 20,
  "舱@@": 20,
  "无视": 20,
  "钻井队": 20,
  "过渡政府": 20,
  "桁架": 20,
  "光电": 20,
  "代表大会": 20,
  "调查员": 20,
  "绝缘子": 20,
  "爆破": 20,
  "高达": 20,
  "粒@@": 20,
  "糖@@": 20,
  "隔热层": 20,
  "历来": 20,
  "以色列政府": 20,
  "284": 20,
  "较差": 20,
  "差压": 20,
  "繁重": 20,
  "DN200": 20,
  "概@@": 20,
  "东京": 20,
  "化学成分": 20,
  "构建": 20,
  "un": 20,
  "协力": 20,
  "迫害": 20,
  "速器": 20,
  "ar": 20,
  "角钢": 20,
  "密封面": 20,
  "自由@@": 20,
  "域": 20,
  "挖土": 20,
  "工商": 20,
  "图标": 20,
  "保温材料": 20,
  "立面图": 20,
  "丅": 20,
  "军事装备": 20,
  "正当@@": 20,
  "合作@@": 20,
  "流速": 20,
  "英镑": 20,
  "79@@": 20,
  "已婚": 20,
  "铬": 20,
  "砍伐": 20,
  "母": 20,
  "三十": 20,
  "流失": 20,
  "年版": 20,
  "便携式": 20,
  "现任": 20,
  "京@@": 20,
  "智": 20,
  "挂钩": 20,
  "2200": 20,
  "石灰": 20,
  "原子": 20,
  "式@@": 20,
  "昂": 20,
  "重力": 20,
  "采石场": 20,
  "渥太华": 20,
  "kN": 20,
  "被占领土": 20,
  "惠": 20,
  "野外": 20,
  "阶@@": 20,
  "线桥": 20,
  "灌浆": 20,
  "开展业务": 20,
  "除尘器": 20,
  "84@@": 20,
  "频@@": 20,
  "仪式": 20,
  "表示同意": 20,
  "交换机": 20,
  "鱼@@": 20,
  "单相": 20,
  "某人": 20,
  "AT": 20,
  "降水": 20,
  "特委会": 20,
  "减至": 20,
  "十个": 20,
  "小国": 19,
  "顶板": 19,
  "bar": 19,
  "航空@@": 19,
  "旨": 19,
  "降水量": 19,
  "疗法": 19,
  "否": 19,
  "该区": 19,
  "景@@": 19,
  "轴流": 19,
  "至多": 19,
  "误": 19,
  "栏杆": 19,
  "74@@": 19,
  "污泥": 19,
  "面漆": 19,
  "海洋@@": 19,
  "INF.@@": 19,
  "雾": 19,
  "EM@@": 19,
  "常用": 19,
  "废止": 19,
  "最低工资": 19,
  "箭头": 19,
  "机油": 19,
  "热工": 19,
  "¦": 19,
  "环境卫生": 19,
  "可信": 19,
  "263": 19,
  "致函": 19,
  "产层": 19,
  "测绘": 19,
  "006": 19,
  "德国马克": 19,
  "值为": 19,
  "金刚石": 19,
  "重新安排": 19,
  "接地线": 19,
  "头部": 19,
  "视委": 19,
  "家中": 19,
  "凝液": 19,
  "搬运": 19,
  "缝隙": 19,
  "公用事业": 19,
  "暴": 19,
  "动乱": 19,
  "颈": 19,
  "宿@@": 19,
  "咨询机构": 19,
  "约瑟": 19,
  "45.@@": 19,
  "空气压缩机": 19,
  "传染": 19,
  "地名": 19,
  "泽": 19,
  "二十": 19,
  "CP.4": 19,
  "收货人": 19,
  "第一项": 19,
  "排污管": 19,
  "IS": 19,
  "012": 19,
  "调度员": 19,
  "同居": 19,
  "经由": 19,
  "高等": 19,
  "气象@@": 19,
  "耶和华": 19,
  "gt": 19,
  "教育领域": 19,
  "河水": 19,
  "解体": 19,
  "总值": 19,
  "供水系统": 19,
  "140@@": 19,
  "本规程": 19,
  "枪": 19,
  "各省": 19,
  "man": 19,
  "零售": 19,
  "关键因素": 19,
  "人民币": 19,
  "围": 19,
  "利用率": 19,
  "sk@@": 19,
  "le@@": 19,
  "68@@": 19,
  "休假": 19,
  "第二年": 19,
  "研讨": 19,
  "砾岩": 19,
  "扭曲": 19,
  "烈度": 19,
  "机泵": 19,
  "夺@@": 19,
  "旁通": 19,
  "真": 19,
  "108@@": 19,
  "az@@": 19,
  "不让": 19,
  "升压": 19,
  "排空": 19,
  "后备": 19,
  "建筑施工": 19,
  "逍遥法外": 19,
  "免税": 19,
  "端部": 19,
  "Add.5": 19,
  "196": 19,
  "3mm": 19,
  "浮选": 19,
  "殿": 19,
  "柏林": 19,
  "多方": 19,
  "卫生设施": 19,
  "来到": 19,
  "边境地区": 19,
  "自由贸易": 19,
  "商店": 19,
  "整理": 19,
  "合格证书": 19,
  "电视台": 19,
  "7.0": 19,
  "秋季": 19,
  "付费": 19,
  "全长": 19,
  "硅棒": 19,
  "增值": 19,
  "全力": 19,
  "身份证": 19,
  "匹配": 19,
  "设计@@": 19,
  "发展部": 19,
  "前途": 19,
  "cm3": 19,
  "杂物": 19,
  "第六@@": 19,
  "联合行动": 19,
  "松开": 19,
  "征地": 19,
  "书面@@": 19,
  "SYMBOL@@": 19,
  "面谈": 19,
  "剂量": 19,
  "贸": 19,
  "转为": 19,
  "减排": 19,
  "开辟": 19,
  "作业区": 19,
  "叛@@": 19,
  "发病率": 19,
  "户外": 19,
  "反对派": 19,
  "э": 19,
  "晚@@": 19,
  "参议院": 19,
  "下跌": 19,
  "kh@@": 19,
  "拉特": 19,
  "绳索": 19,
  "划定": 19,
  "汇集": 19,
  "1106": 19,
  "公然": 19,
  "湖区": 19,
  "本协定": 19,
  "中央@@": 19,
  "下水道": 19,
  "栅@@": 19,
  "查看": 19,
  "津": 19,
  "ch": 19,
  "重新考虑": 19,
  "271": 19,
  "卡尔": 19,
  "不想": 19,
  "千帕": 19,
  "额定功率": 19,
  "员@@": 19,
  "男女@@": 19,
  "书籍": 19,
  "堵@@": 19,
  "势力": 19,
  "晚些时候": 19,
  "机器人": 19,
  "炼@@": 19,
  "跑": 19,
  "1102": 19,
  "管理层": 19,
  "空军": 19,
  "过载": 19,
  "停电": 19,
  "始@@": 19,
  "各种各样": 19,
  "CN.@@": 19,
  "Nm": 19,
  "咖啡": 19,
  "万立方米": 19,
  "借助于": 19,
  "凝析气": 19,
  "AM@@": 19,
  "强行": 19,
  "he@@": 19,
  "男": 19,
  "联格": 19,
  "地理位置": 19,
  "剥@@": 19,
  "流动性": 19,
  "非洲@@": 19,
  "论文": 19,
  "抱": 19,
  "若干@@": 19,
  "帐@@": 19,
  "邻近": 19,
  "叛乱": 19,
  "卷入": 19,
  "AS": 19,
  "启用": 19,
  "交通事故": 19,
  "商品价格": 19,
  "Cl": 19,
  "资本@@": 19,
  "粉碎": 19,
  "缝@@": 19,
  "交往": 19,
  "过大": 19,
  "奥尔@@": 19,
  "es": 19,
  "这件": 19,
  "镶@@": 19,
  "262": 19,
  "体育@@": 19,
  "得益于": 19,
  "营销": 19,
  "学术界": 19,
  "遍@@": 19,
  "每届": 19,
  "刹车": 19,
  "出差": 19,
  "相位": 19,
  "基础教育": 19,
  "季节性": 19,
  "广告@@": 19,
  "林木": 19,
  "核武库": 19,
  "承运人": 19,
  "学前教育": 19,
  "这段": 19,
  "工作岗位": 19,
  "SD@@": 19,
  "卖": 19,
  "记载": 19,
  "鉴@@": 19,
  "障": 19,
  "贬值": 19,
  "保守": 19,
  "乘以": 19,
  "不顾": 19,
  "伤残": 19,
  "积极行动": 19,
  "宪兵": 19,
  "安全区": 19,
  "iy@@": 19,
  "宾": 19,
  "椭圆形": 19,
  "3000@@": 19,
  "数字@@": 19,
  "盛@@": 19,
  "女鞋": 19,
  "扬程": 19,
  "AD": 19,
  "第七@@": 19,
  "救助": 19,
  "760": 19,
  "火车": 19,
  "而成": 19,
  "8.7": 19,
  "盆地": 19,
  "归因于": 19,
  "创造条件": 19,
  "坚@@": 19,
  "经济危机": 19,
  "干部": 19,
  "惊@@": 19,
  "谋生": 19,
  "管接头": 19,
  "一倍": 19,
  "吨@@": 19,
  "标的": 19,
  "袋@@": 19,
  "结社自由": 19,
  "干式": 19,
  "输送@@": 19,
  "圆满@@": 19,
  "336": 19,
  "学位": 19,
  "珊瑚礁": 19,
  "滤芯": 19,
  "升降机": 19,
  "高位": 19,
  "夏@@": 19,
  "伊科": 19,
  "以防": 19,
  "革@@": 19,
  "九个": 19,
  "持久性": 19,
  "CC@@": 19,
  "每人": 19,
  "联系国": 19,
  "530": 19,
  "易燃易爆": 19,
  "电子战": 19,
  "奖学金": 19,
  "搜查": 19,
  "误@@": 19,
  "其为": 19,
  "父@@": 19,
  "PL@@": 19,
  "HR@@": 19,
  "人行道": 19,
  "自杀": 19,
  "坦克": 19,
  "过来": 19,
  "印象": 19,
  "感激": 19,
  "十二": 19,
  "基建": 19,
  "251": 19,
  "涨": 19,
  "ml": 19,
  "10704": 19,
  "开立": 19,
  "干燥@@": 19,
  "数据传输": 19,
  "调控": 19,
  "延米": 19,
  "图片": 19,
  "项目@@": 19,
  "票@@": 19,
  "似": 19,
  "犹太人": 19,
  "氯气": 19,
  "25mm": 19,
  "毕业": 19,
  "立法机构": 19,
  "日止": 19,
  "34.@@": 18,
  "列克": 18,
  "淡@@": 18,
  "安全部队": 18,
  "责令": 18,
  "纠宾": 18,
  "反复": 18,
  "火车站": 18,
  "保护套": 18,
  "晶体": 18,
  "加勒比地区": 18,
  "竞标": 18,
  "同期": 18,
  "示例": 18,
  "白云石": 18,
  "沙土": 18,
  "膨胀@@": 18,
  "卢": 18,
  "日本政府": 18,
  "距@@": 18,
  "药剂": 18,
  "sect@@": 18,
  "球罐": 18,
  "感应": 18,
  "信件": 18,
  "固定@@": 18,
  "各个领域": 18,
  "结构件": 18,
  "大会决议": 18,
  "捐@@": 18,
  "明确指出": 18,
  "砼": 18,
  "一般来说": 18,
  "英尺": 18,
  "功能@@": 18,
  "回归": 18,
  "斟酌": 18,
  "出租": 18,
  "审计报告": 18,
  "偷运": 18,
  "泡沫塑料": 18,
  "党派": 18,
  "收件人": 18,
  "望@@": 18,
  "财务管理": 18,
  "理事国": 18,
  "地为": 18,
  "半成品": 18,
  "ev@@": 18,
  "中间@@": 18,
  "先知": 18,
  "涅": 18,
  "各处": 18,
  "海运": 18,
  "碳氢化合物": 18,
  "TB@@": 18,
  "罐中": 18,
  "440": 18,
  "3500": 18,
  "惠益": 18,
  "平方@@": 18,
  "运至": 18,
  "加班": 18,
  "些@@": 18,
  "筛@@": 18,
  "烟雾": 18,
  "监事": 18,
  "挡@@": 18,
  "割": 18,
  "421443.032": 18,
  "音": 18,
  "关系@@": 18,
  "扩充": 18,
  "出口商": 18,
  "7.7": 18,
  "每套": 18,
  "两倍": 18,
  "校长": 18,
  "略有": 18,
  "箱内": 18,
  "轨@@": 18,
  "第九@@": 18,
  "第一节": 18,
  "所处": 18,
  "规律": 18,
  "马上": 18,
  "犹太": 18,
  "失": 18,
  "凭@@": 18,
  "教育法": 18,
  "致力": 18,
  "专业知识": 18,
  "左侧": 18,
  "露@@": 18,
  "尾矿": 18,
  "229": 18,
  "at": 18,
  "ah@@": 18,
  "雷斯": 18,
  "拿出": 18,
  "肩@@": 18,
  "管汇": 18,
  "丽@@": 18,
  "固态": 18,
  "管理员": 18,
  "轮换": 18,
  "高中": 18,
  "高峰": 18,
  "树立": 18,
  "处长": 18,
  "服务中心": 18,
  "回合": 18,
  "温度计": 18,
  "科学院": 18,
  "洁": 18,
  "英寸": 18,
  "理念": 18,
  "才@@": 18,
  "坦桑尼亚": 18,
  "参看": 18,
  "30mm": 18,
  "努": 18,
  "A2": 18,
  "店": 18,
  "本专题": 18,
  "造福": 18,
  "途": 18,
  "供电系统": 18,
  "令人担忧": 18,
  "机械@@": 18,
  "冷却液": 18,
  "按本": 18,
  "缩": 18,
  "Ö": 18,
  "零位": 18,
  "变配电": 18,
  "礼": 18,
  "结清": 18,
  "档案@@": 18,
  "列表": 18,
  "化验": 18,
  "任一": 18,
  "266": 18,
  "恐@@": 18,
  "如上所述": 18,
  "平等待遇": 18,
  "亲": 18,
  "CN.7": 18,
  "外界": 18,
  "EN": 18,
  "兼@@": 18,
  "住宅区": 18,
  "冒@@": 18,
  "公益": 18,
  "不如": 18,
  "手套": 18,
  "指望": 18,
  "现阶段": 18,
  "整": 18,
  "今日": 18,
  "税费": 18,
  "报销": 18,
  "儿@@": 18,
  "楔形": 18,
  "柜内": 18,
  "铵": 18,
  "震@@": 18,
  "已建": 18,
  "浅": 18,
  "生活@@": 18,
  "念": 18,
  "工作面": 18,
  "眼前": 18,
  "解放@@": 18,
  "自力更生": 18,
  "ig@@": 18,
  "应予以": 18,
  "批发": 18,
  "侦@@": 18,
  "容@@": 18,
  "CE@@": 18,
  "赐给": 18,
  "混": 18,
  "卸载": 18,
  "连接件": 18,
  "鸟": 18,
  "希亚": 18,
  "研究@@": 18,
  "刀@@": 18,
  "读者": 18,
  "20m": 18,
  "全体成员": 18,
  "锚@@": 18,
  "至迟": 18,
  "湖泊": 18,
  "35%": 18,
  "杜": 18,
  "经济指标": 18,
  "平均气温": 18,
  "华@@": 18,
  "发布@@": 18,
  "送回": 18,
  "联络点": 18,
  "航天局": 18,
  "不致": 18,
  "拘禁": 18,
  "500mm": 18,
  "敌对": 18,
  "腰@@": 18,
  "附加费": 18,
  "兆@@": 18,
  "连接线": 18,
  "操作台": 18,
  "拆": 18,
  "给水泵": 18,
  "10.4": 18,
  "情报@@": 18,
  "阿拉伯@@": 18,
  "报警装置": 18,
  "避雷": 18,
  "悲惨": 18,
  "冷水": 18,
  "察@@": 18,
  "护士": 18,
  "民间组织": 18,
  "插头": 18,
  "固化": 18,
  "315": 18,
  "暴力事件": 18,
  "第四十七届": 18,
  "180@@": 18,
  "KO@@": 18,
  "通讯@@": 18,
  "出示": 18,
  "1961": 18,
  "特区": 18,
  "逗留": 18,
  "小组会议": 18,
  "报废": 18,
  "垫板": 18,
  "破": 18,
  "阿特": 18,
  "水压试验": 18,
  "ter@@": 18,
  "综合楼": 18,
  "焹": 18,
  "惰性气体": 18,
  "围护结构": 18,
  "近来": 18,
  "熔化": 18,
  "电弧焊": 18,
  "交接点": 18,
  "分工": 18,
  "te@@": 18,
  "元首": 18,
  "试验性": 18,
  "物件": 18,
  "甚": 18,
  "弦": 18,
  "法郎": 18,
  "某种程度": 18,
  "彼得": 18,
  "配电柜": 18,
  "Ь": 18,
  "286": 18,
  "图瓦卢": 18,
  "浓缩": 18,
  "OG": 18,
  "见证": 18,
  "听证会": 18,
  "委@@": 18,
  "有效率": 18,
  "宫@@": 18,
  "党@@": 18,
  "扣减": 18,
  "结构设计": 18,
  "内务部": 18,
  "SS@@": 18,
  "餐厅": 18,
  "含油": 18,
  "消耗性": 18,
  "网页": 18,
  "医药": 18,
  "刮@@": 18,
  "追回": 18,
  "本手册": 18,
  "油脂": 18,
  "一辆": 18,
  "吃@@": 18,
  "每项": 18,
  "228": 18,
  "1960": 18,
  "渗@@": 18,
  "毫@@": 18,
  "大有": 18,
  "重心": 18,
  "中小学": 18,
  "防火门": 18,
  "专用@@": 18,
  "势@@": 18,
  "羁押": 18,
  "食品安全": 18,
  "蓄@@": 18,
  "估值": 18,
  "涉": 18,
  "吊装": 18,
  "绝热": 18,
  "患": 18,
  "受到限制": 18,
  "中等教育": 18,
  "不迟于": 18,
  "西北": 18,
  "联接": 18,
  "第一类": 18,
  "疑@@": 18,
  "相对湿度": 18,
  "渡@@": 18,
  "tr@@": 18,
  "电线杆": 18,
  "无线电台": 18,
  "建筑面积": 18,
  "分贝": 18,
  "第一期": 18,
  "划线": 18,
  "民政": 18,
  "....": 18,
  "7.8": 18,
  "亦@@": 18,
  "妇人": 18,
  "悬浮物": 18,
  "动器": 18,
  "元@@": 18,
  "无缝": 18,
  "平坦": 18,
  "不良影响": 18,
  "降至": 18,
  "但须": 18,
  "旋": 18,
  "仲裁员": 18,
  "信道": 18,
  "渗漏": 18,
  "东南欧": 18,
  "模@@": 18,
  "分裂": 18,
  "领事": 18,
  "图上": 18,
  "AC.105": 18,
  "合办": 18,
  "架构": 18,
  "责任制": 18,
  "lt": 18,
  "根本@@": 18,
  "夜间": 18,
  "镀@@": 18,
  "尖@@": 18,
  "十五": 18,
  "计划@@": 18,
  "水源地": 18,
  "三天": 18,
  "CNPCI": 18,
  "257": 18,
  "美化": 18,
  "辐射@@": 18,
  "5.8": 18,
  "充电": 18,
  "旁@@": 18,
  "中为": 18,
  "避开": 18,
  "锡": 18,
  "乱@@": 18,
  "死者": 18,
  "验@@": 18,
  "8.8": 18,
  "奖金": 18,
  "中立": 18,
  "里克": 18,
  "无形资产": 18,
  "学家": 18,
  "程序性": 18,
  "威慑": 18,
  "北美": 18,
  "之处": 18,
  "XV@@": 18,
  "淹没": 18,
  "烘干": 18,
  "有序": 18,
  "构成威胁": 18,
  "朗": 18,
  "卸货": 18,
  "旱@@": 18,
  "雇佣": 18,
  "动植物": 17,
  "聘": 17,
  "485": 17,
  "基底": 17,
  "运费": 17,
  "配管": 17,
  "以色列国防军": 17,
  "一座": 17,
  "原厂": 17,
  "破产法": 17,
  "医疗@@": 17,
  "给定": 17,
  "借": 17,
  "受力": 17,
  "不结盟": 17,
  "323": 17,
  "原告": 17,
  "改正": 17,
  "试运": 17,
  "修补": 17,
  "狭@@": 17,
  "喀@@": 17,
  "专题@@": 17,
  "申请者": 17,
  "配线": 17,
  "控制中心": 17,
  "真诚地": 17,
  "终": 17,
  "GC.@@": 17,
  "扣款": 17,
  "差价": 17,
  "扶贫": 17,
  "运出": 17,
  "剂@@": 17,
  "104@@": 17,
  "制剂": 17,
  "归类": 17,
  "减速器": 17,
  "一个@@": 17,
  "当天": 17,
  "F1": 17,
  "钻杆": 17,
  "脸@@": 17,
  "好像": 17,
  "各点": 17,
  "层位": 17,
  "辅助生产": 17,
  "机具": 17,
  "口头报告": 17,
  "待命": 17,
  "TDS": 17,
  "CR@@": 17,
  "第二十二届": 17,
  "岩性": 17,
  "抑@@": 17,
  "到底": 17,
  "成本@@": 17,
  "318": 17,
  "就近": 17,
  "此案": 17,
  "服装": 17,
  "公路运输": 17,
  "符合标准": 17,
  "可赔": 17,
  "迁": 17,
  "患@@": 17,
  "筛": 17,
  "第四个": 17,
  "极化": 17,
  "讲习会": 17,
  "公园": 17,
  "架上": 17,
  "核设施": 17,
  "诚@@": 17,
  "都@@": 17,
  "马克": 17,
  "胜利": 17,
  "工种": 17,
  "四分之一": 17,
  "法医": 17,
  "英联邦": 17,
  "第二类": 17,
  "end@@": 17,
  "流产": 17,
  "整合": 17,
  "人民@@": 17,
  "熄焦": 17,
  "拥挤": 17,
  "π": 17,
  "ka": 17,
  "8.9": 17,
  "在此期间": 17,
  "童": 17,
  "参考资料": 17,
  "大大提高": 17,
  "已获": 17,
  "红新月会": 17,
  "保卫": 17,
  "40mm": 17,
  "021": 17,
  "363": 17,
  "何时": 17,
  "首": 17,
  "疏@@": 17,
  "空气@@": 17,
  "两届": 17,
  "罢工": 17,
  "欺@@": 17,
  "金斯克": 17,
  "流出": 17,
  "＜": 17,
  "挡板": 17,
  "图示": 17,
  "苏": 17,
  "警戒": 17,
  "预备@@": 17,
  "画": 17,
  "固体废物": 17,
  "平衡表": 17,
  "生产线": 17,
  "之地": 17,
  "焦室": 17,
  "双向": 17,
  "防火墙": 17,
  "RTU": 17,
  "卡斯": 17,
  "截面积": 17,
  "新闻处": 17,
  "防静电": 17,
  "绝": 17,
  "姓": 17,
  "纲": 17,
  "红": 17,
  "第十三届": 17,
  "气站": 17,
  "几位": 17,
  "跟@@": 17,
  "弱势": 17,
  "¶": 17,
  "杰": 17,
  "幼儿园": 17,
  "吸尘": 17,
  "阴": 17,
  "硫化物": 17,
  "怎么": 17,
  "呼": 17,
  "浓@@": 17,
  "巨大@@": 17,
  "亚太": 17,
  "柜子": 17,
  "珠宝": 17,
  "苏维埃": 17,
  "总体@@": 17,
  "诚意": 17,
  "沿海地区": 17,
  "非传统": 17,
  "加油": 17,
  "拒@@": 17,
  "向上": 17,
  "母公司": 17,
  "加速度": 17,
  "冷凝器": 17,
  "湿气": 17,
  "该款": 17,
  "队@@": 17,
  "萨赫勒": 17,
  "叶": 17,
  "牢@@": 17,
  "多层": 17,
  "自由选择": 17,
  "沼泽": 17,
  "会议@@": 17,
  "´": 17,
  "231": 17,
  "生命@@": 17,
  "决议案": 17,
  "ã": 17,
  "十二@@": 17,
  "毕业生": 17,
  "饰": 17,
  "赞@@": 17,
  "行为人": 17,
  "盒@@": 17,
  "促@@": 17,
  "累@@": 17,
  "初等教育": 17,
  "820": 17,
  "密切@@": 17,
  "谈论": 17,
  "砟": 17,
  "弹@@": 17,
  "小节": 17,
  "效率高": 17,
  "迁@@": 17,
  "需用": 17,
  "目视": 17,
  "败": 17,
  "原文": 17,
  "326": 17,
  "米尔": 17,
  "曼@@": 17,
  "1503": 17,
  "中心线": 17,
  "48.@@": 17,
  "RO@@": 17,
  "酮": 17,
  "TE@@": 17,
  "硝酸盐": 17,
  "轮流": 17,
  "12.3": 17,
  "破损": 17,
  "重物": 17,
  "分之一": 17,
  "非军事区": 17,
  "胜@@": 17,
  "毫不": 17,
  "迦@@": 17,
  "逃离": 17,
  "自营": 17,
  "我愿": 17,
  "住宅楼": 17,
  "配对法": 17,
  "501": 17,
  "愿@@": 17,
  "十大": 17,
  "份@@": 17,
  "外皮": 17,
  "以求": 17,
  "应享": 17,
  "请愿": 17,
  "埃厄": 17,
  "透": 17,
  "条形": 17,
  "场合": 17,
  "空管": 17,
  "ce": 17,
  "坡道": 17,
  "巴尔干": 17,
  "立方厘米": 17,
  "生物资源": 17,
  "自有": 17,
  "劳动量": 17,
  "这时": 17,
  "双头": 17,
  "根本原因": 17,
  "孔板": 17,
  "................@@": 17,
  "详述": 17,
  "建安": 17,
  "自动开关": 17,
  "还原炉": 17,
  "套筒": 17,
  "中心@@": 17,
  "激发": 17,
  "第四纪": 17,
  "早些时候": 17,
  "此基础": 17,
  "夹杂": 17,
  "单身": 17,
  "座位": 17,
  "全盘": 17,
  "滤": 17,
  "南太平洋": 17,
  "岸@@": 17,
  "凝结": 17,
  "杰出": 17,
  "弹头": 17,
  "工商@@": 17,
  "A1": 17,
  "不同于": 17,
  "森林资源": 17,
  "电厂": 17,
  "汞": 17,
  "乔@@": 17,
  "林地": 17,
  "掠夺": 17,
  "AC": 17,
  "瓷砖": 17,
  "利害关系": 17,
  "多元化": 17,
  "偏心": 17,
  "正本": 17,
  "国家主权": 17,
  "怒": 17,
  "显": 17,
  "账款": 17,
  "五项": 17,
  "和表": 17,
  "折扣": 17,
  "割@@": 17,
  "质量指标": 17,
  "50m": 17,
  "科研@@": 17,
  "专委": 17,
  "应适当": 17,
  "心理@@": 17,
  "飓风": 17,
  "起初": 17,
  "356": 17,
  "未付": 17,
  "乡@@": 17,
  "洲": 17,
  "火花": 17,
  "风量": 17,
  "衬@@": 17,
  "底物": 17,
  "详细资料": 17,
  "常数": 17,
  "中国@@": 17,
  "贫困@@": 17,
  "麦捷": 17,
  "国家级": 17,
  "欣@@": 17,
  "全球@@": 17,
  "热源": 17,
  "同情": 17,
  "预料": 17,
  "落后": 17,
  "商标": 17,
  "交易@@": 17,
  "井中": 17,
  "锚": 17,
  "冻": 17,
  "纸板": 17,
  "最易": 17,
  "责任@@": 17,
  "最少": 17,
  "的@@": 17,
  "互利": 17,
  "DS@@": 17,
  "水利": 17,
  "关键@@": 17,
  "菜单": 17,
  "上述情况": 17,
  "疗@@": 17,
  "打印机": 17,
  "氟@@": 17,
  "屏幕": 17,
  "2mm": 17,
  "课题": 17,
  "汲取": 17,
  "到位": 17,
  "DS": 17,
  "打磨": 17,
  "外交政策": 17,
  "斯坦": 17,
  "举报": 17,
  "严重性": 17,
  "技巧": 17,
  "烃类": 17,
  "12%": 17,
  "无国籍": 17,
  "活门": 17,
  "数个": 17,
  "练": 17,
  "阿拉伯人": 17,
  "粉@@": 17,
  "进修": 17,
  "第六十@@": 17,
  "C1": 17,
  "信用": 17,
  "法律咨询": 17,
  "游客": 17,
  "移送": 17,
  "视图": 17,
  "PN16": 17,
  "气门": 17,
  "商讨": 17,
  "戈尔斯": 17,
  "根据上述": 17,
  "词语": 17,
  "半数": 17,
  "20x@@": 17,
  "锈": 17,
  "N2": 17,
  "涂装": 17,
  "前线": 17,
  "税额": 17,
  "多种@@": 17,
  "275": 17,
  "视察员": 17,
  "实用": 17,
  "B型": 17,
  "保温管": 17,
  "661": 17,
  "楼房": 17,
  "先例": 17,
  "总裁": 17,
  "ё": 17,
  "半自动": 17,
  "机务段": 17,
  "制动器": 17,
  "换言之": 17,
  "惜": 17,
  "空间科学": 17,
  "FI@@": 17,
  "占领国": 17,
  "植": 17,
  "受让人": 17,
  "优先权": 17,
  "肘": 17,
  "税法": 17,
  "塌": 17,
  "见到": 17,
  "易爆": 17,
  "能源部": 17,
  "应以": 17,
  "反洗钱": 17,
  "三聚氰胺": 17,
  "专业@@": 17,
  "诊": 17,
  "街@@": 17,
  "1.45": 17,
  "校验": 17,
  "塑@@": 17,
  "252": 17,
  "丘@@": 17,
  "6m": 17,
  "归入": 17,
  "私法": 17,
  "砌体": 17,
  "007": 17,
  "注册@@": 17,
  "us": 17,
  "KZ@@": 17,
  "溢出": 17,
  "乌兹别克斯坦共和国": 17,
  "本信": 17,
  "布尔": 17,
  "迈@@": 17,
  "敬@@": 17,
  "电缆线": 17,
  "成因": 17,
  "镜": 17,
  "连接点": 16,
  "出租人": 16,
  "有机@@": 16,
  "氧化物": 16,
  "押@@": 16,
  "am": 16,
  "车臣": 16,
  "已作": 16,
  "况": 16,
  "水泥浆": 16,
  "呼吸@@": 16,
  "水平面": 16,
  "竞选": 16,
  "3.05": 16,
  "av@@": 16,
  "准军事": 16,
  "L.4": 16,
  "皇家": 16,
  "情事": 16,
  "拼@@": 16,
  "综@@": 16,
  "童@@": 16,
  "Kar@@": 16,
  "日于": 16,
  "块@@": 16,
  "董事长": 16,
  "热水器": 16,
  "æ": 16,
  "概率": 16,
  "两周": 16,
  "256": 16,
  "填方": 16,
  "第十九届": 16,
  "槽@@": 16,
  "气缸": 16,
  "ILB@@": 16,
  "钢级": 16,
  "运到": 16,
  "腿": 16,
  "玻璃钢": 16,
  "审计@@": 16,
  "牵@@": 16,
  "统计表": 16,
  "中所作": 16,
  "字样": 16,
  "空前": 16,
  "三角洲": 16,
  "乙烯": 16,
  "正常化": 16,
  "另行": 16,
  "螺@@": 16,
  "中空玻璃": 16,
  "出台": 16,
  "部委": 16,
  "伪造": 16,
  "H812": 16,
  "印刷@@": 16,
  "货物运输": 16,
  "调解人": 16,
  "审慎": 16,
  "触电": 16,
  "线段": 16,
  "杂费": 16,
  "荣誉": 16,
  "履@@": 16,
  "消费品": 16,
  "定子": 16,
  "专门@@": 16,
  "裂": 16,
  "缴@@": 16,
  "ї": 16,
  "资源分配": 16,
  "遇@@": 16,
  "锯材": 16,
  "意见@@": 16,
  "技术培训": 16,
  "逃": 16,
  "操作室": 16,
  "海湾": 16,
  "INF": 16,
  "抵抗": 16,
  "耐候": 16,
  "户主": 16,
  "第十次": 16,
  "帐单": 16,
  "废弃": 16,
  "强加": 16,
  "心里": 16,
  "车行道": 16,
  "国有企业": 16,
  "lin@@": 16,
  "幕": 16,
  "否定": 16,
  "保育": 16,
  "力度": 16,
  "503": 16,
  "肉类": 16,
  "乡": 16,
  "KS": 16,
  "勾@@": 16,
  "基加利": 16,
  "外汇@@": 16,
  "便是": 16,
  "负责管理": 16,
  "开关柜": 16,
  "外运": 16,
  "图集": 16,
  "立刻": 16,
  "通行证": 16,
  "倍@@": 16,
  "改革方案": 16,
  "此前": 16,
  "退回": 16,
  "426": 16,
  "游离": 16,
  "登记表": 16,
  "力图": 16,
  "煤炭": 16,
  "组态": 16,
  "54@@": 16,
  "1203": 16,
  "工艺@@": 16,
  "谋": 16,
  "断定": 16,
  "520": 16,
  "中是": 16,
  "矩阵": 16,
  "各不相同": 16,
  "忙": 16,
  "优先@@": 16,
  "欧姆": 16,
  "辩@@": 16,
  "诉人": 16,
  "有机物": 16,
  "泛": 16,
  "兑换": 16,
  "台阶": 16,
  "ρ": 16,
  "核心@@": 16,
  "农作物": 16,
  "壁垒": 16,
  "提高效率": 16,
  "益@@": 16,
  "沃尔@@": 16,
  "自主权": 16,
  "吸引力": 16,
  "空气污染": 16,
  "402": 16,
  "饮料": 16,
  "眼睛": 16,
  "逆": 16,
  "世界市场": 16,
  "补强": 16,
  "504": 16,
  "发生@@": 16,
  "一块": 16,
  "同行": 16,
  "巴塞尔": 16,
  "谱": 16,
  "稠度": 16,
  "组织法": 16,
  "合法权利": 16,
  "610": 16,
  "ind@@": 16,
  "查出": 16,
  "基石": 16,
  "预付": 16,
  "放射": 16,
  "编队": 16,
  "表示@@": 16,
  "异型": 16,
  "统": 16,
  "炭@@": 16,
  "尤为": 16,
  "约翰": 16,
  "研究生": 16,
  "卖@@": 16,
  "10mm": 16,
  "劳力": 16,
  "概括": 16,
  "螺旋@@": 16,
  "萨马拉州": 16,
  "弱点": 16,
  "230@@": 16,
  "函件": 16,
  "曾@@": 16,
  "厕所": 16,
  "2.11": 16,
  "生存能力": 16,
  "百慕大": 16,
  "民盟": 16,
  "航空航天": 16,
  "拒绝接受": 16,
  "规@@": 16,
  "索偿": 16,
  "律": 16,
  "行程": 16,
  "包裹": 16,
  "顾@@": 16,
  "her@@": 16,
  "限制器": 16,
  "公私": 16,
  "天主教": 16,
  "储气库": 16,
  "特许权": 16,
  "妥": 16,
  "隆@@": 16,
  "塑": 16,
  "来信": 16,
  "伸缩缝": 16,
  "航道": 16,
  "等离子": 16,
  "前提条件": 16,
  "综述": 16,
  "陶瓷": 16,
  "件@@": 16,
  "标的物": 16,
  "509": 16,
  "感觉": 16,
  "异径管": 16,
  "单项": 16,
  "刻度": 16,
  "铲@@": 16,
  "意识形态": 16,
  "农业@@": 16,
  "动力@@": 16,
  "塔姆": 16,
  "注意事项": 16,
  "骨": 16,
  "台湾": 16,
  "裁": 16,
  "反驳": 16,
  "耗费": 16,
  "带电": 16,
  "0.45": 16,
  "2.03": 16,
  "象@@": 16,
  "获释": 16,
  "较少": 16,
  "反导": 16,
  "宇@@": 16,
  "L.7": 16,
  "一式两份": 16,
  "定员": 16,
  "8mm": 16,
  "女儿墙": 16,
  "贫民窟": 16,
  "钚": 16,
  "同侪": 16,
  "虚@@": 16,
  "塌@@": 16,
  "隆": 16,
  "穷@@": 16,
  "停车位": 16,
  "愈@@": 16,
  "提供者": 16,
  "夺": 16,
  "判": 16,
  "培训中心": 16,
  "烈": 16,
  "同位素": 16,
  "光谱": 16,
  "乎": 16,
  "杂": 16,
  "有所改善": 16,
  "访@@": 16,
  "¼": 16,
  "普遍认为": 16,
  "从来": 16,
  "452": 16,
  "同日": 16,
  "照明灯": 16,
  "蓝@@": 16,
  "疏散出口": 16,
  "朝向": 16,
  "出生@@": 16,
  "驶@@": 16,
  "稍": 16,
  "实施@@": 16,
  "通信@@": 16,
  "癌": 16,
  "质量标准": 16,
  "保护环境": 16,
  "革": 16,
  "府": 16,
  "电涌": 16,
  "胶粘剂": 16,
  "all@@": 16,
  "军备竞赛": 16,
  "敦": 16,
  "工业区": 16,
  "高空": 16,
  "ect@@": 16,
  "兼容": 16,
  "熟@@": 16,
  "采暖系统": 16,
  "全人类": 16,
  "帽": 16,
  "虑": 16,
  "KT": 16,
  "UNEP": 16,
  "城乡": 16,
  "凝": 16,
  "匮乏": 16,
  "G1": 16,
  "NPT": 16,
  "里亚": 16,
  "劳工@@": 16,
  "中油": 16,
  "气举": 16,
  "门窗": 16,
  "宗教@@": 16,
  "彩@@": 16,
  "团队": 16,
  "因数": 16,
  "放下": 16,
  "闲@@": 16,
  "致意": 16,
  "加班费": 16,
  "所获": 16,
  "种族隔离": 16,
  "密封胶": 16,
  "碰撞": 16,
  "调查团": 16,
  "衡": 16,
  "佳": 16,
  "砌块": 16,
  "一般而言": 16,
  "转角": 16,
  "引爆": 16,
  "假期": 16,
  "运载工具": 16,
  "人员培训": 16,
  "生活费": 16,
  "积压": 16,
  "组别": 16,
  "危@@": 16,
  "淋@@": 16,
  "产权": 16,
  "作用力": 16,
  "运抵": 16,
  "频谱": 16,
  "麦": 16,
  "散装": 16,
  "酒@@": 16,
  "382": 16,
  "005": 16,
  "V2": 16,
  "浸": 16,
  "赶@@": 16,
  "浅@@": 16,
  "奶@@": 16,
  "复印": 16,
  "气态": 16,
  "灌木": 16,
  "国际收支": 16,
  "3.9": 16,
  "供应@@": 16,
  "定居者": 16,
  "托架": 16,
  "桑": 16,
  "非洲地区": 16,
  "0.02": 16,
  "潜艇": 16,
  "立体": 16,
  "卫生防疫": 16,
  "替代性": 16,
  "作业@@": 16,
  "长期以来": 16,
  "轻质": 16,
  "五次": 16,
  "禁试": 16,
  "百分点": 16,
  "锯@@": 16,
  "加强@@": 16,
  "担@@": 16,
  "幼儿": 16,
  "URL": 16,
  "扭矩": 16,
  "联大": 16,
  "过错": 16,
  "款人": 16,
  "延": 16,
  "中级": 16,
  "矿产资源": 16,
  "2A": 16,
  "群众": 16,
  "1955": 16,
  "该科": 16,
  "衡@@": 16,
  "应得": 16,
  "文第": 16,
  "酸洗": 16,
  "专利@@": 16,
  "60.@@": 16,
  "要件": 16,
  "电讯": 16,
  "盖子": 16,
  "牢": 16,
  "完全@@": 16,
  "服兵役": 16,
  "低价": 16,
  "预报": 16,
  "雷电": 16,
  "文凭": 16,
  "入帐": 16,
  "罗夫": 16,
  "钢索": 16,
  "非营利": 16,
  "编制工作": 16,
  "终端@@": 16,
  "良心": 16,
  "应能": 16,
  "衬砌": 16,
  "改装": 16,
  "海绵": 16,
  "水利枢纽": 16,
  "焦化": 16,
  "献": 16,
  "询": 16,
  "环发": 16,
  "深处": 16,
  "务必": 16,
  "Ex@@": 16,
  "失误": 16,
  "减让": 16,
  "借贷": 16,
  "WP@@": 16,
  "21@@": 16,
  "不罚": 16,
  "下沉": 16,
  "来讲": 16,
  "希": 16,
  "酯": 16,
  "173@@": 16,
  "_______": 16,
  "暗示": 16,
  "FT": 16,
  "挖出": 16,
  "刑@@": 16,
  "撰写": 16,
  "立法机关": 16,
  "浮": 16,
  "药皮": 16,
  "外籍": 16,
  "东欧国家": 16,
  "号码": 16,
  "搬迁": 16,
  "人员编制": 16,
  "额为": 16,
  "______________": 16,
  "抹@@": 16,
  "30m": 16,
  "简明": 16,
  "当量": 16,
  "N1": 16,
  "补偿器": 16,
  "榜样": 16,
  "架设": 16,
  "识字": 16,
  "排水管道": 16,
  "建筑设施": 16,
  "忘记": 16,
  "级配": 16,
  "TS": 16,
  "WG@@": 16,
  "衰@@": 16,
  "1267": 16,
  "PA": 16,
  "½": 16,
  "过多": 16,
  "拘押": 16,
  "帮@@": 16,
  "广播@@": 16,
  "搅拌机": 16,
  "中等@@": 16,
  "紧急状况": 16,
  "密克罗尼西亚联邦": 16,
  "98@@": 16,
  "尸体": 16,
  "坑@@": 16,
  "余地": 16,
  "通量": 16,
  "Sch@@": 16,
  "满足@@": 16,
  "事务局": 16,
  "首相": 16,
  "瓦斯": 16,
  "订于": 16,
  "草原": 16,
  "全会": 16,
  "880": 16,
  "拉力": 16,
  "列宁格勒": 16,
  "上网": 16,
  "辖区": 15,
  "寒": 15,
  "管式": 15,
  "安第斯": 15,
  "原定": 15,
  "疫@@": 15,
  "游说": 15,
  "脱除": 15,
  "血统": 15,
  "战略@@": 15,
  "使馆": 15,
  "空间@@": 15,
  "围护": 15,
  "服役": 15,
  "加入书": 15,
  "菲": 15,
  "隔开": 15,
  "学费": 15,
  "表达@@": 15,
  "促": 15,
  "周转": 15,
  "国民@@": 15,
  "地级市": 15,
  "名叫": 15,
  "克什米尔": 15,
  "277": 15,
  "检察": 15,
  "α": 15,
  "线上": 15,
  "瑙鲁": 15,
  "不带": 15,
  "石头": 15,
  "像@@": 15,
  "二氧化@@": 15,
  "一代": 15,
  "如上": 15,
  "充实": 15,
  "力学性能": 15,
  "D1": 15,
  "CCPR": 15,
  "骨料": 15,
  "00x@@": 15,
  "纪要": 15,
  "耳@@": 15,
  "灌注": 15,
  "设计阶段": 15,
  "差动": 15,
  "所罗门群岛": 15,
  "岛@@": 15,
  "倾倒": 15,
  "560": 15,
  "响": 15,
  "议": 15,
  "工业生产": 15,
  "旁边": 15,
  "ob@@": 15,
  "战俘": 15,
  "蒸@@": 15,
  "欧洲理事会": 15,
  "石膏": 15,
  "ј": 15,
  "注视": 15,
  "回填土": 15,
  "责任人": 15,
  "耐压": 15,
  "粗糙度": 15,
  "指导@@": 15,
  "接线箱": 15,
  "第比利斯": 15,
  "野生": 15,
  "开孔": 15,
  "栖@@": 15,
  "区域@@": 15,
  "慢@@": 15,
  "运往": 15,
  "勃@@": 15,
  "185@@": 15,
  "IDB.26": 15,
  "颗": 15,
  "战胜": 15,
  "下级": 15,
  "塔斯": 15,
  "输气管": 15,
  "面值": 15,
  "头上": 15,
  "109@@": 15,
  "W4": 15,
  "纯粹": 15,
  "宣@@": 15,
  "紧急行动": 15,
  "态@@": 15,
  "农业部门": 15,
  "L.19": 15,
  "第一百@@": 15,
  "掌@@": 15,
  "加药": 15,
  "反渗透": 15,
  "疫": 15,
  "互补性": 15,
  "分将": 15,
  "多达": 15,
  "与非": 15,
  "8.6": 15,
  "取缔": 15,
  "一向": 15,
  "攻@@": 15,
  "密闭": 15,
  "钻进": 15,
  "水层": 15,
  "协调@@": 15,
  "拉斯": 15,
  "19.2": 15,
  "0.1%": 15,
  "井身": 15,
  "细目": 15,
  "暴露": 15,
  "COM@@": 15,
  "前期": 15,
  "昆@@": 15,
  "祖国": 15,
  "养费": 15,
  "指挥机构": 15,
  "1402": 15,
  "鲜@@": 15,
  "参加国": 15,
  "CP.7": 15,
  "240@@": 15,
  "丆": 15,
  "2030": 15,
  "摇@@": 15,
  "法律依据": 15,
  "光源": 15,
  "复垦": 15,
  "栈桥": 15,
  "全线": 15,
  "余压": 15,
  "288": 15,
  "镍": 15,
  "NA@@": 15,
  "高加索": 15,
  "毫无@@": 15,
  "砾": 15,
  "脑@@": 15,
  "用水量": 15,
  "库克群岛": 15,
  "σ": 15,
  "描@@": 15,
  "温暖": 15,
  "Mar@@": 15,
  "污物": 15,
  "信号灯": 15,
  "困@@": 15,
  "筑@@": 15,
  "全境": 15,
  "Я": 15,
  "新闻媒体": 15,
  "加共体": 15,
  "sp@@": 15,
  "陷": 15,
  "投票@@": 15,
  "脏": 15,
  "大家庭": 15,
  "教徒": 15,
  "中均": 15,
  "泡": 15,
  "辅导": 15,
  "叶片": 15,
  "过失": 15,
  "风险管理": 15,
  "天花板": 15,
  "耳": 15,
  "贸易中心": 15,
  "派别": 15,
  "保修期": 15,
  "差值": 15,
  "预热器": 15,
  "两国@@": 15,
  "R1": 15,
  "绢": 15,
  "AN": 15,
  "质粒": 15,
  "og@@": 15,
  "2300": 15,
  "开放@@": 15,
  "四次": 15,
  "吉尔吉斯斯坦共和国": 15,
  "鼓@@": 15,
  "空袭": 15,
  "Í": 15,
  "max": 15,
  "EL": 15,
  "Sam@@": 15,
  "迅@@": 15,
  "晚上": 15,
  "束@@": 15,
  "溢流": 15,
  "上校": 15,
  "骨@@": 15,
  "检疫": 15,
  "再循环": 15,
  "前端": 15,
  "预案": 15,
  "枪@@": 15,
  "马拉": 15,
  "答": 15,
  "拨给": 15,
  "5m": 15,
  "瓶@@": 15,
  "和善": 15,
  "驾驶室": 15,
  "词汇": 15,
  "走访": 15,
  "隐患": 15,
  "配线架": 15,
  "污染源": 15,
  "DI": 15,
  "保证@@": 15,
  "决不能": 15,
  "剪切": 15,
  "矿体": 15,
  "无功": 15,
  "维亚": 15,
  "残酷": 15,
  "积层": 15,
  "武装集团": 15,
  "所长": 15,
  "流器": 15,
  "计划表": 15,
  "395": 15,
  "棉": 15,
  "压力计": 15,
  "城市化": 15,
  "军用": 15,
  "选矿厂": 15,
  "演习": 15,
  "反向": 15,
  "第三阶段": 15,
  "大使馆": 15,
  "进来": 15,
  "1103": 15,
  "黑人": 15,
  "服从": 15,
  "及第": 15,
  "竭尽全力": 15,
  "阅": 15,
  "科威特政府": 15,
  "签定": 15,
  "贫胺": 15,
  "台上": 15,
  "总则": 15,
  "或作": 15,
  "报警信号": 15,
  "防护用品": 15,
  "VA": 15,
  "教育部门": 15,
  "NA": 15,
  "面上": 15,
  "破碎机": 15,
  "价款": 15,
  "巴拉": 15,
  "105%": 15,
  "mol": 15,
  "产业@@": 15,
  "以下内容": 15,
  "航": 15,
  "绕行": 15,
  "挫折": 15,
  "居住区": 15,
  "遵约": 15,
  "各项政策": 15,
  "连接器": 15,
  "涨@@": 15,
  "绞@@": 15,
  "男童": 15,
  "离心@@": 15,
  "释": 15,
  "取水": 15,
  "防爆型": 15,
  "著名": 15,
  "遗传": 15,
  "防尘": 15,
  "体制改革": 15,
  "平均数": 15,
  "奉@@": 15,
  "丛@@": 15,
  "焊件": 15,
  "开除": 15,
  "伍@@": 15,
  "辞": 15,
  "脱乙烷": 15,
  "C30": 15,
  "试验@@": 15,
  "子孙": 15,
  "育": 15,
  "动火": 15,
  "怀": 15,
  "迟": 15,
  "美洲@@": 15,
  "亚太地区": 15,
  "植物@@": 15,
  "周期性": 15,
  "趋@@": 15,
  "内为": 15,
  "弧@@": 15,
  "能效": 15,
  "不容": 15,
  "薪资": 15,
  "国际性": 15,
  "降到": 15,
  "十分重视": 15,
  "非常任": 15,
  "人命": 15,
  "液硫@@": 15,
  "橡胶@@": 15,
  "281": 15,
  "里夫": 15,
  "旧版": 15,
  "纤维素": 15,
  "渴望": 15,
  "烟草": 15,
  "阴极": 15,
  "129@@": 15,
  "市区": 15,
  "三类": 15,
  "K1": 15,
  "专属经济区": 15,
  "土地@@": 15,
  "该所": 15,
  "日程": 15,
  "哥": 15,
  "美容": 15,
  "放样": 15,
  "审案": 15,
  "不好": 15,
  "休闲": 15,
  "ol": 15,
  "肆@@": 15,
  "安哥拉政府": 15,
  "河滩地": 15,
  "学者": 15,
  "二人": 15,
  "作品": 15,
  "提法": 15,
  "连杆": 15,
  "精算": 15,
  "第十条": 15,
  "寿@@": 15,
  "两人": 15,
  "RES": 15,
  "退": 15,
  "载重量": 15,
  "性健康": 15,
  "继续下去": 15,
  "喝": 15,
  "承办": 15,
  "时才": 15,
  "6mm": 15,
  "滑": 15,
  "圆钢": 15,
  "吩咐": 15,
  "第四十二届": 15,
  "史@@": 15,
  "随意": 15,
  "兰政府": 15,
  "SO@@": 15,
  "未予": 15,
  "Î": 15,
  "果断": 15,
  "报关": 15,
  "1202": 15,
  "地理@@": 15,
  "逼@@": 15,
  "加气": 15,
  "所能": 15,
  "洞口": 15,
  "情况@@": 15,
  "离心泵": 15,
  "沟渠": 15,
  "31.@@": 15,
  "pH": 15,
  "CF@@": 15,
  "答@@": 15,
  "人次": 15,
  "各人": 15,
  "斯塔@@": 15,
  "预算内": 15,
  "加以@@": 15,
  "结核病": 15,
  "灵敏度": 15,
  "分割": 15,
  "C0": 15,
  "合同@@": 15,
  "患有": 15,
  "巴斯": 15,
  "对准": 15,
  "鼓泡": 15,
  "考绩": 15,
  "357": 15,
  "行进": 15,
  "挖土机": 15,
  "承载": 15,
  "不可逆转": 15,
  "sh@@": 15,
  "轰炸": 15,
  "检测@@": 15,
  "荷兰政府": 15,
  "感到高兴": 15,
  "霍尔果斯": 15,
  "递延": 15,
  "5781": 15,
  "胶粘带": 15,
  "DN15": 15,
  "伍": 15,
  "25.@@": 15,
  "and": 15,
  "摘@@": 15,
  "参与@@": 15,
  "渔业@@": 15,
  "多功能": 15,
  "受欢迎": 15,
  "残": 15,
  "珍@@": 15,
  "一部": 15,
  "炉膛": 15,
  "规划@@": 15,
  "被判": 15,
  "商会": 15,
  "船上": 15,
  "印度尼西亚政府": 15,
  "高度重视": 15,
  "390": 15,
  "买卖": 15,
  "扩张": 15,
  "但应": 15,
  "方形": 15,
  "遣": 15,
  "戴@@": 15,
  "摄影": 15,
  "井底": 15,
  "美好": 15,
  "资源@@": 15,
  "候": 15,
  "律法": 15,
  "安全壳": 15,
  "尊@@": 15,
  "石灰岩": 15,
  "第十三条": 15,
  "IA": 15,
  "锡@@": 15,
  "集器": 15,
  "勇@@": 15,
  "适用法律": 15,
  "转达": 15,
  "毫升": 15,
  "狂@@": 15,
  "热情": 15,
  "低成本": 15,
  "消费量": 15,
  "接触器": 15,
  "问卷": 15,
  "_________": 15,
  "旅游@@": 15,
  "一经": 15,
  "第二十七届": 15,
  "松散": 15,
  "族@@": 15,
  "https": 15,
  "准入": 15,
  "积极支持": 15,
  "第一百": 15,
  "控制棒": 15,
  "山脉": 15,
  "su@@": 15,
  "电阻率": 15,
  "韩国": 15,
  "01.@@": 15,
  "拱@@": 15,
  "有益于": 15,
  "WP.@@": 15,
  "弟兄": 15,
  "宾@@": 15,
  "低合金钢": 15,
  "265": 15,
  "高昂": 15,
  "贸@@": 15,
  "执": 15,
  "假如": 15,
  "公司法": 15,
  "金钱": 15,
  "创新性": 15,
  "竞赛": 15,
  "服务站": 15,
  "火山@@": 15,
  "油料": 15,
  "反叛": 15,
  "鼻@@": 15,
  "身心健康": 15,
  "伦理": 15,
  "大胆": 15,
  "国防军": 15,
  "0855": 15,
  "额定电流": 15,
  "喷砂": 15,
  "射孔": 15,
  "汤加": 15,
  "反洗": 15,
  "男女之间": 15,
  "时数": 15,
  "铝合金": 15,
  "记住": 15,
  "晶": 15,
  "千伏安": 15,
  "公差": 15,
  "粘胶": 15,
  "硝@@": 15,
  "刚度": 15,
  "该股": 15,
  "4.13130": 15,
  "六种": 15,
  "08.00": 15,
  "情节": 15,
  "敬意": 15,
  "易受": 15,
  "相互尊重": 14,
  "以利": 14,
  "受雇": 14,
  "功@@": 14,
  "伊斯坦布尔": 14,
  "浴": 14,
  "儿童@@": 14,
  "抵": 14,
  "即便": 14,
  "中性": 14,
  "保险公司": 14,
  "百名": 14,
  "资料@@": 14,
  "Ar@@": 14,
  "业经": 14,
  "屏@@": 14,
  "燃烧@@": 14,
  "遥@@": 14,
  "美丽": 14,
  "荒漠": 14,
  "0.2%": 14,
  "合闸": 14,
  "所行": 14,
  "杀菌": 14,
  "识字率": 14,
  "载运": 14,
  "中央政府": 14,
  "明智": 14,
  "阵地": 14,
  "戒@@": 14,
  "突击": 14,
  "319": 14,
  "010@@": 14,
  "航空公司": 14,
  "使人": 14,
  "精馏塔": 14,
  "迁徙": 14,
  "符合条件": 14,
  "婴": 14,
  "公共汽车": 14,
  "491": 14,
  "隔间": 14,
  "携手": 14,
  "一日": 14,
  "金矿": 14,
  "纯度": 14,
  "ICEF": 14,
  "亚共和国": 14,
  "睦@@": 14,
  "AB": 14,
  "隔": 14,
  "景观": 14,
  "融": 14,
  "432": 14,
  "发包人": 14,
  "365": 14,
  "交流@@": 14,
  "公路@@": 14,
  "有时候": 14,
  "损毁": 14,
  "喜欢": 14,
  "接至": 14,
  "海盗": 14,
  "据估计": 14,
  "斯科": 14,
  "例行": 14,
  "伐@@": 14,
  "KC": 14,
  "冲积": 14,
  "内载": 14,
  "半年": 14,
  "圣彼得堡": 14,
  "力学": 14,
  "多人": 14,
  "运输费": 14,
  "一整套": 14,
  "猪": 14,
  "接下来": 14,
  "政令": 14,
  "继电保护": 14,
  "庇护所": 14,
  "通信网": 14,
  "边际": 14,
  "Ó": 14,
  "大会堂": 14,
  "访谈": 14,
  "糖": 14,
  "开端": 14,
  "贮": 14,
  "军事院校": 14,
  "维尔": 14,
  "і": 14,
  "行星": 14,
  "发出通知": 14,
  "备案": 14,
  "压井": 14,
  "氮@@": 14,
  "果": 14,
  "久@@": 14,
  "稳步": 14,
  "L.8": 14,
  "钢轨": 14,
  "if@@": 14,
  "转到": 14,
  "梦@@": 14,
  "马拉@@": 14,
  "45%": 14,
  "双边协定": 14,
  "流经": 14,
  "联营": 14,
  "重整": 14,
  "进去": 14,
  "向本": 14,
  "1945": 14,
  "技@@": 14,
  "款下": 14,
  "TP@@": 14,
  "灰岩": 14,
  "255": 14,
  "两大": 14,
  "戏@@": 14,
  "验": 14,
  "题": 14,
  "外面": 14,
  "ass@@": 14,
  "母语": 14,
  "宿": 14,
  "反垄断": 14,
  "辅助@@": 14,
  "中旬": 14,
  "健@@": 14,
  "重油": 14,
  "3.01": 14,
  "行走": 14,
  "浓": 14,
  "开具": 14,
  "遗弃": 14,
  "航运": 14,
  "锚栓": 14,
  "道路交通": 14,
  "古伊": 14,
  "提具": 14,
  "图例": 14,
  "听见": 14,
  "274": 14,
  "工业部": 14,
  "工业部门": 14,
  "比值": 14,
  "洋@@": 14,
  "水电": 14,
  "承力": 14,
  "桩基": 14,
  "野": 14,
  "规章制度": 14,
  "公吨": 14,
  "刑事犯罪": 14,
  "决策@@": 14,
  "基数": 14,
  "支持@@": 14,
  "空白": 14,
  "阀座": 14,
  "518": 14,
  "磨机": 14,
  "演练": 14,
  "夹芯板": 14,
  "喀布尔": 14,
  "这会": 14,
  "特别强调": 14,
  "5.00": 14,
  "氏": 14,
  "套损": 14,
  "IN": 14,
  "序": 14,
  "∅": 14,
  "回避": 14,
  "漆@@": 14,
  "泄": 14,
  "人均收入": 14,
  "1A": 14,
  "一栏": 14,
  "非暴力": 14,
  "裁判": 14,
  "变速箱": 14,
  "收支": 14,
  "劳工法": 14,
  "七年": 14,
  "物理学": 14,
  "疏忽": 14,
  "东南": 14,
  "预支": 14,
  "口粮": 14,
  "下陷": 14,
  "块状": 14,
  "气孔": 14,
  "FV@@": 14,
  "揭露": 14,
  "所知": 14,
  "分立": 14,
  "制取": 14,
  "IEC": 14,
  "抗渗": 14,
  "服务业": 14,
  "升至": 14,
  "策划": 14,
  "6.10": 14,
  "经合": 14,
  "培@@": 14,
  "超长": 14,
  "XV": 14,
  "局限": 14,
  "放宽": 14,
  "表面@@": 14,
  "万维网": 14,
  "TC@@": 14,
  "社会群体": 14,
  "南区": 14,
  "生物质": 14,
  "坚实": 14,
  "汽机": 14,
  "黄色": 14,
  "看守": 14,
  "家务": 14,
  "人民政府": 14,
  "ppm": 14,
  "Pro@@": 14,
  "型钢": 14,
  "2202": 14,
  "需在": 14,
  "虚拟": 14,
  "属性": 14,
  "布拉克": 14,
  "二氧化硫": 14,
  "机动车辆": 14,
  "da": 14,
  "饭": 14,
  "TS@@": 14,
  "滑油": 14,
  "能耗": 14,
  "态势": 14,
  "383": 14,
  "串": 14,
  "领导层": 14,
  "解除合同": 14,
  "生活水准": 14,
  "101.325": 14,
  "车辆@@": 14,
  "突": 14,
  "ub@@": 14,
  "符合@@": 14,
  "法兰@@": 14,
  "is": 14,
  "刺@@": 14,
  "1m": 14,
  "油库": 14,
  "有色金属": 14,
  "症状": 14,
  "转帐": 14,
  "现金流量": 14,
  "认": 14,
  "老化": 14,
  "召": 14,
  "推翻": 14,
  "─": 14,
  "统计局": 14,
  "缓和": 14,
  "津@@": 14,
  "斯克@@": 14,
  "生产工艺": 14,
  "操作系统": 14,
  "停产": 14,
  "锭": 14,
  "找@@": 14,
  "垫@@": 14,
  "963": 14,
  "问责": 14,
  "标牌": 14,
  "排料": 14,
  "分隔": 14,
  "1.13130": 14,
  "决算": 14,
  "模块化": 14,
  "瘤": 14,
  "施工工艺": 14,
  "骑@@": 14,
  "自律": 14,
  "现存": 14,
  "边防": 14,
  "620": 14,
  "为数": 14,
  "电力供应": 14,
  "组和": 14,
  "棚@@": 14,
  "培育": 14,
  "萨曼杰": 14,
  "开发银行": 14,
  "山地": 14,
  "沸腾": 14,
  "海拔": 14,
  "敌意": 14,
  "艺术@@": 14,
  "铺板": 14,
  "接受@@": 14,
  "通过培训": 14,
  "垃圾@@": 14,
  "飞行员": 14,
  "列国": 14,
  "失业者": 14,
  "海报": 14,
  "预警系统": 14,
  "279": 14,
  "体面": 14,
  "结冰": 14,
  "酬金": 14,
  "年鉴": 14,
  "11.2": 14,
  "充气": 14,
  "裁研": 14,
  "请求书": 14,
  "嫌疑": 14,
  "彼@@": 14,
  "缆": 14,
  "收缴": 14,
  "气点": 14,
  "一只": 14,
  "估@@": 14,
  "复制件": 14,
  "圣彼得堡市": 14,
  "溢@@": 14,
  "水准": 14,
  "五十": 14,
  "进风": 14,
  "战役": 14,
  "阿拉伯语": 14,
  "1.05": 14,
  "297": 14,
  "运营商": 14,
  "色谱": 14,
  "要项": 14,
  "水气": 14,
  "硫酸@@": 14,
  "摄@@": 14,
  "采访": 14,
  "德尔": 14,
  "不懈努力": 14,
  "奴隶": 14,
  "272": 14,
  "模量": 14,
  "1104": 14,
  "避难": 14,
  "435": 14,
  "云@@": 14,
  "欠缺": 14,
  "只会": 14,
  "售": 14,
  "进厂": 14,
  "流水线": 14,
  "国产": 14,
  "每层": 14,
  "粘性": 14,
  "扶养": 14,
  "多元": 14,
  "ISO@@": 14,
  "梯度": 14,
  "障碍物": 14,
  "行为准则": 14,
  "QC": 14,
  "偏低": 14,
  "戈兰": 14,
  "精神药物": 14,
  "上届": 14,
  "项目部": 14,
  "接触面": 14,
  "预算@@": 14,
  "捷克": 14,
  "意向": 14,
  "拒": 14,
  "２": 14,
  "突发": 14,
  "500kV": 14,
  "临时性": 14,
  "1250": 14,
  "纪@@": 14,
  "男生": 14,
  "戴": 14,
  "600mm": 14,
  "成形": 14,
  "乌拉尔河": 14,
  "南美洲": 14,
  "EC@@": 14,
  "起因": 14,
  "1160": 14,
  "607": 14,
  "电量": 14,
  "534": 14,
  "川": 14,
  "3.02": 14,
  "清扫": 14,
  "有所@@": 14,
  "DA@@": 14,
  "挪@@": 14,
  "说话": 14,
  "车库": 14,
  "进场": 14,
  "毛": 14,
  "赢得": 14,
  "1.35": 14,
  "简短": 14,
  "圈闭": 14,
  "HV@@": 14,
  "em@@": 14,
  "DE@@": 14,
  "比赛": 14,
  "裂解": 14,
  "芬@@": 14,
  "占地": 14,
  "语音": 14,
  "408": 14,
  "293": 14,
  "16%": 14,
  "侨民": 14,
  "克拉斯诺亚尔斯克": 14,
  "布线": 14,
  "裔": 14,
  "冷冻": 14,
  "结成": 14,
  "不均": 14,
  "卜@@": 14,
  "上报": 14,
  "下落": 14,
  "喷嘴": 14,
  "印章": 14,
  "盐酸": 14,
  "争辩": 14,
  "AP": 14,
  "兴起": 14,
  "地表水": 14,
  "国为": 14,
  "控制措施": 14,
  "善意": 14,
  "无法控制": 14,
  "实况": 14,
  "肺结核": 14,
  "283": 14,
  "282": 14,
  "译员": 14,
  "数次": 14,
  "△": 14,
  "筹委会": 14,
  "安全法": 14,
  "校舍": 14,
  "递": 14,
  "339": 14,
  "书目": 14,
  "受检": 14,
  "1941": 14,
  "着陆": 14,
  "污油": 14,
  "翼@@": 14,
  "最起码": 14,
  "济@@": 14,
  "L.2": 14,
  "电弧": 14,
  "广义": 14,
  "溶": 14,
  "盈余": 14,
  "TC": 14,
  "317": 14,
  "应税": 14,
  "289": 14,
  "消防站": 14,
  "输油管": 14,
  "三位": 14,
  "第三十七届": 14,
  "单台": 14,
  "同盟": 14,
  "牢房": 14,
  "痕迹": 14,
  "折算": 14,
  "730": 14,
  "厨房": 14,
  "爱国": 14,
  "命@@": 14,
  "滞@@": 14,
  "Triazavirin": 14,
  "极端主义": 14,
  "11.3": 14,
  "悬而未决": 14,
  "共同利益": 14,
  "儿女": 14,
  "戈尔": 14,
  "沟槽": 14,
  "遵行": 14,
  "滑动": 14,
  "堵": 14,
  "井眼": 14,
  "3.10": 14,
  "扬声器": 14,
  "意大利政府": 14,
  "640": 14,
  "行人": 14,
  "催@@": 14,
  "托管": 14,
  "of@@": 14,
  "详@@": 14,
  "矿脉": 14,
  "浸渍": 14,
  "培训@@": 14,
  "资质": 14,
  "所设": 14,
  "1946": 14,
  "挂@@": 14,
  "建筑业": 14,
  "拉紧": 14,
  "有效@@": 14,
  "抽出": 14,
  "风门": 14,
  "回炉": 14,
  "Mo@@": 14,
  "端口": 14,
  "旗": 14,
  "列示": 14,
  "串@@": 14,
  "加装": 14,
  "是@@": 14,
  "园@@": 14,
  "迈进": 14,
  "漫长": 14,
  "旅客": 14,
  "频道": 14,
  "画面": 14,
  "按下": 14,
  "墙上": 14,
  "独立宣言": 14,
  "格拉": 14,
  "杂项收入": 14,
  "371": 14,
  "ex@@": 14,
  "归档": 14,
  "287": 14,
  "乎@@": 14,
  "电平": 14,
  "质量@@": 14,
  "外交使团": 14,
  "特殊要求": 14,
  "核苷": 14,
  "上岗": 14,
  "630": 14,
  "惟@@": 14,
  "比较@@": 14,
  "黄铁矿": 14,
  "交互": 14,
  "知名人士": 14,
  "T703": 14,
  "亿人": 14,
  "发展前景": 14,
  "5000@@": 14,
  "反过来": 14,
  "评级": 14,
  "气源": 14,
  "秋@@": 14,
  "3m": 14,
  "法定@@": 14,
  "13%": 14,
  "立管": 14,
  "名为": 14,
  "主持人": 14,
  "昨天": 14,
  "收获": 14,
  "登记处": 14,
  "该厅": 14,
  "选项": 14,
  "尼亚@@": 14,
  "iyah": 14,
  "100x@@": 14,
  "致密": 14,
  "南联盟": 14,
  "复审": 14,
  "地下资源": 14,
  "可为": 14,
  "现成": 14,
  "油位": 13,
  "Add.7": 13,
  "笼统": 13,
  "水槽": 13,
  "吊销": 13,
  "呼@@": 13,
  "经济援助": 13,
  "友好关系": 13,
  "币": 13,
  "挖方": 13,
  "就是说": 13,
  "活产": 13,
  "第三批": 13,
  "排污@@": 13,
  "364": 13,
  "确保安全": 13,
  "¹": 13,
  "8000": 13,
  "347": 13,
  "继@@": 13,
  "情绪": 13,
  "七月": 13,
  "牌@@": 13,
  "严密": 13,
  "353": 13,
  "各种类型": 13,
  "外壁": 13,
  "试用": 13,
  "时向": 13,
  "379": 13,
  "急剧下降": 13,
  "三国": 13,
  "办公楼": 13,
  "电控": 13,
  "现实情况": 13,
  "抢@@": 13,
  "多于": 13,
  "第十": 13,
  "H806": 13,
  "示威": 13,
  "波多黎各": 13,
  "进一步提高": 13,
  "默认": 13,
  "耐火@@": 13,
  "行政法院": 13,
  "354": 13,
  "信通": 13,
  "野蛮": 13,
  "开曼群岛": 13,
  "水口": 13,
  "信仰自由": 13,
  "是否是": 13,
  "增长速度": 13,
  "DC@@": 13,
  "叶轮": 13,
  "犯@@": 13,
  "MIS@@": 13,
  "专用工具": 13,
  "为例": 13,
  "Di@@": 13,
  "机票": 13,
  "第十四次": 13,
  "备有": 13,
  "技术指标": 13,
  "适用性": 13,
  "三厂": 13,
  "充分发挥": 13,
  "海洋生物": 13,
  "钢铁": 13,
  "土墙": 13,
  "海里": 13,
  "小规模": 13,
  "六次": 13,
  "志@@": 13,
  "294": 13,
  "亮@@": 13,
  "#@@": 13,
  "明示": 13,
  "液流": 13,
  "477": 13,
  "逸": 13,
  "9.0": 13,
  "利息收入": 13,
  "平板": 13,
  "分数": 13,
  "培": 13,
  "岛上": 13,
  "武器@@": 13,
  "诉讼@@": 13,
  "医疗保险": 13,
  "移至": 13,
  "危险区": 13,
  "奥斯@@": 13,
  "单机": 13,
  "机械性能": 13,
  "情势": 13,
  "主导地位": 13,
  "桌": 13,
  "137@@": 13,
  "22.5": 13,
  "陈旧": 13,
  "应先": 13,
  "对流": 13,
  "庄严": 13,
  "震惊": 13,
  "刊物": 13,
  "六名": 13,
  "象征": 13,
  "轻微": 13,
  "委派": 13,
  "１": 13,
  "运输系统": 13,
  "遥远": 13,
  "日为": 13,
  "时起": 13,
  "敏感性": 13,
  "调配": 13,
  "冲压": 13,
  "轰@@": 13,
  "就位": 13,
  "这点": 13,
  "衬垫": 13,
  "五天": 13,
  "未成年": 13,
  "聚结": 13,
  "国主义": 13,
  "居民区": 13,
  "示意": 13,
  "显得": 13,
  "粘合剂": 13,
  "TiCl4": 13,
  "喀山": 13,
  "输水管": 13,
  "交叉处": 13,
  "阻抗": 13,
  "策": 13,
  "地方@@": 13,
  "喝@@": 13,
  "安全带": 13,
  "房子": 13,
  "节日": 13,
  "歪曲": 13,
  "朱@@": 13,
  "计量泵": 13,
  "宏观": 13,
  "始": 13,
  "惠@@": 13,
  "潮湿": 13,
  "疲@@": 13,
  "决": 13,
  "特有": 13,
  "开裂": 13,
  "囊": 13,
  "机车车辆": 13,
  "相适应": 13,
  "水生": 13,
  "晚于": 13,
  "52%": 13,
  "259": 13,
  "安全部门": 13,
  "乙烷": 13,
  "警卫@@": 13,
  "118@@": 13,
  "一端": 13,
  "本金": 13,
  "客体": 13,
  "写明": 13,
  "施工人员": 13,
  "研所": 13,
  "拆毁": 13,
  "抗冻": 13,
  "219@@": 13,
  "养育": 13,
  "裂隙": 13,
  "变量": 13,
  "化物": 13,
  "EX": 13,
  "转弯": 13,
  "金融部门": 13,
  "一封信": 13,
  "总人口": 13,
  "商人": 13,
  "照度": 13,
  "②": 13,
  "草坪": 13,
  "第二十六届": 13,
  "高铁": 13,
  "依赖于": 13,
  "泥土": 13,
  "普遍存在": 13,
  "编织": 13,
  "插": 13,
  "12.4": 13,
  "沙尔": 13,
  "标准规范": 13,
  "焊机": 13,
  "恒定": 13,
  "372": 13,
  "本区": 13,
  "农业部": 13,
  "................................@@": 13,
  "盘管": 13,
  "异径": 13,
  "˙": 13,
  "LED": 13,
  "708": 13,
  "32.@@": 13,
  "交点": 13,
  "还给": 13,
  "根深蒂固": 13,
  "10m": 13,
  "轿车": 13,
  "而作": 13,
  "辐照": 13,
  "安卡拉": 13,
  "圆柱": 13,
  "地缘": 13,
  "296": 13,
  "刨@@": 13,
  "各州": 13,
  "An@@": 13,
  "卡拉姆": 13,
  "厄": 13,
  "大都": 13,
  "隆起": 13,
  "水阀": 13,
  "闪长岩": 13,
  "总公司": 13,
  "CCW": 13,
  "地势": 13,
  "检定": 13,
  "反而": 13,
  "挣@@": 13,
  "Ca@@": 13,
  "不太": 13,
  "金属管": 13,
  "x4": 13,
  "电抗器": 13,
  "筒@@": 13,
  "SM@@": 13,
  ".6": 13,
  "金沙萨": 13,
  "转载": 13,
  "ing@@": 13,
  "宗@@": 13,
  "金融资产": 13,
  "步行": 13,
  "交联": 13,
  "卡箍": 13,
  "转油": 13,
  "决不": 13,
  "支流": 13,
  "导管": 13,
  "___________": 13,
  "巧@@": 13,
  "助益": 13,
  "麻管局": 13,
  "胎@@": 13,
  "392": 13,
  "伏@@": 13,
  "帕拉": 13,
  "é": 13,
  "522": 13,
  "消费税": 13,
  "生化": 13,
  "HSES": 13,
  "外层": 13,
  "可不": 13,
  "跨境": 13,
  "屈@@": 13,
  "坠落": 13,
  "推销": 13,
  "基准线": 13,
  "占领区": 13,
  "带头": 13,
  "压降": 13,
  "HF": 13,
  "北美洲": 13,
  "战士": 13,
  "短时": 13,
  "事后": 13,
  "毫无根据": 13,
  "局域网": 13,
  "东非": 13,
  "共同市场": 13,
  "消息来源": 13,
  "SI": 13,
  "战略目标": 13,
  "利亚政府": 13,
  "撑": 13,
  "第四款": 13,
  "高等职业": 13,
  "页码": 13,
  "10.9": 13,
  "T47@@": 13,
  "漏斗": 13,
  "TE": 13,
  "坐": 13,
  "选票": 13,
  "可研": 13,
  "标示": 13,
  "参与方": 13,
  "贪污": 13,
  "C20": 13,
  "x6": 13,
  "餐@@": 13,
  "720": 13,
  "成型机": 13,
  "货款": 13,
  "填充物": 13,
  "定压": 13,
  "悉": 13,
  "保持联系": 13,
  "含水量": 13,
  "职业病": 13,
  "反贪污": 13,
  "持有人": 13,
  "无偿": 13,
  "菌@@": 13,
  "决策机构": 13,
  "磷": 13,
  "欧洲@@": 13,
  "难度": 13,
  "第五节": 13,
  "殖民": 13,
  "47.@@": 13,
  "配电网": 13,
  "斡旋": 13,
  "幸福": 13,
  "295": 13,
  "排烟": 13,
  "出水": 13,
  "第十一次": 13,
  "it": 13,
  "城市@@": 13,
  "不晚": 13,
  "鞍@@": 13,
  "制定@@": 13,
  "借款人": 13,
  "集合": 13,
  "马尔维纳斯": 13,
  "援@@": 13,
  "汽车@@": 13,
  "归咎于": 13,
  "3262": 13,
  "米拉": 13,
  "37.@@": 13,
  "职业@@": 13,
  "利用@@": 13,
  "®": 13,
  "行为能力": 13,
  "铁塔": 13,
  "外贸": 13,
  "质保": 13,
  "密码": 13,
  "放款": 13,
  "伊尔": 13,
  "顽@@": 13,
  "键@@": 13,
  "娱乐@@": 13,
  "第四十八届": 13,
  "SG@@": 13,
  "幸@@": 13,
  "码@@": 13,
  "可控": 13,
  "同其": 13,
  "玻璃纤维": 13,
  "柴@@": 13,
  "跨度": 13,
  "kA": 13,
  "分布图": 13,
  "叛军": 13,
  "未经许可": 13,
  "亿吨": 13,
  "335": 13,
  "所持": 13,
  "账@@": 13,
  "反思": 13,
  "浪费": 13,
  "ud@@": 13,
  "盖章": 13,
  "通电": 13,
  "荣@@": 13,
  "威": 13,
  "分设": 13,
  "缅@@": 13,
  "集团公司": 13,
  "声纳": 13,
  "278": 13,
  "喷涂": 13,
  "中说": 13,
  "本期": 13,
  "EP@@": 13,
  "第二段": 13,
  "万国@@": 13,
  "紧要": 13,
  "磨碎": 13,
  "享@@": 13,
  "扎伊尔": 13,
  "导热": 13,
  "排水@@": 13,
  "大大增加": 13,
  "本土": 13,
  "副博士": 13,
  "岩土": 13,
  "不大": 13,
  "387": 13,
  "限期": 13,
  "检查报告": 13,
  "斜度": 13,
  "挤@@": 13,
  "加倍努力": 13,
  "厌@@": 13,
  "专业培训": 13,
  "恨": 13,
  "奶": 13,
  "联轴器": 13,
  "目睹": 13,
  "局限性": 13,
  "案中": 13,
  "管中": 13,
  "参数值": 13,
  "预制板": 13,
  "航空兵": 13,
  "PV": 13,
  "几十@@": 13,
  "投了": 13,
  "灾@@": 13,
  "加工厂": 13,
  "经济效益": 13,
  "未获": 13,
  "kv": 13,
  "冒": 13,
  "um": 13,
  "反对党": 13,
  "烤": 13,
  "不计": 13,
  "毁灭": 13,
  "量化": 13,
  "涵洞": 13,
  "丹@@": 13,
  "地向": 13,
  "蒙受": 13,
  "压紧": 13,
  "表演": 13,
  "定型": 13,
  "滥@@": 13,
  "硼酸": 13,
  "309": 13,
  "出入口": 13,
  "战时": 13,
  "川庆": 13,
  "放射性物质": 13,
  "蔬菜": 13,
  "轮调": 13,
  "账目": 13,
  "私立": 13,
  "防护罩": 13,
  "畅通": 13,
  "提供@@": 13,
  "顶面": 13,
  "ad": 13,
  "H2@@": 13,
  "宽容": 13,
  "手术": 13,
  "端头": 13,
  "L1": 13,
  "点燃": 13,
  "卸下": 13,
  "降落": 13,
  "氯化物": 13,
  "价格表": 13,
  "不佳": 13,
  "投资额": 13,
  "著作": 13,
  "妥当": 13,
  "锥": 13,
  "超声": 13,
  "相干": 13,
  "法定代表": 13,
  "314": 13,
  "起着": 13,
  "大桥": 13,
  "即应": 13,
  "灭@@": 13,
  "途中": 13,
  "伸": 13,
  "锰": 13,
  "敞@@": 13,
  "不许": 13,
  "回国": 13,
  "É": 13,
  "再用": 13,
  "864": 13,
  "L.31": 13,
  "崩溃": 13,
  "银行业务": 13,
  "摩": 13,
  "3x@@": 13,
  "298": 13,
  "往年": 13,
  "信号机": 13,
  "盲@@": 13,
  "误解": 13,
  "僵局": 13,
  "欧共体": 13,
  "震": 13,
  "消防车": 13,
  "1403": 13,
  "密封件": 13,
  "续@@": 13,
  "兑": 13,
  "打死": 13,
  "包壳": 13,
  "彻底消除": 13,
  "通讯设备": 13,
  "抓住": 13,
  "35.@@": 13,
  "将军": 13,
  "衔接": 13,
  "利润@@": 13,
  "包装@@": 13,
  "庞大": 13,
  "何处": 13,
  "桌子": 13,
  "成年": 13,
  "教育工作者": 13,
  "外围": 13,
  "营业@@": 13,
  "对话@@": 13,
  "军事力量": 13,
  "ht@@": 13,
  "考古": 13,
  "降雨": 13,
  "提示": 13,
  "减除": 13,
  "第八章": 13,
  "越境": 13,
  "巡逻队": 13,
  "中压": 13,
  "气罐": 13,
  "丘": 13,
  "有何": 13,
  "第三十三届": 13,
  "注释": 13,
  "US": 13,
  "太平洋地区": 13,
  "中继": 13,
  "金伯利": 13,
  "证券@@": 13,
  "455": 13,
  "留存": 13,
  "505": 13,
  "摩尔": 13,
  "1800": 13,
  "334": 13,
  "条约法": 13,
  "放松": 13,
  "融化": 13,
  "开头": 13,
  "烟道": 13,
  "本节": 13,
  "余下": 13,
  "发展趋势": 13,
  "打入": 13,
  "实心": 13,
  "载体": 13,
  "ra": 13,
  "投保": 13,
  "佳@@": 13,
  "苯酚": 13,
  "菜": 13,
  "劣@@": 13,
  "矿场": 13,
  "叙@@": 13,
  "金属材料": 13,
  "合乎": 13,
  "提出异议": 13,
  "肋": 13,
  "国际贸易中心": 13,
  "狭窄": 13,
  "电解": 13,
  "新西伯利亚": 13,
  "予@@": 13,
  "外流": 13,
  "硕士": 13,
  "正好": 13,
  "淤泥": 13,
  "各区": 13,
  "器件": 13,
  "极限值": 13,
  "坝体": 13,
  "赔偿损失": 13,
  "利政府": 13,
  "ON": 13,
  "碾压": 13,
  "毫不@@": 13,
  "边远地区": 13,
  "受限制": 13,
  "ir": 13,
  "铸件": 13,
  "外侨": 13,
  "重新部署": 13,
  "分期": 13,
  "管理费用": 13,
  "喷": 13,
  "录像": 13,
  "按着": 13,
  "四项": 13,
  "印度@@": 13,
  "分离@@": 13,
  "妻": 13,
  "多边条约": 13,
  "IL@@": 13,
  "肥": 13,
  "51@@": 13,
  "多国部队": 13,
  "调解@@": 13,
  "通告": 13,
  "监": 13,
  "环氧树脂": 13,
  "锥形": 13,
  "2000m3": 13,
  "人应": 13,
  "311": 13,
  "深井": 13,
  "水平@@": 13,
  "预埋": 13,
  "效@@": 13,
  "印度洋": 13,
  "段时间": 13,
  "袭": 13,
  "证据不足": 13,
  "大赦": 13,
  "背后": 13,
  "个人身份": 13,
  "增效": 13,
  "平滑": 13,
  "等效": 13,
  "铁矿": 13,
  "银行担保": 13,
  "庆": 13,
  "410@@": 13,
  "常压": 13,
  "FO@@": 13,
  "葡萄牙@@": 13,
  "时间@@": 12,
  "政策措施": 12,
  "螺杆": 12,
  "空间数据": 12,
  "385": 12,
  "403": 12,
  "遗属": 12,
  "前来": 12,
  "可燃@@": 12,
  "企业@@": 12,
  "欧亚": 12,
  "罐底": 12,
  "托夫": 12,
  "2600": 12,
  "牵头": 12,
  "急性": 12,
  "应付账款": 12,
  "塔板": 12,
  "在政治上": 12,
  "杀死": 12,
  "02.@@": 12,
  "随之": 12,
  "沟道": 12,
  "签署国": 12,
  "训练班": 12,
  "升温": 12,
  "而已": 12,
  "合法化": 12,
  "丰@@": 12,
  "产后": 12,
  "五十周年": 12,
  "地籍": 12,
  "钢质": 12,
  "亚洲开发银行": 12,
  "东北部": 12,
  "十四": 12,
  "枯@@": 12,
  "Ⅳ": 12,
  "郊@@": 12,
  "井内": 12,
  "年产": 12,
  "乌德": 12,
  "冲刷": 12,
  "ⅹ": 12,
  "引至": 12,
  "2.00": 12,
  "20G": 12,
  "符合国际": 12,
  "运河": 12,
  "普遍@@": 12,
  "等值": 12,
  "席@@": 12,
  "358": 12,
  "应负": 12,
  "计划外": 12,
  "尼科西亚": 12,
  "熄灭": 12,
  "受权": 12,
  "16.2": 12,
  "归纳": 12,
  "海湾合作委员会": 12,
  "罕": 12,
  "ker": 12,
  "佐证": 12,
  "偿还债务": 12,
  "715": 12,
  "对非": 12,
  "通信线路": 12,
  "船长": 12,
  "ari": 12,
  "控制站": 12,
  "Am@@": 12,
  "105@@": 12,
  "通盘": 12,
  "分布@@": 12,
  "相符合": 12,
  "审判程序": 12,
  "十字@@": 12,
  "外侧": 12,
  "稳定@@": 12,
  "社会科学": 12,
  "3.03": 12,
  "区域环境": 12,
  "物理@@": 12,
  "战斗机": 12,
  "视听": 12,
  "叠@@": 12,
  "不分@@": 12,
  "地沟": 12,
  "行者": 12,
  "充分认识": 12,
  "日益严重": 12,
  "人口普查": 12,
  "项目管理": 12,
  "思维": 12,
  "房租": 12,
  "婚姻@@": 12,
  "细致": 12,
  "器械": 12,
  "牧场": 12,
  "转发": 12,
  "IP54": 12,
  "9544": 12,
  "周转基金": 12,
  "国家有关": 12,
  "织物": 12,
  "于本": 12,
  "沙丘": 12,
  "基本要素": 12,
  "携@@": 12,
  "乃至": 12,
  "大为": 12,
  "秋": 12,
  "克隆": 12,
  "买主": 12,
  "CRP.2": 12,
  "就读": 12,
  "堆场": 12,
  "1500@@": 12,
  "有利条件": 12,
  "半岛": 12,
  "第七次": 12,
  "减弱": 12,
  "园区": 12,
  "景": 12,
  "催化": 12,
  "起伏": 12,
  "健康权": 12,
  "过重": 12,
  "前后一致": 12,
  "返修": 12,
  "草地": 12,
  "互补": 12,
  "民主联盟": 12,
  "圈梁": 12,
  "举例@@": 12,
  "顺利@@": 12,
  "抵制": 12,
  "佣@@": 12,
  "系统性": 12,
  "基阵": 12,
  "多孔": 12,
  "毫无道理": 12,
  "赔偿@@": 12,
  "农田": 12,
  "前者": 12,
  "同化": 12,
  "读取": 12,
  "服刑": 12,
  "纯": 12,
  "绝不能": 12,
  "署@@": 12,
  "两国间": 12,
  "底盘": 12,
  "合营": 12,
  "螺丝": 12,
  "桨": 12,
  "览": 12,
  "区域开发": 12,
  "死亡@@": 12,
  "国际协会": 12,
  "下半年": 12,
  "指挥部": 12,
  "哺乳": 12,
  "主要参数": 12,
  "激光": 12,
  "咨询@@": 12,
  "总体目标": 12,
  "利于": 12,
  "旗@@": 12,
  "宇宙": 12,
  "践踏": 12,
  "CP.@@": 12,
  "83%": 12,
  "膜@@": 12,
  "陡@@": 12,
  "评析": 12,
  "15m": 12,
  "正压": 12,
  "评述": 12,
  "霍": 12,
  "250mm": 12,
  "友谊": 12,
  "建筑工地": 12,
  "沸点": 12,
  "拥@@": 12,
  "萃取": 12,
  "里面": 12,
  "乙": 12,
  "资深": 12,
  "项目经理": 12,
  "各政党": 12,
  "出卖": 12,
  "中亚@@": 12,
  "443": 12,
  "比什凯克": 12,
  "辱": 12,
  "管道穿越": 12,
  "不易": 12,
  "367": 12,
  "发出@@": 12,
  "隐藏": 12,
  "1968": 12,
  "提出@@": 12,
  "肯": 12,
  "上来": 12,
  "枝@@": 12,
  "织@@": 12,
  "土质": 12,
  "总的说来": 12,
  "会后": 12,
  "摩尔多瓦": 12,
  "窝": 12,
  "杆塔": 12,
  "踏步": 12,
  "卫星@@": 12,
  "58@@": 12,
  "邻": 12,
  "年末": 12,
  "总署": 12,
  "括号": 12,
  "别人": 12,
  "纺@@": 12,
  "飞": 12,
  "露出": 12,
  "便宜": 12,
  "拆装": 12,
  "全民": 12,
  "代人": 12,
  "840": 12,
  "法学家": 12,
  "转输": 12,
  "一百一十": 12,
  "XXX@@": 12,
  "夯": 12,
  "CO3": 12,
  "378": 12,
  "衰退": 12,
  "黄铜": 12,
  "--------@@": 12,
  "工作效率": 12,
  "励@@": 12,
  "气体净化": 12,
  "14.3": 12,
  "分册": 12,
  "须@@": 12,
  "差别待遇": 12,
  "倒入": 12,
  "卸料": 12,
  "MP@@": 12,
  "塔内": 12,
  "管理程序": 12,
  "雅各": 12,
  "岂": 12,
  "时有": 12,
  "16.3": 12,
  "精神病": 12,
  "商业化": 12,
  "过流": 12,
  "316@@": 12,
  "萨哈": 12,
  "ha": 12,
  "库尔@@": 12,
  "戈梅利": 12,
  "笔@@": 12,
  "352": 12,
  "正直": 12,
  "罪孽": 12,
  "深远": 12,
  "听从": 12,
  "普里": 12,
  "六角": 12,
  "靠@@": 12,
  "签@@": 12,
  "按期": 12,
  "行政法": 12,
  "合用": 12,
  "哺乳@@": 12,
  "摩擦": 12,
  "办公厅": 12,
  "氟塑料": 12,
  "盛": 12,
  "因果关系": 12,
  "网格": 12,
  "在下文": 12,
  "接头处": 12,
  "上将": 12,
  "操纵@@": 12,
  "医疗卫生": 12,
  "排放系统": 12,
  "钳": 12,
  "切尔诺贝利": 12,
  "43.@@": 12,
  "谨请": 12,
  "肆意": 12,
  "应计": 12,
  "饼": 12,
  "东南部": 12,
  "尿@@": 12,
  "红外": 12,
  "ii": 12,
  "影": 12,
  "396": 12,
  "辖": 12,
  "总线": 12,
  "转变成": 12,
  "陶": 12,
  "生病": 12,
  "气机": 12,
  "第三季度": 12,
  "灾难性": 12,
  "寻@@": 12,
  "________________________________________________@@": 12,
  "穿着": 12,
  "拖车": 12,
  "41@@": 12,
  "DIN": 12,
  "焙@@": 12,
  "库姆": 12,
  "要约": 12,
  "圣地亚哥": 12,
  "教室": 12,
  "开通": 12,
  "工作台": 12,
  "设计师": 12,
  "骄傲": 12,
  "有损": 12,
  "战线": 12,
  "高校": 12,
  "国际海事组织": 12,
  "价格水平": 12,
  "1000mm": 12,
  "矿棉": 12,
  "饰面": 12,
  "前几次": 12,
  "管束": 12,
  "哈萨克": 12,
  "超支": 12,
  "电视节目": 12,
  "损害赔偿": 12,
  "銆": 12,
  "下限": 12,
  "股长": 12,
  "钻开": 12,
  "SCADA": 12,
  "无形": 12,
  "欢@@": 12,
  "成组": 12,
  "以米计": 12,
  "减速": 12,
  "214@@": 12,
  "96@@": 12,
  "否决": 12,
  "样板": 12,
  "船旗国": 12,
  "负压": 12,
  "方案设计": 12,
  "钢筋混凝": 12,
  "会计核算": 12,
  "代谢": 12,
  "隐瞒": 12,
  "试运转": 12,
  "长短": 12,
  "1397": 12,
  "OH": 12,
  "严格执行": 12,
  "警示": 12,
  "爆炸性": 12,
  "木素": 12,
  "孕@@": 12,
  "污垢": 12,
  "772": 12,
  "3.56": 12,
  "教员": 12,
  "大大减少": 12,
  "漆雾": 12,
  "招待会": 12,
  "缘@@": 12,
  "装货": 12,
  "EL@@": 12,
  "月度": 12,
  "COP.1": 12,
  "危急": 12,
  "纬@@": 12,
  "先后": 12,
  "重质": 12,
  "两根": 12,
  "航班": 12,
  "步兵": 12,
  "吊钩": 12,
  "CRP.1": 12,
  "用性": 12,
  "佩气区": 12,
  "凭单": 12,
  "适于": 12,
  "相近": 12,
  "次要": 12,
  "副总经理": 12,
  "厄尔尼诺": 12,
  "盆": 12,
  "环境监测": 12,
  "下设": 12,
  "后应": 12,
  "第一卷": 12,
  "铰@@": 12,
  "辉@@": 12,
  "普惠制": 12,
  "难题": 12,
  "既有": 12,
  "传输@@": 12,
  "笔译": 12,
  "第十一": 12,
  "搁": 12,
  "助手": 12,
  "多米尼克": 12,
  "报告@@": 12,
  "缠绕式": 12,
  "之友": 12,
  "щ": 12,
  "平静": 12,
  "19%": 12,
  "量程": 12,
  "案文见": 12,
  "粒子": 12,
  "房产": 12,
  "浴室": 12,
  "930": 12,
  "组合式": 12,
  "波器": 12,
  "杰佩": 12,
  "粮食@@": 12,
  "全日制": 12,
  "GT": 12,
  "421": 12,
  "锻钢": 12,
  "扰乱": 12,
  "加密": 12,
  "招标人": 12,
  "机体": 12,
  "起源": 12,
  "1000m3": 12,
  "326@@": 12,
  "弃@@": 12,
  "À": 12,
  "等同": 12,
  "海员": 12,
  "操作者": 12,
  "2.6@@": 12,
  "域@@": 12,
  "里约热内卢": 12,
  "481": 12,
  "轧制": 12,
  "密切注意": 12,
  "带走": 12,
  "摄": 12,
  "伊拉克人": 12,
  "滋@@": 12,
  "试行": 12,
  "无线@@": 12,
  "①": 12,
  "比照": 12,
  "框图": 12,
  "329": 12,
  "脏@@": 12,
  "x10": 12,
  "12.01": 12,
  "装甲": 12,
  "CL@@": 12,
  "关税@@": 12,
  "血液": 12,
  "滥用职权": 12,
  "岌@@": 12,
  "多重": 12,
  "购物": 12,
  "认真@@": 12,
  "完好性": 12,
  "15mm": 12,
  "射击": 12,
  "产卵": 12,
  "届时": 12,
  "灵@@": 12,
  "侵权": 12,
  "禁产": 12,
  "下诺夫哥罗德": 12,
  "PT": 12,
  "交通部": 12,
  "胜": 12,
  "扎尔": 12,
  "廉": 12,
  "教科书": 12,
  "尚待": 12,
  "复核": 12,
  "ik@@": 12,
  "4m": 12,
  "发包": 12,
  "热水锅炉": 12,
  "html": 12,
  "焊时": 12,
  "B3": 12,
  "深海": 12,
  "内政": 12,
  "PP": 12,
  "内部@@": 12,
  "国防部长": 12,
  "墙面": 12,
  "私人@@": 12,
  "证据规则": 12,
  "丹麦政府": 12,
  "供配电": 12,
  "交战": 12,
  "600x@@": 12,
  "无意": 12,
  "断言": 12,
  "020": 12,
  "任何理由": 12,
  "不准": 12,
  "各次": 12,
  "48%": 12,
  "江": 12,
  "铸造": 12,
  "暂按": 12,
  "洛斯": 12,
  "仪@@": 12,
  "离合器": 12,
  "盆@@": 12,
  "蒸馏@@": 12,
  "栽@@": 12,
  "FR@@": 12,
  "利益冲突": 12,
  "宝@@": 12,
  "间断": 12,
  "加权": 12,
  "建议书": 12,
  "汶": 12,
  "424": 12,
  "梯形": 12,
  "六条": 12,
  "任务@@": 12,
  "彼得@@": 12,
  "译": 12,
  "方向@@": 12,
  "著": 12,
  "对外贸易": 12,
  "传给": 12,
  "09@@": 12,
  "钾": 12,
  "轧@@": 12,
  "联阵": 12,
  "蜂@@": 12,
  "敌@@": 12,
  "撬装": 12,
  "就绪": 12,
  "苏丹政府": 12,
  "解放运动": 12,
  "8.0": 12,
  "应使": 12,
  "墙板": 12,
  "井筒": 12,
  "小车": 12,
  "回来": 12,
  "刑期": 12,
  "油缸": 12,
  "坑道": 12,
  "限值": 12,
  "皮肤": 12,
  "堑": 12,
  "温度传感器": 12,
  "对面": 12,
  "嫌疑犯": 12,
  "代理商": 12,
  "时效": 12,
  "丁烷": 12,
  "气外输": 12,
  "世界知识产权组织": 12,
  "劳动部": 12,
  "维捷布斯克": 12,
  "营业执照": 12,
  "五日": 12,
  "精密": 12,
  "第二十四届": 12,
  "担保@@": 12,
  "十三": 12,
  "请拨": 12,
  "承担义务": 12,
  "进驻": 12,
  "前体": 12,
  "盟": 12,
  "net": 12,
  "座椅": 12,
  "组成员": 12,
  "SO": 12,
  "假日": 12,
  "东道": 12,
  "KM": 12,
  "烷": 12,
  "三份": 12,
  "HT": 12,
  "诚实": 12,
  "74.@@": 12,
  "具@@": 12,
  "100m": 12,
  "油藏": 12,
  "IT": 12,
  "SK": 12,
  "妻@@": 12,
  "之用": 12,
  "国际电信联盟": 12,
  "在世界上": 12,
  "河滩": 12,
  "........@@": 12,
  "现代@@": 12,
  "储气罐": 12,
  "凝析": 12,
  "1020": 12,
  "排气阀": 12,
  "713": 12,
  "科沃": 12,
  "工伤": 12,
  "BO@@": 12,
  "典@@": 12,
  "不算": 12,
  "独立@@": 12,
  "最小值": 12,
  "角度看": 12,
  "老挝": 12,
  "60mm": 12,
  "列宁": 12,
  "连通": 12,
  "祸": 12,
  "322": 12,
  "公共利益": 12,
  "谷@@": 12,
  "沉默": 12,
  "自用": 12,
  "放空气": 12,
  "um@@": 12,
  "侯@@": 12,
  "伪@@": 12,
  "ò": 12,
  "搞@@": 12,
  "当日": 12,
  "古巴政府": 12,
  "扬古": 12,
  "市长": 12,
  "斯洛伐克共和国": 12,
  "仔细检查": 12,
  "虚线": 12,
  "刊登": 12,
  "特派": 12,
  "生态环境": 12,
  "鞑靼斯坦": 12,
  "各阶层": 12,
  "T3": 12,
  "选举法": 12,
  "层间": 12,
  "利雅得": 12,
  "希伯@@": 12,
  "不足之处": 12,
  "被忽视": 12,
  "体内": 12,
  "用气": 12,
  "图里": 12,
  "忽@@": 12,
  "拦截": 12,
  "由该": 12,
  "玩@@": 12,
  "柬埔寨政府": 12,
  "J1": 12,
  "不良@@": 12,
  "管道工程": 12,
  "最低标准": 12,
  "二年": 12,
  "捣@@": 12,
  "译成": 12,
  "系统对": 12,
  "士学位": 12,
  "承载力": 12,
  "工商界": 12,
  "法学@@": 12,
  "AL": 12,
  "愤怒": 12,
  "驳船": 12,
  "严": 12,
  "铲": 12,
  "短暂": 12,
  "亚非": 12,
  "不起": 12,
  "人员配备": 12,
  "痛": 12,
  "光谱分析": 12,
  "尚有": 12,
  "日益@@": 12,
  "隔音": 12,
  "参阅": 12,
  "回报率": 12,
  "紧急停车": 12,
  "A3": 12,
  "壤土": 12,
  "这位": 12,
  "系统化": 12,
  "蓬@@": 12,
  "混淆": 12,
  "苗": 12,
  "闸板": 12,
  "306": 12,
  "0103": 12,
  "建工程": 12,
  "Cr@@": 12,
  "同工同酬": 12,
  "五分之一": 12,
  "捕": 12,
  "有所提高": 12,
  "无理": 12,
  "周转@@": 12,
  "事务部长": 12,
  "ed@@": 12,
  "明火": 12,
  "归属": 12,
  "出站": 12,
  "国立大学": 12,
  "买卖@@": 12,
  "邮件": 12,
  "装箱单": 12,
  "Rb@@": 12,
  "掘": 12,
  "IR@@": 12,
  "审计工作": 12,
  "工作温度": 12,
  "村民": 12,
  "营运": 12,
  "获利": 12,
  "较长": 12,
  "连锁": 12,
  "第二天": 12,
  "分类@@": 12,
  "检查员": 12,
  "相互配合": 12,
  "单线": 12,
  "国土": 12,
  "抹灰": 12,
  "见于": 12,
  "不断@@": 12,
  "交通安全": 12,
  "经济学": 12,
  "涡轮机": 12,
  "取用": 12,
  "清偿债务": 12,
  "性病": 12,
  "Æ": 12,
  "就此结束": 12,
  "收发": 12,
  "E1": 12,
  "碳酸@@": 12,
  "动阀": 12,
  "灰渣": 12,
  "测深": 12,
  "第三十届": 12,
  "银行贷款": 12,
  "综合症": 12,
  "4.9": 12,
  "淡": 12,
  "令人震惊": 12,
  "16Mn": 12,
  "隔膜": 12,
  "总费用": 12,
  "激烈": 12,
  "记忆": 12,
  "意在": 12,
  "带上": 12,
  "籍@@": 12,
  "卡河": 12,
  "sub131f191": 12,
  "水事": 12,
  "槽钢": 12,
  "私有": 12,
  "耐热@@": 12,
  "警务": 12,
  "习@@": 12,
  "漫@@": 12,
  "合金钢": 12,
  "硐": 12,
  "拧": 12,
  "本表": 12,
  "解放后": 12,
  "稀少": 12,
  "侵@@": 12,
  "ery@@": 12,
  "EPC": 12,
  "恰": 12,
  "水坑": 12,
  "LG@@": 12,
  "吸附@@": 12,
  "加元": 12,
  "富液": 12,
  "1502": 12,
  "机组人员": 12,
  "发现@@": 12,
  "÷": 12,
  "液硫": 12,
  "三角": 12,
  "二十世纪": 12,
  "最有": 12,
  "拌": 12,
  "卫生部门": 12,
  "紧缩": 12,
  "络": 12,
  "生理": 12,
  "有价证券": 12,
  "如表": 12,
  "一读": 12,
  "1105": 12,
  "摆在": 12,
  "1958": 12,
  "第一句": 12,
  "非军事化": 12,
  "廊道": 12,
  "Cl3": 12,
  "粪@@": 12,
  "812": 12,
  "保障系统": 12,
  "秘": 12,
  "软化": 11,
  "驱赶": 11,
  "公允": 11,
  "即审": 11,
  "列报": 11,
  "13.2": 11,
  "团聚": 11,
  "杨@@": 11,
  "千牛": 11,
  "蒸汽锅炉": 11,
  "职守": 11,
  "城市规划": 11,
  "环境退化": 11,
  "IC@@": 11,
  "向下": 11,
  "联络处": 11,
  "一九九@@": 11,
  "强劲": 11,
  "裸露": 11,
  "纵剖面": 11,
  "整流": 11,
  "ø": 11,
  "停运": 11,
  "布料": 11,
  "六氟化硫": 11,
  "塔架": 11,
  "MT": 11,
  "释@@": 11,
  "遣@@": 11,
  "捆扎": 11,
  "精炼": 11,
  "经济学家": 11,
  "详": 11,
  "带薪": 11,
  "管状": 11,
  "石灰@@": 11,
  "忠诚": 11,
  "Ti": 11,
  "德黑兰": 11,
  "甘@@": 11,
  "净化@@": 11,
  "回转": 11,
  "运输设备": 11,
  "一篇": 11,
  "集体行动": 11,
  "流域": 11,
  "剑": 11,
  "四名": 11,
  "残障": 11,
  "加油站": 11,
  "478": 11,
  "彻底@@": 11,
  "广阔": 11,
  "构成犯罪": 11,
  "入库": 11,
  "很长": 11,
  "搞": 11,
  "CB": 11,
  "CERD": 11,
  "两道": 11,
  "土中": 11,
  "大气@@": 11,
  "变性": 11,
  "个月": 11,
  "未婚": 11,
  "结核": 11,
  "土地规划": 11,
  "PO@@": 11,
  "前南": 11,
  "兼容性": 11,
  "河岸": 11,
  "om": 11,
  "克制": 11,
  "肩": 11,
  "511": 11,
  "实际收入": 11,
  "服务提供者": 11,
  "愚@@": 11,
  "分会": 11,
  "不成": 11,
  "AT@@": 11,
  "新生儿": 11,
  "窃": 11,
  "门徒": 11,
  "涌入": 11,
  "绑": 11,
  "肯@@": 11,
  "偏移": 11,
  "靴": 11,
  "让步": 11,
  "色彩": 11,
  "文物": 11,
  "蛋白质": 11,
  "访问期间": 11,
  "拾": 11,
  "零上": 11,
  "第三十五届": 11,
  "会同": 11,
  "克罗地亚共和国": 11,
  "亚历山@@": 11,
  "交流电": 11,
  "河道": 11,
  "可预测性": 11,
  "512": 11,
  "时所作": 11,
  "耕作": 11,
  "扇@@": 11,
  "015": 11,
  "VIII": 11,
  "所犯": 11,
  "佐夫": 11,
  "供入": 11,
  "此人": 11,
  "电容器": 11,
  "警卫人员": 11,
  "泥岩": 11,
  "储存@@": 11,
  "第四十届": 11,
  "臂@@": 11,
  "拓@@": 11,
  "实效": 11,
  "下水": 11,
  "政和": 11,
  "洪": 11,
  "垂直@@": 11,
  "优先购买": 11,
  "商业界": 11,
  "崇高": 11,
  "沉淀池": 11,
  "圆周": 11,
  "色灯": 11,
  "终于": 11,
  "BC": 11,
  "抽": 11,
  "1965": 11,
  "按表": 11,
  "XXX": 11,
  "运土": 11,
  "钠@@": 11,
  "170@@": 11,
  "密切协作": 11,
  "陷@@": 11,
  "辜@@": 11,
  "归于": 11,
  "宗教信仰": 11,
  "监督管理": 11,
  "显而易见": 11,
  "按计划": 11,
  "型飞机": 11,
  "除名": 11,
  "包装材料": 11,
  "凿": 11,
  "常委会": 11,
  "Si": 11,
  "馈@@": 11,
  "乘坐": 11,
  "缆@@": 11,
  "路口": 11,
  "严重后果": 11,
  "每班": 11,
  "ash@@": 11,
  "焊接设备": 11,
  "泉": 11,
  "而应": 11,
  "化剂": 11,
  "受托人": 11,
  "制服": 11,
  "线缆": 11,
  "腺@@": 11,
  "44%": 11,
  "119@@": 11,
  "尼亚共和国": 11,
  "459": 11,
  "圈@@": 11,
  "SF@@": 11,
  "期中": 11,
  "低估": 11,
  "泡@@": 11,
  "日增": 11,
  "控器": 11,
  "权威性": 11,
  "摆@@": 11,
  "DN80": 11,
  "855": 11,
  "大力支持": 11,
  "沿已": 11,
  "阴影": 11,
  "联海": 11,
  "葬": 11,
  "朝鲜半岛": 11,
  "游戏": 11,
  "闻": 11,
  "Salman": 11,
  "422": 11,
  "L.3": 11,
  "十九": 11,
  "ang@@": 11,
  "有点": 11,
  "棘手": 11,
  "装船": 11,
  "388": 11,
  "基点": 11,
  "喷水": 11,
  "广播节目": 11,
  "赶": 11,
  "辩护@@": 11,
  "惩戒": 11,
  "布宜诺斯艾利斯": 11,
  "中子@@": 11,
  "聚会": 11,
  "修理@@": 11,
  "正确性": 11,
  "台式": 11,
  "24V": 11,
  "就业率": 11,
  "比索": 11,
  "反补贴": 11,
  "经纪人": 11,
  "国际事务": 11,
  "接合": 11,
  "非核心": 11,
  "牙": 11,
  "货币政策": 11,
  "金融交易": 11,
  "超高": 11,
  "厅@@": 11,
  "镜@@": 11,
  "论及": 11,
  "文化部": 11,
  "442": 11,
  "在此之前": 11,
  "排液": 11,
  "笑": 11,
  "框架结构": 11,
  "一律": 11,
  "消": 11,
  "SI@@": 11,
  "伴": 11,
  "地使": 11,
  "精确度": 11,
  "李@@": 11,
  "无限期": 11,
  "油污": 11,
  "及早": 11,
  "捆@@": 11,
  "与会@@": 11,
  "转送": 11,
  "705": 11,
  "奋斗": 11,
  "岩棉": 11,
  "加工@@": 11,
  "检测器": 11,
  "数学": 11,
  "财": 11,
  "斯卡娅": 11,
  "杜绝": 11,
  "常务@@": 11,
  "游": 11,
  "慢性": 11,
  "aw@@": 11,
  "机床": 11,
  "MD@@": 11,
  "2.09": 11,
  "乐": 11,
  "出口国": 11,
  "此等": 11,
  "性骚扰": 11,
  "个体@@": 11,
  "ot": 11,
  "停战": 11,
  "生物降解": 11,
  "355": 11,
  "犹@@": 11,
  "固定装置": 11,
  "船队": 11,
  "马尔": 11,
  "文盲率": 11,
  "各款": 11,
  "各种因素": 11,
  "检察@@": 11,
  "过渡@@": 11,
  "忠@@": 11,
  "中方": 11,
  "焊剂": 11,
  "技师": 11,
  "闻@@": 11,
  "技术开发": 11,
  "排定": 11,
  "实践@@": 11,
  "生产区": 11,
  "宪政": 11,
  "世人": 11,
  "第三十六条": 11,
  "条对": 11,
  "匝@@": 11,
  "差旅费": 11,
  "讯": 11,
  "峰@@": 11,
  "经营@@": 11,
  "El@@": 11,
  "开门": 11,
  "导轨": 11,
  "环路": 11,
  "客车": 11,
  "首脑": 11,
  "Sa@@": 11,
  "18%": 11,
  "访问@@": 11,
  "业务管理": 11,
  "漏油": 11,
  "桥式起重": 11,
  "羞@@": 11,
  "姘": 11,
  "乳胶漆": 11,
  "挨@@": 11,
  "拒绝执行": 11,
  "结转": 11,
  "大宗": 11,
  "符合规定": 11,
  "大气压": 11,
  "质量检查": 11,
  "反射@@": 11,
  "窄": 11,
  "之三": 11,
  "放到": 11,
  "什么样": 11,
  "在技术上": 11,
  "这名": 11,
  "381": 11,
  "沃土": 11,
  "重振": 11,
  "尤": 11,
  "穆": 11,
  "境地": 11,
  "竟": 11,
  "34%": 11,
  "随机": 11,
  "疏": 11,
  "如能": 11,
  "夯@@": 11,
  "活化": 11,
  "转出": 11,
  "违犯": 11,
  "卫生防护": 11,
  "沼泽地": 11,
  "di@@": 11,
  "结晶": 11,
  "第四十九届": 11,
  "全自动": 11,
  "酱": 11,
  "2C": 11,
  "邮寄": 11,
  "绝大部分": 11,
  "页数": 11,
  "专有": 11,
  "并行": 11,
  "救生": 11,
  "讯问": 11,
  "2400": 11,
  "无机": 11,
  "迟迟": 11,
  "祝愿": 11,
  "刑事案件": 11,
  "最高级别": 11,
  "医务": 11,
  "ost@@": 11,
  "高级@@": 11,
  "415": 11,
  "六年": 11,
  "电器设备": 11,
  "巴尔": 11,
  "泥石流": 11,
  "最差": 11,
  "粘贴": 11,
  "快开": 11,
  "主权国家": 11,
  "就职": 11,
  "直接参与": 11,
  "结果显示": 11,
  "460": 11,
  "滴@@": 11,
  "著@@": 11,
  "阻挠": 11,
  "合力": 11,
  "樘": 11,
  "纴": 11,
  "不需": 11,
  "2025": 11,
  "审计员": 11,
  "盘存": 11,
  "海港": 11,
  "去世": 11,
  "ow@@": 11,
  "换能器": 11,
  "浏@@": 11,
  "刷漆": 11,
  "芯线": 11,
  "第一种": 11,
  "议会选举": 11,
  "动荡": 11,
  "播": 11,
  "自立": 11,
  "帝力": 11,
  "聚苯乙烯": 11,
  "广场": 11,
  "9.7": 11,
  "女人": 11,
  "短期内": 11,
  "疏浚": 11,
  "数码": 11,
  "土堆": 11,
  "一百零@@": 11,
  "密集型": 11,
  "马扎": 11,
  "贫民": 11,
  "值时": 11,
  "肥料": 11,
  "研究成果": 11,
  "法院院长": 11,
  "第二十五届": 11,
  "债@@": 11,
  "325@@": 11,
  "13.3": 11,
  "友": 11,
  "垢": 11,
  "分散@@": 11,
  "资历": 11,
  "53@@": 11,
  "IDB.24": 11,
  "外勤人员": 11,
  "神圣": 11,
  "母婴": 11,
  "举出": 11,
  "弓形": 11,
  "复位": 11,
  "仪器仪表": 11,
  "实在": 11,
  "号召": 11,
  "婚姻法": 11,
  "第四项": 11,
  "漏失": 11,
  "科尔": 11,
  "俄国": 11,
  "水器": 11,
  "应请": 11,
  "稍@@": 11,
  "舞弊": 11,
  "测量点": 11,
  "探": 11,
  "强制@@": 11,
  "重沸器": 11,
  "解放阵线": 11,
  "巴伊": 11,
  "荡@@": 11,
  "软件@@": 11,
  "拐@@": 11,
  "常任": 11,
  "垂@@": 11,
  "补偿@@": 11,
  "端的": 11,
  "多半": 11,
  "ini": 11,
  "供应量": 11,
  "16.01": 11,
  "011": 11,
  "可观": 11,
  "普通法": 11,
  "聘任": 11,
  "触及": 11,
  "座谈会": 11,
  "勃": 11,
  "阻泡剂": 11,
  "建设@@": 11,
  "阿布贾": 11,
  "减损": 11,
  "称之为": 11,
  "储蓄银行": 11,
  "里程碑": 11,
  "电动@@": 11,
  "海水": 11,
  "EB@@": 11,
  "判处死刑": 11,
  "明细": 11,
  "反制": 11,
  "第三十六届": 11,
  "终结": 11,
  "低下": 11,
  "以东": 11,
  "工资@@": 11,
  "MO@@": 11,
  "535": 11,
  "所订": 11,
  "视觉": 11,
  "4500": 11,
  "386": 11,
  "模拟@@": 11,
  "脊@@": 11,
  "㈤": 11,
  "另见": 11,
  "1km": 11,
  "第十五届": 11,
  "最终目标": 11,
  "高水平": 11,
  "学习@@": 11,
  "马尔@@": 11,
  "政治化": 11,
  "塞舌尔": 11,
  "圣多美和普林西比": 11,
  "入式": 11,
  "贯彻执行": 11,
  "揭示": 11,
  "记录表": 11,
  "探访": 11,
  "储备@@": 11,
  "侵占": 11,
  "臭氧层": 11,
  "民事@@": 11,
  "一面": 11,
  "擦@@": 11,
  "特殊教育": 11,
  "C25": 11,
  "电话号码": 11,
  "合约": 11,
  "市政当局": 11,
  "绝缘@@": 11,
  "固定翼": 11,
  "赠@@": 11,
  "推动力": 11,
  "216@@": 11,
  "亚美尼亚人": 11,
  "夜": 11,
  "初中": 11,
  "一时期": 11,
  "炸弹": 11,
  "启动装置": 11,
  "外币": 11,
  "称重": 11,
  "装在": 11,
  "追溯": 11,
  "接收器": 11,
  "Canal": 11,
  "路标": 11,
  "960": 11,
  "白炽灯": 11,
  "发展@@": 11,
  "其余部分": 11,
  "At@@": 11,
  "328": 11,
  "1601": 11,
  "判决书": 11,
  "时针": 11,
  "通信机房": 11,
  "获知": 11,
  "撬@@": 11,
  "第十七条": 11,
  "蒸": 11,
  "提要": 11,
  "选举权": 11,
  "被动": 11,
  "货币@@": 11,
  "634": 11,
  "一轮": 11,
  "660": 11,
  "艺": 11,
  "水文气象": 11,
  "居住@@": 11,
  "最具": 11,
  "灭绝": 11,
  "下应": 11,
  "及时@@": 11,
  "透平": 11,
  "洲@@": 11,
  "数字化": 11,
  "事故@@": 11,
  "职业技能": 11,
  "芳香": 11,
  "商议": 11,
  "蒸馏水": 11,
  "哀@@": 11,
  "DN400": 11,
  "国在": 11,
  "豆": 11,
  "封存": 11,
  "妇": 11,
  "‰": 11,
  "F300": 11,
  "饱受": 11,
  "辞职": 11,
  "国际公法": 11,
  "赶走": 11,
  "灵敏": 11,
  "东北@@": 11,
  "纪念@@": 11,
  "自来水": 11,
  "普及教育": 11,
  "不定": 11,
  "三维": 11,
  "未必": 11,
  "售后服务": 11,
  "格罗德诺": 11,
  "夕": 11,
  "灾祸": 11,
  "西帝": 11,
  "哨": 11,
  "薄层": 11,
  "兄@@": 11,
  "采购@@": 11,
  "本函": 11,
  "扁@@": 11,
  "1205": 11,
  "罩@@": 11,
  "对手": 11,
  "贮器": 11,
  "害@@": 11,
  "硅芯": 11,
  "停放": 11,
  "砖@@": 11,
  "肯特": 11,
  "È": 11,
  "湖@@": 11,
  "表二": 11,
  "控制权": 11,
  "保障制度": 11,
  "最高@@": 11,
  "来源国": 11,
  "656": 11,
  "用户@@": 11,
  "白人": 11,
  "发明@@": 11,
  "明确@@": 11,
  "电热": 11,
  "电影": 11,
  "新近": 11,
  "征用": 11,
  "白皮书": 11,
  "各项任务": 11,
  "另行@@": 11,
  "本批": 11,
  "译文": 11,
  "人选": 11,
  "最低水平": 11,
  "欲": 11,
  "感染@@": 11,
  "ect": 11,
  "欣见": 11,
  "钢绳": 11,
  "资格证书": 11,
  "沙子": 11,
  "1221": 11,
  "¿": 11,
  "645": 11,
  "433": 11,
  "慈善": 11,
  "虐": 11,
  "两国政府": 11,
  "再也": 11,
  "非歧视": 11,
  "回报": 11,
  "参观": 11,
  "每根": 11,
  "原木": 11,
  "气瓶": 11,
  "环境污染": 11,
  "中性@@": 11,
  "渐进": 11,
  "稳固": 11,
  "狱@@": 11,
  "徒@@": 11,
  "Ê": 11,
  "波浪": 11,
  "457": 11,
  "舒@@": 11,
  "Ì": 11,
  "司将": 11,
  "si": 11,
  "识": 11,
  "诺尔": 11,
  "¨": 11,
  "星期日": 11,
  "真实@@": 11,
  "过剩": 11,
  "荧光灯": 11,
  "偶然": 11,
  "佛@@": 11,
  "过电压": 11,
  "精英": 11,
  "重伤": 11,
  "乐意": 11,
  "自卸车": 11,
  "令人信服": 11,
  "努力提高": 11,
  "千名": 11,
  "!": 11,
  "航天": 11,
  "诸多": 11,
  "运走": 11,
  "监查": 11,
  "1.09": 11,
  "L.9": 11,
  "述@@": 11,
  "锁紧": 11,
  "数项": 11,
  "胀": 11,
  "H2": 11,
  "进攻性": 11,
  "531": 11,
  "营养@@": 11,
  "轨道电路": 11,
  "et": 11,
  "现正": 11,
  "C.12": 11,
  "扰动": 11,
  "谈会": 11,
  "高压线": 11,
  "传统习俗": 11,
  "里斯": 11,
  "碱性": 11,
  "单证": 11,
  "富有成效": 11,
  "枪支": 11,
  "主变": 11,
  "边界地区": 11,
  "存储器": 11,
  "的是": 11,
  "寡妇": 11,
  "万英镑": 11,
  "MPa@@": 11,
  "雷克": 11,
  "右边": 11,
  "概念@@": 11,
  "繁@@": 11,
  "范本": 11,
  "浇": 11,
  "等到": 11,
  "优良": 11,
  "㈥": 11,
  "纪念活动": 11,
  "社会关系": 11,
  "钻具": 11,
  "EI": 11,
  "增拨": 11,
  "科长": 11,
  "第二十八届": 11,
  "绳@@": 11,
  "本应": 11,
  "源自": 11,
  "HS": 11,
  "好几个": 11,
  "葫芦": 11,
  "全称": 11,
  "口径": 11,
  "哪里": 11,
  "防烟": 11,
  "贷方": 11,
  "质量检验": 11,
  "尔特": 11,
  "所生": 11,
  "调研": 11,
  "稀释": 11,
  "1.5%": 11,
  "旅": 11,
  "446": 11,
  "B2": 11,
  "卷宗": 11,
  "悲哀": 11,
  "姿@@": 11,
  "牢记": 11,
  "曲线图": 11,
  "各层": 11,
  "PCNICC": 11,
  "年龄@@": 11,
  "政变": 11,
  "凡是": 11,
  "承保人": 11,
  "图号": 11,
  "拘留所": 11,
  "Bar@@": 11,
  "罐壁": 11,
  "研究员": 11,
  "偏高": 11,
  "43%": 11,
  "余": 11,
  "200x@@": 11,
  "T7@@": 11,
  "面向@@": 11,
  "饮@@": 11,
  "哥伦比亚政府": 11,
  "470": 11,
  "水土@@": 11,
  "盗@@": 11,
  "阿姆@@": 11,
  "经济制裁": 11,
  "商业银行": 11,
  "613": 11,
  "过滤@@": 11,
  "施工队": 11,
  "微妙": 11,
  "水坝": 11,
  "氯化镁": 11,
  "压裂": 11,
  "利害攸关": 11,
  "结垢": 11,
  "极端@@": 11,
  "la@@": 11,
  "sp": 11,
  "岸边": 11,
  "暂时性": 11,
  "725": 11,
  "来访": 11,
  "拍@@": 11,
  "④": 11,
  "盗": 11,
  "布拉@@": 11,
  "油封": 11,
  "与否": 11,
  "纪念日": 11,
  "Add.23": 11,
  "高等学校": 11,
  "部在": 11,
  "历": 11,
  "外部@@": 11,
  "操作工": 11,
  "377": 11,
  "427": 11,
  "新设": 11,
  "DB@@": 11,
  "印制": 11,
  "切削": 11,
  "417": 11,
  "第十七届": 11,
  "开关@@": 11,
  "SGB": 11,
  "煤层": 11,
  "蓝色": 11,
  "贷": 11,
  "板式": 11,
  "谈及": 11,
  "蜗@@": 11,
  "尚无": 11,
  "换句话说": 11,
  "律师@@": 11,
  "AK": 11,
  "524": 11,
  "暖通": 10,
  "自由权": 10,
  "过早": 10,
  "优": 10,
  "剧院": 10,
  "虫@@": 10,
  "岩体": 10,
  "跨距": 10,
  "柴": 10,
  "节中": 10,
  "__________": 10,
  "充满@@": 10,
  "本底": 10,
  "工商业": 10,
  "柱塞": 10,
  "恢复正常": 10,
  "直辖市": 10,
  "水泵房": 10,
  "雄@@": 10,
  "讨@@": 10,
  "GC": 10,
  "民事责任": 10,
  "知识@@": 10,
  "自愿@@": 10,
  "声光报警": 10,
  "更长": 10,
  "长远": 10,
  "塔尔@@": 10,
  "砷": 10,
  "CN.6": 10,
  "本国货币": 10,
  "马恩岛": 10,
  "宜@@": 10,
  "第二十三条": 10,
  "管辖区": 10,
  "输出模块": 10,
  "时钟": 10,
  "稳压器": 10,
  "900@@": 10,
  "就学": 10,
  "圣地": 10,
  "偏好": 10,
  "农民@@": 10,
  "毕业@@": 10,
  "姆斯": 10,
  "越过": 10,
  "青": 10,
  "站点": 10,
  "禁毒": 10,
  "耐磨": 10,
  "通风设备": 10,
  "螺塞": 10,
  "年终": 10,
  "枕木": 10,
  "车队": 10,
  "多元性": 10,
  "耕@@": 10,
  "酸盐": 10,
  "462": 10,
  "多样": 10,
  "全新": 10,
  "尔格": 10,
  "单位名称": 10,
  "两点": 10,
  "远见": 10,
  "其实": 10,
  "58.@@": 10,
  "父称": 10,
  "发电厂": 10,
  "膜片": 10,
  "omp@@": 10,
  "香": 10,
  "366": 10,
  "喷射泵": 10,
  "工龄": 10,
  "诚信": 10,
  "拜@@": 10,
  "私营化": 10,
  "上海@@": 10,
  "加盖": 10,
  "广泛@@": 10,
  "客货": 10,
  "辅": 10,
  "事实证明": 10,
  "链条": 10,
  "萨曼捷": 10,
  "让@@": 10,
  "发证": 10,
  "472": 10,
  "跌@@": 10,
  "赎": 10,
  "我必": 10,
  "XXVI": 10,
  "温差": 10,
  "弧": 10,
  "水利工程": 10,
  "冷凝水": 10,
  "总体而言": 10,
  "444": 10,
  "该届": 10,
  "＞": 10,
  "医": 10,
  "大道": 10,
  "哀悼": 10,
  "362": 10,
  "道路@@": 10,
  "照明设备": 10,
  "酸钠": 10,
  "氨水": 10,
  "硬化": 10,
  "瓦尔": 10,
  "年均": 10,
  "统计@@": 10,
  "军事冲突": 10,
  "高风险": 10,
  "分配@@": 10,
  "翻修": 10,
  "媒@@": 10,
  "接线柱": 10,
  "电位@@": 10,
  "有偿": 10,
  "公立": 10,
  "711": 10,
  "土工": 10,
  "总长度": 10,
  "页@@": 10,
  "Ò": 10,
  "侵蚀性": 10,
  "考": 10,
  "动力学": 10,
  "国家统计局": 10,
  "光学": 10,
  "合法@@": 10,
  "缓冲区": 10,
  "彩色": 10,
  "阳性": 10,
  "里亚@@": 10,
  "甲苯": 10,
  "过量": 10,
  "油机": 10,
  "囚@@": 10,
  "工具@@": 10,
  "快乐": 10,
  "Ü": 10,
  "焊钢": 10,
  "泊": 10,
  "当值": 10,
  "密性": 10,
  "自给自足": 10,
  "卫生条件": 10,
  "tn@@": 10,
  "第十八条": 10,
  "散水": 10,
  "消防器材": 10,
  "官兵": 10,
  "联邦@@": 10,
  "缉@@": 10,
  "装载机": 10,
  "不断扩大": 10,
  "基本法": 10,
  "第三十四届": 10,
  "备煤": 10,
  "六项": 10,
  "哥伦比亚特区": 10,
  "连带": 10,
  "ў": 10,
  "加尔@@": 10,
  "防潮": 10,
  "等候": 10,
  "高压@@": 10,
  "清管器": 10,
  "粮@@": 10,
  "炼油": 10,
  "参数@@": 10,
  "刑事@@": 10,
  "18.2": 10,
  "确有": 10,
  "庆@@": 10,
  "¤": 10,
  "欧洲法院": 10,
  "探测系统": 10,
  "自然保护区": 10,
  "腾@@": 10,
  "长老": 10,
  "平均工资": 10,
  "一职": 10,
  "帐款": 10,
  "历次": 10,
  "奋@@": 10,
  "合理性": 10,
  "保护性": 10,
  "伞": 10,
  "11.5": 10,
  "丝毫": 10,
  "打底": 10,
  "制宪": 10,
  "所欠": 10,
  "政治局势": 10,
  "斜角": 10,
  "舰队": 10,
  "印第安人": 10,
  "多数@@": 10,
  "监察@@": 10,
  "钦@@": 10,
  "大选": 10,
  "整体式": 10,
  "安全装置": 10,
  "lek@@": 10,
  "0.23": 10,
  "缅甸政府": 10,
  "赴": 10,
  "免征": 10,
  "绠": 10,
  "新任": 10,
  "双重标准": 10,
  "洒@@": 10,
  "锚定": 10,
  "政府@@": 10,
  "办事@@": 10,
  "证书编号": 10,
  "张贴": 10,
  "俗": 10,
  "开式": 10,
  "侮辱": 10,
  "惰": 10,
  "阈值": 10,
  "SE@@": 10,
  "官方@@": 10,
  "总金额": 10,
  "诉状": 10,
  "Ni@@": 10,
  "时段": 10,
  "D4": 10,
  "内腔": 10,
  "渗透@@": 10,
  "14.2": 10,
  "耗材": 10,
  "609": 10,
  "初级@@": 10,
  "管理部": 10,
  "L.10": 10,
  "匠": 10,
  "下才": 10,
  "塑料管": 10,
  "抚@@": 10,
  "联阿": 10,
  "演讲": 10,
  "恶人": 10,
  "宵禁": 10,
  "冈@@": 10,
  "油器": 10,
  "肢": 10,
  "QF1": 10,
  "PS101": 10,
  "侵略者": 10,
  "祈@@": 10,
  "联动": 10,
  "屋面板": 10,
  "控室": 10,
  "录像带": 10,
  "冲销": 10,
  "偏向": 10,
  "民族解放": 10,
  "人物": 10,
  "le": 10,
  "获得@@": 10,
  "积极合作": 10,
  "熟练@@": 10,
  "泥炭": 10,
  "神经": 10,
  "严格控制": 10,
  "广为": 10,
  "劫持": 10,
  "滞留": 10,
  "义务人": 10,
  "L.23": 10,
  "疲劳": 10,
  "军事法庭": 10,
  "阻塞": 10,
  "国对": 10,
  "困": 10,
  "W8": 10,
  "应由@@": 10,
[...]
