{
  "<s>": 81005,
  "<pad>": 81004,
  "</s>": 81003,
  "<unk>": 81002,
  "и": 80995,
  "в": 75538,
  "на": 31474,
  "с": 25673,
  "по": 25043,
  "для": 14825,
  "(@@": 11475,
  "не": 11462,
  "о": 11344,
  "что": 10595,
  "к": 10328,
  "В": 9907,
  "от": 7760,
  "или": 7616,
  "-": 7565,
  "а": 6642,
  "из": 6266,
  "также": 6159,
  "за": 5893,
  ",": 5796,
  "-@@": 5380,
  "Объединенных": 5100,
  ".": 4913,
  "Организации": 4797,
  "не@@": 4794,
  "при": 4754,
  "как": 4591,
  "года": 4528,
  "их": 4486,
  ")": 4170,
  "его": 3757,
  "т": 3752,
  "которые": 3749,
  "Наций": 3603,
  "до": 3593,
  ";": 3439,
  "1": 3431,
  "\"@@": 3349,
  "м": 3322,
  "за@@": 3225,
  "чтобы": 3063,
  "ли": 3043,
  "более": 3016,
  "области": 2985,
  "я": 2963,
  "ной": 2942,
  "С@@": 2925,
  "на@@": 2882,
  "2": 2877,
  "ные": 2867,
  "у@@": 2863,
  ":": 2818,
  "соответствии": 2786,
  "по@@": 2753,
  "ный": 2744,
  "л": 2727,
  "ть": 2719,
  "ли@@": 2715,
  "),": 2689,
  "связи": 2674,
  "ного": 2627,
  ").": 2602,
  "том": 2554,
  "ным": 2548,
  "будет": 2547,
  "отношении": 2523,
  "но": 2504,
  "ных": 2503,
  "быть": 2498,
  "в@@": 2487,
  "3": 2470,
  "ная": 2455,
  "между": 2450,
  "3@@": 2445,
  "та": 2430,
  "вы@@": 2428,
  "ла": 2423,
  "ка": 2417,
  "с@@": 2415,
  "этой": 2412,
  "ее": 2406,
  "/@@": 2394,
  "ное": 2388,
  "«@@": 2370,
  "того,": 2360,
  "том,": 2357,
  "всех": 2296,
  "е": 2274,
  "ка@@": 2222,
  "ки": 2201,
  "бы": 2196,
  "ва@@": 2194,
  "2@@": 2192,
  "ными": 2165,
  "у": 2154,
  "ном": 2144,
  "должны": 2141,
  "В@@": 2136,
  "является": 2136,
  "об": 2110,
  "ти@@": 2109,
  "до@@": 2095,
  ".@@": 2095,
  "во": 2090,
  "все": 2083,
  "О@@": 2040,
  "от@@": 2037,
  "4@@": 2031,
  "системы": 2011,
  "но@@": 2009,
  "рамках": 2006,
  "н@@": 2001,
  "А@@": 2000,
  "было": 1992,
  "со": 1990,
  "м@@": 1983,
  "может": 1977,
  "5@@": 1966,
  "т@@": 1951,
  "м,": 1950,
  "4": 1947,
  "при@@": 1944,
  "были": 1943,
  "ты": 1939,
  "о@@": 1938,
  "ни@@": 1931,
  "про@@": 1926,
  "деятельности": 1919,
  "У@@": 1918,
  "то": 1914,
  "5": 1906,
  "ко@@": 1885,
  "следует": 1867,
  "м.": 1866,
  "ную": 1856,
  "прав": 1848,
  "со@@": 1846,
  "С": 1828,
  "6@@": 1821,
  "и@@": 1815,
  "время": 1808,
  "целях": 1800,
  "8@@": 1782,
  "ре@@": 1780,
  "<<@@": 1777,
  "ро@@": 1776,
  "после": 1770,
  "На": 1766,
  "работы": 1766,
  "ма@@": 1765,
  "\"": 1754,
  "развития": 1752,
  "де@@": 1750,
  "долл.": 1749,
  "х@@": 1745,
  "вопросам": 1743,
  "10@@": 1734,
  "9@@": 1709,
  "других": 1701,
  "то@@": 1700,
  "обеспечения": 1690,
  "ш@@": 1680,
  "К@@": 1669,
  "М@@": 1664,
  "7@@": 1651,
  "Д@@": 1639,
  "та@@": 1637,
  "те": 1631,
  "пере@@": 1626,
  "ра@@": 1619,
  "и,": 1615,
  "Т@@": 1613,
  "резолюции": 1610,
  "й@@": 1606,
  "во@@": 1605,
  "этих": 1595,
  "6": 1590,
  "которых": 1574,
  "ми@@": 1573,
  "к@@": 1566,
  "ри@@": 1563,
  "этом": 1560,
  "д@@": 1550,
  "это": 1544,
  "0@@": 1536,
  "а@@": 1535,
  "те@@": 1532,
  "я@@": 1531,
  "е@@": 1527,
  "И@@": 1526,
  "человека": 1511,
  "ку": 1509,
  "мо@@": 1507,
  "этого": 1504,
  "под": 1495,
  "году": 1495,
  "тем": 1491,
  "под@@": 1490,
  "р": 1486,
  "Комитет": 1486,
  "качестве": 1485,
  "Р@@": 1477,
  "раз@@": 1470,
  "ться": 1469,
  "женщин": 1460,
  "года,": 1457,
  "н": 1456,
  "8": 1449,
  "ле@@": 1447,
  "они": 1440,
  "же": 1436,
  "ло": 1427,
  "»": 1423,
  "включая": 1423,
  "период": 1417,
  "При": 1409,
  "ция": 1407,
  "сессии": 1404,
  "--": 1402,
  "ч@@": 1401,
  "осуществления": 1400,
  "р@@": 1395,
  "Генерального": 1383,
  "был": 1375,
  "Генеральной": 1374,
  "Совета": 1372,
  "1@@": 1370,
  "ность": 1368,
  "ют": 1366,
  "ю": 1364,
  "–": 1363,
  "ке": 1362,
  "ль@@": 1360,
  "2002": 1359,
  "7": 1352,
  "могут": 1351,
  "П@@": 1350,
  "20@@": 1344,
  "й,": 1344,
  "й": 1344,
  "ви@@": 1343,
  "ны": 1335,
  "вать": 1321,
  "ет": 1319,
  "который": 1317,
  "он": 1313,
  "если": 1307,
  "основе": 1307,
  "ется": 1304,
  "12@@": 1304,
  "я,": 1289,
  "2000": 1285,
  "л@@": 1284,
  "ла@@": 1284,
  "ло@@": 1277,
  "ди@@": 1276,
  "да@@": 1261,
  "будут": 1256,
  "ному": 1254,
  "мы": 1249,
  "ки,": 1246,
  "9": 1244,
  "Для": 1235,
  "электро@@": 1234,
  "ру@@": 1231,
  "1.": 1226,
  "2.": 1221,
  "Н@@": 1219,
  "своей": 1215,
  "№": 1210,
  "Г@@": 1207,
  "го@@": 1207,
  "помощи": 1202,
  "ве@@": 1197,
  "10": 1195,
  "ности": 1195,
  "ра": 1190,
  "стран": 1183,
  "х": 1182,
  "случае": 1176,
  "управления": 1174,
  "2001": 1173,
  "Б@@": 1172,
  "необходимо": 1167,
  ");": 1163,
  "п@@": 1161,
  "должен": 1161,
  "т,": 1148,
  "б@@": 1140,
  "об@@": 1135,
  "ются": 1134,
  "только": 1131,
  "г@@": 1126,
  "ходе": 1124,
  "е,": 1122,
  "жи@@": 1120,
  "си@@": 1119,
  "безопасности": 1117,
  "се@@": 1110,
  "секретаря": 1109,
  "ста@@": 1106,
  "13@@": 1105,
  "без": 1103,
  "должна": 1100,
  "года.": 1096,
  "права": 1092,
  "з@@": 1085,
  "доклад": 1082,
  "ния": 1081,
  "ж@@": 1079,
  "программы": 1074,
  "3.": 1072,
  "была": 1069,
  "учетом": 1069,
  "2003": 1067,
  "которая": 1066,
  "ской": 1065,
  "Е@@": 1058,
  "1999": 1057,
  "тов": 1054,
  "ку@@": 1052,
  "И": 1051,
  "ст@@": 1048,
  "ции": 1047,
  "По": 1046,
  "меры": 1043,
  "течение": 1041,
  "лись": 1041,
  "ения,": 1035,
  "C@@": 1033,
  "та,": 1025,
  "15@@": 1023,
  "К": 1021,
  "ем": 1019,
  "ции,": 1012,
  "своих": 1012,
  "па@@": 1008,
  "ского": 1007,
  "уровне": 1005,
  "средств": 1004,
  "так": 1004,
  "кой": 1003,
  "Кроме": 1003,
  "таких": 1000,
  "га@@": 999,
  "ющих": 999,
  "су@@": 999,
  "можно": 994,
  "са@@": 993,
  "ба@@": 992,
  "когда": 990,
  "ения.": 990,
  "международного": 990,
  "информации": 988,
  "14@@": 988,
  "Э@@": 987,
  "Л@@": 980,
  "чи@@": 977,
  "бо@@": 973,
  "решения": 972,
  "организации": 966,
  "вой": 961,
  "S@@": 959,
  "ча@@": 957,
  ".1@@": 957,
  "ту": 954,
  "числе": 953,
  "ка,": 952,
  "проведения": 951,
  "вых": 945,
  "чных": 943,
  "она": 939,
  "им": 939,
  "30": 938,
  "че@@": 933,
  "зо@@": 932,
  "пла@@": 932,
  "ки@@": 928,
  "х,": 925,
  "ме@@": 924,
  "ении": 922,
  "19@@": 919,
  "ние": 919,
  "США": 917,
  "через": 914,
  "части": 913,
  "свои": 912,
  "статьи": 912,
  "которой": 912,
  "результате": 911,
  "являются": 911,
  "11@@": 910,
  "согласно": 908,
  "мм": 907,
  "ми": 904,
  "работ": 904,
  "й.": 902,
  "защиты": 902,
  "15": 900,
  "4.": 898,
  "Комиссии": 897,
  "По@@": 890,
  "1998": 885,
  "16@@": 885,
  "менее": 885,
  "ением": 884,
  "правам": 883,
  "20": 881,
  "ля@@": 880,
  "да": 878,
  "д": 878,
  "Ф@@": 877,
  "-1@@": 876,
  ",@@": 875,
  "5.": 875,
  "0,@@": 875,
  "целью": 874,
  "положения": 873,
  "сто@@": 869,
  "вые": 868,
  "против": 868,
  "вая": 866,
  "ни": 865,
  "ы": 865,
  ">>": 858,
  "мер": 858,
  "внимание": 857,
  "Наций,": 857,
  "ен@@": 855,
  "газа": 855,
  "А": 855,
  "чем": 854,
  "эти": 853,
  "За@@": 850,
  "действий": 850,
  "международных": 849,
  "A@@": 846,
  "них": 846,
  "право": 845,
  "соответствующих": 844,
  "обеспечить": 843,
  "000": 842,
  "E@@": 841,
  "вого": 839,
  "декабря": 839,
  "особенно": 838,
  "вается": 838,
  "воды": 837,
  "ции.": 834,
  "данных": 834,
  "ть,": 832,
  "ф@@": 832,
  "З@@": 830,
  "P@@": 830,
  "г.": 828,
  "12": 826,
  "цию": 826,
  "выполнения": 825,
  "сти@@": 820,
  "другие": 817,
  "цией": 817,
  "проекта": 810,
  "ту@@": 808,
  "страны": 808,
  "но-@@": 806,
  "еще": 802,
  "пи@@": 801,
  ".2@@": 800,
  "свою": 800,
  "ены": 800,
  "30@@": 798,
  "Х@@": 796,
  "ческие": 796,
  "ты,": 792,
  "имеет": 791,
  "енных": 789,
  "M": 786,
  "использования": 786,
  "ми,": 785,
  "b)": 784,
  "На@@": 784,
  "чной": 782,
  "ресурсов": 782,
  "D@@": 781,
  "ений": 778,
  "ских": 775,
  "должно": 775,
  "оборудования": 775,
  "усилия": 774,
  "группы": 771,
  "=@@": 770,
  "i@@": 769,
  "сотрудничества": 767,
  "дня": 767,
  "-2@@": 765,
  "стороны": 763,
  "18@@": 762,
  "проект": 759,
  "са": 758,
  "ю@@": 757,
  "вания": 757,
  "и.": 756,
  "льного": 754,
  "подготовки": 754,
  "призна@@": 753,
  "тных": 752,
  "ение": 751,
  "на,": 751,
  "э@@": 750,
  "ны,": 748,
  "е.": 747,
  "программ": 743,
  "F@@": 742,
  "ющие": 741,
  "водо@@": 740,
  "чного": 740,
  "1-@@": 739,
  "6.": 737,
  "ческой": 737,
  "\",": 735,
  "лся": 734,
  "ей": 734,
  "ский": 733,
  "основных": 733,
  "настоящее": 733,
  "вание": 732,
  "ение,": 732,
  "Ц@@": 727,
  "уже": 726,
  "контроля": 725,
  "решение": 725,
  "пункт": 724,
  "емых": 723,
  "Республики": 722,
  "возможность": 721,
  "участие": 721,
  "+@@": 721,
  "та.": 720,
  "Конвенции": 720,
  "ские": 719,
  "-0@@": 718,
  "принять": 716,
  "работе": 716,
  "%": 713,
  "этот": 712,
  "Про@@": 711,
  "0": 711,
  "вопрос": 710,
  "тель@@": 709,
  "17@@": 708,
  "7.": 708,
  "которое": 705,
  "ров": 705,
  "Мы": 704,
  "мира": 704,
  "бе@@": 704,
  "путем": 703,
  "L@@": 703,
  "ши@@": 703,
  "той": 703,
  "1,": 702,
  "Безопасности": 701,
  "тов,": 698,
  "50@@": 698,
  "Ка@@": 698,
  "ческого": 697,
  "тся": 695,
  "лась": 695,
  "пре@@": 694,
  "развивающихся": 694,
  "членов": 694,
  "территории": 693,
  "касается": 692,
  "значение": 691,
  "тельных": 689,
  "це@@": 689,
  "ра,": 688,
  "ению": 687,
  "ь@@": 686,
  "ности,": 686,
  "составляет": 685,
  "ду@@": 684,
  "пункте": 684,
  "ческих": 683,
  "государств": 681,
  "тные": 681,
  "200@@": 680,
  "ности.": 679,
  "ки.": 679,
  "новых": 677,
  "различных": 676,
  "би@@": 674,
  "льные": 673,
  "поскольку": 672,
  "ми.": 672,
  "лен@@": 672,
  "млн.": 672,
  "Совет": 671,
  ")@@": 670,
  "8.": 669,
  ".4@@": 669,
  "T@@": 668,
  "т.": 666,
  "частности": 665,
  "где": 664,
  "деятельность": 664,
  "но,": 663,
  "частности,": 663,
  "ями": 663,
  "M@@": 661,
  "Группа": 660,
  "всего": 658,
  "2004": 656,
  "уровня": 656,
  "ческим": 656,
  "льный": 654,
  "пе@@": 653,
  "ков": 652,
  "50": 652,
  "ре": 651,
  "ческий": 650,
  "Если": 650,
  "этим": 647,
  "собой": 647,
  "R@@": 647,
  "ками": 644,
  "e@@": 644,
  "из@@": 644,
  "ис@@": 644,
  "того": 643,
  "ском": 642,
  "При@@": 641,
  "s@@": 640,
  "вопросу": 639,
  "V@@": 639,
  "то,": 639,
  "\".": 638,
  "00@@": 637,
  "№@@": 637,
  "ская": 637,
  "ин@@": 637,
  "лось": 637,
  "относительно": 634,
  "тельной": 633,
  "ний": 633,
  "борьбе": 632,
  "ли,": 632,
  "политики": 629,
  "возможности": 628,
  "ю,": 628,
  "льных": 627,
  "ения": 627,
  "расходов": 627,
  "рас@@": 627,
  "емые": 624,
  "связанных": 623,
  "образом": 622,
  "зна@@": 622,
  "двух": 622,
  ":@@": 621,
  "ну@@": 621,
  "г": 621,
  ".3@@": 620,
  "применения": 619,
  "1,@@": 619,
  "I@@": 618,
  "окружающей": 617,
  "оста@@": 616,
  "тель": 616,
  "N@@": 615,
  "хо@@": 614,
  "национальных": 614,
  "ша@@": 613,
  "сло@@": 613,
  "ком": 611,
  "ма": 611,
  "телей": 610,
  "зи@@": 610,
  "Это": 609,
  "ры@@": 608,
  "2,": 607,
  "Он": 606,
  "вает": 606,
  "ГОСТ": 606,
  "ги@@": 606,
  "в,": 605,
  "счет": 605,
  "?": 605,
  "ла,": 605,
  "помощь": 605,
  "Ассамблеи": 604,
  "установки": 604,
  "рования": 604,
  "год": 603,
  "целей": 603,
  "ена": 602,
  "вым": 601,
  "оценки": 601,
  "льной": 600,
  "14": 600,
  "х.": 598,
  "лишь": 597,
  "пункта": 597,
  "ющий": 596,
  "a@@": 596,
  "o@@": 594,
  "июня": 593,
  "лиц,": 593,
  "11": 593,
  "9.": 592,
  "всем": 592,
  "детей": 592,
  "Комитета": 591,
  "ений,": 589,
  "ях": 588,
  "25": 586,
  "Комиссия": 583,
  "Р": 582,
  "ровать": 582,
  "нии": 581,
  "правительства": 581,
  "тной": 580,
  "теля": 580,
  "После": 580,
  "производства": 579,
  "процесса": 578,
  "мая": 577,
  "либо": 577,
  "стра@@": 577,
  "размере": 576,
  "обеспечению": 576,
  "группа": 575,
  "25@@": 575,
  "ак@@": 575,
  "поддержку": 574,
  "100": 574,
  "жа@@": 573,
  "процессе": 571,
  "ы,": 571,
  "тного": 571,
  "Вы@@": 570,
  "июля": 570,
  "13": 570,
  "ры": 569,
  "строительства": 569,
  "необходимость": 569,
  "ства,": 569,
  "ва": 569,
  "пятьдесят": 568,
  "создания": 568,
  "H@@": 568,
  "ям": 568,
  "над": 567,
  "ностью": 567,
  "B@@": 567,
  "информацию": 566,
  "40@@": 566,
  "лет": 566,
  "другими": 564,
  "л,": 563,
  "(см.": 562,
  "своем": 562,
  "принятия": 562,
  "Однако": 561,
  "комитета": 561,
  ".1": 560,
  "ющего": 559,
  "2-@@": 559,
  "которого": 559,
  "бу@@": 558,
  "действия": 558,
  "тах": 557,
  "пред@@": 557,
  "газо@@": 556,
  "16": 556,
  "вают": 556,
  "Я": 555,
  "общего": 555,
  "лы": 554,
  "странах": 554,
  "человека,": 553,
  "населения": 552,
  "соответствующие": 552,
  "тем,": 552,
  "тами": 552,
  "енные": 552,
  "к,": 550,
  "работу": 549,
  "имеют": 547,
  "правительство": 547,
  "интересах": 547,
  "среди": 546,
  "котором": 546,
  "ваться": 545,
  "проек@@": 543,
  "тех": 542,
  "ческая": 542,
  "осуществлении": 541,
  "00": 541,
  "осуществление": 540,
  "деле": 539,
  "роль": 539,
  "достижения": 539,
  "1997": 539,
  "получения": 539,
  "18": 538,
  "два": 537,
  "ющей": 537,
  "тельные": 537,
  "вер@@": 537,
  "пу@@": 536,
  "докладе": 536,
  "35@@": 535,
  "ческое": 535,
  "рассмотрения": 535,
  "ющим": 535,
  "я.": 535,
  "органов": 535,
  "Ж@@": 534,
  "ства": 534,
  "тор": 534,
  "тный": 534,
  "ках": 533,
  "ты@@": 533,
  "развития,": 532,
  "цен@@": 531,
  "ле": 530,
  "данные": 530,
  "число": 529,
  "ционной": 529,
  "О": 529,
  "ния,": 528,
  "поддержки": 528,
  "60@@": 528,
  ".5@@": 527,
  "кон@@": 526,
  "ским": 526,
  "ление": 525,
  "га": 523,
  "енного": 523,
  "24@@": 522,
  "щие": 521,
  "услуг": 521,
  "ско@@": 520,
  "ряд": 520,
  "следующие": 520,
  "мере": 519,
  "ваются": 519,
  "Под@@": 519,
  ".0@@": 518,
  "ений.": 517,
  "мен@@": 517,
  "сотрудников": 517,
  "ней": 517,
  "государства": 517,
  "ениях": 516,
  "ления": 516,
  "настоящего": 516,
  "м;": 516,
  "чные": 515,
  "образования": 515,
  "обеспечение": 514,
  "вновь": 514,
  "система": 514,
  "представить": 514,
  "ры,": 514,
  "70@@": 513,
  "стран,": 512,
  "3-@@": 511,
  "лиц": 511,
  "помощью": 511,
  "ь": 511,
  "право@@": 511,
  "систем": 511,
  "комитет": 511,
  "тор@@": 510,
  "развитию": 510,
  "ционного": 510,
  "Ч@@": 509,
  "31": 509,
  "ль": 509,
  "участия": 509,
  "категории": 507,
  "Ассамблея": 507,
  "го": 505,
  "международной": 505,
  "такие": 505,
  "Со@@": 504,
  "условий": 504,
  "Конференции": 503,
  "Специальный": 503,
  "да,": 503,
  "содействия": 503,
  "d@@": 502,
  "решений": 501,
  "повестки": 500,
  "средства": 500,
  "фа@@": 500,
  "осуществлению": 500,
  "емой": 499,
  "один": 499,
  "потенциала": 499,
  "данной": 499,
  "ром": 498,
  "него": 498,
  "одного": 498,
  "t@@": 498,
  "заседании": 498,
  "ы@@": 497,
  "защи@@": 496,
  "m@@": 496,
  "разработки": 493,
  "состоя@@": 493,
  "воз@@": 493,
  "Я@@": 492,
  "Ю@@": 492,
  "бы@@": 492,
  "От@@": 492,
  "Председателя": 491,
  "перед": 491,
  "доклада": 490,
  "p@@": 489,
  "женщин,": 489,
  "чный": 489,
  "—": 489,
  "там": 488,
  "45@@": 487,
  "данного": 486,
  "н,": 486,
  "*": 485,
  "ке,": 485,
  "процентов": 485,
  "/2@@": 484,
  "G@@": 484,
  "П": 483,
  "O@@": 482,
  "ему": 482,
  "ство@@": 482,
  "ционных": 482,
  "числа": 481,
  "необходимости": 481,
  "такой": 481,
  "себя": 480,
  "3,": 479,
  "одной": 479,
  "те,": 478,
  "оказания": 478,
  "му": 478,
  ">>.": 477,
  "Ш@@": 476,
  "ения@@": 476,
  "ци@@": 475,
  "2,@@": 475,
  "эксплуатации": 475,
  "часть": 475,
  "указа@@": 474,
  "силу": 473,
  "ник": 473,
  "условиях": 473,
  "С,": 472,
  "финансовых": 471,
  "ка.": 471,
  "реализации": 471,
  "организаций": 470,
  "a)": 470,
  "::": 469,
  "откры@@": 468,
  "тельного": 468,
  "такого": 468,
  "нем": 468,
  "показа@@": 468,
  "тов.": 466,
  "персонала": 465,
  "р,": 464,
  "давления": 464,
  "общей": 464,
  "призывает": 462,
  "разработке": 462,
  "ется,": 462,
  "условия": 461,
  "17": 460,
  "x@@": 458,
  "расходы": 458,
  "связанные": 457,
  "ров@@": 457,
  "касающихся": 457,
  "ство,": 456,
  "М": 456,
  "кра@@": 455,
  "тельный": 455,
  "ня@@": 454,
  "рассмотрение": 454,
  "само@@": 454,
  "ку,": 454,
  "Н": 453,
  "Ре@@": 453,
  "опера@@": 453,
  "статье": 452,
  "линии": 452,
  "лю@@": 452,
  "щи@@": 452,
  "Что": 451,
  "Т": 450,
  "требованиям": 449,
  "ных,": 449,
  "тора": 449,
  "нее": 448,
  "ше@@": 447,
  "объем": 446,
  "наиболее": 446,
  "Наций.": 445,
  "некоторых": 445,
  "c@@": 445,
  "Как": 444,
  "/5@@": 444,
  "27@@": 444,
  "степени": 443,
  "Ко@@": 443,
  "ства.": 441,
  "цели": 440,
  "l@@": 440,
  "льное": 440,
  "ликвидации": 439,
  "ответственность": 439,
  "провести": 438,
  "в.": 438,
  "ны.": 436,
  "стро@@": 436,
  "место": 436,
  "емого": 435,
  "качества": 434,
  "гаранти@@": 434,
  "му@@": 434,
  "/": 433,
  "4,": 433,
  "все@@": 432,
  "изменения": 432,
  "развитие": 432,
  "ение.": 432,
  "проектов": 432,
  "общества": 432,
  "ц@@": 432,
  "ков,": 431,
  "борьбы": 431,
  "контексте": 431,
  "иметь": 430,
  "времени": 430,
  "сентября": 429,
  "ру": 429,
  "точки": 428,
  "22": 428,
  "стан@@": 427,
  "ч.": 427,
  "повышения": 426,
  "технического": 426,
  "своего": 426,
  "кам": 426,
  "вали": 425,
  "конструк@@": 424,
  "язы@@": 424,
  "вод@@": 424,
  "контроль": 424,
  "координации": 423,
  "стандар@@": 423,
  "ной,": 422,
  "g@@": 422,
  "октября": 422,
  "ды": 421,
  "укрепления": 421,
  "(в": 421,
  "рекомендации": 421,
  "вал": 420,
  "199@@": 420,
  "Не@@": 420,
  "X@@": 420,
  "представляет": 419,
  "не,": 419,
  "26@@": 419,
  "а)": 419,
  "сти": 418,
  "ющая": 418,
  "ря@@": 418,
  "вании": 417,
  "же@@": 417,
  "деятельности,": 417,
  "рование": 417,
  "этому": 417,
  "ени@@": 416,
  "дом": 416,
  "рных": 416,
  "плане": 415,
  "вала": 415,
  "проведение": 415,
  "име@@": 415,
  "ющее": 415,
  "доступа": 415,
  "рабочих": 414,
  "ны@@": 414,
  "ность,": 414,
  "апреля": 414,
  "100@@": 414,
  "оружия": 414,
  "технической": 414,
  "осуществляется": 413,
  "У": 412,
  "19": 410,
  "проблемы": 410,
  "полностью": 410,
  "региональных": 409,
  "3,@@": 409,
  "нных": 409,
  "мероприятий": 409,
  "вом": 409,
  "положений": 409,
  "СТ@@": 409,
  "основании": 408,
  "лов": 408,
  "вое": 407,
  "Д": 406,
  "Международного": 406,
  "определения": 406,
  "ан@@": 406,
  "Все": 406,
  "тели": 405,
  "положение": 404,
  "гра@@": 404,
  "направл@@": 404,
  "образом,": 404,
  "подготовке": 403,
  "материалов": 403,
  "телем": 402,
  "n@@": 402,
  "января": 402,
  "W@@": 402,
  "систему": 401,
  "нию": 401,
  "трубопроводов": 400,
  "дней": 400,
  "Эти": 400,
  "1)": 399,
  "мы@@": 399,
  "возможностей": 398,
  "4-@@": 398,
  "ним": 398,
  "марта": 398,
  "бюджета": 398,
  "Организация": 398,
  "24": 397,
  "создание": 397,
  "Статья": 397,
  "учета": 396,
  ".2": 396,
  "норма@@": 396,
  "част@@": 396,
  "Генеральная": 395,
  "процесс": 395,
  "ров.": 395,
  "свое": 394,
  "процедуры": 393,
  "устойчивого": 392,
  "Специального": 392,
  "эффективности": 391,
  "прави@@": 391,
  "ма,": 391,
  "23@@": 391,
  "21": 391,
  "л.": 390,
  "технических": 390,
  "енной": 390,
  "торговли": 390,
  "жизни": 390,
  "23": 389,
  "многих": 389,
  "Ма@@": 389,
  "ха@@": 389,
  "новые": 389,
  "ством": 388,
  "u@@": 388,
  "ними": 388,
  "80@@": 388,
  "вый": 387,
  "см.": 387,
  "200": 387,
  "х;": 387,
  "ников": 387,
  "требования": 387,
  "».": 386,
  "у,": 386,
  "которым": 386,
  "продолжать": 386,
  "нача@@": 386,
  "2)": 386,
  "принимать": 385,
  "некоторые": 384,
  "ю.": 384,
  "на.": 384,
  "что,": 383,
  "догово@@": 383,
  "ран@@": 382,
  "шта@@": 382,
  "40": 381,
  "обще@@": 381,
  "второй": 381,
  "порядке": 381,
  "рекомендует": 381,
  "Всемирной": 381,
  "ски@@": 380,
  "28@@": 379,
  "де": 379,
  "тро@@": 379,
  "США,": 378,
  "наде@@": 378,
  "тра@@": 378,
  "авто@@": 378,
  "информации,": 378,
  "поли@@": 378,
  "рной": 378,
  "ство": 378,
  "нам": 378,
  "участников": 377,
  "з": 377,
  "имени": 377,
  "объек@@": 376,
  "льном": 376,
  "использование": 376,
  "поддержанию": 375,
  "ет,": 375,
  "случаях": 375,
  "мм,": 375,
  "тная": 375,
  "ё@@": 375,
  "производ@@": 374,
  "вление": 373,
  "зу@@": 373,
  "Генеральный": 373,
  "конкретных": 372,
  "действи@@": 372,
  "жение": 372,
  "системе": 372,
  "социального": 371,
  "b@@": 370,
  "переда@@": 370,
  "вания,": 370,
  "потребностей": 370,
  "ща@@": 370,
  "2.@@": 370,
  "операций": 369,
  "енным": 369,
  "ких": 369,
  "ваемых": 368,
  "необходимые": 367,
  "работа@@": 367,
  "Поэтому": 367,
  "Группы": 367,
  "жен@@": 367,
  "рами": 366,
  "среды": 366,
  "вопроса": 366,
  "развития.": 366,
  "льная": 365,
  "использовать": 365,
  "ено": 365,
  "нные": 365,
  "три": 365,
  "1.@@": 365,
  "ющими": 365,
  "обязатель@@": 365,
  "графи@@": 365,
  "ОС@@": 365,
  "первой": 365,
  "нии,": 364,
  "Ра@@": 364,
  ">>,": 364,
  "6-@@": 364,
  "ос@@": 364,
  "I": 363,
  "однако": 363,
  "координа@@": 363,
  "ем,": 363,
  "»,": 363,
  "лу@@": 362,
  "дискриминации": 362,
  "сотрудничество": 362,
  "экспертов": 362,
  "ноября": 362,
  "Ва@@": 362,
  "1996": 362,
  "касающиеся": 362,
  "Ли@@": 362,
  "ну": 362,
  "стали": 360,
  "точ@@": 359,
  "охраны": 359,
  "ении,": 359,
  "полу@@": 359,
  "с,": 359,
  "c)": 359,
  "к.": 358,
  "вопросов": 358,
  "гидро@@": 358,
  "рассмотреть": 358,
  "осно@@": 358,
  "Раз@@": 357,
  "38@@": 357,
  "вой@@": 357,
  "ениями": 357,
  "Да@@": 356,
  "представителей": 356,
  "тия": 356,
  "представления": 355,
  "государственных": 355,
  "голо@@": 355,
  "*@@": 354,
  "вопросы": 354,
  "ими": 354,
  "защите": 354,
  "вос@@": 353,
  "сети": 353,
  "стве": 353,
  "Председатель": 352,
  "гражданского": 352,
  "дел": 352,
  "жения": 352,
  "срок": 351,
  "осуществля@@": 351,
  "ядерного": 351,
  "финансирования": 351,
  "10.": 351,
  "Пере@@": 351,
  "фон@@": 351,
  "сфере": 351,
  "кВ": 351,
  "труда": 351,
  "Она": 351,
  "ные,": 351,
  "усилий": 351,
  "d)": 350,
  "зрения": 350,
  "ПРООН": 350,
  "6,": 350,
  "реш@@": 350,
  "соста@@": 349,
  "ций": 349,
  "рабочей": 349,
  "оно": 349,
  "ток": 348,
  "сы@@": 348,
  "учреждений": 348,
  "тельное": 347,
  "выми": 346,
  "h@@": 346,
  "ческими": 346,
  "ениям": 346,
  "емый": 345,
  "тное": 344,
  "K@@": 343,
  "да.": 343,
  "ника": 343,
  "каждого": 343,
  "ров,": 343,
  "НИ@@": 343,
  "хотя": 343,
  "станции": 342,
  "делегация": 342,
  "лом": 342,
  "6,@@": 341,
  "ем@@": 341,
  "й;": 340,
  "документа@@": 340,
  "Российской": 340,
  "3)": 340,
  "ска@@": 340,
  "конференции": 340,
  "26": 340,
  "вы": 340,
  "экономического": 339,
  "ответственности": 339,
  "се": 339,
  "Об@@": 338,
  "вления": 338,
  "фак@@": 338,
  "5-@@": 338,
  "ющихся": 338,
  "начала": 338,
  "страны,": 338,
  "енный": 338,
  "фо@@": 338,
  "Е": 338,
  "рованных": 337,
  "28": 337,
  "уровень": 337,
  "обеспечи@@": 337,
  "содержа@@": 337,
  "спо@@": 337,
  "проведении": 337,
  "новой": 337,
  "–@@": 336,
  "ке.": 336,
  "продук@@": 336,
  "r@@": 336,
  "много@@": 336,
  "48@@": 336,
  "могли": 336,
  "са,": 335,
  "обра@@": 335,
  "жд@@": 335,
  "Б": 335,
  "предоставления": 335,
  "воздуха": 334,
  "кар@@": 333,
  "тельным": 333,
  "5,": 333,
  "ля": 333,
  "Республика": 332,
  "видов": 332,
  "всей": 332,
  "эта@@": 332,
  "доро@@": 332,
  "объема": 332,
  "странам": 332,
  "ционные": 331,
  "настоятельно": 331,
  "типа": 331,
  "документов": 331,
  "но.": 331,
  "выше": 330,
  "сотрудничестве": 330,
  "ре,": 330,
  "технологи@@": 330,
  "ар@@": 330,
  "безопасности,": 330,
  "коренных": 330,
  "Са@@": 330,
  "1995": 330,
  "кого": 330,
  "ция,": 329,
  "групп": 329,
  "Программы": 329,
  "которую": 329,
  "пода@@": 329,
  "сек@@": 329,
  "количество": 329,
  "90@@": 328,
  "ния.": 328,
  "таким": 328,
  "Доклад": 327,
  "РА@@": 327,
  "меж@@": 327,
  "000@@": 327,
  "назна@@": 327,
  "=": 326,
  "комплек@@": 326,
  "льным": 326,
  "ген@@": 326,
  "выполнение": 326,
  "ва,": 326,
  "сы": 326,
  "три@@": 325,
  "щей": 325,
  "Верховного": 325,
  "ванию": 325,
  "состав": 325,
  "контрак@@": 325,
  "каждой": 325,
  "чение": 325,
  "учрежд@@": 325,
  "ты.": 325,
  "ств": 325,
  "другим": 324,
  "щ@@": 324,
  ".6@@": 324,
  "представителя": 324,
  "лей": 324,
  "проблем": 324,
  "ме": 323,
  "ения;": 323,
  "форма@@": 323,
  "47@@": 323,
  "передачи": 323,
  "уда@@": 323,
  "проводить": 323,
  "пор@@": 322,
  "U@@": 322,
  "k@@": 322,
  "ению,": 322,
  "возвра@@": 322,
  "ции@@": 322,
  "Они": 322,
  "созда@@": 322,
  "процен@@": 321,
  "сро@@": 321,
  "Согласно": 321,
  "гу@@": 321,
  "сче@@": 321,
  "вших": 321,
  "обслуживания": 321,
  "Га@@": 321,
  "одним": 320,
  "местах": 320,
  "тельная": 320,
  "чего": 320,
  "ги": 320,
  ".3": 319,
  "периода": 319,
  "ческую": 319,
  "4,@@": 319,
  "ков@@": 319,
  "ми;": 318,
  "другой": 318,
  "сом": 318,
  "документации": 317,
  "отдельных": 317,
  "законодатель@@": 317,
  "доступ": 317,
  "предоставля@@": 317,
  "пита@@": 317,
  "трех": 317,
  "Ба@@": 316,
  "высшем": 316,
  "теле@@": 316,
  "меся@@": 316,
  "До@@": 316,
  "подписа@@": 316,
  "тя@@": 316,
  "ческом": 316,
  "США.": 316,
  "ционный": 315,
  "иностранных": 315,
  "м:": 315,
  "содействовать": 315,
  "просит": 314,
  "разде@@": 314,
  "международным": 314,
  "свой": 314,
  "вопросам,": 314,
  "цию,": 314,
  "рные": 313,
  "больше": 313,
  "важное": 313,
  "рова@@": 312,
  "давление": 312,
  "ющую": 312,
  "несколько": 312,
  "ы.": 312,
  "ным,": 312,
  "сть": 311,
  "Ассамблее": 311,
  "ор@@": 311,
  "гла@@": 311,
  "2005": 311,
  "делам": 311,
  "мер@@": 311,
  "рен@@": 311,
  "ти": 311,
  "оборо@@": 310,
  "сред@@": 310,
  "пы@@": 310,
  "проводи@@": 310,
  "взаимо@@": 309,
  "результатов": 309,
  "ведения": 309,
  "эту": 309,
  "виде": 309,
  "тру@@": 309,
  "лу": 309,
  "тот": 309,
  "дов": 309,
  "вклю@@": 308,
  "кор@@": 308,
  "дать": 308,
  "ван@@": 308,
  "поверхности": 307,
  "полной": 307,
  "пози@@": 307,
  "национального": 307,
  "жных": 307,
  "суб@@": 307,
  "Соединенных": 307,
  "принял": 307,
  "соглаш@@": 307,
  "вен@@": 307,
  "плана": 307,
  "нового": 306,
  "27": 306,
  "явля@@": 306,
  "@@": 306,
  "ца": 305,
  "шко@@": 305,
  "чным": 305,
  "сов": 305,
  "испыта@@": 305,
  "тным": 305,
  "щего": 305,
  "информация": 304,
  "социальной": 304,
  "процента": 304,
  "Хотя": 304,
  "августа": 304,
  "Управление": 303,
  "мой": 303,
  "инвести@@": 303,
  "тер@@": 303,
  "экономической": 303,
  "ть@@": 303,
  "полити@@": 303,
  "фи@@": 303,
  "услуги": 302,
  "кру@@": 302,
  "годы": 302,
  "Эта": 302,
  "службы": 302,
  "отде@@": 301,
  "использо@@": 301,
  "нет": 301,
  "ниже": 301,
  "предлож@@": 301,
  "человека.": 300,
  "вод": 300,
  "60": 300,
  "закон@@": 299,
  "сты@@": 299,
  "имя": 299,
  "случаях,": 299,
  "экономи@@": 299,
  "поводу": 299,
  "роли": 299,
  "меры,": 299,
  "полож@@": 298,
  "Рабочей": 298,
  "С.": 298,
  "сво@@": 298,
  "кро@@": 298,
  "конвенции": 298,
  "утвержд@@": 298,
  "чная": 298,
  "б": 298,
  "закры@@": 298,
  "пути": 297,
  "году,": 297,
  "тепло@@": 297,
  "нной": 297,
  "S/@@": 297,
  "осуществлять": 297,
  "обязательств": 297,
  "Организацией": 297,
  "12.": 297,
  "телей,": 297,
  "щих": 296,
  "национальной": 296,
  "29@@": 296,
  "детей,": 296,
  "целом": 296,
  "лица": 296,
  "ресурсов,": 296,
  "применяется": 296,
  "политических": 296,
  "с)": 296,
  "вопросов,": 296,
  "даже": 296,
  "соглашения": 295,
  ".7@@": 295,
  "обязательства": 295,
  "местных": 295,
  "план": 295,
  "КО@@": 295,
  "процеду@@": 295,
  "бес@@": 294,
  "центра@@": 294,
  "нов@@": 294,
  "ением,": 294,
  "лы@@": 294,
  "специальных": 294,
  "рного": 294,
  "'@@": 294,
  "необходимых": 294,
  "торов": 293,
  "социальных": 293,
  "стратегии": 293,
  "Пре@@": 293,
  "и/или": 293,
  "ке@@": 293,
  "пол@@": 293,
  "организо@@": 293,
  "посредством": 293,
  "г.@@": 293,
  "предложения": 292,
  "поло@@": 292,
  "объекта": 292,
  "сте@@": 292,
  "грани@@": 292,
  "следующих": 292,
  "го,": 292,
  "ству@@": 292,
  "принятых": 292,
  "стой@@": 291,
  "таблице": 291,
  "бло@@": 291,
  "e": 291,
  "рах": 291,
  "имеющих": 291,
  "общих": 291,
  "зависимости": 290,
  "эта": 290,
  "ко": 290,
  "рует": 290,
  "пункты": 290,
  "расширения": 290,
  "Декларации": 290,
  "управление": 290,
  "ту,": 290,
  "механизмов": 290,
  "ями,": 290,
  "е)": 289,
  "устройства": 289,
  "ще@@": 289,
  "сме@@": 289,
  "лением": 289,
  "ское": 289,
  "работ@@": 289,
  "пределах": 289,
  "содействие": 288,
  "сведению": 288,
  ".,": 288,
  "комиссара": 288,
  "пожа@@": 287,
  "ра.": 287,
  "обеспечивать": 287,
  "пли@@": 287,
  "годов": 287,
  "вающих": 287,
  "анализ": 287,
  "f@@": 287,
  "хозяй@@": 287,
  "собствен@@": 287,
  "мер,": 286,
  "докладчик": 286,
  "щим": 286,
  "производи@@": 286,
  "er@@": 286,
  "граждан@@": 286,
  "представитель": 286,
  "11.": 286,
  "члены": 286,
  "Мо@@": 286,
  "беженцев": 285,
  "ком@@": 285,
  "запре@@": 285,
  "внутреннего": 285,
  "СО@@": 285,
  "организа@@": 285,
  "оборудования,": 285,
  "оборудование": 285,
  "Бу@@": 285,
  "правил": 284,
  "бра@@": 284,
  "считает,": 284,
  "данном": 284,
  "ции;": 284,
  "принципов": 284,
  "совещания": 284,
  "креди@@": 283,
  "орга@@": 283,
  "он@@": 283,
  "29": 283,
  "ес@@": 283,
  "рам": 283,
  "Международной": 283,
  "способствовать": 283,
  "кто": 283,
  "s": 283,
  "году.": 283,
  "v@@": 283,
  "последствий": 282,
  "Этот": 282,
  "ПР@@": 282,
  "тить": 282,
  "чески": 282,
  "с.": 282,
  "государственного": 282,
  "цев": 282,
  "основные": 282,
  "включа@@": 281,
  "предусматривается": 281,
  "противо@@": 281,
  "кана@@": 281,
  "стоимости": 281,
  "дов,": 280,
  "ванных": 280,
  "Кон@@": 280,
  "Ирака": 280,
  "скими": 280,
  "требований": 280,
  "пунктом": 280,
  "5,@@": 280,
  "):": 280,
  "объектов": 280,
  "высокого": 279,
  "правовой": 279,
  "чения": 279,
  "распространения": 279,
  "ца@@": 277,
  "международное": 277,
  "ск@@": 277,
  "конфлик@@": 277,
  "Во": 277,
  "практи@@": 277,
  "внимания": 277,
  "одно@@": 277,
  "состоянию": 276,
  "исполнение": 276,
  "говорит,": 276,
  "требу@@": 276,
  "ций,": 276,
  "поч@@": 276,
  "ждение": 276,
  "Г": 276,
  "национальном": 275,
  "места": 275,
  "чное": 275,
  "1990": 275,
  "сообщ@@": 275,
  "специальной": 275,
  "3/@@": 275,
  "насо@@": 275,
  "многие": 274,
  "каче@@": 274,
  "опо@@": 274,
  "ц": 274,
  "применя@@": 274,
  "представители": 274,
  "созданию": 274,
  "ей,": 273,
  "нием": 273,
  "посе@@": 273,
  "правах": 273,
  "установить": 273,
  "причи@@": 272,
  "людей": 272,
  "ших": 272,
  "рез@@": 272,
  "весьма": 272,
  "II": 272,
  "вани@@": 272,
  "основной": 272,
  "настоящей": 272,
  "Се@@": 272,
  "опас@@": 271,
  "процес@@": 271,
  "Следует": 271,
  "8,": 271,
  "правительством": 271,
  "конферен@@": 271,
  "СС@@": 271,
  "35": 271,
  "Си@@": 271,
  "мар@@": 271,
  "безопас@@": 271,
  "р.": 271,
  "февраля": 271,
  "нного": 271,
  "скую": 271,
  "промышлен@@": 270,
  "ве": 270,
  "чном": 270,
  "учреждения": 270,
  "щен@@": 270,
  "не.": 270,
  "администра@@": 270,
  "тые": 270,
  "температу@@": 270,
  "применение": 269,
  "ответ@@": 269,
  "здоровья": 269,
  "решении": 269,
  "измен@@": 269,
  "тых": 269,
  "наличие": 269,
  "выражает": 268,
  "руется": 268,
  "щение": 268,
  "международном": 268,
  "общи@@": 268,
  "Во@@": 268,
  "коллек@@": 268,
  "труб": 268,
  "сов@@": 267,
  "й)": 267,
  "соответствующим": 267,
  "С-@@": 267,
  "вентиля@@": 267,
  "эффективного": 267,
  "составе": 267,
  "развитых": 267,
  "197@@": 267,
  "дополнительных": 267,
  "ожида@@": 267,
  "исключением": 267,
  "стратеги@@": 267,
  "ВО@@": 266,
  "случае,": 266,
  "женщины": 266,
  "ству": 266,
  "содержится": 266,
  "вую": 266,
  "ков.": 266,
  "щий": 265,
  "нарушения": 265,
  "(М@@": 265,
  "результаты": 265,
  "докумен@@": 265,
  "мероприятия": 265,
  "СП@@": 265,
  "жного": 265,
  "А,": 265,
  "слож@@": 265,
  "долж@@": 265,
  "попрежнему": 264,
  "преступ@@": 264,
  "скому": 264,
  "АТ@@": 264,
  "ь,": 264,
  "двухгодичный": 264,
  "чер@@": 264,
  "Вместе": 264,
  "документе": 264,
  "ге@@": 264,
  "элементов": 264,
  "сокращения": 264,
  "37@@": 264,
  "народов": 263,
  "н.": 263,
  "работы,": 263,
  "сделать": 263,
  "Рабочая": 263,
  "лении": 263,
  "кабе@@": 263,
  "представля@@": 263,
  "дами": 263,
  "мира,": 263,
  "территори@@": 263,
  "нами": 263,
  "пунк@@": 262,
  "?@@": 262,
  "вались": 262,
  "состоит": 262,
  "сравнению": 262,
  "программа": 262,
  "това@@": 261,
  "вести": 261,
  "получа@@": 261,
  "вки": 261,
  "форме": 261,
  "бюдже@@": 261,
  "класса": 261,
  "сил": 260,
  "заяви@@": 260,
  "шие": 260,
  "случаев": 260,
  "реаль@@": 260,
  "покрытия": 260,
  "500": 260,
  "организация": 260,
  "емая": 260,
  "поддержке": 260,
  "непосредственно": 260,
  "ства@@": 260,
  "стен@@": 260,
  "принима@@": 260,
  "ней@@": 260,
  "нефте@@": 260,
  "укреплению": 260,
  "тен@@": 259,
  "шение": 259,
  "бан@@": 259,
  "которыми": 259,
  "тый": 259,
  "тельно": 259,
  "оказывать": 258,
  "За": 258,
  "теля,": 258,
  "торы": 258,
  "1994": 258,
  "Ме@@": 258,
  "33@@": 258,
  "способ@@": 258,
  "правила": 258,
  "пункту": 258,
  "предложение": 258,
  "ть.": 258,
  "заключается": 258,
  "сумму": 258,
  "й:": 258,
  "вклад": 257,
  "полного": 257,
  "2/@@": 257,
  "функции": 257,
  "занима@@": 257,
  "рный": 257,
  "реак@@": 257,
  "государственной": 257,
  "вной": 257,
  "экспер@@": 257,
  "ение@@": 257,
  "кие": 257,
  "S": 257,
  "чен@@": 257,
  "отмечает,": 256,
  "род@@": 256,
  "режи@@": 256,
  "питания": 256,
  "проверки": 256,
  "АР@@": 256,
  "усили@@": 256,
  "ку.": 256,
  "чен": 256,
  "емым": 256,
  "труд@@": 256,
  "предприяти@@": 255,
  "поста@@": 255,
  "находится": 255,
  "принятие": 255,
  "создании": 255,
  "сов,": 255,
  "дела@@": 255,
  "принимает": 255,
  "секретарь": 254,
  "анализа": 254,
  "разработа@@": 254,
  "рекомендаций": 254,
  "цы": 254,
  "разме@@": 254,
  "км": 253,
  "циями": 253,
  "СП": 253,
  "грузо@@": 253,
  "насилия": 253,
  "З": 253,
  "ям,": 253,
  "месте": 253,
  "комиссии": 253,
  "1/@@": 253,
  "пер@@": 253,
  "доба@@": 253,
  "свар@@": 253,
  "зоны": 252,
  "стране": 252,
  "вет@@": 252,
  "соответствующими": 252,
  "неправительственных": 252,
  "а,": 252,
  "дополнительные": 252,
  "Было": 252,
  "продолжа@@": 251,
  "около": 251,
  "тив@@": 251,
  "организациями": 251,
  "няя": 251,
  "ственных": 251,
  "грун@@": 250,
  "оказанию": 250,
  "вне@@": 250,
  "государств,": 250,
  "блока": 250,
  "льную": 250,
  "г,": 250,
  "последние": 250,
  "п.": 250,
  "дли@@": 250,
  "районах": 250,
  "жда@@": 249,
  "мм.": 249,
  ".20@@": 249,
  "ях,": 249,
  "гру@@": 248,
  "выполнять": 248,
  "оказы@@": 248,
  "РЕ@@": 248,
  "международные": 248,
  "низ@@": 248,
  "конкретные": 248,
  "стов": 248,
  "трубы": 248,
  "сведения": 248,
  "вания.": 248,
  "вра@@": 248,
  "вопросы,": 248,
  "бро@@": 248,
  "—@@": 247,
  "технологии": 247,
  "учиты@@": 247,
  "зем@@": 247,
  "(А@@": 247,
  "ру,": 247,
  "последствия": 247,
  "подготовку": 247,
  "вед@@": 247,
  "странами": 247,
  "строитель@@": 247,
  "A": 247,
  "форм": 246,
  ".)": 246,
  "му,": 246,
  "стоя@@": 246,
  "создать": 246,
  "раз": 246,
  "странах,": 246,
  "действий,": 246,
  "толщиной": 246,
  "дол@@": 246,
  "ход@@": 246,
  "поэтому": 246,
  "суммы": 246,
  "д.": 245,
  "Но@@": 245,
  "докладов": 245,
  "рав@@": 245,
  "исполнения": 245,
  "доклады": 245,
  "фор@@": 245,
  "хи@@": 245,
  "фер@@": 245,
  "манда@@": 244,
  "права,": 244,
  "контро@@": 244,
  "деятельности.": 244,
  "те.": 244,
  "мом": 244,
  "вл@@": 244,
  "массовой": 243,
  "ственного": 243,
  "рованные": 243,
  "учебных": 243,
  "трубопровода": 243,
  "тво@@": 243,
  "обсуждения": 243,
  "9,": 243,
  "военных": 243,
  "правитель@@": 243,
  "документа": 243,
  "консультации": 243,
  "шей": 243,
  "22@@": 243,
  "далее": 243,
  "статьей": 243,
  "комите@@": 243,
  "оказание": 243,
  "профессиональной": 243,
  "Г-н": 243,
  "ден@@": 242,
  "составля@@": 242,
  "КТ@@": 242,
  "заседаний": 242,
  "представлен@@": 242,
  "отсутствие": 242,
  "должности": 242,
  "страхо@@": 242,
  "содержание": 242,
  "вана": 241,
  "приорите@@": 241,
  "39@@": 241,
  "предусматрива@@": 241,
  ".4": 241,
  "конденса@@": 241,
  "организаций,": 241,
  "технические": 241,
  "DN@@": 241,
  "6/@@": 241,
  "рованы": 241,
  "мест@@": 241,
  "состояния": 240,
  "уста@@": 240,
  "сами": 240,
  "диаметром": 240,
  "власти": 240,
  "ванием": 240,
  "норм": 240,
  "материа@@": 240,
  "главным": 240,
  "например,": 240,
  "Ми@@": 240,
  "тными": 240,
  "культу@@": 240,
  "финансовые": 239,
  "y@@": 239,
  "15.": 239,
  "технологических": 239,
  "приветствует": 239,
  "указанных": 239,
  "представлены": 239,
  "тивного": 239,
  "Управления": 239,
  "районе": 238,
  "действие": 238,
  "ения:": 238,
  "использованием": 238,
  "завершения": 238,
  "Система": 237,
  "мых": 237,
  "нения": 237,
  "характер": 237,
  "транспор@@": 237,
  "заклю@@": 237,
  "всеми": 237,
  "ход": 237,
  "там,": 237,
  "состава": 237,
  "потребности": 236,
  "вместе": 236,
  "зданий": 236,
  "зада@@": 236,
  "увеличи@@": 236,
  "Рё@@": 236,
  "взносов": 236,
  "основном": 236,
  "тки": 236,
  "радио@@": 236,
  "прежде": 236,
  "структу@@": 236,
  "поро@@": 236,
  "тек@@": 236,
  "момента": 236,
  "щее": 235,
  "отношений": 235,
  "получить": 235,
  "роста": 235,
  "емо@@": 235,
  "роди@@": 235,
  "предусмотрено": 235,
  "положении": 235,
  "гу": 235,
  "сторон": 235,
  "ЮН@@": 234,
  "наличии": 234,
  "7,@@": 234,
  "Из@@": 234,
  "Договора": 234,
  "J@@": 234,
  "давл@@": 234,
  "ций.": 234,
  "защиту": 234,
  "образования,": 234,
  "тяже@@": 233,
  "суд": 233,
  "вшихся": 233,
  "»@@": 233,
  "ды@@": 233,
  "тивные": 233,
  "образ@@": 233,
  "работ,": 233,
  "совместно": 233,
  "мм@@": 233,
  "различные": 233,
  "организации,": 233,
  "бед@@": 232,
  "тивный": 232,
  "лица,": 232,
  "докла@@": 232,
  "безопасности.": 232,
  "предпринима@@": 232,
  "отмеча@@": 232,
  "определя@@": 232,
  "ванные": 232,
  "i)": 232,
  "лож@@": 231,
  "силы": 231,
  "соблюдения": 231,
  "Й": 231,
  "данным": 231,
  "дов.": 231,
  "оцен@@": 231,
  "оказа@@": 231,
  "жной": 231,
  "им@@": 231,
  "выде@@": 231,
  "C": 231,
  "РО@@": 231,
  "информацией": 231,
  "Ку@@": 230,
  "Па@@": 230,
  "выполнить": 230,
  "клапан": 230,
  "ж": 230,
  "КП@@": 230,
  "4)": 230,
  "УВКБ": 230,
  "настоящему": 230,
  "Подрядчик": 230,
  "лет@@": 230,
  "стран.": 230,
  "наименее": 230,
  "циям": 230,
  "чены": 229,
  "ЕН@@": 229,
  "требованиями": 229,
  "ется.": 229,
  "Америки": 229,
  "са.": 229,
  "экономических": 229,
  "мые": 229,
  "Го@@": 229,
  "Ин@@": 229,
  "и;": 229,
  "внутренних": 229,
  "щения": 228,
  "ВА@@": 228,
  "(С@@": 228,
  "То@@": 228,
  "программам": 228,
  "жные": 227,
  "мужчин": 227,
  "7,": 227,
  "финансовой": 227,
  "заявление": 227,
  "ет@@": 227,
  "кое": 227,
  "реши@@": 227,
  "49@@": 227,
  "международными": 227,
  "ры.": 227,
  "верх@@": 227,
  "эксплуата@@": 227,
  "членами": 227,
  "Африки": 227,
  "устройство": 227,
  "обо@@": 227,
  "НО@@": 227,
  "первого": 227,
  "исследований": 226,
  "пен@@": 226,
  "любой": 226,
  "дах": 226,
  "ей.": 226,
  "принципы": 226,
  "состоянии": 226,
  "нищеты": 226,
  "государства,": 226,
  "75@@": 226,
  "предоставление": 226,
  "консультаций": 226,
  "проекту": 226,
  "обязан": 226,
  "соз@@": 226,
  "ния@@": 226,
  "36@@": 225,
  "2;": 225,
  "вало": 225,
  "документы": 225,
  "чить": 225,
  "шего": 225,
  "примерно": 225,
  "13.": 225,
  "80": 225,
  "ряда": 225,
  "ООН": 225,
  "вить": 225,
  "распреде@@": 225,
  "льно": 224,
  "сер@@": 224,
  "чную": 224,
  "кла@@": 224,
  "ПО@@": 224,
  "Республике": 224,
  "делегации": 224,
  "Установка": 224,
  "оценке": 224,
  "in@@": 224,
  "благодаря": 224,
  "гов": 224,
  "зда@@": 224,
  "средств,": 224,
  "выше@@": 223,
  "плани@@": 223,
  "третьей": 223,
  "я)": 223,
  "В,": 223,
  "вка": 223,
  "Таким": 223,
  "показателей": 223,
  "две": 223,
  "предлага@@": 223,
  "%@@": 223,
  "обеспечивает": 223,
  "возможно,": 223,
  "укрепление": 223,
  "А.": 222,
  "объя@@": 222,
  "взя@@": 222,
  "шим": 222,
  "органами": 222,
  "выбо@@": 222,
  "ЮНКТАД": 222,
  "ника@@": 222,
  "ваемые": 222,
  "Проект": 222,
  "ком,": 222,
  "кий": 222,
  "7-@@": 222,
  "пар@@": 222,
  "четвертой": 222,
  "высоко@@": 221,
  "руководящих": 221,
  "жа": 221,
  "устрой@@": 221,
  "м3": 221,
  "чению": 221,
  "я:": 221,
  "данный": 221,
  "включает": 221,
  "распростран@@": 221,
  "хотел": 221,
  "консульта@@": 221,
  "увеличение": 221,
  "предоставить": 221,
  "резолюцию": 221,
  "случа@@": 221,
  "раство@@": 221,
  "ремон@@": 220,
  "материалы": 220,
  "цией,": 220,
  "аппара@@": 220,
  "Догово@@": 220,
  "ция@@": 220,
  "политической": 220,
  "излож@@": 220,
  "ким": 220,
  "года@@": 220,
  "Не": 220,
  "гре@@": 220,
  "нало@@": 220,
  "наблюда@@": 220,
  "Ассамблеи,": 220,
  "масштабов": 219,
  "соответствовать": 219,
  "температуры": 219,
  "чено": 219,
  "сельских": 219,
  "строительных": 219,
  "ющиеся": 219,
  "аль@@": 219,
  "(199@@": 219,
  "енное": 219,
  "сумма": 219,
  "логи@@": 219,
  "кур@@": 219,
  "момент": 219,
  "ченные": 219,
  "пунктах": 219,
  "нов": 219,
  "сбор@@": 219,
  "НА@@": 219,
  "0,0@@": 218,
  "примени@@": 218,
  "д,": 218,
  "8-@@": 218,
  "Правительство": 218,
  "Р°@@": 218,
  "ению.": 218,
  "методов": 218,
  "Устройство": 218,
  "по-прежнему": 218,
  "отношения": 218,
  "клапа@@": 218,
  "сооруж@@": 218,
  "компании": 218,
  "ресурсы": 218,
  "нение": 218,
  "вания@@": 218,
  "стоимость": 218,
  "мость": 218,
  "позволяет": 217,
  "газ": 217,
  "сбо@@": 217,
  "женщин.": 217,
  "57@@": 217,
  "двух@@": 217,
  "день": 217,
  "an@@": 217,
  "мнению": 217,
  "семь@@": 217,
  "ние,": 217,
  "тов@@": 217,
  "ционная": 217,
  "тии": 217,
  "протоко@@": 217,
  "цель": 216,
  "бето@@": 216,
  "даты": 216,
  "ПК@@": 216,
  "прода@@": 216,
  "декларации": 216,
  "ранее": 216,
  "подачи": 216,
  "пока": 216,
  "вных": 216,
  "Q@@": 216,
  "информи@@": 216,
  "Проек@@": 216,
  "проведению": 216,
  "смер@@": 216,
  "приложение": 216,
  "Та@@": 216,
  "любых": 215,
  "ла.": 215,
  "допускается": 215,
  "существу@@": 215,
  "ба": 215,
  "ге": 215,
  "год@@": 215,
  "кре@@": 215,
  "органы": 215,
  "МПа": 215,
  "КН@@": 215,
  "e)": 214,
  "нен@@": 214,
  "вля@@": 214,
  "чно": 214,
  "же,": 214,
  "ью": 214,
  "трудо@@": 214,
  "34@@": 214,
  "важность": 214,
  "приня@@": 214,
  "дета@@": 214,
  "программу": 214,
  "микро@@": 214,
  "операции": 214,
  "очистки": 214,
  "документ": 214,
  "опы@@": 214,
  "вано": 214,
  "крат@@": 214,
  "изда@@": 214,
  "инструк@@": 214,
  "совета": 214,
  "четвер@@": 214,
  "внутри": 214,
  "кто@@": 214,
  "телями": 214,
  "B": 214,
  "сти,": 213,
  "новый": 213,
  "гражданских": 213,
  "здания": 213,
  "веду@@": 213,
  "челове@@": 213,
  "ar@@": 213,
  "мисси@@": 213,
  ".10@@": 213,
  "вов": 213,
  "мет@@": 213,
  "у.": 213,
  "рь@@": 213,
  "управля@@": 212,
  "сообщество": 212,
  "Де@@": 212,
  "%,": 212,
  "товаров": 212,
  "зы": 212,
  "нашей": 212,
  "делега@@": 212,
  "жела@@": 212,
  "строительство": 212,
  "здравоохранения": 212,
  "значения": 212,
  "удовлетворением": 212,
  "ли.": 212,
  "тном": 212,
  "срока": 212,
  "из-за": 212,
  "переговоров": 212,
  "тая": 212,
  "поощрения": 212,
  "благо@@": 212,
  "рованного": 211,
  "СР@@": 211,
  "обзор": 211,
  "щая": 211,
  "2000@@": 211,
  "включить": 211,
  "процедур": 211,
  "большей": 211,
  "ваны": 211,
  "вшие": 211,
  "стре@@": 211,
  "Л": 211,
  "Уста@@": 210,
  "лан@@": 210,
  "направленных": 210,
  "показатели": 210,
  "ст": 210,
  "правительств": 210,
  "эффектив@@": 210,
  "ческому": 210,
  "провод@@": 210,
  "вооруженных": 210,
  "направленные": 210,
  "Сторо@@": 210,
  "объеме": 210,
  "работа": 210,
  "ными,": 210,
  "чением": 209,
  "международному": 209,
  "специалистов": 209,
  "щую": 209,
  "результа@@": 209,
  "пло@@": 209,
  "участ@@": 209,
  "тивной": 209,
  "обмена": 209,
  "повышение": 209,
  "должностей": 209,
  "ный,": 209,
  "щими": 209,
  "19.": 209,
  "ность.": 209,
  "9-@@": 209,
  "регулирования": 209,
  "договора": 209,
  "рассмотрению": 209,
  "рованной": 208,
  "обы@@": 208,
  "вода": 208,
  "преступл@@": 208,
  "ждения": 208,
  "заня@@": 208,
  "продукции": 208,
  "Су@@": 208,
  "ТО@@": 208,
  "ДО@@": 208,
  "шен@@": 208,
  "положениями": 208,
  "Европейского": 208,
  "взно@@": 208,
  "содержания": 207,
  "изменений": 207,
  "пять": 207,
  "решению": 207,
  "300": 207,
  "контак@@": 207,
  "источников": 207,
  "населения,": 207,
  "обслужи@@": 207,
  "несмотря": 207,
  "уг@@": 207,
  "ровка": 207,
  "\\@@": 207,
  "20.": 207,
  "мероприяти@@": 207,
  "рная": 207,
  "м)": 207,
  "техни@@": 207,
  "кой,": 206,
  "носи@@": 206,
  "ченных": 206,
  "годо@@": 206,
  "ле,": 206,
  "трех@@": 206,
  "нему": 206,
  "ду": 206,
  "Штатов": 206,
  "определяется": 206,
  "аспек@@": 206,
  "проводится": 206,
  "тивных": 206,
  "нару@@": 206,
  "t": 206,
  "ственной": 206,
  "улучшения": 206,
  "см@@": 205,
  "сказа@@": 205,
  "разработать": 205,
  "труб@@": 205,
  "сбора": 205,
  "обязанности": 205,
  "уголовного": 205,
  "есть": 205,
  "заявления": 205,
  "держа@@": 205,
  "распределения": 205,
  "управления,": 205,
  "представлять": 205,
  "ления,": 205,
  "грунта": 205,
  "(1)": 205,
  "женщи@@": 205,
  "тно-@@": 205,
  "функ@@": 205,
  "компенсации": 204,
  "преде@@": 204,
  "предусмотренных": 204,
  "экспор@@": 204,
  "тную": 204,
  "предполага@@": 204,
  "III": 204,
  "сной": 204,
  "закона": 204,
  "гиб@@": 204,
  "воздействия": 204,
  "a": 204,
  "ют,": 204,
  "соответствующего": 204,
  "тами,": 204,
  "5)": 204,
  "ност@@": 204,
  "согласо@@": 204,
  "ственные": 204,
  "16.": 203,
  "вный": 203,
  "Советом": 203,
  "телю": 203,
  "Ста@@": 203,
  "взрыво@@": 203,
  "17.": 203,
  "14.": 203,
  "управл@@": 203,
  "ющейся": 203,
  "интере@@": 203,
  "каждый": 203,
  "5/@@": 203,
  "валю@@": 203,
  "именно": 203,
  "заключение": 202,
  "приняли": 202,
  "количества": 202,
  "де,": 202,
  "1993": 202,
  "45": 202,
  "кая": 202,
  "опублико@@": 202,
  "оценку": 202,
  "понима@@": 202,
  "механиз@@": 202,
  "сектора": 202,
  "практики": 202,
  "программе": 202,
  "уче@@": 201,
  "просила": 201,
  "принятые": 201,
  "национальные": 201,
  "нный": 201,
  "заявл@@": 201,
  "Безопасности,": 201,
  "выда@@": 201,
  "Закон": 201,
  "ении.": 201,
  "йской": 201,
  ".9@@": 201,
  "этапе": 201,
  "спе@@": 201,
  "предусматривает": 201,
  ".5": 201,
  "электри@@": 201,
  "актив@@": 201,
  "институ@@": 200,
  "настоящим": 200,
  "стороны,": 200,
  "чески@@": 200,
  "собра@@": 200,
  "повышению": 200,
  "сных": 200,
  "высо@@": 200,
  "механизма": 200,
  "охваты@@": 200,
  "капита@@": 200,
  "резер@@": 200,
  "обеспечении": 200,
  "увеличения": 200,
  "ограничен@@": 199,
  "закуп@@": 199,
  "мент": 199,
  "бор@@": 199,
  "установок": 199,
  "Контрак@@": 199,
  "трубопрово@@": 199,
  "выполнении": 199,
  "характера": 199,
  "ки;": 199,
  "выз@@": 199,
  "элемен@@": 199,
  "Соединенные": 199,
  "задач": 199,
  "региональном": 199,
  "протяжении": 198,
  "сбро@@": 198,
  "ограничи@@": 198,
  "проблем,": 198,
  "предупреждения": 198,
  "любого": 198,
  "соответствующей": 198,
  "партне@@": 198,
  "рост": 198,
  "нах": 198,
  "уз@@": 198,
  "ответствен@@": 198,
  "факт,": 198,
  "подготови@@": 198,
  "преступности": 198,
  "самым": 198,
  "ники": 197,
  "извест@@": 197,
  "демократи@@": 197,
  "работы.": 197,
  "существующих": 197,
  "относятся": 197,
  "озабоченность": 197,
  "198@@": 197,
  "установка": 197,
  "ясь": 197,
  "ющи@@": 197,
  "ЮНФПА": 197,
  "енными": 197,
  "образование": 197,
  "введ@@": 197,
  "150@@": 196,
  "Представитель": 196,
  "рекомендо@@": 196,
  "мор@@": 196,
  "устойчивому": 196,
  "равенства": 196,
  "ством,": 196,
  ".8@@": 196,
  "вид@@": 196,
  "та;": 196,
  "рассматривать": 195,
  "особое": 195,
  "РѕР@@": 195,
  "тиру@@": 195,
  "дить": 195,
  "претензии": 195,
  "ением.": 195,
  "сни@@": 195,
  "1.1@@": 195,
  "ль,": 195,
  "ситуации": 195,
  "палестин@@": 195,
  "стар@@": 195,
  "помощи,": 195,
  "покры@@": 195,
  "конструкций": 195,
  "поддерживает": 195,
  "прогресса": 195,
  "ковой": 195,
  "конвен@@": 195,
  "автомати@@": 194,
  "сессии.": 194,
  "воды,": 194,
  "помещения": 194,
  "нескольких": 194,
  "требует": 194,
  "частью": 194,
  "су": 194,
  "прилож@@": 194,
  "изоля@@": 194,
  "жный": 194,
  "РУ@@": 194,
  "ности@@": 194,
  "Гла@@": 194,
  "ЮНИСЕФ": 193,
  "выпла@@": 193,
  "помещений": 193,
  "пя@@": 193,
  "механизмы": 193,
  "приложении": 193,
  "заме@@": 193,
  "тие": 193,
  "(резолюция": 193,
  "циях": 193,
  "пра@@": 193,
  "сооружений": 193,
  "Стороны": 193,
  "энерго@@": 193,
  "автомоби@@": 193,
  "порядка": 193,
  "мас@@": 193,
  "лению": 193,
  "действующих": 193,
  "движения": 193,
  "II@@": 193,
  "кроме": 193,
  "эк@@": 193,
  "прием@@": 192,
  "18.": 192,
  "техники": 192,
  "установления": 192,
  "Ар@@": 192,
  "мнение": 192,
  "начале": 192,
  "тивным": 192,
  "ситуа@@": 192,
  "вающие": 192,
  "ИН@@": 192,
  "конкре@@": 192,
  "Необходимо": 192,
  "План": 191,
  "ван": 191,
  "персона@@": 191,
  "фору@@": 191,
  "подход": 191,
  "секто@@": 191,
  "Конвенции,": 191,
  "ло,": 191,
  "прожи@@": 191,
  "страны.": 191,
  "форми@@": 191,
  "Закона": 191,
  "обслуживание": 191,
  "документов,": 191,
  "материалов,": 191,
  "расовой": 191,
  "том.": 191,
  "физи@@": 191,
  "жи": 191,
  "ма.": 191,
  "-10@@": 191,
  "фонд": 190,
  "подготовка": 190,
  "определение": 190,
  "слоя": 190,
  "Федерации": 190,
  "вяз@@": 190,
  "дея@@": 190,
  "предотвращения": 190,
  "соедин@@": 190,
  "например": 190,
  "площад@@": 190,
  "нюю": 190,
  "компетен@@": 190,
  "ного,": 189,
  "-4@@": 189,
  "ем.": 189,
  "одна": 189,
  "ровании": 189,
  "мощ@@": 189,
  "ре.": 189,
  "Ассамбле@@": 189,
  "помещ@@": 189,
  "Бо@@": 189,
  "ном,": 189,
  "стратегий": 189,
  "рекоменда@@": 189,
  "зы@@": 189,
  "ше": 189,
  "год,": 189,
  "частного": 189,
  "9/@@": 189,
  "Письмо": 189,
  "позволит": 188,
  "влении": 188,
  "безопасность": 188,
  "услови@@": 188,
  "обучения": 188,
  "1992": 188,
  "зации": 188,
  "пяти": 188,
  "уровнях": 188,
  "каса@@": 188,
  "информационных": 188,
  "приняла": 188,
  "определить": 188,
  "ребенка": 187,
  "лиза@@": 187,
  "Пер@@": 187,
  "подтвержда@@": 187,
  "пунктов": 187,
  "претензий": 187,
  "ровани@@": 187,
  "выполня@@": 187,
  "7/@@": 187,
  "тради@@": 187,
  "испытания": 187,
  "аналоги@@": 187,
  "перечень": 187,
  "инициативы": 187,
  "обществ@@": 187,
  "Штаты": 187,
  "Совету": 187,
  "гото@@": 187,
  "такое": 187,
  "несет": 187,
  "Рµ@@": 187,
  "тации": 187,
  "воздействие": 187,
  "комплекс@@": 187,
  "МО@@": 187,
  "технологий": 187,
  "нефти": 187,
  "идет": 186,
  "скважи@@": 186,
  "независимо": 186,
  "армату@@": 186,
  "нная": 186,
  "доли": 186,
  "лет.": 186,
  "дей@@": 186,
  "регионе": 186,
  "ходя@@": 186,
  "рабочего": 186,
  "законодательства": 186,
  "70": 186,
  "Й@@": 186,
  "государство-участник": 186,
  "68@@": 186,
  "тон@@": 186,
  "хода": 185,
  "регулиру@@": 185,
  "тур@@": 185,
  "сторо@@": 185,
  "конструкции": 185,
  "Фонда": 185,
  "%.": 185,
  "едини@@": 185,
  "следующим": 185,
  "учреждениями": 185,
  "производство": 185,
  "ванного": 184,
  "зоне": 184,
  "имущества": 184,
  "тах,": 184,
  "фонда": 184,
  "доста@@": 184,
  "(пункт": 184,
  "много": 184,
  "ностью,": 184,
  "пору@@": 184,
  "соверша@@": 184,
  "обработки": 184,
  "емое": 184,
  "иде@@": 184,
  "мира.": 184,
  "двадцать": 184,
  "виде@@": 184,
  "правовых": 184,
  "т-@@": 184,
  "d": 184,
  "(говорит": 184,
  "части@@": 184,
  "регули@@": 184,
  "ер@@": 184,
  "рия": 184,
  "Государ@@": 184,
  "счита@@": 184,
  "предлагает": 184,
  "рассмотрении": 184,
  "500@@": 184,
  "оконча@@": 184,
  "пожарной": 183,
  "дам": 183,
  "еди@@": 183,
  "конце": 183,
  "Бе@@": 183,
  "отнош@@": 183,
  "совещание": 183,
  "Основные": 183,
  "N": 183,
  "возмож@@": 183,
  "запа@@": 183,
  "соглашений": 183,
  "43@@": 183,
  "сдела@@": 183,
  "регистра@@": 183,
  "кле@@": 183,
  "утвержда@@": 183,
  "-1": 183,
  "тому,": 183,
  "ман@@": 183,
  "представлен": 183,
  "числу": 183,
  "9,@@": 183,
  "критери@@": 183,
  "Программа": 183,
  "приняты": 183,
  "жо@@": 182,
  "водных": 182,
  "ту.": 182,
  "вправе": 182,
  "доля": 182,
  "вного": 182,
  "полном": 182,
  "категори@@": 182,
  "Z@@": 182,
  "данному": 182,
  "оценка": 182,
  "т.@@": 182,
  "общества,": 182,
  "энергии": 182,
  "Департамент": 182,
  "теку@@": 182,
  "сообщества": 182,
  "провер@@": 182,
  "запро@@": 182,
  "важных": 182,
  "ВИ@@": 182,
  "порядок": 182,
  "ч": 182,
  "место@@": 181,
  "шения": 181,
  "способность": 181,
  "свобод@@": 181,
  "контролю": 181,
  "ста": 181,
  "мест": 181,
  "Генеральным": 181,
  "мости": 181,
  "фу@@": 181,
  "улучшению": 181,
  "выше,": 181,
  "человек": 181,
  "вла@@": 181,
  "ками,": 181,
  "Его": 181,
  "гово@@": 181,
  "рии": 181,
  "вопросами": 181,
  "уточ@@": 181,
  "сту@@": 180,
  "сокращение": 180,
  "находятся": 180,
  "150": 180,
  "лот@@": 180,
  "лось,": 180,
  "отмечает": 180,
  "отметить,": 180,
  "хранения": 180,
  "которому": 180,
  "служб": 180,
  "Северной": 180,
  "води@@": 180,
  "лых": 180,
  "системой": 180,
  "влены": 180,
  "РК": 180,
  "лесо@@": 180,
  "исключительно": 179,
  "исследования": 179,
  "соответствие": 179,
  "рования,": 179,
  "проблемам": 179,
  "сты": 179,
  "рение": 179,
  "мето@@": 179,
  "последующей": 179,
  "высокой": 179,
  "работников": 179,
  "щается": 179,
  "участием": 179,
  "стать": 178,
  "бере@@": 178,
  "вре@@": 178,
  "потреби@@": 178,
  "46@@": 178,
  "подлежа@@": 178,
  "спор@@": 178,
  "(I@@": 178,
  "охва@@": 178,
  "без@@": 178,
  "телей.": 178,
  "региональные": 178,
  "обзора": 178,
  "нарушение": 178,
  "пря@@": 178,
  "разработку": 178,
  "разделе": 178,
  "га,": 178,
  "положи@@": 178,
  "гуманитарной": 178,
  "ГПЗ@@": 178,
  "СЕ@@": 178,
  "щению": 178,
  "ционным": 178,
  "задолженности": 178,
  "тельную": 178,
  "нагруз@@": 178,
  "МООН@@": 178,
  "8/@@": 177,
  "назначения": 177,
  "вому": 177,
  "нали@@": 177,
  "бетона": 177,
  "Несмотря": 177,
  "ЕР@@": 177,
  "резолюции,": 177,
  "В.": 177,
  "выступа@@": 177,
  "регистрации": 177,
  "призы@@": 177,
  "африканских": 177,
  "м3/@@": 177,
  "полез@@": 177,
  "применять": 177,
  "ЕТ@@": 177,
  "ственный": 176,
  "соответствует": 176,
  "важным": 176,
  "подроб@@": 176,
  "цемен@@": 176,
  "знач@@": 176,
  "транспорта": 176,
  "рой": 176,
  "гражданской": 176,
  "изгото@@": 176,
  "испытаний": 176,
  "ванный": 176,
  "добы@@": 176,
  "термо@@": 176,
  "ме,": 176,
  "электронной": 176,
  "кры@@": 176,
  "вные": 176,
  "зако@@": 176,
  "Монтаж": 175,
  "вы,": 175,
  "местного": 175,
  "добиться": 175,
  "существует": 175,
  "моби@@": 175,
  "жении": 175,
  "нормы": 175,
  "Из": 175,
  "пр@@": 175,
  "ровки": 175,
  "судебных": 175,
  "лах": 175,
  "нять": 175,
  "режима": 175,
  "рии,": 175,
  "поддержи@@": 175,
  "ти,": 175,
  "ениях,": 175,
  "рын@@": 175,
  "уде@@": 175,
  "ТП@@": 174,
  "тельном": 174,
  "экологи@@": 174,
  "затем": 174,
  "тивное": 174,
  "настоящем": 174,
  "независи@@": 174,
  "Заказчика": 174,
  "я;": 174,
  "получение": 174,
  "анти@@": 174,
  "Миссии": 174,
  "скважин": 174,
  "охране": 174,
  "соответственно": 174,
  "правило,": 174,
  "прибо@@": 174,
  "м/@@": 174,
  "щать": 173,
  "нес@@": 173,
  "восстановления": 173,
  "32@@": 173,
  "тока": 173,
  "Х": 173,
  "гор@@": 173,
  "связанной": 173,
  "отсутствия": 173,
  "производится": 173,
  "ИК@@": 173,
  "цеп@@": 173,
  "совет@@": 173,
  "полиции": 173,
  "тре@@": 173,
  "учитывать": 173,
  "транспорти@@": 173,
  "есте@@": 173,
  "бе": 173,
  "(статья": 173,
  "честь": 173,
  "Секретариат": 173,
  "осу@@": 172,
  "министров": 172,
  "основного": 172,
  "относится": 172,
  "ОБ@@": 172,
  "торговле": 172,
  "разум@@": 172,
  "горо@@": 172,
  "зов": 172,
  "резолюцией": 172,
  "ляется": 172,
  "температура": 172,
  "основным": 172,
  "лен": 172,
  "распредели@@": 172,
  "(2@@": 172,
  "ен": 172,
  "ii)": 172,
  "опасных": 172,
  "мым": 172,
  "закреп@@": 172,
  "тором": 172,
  "дискримина@@": 172,
  "вание,": 171,
  "двумя": 171,
  "прош@@": 171,
  "реша@@": 171,
  "функций": 171,
  "прово@@": 171,
  "ванной": 171,
  "ЛО@@": 171,
  "связь": 171,
  "раздел": 171,
  "входят": 171,
  "Щ@@": 171,
  "большой": 171,
  "работающих": 171,
  "возрасте": 171,
  "формы": 171,
  "400": 171,
  "Рас@@": 171,
  "суда": 171,
  "особо": 171,
  "бы,": 171,
  "признательность": 171,
  "приведены": 171,
  "перевоз@@": 170,
  "расхо@@": 170,
  "вленные": 170,
  "суд@@": 170,
  "ООН@@": 170,
  "Ком@@": 170,
  "цию.": 170,
  "урегулирования": 170,
  "постро@@": 170,
  "коле@@": 170,
  "гуманитарного": 170,
  "инвестиций": 170,
  "продолжает": 170,
  "оружия,": 170,
  "о,": 170,
  "технологического": 170,
  "опасности": 170,
  "-3@@": 170,
  "конденсата": 170,
  "причем": 170,
  "остро@@": 170,
  "шка@@": 170,
  "ениями,": 170,
  "конститу@@": 170,
  "выра@@": 169,
  "семина@@": 169,
  "поправ@@": 169,
  "миро@@": 169,
  "следо@@": 169,
  "шестой": 169,
  "РЅ@@": 169,
  "незакон@@": 169,
  "п": 169,
  "интеграции": 169,
  "нк@@": 169,
  "структуры": 169,
  "х)": 169,
  "(К@@": 169,
  "замечания": 169,
  "Схема": 169,
  "сохраня@@": 169,
  "мы,": 169,
  "ек@@": 169,
  "жизнь": 169,
  "решения,": 169,
  "соедини@@": 169,
  "требовани@@": 169,
  "цией.": 169,
  "водоснабжения": 169,
  "зе@@": 169,
  "комисси@@": 169,
  "льными": 169,
  "ком.": 169,
  "го.": 169,
  "выхода": 168,
  "лизации": 168,
  "ок@@": 168,
  "колон@@": 168,
  "почти": 168,
  "заключения": 168,
  "прав@@": 168,
  "8,@@": 168,
  "сотрудни@@": 168,
  "ведение": 168,
  "мирного": 168,
  "использованию": 168,
  "сы,": 168,
  "способности": 168,
  "итогам": 168,
  "установ@@": 168,
  "движ@@": 168,
  "V": 168,
  "круп@@": 168,
  "располож@@": 168,
  "рам@@": 168,
  "участка": 168,
  "общий": 168,
  "четырех": 168,
  "арен@@": 168,
  "en@@": 168,
  "судебного": 168,
  "чными": 168,
  "СН@@": 168,
  "сигнализа@@": 168,
  "результатам": 167,
  "Рабо@@": 167,
  "пенси@@": 167,
  "енная": 167,
  "ь.": 167,
  "миссии": 167,
  ".1,": 167,
  "усилия,": 167,
  "т/@@": 167,
  "65@@": 167,
  "заболе@@": 167,
  "сти.": 167,
  "природ@@": 167,
  "раствора": 167,
  "нарушений": 167,
  "Заказчи@@": 167,
  "предусмотреть": 167,
  "замеча@@": 167,
  "четко": 167,
  "представи@@": 167,
  "влением": 167,
  "внутри@@": 167,
  "соединения": 167,
  "основания": 167,
  "зирован@@": 167,
  "находящихся": 167,
  "ющегося": 167,
  "состояние": 167,
  "ках,": 167,
  "функциони@@": 166,
  "времен@@": 166,
  "проблемы,": 166,
  "мати@@": 166,
  "нор@@": 166,
  "ИТ@@": 166,
  "зер@@": 166,
  "выполнению": 166,
  "топли@@": 166,
  "on@@": 166,
  "приме@@": 166,
  "иных": 166,
  "никаких": 166,
  "плате@@": 166,
  "ство.": 166,
  "задержа@@": 166,
  "свидетель@@": 166,
  "общественной": 166,
  "встречи": 166,
  "боль@@": 166,
  "песча@@": 166,
  "обмен@@": 166,
  "отвечает": 166,
  "клад@@": 166,
  "32": 166,
  "заседания": 166,
  "I,": 166,
  "шее": 165,
  "проекте": 165,
  "ваний": 165,
  "ц,": 165,
  "Сторон": 165,
  "предоста@@": 165,
  "теля@@": 165,
  "доступ@@": 165,
  "заседа@@": 165,
  "уст@@": 165,
  "рованный": 165,
  "сла@@": 165,
  "предусмотрен@@": 165,
  "Техни@@": 165,
  "Африке": 165,
  "площадки": 165,
  "кодек@@": 165,
  "осуществляться": 165,
  "большинство": 165,
  "убежд@@": 164,
  "секретаря,": 164,
  "очень": 164,
  "уро@@": 164,
  "мов": 164,
  "л.@@": 164,
  "1).": 164,
  "ответ": 164,
  "ственным": 164,
  "рами,": 164,
  "государство": 164,
  "600": 164,
  "ствами": 164,
  "ственное": 164,
  "прилага@@": 164,
  "окру@@": 164,
  "политики,": 164,
  "конец": 164,
  "утверждения": 164,
  "непосред@@": 164,
  "сли@@": 164,
  "ший": 164,
  "т.е.": 163,
  "/Add@@": 163,
  "объ@@": 163,
  "торов,": 163,
  "работать": 163,
  "разрешения": 163,
  "часто": 163,
  "типо@@": 163,
  "расходов,": 163,
  "Администра@@": 163,
  "ведом@@": 163,
  "НП@@": 163,
  "Ки@@": 163,
  "тно": 163,
  "иной": 163,
  "теля.": 163,
  "валось": 163,
  "проекты": 163,
  "телям": 163,
  "(с": 163,
  "расширение": 163,
  "задачи": 163,
  "вное": 163,
  "осуществляет": 163,
  "изыска@@": 163,
  "простран@@": 163,
  "жения,": 163,
  "включать": 162,
  "устанавли@@": 162,
  "двига@@": 162,
  "государствами": 162,
  "участвовать": 162,
  "полно@@": 162,
  "крупных": 162,
  "надзора": 162,
  "должност@@": 162,
  "ться,": 162,
  "ограни@@": 162,
  "един@@": 162,
  "Ни@@": 162,
  "ене@@": 162,
  "маши@@": 162,
  "сессии,": 162,
  "используется": 162,
  "корректи@@": 162,
  "Кита@@": 162,
  "расчета": 162,
  "резолюций": 162,
  "f)": 162,
  "ции:": 162,
  "себе": 162,
  "справедли@@": 162,
  "Экономического": 162,
  "очист@@": 162,
  "развитии": 162,
  "достижению": 162,
  "луч@@": 162,
  "Новой": 162,
  "A/@@": 161,
  "распространение": 161,
  "предприятия": 161,
  "Электро@@": 161,
  "Афри@@": 161,
  "поставки": 161,
  "клапана": 161,
  "(1@@": 161,
  "прибы@@": 161,
  "сре@@": 161,
  "тому": 161,
  "лег@@": 161,
  "Постоянного": 161,
  "СЃ@@": 161,
  "кан@@": 161,
  "Латинской": 161,
  "услуг,": 161,
  "подхода": 161,
  "ЗА@@": 161,
  "проектной": 161,
  "профи@@": 161,
  "наи@@": 161,
  "дает": 161,
  "тым": 160,
  "т:": 160,
  "государствам": 160,
  "предусмотрены": 160,
  "виды": 160,
  "плот@@": 160,
  "Д.": 160,
  "наме@@": 160,
  "региона": 160,
  "согласия": 160,
  "активно": 160,
  "с-@@": 160,
  "сокра@@": 160,
  "положения,": 160,
  "органа": 160,
  "чена": 160,
  "представляют": 160,
  "схема": 160,
  "планирования": 159,
  "ресурсов.": 159,
  "уничто@@": 159,
  "поз@@": 159,
  "своим": 159,
  "мнения": 159,
  "Воз@@": 159,
  "GB@@": 159,
  "финансового": 159,
  "е;": 159,
  "удовлетворения": 159,
  "одно": 159,
  "года;": 159,
  "бер@@": 159,
  "университе@@": 159,
  "опла@@": 159,
  "6)": 159,
  "достижение": 159,
  "ъ@@": 159,
  "торго@@": 159,
  "33": 159,
  "од@@": 159,
  "средствами": 159,
  "вающего": 159,
  "роваться": 159,
  "установленных": 159,
  "предоставлять": 159,
  "включают": 159,
  "трансформа@@": 159,
  "горизонта@@": 159,
  "представитель@@": 159,
  "исклю@@": 159,
  "учреждений,": 158,
  "гро@@": 158,
  "составляют": 158,
  "проектирования": 158,
  "90": 158,
  "пересе@@": 158,
  "применением": 158,
  "ным.": 158,
  "включения": 158,
  "тамож@@": 158,
  ".1.": 158,
  "предназна@@": 158,
  "динами@@": 158,
  "отра@@": 158,
  "стату@@": 158,
  "потери": 158,
  "поддержка": 158,
  "посред@@": 158,
  "наруш@@": 158,
  "обно@@": 158,
  "большое": 158,
  "участни@@": 158,
  "гео@@": 157,
  "ства;": 157,
  "Поскольку": 157,
  "деятельностью": 157,
  "допуска@@": 157,
  "имеются": 157,
  "общее": 157,
  "положению": 157,
  "успеш@@": 157,
  "отношение": 157,
  "Э": 157,
  "последстви@@": 157,
  "гермети@@": 157,
  "последних": 157,
  "вным": 157,
  "претензи@@": 157,
  "предупреждению": 157,
  "Пункт": 157,
  "высказа@@": 157,
  "любые": 157,
  "ствовать": 157,
  "программ,": 157,
  "лам@@": 157,
  "эффективной": 157,
  "85@@": 157,
  "ООО": 157,
  "чей": 157,
  "рованию": 157,
  "дни@@": 157,
  "II.": 157,
  "народ@@": 156,
  "сорок": 156,
  "механизм": 156,
  "полномочий": 156,
  "областях,": 156,
  "судь@@": 156,
  "300@@": 156,
  "лет,": 156,
  "Некоторые": 156,
  "вне": 156,
  "каз@@": 156,
  "ченного": 156,
  "совеща@@": 156,
  "поряд@@": 156,
  "сного": 156,
  "пятой": 156,
  "меня@@": 156,
  "лка": 156,
  "обуч@@": 156,
  "провед@@": 156,
  "йного": 156,
  "ствен@@": 156,
  "уголо@@": 156,
  "системати@@": 156,
  "учеб@@": 156,
  "Конвенции.": 156,
  "тех,": 155,
  "промы@@": 155,
  "внутренней": 155,
  "44@@": 155,
  "лица@@": 155,
  "44": 155,
  "функционирования": 155,
  "95@@": 155,
  "Y@@": 155,
  "уровне,": 155,
  "°@@": 155,
  "мое": 155,
  "ав@@": 155,
  "малых": 155,
  "био@@": 155,
  "Генеральному": 155,
  "ющимся": 155,
  "Пред@@": 155,
  "государства@@": 155,
  "расследо@@": 155,
  "отметил,": 155,
  "внутрен@@": 154,
  "четыре": 154,
  "значительно": 154,
  "осуществлением": 154,
  "концеп@@": 154,
  "Ассамблеей": 154,
  "вспомогательных": 154,
  "емыми": 154,
  "райо@@": 154,
  "метал@@": 154,
  "актов": 154,
  "бассей@@": 154,
  "детей.": 154,
  "жная": 154,
  "+": 154,
  "Южной": 154,
  "иностран@@": 154,
  "поврежд@@": 154,
  "препят@@": 154,
  "свидетельствует": 154,
  "Тем": 154,
  "практике": 154,
  "Комитету": 154,
  "предоставлении": 154,
  "конфликтов": 154,
  "Демократической": 154,
  "публи@@": 153,
  "1991": 153,
  "Социального": 153,
  "чки": 153,
  "санита@@": 153,
  "общие": 153,
  "служ@@": 153,
  "мя@@": 153,
  "эксплуатацию": 153,
  "лы,": 153,
  "областях": 153,
  "коммуника@@": 153,
  "наро@@": 153,
  "(на": 153,
  "лений": 153,
  "организацией": 153,
  "ениям,": 153,
  "стве,": 153,
  "субъек@@": 153,
  "Помимо": 153,
  "характеристи@@": 152,
  "уделять": 152,
  "м-@@": 152,
  "=1,@@": 152,
  "сигна@@": 152,
  "осве@@": 152,
  "КА@@": 152,
  "ti@@": 152,
  "влен@@": 152,
  "упомяну@@": 152,
  "СНиП": 152,
  "Фонд": 152,
  "блоки@@": 152,
  "став@@": 152,
  "мого": 152,
  "ва.": 152,
  "объедин@@": 152,
  "импор@@": 152,
  "Таблица": 152,
  "имеющихся": 152,
  "выплаты": 152,
  "бал@@": 152,
  "йского": 152,
  "вследствие": 152,
  "оказать": 152,
  "год.": 152,
  "Комитетом": 152,
  "ну,": 151,
  "получен@@": 151,
  "скважины": 151,
  "треть@@": 151,
  "разработка": 151,
  "Секретариата": 151,
  "газа,": 151,
  "избира@@": 151,
  "исследо@@": 151,
  "продуктов": 151,
  "стальной": 151,
  "предложений": 151,
  "лены": 151,
  "финанси@@": 151,
  "Те@@": 151,
  "ресур@@": 151,
  "чении": 151,
  "законодательством": 151,
  "сум@@": 151,
  "обусло@@": 151,
  "этого,": 151,
  "_@@": 151,
  "75": 151,
  "выплачи@@": 151,
  "страна@@": 151,
  "мени@@": 151,
  "правительству": 151,
  "последующих": 151,
  "дер@@": 151,
  "Росси@@": 151,
  "Ви@@": 151,
  "Ак@@": 151,
  "ду,": 151,
  "вшиеся": 150,
  "ционное": 150,
  "ляются": 150,
  "Ан@@": 150,
  "кВ@@": 150,
  "группе": 150,
  "ной.": 150,
  "второго": 150,
  "свыше": 150,
  "планов": 150,
  "интер@@": 150,
  "вариан@@": 150,
  "информа@@": 150,
  "напряжения": 150,
  "людских": 150,
  "сов.": 150,
  "тенден@@": 150,
  "разных": 150,
  "отче@@": 150,
  "×@@": 150,
  "лицензи@@": 150,
  "жением": 150,
  "(например,": 150,
  "дан@@": 150,
  "рован": 149,
  "позволя@@": 149,
  "сотрудниче@@": 149,
  "законо@@": 149,
  "требуется": 149,
  "тельства": 149,
  "минима@@": 149,
  "строй@@": 149,
  "восьмой": 149,
  "30.": 149,
  "осмот@@": 149,
  "рению": 149,
  "года)": 149,
  "количе@@": 149,
  "месяцев": 149,
  "над@@": 149,
  "механи@@": 149,
  "рассматрива@@": 149,
  "федераль@@": 149,
  "уго@@": 149,
  "произвед@@": 149,
  "4/@@": 149,
  "пересмотрен@@": 149,
  "чи": 149,
  "секретариат": 149,
  "комплекса": 149,
  "центра": 149,
  "специали@@": 148,
  "привести": 148,
  "предприятий": 148,
  "ряде": 148,
  "сообщения": 148,
  "одном": 148,
  "т.д.": 148,
  "взры@@": 148,
  "клады@@": 148,
  "представление": 148,
  "обязан@@": 148,
  "работ.": 148,
  "качество": 148,
  "существ@@": 148,
  "Комиссией": 148,
  "Гн": 148,
  "семьи": 148,
  "Объек@@": 148,
  "внима@@": 148,
  "ниж@@": 148,
  "Заказчик": 148,
  "дальнейшего": 148,
  "энергети@@": 148,
  "диалога": 148,
  "остается": 148,
  "социальным": 148,
  "мн@@": 148,
  "обстоятель@@": 148,
  "резолю@@": 148,
  "Международная": 148,
  "ито@@": 148,
  "2.1@@": 148,
  "коэффициент": 148,
  "йских": 147,
  "прод@@": 147,
  "этими": 147,
  "стандартов": 147,
  "ГПЗ": 147,
  "смот@@": 147,
  "принятии": 147,
  "валась": 147,
  "х:": 147,
  "трещи@@": 147,
  "важную": 147,
  "све@@": 147,
  "очередь": 147,
  "авиа@@": 147,
  "неу@@": 147,
  "путей": 147,
  "марки": 147,
  "поле@@": 147,
  "измери@@": 147,
  "3.1@@": 147,
  "данных,": 147,
  "НПО": 147,
  "тивная": 147,
  "руководящие": 147,
  "налого@@": 147,
  "мый": 146,
  "пользова@@": 146,
  "глобаль@@": 146,
  "or@@": 146,
  "уменьшения": 146,
  "конкур@@": 146,
  "22.": 146,
  "завод@@": 146,
  "применяются": 146,
  "вя@@": 146,
  "заседание": 146,
  "перемещенных": 146,
  "обосно@@": 146,
  "компрессо@@": 146,
  "мента@@": 146,
  "различными": 146,
  "23.": 146,
  "ЦИ@@": 146,
  "D": 146,
  "дискриминации,": 146,
  "текст": 146,
  "1:@@": 146,
  "изоляции": 146,
  "месторождения": 146,
  "сроки": 146,
  "региональными": 146,
  "коррози@@": 146,
  "110@@": 146,
  "Ы": 146,
  "ву": 146,
  "центров": 146,
  "коло@@": 146,
  "вам": 146,
  "МП@@": 146,
  "(200@@": 146,
  "фе@@": 145,
  "шими": 145,
  "лизация": 145,
  "сесси@@": 145,
  "всегда": 145,
  "оцени@@": 145,
  "диа@@": 145,
  "взносы": 145,
  "ремонта": 145,
  "обмен": 145,
  "(A/5@@": 145,
  "сеть": 145,
  "корпора@@": 145,
  "ско-@@": 145,
  "документы,": 145,
  "выбро@@": 145,
  "ориенти@@": 145,
  "нов,": 145,
  "дро@@": 145,
  "слова": 145,
  "сам": 145,
  "другого": 145,
  "исходя": 145,
  "универса@@": 145,
  "представляется": 145,
  "ступ@@": 145,
  "реформы": 145,
  "С)": 145,
  "…@@": 145,
  "вспомога@@": 145,
  "допусти@@": 145,
  "просьбой": 145,
  "рен": 145,
  "защита": 145,
  "людей,": 144,
  "оказывает": 144,
  "рово@@": 144,
  "отношению": 144,
  "ств.": 144,
  "ме.": 144,
  "г-@@": 144,
  "Например,": 144,
  "Устава": 144,
  "монтаж": 144,
  "пригла@@": 144,
  "очи@@": 144,
  "пользу": 144,
  "практику@@": 144,
  "(S/@@": 144,
  "ограничения": 144,
  "находи@@": 144,
  "ядерных": 144,
  "располага@@": 144,
  "базы": 144,
  "эффективность": 144,
  "недостаточ@@": 144,
  "помо@@": 144,
  "Це@@": 144,
  "деся@@": 144,
  "административных": 144,
  "вар@@": 144,
  "зая@@": 144,
  "рования.": 144,
  "мую": 144,
  "обсужда@@": 144,
  "рения": 144,
  "ступа@@": 144,
  "рассматри@@": 144,
  "режим": 144,
  "терми@@": 144,
  "регионального": 144,
  "монтажа": 144,
  "продолжить": 144,
  "ву@@": 143,
  "рным": 143,
  "пользования": 143,
  "докладчи@@": 143,
  "апелля@@": 143,
  "использовании": 143,
  "оружи@@": 143,
  "формули@@": 143,
  "правосудия": 143,
  "Западной": 143,
  "сообщи@@": 143,
  "мире": 143,
  "эн@@": 143,
  "стало": 143,
  "постоянного": 143,
  "66@@": 143,
  "нам,": 143,
  "наших": 143,
  "ровали": 143,
  "намер@@": 143,
  "исполнении": 143,
  "серо@@": 143,
  "табли@@": 143,
  "отража@@": 143,
  "ными.": 143,
  "в;": 143,
  "потреб@@": 143,
  "ца,": 143,
  "среде": 143,
  "улуч@@": 143,
  "поставля@@": 143,
  "A/5@@": 143,
  "ссылаясь": 143,
  "членам": 143,
  "Гру@@": 143,
  "сварки": 143,
  "До": 143,
  "предлагается": 143,
  "моду@@": 143,
  "/199@@": 142,
  "выя@@": 142,
  "ственная": 142,
  "направля@@": 142,
  "-20@@": 142,
  "седьмой": 142,
  "определенных": 142,
  "насоса": 142,
  "сторон@@": 142,
  "рован@@": 142,
  "Пе@@": 142,
  "современ@@": 142,
  "(включая": 142,
  "управлению": 142,
  "нное": 142,
  "приз@@": 142,
  "значительной": 142,
  "мирных": 142,
  "политику": 142,
  "связа@@": 142,
  "вооруж@@": 142,
  "генера@@": 142,
  "мента": 142,
  "аспектов": 142,
  "21.": 142,
  "утра@@": 142,
  "собственности": 142,
  "измер@@": 142,
  "государств-членов": 142,
  "Республика,": 142,
  "груз@@": 142,
  "дар@@": 142,
  "привед@@": 142,
  "сертифика@@": 142,
  "соответ@@": 142,
  "методы": 142,
  "внеш@@": 141,
  "Рѕ@@": 141,
  "вопросах": 141,
  "консенсу@@": 141,
  "среды,": 141,
  "основу": 141,
  "бежен@@": 141,
  "1-1@@": 141,
  "устанавливается": 141,
  "занятости": 141,
  "7)": 141,
  "лки": 141,
  "мина@@": 141,
  "ваемой": 141,
  "подтвержд@@": 141,
  "СК@@": 141,
  "возможных": 141,
  "рей@@": 141,
  "36": 141,
  "кость": 141,
  "глав@@": 141,
  "влено": 141,
  "Тимо@@": 141,
  "усло@@": 141,
  "ний,": 141,
  "сотрудничеству": 141,
  "XXI": 141,
  "8)": 141,
  "ное,": 141,
  "ори@@": 141,
  "34": 141,
  "ради@@": 141,
  "нии.": 141,
  "линей@@": 141,
  "руют": 141,
  "1;": 141,
  "важ@@": 141,
  "поступа@@": 141,
  "разоружения": 141,
  "ств@@": 140,
  "наличия": 140,
  "кисло@@": 140,
  "степень": 140,
  "ратифици@@": 140,
  "цо@@": 140,
  "органов,": 140,
  "относи@@": 140,
  "наз@@": 140,
  "опыт": 140,
  "обеспокоенность": 140,
  "участники": 140,
  "ез@@": 140,
  "принимается": 140,
  "ющем": 140,
  "сть,": 140,
  "надо": 140,
  "назы@@": 140,
  "медицин@@": 140,
  "заказчи@@": 140,
  "перемещ@@": 140,
  "интересов": 140,
  "решений,": 140,
  "(В@@": 140,
  "дела": 140,
  "цы,": 140,
  "использу@@": 140,
  "вший": 140,
  "обращения": 140,
  "оборудо@@": 140,
  "недавно": 140,
  "бума@@": 140,
  "отвеча@@": 140,
  "транспортных": 140,
  "Р,": 140,
  "двусторон@@": 140,
  "своими": 140,
  "Ча@@": 140,
  "вин@@": 140,
  "бол@@": 140,
  "Ы@@": 140,
  "Отдел": 140,
  "енном": 139,
  "читель@@": 139,
  "социаль@@": 139,
  "совмест@@": 139,
  "сове@@": 139,
  "яви@@": 139,
  "культуры": 139,
  "систем@@": 139,
  "ваго@@": 139,
  "кой.": 139,
  "слоев": 139,
  "полученных": 139,
  "фундамен@@": 139,
  "гендерной": 139,
  "альных": 139,
  "рована": 139,
  "щении": 139,
  "раб@@": 139,
  "одновременно": 139,
  "грунтов": 139,
  "ев": 139,
  "необходимой": 139,
  "группа@@": 139,
  "согласи@@": 139,
  "касающимся": 139,
  "таких,": 138,
  "завер@@": 138,
  "вол@@": 138,
  "уровне.": 138,
  "подо@@": 138,
  "город@@": 138,
  "воздухо@@": 138,
  "потенциаль@@": 138,
  "затраги@@": 138,
  "каза@@": 138,
  "чь": 138,
  "руются": 138,
  "описа@@": 138,
  "Интерне@@": 138,
  "бедстви@@": 138,
  "поддержания": 138,
  "сса@@": 138,
  "сооружения": 138,
  "орган": 138,
  "истори@@": 138,
  "ная,": 138,
  "мало@@": 138,
  "отделения": 138,
  "-8@@": 138,
  "ья": 138,
  "ПРО@@": 138,
  "государству-участнику": 138,
  "расче@@": 138,
  "Международный": 138,
  "Анго@@": 138,
  "магистра@@": 138,
  "приемле@@": 138,
  "обеспе@@": 138,
  "сферы": 138,
  "обучение": 138,
  "средней": 138,
  "Маль@@": 138,
  "спи@@": 137,
  "лек@@": 137,
  "показатель": 137,
  "адвока@@": 137,
  "сси@@": 137,
  "исполнитель@@": 137,
  "стенки": 137,
  "пуска": 137,
  "центр": 137,
  "превышает": 137,
  "ваемого": 137,
  "дирек@@": 137,
  "заключа@@": 137,
  "статисти@@": 137,
  "образо@@": 137,
  "пото@@": 137,
  "жден": 137,
  "базо@@": 137,
  "бюджет": 137,
  "рах,": 137,
  "содействии": 137,
  "инспек@@": 137,
  "65": 137,
  "специальные": 137,
  "шести": 137,
  "первую": 137,
  "выполн@@": 137,
  "тельными": 137,
  "S/2001/@@": 137,
  "хими@@": 137,
  "III@@": 137,
  "района": 137,
  "26.": 136,
  "действовать": 136,
  "Федера@@": 136,
  "цен": 136,
  "Ду@@": 136,
  "каждом": 136,
  "проекти@@": 136,
  "re@@": 136,
  "77": 136,
  "СУ@@": 136,
  "пределами": 136,
  "граждан": 136,
  "персонала,": 136,
  "прекра@@": 136,
  "млрд.": 136,
  "I.": 136,
  "нельзя": 136,
  "ревизи@@": 136,
  "монта@@": 136,
  "решением": 136,
  "сохранения": 136,
  "зарегистри@@": 136,
  "(О@@": 136,
  "постоянно": 136,
  "надеж@@": 136,
  "финансирование": 136,
  "системы,": 136,
  "разрабаты@@": 136,
  "пользо@@": 136,
  "Европейский": 136,
  "масшта@@": 136,
  "холо@@": 136,
  "поставщи@@": 136,
  "отбо@@": 136,
  "сь": 136,
  "ри": 136,
  "никами": 136,
  "действий.": 136,
  "главных": 136,
  "соответствия": 136,
  "проч@@": 136,
  "предварительного": 136,
  "жное": 135,
  "ВВ@@": 135,
  "расширению": 135,
  "указы@@": 135,
  "полное": 135,
  "цами": 135,
  "кадров": 135,
  "31.": 135,
  "справо@@": 135,
  "географи@@": 135,
  "пара@@": 135,
  "кам,": 135,
  "т)": 135,
  "подоб@@": 135,
  "хоро@@": 135,
  "связей": 135,
  "ото@@": 135,
  "полномочи@@": 135,
  "профилакти@@": 135,
  "п.@@": 135,
  "обе@@": 135,
  "обязанностей": 135,
  "метро@@": 135,
  "сотрудничать": 135,
  "должностных": 135,
  "друг": 135,
  "широкого": 135,
  "мир@@": 135,
  "лицо": 135,
  "развити@@": 135,
  "вертика@@": 135,
  "будущем": 135,
  "мерах": 135,
  "Р»@@": 135,
  "(E@@": 135,
  "серы": 135,
  "приборов": 135,
  "ровано": 135,
  "дра@@": 135,
  "провода": 135,
  "соблюдение": 135,
  "дискусси@@": 134,
  "st@@": 134,
  "странах.": 134,
  "42": 134,
  "снаб@@": 134,
  "дели@@": 134,
  "изучения": 134,
  "организациями,": 134,
  "ности;": 134,
  "рус@@": 134,
  "группу": 134,
  "опыта": 134,
  "ся@@": 134,
  "сельского": 134,
  "культурных": 134,
  "отдел@@": 134,
  "56@@": 134,
  "земле@@": 134,
  "разнообрази@@": 134,
  "w@@": 134,
  "партии": 134,
  "предвари@@": 134,
  "судебной": 134,
  "лии": 134,
  "повысить": 134,
  "области.": 134,
  "вающей": 134,
  "r": 134,
  "коне@@": 134,
  "заинтересованных": 133,
  "it@@": 133,
  "влия@@": 133,
  "влияние": 133,
  "свед@@": 133,
  "элементы": 133,
  "повестку": 133,
  "сен@@": 133,
  "статей": 133,
  "мероприятий,": 133,
  "правительствами": 133,
  "принято": 133,
  "крити@@": 133,
  "а.": 133,
  "экономическим": 133,
  "шу@@": 133,
  "енную": 133,
  "номина@@": 133,
  "внести": 133,
  "использоваться": 133,
  "Add@@": 133,
  "акти@@": 133,
  "ще": 133,
  "Центральной": 133,
  "нау@@": 133,
  "Азии": 133,
  "обрати@@": 133,
  "получи@@": 133,
  "выполняется": 133,
  "Пу@@": 133,
  "направлении": 133,
  "39": 133,
  "снижения": 133,
  "арматуры": 133,
  "енность": 133,
  "ул.": 133,
  "общая": 133,
  "любое": 133,
  "ГИ@@": 133,
  "инфраструктуры": 133,
  "воздействи@@": 132,
  "всеобъемлю@@": 132,
  "ниям": 132,
  "могла": 132,
  "доброволь@@": 132,
  "извле@@": 132,
  "дру@@": 132,
  "Герцегови@@": 132,
  "делу": 132,
  "развивающиеся": 132,
  "ST@@": 132,
  "затра@@": 132,
  "Экономи@@": 132,
  "выража@@": 132,
  "первый": 132,
  "Ле@@": 132,
  "))": 132,
  "Карибского": 132,
  "входит": 132,
  "жест@@": 132,
  "голосо@@": 132,
  "народа": 132,
  "сы.": 132,
  "компонен@@": 132,
  "та)": 132,
  "направления": 132,
  "Центра@@": 131,
  "возобно@@": 131,
  "размещения": 131,
  "плен@@": 131,
  "пяти@@": 131,
  "производственных": 131,
  "ущерба": 131,
  "Исполнительного": 131,
  "ник@@": 131,
  "жению": 131,
  "нас": 131,
  "ями.": 131,
  "отве@@": 131,
  "пуска@@": 131,
  "законом": 131,
  "метри@@": 131,
  "печа@@": 131,
  "достаточ@@": 131,
  "техническим": 131,
  "чрезвычай@@": 131,
  "отчет": 131,
  "хозяйства": 131,
  "програм@@": 131,
  "дрена@@": 131,
  "влаж@@": 131,
  "буду@@": 131,
  "сть@@": 131,
  "сделан@@": 131,
  "ленных": 131,
  "каких-либо": 131,
  "политика": 131,
  "кри@@": 131,
  "бли@@": 131,
  "де.": 131,
  "температуре": 131,
  "она@@": 131,
  "ред@@": 130,
  "устройств": 130,
  "лов,": 130,
  "ру.": 130,
  "открытого": 130,
  "противопожа@@": 130,
  "вающий": 130,
  "перио@@": 130,
  "инициати@@": 130,
  "Приложение": 130,
  "беженцев,": 130,
  "программы,": 130,
  "переходной": 130,
  "ств,": 130,
  "эффективно": 130,
  "ой": 130,
  "установку": 130,
  "шая": 130,
  "тельность": 130,
  "какие": 130,
  "страда@@": 130,
  "кли@@": 130,
  "1.0@@": 130,
  "нынеш@@": 130,
  "гарантии": 130,
  "дня@@": 130,
  "эффективных": 130,
  "29.": 130,
  "вшим": 130,
  "страна": 130,
  "имеется": 130,
  "сегодня": 130,
  "конференций": 130,
  "рамки": 130,
  "продолжи@@": 130,
  "определен@@": 130,
  "Прави@@": 130,
  "производить": 130,
  "сотрудников,": 129,
  "трас@@": 129,
  "-110@@": 129,
  "региональной": 129,
  "искус@@": 129,
  "сообща@@": 129,
  "кер@@": 129,
  "℃@@": 129,
  "прекращения": 129,
  "дет": 129,
  "серьезные": 129,
  "доно@@": 129,
  "докладчика": 129,
  "Докумен@@": 129,
  "организациям": 129,
  "стадии": 129,
  "ды,": 129,
  "информацион@@": 129,
  "осуществл@@": 129,
  "тес@@": 129,
  "едино@@": 129,
  "2(@@": 129,
  "руководства": 129,
  "ний.": 129,
  "примен@@": 129,
  "зон": 129,
  "оказании": 129,
  "2.0@@": 129,
  "связ@@": 129,
  "заключитель@@": 129,
  "внед@@": 129,
  "проду@@": 129,
  "общую": 129,
  "оккупации": 129,
  "ностей": 129,
  "населения.": 129,
  "рассчита@@": 129,
  "говори@@": 129,
  "представителями": 129,
  "глобальной": 129,
  "Безопасности.": 129,
  "196@@": 129,
  "Консультативный": 128,
  "законодательство": 128,
  "обращ@@": 128,
  "деятель@@": 128,
  "оплаты": 128,
  "помощ@@": 128,
  "ми:": 128,
  "обычно": 128,
  "принимая": 128,
  "связи,": 128,
  "Ди@@": 128,
  "ствами,": 128,
  "ложи@@": 128,
  "свобо@@": 128,
  "представил": 128,
  "счета": 128,
  "наблюдения": 128,
  "праве": 128,
  "визи@@": 128,
  "темати@@": 128,
  "прогно@@": 128,
  "соглашение": 128,
  "труда,": 128,
  "свободы": 128,
  "представленных": 128,
  "временных": 128,
  "образу@@": 128,
  "дороги": 128,
  "устойчи@@": 128,
  "тыс.": 128,
  "позднее": 128,
  "ш": 128,
  "ностью.": 128,
  "водя@@": 128,
  "ян@@": 128,
  "Великобритании": 128,
  "подверга@@": 128,
  "связаны": 128,
  "СИ@@": 128,
  "влен": 128,
  "стихийных": 128,
  "тами.": 128,
  "районов": 128,
  "участниками": 128,
  "обнару@@": 128,
  "g)": 128,
  "утверждает,": 128,
  "пы": 128,
  "руковод@@": 128,
  "достаточно": 127,
  "встре@@": 127,
  "содержит": 127,
  ".2.1@@": 127,
  "участке": 127,
  "уско@@": 127,
  "мандата": 127,
  "подписания": 127,
  "АВ@@": 127,
  "африкан@@": 127,
  "главы": 127,
  "совместного": 127,
  "супру@@": 127,
  "подзем@@": 127,
  "Инди@@": 127,
  "СМ@@": 127,
  "ию@@": 127,
  "37": 127,
  "сле@@": 127,
  "кими": 127,
  "принадлежа@@": 127,
  "подразде@@": 127,
  "экономики": 127,
  "подготовить": 127,
  "этапа": 127,
  "затрат": 127,
  "подчерки@@": 127,
  "ГЭ@@": 127,
  "поддержа@@": 127,
  "воль@@": 127,
  "станция": 127,
  "экономические": 127,
  "27.": 127,
  "совет": 127,
  "платы": 127,
  "редак@@": 127,
  "тору": 127,
  "месторожд@@": 127,
  "дня,": 127,
  "НЫХ": 127,
  "пос@@": 127,
  "характер@@": 127,
  "адеква@@": 127,
  "оперативной": 127,
  "ра;": 126,
  "99@@": 126,
  "строительной": 126,
  "ствам": 126,
  "тов;": 126,
  "указанием": 126,
  "носит": 126,
  "писа@@": 126,
  "внешней": 126,
  "факе@@": 126,
  "ки:": 126,
  "покупа@@": 126,
  "профессиональ@@": 126,
  "моло@@": 126,
  "развивающимся": 126,
  "предложено": 126,
  "48": 126,
  "своевремен@@": 126,
  "факто@@": 126,
  "района@@": 126,
  "сва@@": 126,
  "Участ@@": 126,
  "оборудовани@@": 126,
  "41": 126,
  "55": 126,
  "парти@@": 126,
  "север@@": 126,
  "секретарю": 126,
  "также,": 126,
  "судов": 126,
  "мне": 126,
  "изменение": 126,
  "Департамента": 126,
  "уте@@": 126,
  "банков@@": 126,
  "предоставляет": 126,
  "отчетности": 126,
  "закон": 126,
  "расположения": 126,
  "приходится": 125,
  "упро@@": 125,
  ".6": 125,
  "тип": 125,
  "уязви@@": 125,
  "бой": 125,
  "25.": 125,
  "меша@@": 125,
  "соединений": 125,
  "лицам": 125,
  "очеред@@": 125,
  "группой": 125,
  "вать,": 125,
  "применении": 125,
  "принцип": 125,
  "руководя@@": 125,
  "первом": 125,
  "туры": 125,
  "перегово@@": 125,
  "Лю@@": 125,
  "обсужд@@": 125,
  "потенциа@@": 125,
  "ность@@": 125,
  "считается": 125,
  "следующей": 125,
  "одну": 125,
  "компенсацию": 125,
  "руководи@@": 125,
  "лин@@": 125,
  "ущерб": 125,
  "обязательств,": 125,
  "основы@@": 125,
  "формирования": 125,
  "повтор@@": 125,
  "устранения": 125,
  "АО": 125,
  "отме@@": 125,
  "свете": 125,
  "це": 125,
  "отда@@": 125,
  "та:": 125,
  "меньшин@@": 125,
  "Ла@@": 125,
  "период,": 125,
  "подрядчи@@": 125,
  "снабжения": 125,
  "знаний": 125,
  "комитетом": 125,
  "Заказчиком": 125,
  "гуманитарных": 124,
  "повыш@@": 124,
  "Шта@@": 124,
  "женщинами": 124,
  "чения,": 124,
  "вая,": 124,
  "нагрузки": 124,
  "такая": 124,
  "территории,": 124,
  "следу@@": 124,
  "фика@@": 124,
  "нер@@": 124,
  "Пла@@": 124,
  "Конвенция": 124,
  "делегаций": 124,
  "прогресс": 124,
  "ду.": 124,
  "Королев@@": 124,
  "(II)": 124,
  "юриди@@": 124,
  "Специальным": 124,
  "мир": 124,
  "ложения": 124,
  "включены": 124,
  "факти@@": 124,
  "Конференция": 124,
  "акты": 124,
  "чет@@": 124,
  "союза": 124,
  "неде@@": 124,
  "информации.": 124,
  "моноли@@": 124,
  "компания": 123,
  "партнер@@": 123,
  "покрытие": 123,
  "*1,@@": 123,
  "материала": 123,
  "действу@@": 123,
  "рам,": 123,
  "вели@@": 123,
  "пуль@@": 123,
  "воро@@": 123,
  "емости": 123,
  "лли@@": 123,
  "рассмотр@@": 123,
  "режиме": 123,
  "33.": 123,
  "стабильности": 123,
  "зии": 123,
  "прису@@": 123,
  "рей": 123,
  "мости,": 123,
  "МИ@@": 123,
  "проектов,": 123,
  "сфе@@": 123,
  "долго@@": 123,
  "будущих": 123,
  "стерж@@": 123,
  "отсутствии": 123,
  "кти@@": 123,
  "коэффициен@@": 123,
  "трубопровод": 123,
  "тин@@": 123,
  "военной": 123,
  "Времен@@": 122,
  "ОО@@": 122,
  "разбиратель@@": 122,
  "руководителей": 122,
  "готовности": 122,
  "жесто@@": 122,
  "сетей": 122,
  "Настоящий": 122,
  "См.": 122,
  "организацию": 122,
  "лами": 122,
  "РІ@@": 122,
  "Суда@@": 122,
  "кг": 122,
  "которые,": 122,
  "зву@@": 122,
  "привлечения": 122,
  "уровне@@": 122,
  "йной": 122,
  "ic@@": 122,
  "возник@@": 122,
  "поощрять": 122,
  "возра@@": 122,
  "цион@@": 122,
  "адре@@": 122,
  "зиру@@": 122,
  "выход@@": 122,
  "договоров": 122,
  "24.": 122,
  "науч@@": 122,
  "техническое": 122,
  "позиции": 122,
  "распределение": 122,
  "американ@@": 122,
  "протокола": 122,
  "78@@": 122,
  "отказа@@": 122,
  "приложения": 122,
  "письмен@@": 122,
  "al@@": 122,
  "расход": 122,
  "бывшей": 122,
  "судеб@@": 122,
  "облада@@": 122,
  "частей": 122,
  "руководство": 122,
  "удовлетво@@": 122,
  "секторе": 122,
  "компани@@": 121,
  "Строительство": 121,
  "частных": 121,
  "рекомендуется": 121,
  "отрица@@": 121,
  "І@@": 121,
  "Ха@@": 121,
  "ы:": 121,
  "ровал": 121,
  "ходатай@@": 121,
  "област@@": 121,
  "новым": 121,
  "мед@@": 121,
  "диаметр": 121,
  "просил": 121,
  "допу@@": 121,
  "вызывает": 121,
  "призыв": 121,
  "насел@@": 121,
  "мониторинга": 121,
  "определенные": 121,
  "паро@@": 121,
  "проводит": 121,
  "0,5": 121,
  "напря@@": 121,
  "дохо@@": 121,
  "лей,": 121,
  "РФ": 121,
  "крас@@": 121,
  "СА@@": 121,
  "вызы@@": 121,
  "ях.": 121,
  "вступи@@": 121,
  "клиен@@": 121,
  "ПП@@": 121,
  "ня": 121,
  "поя@@": 121,
  "нуть": 121,
  "Рє@@": 121,
  "запад@@": 121,
  "бур@@": 121,
  "информацию,": 121,
  "перекры@@": 121,
  "методи@@": 121,
  "надлежа@@": 121,
  "время,": 121,
  "директоров": 121,
  "анали@@": 121,
  "наказа@@": 121,
  "помещении": 121,
  "просьбе": 121,
  "Новая": 120,
  "мах": 120,
  "исполн@@": 120,
  "выш@@": 120,
  "жерт@@": 120,
  "ы;": 120,
  "программ@@": 120,
  "представленные": 120,
  "пола": 120,
  "угро@@": 120,
  "Мин@@": 120,
  "государственные": 120,
  "совещаний": 120,
  "пласти@@": 120,
  "емы@@": 120,
  "люд@@": 120,
  "какой": 120,
  "размещ@@": 120,
  "кот@@": 120,
  "нормативных": 120,
  "Ри@@": 120,
  "(": 120,
  "осуществить": 120,
  "концентра@@": 120,
  "защиты,": 120,
  "говорится": 120,
  "чё@@": 120,
  "соблюдать": 120,
  "содержащиеся": 120,
  "выходе": 120,
  "сотрудники": 120,
  "600@@": 120,
  "47": 120,
  "ко-@@": 120,
  "мы.": 120,
  "издели@@": 120,
  "являющихся": 120,
  "дов@@": 120,
  "льно@@": 120,
  "ходить": 120,
  "официаль@@": 120,
  "предохрани@@": 120,
  "58@@": 120,
  ")/@@": 120,
  "глобальных": 120,
  "удоб@@": 120,
  "присут@@": 120,
  "альные": 120,
  "уровнем": 120,
  "секретариата": 120,
  "инвали@@": 120,
  "поступлений": 120,
  "указанные": 120,
  "мужчи@@": 120,
  "администрации": 120,
  "пись@@": 119,
  "китай@@": 119,
  "автоно@@": 119,
  "55@@": 119,
  "вшего": 119,
  "подчеркну@@": 119,
  "ленной": 119,
  "кандида@@": 119,
  "%)": 119,
  "влению": 119,
  "кол@@": 119,
  "Комплек@@": 119,
  "оборудования.": 119,
  "ЮНИДО": 119,
  "мобилизации": 119,
  "тор,": 119,
  "права@@": 119,
  "ввода": 119,
  "источника": 119,
  "энерги@@": 119,
  "возникновения": 119,
  "уполномо@@": 119,
  "возраста@@": 119,
  "заверши@@": 119,
  "рованным": 119,
  "Конститу@@": 119,
  "шесть": 119,
  "технологической": 119,
  "ниях": 119,
  "выступили": 119,
  "ссо@@": 119,
  "Технологи@@": 119,
  "права.": 119,
  "изоли@@": 119,
  "(при": 119,
  "Ассамблеи.": 119,
  "емую": 119,
  "43": 119,
  "пробле@@": 119,
  "чать": 118,
  "тогда": 118,
  "ются,": 118,
  "играть": 118,
  "рассматривается": 118,
  "области,": 118,
  "и:": 118,
  "ратификации": 118,
  "вами": 118,
  "инфраструкту@@": 118,
  "аре@@": 118,
  "дополнитель@@": 118,
  "2).": 118,
  "мог": 118,
  "совокуп@@": 118,
  "ПК": 118,
  "самостоя@@": 118,
  "научных": 118,
  "проблемати@@": 118,
  "факторов": 118,
  "площадь": 118,
  "тари@@": 118,
  "хранение": 118,
  "прида@@": 118,
  "помощи.": 118,
  "официальных": 118,
  "России": 118,
  "вторжения": 118,
  "оккупа@@": 118,
  "тридцать": 118,
  "at@@": 118,
  "35.": 118,
  "чист@@": 118,
  "Центральных": 118,
  "1,0@@": 118,
  "бое@@": 118,
  "угрозу": 118,
  "парламен@@": 118,
  "израиль@@": 118,
  "указано": 118,
  "рон@@": 118,
  "базе": 118,
  "сосредото@@": 118,
  "причине": 118,
  "дня.": 118,
  "400@@": 118,
  "емом": 118,
  "дефек@@": 118,
  "определяются": 118,
  "1000@@": 118,
  "образовани@@": 118,
  "равен@@": 118,
  "лить": 117,
  "Перед": 117,
  "имеющие": 117,
  "участков": 117,
  "нным": 117,
  "основы": 117,
  ".7": 117,
  "чрезвычайной": 117,
  "секретариа@@": 117,
  "целей,": 117,
  "природных": 117,
  "осна@@": 117,
  "иные": 117,
  "гли@@": 117,
  "выполни@@": 117,
  "ины": 117,
  "министерства": 117,
  "результатах": 117,
  "тора,": 117,
  "штуце@@": 117,
  "130@@": 117,
  "подчеркивает": 117,
  "выключа@@": 117,
  "управления.": 117,
  "планы": 117,
  "нима@@": 117,
  "ниями": 117,
  "проблеме": 117,
  "озаглавленный": 117,
  "Нидерлан@@": 117,
  "ковых": 117,
  "задача": 117,
  "раздела": 117,
  "секретарем": 117,
  "Югославии": 116,
  "величи@@": 116,
  "веществ": 116,
  "Фран@@": 116,
  "колонны": 116,
  "тельство": 116,
  "сель@@": 116,
  "поверхност@@": 116,
  "правом": 116,
  "щем": 116,
  "торговой": 116,
  "ками.": 116,
  "28.": 116,
  "необходимым": 116,
  "предыдущих": 116,
  "800": 116,
  "Кувей@@": 116,
  "долю": 116,
  "15,": 116,
  "циаль@@": 116,
  "принят": 116,
  "размер": 116,
  "материаль@@": 116,
  "аварий@@": 116,
  "выс@@": 116,
  "(от": 116,
  "КР@@": 116,
  "Соединенное": 116,
  "подлежит": 116,
  "сформули@@": 116,
  "применительно": 116,
  "альтерна@@": 116,
  "неофициальных": 116,
  "расчет@@": 116,
  "жидко@@": 116,
  "вле@@": 116,
  "так@@": 116,
  "во-@@": 116,
  "момен@@": 116,
  "океа@@": 116,
  "га.": 116,
  "сою@@": 116,
  "заседаниях": 116,
  "стаби@@": 116,
  "избра@@": 115,
  "экологических": 115,
  "настоя@@": 115,
  "40.": 115,
  "приверженность": 115,
  "агресси@@": 115,
  "льному": 115,
  "одино@@": 115,
  "m": 115,
  "переговоры": 115,
  "крайне": 115,
  "речь": 115,
  "ирак@@": 115,
  "упомина@@": 115,
  "выступ@@": 115,
  "Гвине@@": 115,
  "меньше": 115,
  "предостави@@": 115,
  "урегули@@": 115,
  "НР@@": 115,
  "превыша@@": 115,
  "проверить": 115,
  "обвиня@@": 115,
  "принципа": 115,
  "промышленности": 115,
  "Суд": 115,
  "ф": 115,
  "практически": 115,
  "жений": 115,
  "Бюро": 115,
  "надлежащих": 115,
  "МА@@": 115,
  "управляющих": 115,
  "промежуточ@@": 115,
  "жиль@@": 115,
  "специаль@@": 115,
  "квалифици@@": 115,
  "специального": 115,
  "поддерживать": 115,
  "мыми": 115,
  "ляет": 115,
  "рассматриваются": 115,
  "ЛА@@": 115,
  "ур@@": 115,
  "м.@@": 115,
  "сейчас": 115,
  "государства-члены": 115,
  "Координа@@": 115,
  "Конго": 115,
  "йных": 115,
  "2010": 115,
  "конкурен@@": 115,
  "проводов": 114,
  "Консульта@@": 114,
  "жертв": 114,
  "Кувейт": 114,
  "уделя@@": 114,
  "политического": 114,
  "ющийся": 114,
  "департамен@@": 114,
  "возмещения": 114,
  "ОАО": 114,
  "изучить": 114,
  "Сою@@": 114,
  "Эритре@@": 114,
  "охран@@": 114,
  "вступления": 114,
  "класс": 114,
  "общества.": 114,
  "выбросов": 114,
  "условиями": 114,
  "Комиссии,": 114,
  "деталей": 114,
  "ят": 114,
  "ам@@": 114,
  "техническую": 114,
  "отдельные": 114,
  "высоте": 114,
  "32.": 114,
  "Рј@@": 114,
  "комиссия": 114,
  "всесторон@@": 114,
  "законов": 114,
  "поз.": 114,
  "лам": 114,
  "лежа@@": 114,
  "проектом": 114,
  "енности": 114,
  "ОТ@@": 114,
  "экспорта": 114,
  "воздуш@@": 114,
  "вления,": 114,
  "разли@@": 114,
  "торо@@": 114,
  "существенно": 114,
  "чита@@": 114,
  "ченной": 114,
  "исполни@@": 114,
  "ей@@": 114,
  "газ@@": 114,
  "достижении": 114,
  "ение:": 114,
  "отходов": 114,
  "ленные": 114,
  "получать": 114,
  "емко@@": 114,
  "заработной": 114,
  "заплани@@": 113,
  "стран@@": 113,
  "принуди@@": 113,
  "персонал": 113,
  "размеры": 113,
  "регламен@@": 113,
  "ум@@": 113,
  "1998/@@": 113,
  "прав,": 113,
  "Разработка": 113,
  "организаций.": 113,
  "мин": 113,
  "рующих": 113,
  "моде@@": 113,
  "98@@": 113,
  "означает": 113,
  "эти@@": 113,
  "дача": 113,
  "статуса": 113,
  "инициатив": 113,
  "существо@@": 113,
  "1-0@@": 113,
  "прось@@": 113,
  "шт.@@": 113,
  "веще@@": 113,
  "лия": 113,
  "выполнены": 113,
  "рабочем": 113,
  "50.": 113,
  "помимо": 113,
  "жным": 113,
  "яс@@": 113,
  "обязательство": 113,
  "событи@@": 113,
  "оплачи@@": 113,
  "Комите@@": 113,
  "пара": 113,
  "учитывая": 113,
  ".2.": 113,
  "рекоменду@@": 113,
  "нище@@": 113,
  "морских": 113,
  "крайней": 113,
  "девятой": 113,
  "ею": 113,
  "занимается": 113,
  "Кувейта": 113,
  "обследо@@": 113,
  "Подрядчи@@": 113,
  "1999/@@": 113,
  "оптима@@": 113,
  "й-@@": 112,
  "нищеты,": 112,
  "нь": 112,
  "диало@@": 112,
  "тр@@": 112,
  "Строитель@@": 112,
  "нагнета@@": 112,
  "совещании": 112,
  "лые": 112,
  "занимающихся": 112,
  "медицинских": 112,
  "подхо@@": 112,
  "нести": 112,
  "кую": 112,
  "-5@@": 112,
  "болез@@": 112,
  "цу": 112,
  "происходит": 112,
  "120@@": 112,
  "рными": 112,
  "улучшение": 112,
  "подготовлен@@": 112,
  "носят": 112,
  "жидкости": 112,
  "компенса@@": 112,
  "нную": 112,
  "Такие": 112,
  "получили": 112,
  "инженер@@": 112,
  "ениями.": 112,
  "йти": 112,
  "Ира@@": 112,
  "лиц@@": 112,
  "ального": 112,
  "достиг@@": 112,
  "рабочий": 112,
  "сопровожда@@": 112,
  "креп@@": 112,
  "циркуля@@": 112,
  "блок": 112,
  "потребност@@": 112,
  "дело@@": 112,
  "Консультативного": 112,
  "начина@@": 112,
  "Республи@@": 112,
  "необходи@@": 112,
  "сварных": 111,
  "льни@@": 111,
  "дного": 111,
  "Региональ@@": 111,
  "толщина": 111,
  "разреш@@": 111,
  "за,": 111,
  "имуще@@": 111,
  "учи@@": 111,
  "пру@@": 111,
  "годы,": 111,
  "Работ": 111,
  "подлежат": 111,
  "государствен@@": 111,
  "облег@@": 111,
  "al": 111,
  "потерь": 111,
  "рассмотрел": 111,
  "признаку": 111,
  "обу@@": 111,
  "рованием": 111,
  "союз": 111,
  "процессов": 111,
  "Женеве": 111,
  "прочности": 111,
  "установи@@": 111,
  "вов,": 111,
  "науки": 111,
  "разоруж@@": 111,
  "измерения": 111,
  "коммер@@": 111,
  "КК@@": 111,
  "Add.1@@": 111,
  "основное": 111,
  "принятой": 111,
  "инструмен@@": 111,
  "председа@@": 111,
  "обеспечить,": 111,
  "избежание": 111,
  "рами.": 111,
  "твер@@": 111,
  "чрезвычайных": 111,
  "лок": 111,
  "мож@@": 111,
  "особенности": 111,
  "женщинам": 110,
  "служит": 110,
  "транзи@@": 110,
  "Жене@@": 110,
  "втори@@": 110,
  "лист": 110,
  "должность": 110,
  "ностей,": 110,
  "большого": 110,
  "om@@": 110,
  "A/ES-10/@@": 110,
  "46": 110,
  "сложности": 110,
  "дной": 110,
  "мигран@@": 110,
  "проведенных": 110,
  "запасов": 110,
  "представлена": 110,
  "укрепить": 110,
  "комплексного": 110,
  "среднего": 110,
  "(по": 110,
  "перехода": 110,
  "Косово": 110,
  "приводит": 110,
  "учебные": 110,
  "преступления": 110,
  "мень@@": 110,
  "лой": 110,
  "Кор@@": 110,
  "(2)": 110,
  "Цель": 110,
  "палестинских": 110,
  "площадке": 110,
  "чает": 110,
  "тол@@": 110,
  "массового": 110,
  "дне@@": 110,
  "насы@@": 110,
  "непреры@@": 110,
  "щает": 110,
  "постановила": 110,
  "кло@@": 110,
  "подве@@": 110,
  "случаев,": 110,
  "доноров": 110,
  "3).": 110,
  "определении": 110,
  "Так,": 109,
  "консультан@@": 109,
  "согласован@@": 109,
  "достичь": 109,
  "обработ@@": 109,
  "ОП@@": 109,
  "ются.": 109,
  "доказатель@@": 109,
  "поступления": 109,
  "220@@": 109,
  "отбора": 109,
  "принимаются": 109,
  "34.": 109,
  "ежегод@@": 109,
  "тысячелетия": 109,
  "най@@": 109,
  "кВт": 109,
  "е:": 109,
  "ЕЛ@@": 109,
  "наши": 109,
  "рода": 109,
  "нужда@@": 109,
  "подраздел@@": 109,
  "органам": 109,
  "министер@@": 109,
  "них,": 109,
  "широкое": 109,
  "важно": 109,
  "неправительственные": 109,
  "Расче@@": 109,
  "стала": 109,
  "Стра@@": 109,
  "группы,": 109,
  "строительству": 109,
  "стана": 109,
  "трубопровод@@": 109,
  "лов@@": 109,
  "3),": 109,
  "распоряжении": 109,
  "работни@@": 109,
  "Ве@@": 109,
  "1/2@@": 109,
  "партнерских": 109,
  "!": 109,
  "ения)": 109,
  "созы@@": 109,
  "недо@@": 109,
  "убий@@": 109,
  "ст.": 109,
  "вытека@@": 109,
  "Другие": 109,
  "стальных": 109,
  "газа@@": 109,
  "ений@@": 109,
  "нужно": 109,
  "выпу@@": 109,
  "ПИ@@": 109,
  "(0,@@": 109,
  "ных@@": 109,
  "ти.": 109,
  "щен": 109,
  "отвечать": 109,
  "просить": 108,
  "Соглашения": 108,
  "дных": 108,
  "вах": 108,
  "сейсми@@": 108,
  "вс@@": 108,
  "основными": 108,
  "наблюд@@": 108,
  "опытом": 108,
  "мировой": 108,
  "сжа@@": 108,
  "толко@@": 108,
  "доби@@": 108,
  "хотела": 108,
  "бре@@": 108,
  "ный@@": 108,
  "промысло@@": 108,
  "корпуса": 108,
  "используются": 108,
  "установлены": 108,
  "человека@@": 108,
  "водится": 108,
  "вида": 108,
  "[@@": 108,
  "такую": 108,
  "пассажи@@": 108,
  "содержащихся": 108,
  "служить": 108,
  "тка": 108,
  "оп@@": 108,
  "указанной": 108,
  "совершенствования": 108,
  "активизировать": 108,
  "альной": 108,
  "ений;": 108,
  "странам,": 108,
  "числен@@": 108,
  "изделий": 108,
  "Рї@@": 108,
  "ках.": 108,
  "расстояние": 108,
  "содержатся": 108,
  "поощрение": 108,
  "y": 108,
  "сь@@": 108,
  "годах": 108,
  "Север@@": 108,
  "ством.": 108,
  "комитету": 108,
  "мандат": 108,
  "сня@@": 108,
  "Субподрядчи@@": 108,
  "нов.": 107,
  "-9@@": 107,
  "окончания": 107,
  "сжи@@": 107,
  "пони@@": 107,
  "поправки": 107,
  "ты:": 107,
  "какой-либо": 107,
  "дополня@@": 107,
  "ция.": 107,
  "ol@@": 107,
  "2006": 107,
  "агрега@@": 107,
  "бога@@": 107,
  "свидетельствуют": 107,
  "зона": 107,
  "ключевых": 107,
  "печи": 107,
  "ДА@@": 107,
  "пользоваться": 107,
  "июне": 107,
  "завед@@": 107,
  "продо@@": 107,
  "Члены": 107,
  "средства,": 107,
  "ребен@@": 107,
  "ние@@": 107,
  ")(@@": 107,
  "проводятся": 107,
  "ющему": 107,
  "йки": 107,
  "-2": 107,
  "бассейна": 107,
  "труба": 107,
  "59@@": 107,
  "сверх@@": 107,
  "многосторонних": 107,
  "вариант": 107,
  "-120@@": 107,
  "местах,": 107,
  "г/@@": 107,
  "временного": 107,
  "вку": 107,
  "вшегося": 107,
  "изменя@@": 107,
  "границы": 107,
  "приемки": 107,
  "аспекты": 107,
  "обсуждение": 107,
  "промышленной": 107,
  "дело": 107,
  "рис@@": 107,
  "ениях.": 107,
  "76@@": 107,
  "письмо": 107,
  "большинстве": 107,
  "внешних": 107,
  "лять": 107,
  "прошлом": 107,
  "ки)": 107,
  "постав@@": 107,
  "тое": 106,
  "кабелей": 106,
  "~@@": 106,
  "воен@@": 106,
  "услуг.": 106,
  "контра@@": 106,
  "доходов": 106,
  "вши@@": 106,
  "тни@@": 106,
  "действует": 106,
  "транс@@": 106,
  "ПС": 106,
  "тыми": 106,
  "стить": 106,
  "ни,": 106,
  "ка)": 106,
  "активизации": 106,
  "вался": 106,
  "нами.": 106,
  "пригово@@": 106,
  "свободной": 106,
  "ственную": 106,
  "угле@@": 106,
  "религиоз@@": 106,
  "Россия,": 106,
  "фици@@": 106,
  "земли": 106,
  "изготовления": 106,
  "проведением": 106,
  "мнению,": 106,
  "затрону@@": 106,
  "iii)": 106,
  "масла": 106,
  "исключитель@@": 106,
  "Пак@@": 106,
  "входя@@": 106,
  "жу": 106,
  "согласованных": 106,
  "Глоб@@": 106,
  "вывод": 106,
  "стью": 106,
  "2.2@@": 106,
  "мыш@@": 106,
  "дополнение": 106,
  "ДК@@": 106,
  "начиная": 106,
  "чу@@": 106,
  "сигнализации": 106,
  "огром@@": 106,
  "общественного": 106,
  "представляется,": 106,
  "отчет@@": 106,
  "чка": 106,
  "взаимодействия": 106,
  "се,": 105,
  "скон@@": 105,
  "(I)": 105,
  "особого": 105,
  "руководством": 105,
  "потенциал": 105,
  "активной": 105,
  "рное": 105,
  "декабре": 105,
  "сная": 105,
  "топливного": 105,
  "ГП@@": 105,
  "провозгла@@": 105,
  "производстве": 105,
  "обстанов@@": 105,
  "голосования": 105,
  "140@@": 105,
  "вытя@@": 105,
  "органом": 105,
  "субсиди@@": 105,
  "предстоя@@": 105,
  "4.1@@": 105,
  "развитию,": 105,
  "ческих,": 105,
  "помочь": 105,
  "мин.": 105,
  "какого-либо": 105,
  "Ц": 105,
  "существующие": 105,
  "Конвен@@": 105,
  "Председа@@": 105,
  "слу@@": 105,
  "тую": 105,
  "частично": 105,
  "глобального": 105,
  "пор": 105,
  "ПА@@": 105,
  "земе@@": 105,
  "дете@@": 105,
  "времени,": 105,
  "скры@@": 105,
  "П,": 105,
  "Управлением": 105,
  "подробно": 105,
  "обозна@@": 105,
  "кг/@@": 105,
  "...": 105,
  "Зна@@": 105,
  "ввиду": 105,
  "сда@@": 105,
  "сессия": 105,
  "гом": 105,
  "удовлетворение": 105,
  "Суда": 105,
  "космического": 105,
  "(для": 105,
  "отли@@": 105,
  "горя@@": 105,
  "ся": 105,
  "лицам,": 105,
  "БО@@": 105,
  "политике": 105,
  "вная": 105,
  "юрисдик@@": 105,
  "самых": 105,
  "С‚@@": 105,
  "тация": 105,
  "репродуктивного": 104,
  "Результаты": 104,
  "Ис@@": 104,
  "происхождения": 104,
  "первонача@@": 104,
  "III.": 104,
  "нами,": 104,
  "пунктам": 104,
  "щенных": 104,
  "ЕЛЬ@@": 104,
  "ле.": 104,
  "равно@@": 104,
  "объемом": 104,
  "общем": 104,
  "заниматься": 104,
  "мужчинами": 104,
  "мно@@": 104,
  "отношениях": 104,
  "экземпля@@": 104,
  "%);": 104,
  "предше@@": 104,
  "самого": 104,
  "долгосро@@": 104,
  "Таилан@@": 104,
  "внешнего": 104,
  "железнодоро@@": 104,
  "49": 104,
  "мера": 104,
  "глубо@@": 104,
  "серьез@@": 104,
  "целесообраз@@": 104,
  "учреждения,": 104,
  "ги,": 104,
  "юридических": 104,
  "делать": 104,
  "Центр": 104,
  "кадро@@": 104,
  "Более": 104,
  "ям.": 104,
  "черте@@": 104,
  "штаб-кварти@@": 104,
  "инвалидов": 104,
  "дальнейшей": 104,
  "Общая": 104,
  "правительствам": 104,
  "подразделений": 104,
  "тах.": 104,
  "онной": 104,
  "впредь": 104,
  "неблагоприя@@": 104,
  "комитета,": 104,
  "(E/CN.4@@": 104,
  "связанным": 104,
  "ЗП@@": 104,
  "эксперимента@@": 104,
  "активное": 104,
  "Япо@@": 104,
  "торговли,": 104,
  "лу,": 103,
  "сно@@": 103,
  "Общества": 103,
  "ухуд@@": 103,
  "/C@@": 103,
  "мощностью": 103,
  "главного": 103,
  "уч@@": 103,
  "меньшинств": 103,
  "зация": 103,
  "канализа@@": 103,
  "оборудование,": 103,
  "охлаждения": 103,
  "надца@@": 103,
  "ровала": 103,
  "выво@@": 103,
  "неф@@": 103,
  "Фон@@": 103,
  "информационно-@@": 103,
  "военного": 103,
  "присоедин@@": 103,
  "заявлениями": 103,
  "стороне": 103,
  "относя@@": 103,
  "региона@@": 103,
  "рную": 103,
  "точной": 103,
  "страновых": 103,
  "включение": 103,
  "передаче": 103,
  "сложи@@": 103,
  "вред@@": 103,
  "охвата": 103,
  "стратегических": 103,
  "необходимы": 103,
  "национальным": 103,
  "горю@@": 103,
  "чая": 103,
  "геологи@@": 103,
  "одоб@@": 103,
  "убежи@@": 103,
  "наилуч@@": 103,
  "выборов": 103,
  "енно": 103,
  "свето@@": 103,
  "щены": 103,
  "Перечень": 103,
  "правозащи@@": 103,
  "Представи@@": 103,
  "постоянных": 103,
  "фа": 102,
  "интересы": 102,
  "скорость": 102,
  "циям,": 102,
  "продолжительность": 102,
  "инженерно-@@": 102,
  "параметров": 102,
  "Иерусали@@": 102,
  "имущества,": 102,
  "жу@@": 102,
  "цев,": 102,
  "Мьян@@": 102,
  "пропа@@": 102,
  "ВК@@": 102,
  "ща": 102,
  "правительства,": 102,
  "2009": 102,
  "машин@@": 102,
  "ц.": 102,
  "чность": 102,
  "51": 102,
  "внесения": 102,
  "живо@@": 102,
  "главе": 102,
  "надлежащим": 102,
  "восстано@@": 102,
  "стом": 102,
  "дут": 102,
  "соответствующее": 102,
  "средств.": 102,
  "кампа@@": 102,
  "преж@@": 102,
  "Секретариа@@": 102,
  "сторонами": 102,
  "вся@@": 102,
  "предусмотренные": 102,
  "регуля@@": 102,
  "напряжением": 102,
  "судей": 102,
  "муф@@": 102,
  "ро": 102,
  "осуществляются": 102,
  "ассоциа@@": 102,
  "шки": 102,
  "ет.": 102,
  "табл.": 102,
  "зависит": 102,
  "годов,": 102,
  "заместителя": 102,
  "статья": 102,
  "распоря@@": 102,
  "националь@@": 102,
  "осуществ@@": 102,
  "Заказчику": 102,
  "жалоб@@": 101,
  "1.2@@": 101,
  "торговых": 101,
  "антикоррози@@": 101,
  "Отде@@": 101,
  "тельности": 101,
  "цилинд@@": 101,
  "Поль@@": 101,
  "прове@@": 101,
  "праву": 101,
  "ресурса@@": 101,
  "шо@@": 101,
  "схемы": 101,
  "влена": 101,
  "отлож@@": 101,
  "распространяется": 101,
  "стальные": 101,
  "700": 101,
  "поступает": 101,
  "подтверди@@": 101,
  "раль@@": 101,
  "выполнением": 101,
  "за.": 101,
  "отрас@@": 101,
  "давлением": 101,
  "бюджете": 101,
  "направлены": 101,
  "несут": 101,
  "ДИ@@": 101,
  "пак@@": 101,
  "слой": 101,
  "имуществ@@": 101,
  "периоди@@": 101,
  ">>@@": 101,
  "исчезнов@@": 101,
  "зе": 101,
  "A.": 101,
  "гуманита@@": 101,
  "прекращении": 101,
  "“@@": 101,
  "партнеров": 101,
  "Эфиопи@@": 101,
  "каким": 101,
  "важней@@": 101,
  "чности": 101,
  "приоритетных": 101,
  "весь": 101,
  "постоян@@": 101,
  "цены": 101,
  "организованной": 101,
  "рации": 101,
  "статус": 101,
  "сообщений": 101,
  "es@@": 101,
  "авари@@": 101,
  "Обще@@": 101,
  "ходом": 101,
  "функциональ@@": 101,
  "кабеля": 101,
  "работой": 101,
  "говой": 101,
  "входе": 101,
  "газов": 101,
  "сбаланси@@": 100,
  "финансо@@": 100,
  "Количество": 100,
  "экспертов,": 100,
  "передви@@": 100,
  "собрания": 100,
  "ходит": 100,
  "Соединенного": 100,
  "стрелкового": 100,
  "ству,": 100,
  "Договора,": 100,
  "крыш@@": 100,
  "ствующие": 100,
  "Туни@@": 100,
  "такими": 100,
  "косми@@": 100,
  "национальными": 100,
  "упла@@": 100,
  "стер@@": 100,
  "шириной": 100,
  "методом": 100,
  "дене@@": 100,
  "избежать": 100,
  "корот@@": 100,
  "вместо": 100,
  "информационной": 100,
  "многосторон@@": 100,
  "тивы": 100,
  "Восточ@@": 100,
  "арбитра@@": 100,
  "вопро@@": 100,
  "чаются": 100,
  "слишком": 100,
  "массо@@": 100,
  "Подрядчиком": 100,
  "надлежащего": 100,
  "фланце@@": 100,
  "ствам,": 100,
  "рабо@@": 100,
  "подня@@": 100,
  "средних": 100,
  "кредито@@": 100,
  "главной": 100,
  "разоружению": 100,
  "СЂ@@": 100,
  "следующий": 100,
  "Н.": 100,
  "паспор@@": 100,
  "тысячелетия,": 100,
  "средне@@": 100,
  "ути@@": 100,
  "арми@@": 100,
  "контроли@@": 100,
  "ванная": 100,
  "сотрудничества,": 99,
  "показы@@": 99,
  "напо@@": 99,
  "расхода": 99,
  "принимают": 99,
  "вопроса@@": 99,
  "регулярно": 99,
  "местные": 99,
  "c": 99,
  "деятельность,": 99,
  "лицами": 99,
  "отметила,": 99,
  "стей": 99,
  "лей@@": 99,
  "загрязн@@": 99,
  "государств.": 99,
  "Запад@@": 99,
  "учет": 99,
  "ником": 99,
  "ремонт": 99,
  "насили@@": 99,
  "3;": 99,
  "дви@@": 99,
  "проводиться": 99,
  "достигну@@": 99,
  "(П@@": 99,
  "участии": 99,
  "жными": 99,
  "м2": 99,
  "огне@@": 99,
  "выразить": 99,
  "укреп@@": 99,
  "своему": 99,
  "льго@@": 99,
  "сокращению": 99,
  "морской": 99,
  "общин": 99,
  "Поставщик": 99,
  "2),": 99,
  "зачастую": 99,
  "поставленных": 99,
  "вынес@@": 99,
  "угрозы": 99,
  "указания": 99,
  "низкого": 99,
  "основани@@": 99,
  "лко@@": 99,
  "промышленного": 99,
  "Когда": 99,
  "Деклара@@": 99,
  "Мекси@@": 99,
  "конференция": 99,
  "т;": 99,
  "проя@@": 99,
  "тери@@": 99,
  "ля,": 99,
  "союз@@": 99,
  "шаги": 99,
  "кризи@@": 99,
  "интегра@@": 99,
  "работу,": 99,
  "соблюда@@": 99,
  "оперативных": 99,
  "условиях,": 99,
  "смен@@": 99,
  "Амери@@": 99,
  "ления.": 99,
  "сан@@": 99,
  "технологии,": 99,
  "воды.": 99,
  "хорошо": 98,
  "имущество": 98,
  "предусмотрена": 98,
  "обязательства,": 98,
  "замен@@": 98,
  "ВС@@": 98,
  "/T@@": 98,
  "политические": 98,
  "оборудования@@": 98,
  "гендерного": 98,
  "отвер@@": 98,
  "обеспечивается": 98,
  "против@@": 98,
  "цве@@": 98,
  "Мар@@": 98,
  "инциден@@": 98,
  "совместных": 98,
  "ново@@": 98,
  "ядерным": 98,
  "(II@@": 98,
  "гового": 98,
  "большим": 98,
  "жать": 98,
  "выполненных": 98,
  "расстоянии": 98,
  "провел": 98,
  "проектиру@@": 98,
  "Целевой": 98,
  "вно": 98,
  "эко@@": 98,
  "внутренние": 98,
  "выводы": 98,
  "али@@": 98,
  "лиц.": 98,
  "Королевство": 98,
  "муж@@": 98,
  "мощность": 98,
  "(C@@": 98,
  "Ти@@": 98,
  "ri@@": 98,
  "интерес": 98,
  "заво@@": 98,
  "применяться": 98,
  "поступи@@": 98,
  "забо@@": 98,
  "в)": 98,
  "юще@@": 98,
  "(1": 98,
  "призвала": 98,
  "укло@@": 98,
  "концепции": 98,
  "чертеж": 98,
  "проблема": 98,
  "отмен@@": 98,
  "38": 98,
  "выработки": 98,
  "2,5": 98,
  "культурного": 98,
  "выявления": 98,
  "мину@@": 98,
  "(И@@": 98,
  "установленного": 98,
  "38.": 98,
  "ядер@@": 98,
  "собира@@": 98,
  "имели": 98,
  "неправительственными": 97,
  "нах,": 97,
  "4.@@": 97,
  "68": 97,
  "капитала": 97,
  "социальные": 97,
  "зы,": 97,
  "террориз@@": 97,
  "перво@@": 97,
  "трибуна@@": 97,
  "используемых": 97,
  "годов.": 97,
  "серьезных": 97,
  "110": 97,
  "учреждениях": 97,
  "товаров,": 97,
  "циа@@": 97,
  "равенство": 97,
  "несу@@": 97,
  "ассигнования": 97,
  "условии": 97,
  "человек,": 97,
  "Высо@@": 97,
  "вает,": 97,
  "обратиться": 97,
  ")-@@": 97,
  "____@@": 97,
  "шли": 97,
  "институциональ@@": 97,
  "коль@@": 97,
  "Хорва@@": 97,
  "расширить": 97,
  "сные": 97,
  "обез@@": 97,
  "силами": 97,
  "лицо,": 97,
  "приводится": 97,
  "повед@@": 97,
  "Африки,": 97,
  "тия,": 97,
  "сей": 97,
  "41.": 97,
  "»;": 97,
  "города": 97,
  "это@@": 97,
  "стал": 97,
  "самой": 97,
  "данны@@": 97,
  "МГ@@": 97,
  "категорий": 97,
  "O": 97,
  "дах,": 97,
  "квалифика@@": 97,
  "Предста@@": 97,
  "руб@@": 97,
  "установке": 97,
  "доверия": 97,
  "3.0@@": 97,
  "согласие": 97,
  "удо@@": 97,
  "мета@@": 97,
  "причин": 97,
  "незаконного": 97,
  "нейтра@@": 97,
  "учреди@@": 97,
  "рожд@@": 97,
  "немедленно": 97,
  "рекомендации,": 97,
  "(А/5@@": 97,
  "Принци@@": 97,
  "свой@@": 97,
  "аген@@": 97,
  "пожела@@": 97,
  "мае": 97,
  "задолжен@@": 97,
  "коман@@": 97,
  "Международное": 97,
  "справедливого": 97,
  "собственных": 97,
  "данное": 97,
  "5.1@@": 97,
  "государственным": 97,
  "выделя@@": 96,
  "согласования": 96,
  "Ф": 96,
  "странами,": 96,
  "Швейца@@": 96,
  "77@@": 96,
  "Рисунок": 96,
  "раза": 96,
  "длина": 96,
  "комплекс": 96,
  "препятстви@@": 96,
  "развивающимися": 96,
  "нося@@": 96,
  "Министерство": 96,
  "Совета.": 96,
  "3.2@@": 96,
  "ЗП=@@": 96,
  "ключение": 96,
  "цена@@": 96,
  "условиям": 96,
  "разры@@": 96,
  "проекта,": 96,
  "глобализации": 96,
  "способствует": 96,
  "спутни@@": 96,
  "1000": 96,
  "практических": 96,
  "административным": 96,
  "Восточной": 96,
  "зака@@": 96,
  "адрес": 96,
  "сталкиваются": 96,
  "садо@@": 96,
  "скорее": 96,
  "ЛИ@@": 96,
  "ал@@": 96,
  "расход@@": 96,
  "влений": 96,
  "ибо": 96,
  "Но": 96,
  "конца": 96,
  "оправ@@": 96,
  "равных": 96,
  "тели,": 96,
  "сп@@": 96,
  "Также": 96,
  "шении": 96,
  "тивную": 96,
  "кни@@": 96,
  "аналити@@": 96,
  "межправительствен@@": 96,
  "получают": 96,
  "конкретным": 96,
  "Гватема@@": 96,
  "шва": 96,
  "54@@": 96,
  "нном": 96,
  "89@@": 96,
  "предварительной": 96,
  "фла@@": 96,
  "3.@@": 96,
  "группами": 96,
  "семе@@": 96,
  "кос@@": 96,
  "размера": 96,
  "20,": 96,
  "представила": 96,
  "сков": 96,
  "понимания": 96,
  "дополнительного": 96,
  "условий,": 96,
  "алма@@": 96,
  "задерж@@": 96,
  "среднем": 96,
  "промышленных": 96,
  "движение": 95,
  "подтверждает": 95,
  "поворо@@": 95,
  "стой": 95,
  "Саудовской": 95,
  "обвин@@": 95,
  "хран@@": 95,
  "успе@@": 95,
  "мной": 95,
  "взгля@@": 95,
  "лока@@": 95,
  "Конго,": 95,
  "види@@": 95,
  "ющимися": 95,
  "предме@@": 95,
  "привле@@": 95,
  "жи,": 95,
  "і@@": 95,
  "питания,": 95,
  "МОТ": 95,
  "(\"@@": 95,
  "сай@@": 95,
  "проходи@@": 95,
  "новую": 95,
  "трибунала": 95,
  "архи@@": 95,
  "принята": 95,
  "превышать": 95,
  "местном": 95,
  "проез@@": 95,
  "ряет": 95,
  "соответствующую": 95,
  "удалось": 95,
  "медицинского": 95,
  "Всемирного": 95,
  "фильтра@@": 95,
  "бе,": 95,
  "вентиляции": 95,
  "переход@@": 95,
  "120": 95,
  "всю": 95,
  "здравоохранения,": 95,
  "жид@@": 95,
  "A,": 95,
  "разви@@": 95,
  "ресурсы,": 95,
  "ние.": 95,
  "87@@": 95,
  "Общие": 95,
  "деформа@@": 95,
  "10,@@": 95,
  "проведено": 95,
  "ежегодно": 95,
  "Еще": 95,
  "зазем@@": 95,
  "36.": 95,
  "Сьерра-Леоне": 95,
  "последова@@": 95,
  "аб@@": 95,
  "Восто@@": 95,
  "Сторон,": 95,
  "назем@@": 95,
  "<@@": 95,
  "договор": 95,
  "изготови@@": 95,
  "ГО@@": 94,
  "9)": 94,
  "вход@@": 94,
  "надцатой": 94,
  "дис@@": 94,
  "иного": 94,
  "создана": 94,
  "дополнительной": 94,
  "равной": 94,
  "-либо": 94,
  "значитель@@": 94,
  "други@@": 94,
  "(b)": 94,
  "любом": 94,
  "возраст@@": 94,
  "лено": 94,
  "необходимости,": 94,
  "установленном": 94,
  "снижение": 94,
  "ровой": 94,
  "па": 94,
  "рованная": 94,
  "сформулированных": 94,
  "процессу": 94,
  "загрязнения": 94,
  "максима@@": 94,
  "совместной": 94,
  "населенных": 94,
  "альный": 94,
  "запраши@@": 94,
  "КС": 94,
  "джа@@": 94,
  "июле": 94,
  "Америки,": 94,
  "взаим@@": 94,
  "ассигно@@": 94,
  "умень@@": 94,
  "изуча@@": 94,
  "докладах": 94,
  "ные@@": 94,
  "спек@@": 94,
  "че": 94,
  "зай@@": 94,
  "действо@@": 94,
  "слово": 94,
  "балан@@": 94,
  "Анализ": 94,
  "проектам": 94,
  "научно-исследователь@@": 94,
  "соответствуют": 94,
  "ватель@@": 94,
  "добровольных": 94,
  "лена": 94,
  "экономических,": 94,
  "этни@@": 94,
  "Ру@@": 94,
  "устанавливаются": 94,
  "альная": 94,
  "ствах": 94,
  "ауди@@": 94,
  "стимули@@": 94,
  "бных": 94,
  "регулярного": 94,
  "эффективное": 94,
  "численности": 94,
  "аварийного": 94,
  "государств@@": 94,
  "получил": 94,
  "скорости": 94,
  "Пи@@": 94,
  "j@@": 94,
  "Опера@@": 94,
  "ноябре": 94,
  "фикация": 94,
  "положить": 94,
  ".00@@": 93,
  "предусматривать": 93,
  "вшейся": 93,
  "централизо@@": 93,
  "ад@@": 93,
  "новое": 93,
  "Создание": 93,
  "заявил,": 93,
  "полномочия": 93,
  "районах,": 93,
  "Африке,": 93,
  "вающим": 93,
  "источни@@": 93,
  "Положение": 93,
  "ОР@@": 93,
  "рефор@@": 93,
  "надзо@@": 93,
  "оператив@@": 93,
  "лучше": 93,
  "законодательных": 93,
  "un@@": 93,
  "КИ@@": 93,
  "Участники": 93,
  "руемых": 93,
  "возможност@@": 93,
  "судо@@": 93,
  "НА": 93,
  "заменить": 93,
  "отражает": 93,
  "Повестки": 93,
  "межучрежден@@": 93,
  "наркоти@@": 93,
  "МЕ@@": 93,
  "заверш@@": 93,
  "стол@@": 93,
  "расследования": 93,
  "указанного": 93,
  "Зеланди@@": 93,
  "бин@@": 93,
  "вляет": 93,
  "возвращения": 93,
  "космической": 93,
  "зажи@@": 93,
  "Правила": 93,
  "часов": 93,
  "воздушного": 93,
  "органи@@": 93,
  "Орга@@": 93,
  "информировать": 93,
  "подготов@@": 93,
  "терроризма": 93,
  "Боснии": 93,
  "проведен": 93,
  "юри@@": 93,
  "поощрению": 93,
  "ственном": 93,
  "прочих": 93,
  "предотвращению": 93,
  "сор@@": 93,
  "67@@": 93,
  "мо": 93,
  "носить": 93,
  "определены": 93,
  "соблюдением": 93,
  "ФОТ": 93,
  "влияния": 93,
  "самоле@@": 93,
  "арабских": 93,
  "предстоит": 92,
  "системы.": 92,
  "Руководя@@": 92,
  "К,": 92,
  "Договору": 92,
  "войны": 92,
  "жертвами": 92,
  "контракта": 92,
  "земля@@": 92,
  "террористических": 92,
  "параметры": 92,
  "направляется": 92,
  "начало": 92,
  "технологий,": 92,
  "б.": 92,
  "выступил": 92,
  "фундамента": 92,
  "el@@": 92,
  "900": 92,
  "точного": 92,
  "точных": 92,
  "производства,": 92,
  "слой@@": 92,
  "действия,": 92,
  "ников,": 92,
  "мощности": 92,
  "замести@@": 92,
  "положениям": 92,
  "участок": 92,
  "гендерных": 92,
  "бюро": 92,
  "Многие": 92,
  "привлека@@": 92,
  "целевых": 92,
  "Организа@@": 92,
  "сроков": 92,
  "выдачи": 92,
  "Европы": 92,
  "выразил": 92,
  "общественных": 92,
  "1.3@@": 92,
  "призвал": 92,
  "Требования": 92,
  "Аргенти@@": 92,
  "марте": 92,
  "дами,": 92,
  "НД@@": 92,
  "военные": 92,
  "душ@@": 92,
  "продолжают": 92,
  "Законом": 92,
  "проведены": 92,
  "рациональ@@": 92,
  "сило@@": 92,
  "оружия.": 92,
  "Ше@@": 92,
  "налажи@@": 92,
  "Объем": 92,
  "обороны": 92,
  "их,": 92,
  "Данный": 92,
  "ходящих": 92,
  "лый": 92,
  "рекла@@": 92,
  "ЛЬ@@": 91,
  "постановляет": 91,
  "см": 91,
  "чно-@@": 91,
  "установлению": 91,
  "°С": 91,
  "углуб@@": 91,
  "впервые": 91,
  "производству": 91,
  "12,": 91,
  "предусматриваются": 91,
  "тесно": 91,
  "насос": 91,
  "ю;": 91,
  "обслуживани@@": 91,
  "очередной": 91,
  "государства-участника": 91,
  "отсутствием": 91,
  "ЛЕ@@": 91,
  "финансовым": 91,
  "злоупотреб@@": 91,
  "местной": 91,
  "сем@@": 91,
  "социально-@@": 91,
  "пространства": 91,
  "стру@@": 91,
  "пространство": 91,
  "государственными": 91,
  "of": 91,
  "ТЗ@@": 91,
  "значительные": 91,
  "подземных": 91,
  "производственного": 91,
  "принадлеж@@": 91,
  "проверке": 91,
  "беремен@@": 91,
  "Совет@@": 91,
  "ционными": 91,
  "веща@@": 91,
  "назнач@@": 91,
  "нахождения": 91,
  "необходимо@@": 91,
  "разделу": 91,
  "запис@@": 91,
  "ресурсами": 91,
  "несен@@": 91,
  "Российская": 91,
  "ES@@": 91,
  "авторов": 91,
  "методологи@@": 91,
  "приспособ@@": 91,
  "Уган@@": 91,
  "рак@@": 91,
  "дина@@": 91,
  "52@@": 91,
  "рекомендаций,": 91,
  "годы.": 91,
  "ровке": 91,
  "________________@@": 91,
  "металли@@": 91,
  "постановил": 91,
  "нагрева@@": 91,
  "разбирательства": 91,
  "годи@@": 91,
  "применению": 91,
  "следующем": 91,
  "президен@@": 91,
  "Мини@@": 91,
  "настоящих": 91,
  "стреми@@": 91,
  "хлори@@": 90,
  "E": 90,
  "64": 90,
  "сказал": 90,
  "существуют": 90,
  "разработаны": 90,
  "штра@@": 90,
  "миссий": 90,
  "длиной": 90,
  "(далее": 90,
  "незаконной": 90,
  "подстан@@": 90,
  "ве,": 90,
  "ждает": 90,
  "составления": 90,
  "содействию": 90,
  "Африкан@@": 90,
  "провела": 90,
  "Королевства": 90,
  "мигра@@": 90,
  "научно-@@": 90,
  "достигнутый": 90,
  "докладов,": 90,
  "моно@@": 90,
  "прямо": 90,
  "сотрудника": 90,
  "провод": 90,
  "вали@@": 90,
  "материалы,": 90,
  "посвящ@@": 90,
  "Объедин@@": 90,
  "очереди": 90,
  "и)": 90,
  "последнее": 90,
  "вшей": 90,
  "вид": 90,
  "R": 90,
  "F": 90,
  "широко": 90,
  "рядом": 90,
  "тори@@": 90,
  "проле@@": 90,
  "сдержи@@": 90,
  "этап": 90,
  "привело": 90,
  "дата": 90,
  "налога": 90,
  "лестни@@": 90,
  "ПУ@@": 90,
  "правами": 90,
  "Ал@@": 90,
  "Cl@@": 90,
  "фактически": 90,
  "хва@@": 90,
  "млрд": 90,
  "росси@@": 90,
  "каждому": 90,
  "высота": 90,
  "характеристики": 90,
  "приобрета@@": 90,
  "сный": 90,
  "Сторонами": 90,
  "боевых": 90,
  "втор@@": 90,
  "56/@@": 90,
  "тили": 90,
  "Министерства": 90,
  "ём@@": 90,
  "земель": 90,
  "контроля,": 90,
  "камен@@": 90,
  "стране,": 90,
  "емся": 90,
  "Кана@@": 90,
  "Туркмениста@@": 90,
  "введения": 90,
  "лизации,": 90,
  "85": 90,
  "CO@@": 90,
  "Дополнитель@@": 90,
  "след@@": 89,
  "различным": 89,
  "экономическое": 89,
  "запас@@": 89,
  "обоих": 89,
  "описание": 89,
  "сок": 89,
  "2007": 89,
  "бюджетных": 89,
  "выражен@@": 89,
  "рассматриваться": 89,
  ".8": 89,
  "ди": 89,
  "усилиях": 89,
  "Комитета,": 89,
  "ста,": 89,
  "мерно": 89,
  "мети@@": 89,
  "тивном": 89,
  "шт.": 89,
  "проблема@@": 89,
  "Решение": 89,
  "дипломати@@": 89,
  "доб@@": 89,
  "высоком": 89,
  "газового": 89,
  "правосуди@@": 89,
  "максимально": 89,
  "Были": 89,
  "ением@@": 89,
  "жизн@@": 89,
  "прямых": 89,
  "шению": 89,
  "целе@@": 89,
  "т.д.@@": 89,
  "форма": 89,
  "12,@@": 89,
  "отм.": 89,
  "бедствий": 89,
  "професси@@": 89,
  "сут@@": 89,
  "ката@@": 89,
  "ГО": 89,
  "Ряд": 89,
  "ог@@": 89,
  "Меж@@": 89,
  "правительственных": 89,
  "IV": 89,
  "Полу@@": 89,
  "Руан@@": 89,
  "такие,": 89,
  "последователь@@": 89,
  "Саха@@": 89,
  "Афганиста@@": 89,
  "стать@@": 89,
  "сь,": 89,
  "растор@@": 89,
  "Международным": 89,
  "недостат@@": 89,
  "S/2002/@@": 89,
  "медицинской": 89,
  "ченным": 89,
  "государств-участников": 89,
  "Подкомиссии": 89,
  "and": 89,
  "направление": 89,
  "решить": 89,
  "очевид@@": 89,
  "подрост@@": 89,
  "исследовани@@": 89,
  "A/C.3@@": 89,
  "специализированных": 89,
  "замечаний": 89,
  "жен": 88,
  "наруша@@": 88,
  "представленный": 88,
  "осозна@@": 88,
  "действительно": 88,
  "Совета,": 88,
  "дополнительно": 88,
  "требование": 88,
  "циями,": 88,
  "потребления": 88,
  "ено@@": 88,
  "удар@@": 88,
  "процентов.": 88,
  "согла@@": 88,
  "поездки": 88,
  "народов,": 88,
  "резолюции.": 88,
  "изменении": 88,
  "легких": 88,
  "выразили": 88,
  "заключ@@": 88,
  "широ@@": 88,
  "Д,": 88,
  "сохран@@": 88,
  "ционную": 88,
  "L=@@": 88,
  "2015": 88,
  "тура": 88,
  "Исполнительный": 88,
  "потерпе@@": 88,
  "установлен": 88,
  "достигнут": 88,
  "азо@@": 88,
  "Коре@@": 88,
  "рос@@": 88,
  "теме": 88,
  "одному": 88,
  "тан@@": 88,
  "храни@@": 88,
  "Расходы": 88,
  "услуги,": 88,
  "да;": 88,
  "огово@@": 88,
  "ка;": 88,
  "документации,": 88,
  "жены": 88,
  "предыду@@": 88,
  "ной@@": 88,
  "схеме": 88,
  "важные": 88,
  "Г-жа": 88,
  "ходят": 88,
  "горизон@@": 88,
  "ров;": 88,
  "удаления": 88,
  "участках": 88,
  "сточных": 88,
  "стоимо@@": 88,
  "удовлетвори@@": 88,
  "¬@@": 88,
  "считает": 88,
  "автоматического": 88,
  "большинства": 88,
  "МТ@@": 88,
  "мигрантов": 88,
  "гендер@@": 88,
  "ня,": 88,
  "II,": 88,
  "африканского": 88,
  "PN@@": 88,
  "шую": 87,
  "список": 87,
  "маршру@@": 87,
  "42.": 87,
  "тормо@@": 87,
  "верси@@": 87,
  "енному": 87,
  "полученные": 87,
  "проверку": 87,
  "гн": 87,
  "проходит": 87,
  "стого": 87,
  "верхней": 87,
  "ограниченной": 87,
  "Покупа@@": 87,
  "99": 87,
  "h)": 87,
  "министерство": 87,
  "временной": 87,
  "выполняются": 87,
  "чрезмер@@": 87,
  "ности:": 87,
  "установленной": 87,
  "новая": 87,
  "диалог": 87,
  "партнерства": 87,
  "ключе@@": 87,
  "помещениях": 87,
  "перви@@": 87,
  "островных": 87,
  "ниже@@": 87,
  "ск,": 87,
  "слуша@@": 87,
  "рамо@@": 87,
  "просьбы": 87,
  "объекты": 87,
  "вленный": 87,
  "преследо@@": 87,
  "консульти@@": 87,
  "укреплении": 87,
  "дизе@@": 87,
  "ac@@": 87,
  "циях,": 87,
  "сентябре": 87,
  "тай@@": 87,
  "владель@@": 87,
  "Ближнем": 87,
  "население": 87,
  "реализацию": 87,
  "Эк@@": 87,
  "теплоизоля@@": 87,
  "конту@@": 87,
  "конфликта": 87,
  "сили@@": 87,
  "56": 87,
  "№1": 87,
  "нить": 87,
  "ЮНЕП": 87,
  "народонаселения": 87,
  "ций;": 87,
  "распространя@@": 87,
  "МПа,": 87,
  "Договор": 87,
  "физических": 87,
  "as@@": 87,
  "государство@@": 87,
  "внес": 87,
  "влад@@": 87,
  "строительства,": 87,
  "льности": 87,
  "которо@@": 87,
  "флан@@": 87,
  "Ро@@": 87,
  "полиэтилено@@": 87,
  "онных": 87,
  "бюджетным": 87,
  "приводятся": 87,
  "издерж@@": 87,
  "месяца": 87,
  "пор,": 87,
  "Все@@": 87,
  "фикси@@": 87,
  "нынешней": 87,
  "вленного": 87,
  "девочек": 87,
  "трубопроводы": 87,
  "подключения": 87,
  "обязаны": 87,
  "Трибуна@@": 87,
  "зале@@": 87,
  "10-@@": 86,
  "участво@@": 86,
  "пропаган@@": 86,
  "указанным": 86,
  "трансграни@@": 86,
  "дет@@": 86,
  "низа@@": 86,
  "рование,": 86,
  "долла@@": 86,
  "регенера@@": 86,
  "расходы,": 86,
  "различи@@": 86,
  "финансовую": 86,
  "низким": 86,
  "l": 86,
  "своевременно": 86,
  "техническому": 86,
  "таком": 86,
  "0,5@@": 86,
  "ЧЕ@@": 86,
  "проход@@": 86,
  "целенаправл@@": 86,
  "утверждение": 86,
  "гну@@": 86,
  "женщин-@@": 86,
  "попере@@": 86,
  "(3@@": 86,
  "втором": 86,
  "предпринять": 86,
  "±@@": 86,
  "кам@@": 86,
  "размеров": 86,
  "Специальному": 86,
  "B.": 86,
  "кового": 86,
  "денежных": 86,
  "жилищ@@": 86,
  "веден": 86,
  "ЭСК@@": 86,
  "частным": 86,
  "Брази@@": 86,
  "г-н": 86,
  "семей@@": 86,
  "представителем": 86,
  "(или)": 86,
  "ящи@@": 86,
  "интеллектуальной": 86,
  "ликвида@@": 86,
  "гани@@": 86,
  "году@@": 86,
  "кгс/см@@": 86,
  "беспла@@": 86,
  "резервуа@@": 86,
  "47.": 86,
  "поверхность": 86,
  "рыболов@@": 86,
  "причины": 86,
  "лии,": 86,
  "свиде@@": 86,
  "продовольственной": 86,
  "что@@": 86,
  "ГА@@": 86,
  "открытом": 86,
  "1),": 86,
  "разби@@": 86,
  "плат@@": 86,
  "проведена": 86,
  "вок": 86,
  "оснований": 86,
  "сах": 86,
  "предмет": 86,
  "ленного": 86,
  "к-@@": 86,
  "пласт@@": 86,
  "студен@@": 86,
  "клю@@": 86,
  "стве.": 86,
  "42@@": 85,
  "Технические": 85,
  "выступает": 85,
  "пис@@": 85,
  "Осуществление": 85,
  "тся,": 85,
  "кости": 85,
  "наказания": 85,
  "тех@@": 85,
  "предъя@@": 85,
  "нищеты.": 85,
  "исход@@": 85,
  "стая": 85,
  "мг/@@": 85,
  "каз": 85,
  "передо@@": 85,
  "Правительства": 85,
  "обязуется": 85,
  "испыты@@": 85,
  "53.": 85,
  "подстанции": 85,
  "район@@": 85,
  "низко@@": 85,
  "Ази@@": 85,
  "ль.": 85,
  "сообще@@": 85,
  "признания": 85,
  "р-@@": 85,
  "участию": 85,
  "вносить": 85,
  "вести@@": 85,
  "рыно@@": 85,
  "предусматри@@": 85,
  "вых,": 85,
  "договорен@@": 85,
  "общим": 85,
  "Ь@@": 85,
  "питание": 85,
  "Кра@@": 85,
  "приема": 85,
  "захва@@": 85,
  "Иорда@@": 85,
  "вленной": 85,
  "Тер@@": 85,
  "посвящен@@": 85,
  "групп,": 85,
  "предприятий,": 85,
  "Колумби@@": 85,
  "Отдела": 85,
  "дистан@@": 85,
  "Израиль": 85,
  "биту@@": 85,
  "прокуро@@": 85,
  "организации.": 85,
  "женных": 85,
  "направлений": 85,
  "перспек@@": 85,
  "отвода": 85,
  "пыта@@": 85,
  "льность": 85,
  "ro@@": 85,
  "46.": 85,
  "Эквадо@@": 85,
  "37.": 85,
  "(или": 85,
  "датчи@@": 85,
  "могло": 85,
  "УВКПЧ": 85,
  "Палестин@@": 85,
  "приняло": 85,
  "актуаль@@": 85,
  "пособи@@": 85,
  "сбор": 85,
  "мероприятия,": 85,
  "порядке,": 85,
  "уси@@": 85,
  "принятию": 85,
  "рабочие": 85,
  "РК@@": 85,
  "/58/L@@": 85,
  "расши@@": 85,
  "тельному": 85,
  "КНР": 85,
  "наконец,": 85,
  "одновремен@@": 85,
  "играет": 85,
  "здравоохран@@": 85,
  "народо@@": 85,
  "запрещается": 85,
  "заинтересован@@": 85,
  "дву@@": 85,
  "установлен@@": 84,
  "зия": 84,
  "насколько": 84,
  "РИ@@": 84,
  "16,": 84,
  "токо@@": 84,
  "Герма@@": 84,
  "восто@@": 84,
  "оговор@@": 84,
  "услу@@": 84,
  "действуют": 84,
  "товары": 84,
  "обеспокоен": 84,
  "УТ@@": 84,
  "помещение": 84,
  "рассчиты@@": 84,
  "≤@@": 84,
  "Благодаря": 84,
  "быстро@@": 84,
  "Вам": 84,
  "ТИ@@": 84,
  "следующего": 84,
  "факторов,": 84,
  "полную": 84,
  "благоприя@@": 84,
  "цах": 84,
  "2008": 84,
  "Rev@@": 84,
  "центри@@": 84,
  "климата": 84,
  "жизни,": 84,
  "Подрядчика": 84,
  "места@@": 84,
  "доклада,": 84,
  "резиден@@": 84,
  "дымо@@": 84,
  "семей": 84,
  "хот@@": 84,
  "организация@@": 84,
  "сравни@@": 84,
  "обычных": 84,
  "правовым": 84,
  "традиционных": 84,
  "перемещения": 84,
  "предусмотрен": 84,
  "Тру@@": 84,
  "ница": 84,
  "проклад@@": 84,
  "публика@@": 84,
  "государствам-членам": 84,
  "местными": 84,
  "Коста-Ри@@": 84,
  "вери@@": 84,
  "фир@@": 84,
  "ционном": 84,
  "Кувейта.": 84,
  "сете@@": 84,
  "эффективные": 84,
  "отказа": 84,
  "конкретной": 84,
  "возможные": 84,
  "дости@@": 84,
  "мате@@": 84,
  "рабочее": 84,
  "Фа@@": 84,
  "никогда": 84,
  "компонентов": 84,
  "сумме": 84,
  "магни@@": 84,
  "подви@@": 84,
  "вооружений": 84,
  "способ": 84,
  "раскры@@": 84,
  "электрической": 84,
  "Испа@@": 84,
  "Венесуэ@@": 84,
  "правилами": 84,
  "Нью-Йор@@": 84,
  "(У@@": 84,
  "ч,": 84,
  "ка:": 84,
  "обзо@@": 84,
  "Наций@@": 84,
  "временно": 84,
  "подры@@": 84,
  "первоочеред@@": 83,
  "шири@@": 83,
  "подъем@@": 83,
  "давления,": 83,
  "Вен@@": 83,
  "перевод": 83,
  "апреле": 83,
  "вес": 83,
  "Информа@@": 83,
  "Протоко@@": 83,
  "работо@@": 83,
  "десятой": 83,
  "проис@@": 83,
  "механизмов,": 83,
  "г)": 83,
  "палестинского": 83,
  "программами": 83,
  "коммерческих": 83,
  "n": 83,
  "превен@@": 83,
  "уважения": 83,
  "Была": 83,
  "токси@@": 83,
  "вспомогательного": 83,
  "сократи@@": 83,
  "DC@@": 83,
  "региональ@@": 83,
  "заземля@@": 83,
  "первых": 83,
  "пособия": 83,
  "Кар@@": 83,
  "работода@@": 83,
  "большую": 83,
  "служи@@": 83,
  "юридического": 83,
  "трудности": 83,
  "разру@@": 83,
  "ться.": 83,
  "борьбу": 83,
  "..@@": 83,
  "спро@@": 83,
  "раст@@": 83,
  "стабили@@": 83,
  "программ.": 83,
  "биологи@@": 83,
  "ПВ@@": 83,
  "39.": 83,
  "здесь": 83,
  "среды.": 83,
  "чи,": 83,
  "Китая": 83,
  "состоится": 83,
  "88@@": 83,
  "филиа@@": 83,
  "материал": 83,
  "финансированию": 83,
  "столь": 83,
  "полный": 83,
  "Сан@@": 83,
  "поддержание": 83,
  "1,5": 83,
  "состоявшейся": 83,
  "како@@": 83,
  "Гу@@": 83,
  "исто@@": 83,
  "Бан@@": 83,
  "пала@@": 83,
  "глава": 83,
  "ваний,": 83,
  "ней.": 83,
  "возможно": 83,
  "il@@": 83,
  "англий@@": 83,
  "выдвину@@": 83,
  "сессий": 83,
  "проволо@@": 83,
  "араб@@": 83,
  "поезд@@": 83,
  "док": 83,
  "Му@@": 83,
  "клапанов": 83,
  "вскры@@": 82,
  "кризис@@": 82,
  "o": 82,
  "цам": 82,
  "лами,": 82,
  "государственном": 82,
  "электродвига@@": 82,
  "ны;": 82,
  "тран@@": 82,
  "ля.": 82,
  "равно": 82,
  "b": 82,
  "оружием": 82,
  "исследователь@@": 82,
  "государствами-членами": 82,
  "Намиби@@": 82,
  "рынке": 82,
  "мещ@@": 82,
  "незначитель@@": 82,
  "1373": 82,
  "сепара@@": 82,
  "третьего": 82,
  "3/2@@": 82,
  "конечном": 82,
  "сопря@@": 82,
  "ванным": 82,
  "призываем": 82,
  "выпуска@@": 82,
  "превра@@": 82,
  "м/р": 82,
  "сами@@": 82,
  "Осно@@": 82,
  "ря": 82,
  "250": 82,
  "производственной": 82,
  "задача@@": 82,
  "строительстве": 82,
  "товара": 82,
  "Расчет": 82,
  "воде": 82,
  "вкла@@": 82,
  "уведомления": 82,
  "компенси@@": 82,
  "характера,": 82,
  "поня@@": 82,
  "месту": 82,
  "основой": 82,
  "воспользоваться": 82,
  "реконструк@@": 82,
  "одина@@": 82,
  "рах.": 82,
  "участника": 82,
  "ора@@": 82,
  "экологической": 82,
  "расту@@": 82,
  "ну.": 82,
  "P": 82,
  "7.1@@": 82,
  "абсолю@@": 82,
  "оформ@@": 82,
  "документация": 82,
  "компьютер@@": 82,
  "Камеру@@": 82,
  "регулирование": 82,
  "чертеже": 82,
  "кров@@": 82,
  "му.": 82,
  "связано": 82,
  "года).": 82,
  "специально": 82,
  "стальная": 82,
  "IS@@": 82,
  "уведомл@@": 82,
  "член@@": 82,
  "крепления": 82,
  "Одна": 82,
  "скорей@@": 82,
  "заявитель": 82,
  "соответствующий": 82,
  "исправл@@": 82,
  "тем@@": 82,
  "опти@@": 82,
  "девя@@": 82,
  "достовер@@": 82,
  "сом,": 82,
  "признание": 82,
  "осво@@": 82,
  "уделяется": 82,
  "дальнейшем": 82,
  "жения.": 82,
  "возрос@@": 82,
  "хозяйственной": 82,
  "испытание": 82,
  "схе@@": 82,
  "эгидой": 82,
  "распоряжение": 82,
  "общественности": 82,
  "дный": 82,
  "достига@@": 82,
  "ост@@": 82,
  "закупок": 82,
  "недав@@": 82,
  "щенной": 82,
  "дети": 81,
  "напряжение": 81,
  "сделали": 81,
  "результатом": 81,
  "PR@@": 81,
  "по-@@": 81,
  "перемен@@": 81,
  "ца.": 81,
  "ченными": 81,
  "пти@@": 81,
  "96": 81,
  ";№@@": 81,
  "хро@@": 81,
  "внедрения": 81,
  "ми-@@": 81,
  "беженцев.": 81,
  "конвенций": 81,
  "Проверка": 81,
  "освещения": 81,
  "найти": 81,
  "я),": 81,
  "памя@@": 81,
  "нарушением": 81,
  "пересмот@@": 81,
  "договорных": 81,
  "ствующих": 81,
  "получении": 81,
  "залож@@": 81,
  "ЭС": 81,
  "позволяют": 81,
  "дов;": 81,
  "представительства": 81,
  "значи@@": 81,
  "дав@@": 81,
  "важной": 81,
  "домаш@@": 81,
  "коррозии": 81,
  "ванное": 81,
  "ковые": 81,
  "14,": 81,
  "Встре@@": 81,
  "процессу@@": 81,
  "пога@@": 81,
  "миграции": 81,
  "ПРООН,": 81,
  "ши": 81,
  "развитием": 81,
  "стан": 81,
  "вопрос@@": 81,
  "обратить": 81,
  "форума": 81,
  "ЕНИЯ": 81,
  "сообщение": 81,
  "парла@@": 81,
  "левой": 81,
  "тности": 81,
  "45.": 81,
  "43.": 81,
  "прошед@@": 81,
  "статью": 81,
  "чному": 81,
  "Основ@@": 81,
  "мин@@": 81,
  "Чи@@": 81,
  "обществен@@": 81,
  "концентрации": 81,
  "Че@@": 81,
  "страхования": 81,
  "целый": 81,
  "лы.": 81,
  "начать": 81,
  "узла": 81,
  "лом,": 81,
  "городских": 81,
  "вдоль": 81,
  "водород@@": 81,
  "участником": 81,
  "целом.": 81,
  "Число": 81,
  "МВ@@": 81,
  "контролем": 81,
  "потенциала,": 81,
  "глу@@": 81,
  "соединение": 81,
  "МК@@": 81,
  "потер@@": 81,
  "44.": 81,
  "Непа@@": 81,
  "концу": 81,
  "ассигнований": 81,
  "рассматривает": 81,
  "Однако,": 81,
  "ТА@@": 81,
  "щело@@": 81,
  "гах": 80,
  "ДЕ@@": 80,
  "дальней@@": 80,
  "Либе@@": 80,
  "данная": 80,
  "6.1@@": 80,
  "Пол@@": 80,
  "Конституции": 80,
  "всеобъемлющего": 80,
  "инфек@@": 80,
  "живу@@": 80,
  "водорода": 80,
  "совершения": 80,
  "бюджета,": 80,
  "здоровья,": 80,
  "доклад,": 80,
  "высоким": 80,
  "указаны": 80,
  "нской": 80,
  "его,": 80,
  "высказы@@": 80,
  "встрече": 80,
  "рекомендовал": 80,
  "условии,": 80,
  "к;": 80,
  "совой": 80,
  "сочета@@": 80,
  "стены": 80,
  "совершен@@": 80,
  "количестве": 80,
  "0-@@": 80,
  "укреплять": 80,
  "приостано@@": 80,
  "отделений": 80,
  "Комитета.": 80,
  "США)": 80,
  "63": 80,
  "5.@@": 80,
  "местным": 80,
  "общество": 80,
  "причин@@": 80,
  "суль@@": 80,
  "54": 80,
  "стати@@": 80,
  "0000@@": 80,
  "подпрограммы": 80,
  "52/@@": 80,
  "очищенного": 80,
  "z@@": 80,
  "стремится": 80,
  "поверх@@": 80,
  "P/@@": 80,
  "оде@@": 80,
  "обла@@": 80,
  "мещение": 80,
  "Работ@@": 80,
  "комплексной": 80,
  "''@@": 80,
  "повреждения": 80,
  "SR@@": 80,
  "Конвенцию": 80,
  "провин@@": 80,
  "ровало": 80,
  "ги.": 80,
  "08@@": 80,
  "высоко": 80,
  "контролиру@@": 80,
  "сектор": 80,
  "уровнях,": 80,
  "Егип@@": 80,
  "уровнях.": 80,
  "предназначены": 80,
  "рабочи@@": 80,
  "копи@@": 80,
  "постоянной": 80,
  "преобразо@@": 80,
  "пуск": 80,
  "выбора": 80,
  "полага@@": 80,
  "предлагаемого": 80,
  "доклада.": 80,
  "шагом": 80,
  "лик@@": 80,
  "меди@@": 80,
  "48.": 80,
  "твор@@": 80,
  "ных.": 80,
  "работает": 80,
  "Евро@@": 80,
  "машин": 80,
  "этнических": 80,
  "Арабская": 80,
  "D.": 79,
  "установленные": 79,
  "фондов": 79,
  "аван@@": 79,
  "Югослави@@": 79,
  "оперативного": 79,
  "толщи@@": 79,
  "РП@@": 79,
  "прогресс,": 79,
  "составил": 79,
  "поступ@@": 79,
  "серии": 79,
  "осуществи@@": 79,
  "выполняет": 79,
  "банка": 79,
  "смеси": 79,
  "приблизительно": 79,
  "конфиденциаль@@": 79,
  "дел,": 79,
  "(A/56/@@": 79,
  "стр.": 79,
  "замены": 79,
  "риа@@": 79,
  "УНИ@@": 79,
  "Верховный": 79,
  "товар@@": 79,
  "проверка": 79,
  "160": 79,
  "теперь": 79,
  "лью": 79,
  "численность": 79,
  "-6@@": 79,
  "МПа.": 79,
  "Одним": 79,
  "обеспеч@@": 79,
  "оте@@": 79,
  "поддерж@@": 79,
  "гарантий": 79,
  "детьми": 79,
  "семьи,": 79,
  "номер": 79,
  "передать": 79,
  "сексу@@": 79,
  "положений,": 79,
  "Ирландии,": 79,
  "территорий": 79,
  "состоявшемся": 79,
  "Пя@@": 79,
  "жено": 79,
  "Центра": 79,
  "касаются": 79,
  "увеличить": 79,
  "установленным": 79,
  "Паки@@": 79,
  "второ@@": 79,
  "инфици@@": 79,
  "условия,": 79,
  "которы@@": 79,
  "целост@@": 79,
  "исследований,": 79,
  "ющаяся": 79,
  "B,": 79,
  "гер@@": 79,
  "Вер@@": 79,
  "независимости": 79,
  "мм)": 79,
  "группо@@": 79,
  "миру": 79,
  "зор@@": 79,
  "спа@@": 79,
  "подразделения": 79,
  "заявлений": 79,
  "сте": 79,
  "заполн@@": 79,
  "директора": 79,
  "национальный": 79,
  "оказывают": 79,
  "ЗПм=@@": 79,
  "убеди@@": 79,
  "защиты.": 79,
  "брига@@": 79,
  "ев,": 79,
  "сторона": 79,
  "бира@@": 79,
  "международный": 79,
  "Израиля": 79,
  "избы@@": 79,
  "члена": 79,
  "лом@@": 78,
  "преступлений": 78,
  "Б.": 78,
  "сессиях": 78,
  "водой": 78,
  "форму@@": 78,
  "выпуска": 78,
  "активного": 78,
  "воздушное": 78,
  "г-на": 78,
  "становится": 78,
  "PL@@": 78,
  "воды@@": 78,
  "СКО@@": 78,
  "A/57/@@": 78,
  "дистанционного": 78,
  "услуга@@": 78,
  "подотчет@@": 78,
  "изобра@@": 78,
  "Предлага@@": 78,
  "измени@@": 78,
  "Южная": 78,
  "имел": 78,
  "содержать": 78,
  "Вы": 78,
  "теплообмен@@": 78,
  "мероприятиях": 78,
  "напад@@": 78,
  "(Б@@": 78,
  "Моск@@": 78,
  "улучшить": 78,
  "искоренения": 78,
  "погруз@@": 78,
  "развива@@": 78,
  "соч@@": 78,
  "кой@@": 78,
  "молодежи": 78,
  "электроснабжения": 78,
  "отделение": 78,
  "реги@@": 78,
  "принципа@@": 78,
  "выделения": 78,
  "мене@@": 78,
  "высшего": 78,
  "мер.": 78,
  "новатор@@": 78,
  "правовые": 78,
  "вуа@@": 78,
  "жить": 78,
  "рынка": 78,
  "люди": 78,
  "Македо@@": 78,
  "отмечается": 78,
  "ВЛ": 78,
  "менее,": 78,
  "следить": 78,
  "свер@@": 78,
  "рованными": 78,
  "перед@@": 78,
  "рези@@": 78,
  "регио@@": 78,
  "жно": 78,
  "ставить": 78,
  "(2001)": 78,
  "государством": 78,
  "остаются": 78,
  "переработки": 78,
  "57/@@": 78,
  ".:": 78,
  "утвержденных": 78,
  "предъявля@@": 78,
  "дату": 78,
  "2003/@@": 78,
  "О,": 78,
  "заполни@@": 78,
  "индивидуаль@@": 78,
  "51.": 78,
  "жей": 78,
  "жном": 78,
  "ter@@": 78,
  "ревизии": 78,
  "стави@@": 78,
  "пересмотреть": 78,
  "серьезную": 78,
  "занято@@": 78,
  "прокладки": 78,
  "ней,": 78,
  "сохранение": 78,
  "переч@@": 78,
  "ВИЧ/СПИДо@@": 78,
  "наблюдателей": 78,
  "стремя@@": 78,
  "обратной": 78,
  "Рґ@@": 78,
  "названием": 78,
  "бо": 78,
  "лини@@": 78,
  "опоры": 78,
  "отсе@@": 78,
  "управлен@@": 78,
  "протяжен@@": 78,
  "H2@@": 78,
  "требуют": 78,
  "габари@@": 78,
  "эквивален@@": 78,
  "тыс.@@": 78,
  "ФА@@": 78,
  "завершить": 78,
  "Контро@@": 78,
  "позволили": 78,
  "кампании": 78,
  "вклада": 78,
  "человече@@": 78,
  "опира@@": 78,
  "созна@@": 78,
  "Интер@@": 78,
  "широких": 78,
  "Име@@": 78,
  "конфликтов,": 78,
  "чисты@@": 78,
  "Совете": 78,
  "пле@@": 77,
  "дисципли@@": 77,
  "специализирован@@": 77,
  "пане@@": 77,
  "Р.": 77,
  "конкретно": 77,
  "стри@@": 77,
  "реза@@": 77,
  "оро@@": 77,
  "ью@@": 77,
  "вари@@": 77,
  "активов": 77,
  "ции)": 77,
  "разверты@@": 77,
  "зали@@": 77,
  "расчет": 77,
  "нашего": 77,
  "низкой": 77,
  "шем": 77,
  "управлении": 77,
  "Труба": 77,
  "аналогичных": 77,
  "учреждениями,": 77,
  "человек.": 77,
  "ве.": 77,
  "партнерами": 77,
  "Казахстан": 77,
  "терроризмом": 77,
  "газосборной": 77,
  "пуск@@": 77,
  "(3)": 77,
  "насилия,": 77,
  "the": 77,
  "Союзной": 77,
  "сад@@": 77,
  "Данные": 77,
  "Затем": 77,
  "Эсто@@": 77,
  "лага@@": 77,
  "отко@@": 77,
  "ровать,": 77,
  "Афгани@@": 77,
  "покрыти@@": 77,
  "зом": 77,
  "низации": 77,
  "отдельно": 77,
  "79": 77,
  "широкий": 77,
  "связана": 77,
  "сферу": 77,
  "ника,": 77,
  "фото@@": 77,
  "видео@@": 77,
  "профессиональных": 77,
  "озабочен@@": 77,
  "Социальный": 77,
  "стабиль@@": 77,
  "год)": 77,
  "событий": 77,
  "тному": 77,
  "способствуют": 77,
  "Экономический": 77,
  "гой": 77,
  "погло@@": 77,
  "заместитель": 77,
  "Боливи@@": 77,
  "завода": 77,
  "тность": 77,
  "обеих": 77,
  "Часть": 77,
  "бой@@": 77,
  "АС@@": 77,
  "-10": 77,
  "ража@@": 77,
  "побу@@": 77,
  "сделал": 77,
  "21,": 77,
  "(S@@": 77,
  "нормам": 77,
  "газа.": 77,
  "исте@@": 77,
  "изделия": 77,
  "УСВН": 77,
  "de@@": 77,
  "проводят": 77,
  "утечки": 77,
  "сопротивления": 77,
  "чается": 77,
  "пыток": 77,
  "данных.": 77,
  "административные": 77,
  "жителей": 77,
  "Настоя@@": 77,
  "религи@@": 77,
  "кодекса": 77,
  "мире.": 77,
  "МС@@": 76,
  "Б,": 76,
  "Соедин@@": 76,
  "рее@@": 76,
  "передача": 76,
  "монтажных": 76,
  "x": 76,
  "уби@@": 76,
  "высотой": 76,
  "принципи@@": 76,
  "инду@@": 76,
  "образования.": 76,
  "различия": 76,
  "кноп@@": 76,
  "сообщить": 76,
  "проб": 76,
  "ДК": 76,
  "основополага@@": 76,
  "проводимых": 76,
  "составила": 76,
  "Сове@@": 76,
  "Давление": 76,
  "предприятия,": 76,
  "краткосро@@": 76,
  "ec@@": 76,
  "зуются": 76,
  "лиф@@": 76,
  "йские": 76,
  "каль@@": 76,
  "путе@@": 76,
  "придержи@@": 76,
  "сточной": 76,
  "к:": 76,
  "Оно": 76,
  "шах@@": 76,
  "квалификации": 76,
  "уплотн@@": 76,
  "площади": 76,
  "ограничений": 76,
  "взять": 76,
  "ur@@": 76,
  "линий": 76,
  "ситуация": 76,
  "нными": 76,
  "человеческого": 76,
  "када@@": 76,
  "препроводить": 76,
  "подъ@@": 76,
  "фрак@@": 76,
  "(Д@@": 76,
  "гидравли@@": 76,
  "мя": 76,
  "Соответ@@": 76,
  "важный": 76,
  "ЭМ@@": 76,
  "сить": 76,
  "кварта@@": 76,
  "ОА@@": 76,
  "Откры@@": 76,
  "бедных": 76,
  "означает,": 76,
  "ры:": 76,
  "международ@@": 76,
  "ены,": 76,
  "инициативы,": 76,
  "продукции,": 76,
  "Комисси@@": 76,
  "планируется": 76,
  "транспарен@@": 76,
  "55/@@": 76,
  "охра@@": 76,
  "Арави@@": 76,
  "шла@@": 76,
  "97": 76,
  "согласованные": 76,
  "можем": 76,
  "активи@@": 76,
  "выбира@@": 76,
  "изъя@@": 76,
  "беспристраст@@": 76,
  "программах": 76,
  "рель@@": 76,
  "-12@@": 76,
  "нынешнего": 76,
  "соблюдении": 76,
  "вовле@@": 76,
  "трудовых": 76,
  "смерти": 76,
  "специальный": 76,
  "двухгодичного": 76,
  "должным": 76,
  "обладает": 76,
  "практика": 76,
  "предложил": 76,
  "2-0@@": 75,
  "развед@@": 75,
  "Ад@@": 75,
  "на;": 75,
  "следующее:": 75,
  "ху": 75,
  "Тор@@": 75,
  "государственный": 75,
  "средствах": 75,
  "службы,": 75,
  "49.": 75,
  "расшири@@": 75,
  "паке@@": 75,
  "решительно": 75,
  "остальных": 75,
  "ряд@@": 75,
  "грузки": 75,
  "стан,": 75,
  "Температура": 75,
  "дальнейших": 75,
  "несовершеннолет@@": 75,
  "удостовер@@": 75,
  "газовых": 75,
  "ВС": 75,
  "Порядок": 75,
  "ска": 75,
  "мерах,": 75,
  "стражей": 75,
  "считаем,": 75,
  "необходимо,": 75,
  "индика@@": 75,
  "основе,": 75,
  "IC@@": 75,
  "характер,": 75,
  "оболоч@@": 75,
  "быстро": 75,
  "Ответ@@": 75,
  "53/@@": 75,
  "дам,": 75,
  "персонала.": 75,
  "ВЕ@@": 75,
  "журна@@": 75,
  "счете": 75,
  "воду": 75,
  "произ@@": 75,
  "члена@@": 75,
  "ть:": 75,
  "бр@@": 75,
  "признает": 75,
  "дре@@": 75,
  "73": 75,
  "ха": 75,
  "шел": 75,
  "Один": 75,
  "мов,": 75,
  "Расход": 75,
  "помощь,": 75,
  "меро@@": 75,
  "отмечено,": 75,
  "просве@@": 75,
  "ЮНЕСКО": 75,
  "корпу@@": 75,
  "прочность": 75,
  "станет": 75,
  "снабжение": 75,
  "уязвимых": 75,
  "конкуренции": 75,
  "указать": 75,
  "последнего": 75,
  "эстака@@": 75,
  "конкретного": 75,
  "Подготовка": 75,
  "Иран": 75,
  "уника@@": 75,
  "чь@@": 75,
  "сваро@@": 75,
  "ко,": 75,
  "зоны,": 75,
  "ущер@@": 75,
  "плата": 75,
  "требований,": 75,
  "набо@@": 75,
  "нормальной": 75,
  "по-английски):": 75,
  "произо@@": 75,
  "вы.": 75,
  "энергии,": 75,
  "геноци@@": 75,
  "недвижи@@": 75,
  "рия,": 75,
  "60.": 75,
  "контейне@@": 75,
  "внес@@": 75,
  "направить": 75,
  "поез@@": 75,
  "административного": 75,
  "ков;": 75,
  "случаи": 75,
  "касающейся": 75,
  "А-@@": 75,
  "П.": 75,
  "Стату@@": 75,
  "Алжи@@": 75,
  "Японии": 75,
  "удержа@@": 75,
  "Федерации,": 75,
  "Треть@@": 75,
  "подряд@@": 75,
  "разработ@@": 75,
  "освобождения": 75,
  "выразила": 75,
  "л/@@": 75,
  "предусматривают": 75,
  "роз@@": 75,
  "Азербайджа@@": 75,
  "заземления": 74,
  "йте": 74,
  "0,4@@": 74,
  "сторону": 74,
  "правительств,": 74,
  "циях.": 74,
  "созданы": 74,
  "смаз@@": 74,
  "имеющиеся": 74,
  "моей": 74,
  "чет": 74,
  "нормами": 74,
  "потом": 74,
  "создает": 74,
  "причиной": 74,
  "НК@@": 74,
  "типа@@": 74,
  "проб@@": 74,
  "ниче@@": 74,
  "тию": 74,
  "тури@@": 74,
  "обеспечивают": 74,
  "предо@@": 74,
  "соединя@@": 74,
  "топлива": 74,
  "Ге@@": 74,
  "наряду": 74,
  "существующей": 74,
  "МЕН@@": 74,
  "лле@@": 74,
  "каких": 74,
  "уменьшению": 74,
  "ении@@": 74,
  "инженерных": 74,
  "метр": 74,
  "США).": 74,
  "Дру@@": 74,
  "регла@@": 74,
  "то-@@": 74,
  "ЭК@@": 74,
  "Стоимость": 74,
  "иным": 74,
  "Восточном": 74,
  "большее": 74,
  "is@@": 74,
  "ЦИИ": 74,
  "ке;": 74,
  "сотрудникам": 74,
  "регионах": 74,
  "Контроль": 74,
  "стиму@@": 74,
  "договору": 74,
  "се.": 74,
  "пери@@": 74,
  "ЕНИ@@": 74,
  "масштаб@@": 74,
  "канализации": 74,
  "гания": 74,
  "докладу": 74,
  "разо@@": 74,
  "ченный": 74,
  "последу@@": 74,
  "дачу": 74,
  "перевозки": 74,
  "Авто@@": 74,
  "территорию": 74,
  "людей.": 74,
  "предста@@": 74,
  "сталь": 74,
  "работают": 74,
  "предполагает": 74,
  "осушки": 74,
  "ситуации,": 74,
  "ратифика@@": 74,
  "автор": 74,
  "положением": 74,
  "пожароту@@": 74,
  "«А@@": 74,
  "дополнительную": 74,
  "моти@@": 74,
  "ка-@@": 74,
  "ребенка,": 74,
  "освоения": 74,
  "в:": 74,
  "контроле": 74,
  "консенсуса": 74,
  "преступления,": 74,
  "секретариатом": 74,
  "Г.": 74,
  "Срок": 74,
  "ПО": 74,
  "присоединились": 74,
  "Специаль@@": 74,
  "ственными": 74,
  "ром,": 74,
  "пленарном": 74,
  "\\sect@@": 74,
  "чис@@": 74,
  "усилиям": 74,
  "Федерального": 74,
  "ностей.": 74,
  "чений": 74,
  "зелен@@": 74,
  "мон@@": 74,
  "пожилых": 74,
  "односторон@@": 73,
  "сет@@": 73,
  "смыс@@": 73,
  "нега@@": 73,
  "Сред@@": 73,
  "ую": 73,
  "Согла@@": 73,
  "съем@@": 73,
  "прочие": 73,
  "включенных": 73,
  "требованиям,": 73,
  "НР=@@": 73,
  ";@@": 73,
  "цент@@": 73,
  "модели": 73,
  "Подготови@@": 73,
  "Всемирный": 73,
  "действующим": 73,
  "минист@@": 73,
  "час": 73,
  "продовольстви@@": 73,
  "масштабы": 73,
  "вается,": 73,
  "зами": 73,
  "брифин@@": 73,
  "1(@@": 73,
  "репатриа@@": 73,
  "ологи@@": 73,
  "масса": 73,
  "/С@@": 73,
  "(1);": 73,
  "готови@@": 73,
  "Узбеки@@": 73,
  "азиат@@": 73,
  "воздушных": 73,
  "швов": 73,
  "реализа@@": 73,
  "комисса@@": 73,
  "ренных": 73,
  "последний": 73,
  "лого@@": 73,
  "Объединенной": 73,
  "усть@@": 73,
  "стратегия": 73,
  "перечис@@": 73,
  "Ло@@": 73,
  "(Р@@": 73,
  "IP@@": 73,
  "комплекту@@": 73,
  "реки": 73,
  "S-@@": 73,
  "чу": 73,
  "осведомленности": 73,
  "расчете": 73,
  "природного": 73,
  "зон@@": 73,
  "лиш@@": 73,
  "Республики,": 73,
  "безопасного": 73,
  "сектора,": 73,
  "отмечая": 73,
  "стек@@": 73,
  "исполня@@": 73,
  "лега@@": 73,
  "сно": 73,
  "-00@@": 73,
  "обеспечения,": 73,
  "Исполни@@": 73,
  "стов,": 73,
  "ФО@@": 73,
  "Ши@@": 73,
  "стациона@@": 73,
  "вец": 73,
  "ЕНИЕ": 73,
  "тендер@@": 73,
  "ми)": 73,
  "нализа@@": 73,
  "официального": 73,
  "нижней": 73,
  "быто@@": 73,
  "вш@@": 73,
  "Материа@@": 73,
  "заявлением": 73,
  "-участни@@": 73,
  "Национальной": 73,
  "оптими@@": 73,
  "участвующих": 73,
  "предупрежд@@": 73,
  "ваемый": 73,
  "Законодатель@@": 73,
  "лями": 73,
  "министр": 73,
  "эксплуатации,": 73,
  "ствует": 73,
  "потока": 73,
  "жена": 73,
  "оккупированных": 73,
  "организовать": 73,
  "…": 73,
  "хи": 73,
  "тивному": 73,
  "бла@@": 73,
  "санкций": 73,
  "щаются": 73,
  "материальных": 73,
  "уни@@": 73,
  "Мисси@@": 73,
  "няет": 73,
  "предоставляется": 73,
  "сечения": 73,
  "дифферен@@": 73,
  "меньшей": 73,
  "Монго@@": 73,
  "обслуживания,": 73,
  "жей,": 73,
  "Укрепление": 73,
  "кВ,": 73,
  "(A/C@@": 72,
  "скоро@@": 72,
  "щему": 72,
  "задач,": 72,
  "информационные": 72,
  "тировать": 72,
  ">": 72,
  "длительного": 72,
  "интересам": 72,
  "брь": 72,
  "рабочая": 72,
  "свободу": 72,
  "Пра@@": 72,
  "финансиру@@": 72,
  "вооружен@@": 72,
  "бран@@": 72,
  "судов,": 72,
  "реактора": 72,
  "0,": 72,
  "прямой": 72,
  "элемента": 72,
  "запрещении": 72,
  "предложить": 72,
  "освобо@@": 72,
  "рю@@": 72,
  "возраста": 72,
  "тюрь@@": 72,
  "торе": 72,
  "народов.": 72,
  "морского": 72,
  "пограни@@": 72,
  "…………@@": 72,
  "отка@@": 72,
  "кси@@": 72,
  "Под": 72,
  "больших": 72,
  "проблемой": 72,
  "акт": 72,
  "правового": 72,
  "реализо@@": 72,
  "программой": 72,
  "двой@@": 72,
  "санитарно-@@": 72,
  "гражданским": 72,
  "рованное": 72,
  "сельскохозяй@@": 72,
  "открыть": 72,
  "зма": 72,
  "ча": 72,
  "обеспечивающих": 72,
  "химического": 72,
  "целлюло@@": 72,
  "ствуют": 72,
  "миротвор@@": 72,
  "лицами,": 72,
  "устойчивости": 72,
  "ницы": 72,
  "назначение": 72,
  "гать": 72,
  "сх@@": 72,
  "винов@@": 72,
  "секции": 72,
  "водом": 72,
  "имеющим": 72,
  "значительного": 72,
  "преступлений,": 72,
  "узлов": 72,
  "h": 72,
  "тема@@": 72,
  "рассмотре@@": 72,
  "вые,": 72,
  "резервуара": 72,
  "железобетонных": 72,
  "Латви@@": 72,
  "10,": 72,
  "доказа@@": 72,
  "окончательного": 72,
  "№2": 72,
  "шкафа": 72,
  "прогре@@": 72,
  "плиты": 72,
  "семь": 72,
  "ист@@": 72,
  "незамедлительно": 72,
  "террористи@@": 72,
  "на:": 72,
  "2002/@@": 72,
  "двусторонних": 72,
  "мусо@@": 72,
  "C.": 72,
  "вленных": 72,
  "клима@@": 72,
  "комплект": 72,
  "увеличению": 72,
  "С;": 72,
  "61": 72,
  "миллионов": 72,
  "дальнейшее": 72,
  "монтаж@@": 72,
  "скоордини@@": 72,
  "Водо@@": 72,
  "закупки": 72,
  "тием": 72,
  "лизацию": 72,
  "современных": 72,
  "От": 72,
  "Сы@@": 72,
  "рационального": 72,
  "приведена": 72,
  "Национального": 72,
  "круг": 72,
  "компьюте@@": 72,
  "ul@@": 72,
  "Общий": 72,
  "аэропор@@": 72,
  "лич@@": 72,
  "колод@@": 72,
  "охватывает": 72,
  "разоружения,": 71,
  "71": 71,
  "Румы@@": 71,
  "норм,": 71,
  "центрального": 71,
  "деми@@": 71,
  "хода@@": 71,
  "эффективным": 71,
  "озаглавлен@@": 71,
  "чрезвычайно": 71,
  "/57/L@@": 71,
  "рек@@": 71,
  "там.": 71,
  "A/C.2@@": 71,
  "камеры": 71,
  "ведет": 71,
  "ла;": 71,
  "летний": 71,
  "Соглаш@@": 71,
  "серьезно": 71,
  "Израи@@": 71,
  "систем,": 71,
  "действующими": 71,
  "определенной": 71,
  "надлежащей": 71,
  "комна@@": 71,
  "Рассмотрение": 71,
  "нец": 71,
  "пой@@": 71,
  "Всемирная": 71,
  "самом": 71,
  "УС@@": 71,
  "позволило": 71,
  "палестинской": 71,
  "большие": 71,
  "ровку": 71,
  "ДНЯ@@": 71,
  "выступая": 71,
  "школ": 71,
  "мой,": 71,
  "вагонов": 71,
  "сексуальной": 71,
  "ноя@@": 71,
  "____________@@": 71,
  "ственно": 71,
  "осуществляемых": 71,
  "\";": 71,
  "Такая": 71,
  "решать": 71,
  "осуществляют": 71,
  "источником": 71,
  "лю": 71,
  "судебные": 71,
  "грузов": 71,
  "изучение": 71,
  "вполне": 71,
  "потребность": 71,
  "объе@@": 71,
  "горе@@": 71,
  "акционе@@": 71,
  "отдельным": 71,
  "оси": 71,
  "открытых": 71,
  "Женщины": 71,
  "вызо@@": 71,
  "расходов.": 71,
  "обраща@@": 71,
  "транспарентности": 71,
  "государств-членов,": 71,
  "протокол": 71,
  "насе@@": 71,
  "ют.": 71,
  "7.@@": 71,
  "ственно-@@": 71,
  "данные,": 71,
  "умер@@": 71,
  "пласто@@": 71,
  "возлож@@": 71,
  "ствах,": 71,
  "выбор": 71,
  "66": 71,
  "ческо@@": 71,
  "наземных": 71,
  "ut@@": 71,
  "резолюция": 71,
  "опреде@@": 71,
  "очере@@": 71,
  "местах.": 71,
  "свя@@": 71,
  "кислот@@": 71,
  "ВТО": 71,
  "Возмож@@": 71,
  "фундаментов": 71,
  "лекар@@": 71,
  "моего": 71,
  "определять": 71,
  "просьбу": 71,
  "предотвра@@": 71,
  "эвакуа@@": 71,
  "оружием,": 71,
  "обладающих": 71,
  "Группой": 71,
  "жду@@": 71,
  "фаз@@": 71,
  "исследование": 71,
  "Оценка": 71,
  "IV@@": 71,
  "Нару@@": 71,
  "пропуск@@": 71,
  "народ": 71,
  "принципов,": 71,
  "СП=@@": 71,
  "Пеки@@": 71,
  "важнейших": 71,
  "упомянутых": 71,
  "просто": 71,
  "банк": 71,
  "тора.": 71,
  "инвестиции": 71,
  "Малай@@": 71,
  "Европей@@": 71,
  "Сер@@": 71,
  "ский,": 71,
  "электроэнергии": 71,
  "дом,": 71,
  "октя@@": 71,
  "T": 71,
  "НЫЕ": 71,
  "Ее": 71,
  "направленной": 71,
  "процесса,": 71,
  "усиления": 71,
  "изложенных": 71,
  "создавать": 71,
  "емкости": 71,
  "обуча@@": 71,
  "вную": 71,
  "характер.": 71,
  "женщины,": 71,
  "1989": 71,
  "ходы": 70,
  ".2.2@@": 70,
  "высоких": 70,
  "М.": 70,
  "тен": 70,
  "Хо@@": 70,
  "сов;": 70,
  "регионе.": 70,
  "В.@@": 70,
  "марки@@": 70,
  "лес@@": 70,
  "Среди": 70,
  "тел@@": 70,
  "понимание": 70,
  "Гре@@": 70,
  "программных": 70,
  "опор": 70,
  "КМ@@": 70,
  "обслуживанию": 70,
  "основе.": 70,
  "________@@": 70,
  "левого": 70,
  "покрытием": 70,
  "филь@@": 70,
  "снить": 70,
  "УСТ@@": 70,
  "региональным": 70,
  "рены": 70,
  "приступить": 70,
  "приверженности": 70,
  "жа,": 70,
  "рамок": 70,
  "метод": 70,
  "Дополнение": 70,
  "отметки": 70,
  "неопределен@@": 70,
  "учесть": 70,
  "радиа@@": 70,
  "техническими": 70,
  "оби@@": 70,
  "е-@@": 70,
  "летнего": 70,
  "КИП": 70,
  "чи.": 70,
  "тель,": 70,
  "(a)": 70,
  "стратегического": 70,
  "октябре": 70,
  "соверши@@": 70,
  "ing": 70,
  "/57/@@": 70,
  "континен@@": 70,
  "десятилетия": 70,
  "строительства.": 70,
  "телем,": 70,
  "Отделение": 70,
  "военнослужа@@": 70,
  "частот@@": 70,
  "аспектам": 70,
  "поведения": 70,
  "ЮНЕ@@": 70,
  "9).": 70,
  "МОТ@@": 70,
  "съ@@": 70,
  "возможным": 70,
  "·@@": 70,
  "дорог": 70,
  "н.@@": 70,
  "кирпи@@": 70,
  "карка@@": 70,
  "men@@": 70,
  "разреша@@": 70,
  "ление,": 70,
  "автоматически": 70,
  "официально": 70,
  "трав@@": 70,
  "определи@@": 70,
  "вской": 70,
  "Дви@@": 70,
  "Сек@@": 70,
  "область,": 70,
  "л:": 70,
  "таблицы": 70,
  "части,": 70,
  "надежности": 70,
  "4).": 70,
  "скла@@": 70,
  "убыт@@": 70,
  "особых": 70,
  "Диа@@": 70,
  "уничтожения": 70,
  "останов@@": 70,
  "отчетный": 70,
  "кад@@": 70,
  "обсуждений": 70,
  "установление": 70,
  "таблица": 70,
  "фло@@": 70,
  "19,": 70,
  "косвен@@": 70,
  "отмет@@": 70,
  "исключения": 70,
  "район": 70,
  "центре": 70,
  "прес@@": 70,
  "трево@@": 70,
  "принимаемых": 70,
  "Акт": 70,
  "рых": 70,
  "подогре@@": 70,
  "108@@": 70,
  "Сѓ@@": 70,
  "-140@@": 69,
  "щения,": 69,
  "Ø@@": 69,
  "законодательства,": 69,
  "аппарата": 69,
  "технический": 69,
  "клас@@": 69,
  "обсад@@": 69,
  "тща@@": 69,
  "кабель": 69,
  "широкой": 69,
  "емому": 69,
  "рь": 69,
  "торговлей": 69,
  "подготовлен": 69,
  "обога@@": 69,
  "образование,": 69,
  "ен,": 69,
  "так,": 69,
  "Тур@@": 69,
  "процента.": 69,
  "десяти": 69,
  "случай": 69,
  "здание": 69,
  "предложения,": 69,
  "ждать": 69,
  "успешно": 69,
  "потребуется": 69,
  "окси@@": 69,
  "15-@@": 69,
  "потенциальных": 69,
  "вводи@@": 69,
  "континген@@": 69,
  "ктор": 69,
  "технологические": 69,
  "техническая": 69,
  "стабилизации": 69,
  "финансировании": 69,
  "защитного": 69,
  "связи.": 69,
  "статистических": 69,
  "неофициаль@@": 69,
  "74": 69,
  "недостаточно": 69,
  "региона,": 69,
  "км.": 69,
  "ется@@": 69,
  "сне@@": 69,
  "www.@@": 69,
  "фикации": 69,
  "надлежащие": 69,
  "РАЗ@@": 69,
  "проф@@": 69,
  "S/200@@": 69,
  "навы@@": 69,
  "стров": 69,
  "ную,": 69,
  "Ша@@": 69,
  "запреща@@": 69,
  "деклара@@": 69,
  "биологического": 69,
  "экра@@": 69,
  "реформ": 69,
  "действуя": 69,
  "гарантировать": 69,
  "уплотни@@": 69,
  "документах": 69,
  "57": 69,
  "Международ@@": 69,
  "ТОО": 69,
  "ЕД@@": 69,
  "безопасной": 69,
  "президента": 69,
  "проблемы.": 69,
  "продажи": 69,
  "вном": 69,
  "постано@@": 69,
  "УП@@": 69,
  "Португа@@": 69,
  "восстановлению": 69,
  "ют@@": 69,
  "250@@": 69,
  "влять": 69,
  "сопротивление": 69,
  "отклю@@": 69,
  "жек@@": 69,
  "Председателем": 69,
  "расширен@@": 69,
  "тельно,": 69,
  "сопоста@@": 69,
  "сожалению,": 69,
  "обоснование": 69,
  "сельскохозяйственных": 69,
  "торговли.": 69,
  "группам": 69,
  "неприемле@@": 69,
  "MP@@": 69,
  "-3": 69,
  "вленная": 69,
  "ОСТ@@": 69,
  "вало@@": 69,
  "определению": 69,
  "ат@@": 69,
  "хотели": 69,
  "вят": 69,
  "”": 69,
  "дома": 69,
  "Наций;": 69,
  "тивными": 69,
  "работка": 69,
  "расизма,": 69,
  "_": 69,
  "тов)": 69,
  "з,": 69,
  "синте@@": 69,
  "целевой": 69,
  "ксенофобии": 69,
  "степен@@": 69,
  "химических": 69,
  "экологически": 69,
  "ж/@@": 69,
  "Генподрядчи@@": 69,
  "дума@@": 68,
  "получены": 68,
  "ций@@": 68,
  "навли@@": 68,
  "напомни@@": 68,
  "препара@@": 68,
  "накоплен@@": 68,
  "металлических": 68,
  "внесены": 68,
  "Националь@@": 68,
  "продолжительности": 68,
  "природоохран@@": 68,
  "компа@@": 68,
  "Пунк@@": 68,
  "группи@@": 68,
  "LT@@": 68,
  "генераль@@": 68,
  "обжало@@": 68,
  "акта": 68,
  "Ирак": 68,
  "наркотиками": 68,
  "спроса": 68,
  "30,": 68,
  "подлежащих": 68,
  "13,": 68,
  "рекомендовала": 68,
  "гряз@@": 68,
  "________________________________@@": 68,
  "засу@@": 68,
  "комплексных": 68,
  "обладают": 68,
  "%),": 68,
  "веб-сай@@": 68,
  "йский": 68,
  "психи@@": 68,
  "ланд@@": 68,
  "остальные": 68,
  "(10@@": 68,
  "инструментов": 68,
  "посо@@": 68,
  "кам.": 68,
  "грузка": 68,
  "Плана": 68,
  "стыков": 68,
  "попу@@": 68,
  "Лу@@": 68,
  "возможного": 68,
  "доказательств": 68,
  "паралле@@": 68,
  "Существу@@": 68,
  "11,": 68,
  "сообществу": 68,
  "новыми": 68,
  "Цен@@": 68,
  "Сто@@": 68,
  "52.": 68,
  "феде@@": 68,
  "Табл.": 68,
  "Факультативного": 68,
  "лах,": 68,
  "принципе": 68,
  "азота": 68,
  "справедливо@@": 68,
  "2019": 68,
  "приступи@@": 68,
  "емость": 68,
  "надеется,": 68,
  "искрен@@": 68,
  "Замби@@": 68,
  "правительственной": 68,
  "въез@@": 68,
  "Аль@@": 68,
  "уровня,": 68,
  "напряж@@": 68,
  "материалов.": 68,
  "Само@@": 68,
  "кладных": 68,
  "оплату": 68,
  "собственной": 68,
  "реаги@@": 68,
  "полн@@": 68,
  "Стандар@@": 68,
  "темпы": 68,
  "95": 68,
  "Ю": 68,
  "тифици@@": 68,
  "основная": 68,
  "дела,": 68,
  "обычного": 68,
  "Кодек@@": 68,
  "француз@@": 68,
  "образованию": 68,
  "увер@@": 68,
  "стран-@@": 68,
  "двухгоди@@": 68,
  "цели,": 68,
  "гене@@": 68,
  "производиться": 68,
  "проблематики": 68,
  "ГОСТ@@": 68,
  "пород@@": 68,
  "стандарты": 68,
  "предложи@@": 68,
  "Ниге@@": 68,
  "тихоокеан@@": 68,
  "никакого": 68,
  "связанного": 68,
  "сотрудниками": 68,
  "тчи@@": 68,
  "посел@@": 68,
  "Ж": 68,
  "Камбод@@": 68,
  "2000/@@": 68,
  "06@@": 68,
  "зависи@@": 68,
  "С‹@@": 68,
  "вшийся": 68,
  "Полити@@": 68,
  "представлению": 68,
  "возможности,": 68,
  "государства.": 68,
  "ПУ": 68,
  "внесенными": 68,
  "ок": 68,
  "металло@@": 67,
  "нетерпи@@": 67,
  "комиссией": 67,
  "сих": 67,
  "время.": 67,
  "лиде@@": 67,
  "нее,": 67,
  "ресурсах": 67,
  "Азии,": 67,
  "письма": 67,
  "(D@@": 67,
  "Организации.": 67,
  "планирует": 67,
  "хранили@@": 67,
  "0,4": 67,
  "данными": 67,
  "мини@@": 67,
  "занимает": 67,
  "ника.": 67,
  "пресе@@": 67,
  "Компания": 67,
  "ваясь": 67,
  "призвали": 67,
  "мнение,": 67,
  "шь": 67,
  "аккреди@@": 67,
  "наружной": 67,
  "произво@@": 67,
  "Красного": 67,
  "Норвеги@@": 67,
  "Китая,": 67,
  "сырь@@": 67,
  "выше.": 67,
  "сократить": 67,
  "Государство": 67,
  "бор": 67,
  "августе": 67,
  "дохода": 67,
  "бар@@": 67,
  "играют": 67,
  "поко@@": 67,
  "значительный": 67,
  "Поставщи@@": 67,
  "говых": 67,
  "Лива@@": 67,
  "механических": 67,
  "налогообложения": 67,
  "многочисленные": 67,
  "относящихся": 67,
  "временные": 67,
  "нотари@@": 67,
  "ные.": 67,
  "поступл@@": 67,
  "образова@@": 67,
  "дере@@": 67,
  "оценок": 67,
  "требования,": 67,
  "бри@@": 67,
  "солидар@@": 67,
  "ск": 67,
  "мони@@": 67,
  "тий": 67,
  "цена": 67,
  "специфи@@": 67,
  "/59/@@": 67,
  "йская": 67,
  "атмосфер@@": 67,
  "ше,": 67,
  "отказ": 67,
  "глинисты@@": 67,
  "онного": 67,
  "стояние": 67,
  "Народ@@": 67,
  "т\"": 67,
  "иска@@": 67,
  "подходя@@": 67,
  "1988": 67,
  "визу@@": 67,
  "Поз@@": 67,
  "транспортировки": 67,
  "принципами": 67,
  "гос@@": 67,
  "грави@@": 67,
  "поль@@": 67,
  "ниях,": 67,
  "ЮНФП@@": 67,
  "стано@@": 67,
  "частях": 67,
  "рассмотрены": 67,
  "пересмотра": 67,
  "грам@@": 67,
  "целя@@": 67,
  "зап@@": 67,
  "суммы,": 67,
  "совершенствованию": 67,
  "м3,": 67,
  "н-@@": 67,
  "отчеты": 67,
  "ширина": 67,
  "производительность": 67,
  "засып@@": 67,
  "HS@@": 67,
  "сентя@@": 67,
  "преимуще@@": 67,
  "наращи@@": 67,
  ",5": 67,
  "услугами": 67,
  "ностями": 67,
  "необходимого": 67,
  "63@@": 67,
  "третьих": 67,
  "”@@": 67,
  "предполагается": 67,
  "(ман@@": 67,
  "ation@@": 67,
  "снижа@@": 67,
  "будучи": 67,
  "приобретения": 67,
  "ение)": 67,
  "свободного": 67,
  "2001/@@": 67,
  "(4@@": 67,
  "стратегию": 67,
  "дили": 67,
  "отверсти@@": 67,
  "психологи@@": 67,
  "дно": 67,
  "55.": 67,
  "зарубе@@": 67,
  "клапаны": 67,
  "программного": 67,
  "98": 67,
  "теп@@": 67,
  "Протокол": 67,
  "осе@@": 67,
  "последующие": 67,
  "детали": 67,
  "53": 67,
  "координи@@": 67,
  "02": 67,
  "надлежащее": 67,
  "вариантов": 67,
  "особые": 67,
  "сложных": 67,
  "грунт": 66,
  "встреч": 66,
  "официальной": 66,
  "уровня@@": 66,
  "подчи@@": 66,
  "развитые": 66,
  "совершении": 66,
  "Указа@@": 66,
  "гид@@": 66,
  "ходи@@": 66,
  "G": 66,
  "Социаль@@": 66,
  "упо@@": 66,
  "зя@@": 66,
  "снижению": 66,
  "колони@@": 66,
  "необходимыми": 66,
  "Об": 66,
  "Арабской": 66,
  "Данная": 66,
  "……@@": 66,
  "отправления": 66,
  "источ@@": 66,
  "пригото@@": 66,
  "финансовый": 66,
  "базу": 66,
  "дополн@@": 66,
  "корруп@@": 66,
  "подпис@@": 66,
  "оба": 66,
  "желез@@": 66,
  "года);": 66,
  "ению@@": 66,
  "54/@@": 66,
  "фов": 66,
  "нала@@": 66,
  "сооружений,": 66,
  "Чтобы": 66,
  "угрожа@@": 66,
  "планирование": 66,
  "ста.": 66,
  "выплате": 66,
  "льно-@@": 66,
  "индивидуальной": 66,
  "последней": 66,
  "серви@@": 66,
  "Вопрос": 66,
  "положительно": 66,
  "переме@@": 66,
  "наступ@@": 66,
  "руб.):": 66,
  "окружающую": 66,
  "значений": 66,
  "компаний": 66,
  "проектных": 66,
  "станций": 66,
  "ознаком@@": 66,
  "Национальный": 66,
  "принципо@@": 66,
  "выну@@": 66,
  "трубопроводе": 66,
  "нефтя@@": 66,
  "разрешение": 66,
  "форму": 66,
  "соглашения,": 66,
  "перерабаты@@": 66,
  "упорядо@@": 66,
  "услугам": 66,
  "ющееся": 66,
  "политическую": 66,
  "туа@@": 66,
  "котла": 66,
  "Форума": 66,
  "перспекти@@": 66,
  "разнообраз@@": 66,
  "ву,": 66,
  "перечня": 66,
  "●": 66,
  "военно-@@": 66,
  "реконструкции": 66,
  "ты;": 66,
  "...@@": 66,
  "Аб@@": 66,
  "КС@@": 66,
  "атомной": 66,
  "мальчи@@": 66,
  "52": 66,
  "Мон@@": 66,
  "медлен@@": 66,
  "учащихся": 66,
  "Казах@@": 66,
  "Сент-@@": 66,
  "завершении": 66,
  "L": 66,
  "детского": 66,
  "Ирак@@": 66,
  "защищен@@": 66,
  "Содержание": 66,
  "восстановление": 66,
  "них.": 66,
  "автора": 66,
  "зм": 66,
  "разработан": 66,
  "регулярных": 66,
  "тяж@@": 66,
  "безнаказан@@": 66,
  "эпидеми@@": 66,
  "устран@@": 66,
  "присоединения": 66,
  "0,00@@": 66,
  "смертности": 66,
  "мных": 66,
  "нен": 66,
  "магистрали": 66,
  "ложить": 66,
  "объектов,": 66,
  "правля@@": 66,
  "устранению": 66,
  "правительствен@@": 66,
  "пира@@": 66,
  "опасность": 66,
  "разруша@@": 66,
  "ВЛ@@": 66,
  "посети@@": 66,
  "Р°": 66,
  "Европейской": 66,
  "сигналов": 66,
  "проявля@@": 66,
  "Дирек@@": 65,
  "отверстия": 65,
  "занимающиеся": 65,
  "реагирования": 65,
  "выделить": 65,
  "проблему": 65,
  "сист@@": 65,
  "той,": 65,
  "Продол@@": 65,
  "опро@@": 65,
  "команди@@": 65,
  "Би@@": 65,
  "сегодняш@@": 65,
  "совмести@@": 65,
  "М,": 65,
  "НЫЙ": 65,
  "распространению": 65,
  "программы.": 65,
  "о.": 65,
  "межправительственных": 65,
  "i": 65,
  "плану": 65,
  "затраты": 65,
  "сти;": 65,
  "просро@@": 65,
  "однако,": 65,
  "существования": 65,
  "предупре@@": 65,
  "продолжения": 65,
  "наимено@@": 65,
  "ухода": 65,
  "преодол@@": 65,
  "Учитывая": 65,
  "сброса": 65,
  "практику": 65,
  "самое": 65,
  "среднесро@@": 65,
  "санкциони@@": 65,
  "ЮНИ@@": 65,
  "центры": 65,
  "районов,": 65,
  "лагер@@": 65,
  "ша": 65,
  "жно-@@": 65,
  "куп@@": 65,
  "щенный": 65,
  "д.@@": 65,
  "растя@@": 65,
  "оценки,": 65,
  "ид@@": 65,
  "их.": 65,
  "\"Е@@": 65,
  "находиться": 65,
  "феврале": 65,
  "____": 65,
  "H": 65,
  "58": 65,
  "документ,": 65,
  "возду@@": 65,
  "изменить": 65,
  "стен": 65,
  "надзор@@": 65,
  "углеводородов": 65,
  "le@@": 65,
  "Граждан@@": 65,
  "шается": 65,
  "нев@@": 65,
  "90-@@": 65,
  "сформи@@": 65,
  "определ@@": 65,
  "условиях.": 65,
  "защитной": 65,
  "мире,": 65,
  "будем": 65,
  "рассмотрен@@": 65,
  "толщины": 65,
  "открытия": 65,
  "гна": 65,
  "вебсай@@": 65,
  "газопровода": 65,
  "счетов": 65,
  "вро@@": 65,
  "испраши@@": 65,
  "54.": 65,
  "индивидуальных": 65,
  "критериев": 65,
  "пласта": 65,
  "гласи@@": 65,
  "Программе": 65,
  "Пакта": 65,
  "насчиты@@": 65,
  "развития;": 65,
  "вывода": 65,
  "опор@@": 65,
  "ad@@": 65,
  "уменьшить": 65,
  "операциях": 65,
  "Сальвадо@@": 65,
  "сток": 65,
  "встреча@@": 65,
  "160@@": 65,
  "экономикой": 65,
  "трубо@@": 65,
  "действующие": 65,
  "восточ@@": 65,
  "PC@@": 65,
  "стра": 65,
  "заключении": 65,
  "свобод": 65,
  "трубопроводов,": 65,
  "проверя@@": 65,
  "консультаций,": 65,
  "граждани@@": 65,
  "сильно": 65,
  "куда": 65,
  "продемонстри@@": 65,
  "макро@@": 65,
  "водоснаб@@": 65,
  "бен@@": 65,
  "циф@@": 65,
  "ного@@": 65,
  "бремени": 65,
  "произвести": 65,
  "система@@": 65,
  "XV@@": 65,
  "«Правила": 65,
  "новка": 65,
  "лого": 65,
  "м3/сут@@": 65,
  "рит": 65,
  "участник": 65,
  "сельской": 65,
  "вление,": 65,
  "новом": 65,
  "Резолюция": 65,
  "учреждение": 65,
  "Работа": 65,
  "Департаментом": 65,
  "критерии": 65,
  "долгосрочной": 65,
  "яче@@": 65,
  "измеря@@": 65,
  "дыха@@": 65,
  "вышеупомяну@@": 65,
  "ская,": 65,
  "питьевой": 65,
  "стади@@": 65,
  "обвини@@": 65,
  "потеря@@": 65,
  "гражданства": 65,
  "игра@@": 65,
  "оккупированной": 65,
  "свойств": 65,
  "сбере@@": 64,
  "максимальной": 64,
  "уважение": 64,
  "огранич@@": 64,
  "возмещение": 64,
  "21@@": 64,
  "трудно": 64,
  "дво@@": 64,
  "транснациональной": 64,
  "Примечание:": 64,
  "Институт": 64,
  "невозможно": 64,
  "70.": 64,
  "пошли@@": 64,
  "6).": 64,
  "пление": 64,
  "подтверждения": 64,
  "экологического": 64,
  "агент@@": 64,
  "регулирующих": 64,
  "выводов": 64,
  "развитию.": 64,
  "ch@@": 64,
  "МАТ@@": 64,
  "СТВ@@": 64,
  "полот@@": 64,
  "вопросом": 64,
  "оцинко@@": 64,
  "официальные": 64,
  "цвет@@": 64,
  "интерфей@@": 64,
  "погру@@": 64,
  "светиль@@": 64,
  "водного": 64,
  "приведет": 64,
  "демографи@@": 64,
  "составит": 64,
  "агрегата": 64,
  "стоит": 64,
  "ответственных": 64,
  "границ": 64,
  "живания": 64,
  "вами,": 64,
  "ВЫ@@": 64,
  "регулировать": 64,
  "ректи@@": 64,
  "Первый": 64,
  "Мозамби@@": 64,
  "семейных": 64,
  "ить": 64,
  "ЭКО@@": 64,
  "грузоподъем@@": 64,
  "наружного": 64,
  "ПГ@@": 64,
  "покуп@@": 64,
  "грунто@@": 64,
  "Безопас@@": 64,
  "чие": 64,
  "действующего": 64,
  "дале@@": 64,
  "правилом": 64,
  "впоследствии": 64,
  "формирование": 64,
  "Такое": 64,
  "5.2@@": 64,
  "Блок": 64,
  "находя@@": 64,
  "Заказчика,": 64,
  "привлечь": 64,
  "Дата": 64,
  "Re@@": 64,
  "ассоциации": 64,
  "проекта.": 64,
  "охлаждающей": 64,
  "Ита@@": 64,
  "ей;": 64,
  "заинтересованными": 64,
  "платежей": 64,
  "постепен@@": 64,
  "fo@@": 64,
  "мп@@": 64,
  "женного": 64,
  "информация,": 64,
  "документа,": 64,
  "дой": 64,
  "коммуна@@": 64,
  "курсов": 64,
  "Йемен@@": 64,
  "числом": 64,
  "другом": 64,
  "Нача@@": 64,
  "Со": 64,
  "цифро@@": 64,
  "продукта": 64,
  "рять": 64,
  "тизации": 64,
  "освобожд@@": 64,
  "Шве@@": 64,
  "ВАНИ@@": 64,
  "Кабель": 64,
  "войск": 64,
  "Р·@@": 64,
  "начисленных": 64,
  "постконфлик@@": 64,
  "приведен": 64,
  "национальном,": 64,
  "мм;": 64,
  "учреждениям": 64,
  "уровней": 64,
  "большая": 64,
  "Руковод@@": 64,
  "рением": 64,
  "мира@@": 64,
  "масштабах": 64,
  "организу@@": 64,
  "рекомендовать": 64,
  "«С@@": 64,
  "ниже.": 64,
  "5%": 64,
  "проводимой": 64,
  "преследования": 64,
  "грамот@@": 64,
  "принимающих": 64,
  "тип@@": 64,
  "сигнал": 64,
  ".3.": 64,
  "стоящих": 64,
  "даль@@": 64,
  "15.5@@": 64,
  "АРИ@@": 64,
  "языках": 64,
  "диагности@@": 64,
  "пояс@@": 64,
  "глобальном": 64,
  "системами": 64,
  "выполняют": 64,
  "аэ@@": 64,
  "территории.": 64,
  "газовой": 64,
  "шовная": 64,
  "сотруднича@@": 64,
  "ек,": 64,
  "ъез@@": 64,
  "вкой": 63,
  "будуще@@": 63,
  "зону": 63,
  "народу": 63,
  "обеспечива@@": 63,
  "предложила": 63,
  "ами@@": 63,
  "капитального": 63,
  "отражены": 63,
  "др.": 63,
  "изменения,": 63,
  "Гра@@": 63,
  "принципах": 63,
  "подшип@@": 63,
  "сып@@": 63,
  "компетенции": 63,
  "программа@@": 63,
  "--@@": 63,
  "опустыни@@": 63,
  "задолженности,": 63,
  "Секрета@@": 63,
  "приоритетов": 63,
  "документов.": 63,
  "добиваться": 63,
  "Можно": 63,
  "важно,": 63,
  "Инженер@@": 63,
  "будущей": 63,
  "м),": 63,
  "уменьшение": 63,
  "ориен@@": 63,
  "шаро@@": 63,
  "мам": 63,
  "пас@@": 63,
  "Полож@@": 63,
  "глобализа@@": 63,
  "чувстви@@": 63,
  "бухгалтер@@": 63,
  "поис@@": 63,
  "строи@@": 63,
  "___": 63,
  "ведомости": 63,
  "циональ@@": 63,
  "водоро@@": 63,
  "вления.": 63,
  "ра:": 63,
  "Боль@@": 63,
  "детя@@": 63,
  "групп@@": 63,
  "транспортной": 63,
  "бу": 63,
  "решет@@": 63,
  "всему": 63,
  "привет@@": 63,
  "БАПОР": 63,
  "-100@@": 63,
  "прекратить": 63,
  "теле": 63,
  "годы@@": 63,
  "характеристик": 63,
  "пород": 63,
  "Ь": 63,
  "указывается": 63,
  "коро@@": 63,
  "Необходи@@": 63,
  "ствами.": 63,
  "Палести@@": 63,
  "выступи@@": 63,
  "К)": 63,
  "процесса.": 63,
  "присоедини@@": 63,
  "дач@@": 63,
  "поддержкой": 63,
  "пола,": 63,
  "объектом": 63,
  "началь@@": 63,
  "представленной": 63,
  "Тепло@@": 63,
  "возника@@": 63,
  "Европе": 63,
  "договора,": 63,
  "оригина@@": 63,
  "идентифика@@": 63,
  "нному": 63,
  "ота": 63,
  "устойчивое": 63,
  "тивности": 63,
  "оратор": 63,
  "1,2": 63,
  "выдаче": 63,
  "баланса": 63,
  "сигнала": 63,
  "особен@@": 63,
  "членом": 63,
  "контр@@": 63,
  "экономически@@": 63,
  "скважин@@": 63,
  "санк@@": 63,
  "расизма": 63,
  "контакты": 63,
  "Ф,": 63,
  "р.@@": 63,
  "вво@@": 63,
  "возникает": 63,
  "пуско@@": 63,
  "располагает": 63,
  "Компании": 63,
  "верхнего": 63,
  "роль,": 63,
  "профессионального": 63,
  "дами.": 63,
  "средством": 63,
  "20-@@": 63,
  "труда.": 63,
  "Второй": 63,
  "зировать": 63,
  "примет": 63,
  "ими@@": 63,
  "предметом": 63,
  "средствам": 63,
  "инструкции": 63,
  "бесе@@": 63,
  "Оборудование": 63,
  "интенсив@@": 63,
  "готовность": 63,
  "4.3@@": 63,
  "лежит": 63,
  "шенных": 63,
  "применить": 63,
  "on": 63,
  "никам": 63,
  "эксплуатации.": 63,
  "комитетов": 63,
  "дискуссии": 63,
  "глубокую": 63,
  "теми": 63,
  "отчу@@": 63,
  "Китай": 63,
  "сери@@": 63,
  "иностранной": 63,
  "Обеспечение": 63,
  "водной": 63,
  "учредить": 63,
  "вперед": 62,
  "воздуха,": 62,
  "безотлага@@": 62,
  "рассмотрела": 62,
  "земельных": 62,
  "вокруг": 62,
  "нием,": 62,
  "двер@@": 62,
  "чивается": 62,
  "защитные": 62,
  "принадлежащих": 62,
  "участи@@": 62,
  "СЂРѕР@@": 62,
  "тно@@": 62,
  "значительное": 62,
  "вооруженного": 62,
  "обоснован@@": 62,
  "/C/@@": 62,
  "составлять": 62,
  "плане@@": 62,
  "свет@@": 62,
  "си,": 62,
  "регионе,": 62,
  "Газо@@": 62,
  "постепенно": 62,
  "обсуждении": 62,
  "товой": 62,
  "частные": 62,
  "отказы@@": 62,
  "календарных": 62,
  "Сегодня": 62,
  "разработана": 62,
  "объясняется": 62,
  "сообщил": 62,
  "усиление": 62,
  "пособий": 62,
  "оф@@": 62,
  "вленную": 62,
  "Ос@@": 62,
  "спис@@": 62,
  "сторон.": 62,
  "метра@@": 62,
  "горячей": 62,
  "служба@@": 62,
  "отметка": 62,
  "очередь,": 62,
  "транше@@": 62,
  "приводи@@": 62,
  "сухо@@": 62,
  "Обо@@": 62,
  "корпус": 62,
  "88": 62,
  "покол@@": 62,
  "поте@@": 62,
  "подозре@@": 62,
  "Канады": 62,
  "первоначального": 62,
  "обеспоко@@": 62,
  "рабочую": 62,
  "ведется": 62,
  "Америке": 62,
  "объект": 62,
  "ставка": 62,
  "последствиях": 62,
  "поддержать": 62,
  "европе@@": 62,
  "физического": 62,
  "84": 62,
  "Применя@@": 62,
  "близ@@": 62,
  "настоящий": 62,
  "стране.": 62,
  "сохранить": 62,
  "истре@@": 62,
  "направлена": 62,
  "расширя@@": 62,
  "хар@@": 62,
  "основ@@": 62,
  "К.": 62,
  "91": 62,
  "видам": 62,
  "ение;": 62,
  "реинтеграции": 62,
  "сторон,": 62,
  "ряду": 62,
  "ИК": 62,
  "океана": 62,
  "периода,": 62,
  "З,": 62,
  "одинако@@": 62,
  "страну": 62,
  "тацию": 62,
  "отметить": 62,
  "Сторона": 62,
  "76": 62,
  "убе@@": 62,
  "объяви@@": 62,
  "организационных": 62,
  "многочисленных": 62,
  "источник": 62,
  "ном.": 62,
  "ежедне@@": 62,
  "координато@@": 62,
  "накло@@": 62,
  "правилам": 62,
  "интенси@@": 62,
  "перевода": 62,
  "перека@@": 62,
  "откло@@": 62,
  "выез@@": 62,
  "надежду": 62,
  "данную": 62,
  "газосбо@@": 62,
  "лаборатори@@": 62,
  "восточной": 62,
  "01": 62,
  "in": 62,
  "Танза@@": 62,
  "провинции": 62,
  "проси@@": 62,
  "ом": 62,
  "международная": 62,
  "тью": 62,
  "фактических": 62,
  "директор": 62,
  "привели": 62,
  "министра": 62,
  "уве@@": 62,
  "представили": 62,
  "Наличие": 62,
  "рок": 62,
  "Зем@@": 62,
  "поме@@": 62,
  "рно-@@": 62,
  "предварительно": 62,
  "Миссия": 62,
  "ТУ": 62,
  "Совмест@@": 62,
  "ствовали": 62,
  "Послед@@": 62,
  "геодези@@": 62,
  "власт@@": 62,
  "употреб@@": 62,
  "постановляющей": 62,
  "Джамахи@@": 62,
  "4;": 62,
  "чему": 62,
  "доход": 62,
  "недоста@@": 62,
  "Европе@@": 62,
  "12)": 62,
  "72": 62,
  "A/C.1/57/L@@": 62,
  "исполнительной": 61,
  "электронных": 61,
  "интегри@@": 61,
  "характе@@": 61,
  ".2,": 61,
  "узел": 61,
  "принадлежности": 61,
  "L.1@@": 61,
  "км,": 61,
  "серьезной": 61,
  "Ведомость": 61,
  "IV.": 61,
  "восьми": 61,
  "персоналу": 61,
  "подготовки,": 61,
  "письме": 61,
  "58.": 61,
  "Од@@": 61,
  "тей@@": 61,
  "значение,": 61,
  "успешного": 61,
  "(A/55/@@": 61,
  "59": 61,
  "института": 61,
  "Программой": 61,
  "кувейт@@": 61,
  "совершенствовать": 61,
  "комплекта": 61,
  "зале": 61,
  "пользуются": 61,
  "участвовали": 61,
  "ЭММ=@@": 61,
  "Комиссию": 61,
  "сообщества,": 61,
  "железной": 61,
  "Трубы": 61,
  "ядерной": 61,
  "(поз.": 61,
  "виду": 61,
  "железобето@@": 61,
  "вынужд@@": 61,
  "соб@@": 61,
  "МООНС@@": 61,
  "величина": 61,
  "предметов": 61,
  "ществ@@": 61,
  "период.": 61,
  "архитек@@": 61,
  "сообществом": 61,
  "высказано": 61,
  "ревизоров": 61,
  "проведенного": 61,
  "сможет": 61,
  "операциям": 61,
  "казом": 61,
  "молодых": 61,
  "нередко": 61,
  "ния)": 61,
  "сматри@@": 61,
  "Эффек@@": 61,
  "ответственностью": 61,
  "повыша@@": 61,
  "чеб@@": 61,
  "обследования": 61,
  "емкость": 61,
  "долларов": 61,
  "доклад@@": 61,
  "рынков": 61,
  "слы@@": 61,
  "структура": 61,
  "П)": 61,
  "плоско@@": 61,
  "попытки": 61,
  "письменного": 61,
  "факт": 61,
  "помещений,": 61,
  "предоставляются": 61,
  "PV@@": 61,
  "мся": 61,
  "Проверить": 61,
  "перечисленных": 61,
  "тенденции": 61,
  "листо@@": 61,
  "тиза@@": 61,
  "Вклю@@": 61,
  "прекращение": 61,
  "2017": 61,
  "шка": 61,
  "масло@@": 61,
  "равни@@": 61,
  "Государства": 61,
  "продви@@": 61,
  "мол@@": 61,
  "систе@@": 61,
  "ступени": 61,
  "требованию": 61,
  "совещаниях": 61,
  "«О": 61,
  "расходо@@": 61,
  "ны-@@": 61,
  "лю,": 61,
  "Италия,": 61,
  "лон@@": 61,
  "щением": 61,
  "периодического": 61,
  "тар@@": 61,
  "вз@@": 61,
  "холодной": 61,
  "Статисти@@": 61,
  "(2": 61,
  "mm@@": 61,
  "Постано@@": 61,
  "сфер@@": 61,
  "Украи@@": 61,
  "предприниматель@@": 61,
  "Департамен@@": 61,
  "семинар": 61,
  "почто@@": 61,
  "сектораль@@": 61,
  "процессы": 61,
  "ватори@@": 61,
  "банк@@": 61,
  "первые": 61,
  "C,": 61,
  "шить": 61,
  "59.": 61,
  "вопросам.": 61,
  "ведущих": 61,
  "мыс@@": 61,
  "ускорения": 61,
  "проблем.": 61,
  "довери@@": 61,
  "Араб@@": 61,
  "НОГО": 61,
  "препровождающее": 61,
  "размини@@": 61,
  "Блока": 61,
  "заключен@@": 61,
  "вод,": 61,
  "резерви@@": 61,
  "ль-@@": 61,
  "договорной": 61,
  "пребывания": 61,
  "*1,68;": 61,
  "09@@": 61,
  "строительные": 61,
  "принципы,": 61,
  "оне@@": 61,
  "преобразова@@": 61,
  "пробе@@": 61,
  "А.@@": 61,
  "Чешская": 61,
  "езда@@": 61,
  "В-@@": 61,
  "информированности": 61,
  "строго": 61,
  "наблюдению": 61,
  "никакой": 61,
  "космических": 60,
  "Объекта": 60,
  "предыдущие": 60,
  "тысяч": 60,
  "оговорки": 60,
  "Правил": 60,
  "контролировать": 60,
  "потоков": 60,
  "рез": 60,
  "стихий@@": 60,
  "нию,": 60,
  "отметил": 60,
  "лки@@": 60,
  "Источ@@": 60,
  "-20": 60,
  "к)": 60,
  "тщательно": 60,
  "торных": 60,
  "договоренности": 60,
  ".4,": 60,
  "решимости": 60,
  "координацию": 60,
  "уваж@@": 60,
  "62.": 60,
  "62": 60,
  "отсутствует": 60,
  "сточ@@": 60,
  "строя": 60,
  "чистого": 60,
  "участвуют": 60,
  "ходов": 60,
  "резюме": 60,
  "Описание": 60,
  "содержащий": 60,
  "лабора@@": 60,
  "тонн": 60,
  "15,@@": 60,
  "69@@": 60,
  "вредных": 60,
  "ТП": 60,
  "мяг@@": 60,
  "г.,": 60,
  "10%": 60,
  "административной": 60,
  "оказаться": 60,
  "оставаться": 60,
  "кризиса": 60,
  "A/C.5@@": 60,
  "стандартам": 60,
  "сли": 60,
  "районы": 60,
  "споров": 60,
  "находились": 60,
  "меморанду@@": 60,
  "взве@@": 60,
  "вному": 60,
  "в.@@": 60,
  "прочного": 60,
  "НРС": 60,
  "совершенствование": 60,
  "дук@@": 60,
  "превыш@@": 60,
  "аппаратов": 60,
  "СТО@@": 60,
  "текущей": 60,
  "гов,": 60,
  "упу@@": 60,
  "короб@@": 60,
  "соблюдению": 60,
  "размером": 60,
  "вопросу.": 60,
  "пуске": 60,
  "Corr@@": 60,
  "пут@@": 60,
  "воздух": 60,
  "йся": 60,
  "усугуб@@": 60,
  "CC@@": 60,
  "тором,": 60,
  "имен@@": 60,
  "Сьерра-Леоне,": 60,
  "вшими": 60,
  "баш@@": 60,
  "рном": 60,
  "терроризма,": 60,
  "беременности": 60,
  "прилагать": 60,
  "получает": 60,
  "прока@@": 60,
  "меня": 60,
  "рация": 60,
  "циали@@": 60,
  "энергетики": 60,
  "заявляет,": 60,
  "начис@@": 60,
  "финансовыми": 60,
  "непре@@": 60,
  "мен": 60,
  "расположенных": 60,
  "ma@@": 60,
  "политики.": 60,
  "окружа@@": 60,
  "затруд@@": 60,
  "гуманитарным": 60,
  "Бельги@@": 60,
  "ющуюся": 60,
  "электрических": 60,
  "документации.": 60,
  "контрольных": 60,
  "закупо@@": 60,
  "(A/57/@@": 60,
  "молоде@@": 60,
  "Наконец,": 60,
  "4),": 60,
  "погрузки": 60,
  "ВИЧ/СПИДа@@": 60,
  "подпи@@": 60,
  "дебиторской": 60,
  "собственного": 60,
  "проектируемого": 60,
  "спаса@@": 60,
  "создан": 60,
  "проте@@": 60,
  "производства.": 60,
  "Таджики@@": 60,
  "держи@@": 60,
  "дка": 60,
  "массы": 60,
  "мало": 60,
  "мни@@": 60,
  "отчетов": 60,
  "исключа@@": 60,
  "осад@@": 60,
  ".9": 60,
  "туаль@@": 60,
  "ложение": 60,
  "Определение": 60,
  "Остро@@": 60,
  "пыт@@": 60,
  "представительство": 60,
  "Кабе@@": 60,
  "вязки": 60,
  "Китай,": 60,
  "резервуаров": 60,
  "Марокко": 60,
  "няется": 60,
  "Ав@@": 60,
  "7).": 60,
  "отчетного": 60,
  "Исланди@@": 60,
  "нтов": 60,
  "цов": 60,
  "одобрен@@": 60,
  "муль@@": 60,
  "проклады@@": 60,
  "3-1@@": 60,
  "800@@": 60,
  "устройству": 60,
  "ставки": 60,
  "управлением": 60,
  "Именно": 60,
  "жизни.": 60,
  "решений.": 60,
  "выплат": 60,
  "любую": 60,
  "8.1@@": 59,
  "Н,": 59,
  "ная@@": 59,
  "действующей": 59,
  "уходу": 59,
  "регистри@@": 59,
  "3130@@": 59,
  "наве@@": 59,
  "Зая@@": 59,
  "лись.": 59,
  "заглу@@": 59,
  "устанавливать": 59,
  "Канада,": 59,
  "ТЭ@@": 59,
  "касающегося": 59,
  "копии": 59,
  "крупные": 59,
  "продолж@@": 59,
  "советом": 59,
  "�@@": 59,
  "Кот-д'И@@": 59,
  "конвенция": 59,
  "(Е@@": 59,
  "афган@@": 59,
  "аккумуля@@": 59,
  "ограждения": 59,
  "видах": 59,
  "граф@@": 59,
  "лись,": 59,
  "этапах": 59,
  "гает": 59,
  "средняя": 59,
  "мировых": 59,
  "юридической": 59,
  "рского": 59,
  "рекомендацию": 59,
  "учитываются": 59,
  "подобных": 59,
  "юаней": 59,
  "Туркменистана": 59,
  "процедуры,": 59,
  "США),": 59,
  "ляри@@": 59,
  "Исламской": 59,
  "прецеден@@": 59,
  "уделением": 59,
  "•": 59,
  "экспорт": 59,
  "ково@@": 59,
  "'": 59,
  "закрыть": 59,
  "уплот@@": 59,
  "ность:": 59,
  "геологических": 59,
  "специальным": 59,
  "НПО,": 59,
  "Договора.": 59,
  "тов:": 59,
  "Такой": 59,
  "цей": 59,
  "Европейским": 59,
  "глубина": 59,
  "Большинство": 59,
  "лем": 59,
  "законодательные": 59,
  "АК@@": 59,
  "Право": 59,
  "возможностью": 59,
  "постановления": 59,
  "пользование": 59,
  "ступи@@": 59,
  "Принятие": 59,
  "прямо@@": 59,
  "ром.": 59,
  "вблизи": 59,
  "-200@@": 59,
  "*0,@@": 59,
  "учреждений.": 59,
  "республи@@": 59,
  "объектах": 59,
  "дная": 59,
  "работе,": 59,
  "согласованию": 59,
  "ально": 59,
  "нагре@@": 59,
  "колеба@@": 59,
  "кандидатов": 59,
  "Информация": 59,
  "уведомление": 59,
  "объем@@": 59,
  "подходов": 59,
  "55/2@@": 59,
  "цев@@": 59,
  "шкаф": 59,
  "полезных": 59,
  "ционно-@@": 59,
  "обеспокоен@@": 59,
  "планированию": 59,
  "бы.": 59,
  "Директора-исполнителя": 59,
  "изуч@@": 59,
  "особую": 59,
  "органами,": 59,
  "институт": 59,
  "тических": 59,
  "E/CN.4@@": 59,
  "оплате": 59,
  "насосной": 59,
  "военнослужащих": 59,
  "Оборудо@@": 59,
  "С),": 59,
  "Директор": 59,
  "переход": 59,
  "путь": 59,
  "-1,": 59,
  "конструкций,": 59,
  ".30@@": 59,
  "приемке": 59,
  "внедрение": 59,
  "сдел@@": 59,
  "мано@@": 59,
  "Рис@@": 59,
  "резко": 59,
  "изо@@": 59,
  "инфраструктуры,": 59,
  "Найроб@@": 59,
  "Нью-Йорке": 59,
  "Финлянди@@": 59,
  "докладчиком": 59,
  "50/@@": 59,
  "глас@@": 59,
  "варианта": 59,
  "(1999)": 59,
  "курс": 59,
  "мирового": 59,
  "предложений,": 59,
  "изменением": 59,
  "гендерным": 59,
  "достижений": 59,
  "блоков": 59,
  "010@@": 59,
  "разрабатывать": 59,
  "Аравии": 59,
  "способов": 59,
  "кок@@": 58,
  "иное": 58,
  "вычис@@": 58,
  "℃,": 58,
  "ключа@@": 58,
  "бю@@": 58,
  "Фор@@": 58,
  "транспортного": 58,
  "риска": 58,
  "облегчения": 58,
  "структуру": 58,
  "партнерские": 58,
  "-А@@": 58,
  "автодоро@@": 58,
  "проблемами": 58,
  "экономический": 58,
  "шек": 58,
  ".3.1@@": 58,
  ".4.1@@": 58,
  "диапа@@": 58,
  "центром": 58,
  "будущем.": 58,
  "известно,": 58,
  "ссыл@@": 58,
  "просьба": 58,
  "органов.": 58,
  "Монта@@": 58,
  "Серби@@": 58,
  "инициатив,": 58,
  "Ф.": 58,
  "Был": 58,
  "объекте": 58,
  "боро@@": 58,
  "полиции,": 58,
  "бывших": 58,
  "ния:": 58,
  "Кла@@": 58,
  "надба@@": 58,
  "директивных": 58,
  "ровкой": 58,
  "довой": 58,
  "СПИ@@": 58,
  "интерва@@": 58,
  "Исламская": 58,
  "Прокладка": 58,
  "78": 58,
  "ДС": 58,
  "Регу@@": 58,
  "кожу@@": 58,
  "/54/@@": 58,
  "ПРЕД@@": 58,
  "урегулированию": 58,
  "щимися": 58,
  "развитие,": 58,
  "чре@@": 58,
  "щу@@": 58,
  "Гаранти@@": 58,
  "У,": 58,
  "политическим": 58,
  "глубиной": 58,
  "сколь@@": 58,
  "частный": 58,
  "лите@@": 58,
  "НПО@@": 58,
  "ожи@@": 58,
  "сол@@": 58,
  "Усили@@": 58,
  "бая": 58,
  "типов": 58,
  "кладка": 58,
  "ЧЕСКИ@@": 58,
  "активных": 58,
  "Гц": 58,
  "/2002/@@": 58,
  "вов.": 58,
  "союза,": 58,
  "наружных": 58,
  "пунктами": 58,
  "усилий,": 58,
  "терроризма.": 58,
  "57/2@@": 58,
  "сто": 58,
  "наследи@@": 58,
  "тепловой": 58,
  "возлага@@": 58,
  "56/2@@": 58,
  "нисты@@": 58,
  "пресс-@@": 58,
  "млн": 58,
  "телевид@@": 58,
  "огражд@@": 58,
  "Монтер@@": 58,
  "A/C@@": 58,
  "дожде@@": 58,
  "кому": 58,
  "сырье@@": 58,
  "лесов": 58,
  "лечения": 58,
  "ств;": 58,
  "67": 58,
  "многолет@@": 58,
  "смогут": 58,
  "добросовест@@": 58,
  "меры.": 58,
  "(если": 58,
  "признается": 58,
  "брать": 58,
  "си": 58,
  "тков": 58,
  "НК": 58,
  "ью,": 58,
  "Н.@@": 58,
  "Уголо@@": 58,
  "сразу": 58,
  "Конструкция": 58,
  "монтажные": 58,
  "нацелен@@": 58,
  "04@@": 58,
  "развитым": 58,
  "предназначена": 58,
  "МИ": 58,
  "нашу": 58,
  "холоди@@": 58,
  "собы@@": 58,
  "возбу@@": 58,
  "координация": 58,
  "беспокой@@": 58,
  "пожаротушения": 58,
  "благоприятных": 58,
  "вания;": 58,
  "Каждый": 58,
  "формированию": 58,
  "ди,": 58,
  "далеко": 58,
  "объемов": 58,
  "истечении": 58,
  "вибра@@": 58,
  "кварти@@": 58,
  "огнестойкости": 58,
  "нагрузка": 58,
  "отражение": 58,
  "ликвидацию": 58,
  "производственные": 58,
  "X": 58,
  "кладки": 58,
  "эффек@@": 58,
  "статусе": 58,
  "децентра@@": 58,
  "наб@@": 58,
  "Африке.": 58,
  "наблюдается": 58,
  "ви": 58,
  "вшись": 58,
  "обработка": 58,
  "25,": 58,
  "английском": 58,
  "77.": 58,
  "рассе@@": 58,
  "напряжен@@": 58,
  "цик@@": 58,
  "Соглашение": 58,
  "ископа@@": 58,
  "местности": 57,
  "Служ@@": 57,
  "реали@@": 57,
  "нападения": 57,
  "обзор@@": 57,
  "входящих": 57,
  "жилых": 57,
  "изза": 57,
  "повышении": 57,
  "гне@@": 57,
  "исправ@@": 57,
  "Болга@@": 57,
  "терроризмом,": 57,
  "раствор": 57,
  "ровок": 57,
  "эксперти@@": 57,
  "соединяется": 57,
  "АБ@@": 57,
  "делает": 57,
  "Ираке": 57,
  "денежной": 57,
  "Акта": 57,
  "деву@@": 57,
  "сказы@@": 57,
  "текущего": 57,
  "надлежит": 57,
  "задачи,": 57,
  "ровки,": 57,
  "тысячелетия.": 57,
  "правления": 57,
  "ник,": 57,
  "суммар@@": 57,
  "зин@@": 57,
  "35-@@": 57,
  "переговоров,": 57,
  "добавить": 57,
  "работников,": 57,
  "ассоции@@": 57,
  "вопросу,": 57,
  "законных": 57,
  "закона,": 57,
  "Прежде": 57,
  "изложенные": 57,
  "(8@@": 57,
  "ны:": 57,
  "ском,": 57,
  "отказаться": 57,
  "перестрой@@": 57,
  "тации,": 57,
  "академи@@": 57,
  "(Г@@": 57,
  "каждые": 57,
  "Деятельность": 57,
  "директо@@": 57,
  "потребителей": 57,
  "пада@@": 57,
  "ху@@": 57,
  "Постоянный": 57,
  ".01.@@": 57,
  "свободных": 57,
  "пространстве": 57,
  "(A@@": 57,
  "бенефициа@@": 57,
  "возобновления": 57,
  "нке": 57,
  "ваемым": 57,
  "жде@@": 57,
  "актов,": 57,
  "мужчины": 57,
  "мери@@": 57,
  "здоровь@@": 57,
  "морскому": 57,
  "наем@@": 57,
  "выпуск@@": 57,
  "Основная": 57,
  "гри@@": 57,
  "проинформи@@": 57,
  "обусловлено": 57,
  "75.": 57,
  "тельством": 57,
  "передачу": 57,
  "отхо@@": 57,
  "___@@": 57,
  "специфика@@": 57,
  "ционному": 57,
  "3-0@@": 57,
  "свободно": 57,
  "ано@@": 57,
  "платформы": 57,
  "обязательного": 57,
  "расчетов": 57,
  "избран@@": 57,
  "МФ@@": 57,
  "агентства": 57,
  "составляла": 57,
  "коммерческой": 57,
  "первоначально": 57,
  "минераль@@": 57,
  "лизо@@": 57,
  "ром@@": 57,
  "изложены": 57,
  "гражданское": 57,
  "назначения,": 57,
  "измерений": 57,
  "предварительную": 57,
  "ир@@": 57,
  "нарушениях": 57,
  "тия.": 57,
  "площа@@": 57,
  "нах.": 57,
  "обстоятельствах": 57,
  "56.": 57,
  "жизненно": 57,
  "вой,": 57,
  "продукты": 57,
  "сотрудничества.": 57,
  "/58/@@": 57,
  "бак@@": 57,
  "институтов": 57,
  "машины": 57,
  "прибе@@": 57,
  "испан@@": 57,
  "пыле@@": 57,
  "куля@@": 57,
  "наруши@@": 57,
  "рабаты@@": 57,
  "УР@@": 57,
  "зов,": 57,
  "Делегация": 57,
  "ликвиди@@": 57,
  "точности": 57,
  "бака": 57,
  "развертывания": 57,
  "готовы": 57,
  "предотвращение": 57,
  "ветра": 57,
  "процессом": 57,
  "Чили,": 57,
  "страновом": 57,
  "фильтро@@": 57,
  "Анти@@": 57,
  "концесси@@": 57,
  "нынешних": 57,
  "КГ@@": 57,
  "Верхо@@": 57,
  "площадью": 57,
  "82": 57,
  "дских": 57,
  "ума": 57,
  "иннова@@": 57,
  "стви@@": 57,
  "двум": 57,
  "94": 56,
  "утверждении": 56,
  "выступать": 56,
  "суды": 56,
  "сообщества.": 56,
  "людьми": 56,
  "прямые": 56,
  "способы": 56,
  "пользу@@": 56,
  "правило": 56,
  "Еди@@": 56,
  "Заявитель": 56,
  "взрос@@": 56,
  "населенным": 56,
  "заполня@@": 56,
  "алюминие@@": 56,
  "личного": 56,
  "глав": 56,
  "Председатель,": 56,
  "возможной": 56,
  "больни@@": 56,
  "жилья": 56,
  "11,@@": 56,
  "имело": 56,
  "Компа@@": 56,
  "докладе,": 56,
  "Пятого": 56,
  "трансформатора": 56,
  "центро@@": 56,
  ".00-@@": 56,
  "(Блок": 56,
  "индек@@": 56,
  "заполнения": 56,
  "Положения": 56,
  "хе@@": 56,
  "инструмента": 56,
  "автотранспортных": 56,
  "Комиссии.": 56,
  "Фид@@": 56,
  "раннего": 56,
  "сожаление": 56,
  "увели@@": 56,
  "ениям.": 56,
  "колле@@": 56,
  "этапа@@": 56,
  "СР": 56,
  "суверените@@": 56,
  "статистические": 56,
  "Беларусь": 56,
  "лесного": 56,
  "веро@@": 56,
  "4.2@@": 56,
  "пакта": 56,
  "чертежа@@": 56,
  "годовой": 56,
  "Програм@@": 56,
  "приста@@": 56,
  "D-@@": 56,
  "показателя": 56,
  "оккупи@@": 56,
  "тских": 56,
  "мониторин@@": 56,
  "Предвари@@": 56,
  "щенного": 56,
  "служа@@": 56,
  "отправл@@": 56,
  "V.": 56,
  "колонн": 56,
  "крепе@@": 56,
  "говоря@@": 56,
  "обши@@": 56,
  "узна@@": 56,
  "окис@@": 56,
  "О)": 56,
  "ощ@@": 56,
  "прав.": 56,
  "обязанностей,": 56,
  "удовлетворя@@": 56,
  "американских": 56,
  "субсидии": 56,
  "социальное": 56,
  "вплоть": 56,
  "предыдущем": 56,
  "Либерии": 56,
  "первых,": 56,
  "апре@@": 56,
  "Особ@@": 56,
  "периодические": 56,
  "страни@@": 56,
  "издание": 56,
  "пункта,": 56,
  "сим@@": 56,
  "74@@": 56,
  "Ⅱ@@": 56,
  "дерев@@": 56,
  "СВ@@": 56,
  "говорит": 56,
  "оружие": 56,
  "демократии": 56,
  "ЧА@@": 56,
  "целом,": 56,
  "содержащейся": 56,
  "защитных": 56,
  "ресурсами,": 56,
  "заявила,": 56,
  "исчерпа@@": 56,
  "Объ@@": 56,
  "принятым": 56,
  "соответственно,": 56,
  "образом:": 56,
  "перспективы": 56,
  "Уровень": 56,
  "консультативных": 56,
  "семей,": 56,
  "дации": 56,
  "нака@@": 56,
  "потребностей,": 56,
  "начальной": 56,
  "Вла@@": 56,
  "лови@@": 56,
  "подклю@@": 56,
  "Ги@@": 56,
  "обрабаты@@": 56,
  "после@@": 56,
  "поиска": 56,
  "законы": 56,
  "чий": 56,
  "активную": 56,
  "знания": 56,
  "разбивкой": 56,
  "ваемая": 56,
  "ЮНЕСКО@@": 56,
  "с:": 56,
  "Проведение": 56,
  "лицом": 56,
  "существующего": 56,
  "таблицу": 56,
  "ситуаций": 56,
  "Специальной": 56,
  "PS@@": 56,
  "Конференции.": 56,
  "служеб@@": 56,
  "5;": 56,
  "101": 56,
  "оценивает": 56,
  "1-2@@": 56,
  "квалифицированных": 56,
  "рая": 56,
  "доход@@": 56,
  "старших": 56,
  "швы": 56,
  "склади@@": 56,
  "Услови@@": 56,
  "ежемеся@@": 56,
  "власти,": 55,
  "отсутствуют": 55,
  "обоб@@": 55,
  "Уругва@@": 55,
  "перен@@": 55,
  "погиб@@": 55,
  "Увеличение": 55,
  "участки": 55,
  "ведении": 55,
  "неоднократно": 55,
  "искоренению": 55,
  "Министер@@": 55,
  "кольце@@": 55,
  "неисправ@@": 55,
  "службе": 55,
  "Никарагу@@": 55,
  "десять": 55,
  "инвалид@@": 55,
  "широком": 55,
  "прибыль": 55,
  "отклон@@": 55,
  "объекта,": 55,
  "заслужи@@": 55,
  "НЕ@@": 55,
  "лся,": 55,
  "регион@@": 55,
  "Обра@@": 55,
  "Африки.": 55,
  "лым": 55,
  "определяет": 55,
  "заменя@@": 55,
  "процента,": 55,
  "подается": 55,
  "ущерб,": 55,
  "государствам,": 55,
  "закрытия": 55,
  "лета@@": 55,
  "Казахстан@@": 55,
  "Регла@@": 55,
  "ОД@@": 55,
  "снизи@@": 55,
  "карто@@": 55,
  "авторите@@": 55,
  "слабо@@": 55,
  "получила": 55,
  "поставку": 55,
  "фри@@": 55,
  "64.": 55,
  "всеобщего": 55,
  "казы@@": 55,
  "последующим": 55,
  "большего": 55,
  "сопроти@@": 55,
  "заявля@@": 55,
  "(до": 55,
  "Работы": 55,
  "фай@@": 55,
  "будь": 55,
  "непред@@": 55,
  "тонне@@": 55,
  "женщин@@": 55,
  "Гидро@@": 55,
  "ловой": 55,
  "Сингапу@@": 55,
  "суще@@": 55,
  "дополнительный": 55,
  "Сома@@": 55,
  "69": 55,
  "Австра@@": 55,
  "продоволь@@": 55,
  "пе,": 55,
  "соображения": 55,
  "телям,": 55,
  "темпов": 55,
  "Сво@@": 55,
  "неотъемле@@": 55,
  "разнообразия": 55,
  "январе": 55,
  "пригод@@": 55,
  "И,": 55,
  "всестороннего": 55,
  "содержанием": 55,
  "ба,": 55,
  "территорий,": 55,
  "приводя@@": 55,
  "прибыли": 55,
  "всеобъемлющий": 55,
  "надеемся,": 55,
  "всеобъемлющей": 55,
  "жертвам": 55,
  "третьим": 55,
  "большо@@": 55,
  "договора.": 55,
  "Кубы": 55,
  "Совещание": 55,
  "явно": 55,
  "государствами,": 55,
  "эффективному": 55,
  "Федерация,": 55,
  "разъ@@": 55,
  "ш-@@": 55,
  "изменению": 55,
  "хра@@": 55,
  "стимулирования": 55,
  "стандартных": 55,
  "приобрет@@": 55,
  "Моско@@": 55,
  "месторождении": 55,
  "50,": 55,
  "иногда": 55,
  "точке": 55,
  "заявляет": 55,
  "тенденция": 55,
  ",0": 55,
  "лез@@": 55,
  "Рё": 55,
  "писы@@": 55,
  "уважа@@": 55,
  "работники": 55,
  "Площадь": 55,
  "лыми": 55,
  "двери": 55,
  "школы": 55,
  "поанглийски):": 55,
  "хло@@": 55,
  "лях": 55,
  "гранулирования": 55,
  "80.": 55,
  "лю.": 55,
  "пом": 55,
  "ВОКНТА": 55,
  "(не": 55,
  "сомн@@": 55,
  "Пакта.": 55,
  "смягчения": 55,
  "Стратеги@@": 55,
  "взыска@@": 55,
  "потому": 55,
  "сом.": 55,
  "гай@@": 55,
  "буде@@": 55,
  "A/C.1@@": 55,
  "десят": 55,
  "брутто": 55,
  "континента@@": 55,
  "процентов,": 55,
  "вывать": 55,
  "структур": 55,
  "шли@@": 55,
  "инфля@@": 55,
  "обращение": 55,
  "достаточной": 55,
  "уча@@": 55,
  "рыча@@": 55,
  "обязано": 55,
  "муниципа@@": 55,
  "Финансирование": 55,
  "предлагаемых": 55,
  "6),": 55,
  "рующей": 55,
  "обсу@@": 55,
  "направлено": 55,
  "\"С@@": 55,
  "противореча@@": 55,
  "подли@@": 55,
  "Насо@@": 55,
  "подвергаются": 55,
  "определяют": 55,
  "пожарных": 55,
  "пожара": 55,
  "установо@@": 55,
  "шему": 55,
  "набор": 55,
  "смешан@@": 55,
  "температурой": 55,
  "зданий,": 55,
  "день,": 55,
  "уведомить": 54,
  "Фунда@@": 54,
  "10кВ": 54,
  "вопросах,": 54,
  "уполномоченных": 54,
  "1,6": 54,
  "соображ@@": 54,
  "аммиа@@": 54,
  "\")": 54,
  "Резер@@": 54,
  "сеч@@": 54,
  "ляют": 54,
  "дах.": 54,
  "целесообразно": 54,
  "находящиеся": 54,
  "рить": 54,
  "лось.": 54,
  "(5@@": 54,
  "жную": 54,
  "Крас@@": 54,
  "давно": 54,
  "трассы": 54,
  "используемые": 54,
  "предыдущего": 54,
  "контактов": 54,
  "финансовом": 54,
  "занимаются": 54,
  "стана,": 54,
  "банкрот@@": 54,
  "83": 54,
  "рази@@": 54,
  "прива@@": 54,
  "вступ@@": 54,
  "6.@@": 54,
  "Председателю": 54,
  "мужчин,": 54,
  "наименование": 54,
  "полицейских": 54,
  "ситуаций,": 54,
  "ab@@": 54,
  "разъясн@@": 54,
  "Представители": 54,
  "сначала": 54,
  "веществ,": 54,
  "ти)": 54,
  "классифика@@": 54,
  "Филиппи@@": 54,
  "электродвигателя": 54,
  "плодо@@": 54,
  "собственные": 54,
  "климати@@": 54,
  "ностью@@": 54,
  "форум": 54,
  "электрического": 54,
  "правл@@": 54,
  "северо-@@": 54,
  "пострадавших": 54,
  "языке": 54,
  "оборудованием": 54,
  "условия@@": 54,
  "максимального": 54,
  "аварии": 54,
  "события": 54,
  "юрисдикции": 54,
  "Г,": 54,
  "выход": 54,
  "ему@@": 54,
  "зим@@": 54,
  "способствовало": 54,
  "становятся": 54,
  "спут@@": 54,
  "преимущественно": 54,
  "международно-@@": 54,
  "нанес@@": 54,
  "островов": 54,
  "ЕС": 54,
  "Исходя": 54,
  "юридические": 54,
  "57.": 54,
  "ы)": 54,
  "оценить": 54,
  "1986": 54,
  "вест@@": 54,
  "утвердил": 54,
  "крупно@@": 54,
  "основную": 54,
  "устранить": 54,
  "обработке": 54,
  "аз@@": 54,
  "другое": 54,
  "участвует": 54,
  "необходимое": 54,
  "туриз@@": 54,
  "отсутству@@": 54,
  "РµРЅ@@": 54,
  "мнить": 54,
  "временем": 54,
  "por@@": 54,
  "Корея,": 54,
  "ссы@@": 54,
  "положение,": 54,
  "выполнен": 54,
  "детям": 54,
  "жили@@": 54,
  "самоопредел@@": 54,
  "лев@@": 54,
  "метров": 54,
  "=1,15;": 54,
  "южной": 54,
  "неформа@@": 54,
  "Германия,": 54,
  "рынки": 54,
  "вопроса,": 54,
  "Бени@@": 54,
  "бытовых": 54,
  "легко": 54,
  "ция)": 54,
  "прямого": 54,
  "прогнози@@": 54,
  "шает": 54,
  "защищать": 54,
  "точно": 54,
  "отече@@": 54,
  "товых": 54,
  "расширять": 54,
  "(III)": 54,
  "тельности,": 54,
  "мест,": 54,
  "прияти@@": 54,
  "__": 54,
  "оправда@@": 54,
  "Агент@@": 54,
  "школьного": 54,
  "объединения": 54,
  "NF@@": 54,
  "высокие": 54,
  "выбра@@": 54,
  "духо@@": 54,
  "дают": 54,
  "предназначенные": 54,
  "техники,": 54,
  "широкие": 54,
  "глубоко": 54,
  "провели": 54,
  "статьям": 54,
  "США;": 54,
  "аспектах": 54,
  "ТЗТ@@": 54,
  "сотрудник": 54,
  "ся.": 54,
  "пан@@": 54,
  "используют": 54,
  "семье": 54,
  "НР": 54,
  "означа@@": 54,
  "регуляр@@": 54,
  "подлин@@": 54,
  "смо@@": 54,
  "государства-@@": 54,
  "Пари@@": 54,
  "уведом@@": 54,
  "Словаки@@": 54,
  "Лесо@@": 54,
  "установки,": 54,
  "кв.@@": 54,
  "выводу": 54,
  "Пекинской": 54,
  "пределы": 54,
  "Багтыярлы@@": 54,
  "развивать": 54,
  "92": 54,
  "ём": 54,
  "L.3@@": 54,
  "приемо@@": 54,
  "просветитель@@": 54,
  "налад@@": 54,
  "мов.": 53,
  "чек": 53,
  "гар@@": 53,
  "нищетой": 53,
  "необходимую": 53,
  "фами@@": 53,
  "%;": 53,
  "государству@@": 53,
  "нского": 53,
  "предоставлению": 53,
  "ЮНИСЕ@@": 53,
  "проживания": 53,
  "выплату": 53,
  "Практи@@": 53,
  "разно@@": 53,
  "распределении": 53,
  "указано,": 53,
  "письменном": 53,
  "неправи@@": 53,
  "переходного": 53,
  "выделение": 53,
  "1,0": 53,
  "мо,": 53,
  "выполнена": 53,
  "соглас@@": 53,
  "обязательств.": 53,
  "месте.": 53,
  "кий,": 53,
  "истечения": 53,
  "резервуар": 53,
  "подтверждение": 53,
  "источники": 53,
  "сть.": 53,
  "Маври@@": 53,
  "глубине": 53,
  "1997/@@": 53,
  "114@@": 53,
  "смогли": 53,
  "склад@@": 53,
  "эро@@": 53,
  "добычи": 53,
  "зах": 53,
  "выгод@@": 53,
  "разногласи@@": 53,
  "таж": 53,
  "структурной": 53,
  "отражают": 53,
  "задолженность": 53,
  "масля@@": 53,
  "властями": 53,
  "твердых": 53,
  "установленный": 53,
  "нормы,": 53,
  "благодар@@": 53,
  "дальнейшему": 53,
  "инжене@@": 53,
  "др.@@": 53,
  "делах": 53,
  "безработи@@": 53,
  "нужды": 53,
  "экономики,": 53,
  "Контракта": 53,
  "первым": 53,
  "Секция": 53,
  "Ман@@": 53,
  "Обяза@@": 53,
  "Бло@@": 53,
  "Механиз@@": 53,
  "кремния": 53,
  "ежегодных": 53,
  "б)": 53,
  "одо@@": 53,
  "судом": 53,
  "Пара@@": 53,
  "вляется": 53,
  "щают": 53,
  "нки": 53,
  "спла@@": 53,
  "практические": 53,
  "систем.": 53,
  "рисков": 53,
  "горных": 53,
  "сметной": 53,
  "возникнов@@": 53,
  "/200@@": 53,
  "104@@": 53,
  "ленный": 53,
  "ВИЧ/СПИДа": 53,
  "оценкам,": 53,
  "пожаро@@": 53,
  "рабочим": 53,
  "детьми,": 53,
  "нижеследу@@": 53,
  "зонди@@": 53,
  "Рис.": 53,
  "контроля.": 53,
  "утвержденной": 53,
  "медико-санита@@": 53,
  "хозяйства,": 53,
  "схему": 53,
  "достаточное": 53,
  "мерам": 53,
  "Группе": 53,
  "пад@@": 53,
  "способствовали": 53,
  "ства:": 53,
  "защитой": 53,
  "син@@": 53,
  "коллективных": 53,
  "подкреп@@": 53,
  "нке@@": 53,
  "комиссии,": 53,
  "довести": 53,
  "ваний.": 53,
  "/CRP@@": 53,
  "Характеристи@@": 53,
  "вось@@": 53,
  "осуществляемой": 53,
  "50;": 53,
  "присутствие": 53,
  "тового": 53,
  "примыка@@": 53,
  "Бахрей@@": 53,
  "аресто@@": 53,
  "высокую": 53,
  "аналогичные": 53,
  "самые": 53,
  "Соединенными": 53,
  "выдвига@@": 53,
  "=0,@@": 53,
  "Площа@@": 53,
  "решения.": 53,
  "ло.": 53,
  "препровожда@@": 53,
  "бесчелове@@": 53,
  "автоматической": 53,
  "участникам": 53,
  "требовать": 53,
  "повыси@@": 53,
  "бря,": 53,
  "квар@@": 53,
  "расти@@": 53,
  "Ввиду": 53,
  "м3@@": 53,
  "школах": 53,
  "Шри-Лан@@": 53,
  "преры@@": 53,
  "существование": 53,
  "сохранении": 53,
  "Сертифика@@": 53,
  "осужд@@": 53,
  "итоге": 53,
  "обеспечением": 53,
  "Типо@@": 53,
  "исполнительного": 53,
  "380@@": 53,
  "чил": 53,
  "(<<@@": 53,
  "полевых": 53,
  "исчис@@": 53,
  "ID@@": 53,
  "согласование": 53,
  "биз@@": 53,
  "еся": 53,
  "периоде": 53,
  "фабри@@": 53,
  "РП": 53,
  "первое": 53,
  "СО": 53,
  "двадца@@": 53,
  "бетон": 53,
  "прилега@@": 53,
  "ствия": 53,
  "Франция,": 53,
  "х.@@": 53,
  "последующего": 53,
  "контек@@": 53,
  "Обвини@@": 53,
  "пусть": 52,
  "периоды": 52,
  "цеха": 52,
  "86": 52,
  "любым": 52,
  "Вас": 52,
  "87": 52,
  "пище@@": 52,
  "секторов": 52,
  "период@@": 52,
  "претен@@": 52,
  "шт.)": 52,
  "участву@@": 52,
  "практики,": 52,
  "дальнейшие": 52,
  "ье": 52,
  "Буркина-Фасо,": 52,
  "предусмотренной": 52,
  "противоречи@@": 52,
  "РПООН@@": 52,
  "тему": 52,
  "мораль@@": 52,
  "Право@@": 52,
  "Москва,": 52,
  "ненных": 52,
  "разработкой": 52,
  "вей@@": 52,
  "реабилитации": 52,
  "гая": 52,
  "зонах": 52,
  "цом": 52,
  "матери@@": 52,
  "отличие": 52,
  "контролле@@": 52,
  "силы,": 52,
  "консультантов": 52,
  "ПРИ@@": 52,
  "Соответствен@@": 52,
  "проектированию": 52,
  "областях.": 52,
  "изве@@": 52,
  "сталкивается": 52,
  "твердо@@": 52,
  "-м": 52,
  "65.": 52,
  "желает": 52,
  "шением": 52,
  "Несколько": 52,
  "вке": 52,
  "относящиеся": 52,
  "поставить": 52,
  "Внутрен@@": 52,
  "обстоятельств": 52,
  "внутренним": 52,
  "показателей,": 52,
  "Дол@@": 52,
  "кали@@": 52,
  "порта@@": 52,
  "поясни@@": 52,
  "противопожарной": 52,
  "вопло@@": 52,
  "поощ@@": 52,
  "61.": 52,
  "бюджетные": 52,
  "ребенка.": 52,
  "ведомо@@": 52,
  "удовлетворять": 52,
  "Казахстан,": 52,
  "обес@@": 52,
  "функции,": 52,
  "релье@@": 52,
  "гами": 52,
  "проводя@@": 52,
  "религиозных": 52,
  "транспортные": 52,
  "Утвер@@": 52,
  "Чешской": 52,
  "нес": 52,
  "Опо@@": 52,
  "приложение).": 52,
  "чаще": 52,
  "обеспечит": 52,
  "контракт": 52,
  "иско@@": 52,
  "добровольной": 52,
  "призывом": 52,
  "Распреде@@": 52,
  "век": 52,
  "Защита": 52,
  ">@@": 52,
  "работе.": 52,
  "устройства,": 52,
  "достигнутого": 52,
  "противоправ@@": 52,
  "кругло@@": 52,
  "ВИЧ@@": 52,
  "распростра@@": 52,
  "DN": 52,
  "цено@@": 52,
  "железобетонные": 52,
  "Гаа@@": 52,
  "содержат": 52,
  "Гос@@": 52,
  "публикации": 52,
  "es": 52,
  "дорожной": 52,
  "нется": 52,
  "с.@@": 52,
  "ФАО": 52,
  "Же@@": 52,
  "независимых": 52,
  "Секции": 52,
  "совершенно": 52,
  "планиру@@": 52,
  "неотлож@@": 52,
  "ли:": 52,
  "гора@@": 52,
  "Организации,": 52,
  "установленными": 52,
  "Измен@@": 52,
  "производительности": 52,
  "тии,": 52,
  "несколь@@": 52,
  "тюре@@": 52,
  "сви@@": 52,
  "скорректи@@": 52,
  "описы@@": 52,
  "/55/@@": 52,
  "бов": 52,
  "темы": 52,
  "приобретение": 52,
  "незаконных": 52,
  "городах": 52,
  "Протокола": 52,
  "предпринимаемые": 52,
  "устра@@": 52,
  "шан@@": 52,
  "организациям,": 52,
  "независимого": 52,
  "посвя@@": 52,
  "верну@@": 52,
  "расстоя@@": 52,
  "мнениями": 52,
  "тер": 52,
  "т.ч.": 52,
  "стремиться": 52,
  "прямым": 52,
  "мами": 52,
  "КА": 52,
  "предписа@@": 52,
  "обращается": 52,
  "ближай@@": 52,
  "представлено": 52,
  "взаимодополня@@": 52,
  "б,": 52,
  "63.": 52,
  "ек": 52,
  "городе": 52,
  "тивно-@@": 52,
  "содейство@@": 52,
  "завершен@@": 52,
  "службы.": 52,
  "семинара": 52,
  "шту@@": 52,
  "окончании": 52,
  "Острова,": 52,
  "ун@@": 52,
  "дефици@@": 52,
  "ски": 52,
  "Алба@@": 52,
  "диаграм@@": 52,
  "цы.": 52,
  "благосостояния": 52,
  "заявлении": 51,
  "гражда@@": 51,
  "учебного": 51,
  "областей": 51,
  "персоналом": 51,
  "друго@@": 51,
  "Инициа@@": 51,
  "телем.": 51,
  "Межучрежден@@": 51,
  "консультативного": 51,
  "пес@@": 51,
  "траншеи": 51,
  "затрагиваемых": 51,
  "воли": 51,
  "результатов,": 51,
[...]
