{
  "<s>": 46977,
  "<pad>": 46976,
  "</s>": 46975,
  "<unk>": 46974,
  "，": 46967,
  "的": 32641,
  "\\": 14383,
  "n": 12826,
  "：": 10072,
  "。": 10063,
  "、": 9738,
  "可": 7877,
  "级": 6797,
  "提升": 6718,
  "1": 6239,
  "+": 6227,
  "在": 6139,
  "星": 6123,
  ",": 5708,
  "获得": 5447,
  "后": 4967,
  "·": 4903,
  "你": 4568,
  "了": 4444,
  "*": 4302,
  "使用": 4236,
  "生命": 4194,
  "-": 4086,
  "是": 3987,
  ":": 3776,
  "攻击": 3690,
  "2": 3687,
  "伤害": 3573,
  "我": 3454,
  "有": 3066,
  "3": 2985,
  "！": 2859,
  "不": 2847,
  "和": 2763,
  "】": 2696,
  "【": 2690,
  "阶": 2637,
  "激活": 2604,
  "中": 2583,
  "设计": 2535,
  "上": 2416,
  "对": 2386,
  "时": 2330,
  "舒适": 2302,
  "为": 2275,
  "武器": 2268,
  "5": 2264,
  "（": 2235,
  "）": 2180,
  "可以": 2162,
  "请": 2118,
  "元素": 2087,
  "您": 1981,
  "防御": 1946,
  "个": 1937,
  "#": 1931,
  ">": 1927,
  "10": 1924,
  "<": 1889,
  "4": 1855,
  "奖励": 1846,
  "属性": 1845,
  "时尚": 1828,
  "时装": 1815,
  "都": 1748,
  "将": 1711,
  "持续": 1693,
  "技能": 1688,
  "与": 1673,
  "攻击力": 1666,
  "增加": 1651,
  "效果": 1635,
  "点": 1634,
  "活动": 1601,
  "目标": 1562,
  "会": 1559,
  "或": 1543,
  "造成": 1535,
  "让": 1535,
  "更": 1516,
  "也": 1500,
  "加成": 1449,
  "选择": 1438,
  "6": 1425,
  "秒": 1412,
  ".": 1407,
  "装备": 1399,
  "一定": 1396,
  "提供": 1375,
  "我们": 1367,
  "就": 1360,
  "好": 1356,
  "人": 1325,
  "一个": 1305,
  "开启": 1297,
  "能够": 1292,
  "镶嵌": 1280,
  "已": 1267,
  "上限": 1265,
  "？": 1261,
  "并": 1209,
  "/": 1207,
  "等级": 1205,
  ")": 1202,
  "状态": 1195,
  "战力": 1189,
  "7": 1145,
  "8": 1145,
  "“": 1143,
  "能": 1132,
  "概率": 1128,
  "(": 1126,
  "等": 1122,
  "随机": 1114,
  "到": 1113,
  "同时": 1112,
  "橙色": 1076,
  "面料": 1060,
  "值": 1053,
  "多": 1039,
  "碎片": 1037,
  "透气": 1034,
  "萤石": 1018,
  "层": 1017,
  "玩家": 988,
  "采用": 988,
  "吗": 976,
  "单位": 970,
  "吧": 962,
  "9": 953,
  "礼包": 950,
  "”": 950,
  "被": 939,
  "%": 939,
  "该": 939,
  "回合": 935,
  "第": 932,
  "图鉴": 920,
  "进行": 915,
  "达到": 897,
  "下": 895,
  "柔软": 890,
  "品质": 890,
  "项链": 888,
  "内": 888,
  "戒指": 887,
  "所有": 884,
  "材料": 881,
  "战斗力": 881,
  "限时": 873,
  "经验": 869,
  "要": 866,
  "永久": 862,
  "时间": 861,
  "敌方": 859,
  "给": 857,
  "10%": 854,
  "大": 851,
  "掉落": 850,
  "…": 844,
  "基础": 842,
  "使": 837,
  "来": 809,
  "0": 803,
  "购买": 803,
  "自己": 794,
  "还": 794,
  "30": 789,
  "翅膀": 789,
  "用于": 785,
  "任务": 784,
  "组件": 768,
  "这": 766,
  "双手": 766,
  "破甲": 765,
  "BOSS": 759,
  "没有": 751,
  "魔法": 747,
  "及": 743,
  "优质": 740,
  "英雄": 737,
  "着": 735,
  "22": 729,
  "用": 727,
  "次": 724,
  "外形": 720,
  "商品": 720,
  "晶石": 719,
  "紫色": 716,
  "每": 714,
  "20%": 710,
  "套装": 709,
  "很": 707,
  "无法": 702,
  "合成": 702,
  "物理": 691,
  "地": 682,
  "道具": 682,
  "；": 669,
  "产品": 664,
  "无": 663,
  "如果": 662,
  "升级": 659,
  "|": 658,
  "需要": 658,
  "出": 656,
  "20": 656,
  "打开": 655,
  "下列": 655,
  "界面": 653,
  "暴击": 651,
  "进入": 645,
  "石": 641,
  "人物": 624,
  "从": 621,
  "他": 621,
  "不同": 621,
  "副手": 620,
  "肌肤": 618,
  "去": 616,
  "红色": 614,
  "天": 614,
  "自身": 613,
  "以": 608,
  "穿": 605,
  "通过": 604,
  "宝箱": 602,
  "卓越": 601,
  "角色": 599,
  "啊": 595,
  "它": 592,
  "万": 592,
  "衣服": 591,
  "工艺": 591,
  "精灵": 591,
  "精华": 589,
  "测量": 588,
  "以下": 586,
  "月": 586,
  "副本": 586,
  "轻松": 583,
  "一@@": 582,
  "年": 582,
  "而": 581,
  "可能": 581,
  "说": 580,
  "穿着": 580,
  "当前": 578,
  "什么": 578,
  "受到": 572,
  "风": 572,
  "额外": 572,
  "单手": 570,
  "防御力": 570,
  "水": 569,
  "魅力": 568,
  "降低": 568,
  "最": 563,
  "抗性": 563,
  "头盔": 562,
  "于": 558,
  "完成": 551,
  "高级": 549,
  "安全": 542,
  "运动": 541,
  "只": 540,
  "得": 539,
  "信息": 538,
  "护手": 538,
  "小": 537,
  "天使": 536,
  "坐骑": 535,
  "一": 534,
  "鞋子": 534,
  "耐磨": 527,
  "材质": 527,
  "★": 525,
  "开始": 524,
  "高": 523,
  ";": 523,
  "至": 522,
  "1000": 519,
  "不能": 518,
  "提高": 513,
  "24": 513,
  "5%": 512,
  "功能": 510,
  "100": 509,
  "数据": 507,
  "3%": 505,
  "再": 504,
  "化形": 500,
  "又": 499,
  "已经": 496,
  "需": 496,
  "蓝色": 493,
  "成功": 492,
  "防滑": 490,
  "优雅": 489,
  "休闲": 488,
  "分解": 484,
  "新款": 481,
  "有效": 479,
  "以上": 477,
  "领取": 475,
  "根据": 473,
  "尺码": 473,
  "不@@": 473,
  "问题": 471,
  "把": 468,
  "系统": 468,
  "包包": 467,
  "设置": 465,
  "就是": 463,
  "解锁": 463,
  "包": 463,
  "26": 461,
  "c41": 459,
  "是否": 457,
  "消耗": 457,
  "手机": 456,
  "哦": 455,
  "方式": 454,
  "圣器": 454,
  "健康": 454,
  "伙伴": 453,
  "输入": 453,
  "几率": 453,
  "15%": 453,
  "铠甲": 452,
  "做": 449,
  "前": 449,
  "火": 448,
  "生活": 447,
  "支持": 445,
  "15": 445,
  "光": 444,
  "简约": 441,
  "范围": 439,
  "不会": 439,
  "积分": 438,
  "50": 436,
  "召唤": 434,
  "职业": 433,
  "牛皮": 432,
  "自动": 432,
  "存在": 431,
  "者": 430,
  "减抗": 430,
  "方案": 429,
  "本": 428,
  "新": 426,
  "通用": 426,
  "次数": 426,
  "2%": 425,
  "鞋": 420,
  "s": 420,
  "神兵": 420,
  "展示": 420,
  "其他": 420,
  "敌人": 419,
  "想": 419,
  "魔塔": 417,
  "法宝": 415,
  "手工": 415,
  "自选": 414,
  "其": 413,
  "方便": 411,
  "最大": 410,
  "因": 409,
  "礼盒": 406,
  "查看": 405,
  "$": 405,
  "那": 403,
  "皮肤": 403,
  "之": 402,
  "减少": 401,
  "建议": 401,
  "体验": 400,
  "防水": 399,
  "未": 398,
  "回复": 398,
  "所": 398,
  "颜色": 396,
  "具有": 396,
  "技术": 394,
  "己方": 393,
  "穿戴": 390,
  "=": 389,
  "1%": 389,
  "任何": 388,
  "误差": 387,
  "此": 387,
  "这个": 386,
  "适合": 383,
  "小时": 382,
  "低于": 382,
  "30%": 382,
  "怪物": 380,
  "越": 380,
  "跟": 379,
  "型": 379,
  "60": 378,
  "◆": 376,
  "性": 374,
  "客户": 373,
  "如": 373,
  "更加": 371,
  "细腻": 369,
  "800": 369,
  "50%": 368,
  "潮流": 368,
  "自然": 367,
  "过": 364,
  "称号": 363,
  "记录": 361,
  "速度": 360,
  "才": 359,
  "宝石": 359,
  "200": 359,
  "即可": 359,
  "保护": 358,
  "完美": 357,
  "附加": 357,
  "拥有": 355,
  "军团": 354,
  "循环": 354,
  "挑战": 352,
  "内容": 351,
  "结束": 351,
  "精致": 351,
  "日": 351,
  "向": 351,
  "调节": 350,
  "世界": 350,
  "但": 350,
  "经典": 348,
  "—": 346,
  "气质": 344,
  "战斗": 344,
  "对应": 343,
  "带": 343,
  "件": 341,
  "且": 341,
  "情况": 341,
  "--": 339,
  "兑换": 339,
  "各种": 339,
  "搭配": 339,
  "12": 339,
  "细节": 338,
  "他们": 337,
  "强化": 336,
  "超过": 336,
  "添加": 336,
  "不易": 336,
  "感": 335,
  "立体": 335,
  "头": 334,
  "分钟": 333,
  "质感": 333,
  "仅": 333,
  "物品": 331,
  "商城": 330,
  "装扮": 328,
  "学习": 328,
  "尺寸": 326,
  "之一": 326,
  "专属": 324,
  "普通": 324,
  "她": 323,
  "不可": 323,
  "恢复": 323,
  "现在": 322,
  "卡": 322,
  "百搭": 322,
  "你们": 322,
  "一次": 321,
  "元宝": 320,
  "500": 319,
  "每次": 319,
  "曜": 317,
  "关": 316,
  "当": 316,
  "大@@": 316,
  "知道": 316,
  "一样": 316,
  "长": 315,
  "正常": 315,
  "300": 314,
  "款": 313,
  "呢": 312,
  "由": 311,
  "号": 311,
  "这里": 311,
  "通关": 311,
  "女": 311,
  "失败": 311,
  "暗": 310,
  "重要": 309,
  "c43": 309,
  "一种": 308,
  "进阶": 307,
  "冷却": 307,
  "人体": 307,
  "鞋底": 306,
  "率": 306,
  "一件": 306,
  "佩戴": 305,
  "闪避": 305,
  "~": 304,
  "品牌": 303,
  "_": 301,
  "直接": 301,
  "看": 300,
  "这样": 300,
  "小@@": 298,
  "100%": 297,
  "全体": 297,
  "本次": 296,
  "简单": 295,
  "数量": 295,
  "不是": 295,
  "里": 294,
  "前往": 294,
  "式": 293,
  "则": 293,
  "获取": 293,
  "操作": 292,
  "丹": 292,
  "400": 292,
  "元": 291,
  "寻宝": 291,
  "释放": 290,
  "均": 288,
  "显示": 288,
  "脚": 287,
  "11": 285,
  "路线": 285,
  "每日": 285,
  "度": 285,
  "店铺": 284,
  "阶橙": 282,
  "更改": 282,
  "享受": 282,
  "工作": 281,
  "快速": 281,
  "箱": 281,
  "大量": 280,
  "确认": 278,
  "越高": 278,
  "按": 278,
  "集齐": 278,
  "!": 277,
  "不足": 277,
  "这些": 277,
  "比": 276,
  "实物": 276,
  "击败": 275,
  "订单": 275,
  "弹性": 275,
  "任选": 275,
  "护腿": 274,
  "触发": 274,
  "每天": 272,
  "天然": 272,
  "环保": 272,
  "码": 271,
  "怎么": 270,
  "增幅": 270,
  "服务": 270,
  "五金": 269,
  "必备": 268,
  "以及": 268,
  "蓝牙": 268,
  "线": 267,
  "黑暗": 266,
  "成为": 266,
  "背包": 266,
  "叠加": 266,
  "鼓舞": 265,
  "保持": 265,
  "制作": 265,
  "处理": 264,
  "因为": 264,
  "击杀": 264,
  "名": 263,
  "最高": 263,
  "日本": 263,
  "提交": 262,
  "打造": 261,
  "令": 261,
  "可用": 261,
  "命中": 261,
  "6%": 259,
  "黄金": 259,
  "40": 258,
  "参与": 258,
  "按摩": 257,
  "橡胶": 257,
  "°": 255,
  "要求": 255,
  "自": 254,
  "影响": 254,
  "测试": 254,
  "饰品": 253,
  "发送": 253,
  "自由": 253,
  "所以": 252,
  "帮派": 252,
  "显瘦": 252,
  "继续": 252,
  "删除": 252,
  "经过": 252,
  "身体": 251,
  "充电": 250,
  "无@@": 250,
  "魔": 249,
  "进口": 249,
  "标准": 248,
  "手感": 248,
  "走": 248,
  "腰带": 248,
  "累计": 248,
  "任意": 247,
  "移动": 247,
  "控制": 246,
  "每个": 246,
  "名称": 246,
  "为准": 246,
  "精选": 245,
  "行走": 245,
  "注意": 244,
  "防具": 244,
  "金币": 244,
  "条": 244,
  "应": 244,
  "男士": 243,
  "贴合": 243,
  "幸运": 243,
  "血量": 243,
  "强": 242,
  "还是": 242,
  "或者": 242,
  "先": 241,
  "倍": 241,
  "没": 239,
  "们": 238,
  "登录": 238,
  "纤维": 237,
  "章": 236,
  "点击": 236,
  "部分": 236,
  "神兽": 235,
  "之@@": 235,
  "修身": 234,
  "湖蓝": 234,
  "期间": 234,
  "总": 232,
  "一项": 232,
  "守卫": 232,
  "肩带": 232,
  "暴击率": 231,
  "拉链": 231,
  "巅峰": 231,
  "初级": 230,
  "版型": 230,
  "身材": 228,
  "个性": 227,
  "一星": 227,
  "[": 226,
  "用户": 226,
  "跨服": 225,
  "设备": 225,
  "个人": 224,
  "送": 224,
  "多次": 224,
  "产生": 223,
  "不要": 223,
  "8%": 223,
  "但是": 223,
  "出现": 223,
  "智能": 222,
  "全部": 222,
  "恭喜": 222,
  "亲肤": 221,
  "防": 221,
  "施法": 221,
  "像": 221,
  "600": 220,
  "子": 220,
  "修改": 220,
  "创建": 220,
  "蓝": 220,
  "女性": 219,
  "模式": 219,
  "4%": 219,
  "40%": 218,
  "保证": 218,
  "处": 218,
  "三": 218,
  "游戏": 217,
  "由于": 216,
  "绑定": 215,
  "抵抗": 215,
  "专业": 215,
  "奥义": 215,
  "二": 215,
  "极": 214,
  "时候": 214,
  "快": 213,
  "优先": 213,
  "若": 213,
  "合同": 213,
  "仙器": 213,
  "非常": 213,
  "]": 213,
  "环境": 212,
  "区域": 212,
  "钻": 211,
  "item": 211,
  "表": 211,
  "属于": 211,
  "战区": 211,
  "n2": 211,
  "黄": 210,
  "车": 210,
  "这么": 210,
  "真的": 210,
  "位置": 210,
  "中级": 209,
  "减免": 209,
  "多种": 209,
  "脚型": 208,
  "量": 208,
  "起来": 208,
  "曲线": 207,
  "包括": 207,
  "连接": 207,
  "正在": 207,
  "铭文": 206,
  "》": 205,
  "带来": 204,
  "压力": 204,
  "《": 204,
  "法师": 204,
  "位": 204,
  "线条": 203,
  "c31": 203,
  "棉麻": 203,
  "d": 203,
  "这种": 203,
  "防止": 203,
  "天@@": 203,
  "条件": 203,
  "那么": 202,
  "镇": 202,
  "耐用": 201,
  "野外": 201,
  "初始": 201,
  "一起": 200,
  "灵纹": 200,
  "按照": 200,
  "清晰": 200,
  "水晶": 199,
  "手": 198,
  "喜欢": 198,
  "普攻": 198,
  "传统": 198,
  "升星": 198,
  "360": 197,
  "特惠": 197,
  "事": 197,
  "支线": 197,
  "商店": 197,
  "变形": 196,
  "2021": 196,
  "二星": 195,
  "×": 195,
  "独特": 195,
  "染色": 194,
  "满级": 194,
  "天神": 194,
  "赤红": 194,
  "充值": 194,
  "中@@": 194,
  "组成": 193,
  "做工": 193,
  "裤": 193,
  "升至": 193,
  "boss": 192,
  "透气性": 192,
  "魔王": 192,
  "甲方": 192,
  "风格": 192,
  "书": 192,
  "2020": 191,
  "睡眠": 191,
  "管理": 190,
  "对比": 190,
  "用途": 190,
  "可@@": 190,
  "一击": 189,
  "url": 189,
  "内里": 189,
  "还有": 189,
  "提示": 189,
  "说明": 188,
  "美观": 188,
  "必须": 188,
  "心": 187,
  "支付": 187,
  "复古": 187,
  "宽松": 187,
  "2018": 186,
  "能量": 186,
  "格挡": 186,
  "皮革": 185,
  "NT": 185,
  "色": 185,
  "最低": 185,
  "空间": 185,
  "排名": 184,
  "追击": 184,
  "为了": 184,
  "棉": 183,
  "1400": 183,
  "部位": 183,
  "A": 183,
  "字": 183,
  "数": 183,
  "贴": 182,
  "绑元": 182,
  "C": 182,
  "扣": 182,
  "彰显": 182,
  "实用": 181,
  "韩版": 181,
  "150": 181,
  "☆": 181,
  "为什么": 181,
  "双": 181,
  "魔剑士": 181,
  "大家": 181,
  "特殊": 181,
  "2000": 181,
  "奇迹": 180,
  "检测": 180,
  "灵魂": 179,
  "它们": 178,
  "加": 178,
  "乙方": 178,
  "夏季": 178,
  "14": 178,
  "星宿": 178,
  "道": 178,
  "适用": 178,
  "爱": 178,
  "神": 177,
  "真实": 177,
  "看到": 177,
  "13": 177,
  "感觉": 177,
  "提醒": 177,
  "更好": 177,
  "页面": 177,
  "钻石": 177,
  "容易": 177,
  "守护": 177,
  "清洁": 176,
  "重新": 176,
  "力量": 176,
  "力": 176,
  "刷新": 176,
  "有@@": 175,
  "中国": 175,
  "350": 175,
  "图片": 175,
  "I": 175,
  "作为": 174,
  "底": 174,
  "手镯": 174,
  "五行": 174,
  "高@@": 174,
  "大底": 174,
  "精英": 174,
  "均匀": 174,
  "面": 173,
  "治疗": 173,
  "正确": 173,
  "过程": 172,
  "金": 172,
  "避免": 172,
  "成": 172,
  "相关": 172,
  "日常": 172,
  "具体": 172,
  "头层": 172,
  "满足": 172,
  "或升星": 171,
  "拍摄": 170,
  "耳机": 170,
  "表面": 169,
  "S": 169,
  "剪裁": 169,
  "作用": 169,
  "只有": 169,
  "外观": 168,
  "受": 168,
  "左右": 168,
  "n3": 168,
  "方法": 167,
  "一款": 167,
  "很多": 167,
  "应该": 167,
  "却": 167,
  "头像": 167,
  "国家": 167,
  "25%": 166,
  "之后": 166,
  "指定": 166,
  "归属于": 166,
  "解决": 166,
  "出来": 165,
  "原石": 165,
  "主要": 165,
  "良好": 165,
  "轻盈": 164,
  "吸收": 164,
  "买": 164,
  "身": 163,
  "法": 163,
  "人@@": 163,
  "详细信息": 163,
  "三@@": 163,
  "90": 162,
  "n4": 162,
  "能力": 162,
  "主人": 162,
  "00": 162,
  "才能": 161,
  "音乐": 161,
  "腿": 161,
  "改善": 161,
  "今天": 160,
  "帮助": 160,
  "搭": 160,
  "纹": 159,
  "器": 159,
  "大小": 159,
  "加入": 159,
  "地方": 159,
  "展现": 159,
  "脂肪": 159,
  "1.5%": 158,
  "宝宝": 158,
  "上@@": 158,
  "核心": 158,
  "连衣裙": 158,
  "邮件": 158,
  "大陆": 158,
  "类型": 157,
  "不过": 157,
  "起": 157,
  "填写": 157,
  "那个": 157,
  "水@@": 157,
  "造型": 157,
  "不用": 157,
  "阶段": 156,
  "件套": 156,
  "韧性": 156,
  "双脚": 156,
  "导致": 156,
  "T": 156,
  "适应": 156,
  "铜钱": 156,
  "约": 156,
  "女装": 155,
  "金额": 155,
  "机": 155,
  "符师塔": 155,
  "对方": 155,
  "传说": 155,
  "多@@": 154,
  "魂灵": 154,
  "名字": 154,
  "衣": 154,
  "死亡": 154,
  "其中": 154,
  "女人": 154,
  "通知": 154,
  "星级": 154,
  "金色": 154,
  "即": 154,
  "呼吸": 153,
  "12%": 153,
  "时效": 153,
  "套色": 153,
  "最多": 153,
  "印花": 153,
  "肌肉": 153,
  "配方": 153,
  "25": 153,
  "恶魔": 152,
  "1000000": 152,
  "多功能": 152,
  "选": 152,
  "固定": 152,
  "样式": 152,
  "图": 152,
  "收集": 152,
  "剑士": 151,
  "真": 151,
  "B@@": 151,
  "皮": 151,
  "推荐": 151,
  "准备": 151,
  "发@@": 151,
  "金属": 151,
  "下@@": 150,
  "3000": 150,
  "80": 150,
  "觉醒": 150,
  "低": 150,
  "达": 150,
  "3D": 150,
  "上衣": 150,
  "包含": 149,
  "科技": 149,
  "需求": 149,
  "只能": 149,
  "不仅": 149,
  "今日": 149,
  "米": 149,
  "项目": 149,
  "弹力": 148,
  "身上": 148,
  "分": 148,
  "纹理": 148,
  "鞋面": 148,
  "同类": 148,
  "易": 148,
  "规定": 148,
  "队伍": 148,
  "结算": 147,
  "8@@": 147,
  "S@@": 147,
  "一般": 147,
  "温度": 147,
  "装饰": 146,
  "最后": 146,
  "安装": 146,
  "错误": 146,
  "T恤": 146,
  "百分比": 145,
  "大气": 145,
  "抗暴": 145,
  "色块": 145,
  "兽": 145,
  "口袋": 145,
  "切换": 145,
  "确定": 145,
  "地址": 144,
  "限制": 144,
  "注": 144,
  "发": 144,
  "变": 144,
  "120": 144,
  "开": 144,
  "风@@": 144,
  "腰部": 144,
  "边": 144,
  "圣羽": 144,
  "转": 144,
  "结构": 144,
  "明": 144,
  "特别": 143,
  "价格": 143,
  "牢固": 143,
  "行": 143,
  "复活": 143,
  "_#": 143,
  "洗涤": 143,
  "商家": 143,
  "气泡": 143,
  "背饰": 143,
  "后排": 143,
  "主手": 143,
  "瞬间": 143,
  "...": 143,
  "文件": 143,
  "内部": 143,
  "交易": 143,
  "感受": 143,
  "血": 143,
  "比例": 143,
  "听": 142,
  "新@@": 142,
  "出@@": 142,
  "发生": 142,
  "协议": 142,
  "注册": 142,
  "实际": 142,
  "手提": 142,
  "找到": 142,
  "密码": 141,
  "电池": 141,
  "质量": 141,
  "平时": 141,
  "只是": 141,
  "联系": 141,
  "燃烧": 140,
  "路": 140,
  "多余": 140,
  "光泽": 140,
  "站": 140,
  "清爽": 140,
  "气": 140,
  "结合": 140,
  "?": 139,
  "监测": 139,
  "啦": 139,
  "叫": 139,
  "增高": 139,
  "1500": 139,
  "裤子": 139,
  "款式": 139,
  "体": 139,
  "结实": 139,
  "报告": 139,
  "配置": 138,
  "原因": 138,
  "账号": 138,
  "呵护": 138,
  "大人": 137,
  "经": 137,
  "花": 137,
  "不再": 137,
  "申请": 137,
  "外": 137,
  "T@@": 137,
  "180": 137,
  "1200": 137,
  "本合同": 137,
  "按钮": 136,
  "一直": 136,
  "退出": 136,
  "城市": 136,
  "精湛": 136,
  "极品": 136,
  "地@@": 136,
  "潮": 135,
  "灯": 135,
  "7%": 135,
  "视频": 135,
  "担心": 135,
  "衫": 135,
  "四": 135,
  "瘦": 135,
  "袋": 135,
  "仙盟": 135,
  "出行": 134,
  "生效": 134,
  "应用": 134,
  "真皮": 134,
  "粉色": 134,
  "平台": 134,
  "刺激": 134,
  "更新": 134,
  "护盾": 133,
  "区": 133,
  "超": 133,
  "日期": 133,
  "CM": 133,
  "收纳": 133,
  "距离": 133,
  "16": 133,
  "门": 133,
  "轻便": 132,
  "大容量": 132,
  "28": 132,
  "男人": 131,
  "花费": 131,
  "45": 131,
  "V": 131,
  "妆容": 131,
  "场景": 131,
  "金@@": 131,
  "一张": 131,
  "长度": 131,
  "挂机": 130,
  "之力": 130,
  "脚背": 130,
  "妈妈": 130,
  "c47": 130,
  "太": 130,
  "定制": 130,
  "塑身": 130,
  "长@@": 130,
  "畏": 130,
  "清洗": 129,
  "消失": 129,
  "制造": 129,
  "颗": 129,
  "3CM": 129,
  "2@@": 129,
  "一条": 129,
  "而且": 129,
  "5@@": 129,
  "播放": 129,
  "企业": 128,
  "真正": 128,
  "秘境": 128,
  "毛孔": 128,
  "完": 128,
  "化": 128,
  "\"": 127,
  "夫": 127,
  "别": 127,
  "合理": 127,
  "住": 127,
  "符合": 127,
  "A@@": 127,
  "美丽": 127,
  "狼": 127,
  "见": 126,
  "这是": 126,
  "阶习": 126,
  "装": 126,
  "女神": 126,
  "了解": 126,
  "人数": 126,
  "之间": 126,
  "空气": 126,
  "实现": 126,
  "腰": 126,
  "重": 125,
  "允许": 125,
  "我@@": 125,
  "冰封": 125,
  "加厚": 125,
  "拒绝": 125,
  "十二": 125,
  "两个": 124,
  "色彩": 124,
  "21": 124,
  "黑色": 124,
  "短袖": 124,
  "调整": 124,
  "帮": 124,
  "开@@": 124,
  "参加": 124,
  "排汗": 124,
  "邮箱": 124,
  "强力": 123,
  "顾客": 123,
  "神秘": 123,
  "仙符": 123,
  "口": 123,
  "美": 123,
  "来自": 123,
  "圈": 123,
  "n@@": 123,
  "男": 123,
  "9@@": 123,
  "简洁": 123,
  "一切": 122,
  "祝福": 122,
  "2400": 122,
  "3@@": 122,
  "进化": 122,
  "立增": 122,
  "标记": 122,
  "损失": 122,
  "2017": 122,
  "粉品": 121,
  "家": 121,
  "打": 121,
  "结果": 121,
  "细菌": 121,
  "赛季": 121,
  "品": 121,
  "选用": 121,
  "段": 121,
  "怪": 121,
  "主": 120,
  "强大": 120,
  "一双": 120,
  "战": 120,
  "谁": 120,
  "减速": 120,
  "蕾丝": 120,
  "掉": 120,
  "找": 120,
  "完全": 119,
  "大方": 119,
  "神@@": 119,
  "18": 119,
  "双@@": 119,
  "间": 119,
  "性感": 119,
  "较": 119,
  "II": 119,
  "场": 119,
  "美@@": 118,
  "超强": 118,
  "终极": 118,
  "药物": 118,
  "取消": 118,
  "性能": 118,
  "超@@": 118,
  "动": 118,
  "缝线": 118,
  "明黄": 118,
  "PVP": 117,
  "入": 117,
  "红包": 117,
  "好@@": 117,
  "吸湿": 117,
  "成员": 117,
  "一下": 117,
  "D@@": 117,
  "非": 117,
  "虽然": 117,
  "高品质": 117,
  "希望": 117,
  "贴心": 117,
  "B": 117,
  "话": 116,
  "绝技": 116,
  "如@@": 116,
  "单体": 116,
  "翻译": 116,
  "不断": 116,
  "穿透": 116,
  "副": 116,
  "及时": 116,
  "发现": 116,
  "立即": 116,
  "生产": 115,
  "全": 115,
  "会心": 115,
  "修饰": 115,
  "镂空": 115,
  "执行": 115,
  "剩余": 115,
  "之前": 115,
  "无需": 114,
  "免费": 114,
  "拉@@": 114,
  "辅助": 114,
  "单肩": 114,
  "持久": 114,
  "裁剪": 114,
  "岁": 114,
  "12@@": 114,
  "短信": 114,
  "声音": 114,
  "放": 114,
  "上传": 114,
  "运动鞋": 114,
  "净化": 114,
  "全身": 114,
  "觉得": 113,
  "好礼": 113,
  "布": 113,
  "种": 113,
  "族": 113,
  "红": 113,
  "好友": 113,
  "随意": 113,
  "电": 113,
  "心@@": 113,
  "两@@": 113,
  "视觉": 113,
  "魔法师": 113,
  "销售": 113,
  "整体": 112,
  "死": 112,
  "C@@": 112,
  "告别": 112,
  "消费": 112,
  "魔物": 112,
  "便捷": 112,
  "一些": 112,
  "万@@": 112,
  "户外": 112,
  "审批": 112,
  "二@@": 112,
  "优惠": 112,
  "系列": 112,
  "收到": 112,
  "成分": 112,
  "外@@": 112,
  "t": 112,
  "手@@": 112,
  "放心": 111,
  "进": 111,
  "链接": 111,
  "全@@": 111,
  "防@@": 111,
  "450": 111,
  "市": 111,
  "内@@": 111,
  "全新": 111,
  "如此": 111,
  "形成": 110,
  "加@@": 110,
  "花@@": 110,
  "东西": 110,
  "双方": 110,
  "战场": 110,
  "促进": 110,
  "品味": 110,
  "皮鞋": 110,
  "采集": 109,
  "蕴": 109,
  "共": 109,
  "神族": 109,
  "前方": 109,
  "烦恼": 109,
  "玩法": 109,
  "弓手": 109,
  "降临": 109,
  "同意": 108,
  "迷人": 108,
  "斩": 108,
  "生@@": 108,
  "想要": 108,
  "清新": 108,
  "接触": 108,
  "那些": 108,
  "红@@": 108,
  "宽": 108,
  "杀": 108,
  "各": 108,
  "并且": 108,
  "哪里": 108,
  "九宫": 108,
  "殿": 108,
  "商务": 108,
  "会员": 108,
  "驱散": 108,
  "页": 107,
  "丰富": 107,
  "发放": 107,
  "男装": 107,
  "编织": 107,
  "关闭": 107,
  "油": 107,
  "疲劳": 107,
  "美国": 107,
  "公司": 107,
  "部": 107,
  "方": 107,
  "场合": 107,
  "种族": 107,
  "衬衫": 107,
  "看看": 106,
  "十方": 106,
  "气息": 106,
  "褪色": 106,
  "人员": 106,
  "主线": 105,
  "套": 105,
  "干净": 105,
  "触感": 105,
  "cm": 105,
  "连续": 105,
  "而成": 104,
  "账户": 104,
  "轮": 104,
  "自@@": 104,
  "旋转": 104,
  "吃": 104,
  "手表": 104,
  "下单": 104,
  "真是": 104,
  "卡特": 104,
  "像框": 104,
  "可爱": 103,
  "导入": 103,
  "重@@": 103,
  "黑@@": 103,
  "高档": 103,
  "帮战内": 103,
  "明星": 103,
  "植物": 103,
  "宝珠": 103,
  "消息": 103,
  "物": 103,
  "请以": 103,
  "VIP": 103,
  "高于": 103,
  "追加": 103,
  "分类": 102,
  "仅供参考": 102,
  "护符": 102,
  "底部": 102,
  "80%": 102,
  "35": 102,
  "洗炼": 102,
  "钱包": 102,
  "组合": 102,
  "战士": 102,
  "前后": 102,
  "硅胶": 102,
  "容量": 102,
  "贴身": 102,
  "帝国": 102,
  "坚持": 102,
  "单": 101,
  "迅速": 101,
  "内裤": 101,
  "抗菌": 101,
  "张": 101,
  "聊天": 101,
  "取": 101,
  "参考": 101,
  "拿": 101,
  "检查": 101,
  "阶红": 101,
  "此款": 101,
  "之魂": 101,
  "标识": 101,
  "运营": 101,
  "变@@": 100,
  "250": 100,
  "类": 100,
  "权利": 100,
  "领": 100,
  "流血": 100,
  "mm": 100,
  "得到": 100,
  "MM": 100,
  "下载": 100,
  "所述": 100,
  "启动": 100,
  "连": 100,
  "n5": 100,
  "只要": 100,
  "头发": 99,
  "客服": 99,
  "被动": 99,
  "保存": 99,
  "纯棉": 99,
  "资源": 99,
  "走线": 99,
  "顺滑": 99,
  "出生": 99,
  "拼接": 99,
  "收益": 99,
  "首领": 99,
  "比较": 99,
  "内衣": 99,
  "干": 99,
  "开服": 99,
  "规则": 99,
  "泰国": 99,
  "付款": 99,
  "质地": 99,
  "接受": 98,
  "包@@": 98,
  "毛": 98,
  "P@@": 98,
  "白@@": 98,
  "电脑": 98,
  "回": 98,
  "细致": 98,
  "高度": 98,
  "pid": 98,
  "减伤": 98,
  "眼睛": 98,
  "E@@": 98,
  "孩子": 98,
  "决定": 98,
  "全球": 98,
  "甲": 98,
  "零星": 98,
  "单@@": 97,
  "追求": 97,
  "折扣": 97,
  "18%": 97,
  "无痕": 97,
  "神通": 97,
  "部队": 97,
  "市场": 97,
  "承担": 97,
  "裙": 97,
  "前@@": 97,
  "垫": 97,
  "稳定": 96,
  "光滑": 96,
  "目前": 96,
  "放置": 96,
  "板": 96,
  "特点": 96,
  "魔族": 96,
  "附带": 96,
  "十足": 96,
  "60%": 96,
  "猪头": 96,
  "鲁": 96,
  "物防": 96,
  "编辑": 96,
  "变得": 96,
  "跑": 95,
  "相框": 95,
  "玛雅": 95,
  "台": 95,
  "黑": 95,
  "套餐": 95,
  "喊话": 95,
  "方向": 95,
  "防晒": 95,
  "随时": 95,
  "耐穿": 95,
  "双倍": 95,
  "到底": 95,
  "对于": 95,
  "携带": 95,
  "这@@": 95,
  "明显": 95,
  "大幅": 95,
  "自定义": 95,
  "地区": 94,
  "自信": 94,
  "真@@": 94,
  "风险": 94,
  "g": 94,
  "人们": 94,
  "变化": 94,
  "妖策": 94,
  "商会": 94,
  "现象": 94,
  "轻@@": 94,
  "然后": 94,
  "的话": 94,
  "有型": 94,
  "白": 94,
  "至少": 93,
  "衣物": 93,
  "&": 93,
  "法防": 93,
  "学生": 93,
  "光@@": 93,
  "匹配": 93,
  "关注": 93,
  "片": 93,
  "两件": 93,
  "代表": 93,
  "可是": 93,
  "保湿": 92,
  "流畅": 92,
  "进度": 92,
  "相同": 92,
  "高端": 92,
  "四@@": 92,
  "20@@": 92,
  "赠送": 92,
  "呈现": 92,
  "24%": 92,
  "一点": 92,
  "荧石": 92,
  "打@@": 92,
  "不良": 92,
  "邀请": 92,
  "如何": 92,
  "特权": 92,
  "塑造": 91,
  "朋友": 91,
  "腿部": 91,
  "9%": 91,
  "水洗": 91,
  "放入": 91,
  "十一": 91,
  "权限": 91,
  "魂": 91,
  "更换": 91,
  "3cm": 91,
  "特": 91,
  "周围": 91,
  "行为": 91,
  "灵@@": 91,
  "失落": 91,
  "包裹": 91,
  "I@@": 91,
  "天赋": 91,
  "背": 91,
  "灵石": 91,
  "整个": 91,
  "老@@": 91,
  "精细": 91,
  "员": 90,
  "相信": 90,
  "组队": 90,
  "一把": 90,
  "价值": 90,
  "海@@": 90,
  "大码": 90,
  "科学": 90,
  "中心": 90,
  "干爽": 90,
  "无论": 90,
  "L@@": 90,
  "鞋垫": 90,
  "原@@": 90,
  "缝制": 90,
  "购物": 89,
  "23": 89,
  "星辰": 89,
  "污染": 89,
  "一键": 89,
  "奢华": 89,
  "6@@": 89,
  "伤": 89,
  "发展": 88,
  "牙齿": 88,
  "排行": 88,
  "温馨": 88,
  "重置": 88,
  "至尊": 88,
  "费用": 88,
  "料": 88,
  "研究": 88,
  "0@@": 88,
  "认证": 88,
  "服": 88,
  "上阵": 88,
  "严格": 88,
  "物流": 88,
  "背部": 88,
  "符印": 88,
  "雇佣": 88,
  "松紧": 88,
  "互动": 88,
  "角": 88,
  "接取": 88,
  "大奖": 87,
  "增强": 87,
  "内置": 87,
  "数@@": 87,
  "皆": 87,
  "青春": 87,
  "久": 87,
  "正@@": 87,
  "为@@": 87,
  "珍稀": 87,
  "长时间": 87,
  "下摆": 87,
  "相@@": 87,
  "一天": 87,
  "档": 87,
  "75": 87,
  "习惯": 87,
  "健身": 87,
  "水分": 87,
  "臀": 86,
  "n6": 86,
  "平@@": 86,
  "洗": 86,
  "黄曜石": 86,
  "VIPBOSS": 86,
  "人类": 86,
  "电@@": 86,
  "确保": 86,
  "之树": 86,
  "便": 86,
  "袖口": 86,
  "生": 86,
  "轻薄": 86,
  "八卦": 86,
  "森绿曜石": 86,
  "火@@": 86,
  "突破": 86,
  "收腹": 86,
  "计算": 86,
  "时刻": 85,
  "超大": 85,
  "e@@": 85,
  "以@@": 85,
  "每秒": 85,
  "Aquiver": 85,
  "卡@@": 85,
  "缓解": 85,
  "再次": 85,
  "附件": 85,
  "等待": 85,
  "高清": 85,
  "绿色": 85,
  "属": 85,
  "平铺": 85,
  "异常": 84,
  "一份": 84,
  "c4": 84,
  "F@@": 84,
  "放@@": 84,
  "剑": 84,
  "有关": 84,
  "一步": 84,
  "团队": 84,
  "甚至": 84,
  "理由": 84,
  "即将": 84,
  "2.5%": 84,
  "爆烈": 84,
  "神器": 84,
  "之塔": 84,
  "负责": 83,
  "利姆鲁": 83,
  "衣装": 83,
  "凸显": 83,
  "为空": 83,
  "70": 83,
  "男性": 83,
  "似乎": 83,
  "尼龙": 83,
  "105": 83,
  "网站": 83,
  "加强": 83,
  "紧致": 83,
  "皮质": 83,
  "卷轴": 83,
  "离线": 83,
  "赘肉": 83,
  "旅行": 83,
  "详情": 83,
  "上下": 83,
  "除": 83,
  "哪": 83,
  "车线": 83,
  "提": 82,
  "女士": 82,
  "队友": 82,
  "最终": 82,
  "隐藏": 82,
  "低音": 82,
  "电量": 82,
  "封印": 82,
  "保障": 82,
  "五@@": 82,
  "点@@": 82,
  "疼痛": 82,
  "版": 82,
  "热": 82,
  "K@@": 82,
  "体现": 82,
  "运费": 82,
  "正": 82,
  "免疫": 82,
  "我会": 82,
  "白色": 82,
  "10@@": 82,
  "关于": 82,
  "减": 82,
  "十三": 81,
  "组织": 81,
  "清@@": 81,
  "暗夜": 81,
  "女@@": 81,
  "充满": 81,
  "减震": 81,
  "凉鞋": 81,
  "直邮": 81,
  "默认": 81,
  "法律": 81,
  "发出": 81,
  "颈部": 81,
  "重量": 81,
  "扫荡": 81,
  "束缚": 81,
  "加深": 81,
  "脸": 81,
  "生物": 81,
  "暂无": 81,
  "组": 81,
  "消费者": 81,
  "反弹": 80,
  "烛龙": 80,
  "模板": 80,
  "全方位": 80,
  "14%": 80,
  "森林": 80,
  "艺术": 80,
  "精美": 80,
  "协会": 80,
  "加固": 80,
  "装置": 80,
  "最@@": 80,
  "粉": 80,
  "端": 80,
  "刺绣": 80,
  "无线": 80,
  "形": 80,
  "温和": 80,
  "探索": 80,
  "转换": 80,
  "解除": 80,
  "满": 80,
  "引起": 80,
  "期": 80,
  "服务器": 80,
  "M@@": 80,
  "第三方": 80,
  "7@@": 80,
  "训练": 80,
  "体@@": 79,
  "怒海": 79,
  "膜": 79,
  "多个": 79,
  "排行榜": 79,
  "请求": 79,
  "主@@": 79,
  "反馈": 79,
  "工程学": 79,
  "机会": 79,
  "面膜": 79,
  "耳环": 79,
  "长期": 79,
  "阵": 79,
  "同@@": 79,
  "80000": 79,
  "牛仔": 79,
  "清凉": 79,
  "霜": 79,
  "难度": 79,
  "灵": 79,
  "1@@": 79,
  "镜面": 79,
  "事情": 79,
  "USB": 79,
  "轻": 79,
  "掉色": 79,
  "特性": 78,
  "飓风": 78,
  "更显": 78,
  "机械": 78,
  "增益": 78,
  "不锈钢": 78,
  "德国": 78,
  "列表": 78,
  "3400": 78,
  "踩": 78,
  "强度": 78,
  "七星": 78,
  "微@@": 78,
  "H@@": 78,
  "参数": 78,
  "R@@": 78,
  "遗迹": 78,
  "钥匙": 78,
  "Facebook": 78,
  "网": 78,
  "霸体": 78,
  "竞技场": 78,
  "标签": 78,
  "亚麻": 78,
  "十五": 78,
  "软": 78,
  "六@@": 78,
  "资料": 78,
  "改变": 78,
  "绝对": 78,
  "网络": 78,
  "神奇": 78,
  "a@@": 78,
  "峡谷": 78,
  "回来": 77,
  "符文": 77,
  "地面": 77,
  "650000": 77,
  "地截": 77,
  "一组": 77,
  "史诗": 77,
  "细@@": 77,
  "海": 77,
  "因此": 77,
  "主动": 77,
  "19@@": 77,
  "儿童": 77,
  "术": 77,
  "网店": 77,
  "富有": 77,
  "显": 77,
  "22%": 77,
  "每@@": 77,
  "增伤": 77,
  "玩": 77,
  "随心": 77,
  "而@@": 77,
  "第二件": 77,
  "舒适度": 77,
  "荒芜": 77,
  "御风": 77,
  "同": 77,
  "---": 77,
  "寻找": 77,
  "平衡": 77,
  "已达": 77,
  "8000": 77,
  "亮": 77,
  "角度": 77,
  "落": 77,
  "从而": 77,
  "流火": 77,
  "时@@": 77,
  "更@@": 76,
  "券": 76,
  "5000": 76,
  "亲": 76,
  "国际": 76,
  "后@@": 76,
  "起球": 76,
  "长袖": 76,
  "浪漫": 76,
  "保留": 76,
  "描述": 76,
  "礼物": 76,
  "人工": 76,
  "分析": 76,
  "制": 76,
  "夏天": 76,
  "找回": 76,
  "管": 76,
  "拉": 76,
  "细胞": 76,
  "不到": 76,
  "开关": 76,
  "太@@": 76,
  "钢圈": 76,
  "16%": 76,
  "电商": 76,
  "成长": 76,
  "头饰": 76,
  "沉默": 76,
  "指": 75,
  "玻璃": 75,
  "责任": 75,
  "n7": 75,
  "球": 75,
  "六": 75,
  "搜索": 75,
  "动作": 75,
  "眼@@": 75,
  "调查": 75,
  "离开": 75,
  "16@@": 75,
  "℃": 75,
  "吸汗": 75,
  "波": 75,
  "卖家": 75,
  "用来": 75,
  "魔@@": 75,
  "阅读": 75,
  "最好": 75,
  "车辆": 75,
  "远古": 75,
  "合适": 75,
  "千@@": 75,
  "4@@": 75,
  "LOGO": 75,
  "c": 75,
  "身@@": 75,
  "买家": 75,
  "利风": 75,
  "240": 74,
  "最新": 74,
  "剂": 74,
  "表带": 74,
  "V@@": 74,
  "头@@": 74,
  "丝": 74,
  "一层": 74,
  "中排": 74,
  "500000": 74,
  "灵宠": 74,
  "不失": 74,
  "支撑": 74,
  "对话": 74,
  "色差": 74,
  "那@@": 74,
  "分@@": 74,
  "胸部": 74,
  "功效": 74,
  "特@@": 74,
  "专用": 74,
  "震地": 74,
  "配合": 74,
  "设计师": 74,
  "评论": 74,
  "陷入": 74,
  "斜": 74,
  "查收": 74,
  "语言": 74,
  "能@@": 74,
  "冰丝": 74,
  "个人信息": 74,
  "战队": 74,
  "M": 73,
  "我要": 73,
  "实力": 73,
  "开放": 73,
  "停止": 73,
  "32": 73,
  "待": 73,
  "替换": 73,
  "占": 73,
  "行动": 73,
  "英伦": 73,
  "21%": 73,
  "验证": 73,
  "打底": 73,
  "贡献": 73,
  "处于": 73,
  "百变": 73,
  "135": 73,
  "成就": 73,
  "头部": 73,
  "键": 73,
  "专利": 73,
  "垃圾焚烧": 73,
  "妖": 73,
  "龙@@": 73,
  "产出": 73,
  "流@@": 73,
  "羽": 73,
  "日@@": 73,
  "十四": 72,
  "E": 72,
  "反击": 72,
  "紫外线": 72,
  "王": 72,
  "书籍": 72,
  "阳光": 72,
  "对@@": 72,
  "用@@": 72,
  "支架": 72,
  "星@@": 72,
  "塔": 72,
  "160": 72,
  "努力": 72,
  "身份": 72,
  "年轻": 72,
  "此后": 72,
  "会@@": 72,
  "电源": 72,
  "欧美": 72,
  "异味": 72,
  "热@@": 72,
  "变成": 72,
  "涂抹": 72,
  "儿": 72,
  "特征": 72,
  "平整": 72,
  "古@@": 72,
  "脸部": 72,
  "舒服": 72,
  "作品": 72,
  "预约": 72,
  "带@@": 72,
  "榜": 71,
  "干燥": 71,
  "干@@": 71,
  "即使": 71,
  "圣@@": 71,
  "III": 71,
  "本@@": 71,
  "差异": 71,
  "压": 71,
  "危险": 71,
  "175": 71,
  "愉快": 71,
  "无影": 71,
  "人性化": 71,
  "分享": 71,
  "c@@": 71,
  "将会": 71,
  "雪纺": 71,
  "鬼": 71,
  "1.5": 71,
  "i@@": 71,
  "美女": 71,
  "每周": 71,
  "生长": 71,
  "收腰": 71,
  "眩晕": 71,
  "随身": 71,
  "十@@": 71,
  "夺宝": 71,
  "受力": 70,
  "轻轻": 70,
  "浸泡": 70,
  "原理": 70,
  "血@@": 70,
  "隐形": 70,
  "重试": 70,
  "17": 70,
  "裂变": 70,
  "环": 70,
  "手上": 70,
  "渠道": 70,
  "傀儡": 70,
  "有人": 70,
  "运行": 70,
  "雪": 70,
  "永远": 70,
  "鞋头": 70,
  "品阶": 70,
  "装@@": 70,
  "光明": 69,
  "皮料": 69,
  "体型": 69,
  "拉伸": 69,
  "直播": 69,
  "手臂": 69,
  "s@@": 69,
  "利用": 69,
  "就要": 69,
  "全面": 69,
  "超级": 69,
  "%+": 69,
  "体重": 69,
  "成@@": 69,
  "Lv.2": 69,
  "告诉": 69,
  "几@@": 69,
  "n1": 69,
  "精@@": 69,
  "锻炼": 69,
  "日耀": 69,
  "出口": 69,
  "进@@": 69,
  "魔晶": 69,
  "闷热": 69,
  "仙阵": 69,
  "以后": 69,
  "宝藏": 69,
  "n9": 69,
  "气@@": 69,
  "考虑": 69,
  "Lv.3": 68,
  "遇到": 68,
  "第一": 68,
  "影迹": 68,
  "纯白": 68,
  "问": 68,
  "斤": 68,
  "含": 68,
  "城": 68,
  "纯手工": 68,
  "D": 68,
  "平": 68,
  "15@@": 68,
  "果实": 68,
  "基本": 68,
  "36": 68,
  "做好": 68,
  "纹路": 68,
  "c42": 68,
  "震动": 68,
  "完整": 68,
  "杀怪": 68,
  "相对": 68,
  "返还": 68,
  "挡": 68,
  "杯": 68,
  "直@@": 68,
  "巡防": 68,
  "立刻": 67,
  "站点": 67,
  "总@@": 67,
  "男女": 67,
  "试炼": 67,
  "腹部": 67,
  "业务": 67,
  "机芯": 67,
  "创新": 67,
  "色泽": 67,
  "Lv.9": 67,
  "未来": 67,
  "休闲鞋": 67,
  "竞技": 67,
  "足部": 67,
  "700": 67,
  "孔": 67,
  "局": 67,
  "R": 67,
  "其实": 67,
  "面@@": 67,
  "认为": 67,
  "过@@": 67,
  "不够": 67,
  "差": 67,
  "表示": 67,
  "名@@": 67,
  "35%": 67,
  "洗@@": 67,
  "稀有": 67,
  "大于": 67,
  "百@@": 67,
  "塑形": 67,
  "节点": 67,
  "修复": 66,
  "低@@": 66,
  "W": 66,
  "针对": 66,
  "文胸": 66,
  "严重": 66,
  "版本": 66,
  "同样": 66,
  "打磨": 66,
  "稍后": 66,
  "主题": 66,
  "包装": 66,
  "此次": 66,
  "Lv.10": 66,
  "收@@": 66,
  "越来越": 66,
  "电话": 66,
  "19": 66,
  "舒缓": 66,
  "1800": 66,
  "透明": 66,
  "家伙": 66,
  "超值": 66,
  "步": 65,
  "侧": 65,
  "女包": 65,
  "拍": 65,
  "纽扣": 65,
  "17@@": 65,
  "鲜花": 65,
  "忽视": 65,
  "Lv.4": 65,
  "手动": 65,
  "机构": 65,
  "n8": 65,
  "肌": 65,
  "鞋身": 65,
  "转@@": 65,
  "美白": 65,
  "翎羽": 65,
  "合金": 65,
  "记得": 65,
  "屏幕": 65,
  "加上": 65,
  "L": 65,
  "比@@": 65,
  "时空": 65,
  "紧密": 65,
  "定": 65,
  "六合": 65,
  "标题": 65,
  "针": 65,
  "落水": 65,
  "土": 65,
  "如下": 65,
  "文字": 65,
  "记忆": 65,
  "IPAD": 65,
  "授权": 65,
  "途径": 65,
  "回@@": 65,
  "拍照": 65,
  "作": 65,
  "无限": 64,
  "有点": 64,
  "有限公司": 64,
  "臀部": 64,
  "小心": 64,
  "看@@": 64,
  "合@@": 64,
  "肩部": 64,
  "不得": 64,
  "柔韧": 64,
  "精炼": 64,
  "双重": 64,
  "锻造": 64,
  "i": 64,
  "地图": 64,
  "98": 64,
  "人群": 64,
  "灯光": 64,
  "香": 64,
  "摩擦": 64,
  "随时随地": 64,
  "骨": 64,
  "暂时": 64,
  "接口": 64,
  "大荒": 64,
  "护甲": 64,
  "流": 64,
  "圆领": 64,
  "投资": 64,
  "倒": 64,
  "Lv.8": 64,
  "祝": 64,
  "心锁": 64,
  "推送": 64,
  "骑士": 64,
  "群": 64,
  "优势": 64,
  "手环": 64,
  "老": 64,
  "过去": 64,
  "成型": 64,
  "增长": 63,
  "动@@": 63,
  "电镀": 63,
  "入侵": 63,
  "痛": 63,
  "丰厚": 63,
  "秘密": 63,
  "没@@": 63,
  "脚@@": 63,
  "70%": 63,
  "元魂": 63,
  "深层": 63,
  "邪魔": 63,
  "存活": 63,
  "正品": 63,
  "境": 63,
  "勇士": 63,
  "作@@": 63,
  "下降": 63,
  "抗": 63,
  "精心": 63,
  "750": 63,
  "Lv.7": 63,
  "禁止": 63,
  "数字": 63,
  "有些": 63,
  "巫师": 63,
  "仍": 63,
  "八@@": 63,
  "带有": 63,
  "文艺": 63,
  "民族": 63,
  "关系": 63,
  "访问": 62,
  "女鞋": 62,
  "不管": 62,
  "纯色": 62,
  "布料": 62,
  "活力": 62,
  "整齐": 62,
  "嗯": 62,
  "麻烦": 62,
  "库存": 62,
  "独立": 62,
  "耐": 62,
  "好好": 62,
  "Lv.5": 62,
  "n12": 62,
  "流行": 62,
  "五官": 62,
  "总是": 62,
  "厘米": 62,
  "服装": 62,
  "靠": 62,
  "计划": 62,
  "美容": 62,
  "柔和": 62,
  "13@@": 62,
  "瘦身": 62,
  "来@@": 62,
  "森绿": 62,
  "建立": 62,
  "引导": 62,
  "一体": 62,
  "玄": 62,
  "炼制": 62,
  "所@@": 62,
  "汽车": 62,
  "龙": 62,
  "费": 61,
  "输出": 61,
  "音质": 61,
  "修护": 61,
  "牛仔裤": 61,
  "N@@": 61,
  "本款": 61,
  "转职": 61,
  "聚拢": 61,
  "夹": 61,
  "盒": 61,
  "配": 61,
  "好像": 61,
  "n11": 61,
  "印": 61,
  "18@@": 61,
  "限购": 61,
  "学": 61,
  "表现": 61,
  "卷": 61,
  "腕表": 61,
  "透@@": 61,
  "迷宫": 61,
  "零": 61,
  "起到": 61,
  "年@@": 61,
  "五": 61,
  "活性": 61,
  "发货": 61,
  "尽显": 61,
  "迷你": 61,
  "堕": 61,
  "马@@": 61,
  "从@@": 61,
  "理念": 61,
  "三阶": 61,
  "提@@": 61,
  "自如": 61,
  "U@@": 61,
  "乱斗内": 61,
  "晕眩": 60,
  "妖@@": 60,
  "PU": 60,
  "显示器": 60,
  "退货": 60,
  "放大": 60,
  "破": 60,
  "措施": 60,
  "原价": 60,
  "签": 60,
  "空": 60,
  "手链": 60,
  "油@@": 60,
  "统计": 60,
  "在场": 60,
  "创意": 60,
  "到达": 60,
  "鞋@@": 60,
  "废墟": 60,
  "盖": 60,
  "t@@": 60,
  "LED": 60,
  "战@@": 60,
  "工具": 60,
  "混沌": 60,
  "别@@": 60,
  "智慧": 60,
  "佳": 60,
  "入@@": 60,
  "高腰": 60,
  "帆布": 60,
  "注入": 60,
  "Lv.12": 60,
  "相应": 60,
  "坦克": 60,
  "无敌": 60,
  "深@@": 60,
  "预@@": 60,
  "发布": 60,
  "块": 60,
  "重复": 60,
  "领域": 60,
  "缝隙": 59,
  "压@@": 59,
  "冰@@": 59,
  "护@@": 59,
  "75%": 59,
  "精准": 59,
  "合": 59,
  "走路": 59,
  "疾病": 59,
  "O": 59,
  "G@@": 59,
  "证明": 59,
  "分别": 59,
  "仪": 59,
  "门@@": 59,
  "改造": 59,
  "物@@": 59,
  "主播": 59,
  "210": 59,
  "六阶": 59,
  "防护": 59,
  "失效": 59,
  "2CM": 59,
  "14@@": 59,
  "上述": 59,
  "领口": 59,
  "定@@": 59,
  "堕落": 59,
  "抗@@": 59,
  "过敏": 59,
  "受@@": 59,
  "意志": 59,
  "纤细": 59,
  "覆盖": 59,
  "听到": 59,
  "雨": 59,
  "少": 59,
  "光线": 59,
  "30@@": 59,
  "审核": 59,
  "领主": 59,
  "关联": 59,
  "高效": 59,
  "无视": 59,
  "ABS": 59,
  "坐": 59,
  "出门": 59,
  "里面": 59,
  "耐@@": 58,
  "0.5%": 58,
  "沙漠": 58,
  "困难": 58,
  "到期": 58,
  "既": 58,
  "情侣": 58,
  "山": 58,
  "项": 58,
  "累积": 58,
  "语音": 58,
  "散热": 58,
  "研发": 58,
  "u@@": 58,
  "偏大": 58,
  "房间": 58,
  "木": 58,
  "天赐": 58,
  "使用寿命": 58,
  "新增": 58,
  "各位": 58,
  "110": 58,
  "培养": 58,
  "照片": 58,
  "一致": 58,
  "胖": 58,
  "美好": 58,
  "当然": 58,
  "规格": 58,
  "声": 58,
  "般": 58,
  "眼": 58,
  "否则": 58,
  "错": 58,
  "制成": 58,
  "专": 58,
  "好看": 58,
  "X": 58,
  "寻路": 58,
  "Lv.6": 57,
  "时有": 57,
  "消除": 57,
  "魔神": 57,
  "锁定": 57,
  "防盗": 57,
  "新品": 57,
  "Lv.@@": 57,
  "SHOPLINE": 57,
  "冰冻": 57,
  "电子": 57,
  "去除": 57,
  "传送": 57,
  "亚特兰蒂斯": 57,
  "动力": 57,
  "七@@": 57,
  "实": 57,
  "破坏": 57,
  "随着": 57,
  "用心": 57,
  "折叠": 57,
  "接@@": 57,
  "百搭@@": 57,
  "透": 57,
  "根": 57,
  "脚部": 57,
  "逐渐": 57,
  "山@@": 57,
  "续航": 57,
  "不错": 57,
  "天气": 57,
  "分销": 57,
  "锁": 57,
  "电流": 57,
  "不怕": 57,
  "散发": 57,
  "钱": 57,
  "220": 57,
  "卡里": 57,
  "国": 57,
  "挺": 57,
  "Lv.14": 57,
  "先@@": 57,
  "城堡": 56,
  "赛": 56,
  "安心": 56,
  "28%": 56,
  "肩": 56,
  "999": 56,
  "毛@@": 56,
  "婴儿": 56,
  "过来": 56,
  "玄晶": 56,
  "办法": 56,
  "之心": 56,
  "手法": 56,
  "面部": 56,
  "几乎": 56,
  "肉": 56,
  "225": 56,
  "士兵": 56,
  "结账": 56,
  "欢迎": 56,
  "故事": 56,
  "橙品": 56,
  "刚才": 56,
  "为主": 56,
  "营养": 56,
  "亚马逊": 56,
  "方@@": 56,
  "经常": 56,
  "炽天使": 56,
  "最长": 56,
  "液": 56,
  "原": 56,
  "模特": 56,
  "保养": 56,
  "厚度": 56,
  "450000": 56,
  "节": 56,
  "525": 56,
  "座": 56,
  "加宽": 56,
  "深渊": 56,
  "福利": 56,
  "10000": 56,
  "充分": 56,
  "加工": 56,
  "饱满": 56,
  "护送": 56,
  "双层": 56,
  "星座": 56,
  "西@@": 56,
  "专注": 56,
  "在线": 56,
  "化妆品": 56,
  "接收": 56,
  "印度": 55,
  "仙佩": 55,
  "交@@": 55,
  "车@@": 55,
  "等等": 55,
  "左": 55,
  "运输": 55,
  "除了": 55,
  "联盟": 55,
  "拉长": 55,
  "临时": 55,
  "样子": 55,
  "行@@": 55,
  "G": 55,
  "困扰": 55,
  "精神": 55,
  "a": 55,
  "附近": 55,
  "语": 55,
  "尚未": 55,
  "听说": 55,
  "情@@": 55,
  "下来": 55,
  "前排": 55,
  "小怪": 55,
  "病": 55,
  "此@@": 55,
  "315": 55,
  "意": 55,
  "灵活": 55,
  "树": 55,
  "48%": 55,
  "石@@": 55,
  "排@@": 55,
  "介绍": 55,
  "准确": 55,
  "IV": 55,
  "草": 55,
  "报警": 55,
  "31": 55,
  "格式": 55,
  "韧": 55,
  "战令": 55,
  "整@@": 55,
  "反复": 55,
  "程度": 55,
  "外套": 55,
  "分配": 55,
  "圆@@": 55,
  "原料": 55,
  "流程": 55,
  "Y@@": 55,
  "诛": 55,
  "答题": 55,
  "设定": 55,
  "n15": 55,
  "脚感": 55,
  "Lv.19": 55,
  "足": 55,
  "质": 55,
  "复制": 55,
  "接下来": 55,
  "出售": 55,
  "高贵": 54,
  "空@@": 54,
  "两侧": 54,
  "加载": 54,
  "小巧": 54,
  "值得": 54,
  "一码": 54,
  "m": 54,
  "仙@@": 54,
  "倒计时": 54,
  "神鼎": 54,
  "惊喜": 54,
  "图案": 54,
  "高温": 54,
  "现代": 54,
  "胶": 54,
  "及其": 54,
  "韩国": 54,
  "尺": 54,
  "赏金": 54,
  "变更": 54,
  "灰": 54,
  "130": 54,
  "行业": 54,
  "应对": 54,
  "首次": 54,
  "远": 54,
  "价": 54,
  "占领": 54,
  "Boss": 54,
  "吸@@": 54,
  "之盾": 54,
  "紫@@": 54,
  "木@@": 54,
  "配件": 54,
  "休息": 54,
  "走动": 54,
  "家@@": 54,
  "档次": 54,
  "抛光": 54,
  "越@@": 54,
  "四象": 54,
  "......": 54,
  "交易商": 54,
  "宠物": 54,
  "近": 54,
  "偏差": 53,
  "01": 53,
  "负离子": 53,
  "战宠": 53,
  "方面": 53,
  "特效": 53,
  "矫正": 53,
  "阶紫": 53,
  "回到": 53,
  "定身": 53,
  "Lv.11": 53,
  "加速": 53,
  "银行": 53,
  "难道": 53,
  "半@@": 53,
  "易@@": 53,
  "怕": 53,
  "源于": 53,
  "五阶": 53,
  "格": 53,
  "便携": 53,
  "夏日": 53,
  "仙": 53,
  "写": 53,
  "梦境": 53,
  "内含": 53,
  "感@@": 53,
  "飞@@": 53,
  "具备": 53,
  "26%": 53,
  "细": 53,
  "管理员": 53,
  "刀": 53,
  "运用": 53,
  "背@@": 53,
  "盟主": 53,
  "双肩包": 53,
  "提拉": 53,
  "红品": 53,
  "域名": 53,
  "H": 53,
  "集中": 53,
  "委托": 53,
  "分支": 53,
  "低调": 53,
  "出去": 53,
  "换@@": 52,
  "APP": 52,
  "精密": 52,
  "哥布林": 52,
  "心情": 52,
  "减轻": 52,
  "Lv.13": 52,
  "目的": 52,
  "密度": 52,
  "签到": 52,
  "41": 52,
  "285": 52,
  "药": 52,
  "看来": 52,
  "厚": 52,
  "账单": 52,
  "生成": 52,
  "火焰": 52,
  "时髦": 52,
  "魔术": 52,
  "最近": 52,
  "爱@@": 52,
  "吞噬": 52,
  "O@@": 52,
  "二阶": 52,
  "清除": 52,
  "眼部": 52,
  "礼": 52,
  "抵御": 52,
  "之翼": 52,
  "一只": 52,
  "抑制": 52,
  "感应": 52,
  "共享": 52,
  "身高": 52,
  "之剑": 52,
  "较大": 52,
  "明@@": 52,
  "特色": 52,
  "持续时间": 52,
  "来说": 52,
  "象征": 52,
  "棉@@": 52,
  "态度": 52,
  "不好": 52,
  "之旅": 52,
  "c40": 52,
  "强@@": 52,
  "先进": 52,
  "Lv.18": 51,
  "牙": 51,
  "第二": 51,
  "怒气": 51,
  "所在": 51,
  "洗衣": 51,
  "88": 51,
  "同步": 51,
  "政策": 51,
  "远离": 51,
  "十分": 51,
  "少女": 51,
  "法@@": 51,
  "巨@@": 51,
  "服饰": 51,
  "多重": 51,
  "Lv.16": 51,
  "别人": 51,
  "血液循环": 51,
  "有着": 51,
  "历史": 51,
  "彻底": 51,
  "绿": 51,
  "渗透": 51,
  "芯片": 51,
  "单个": 51,
  "夜战": 51,
  "士": 51,
  "其它": 51,
  "古碑": 51,
  "n13": 51,
  "珠": 51,
  "颈椎": 51,
  "洪荒": 51,
  "音箱": 51,
  "公@@": 51,
  "要是": 51,
  "安@@": 51,
  "300000": 51,
  "商机": 51,
  "足够": 51,
  "鱼": 51,
  "速干": 51,
  "试试": 51,
  "测量方法": 51,
  "幽泉": 51,
  "过滤": 51,
  "队长": 51,
  "c56": 51,
  "g@@": 51,
  "掌握": 51,
  "七": 51,
  "不想": 51,
  "连@@": 51,
  "梦": 51,
  "危害": 51,
  "抱歉": 51,
  "垃圾": 51,
  "2800": 51,
  "漂亮": 51,
  "狂暴": 51,
  "给予": 51,
  "时代": 51,
  "288": 51,
  "精石": 51,
  "货币": 51,
  "衣@@": 51,
  "手柄": 50,
  "懒人": 50,
  "脚印": 50,
  "国@@": 50,
  "挂": 50,
  "双肩": 50,
  "义务": 50,
  "铁@@": 50,
  "强劲": 50,
  "比赛": 50,
  "云@@": 50,
  "护理": 50,
  "搞定": 50,
  "九@@": 50,
  "三个": 50,
  "情": 50,
  "滋生": 50,
  "味": 50,
  "Lv.15": 50,
  "下垂": 50,
  "开发": 50,
  "感谢": 50,
  "起@@": 50,
  "42%": 50,
  "轻柔": 50,
  "稳固": 50,
  "拆解": 50,
  "眼镜": 50,
  "痘痘": 50,
  "n10": 50,
  "90%": 50,
  "结婚": 50,
  "电视": 50,
  "增添": 50,
  "玛": 50,
  "同款": 50,
  "冷@@": 50,
  "23%": 50,
  "纯": 50,
  "感染": 50,
  "245": 50,
  "关键": 50,
  "静": 50,
  "代替": 50,
  "条款": 50,
  "原本": 50,
  "亚洲": 50,
  "居然": 50,
  "格子": 50,
  "肖腾": 50,
  "微信": 50,
  "d@@": 50,
  "如意": 50,
  "创造": 50,
  "最佳": 50,
  "来到": 50,
  "Lv.20": 50,
  "审判": 50,
  "筛选": 50,
  "清": 49,
  "保暖": 49,
  "幽暗": 49,
  "推@@": 49,
  "走@@": 49,
  "宝": 49,
  "相": 49,
  "精粹": 49,
  "背面": 49,
  "神殿": 49,
  "订阅": 49,
  "次@@": 49,
  "神符": 49,
  "四阶": 49,
  "反@@": 49,
  "脚趾": 49,
  "传@@": 49,
  "现场": 49,
  "工程": 49,
  "累": 49,
  "成本": 49,
  "85": 49,
  "杀菌": 49,
  "表@@": 49,
  "深度": 49,
  "毛发": 49,
  "电力": 49,
  "滋润": 49,
  "玄@@": 49,
  "克": 49,
  "下次": 49,
  "当@@": 49,
  "可分解": 49,
  "链": 49,
  "袖": 49,
  "灭": 49,
  "裙子": 49,
  "身形": 49,
  "杆": 49,
  "0.@@": 49,
  "咨询": 49,
  "凉": 49,
  "+-": 49,
  "往": 49,
  "一颗": 49,
  "害怕": 49,
  "未@@": 49,
  "物资": 49,
  "喜爱": 49,
  "不了": 49,
  "然": 49,
  "x@@": 49,
  "0%": 48,
  "肤色": 48,
  "黄@@": 48,
  "更佳": 48,
  "秘宝": 48,
  "e": 48,
  "命": 48,
  "0.5": 48,
  "呀": 48,
  "时光": 48,
  "修@@": 48,
  "访客": 48,
  "都市": 48,
  "o@@": 48,
  "海量": 48,
  "损伤": 48,
  "柔@@": 48,
  "2500": 48,
  "也许": 48,
  "Lv.17": 48,
  "攻击者": 48,
  "陪": 48,
  "选中": 48,
  "初@@": 48,
  "派": 48,
  "天地": 48,
  "亲@@": 48,
  "九阶": 48,
  "列": 48,
  "算": 48,
  "接近": 48,
  "320": 48,
  "云": 48,
  "实拍": 48,
  "果": 48,
  "第一次": 48,
  "地狱": 48,
  "飞": 48,
  "可拆卸": 48,
  "素": 48,
  "从此": 48,
  "大牌": 48,
  "刷": 48,
  "官方": 48,
  "发起": 48,
  "滚轮": 48,
  "滑": 48,
  "网布": 48,
  "c48": 48,
  "更是": 48,
  "3200": 48,
  "返利": 48,
  "p@@": 48,
  "冰霜": 48,
  "珍贵": 48,
  "关卡": 48,
  "笔": 48,
  "看起来": 48,
  "社会": 47,
  "尔": 47,
  "壳": 47,
  "伦": 47,
  "通@@": 47,
  "许多": 47,
  "武士": 47,
  "货物": 47,
  "弹": 47,
  "出众": 47,
  "晚上": 47,
  "导出": 47,
  "冥想": 47,
  "磁石": 47,
  "有权": 47,
  "255": 47,
  "应@@": 47,
  "享": 47,
  "坡": 47,
  "商": 47,
  "诠释": 47,
  "活@@": 47,
  "家人": 47,
  "挤压": 47,
  "皮@@": 47,
  "48": 47,
  "3.@@": 47,
  "对决": 47,
  "考验": 47,
  "库": 47,
  "还要": 47,
  "选@@": 47,
  "师": 47,
  "神圣": 47,
  "7.@@": 47,
  "绽放": 47,
  "每隔": 47,
  "认可": 47,
  "缓震": 47,
  "薄": 47,
  "中毒": 47,
  "保@@": 47,
  "大部分": 47,
  "补水": 47,
  "势力": 47,
  "乾坤": 47,
  "U": 47,
  "帝": 47,
  "佣金": 47,
  "女王": 47,
  "营销": 47,
  "换": 47,
  "多层": 47,
  "1000W": 47,
  "心率": 47,
  "类别": 47,
  "之森": 46,
  "单鞋": 46,
  "单品": 46,
  "丝@@": 46,
  "毫无": 46,
  "紧@@": 46,
  "纸": 46,
  "具": 46,
  "冒险家": 46,
  "有效期": 46,
  "详细": 46,
  "一套": 46,
  "点头": 46,
  "教会": 46,
  ".@@": 46,
  "共鸣": 46,
  "m@@": 46,
  "通道": 46,
  "配送": 46,
  "瓶": 46,
  "债务人": 46,
  "洛克": 46,
  "放弃": 46,
  "生锈": 46,
  "字符": 46,
  "期待": 46,
  "粗@@": 46,
  "膏": 46,
  "源": 46,
  "钢": 46,
  "气垫": 46,
  "205": 46,
  "槽": 46,
  "事@@": 46,
  "助力": 46,
  "架": 46,
  "全服": 46,
  "闪亮": 46,
  "面积": 46,
  "意大利": 46,
  "省": 46,
  "曾经": 46,
  "食物": 46,
  "留下": 46,
  "水钻": 46,
  "放松": 46,
  "顺畅": 46,
  "取@@": 46,
  "粉丝": 46,
  "宽肥": 46,
  "状": 46,
  "随@@": 46,
  "力@@": 46,
  "做到": 46,
  "后台": 46,
  "领@@": 46,
  "140": 46,
  "263": 46,
  "事件": 46,
  "原来": 46,
  "体内": 46,
  "兼容": 46,
  "冲榜": 46,
  "上身": 46,
  "X@@": 46,
  "对手": 46,
  "暗黑": 46,
  "众多": 46,
  "味道": 45,
  "判断": 45,
  "干练": 45,
  "药品": 45,
  "使得": 45,
  "早": 45,
  "教": 45,
  "酸": 45,
  "演绎": 45,
  "香@@": 45,
  "补偿": 45,
  "痕迹": 45,
  "透明度": 45,
  "融入": 45,
  "击": 45,
  "换取": 45,
  "来电": 45,
  "穴位": 45,
  "点缀": 45,
  "30000": 45,
  "说话": 45,
  "得@@": 45,
  "一级": 45,
  "自行": 45,
  "非@@": 45,
  "必要": 45,
  "节日": 45,
  "耐磨性": 45,
  "军": 45,
  "6.@@": 45,
  "光源": 45,
  "其@@": 45,
  "密@@": 45,
  "包袋": 45,
  "降温": 45,
  "精彩": 45,
  "细微": 45,
  "拆卸": 45,
  "短款": 45,
  "狩猎": 45,
  "水润": 45,
  "排": 45,
  "控": 45,
  "斯": 45,
  "驾驭": 45,
  "淡化": 45,
  "要塞": 45,
  "代": 45,
  "斜挎包": 45,
  "5250": 45,
  "融合": 45,
  "y@@": 45,
  "春夏": 45,
  "归属": 45,
  "护肤": 45,
  "软@@": 45,
  "攻防": 45,
  "密林": 45,
  "题": 45,
  "切@@": 45,
  "影": 45,
  "信@@": 45,
  "真丝": 45,
  "44%": 45,
  "见证": 45,
  "促销": 45,
  "绯红": 45,
  "立@@": 45,
  "已满": 45,
  "雷": 45,
  "极致": 45,
  "各类": 45,
  "转化": 45,
  "弓箭手": 45,
  "气球": 45,
  "系带": 45,
  "太虚": 45,
  "练习": 45,
  "W@@": 45,
  "马上": 45,
  "随性": 45,
  "高弹": 45,
  "单轨": 45,
  "背心": 44,
  "信号": 44,
  "机器": 44,
  "结@@": 44,
  "意@@": 44,
  "首饰": 44,
  "人生": 44,
  "一片": 44,
  "真灵": 44,
  "注灵": 44,
  "优化": 44,
  "勇者": 44,
  "蓄力": 44,
  "学@@": 44,
  "怎么样": 44,
  "难@@": 44,
  "货": 44,
  "清理": 44,
  "愿": 44,
  "突出": 44,
  "加大": 44,
  "麻衣": 44,
  "平均": 44,
  "细纹": 44,
  "因素": 44,
  "放在": 44,
  "寸": 44,
  "空调": 44,
  "队": 44,
  "告白": 44,
  "演奏": 44,
  "是不是": 44,
  "仙缘": 44,
  "粘@@": 44,
  "魔力": 44,
  "原装": 44,
  "岛": 44,
  "00@@": 44,
  "油脂": 44,
  "平板": 44,
  "难": 44,
  "要@@": 44,
  "简@@": 44,
  "刃": 44,
  "药水": 44,
  "胸围": 44,
  "音频": 44,
  "脚长": 44,
  "170": 44,
  "买@@": 44,
  "一道": 44,
  "不少": 44,
  "小姐": 44,
  "环绕": 44,
  "紫品": 44,
  "b@@": 44,
  "延长": 44,
  "46%": 44,
  "洗练": 44,
  "耳@@": 44,
  "468": 44,
  "粗": 44,
  "厉害": 44,
  "天诀": 44,
  "升满": 44,
  "编号": 44,
  "炎": 44,
  "厚实": 44,
  "调@@": 44,
  "备注": 44,
  "身边": 44,
  "ID": 44,
  "显得": 44,
  "高达": 44,
  "跑步": 44,
  "共同": 44,
  "修仙": 44,
  "想象": 43,
  "人族": 43,
  "罗@@": 43,
  "倒@@": 43,
  "纳米": 43,
  "八阶": 43,
  "弯曲": 43,
  "附灵": 43,
  "口@@": 43,
  "圣": 43,
  "离": 43,
  "电动": 43,
  "店": 43,
  "布@@": 43,
  "外表": 43,
  "外出": 43,
  "金雀": 43,
  "刀头": 43,
  "P": 43,
  "而生": 43,
  "PK": 43,
  "禁地": 43,
  "赠品": 43,
  "调": 43,
  "多少": 43,
  "泰铢": 43,
  "男@@": 43,
  "通话": 43,
  "睡": 43,
  "九州": 43,
  "高密度": 43,
  "棒": 43,
  "唯一": 43,
  "牛": 43,
  "今年": 43,
  "45%": 43,
  "紧绷": 43,
  "穿@@": 43,
  "青鸾": 43,
  "只@@": 43,
  "设有": 43,
  "改@@": 43,
  "一阶": 43,
  "印记": 43,
  "狂欢": 43,
  "形式": 43,
  "美感": 43,
  "标@@": 43,
  "打算": 43,
  "人时": 43,
  "拉头": 43,
  "故障": 43,
  "6000": 43,
  "围": 43,
  "脱落": 43,
  "豪华": 43,
  "除@@": 43,
  "34": 43,
  "表盘": 43,
  "25@@": 43,
  "喇叭": 43,
  "部门": 43,
  "针织": 43,
  "常规": 43,
  "验收": 43,
  "之地": 43,
  "再@@": 43,
  "兵": 43,
  "百": 43,
  "食": 42,
  "经@@": 42,
  "全国": 42,
  "澳洲": 42,
  "快@@": 42,
  "第@@": 42,
  "室": 42,
  "脱毛": 42,
  "文档": 42,
  "十阶": 42,
  "用品": 42,
  "夏装": 42,
  "例如": 42,
  "900": 42,
  "色@@": 42,
  "镜": 42,
  "捐献": 42,
  "消@@": 42,
  "七阶": 42,
  "甜美": 42,
  "buff": 42,
  "375": 42,
  "转移": 42,
  "活跃": 42,
  "摔": 42,
  "状况": 42,
  "领悟": 42,
  "自我": 42,
  "机关": 42,
  "圆形": 42,
  "跨座式": 42,
  "疾风": 42,
  "琉璃": 42,
  "必定": 42,
  "灼烧": 42,
  "抑菌": 42,
  "冰": 42,
  "雷@@": 42,
  "获": 42,
  "悬挂": 42,
  "救": 42,
  "实时": 42,
  "建筑": 42,
  "至@@": 42,
  "嘴": 42,
  "随": 42,
  "音量": 42,
  "抗皱": 42,
  "天宝": 42,
  "返回": 42,
  "她们": 42,
  "尴尬": 42,
  "站立": 42,
  "每少": 42,
  "带给": 42,
  "速": 42,
  "一击时": 42,
  "家里": 42,
  "事项": 42,
  "胜利": 42,
  "遮": 42,
  "虚弱": 42,
  "杂志": 42,
  "冠军": 42,
  "旧": 42,
  "枕": 42,
  "减@@": 42,
  "那里": 42,
  "东@@": 42,
  "戴": 42,
  "明白": 42,
  "机@@": 42,
  "机身": 42,
  "舒适感": 42,
  "秋冬": 42,
  "极@@": 42,
  "格调": 42,
  "首充": 42,
  "战纹": 42,
  "懂": 42,
  "画": 42,
  "爆炸": 42,
  "谅解": 41,
  "游泳": 41,
  "聚氨酯": 41,
  "打击": 41,
  "r@@": 41,
  "宝库": 41,
  "工业": 41,
  "折": 41,
  "1818": 41,
  "封": 41,
  "预防": 41,
  "亮点": 41,
  "n14": 41,
  "王@@": 41,
  "下面": 41,
  "文@@": 41,
  "监控": 41,
  "000": 41,
  "两": 41,
  "望": 41,
  "送@@": 41,
  "中长款": 41,
  "做出": 41,
  "传输": 41,
  "深海": 41,
  "收缩": 41,
  "心愿": 41,
  "Buff": 41,
  "二十": 41,
  "彩@@": 41,
  "暗@@": 41,
  "无论是": 41,
  "受疗": 41,
  "字@@": 41,
  "紧": 41,
  "50@@": 41,
  "周": 41,
  "以为": 41,
  "埋骨": 41,
  "通玄": 41,
  "再也": 41,
  "复杂": 41,
  "细密": 41,
  "周@@": 41,
  "之子": 41,
  "立领": 41,
  "仙气": 41,
  "马": 41,
  "弧度": 41,
  "巨大": 41,
  "度@@": 41,
  "顶级": 41,
  "战盟": 41,
  "友方": 41,
  "镜片": 41,
  "子@@": 41,
  "偏": 41,
  "中间": 41,
  "暂": 41,
  "依然": 41,
  "般的": 41,
  "羊皮": 41,
  "Y": 41,
  "圣诞": 40,
  "定义": 40,
  "理解": 40,
  "兰州市": 40,
  "舞": 40,
  "右": 40,
  "衬衣": 40,
  "内外": 40,
  "TA": 40,
  "荣誉": 40,
  "终止": 40,
  "拖鞋": 40,
  "陶瓷": 40,
  "收": 40,
  "长短": 40,
  "％": 40,
  "听读": 40,
  "集@@": 40,
  "剩余时间": 40,
  "0.0@@": 40,
  "冒险者": 40,
  "各@@": 40,
  "别致": 40,
  "抽@@": 40,
  "学姐": 40,
  "季": 40,
  "汗水": 40,
  "系": 40,
  "净@@": 40,
  "计量": 40,
  "快乐": 40,
  "金钻": 40,
  "音@@": 40,
  "腰@@": 40,
  "无效": 40,
  "4500": 40,
  "刮": 40,
  "标": 40,
  "芭蕾": 40,
  "就算": 40,
  "禁疗": 40,
  "本身": 40,
  "偏@@": 40,
  "圣光": 40,
  "224": 40,
  "尽快": 40,
  "包身": 40,
  "POLO": 40,
  "涅盘": 40,
  "性@@": 40,
  "帅气": 40,
  "骨@@": 40,
  "王国": 40,
  "刚": 40,
  "选材": 40,
  "欧洲": 40,
  "失去": 40,
  "外部": 40,
  "物质": 40,
  "离子": 40,
  "吹": 40,
  "深": 40,
  "字母": 40,
  "之息": 40,
  "包边": 40,
  "想@@": 40,
  "世": 40,
  "瓦卡": 40,
  "一周": 40,
  "凝胶": 40,
  "420%": 40,
  "曾": 40,
  "轻巧": 40,
  "敏感": 40,
  "嘛": 40,
  "远@@": 40,
  "温暖": 40,
  "两用": 40,
  "灵玉": 40,
  "飞织": 40,
  "另": 40,
  "纯天然": 40,
  "选购": 40,
  "之家": 40,
  "一年": 39,
  "尽": 39,
  "皱纹": 39,
  "正式": 39,
  "约定": 39,
  "陆行": 39,
  "令人": 39,
  "当天": 39,
  "1591": 39,
  "锁骨": 39,
  "温@@": 39,
  "家庭": 39,
  "接": 39,
  "购": 39,
  "突然": 39,
  "63640": 39,
  "镜头": 39,
  "在@@": 39,
  "闪耀": 39,
  "平摊": 39,
  "折@@": 39,
  "录": 39,
  "失@@": 39,
  "沙滩": 39,
  "硬": 39,
  "解释": 39,
  "3409": 39,
  "两仪": 39,
  "耳朵": 39,
  "蓝宝石": 39,
  "试@@": 39,
  "祭坛": 39,
  "暴伤": 39,
  "段位": 39,
  "罩": 39,
  "来源": 39,
  "舞蹈": 39,
  "20000": 39,
  "定型": 39,
  "频率": 39,
  "青@@": 39,
  "次元": 39,
  "新建": 39,
  "回归": 39,
  "半": 39,
  "肯定": 39,
  "藏": 39,
  "这次": 39,
  "现@@": 39,
  "如今": 39,
  "靓丽": 39,
  "铸魂": 39,
  "源自": 39,
  "排放": 39,
  "幸福": 39,
  "这款": 39,
  "是因为": 39,
  "脚掌": 39,
  "塑料": 39,
  "神铸": 39,
  "永恒": 39,
  "文本": 39,
  "夜": 39,
  "称为": 39,
  "任": 39,
  "快捷": 39,
  "银": 39,
  "吸附": 39,
  "助": 39,
  "耳": 39,
  "天后": 39,
  "两种": 39,
  "精品": 39,
  "绿@@": 39,
  "胶原蛋白": 39,
  "托": 39,
  "贵族": 39,
  "慢慢": 39,
  "裤@@": 39,
  "清楚": 39,
  "混": 39,
  "微": 39,
  "穿衣": 39,
  "应急": 39,
  "胸": 39,
  "荣耀": 39,
  "进攻": 39,
  "卡利玛": 39,
  "南@@": 39,
  "降@@": 39,
  "3.5": 38,
  "毛囊": 38,
  "13%": 38,
  "织物": 38,
  "存放": 38,
  "魔剑": 38,
  "晚": 38,
  "2cm": 38,
  "灵药": 38,
  "纹身": 38,
  "发包方": 38,
  "完毕": 38,
  "沙@@": 38,
  "程序": 38,
  "够": 38,
  "轻易": 38,
  "人体工学": 38,
  "褶皱": 38,
  "宽度": 38,
  "广告": 38,
  "街头": 38,
  "押运": 38,
  "制@@": 38,
  "已有": 38,
  "灵族": 38,
  "补充": 38,
  "扣@@": 38,
  "湿@@": 38,
  "一位": 38,
  "跟随": 38,
  "坚韧": 38,
  "黑头": 38,
  "68": 38,
  "后来": 38,
  "分为": 38,
  "抓": 38,
  "老师": 38,
  "防风": 38,
  "凉爽": 38,
  "绣花": 38,
  "公告": 38,
  "严谨": 38,
  "集": 38,
  "提取": 38,
  "员工": 38,
  "280": 38,
  "明天": 38,
  "登陆": 38,
  "自带": 38,
  "启用": 38,
  "进一步": 38,
  "指@@": 38,
  "神装": 38,
  "印染": 38,
  "分散": 38,
  "互@@": 38,
  "2.@@": 38,
  "汗": 38,
  "鞋带": 38,
  "集合": 38,
  "信": 38,
  "巨人": 38,
  "擦": 38,
  "印迹": 38,
  "实验": 38,
  "洋气": 38,
  "手机号": 38,
  "水平": 38,
  "400000": 38,
  "减益": 38,
  "工": 38,
  "发电": 38,
  "见@@": 38,
  "灵佩": 38,
  "道德": 38,
  "污垢": 38,
  "履行": 38,
  "交给": 38,
  "维护": 38,
  "吸": 38,
  "聚@@": 38,
  "妖族": 38,
  "不累": 38,
  "情报": 38,
  "腋下": 38,
  "36%": 38,
  "处@@": 38,
  "免": 38,
  "成熟": 37,
  "锂电池": 37,
  "乱": 37,
  "28@@": 37,
  "您好": 37,
  "橙": 37,
  "520": 37,
  "请勿": 37,
  "超薄": 37,
  "升": 37,
  "助战": 37,
  "说@@": 37,
  "不停": 37,
  "寒": 37,
  "配音": 37,
  "红装": 37,
  "针脚": 37,
  "尝试": 37,
  "磨@@": 37,
  "开口": 37,
  "仓库": 37,
  "各项": 37,
  "常用": 37,
  "条@@": 37,
  "解@@": 37,
  "合作": 37,
  "魂印": 37,
  "观看": 37,
  "界": 37,
  "老人": 37,
  "不宜": 37,
  "而是": 37,
  "设施": 37,
  "2.5": 37,
  "八荒": 37,
  "出色": 37,
  "网@@": 37,
  "冲@@": 37,
  "和@@": 37,
  "很@@": 37,
  "散@@": 37,
  "果然": 37,
  "个@@": 37,
  "赛区": 37,
  "线@@": 37,
  "晾干": 37,
  "仿佛": 37,
  "神佑": 37,
  "哈伦": 37,
  "收紧": 37,
  "湿": 37,
  "本服": 37,
  "天数": 37,
  "一列": 37,
  "K": 37,
  "男鞋": 37,
  "钢@@": 37,
  "VIP@@": 37,
  "教@@": 37,
  "闲话": 37,
  "导航": 37,
  "向前": 37,
  "蓝光": 37,
  "基@@": 37,
  "预览": 37,
  "环@@": 37,
  "00%": 37,
  "l@@": 37,
  "污染物": 37,
  "3.5%": 37,
  "床": 37,
  "杀手": 37,
  "居家": 37,
  "12.5%": 37,
  "镜子": 37,
  "赋予": 37,
  "宣战": 37,
  "尸体": 37,
  "开通": 37,
  "精魂": 36,
  "平底": 36,
  "内心": 36,
  "张三": 36,
  "无缝": 36,
  "负面": 36,
  "舞会": 36,
  "活": 36,
  "搜寻": 36,
  "滋养": 36,
  "伤@@": 36,
  "天空": 36,
  "直": 36,
  "振动": 36,
  "护": 36,
  "陨石": 36,
  "配对": 36,
  "1.@@": 36,
  "插": 36,
  "侧@@": 36,
  "宝@@": 36,
  "维修": 36,
  "减压": 36,
  "同学": 36,
  "断": 36,
  "所有人": 36,
  "周期": 36,
  "仙侣": 36,
  "塞": 36,
  "椅子": 36,
  "召唤术": 36,
  "8.@@": 36,
  "表单": 36,
  "天凰": 36,
  "点破": 36,
  "暴怒": 36,
  "适当": 36,
  "眉毛": 36,
  "热量": 36,
  "风暴": 36,
  "132": 36,
  "挑": 36,
  "125": 36,
  "高低": 36,
  "视为": 36,
  "需@@": 36,
  "三才": 36,
  "街": 36,
  "争霸": 36,
  "下去": 36,
  "货@@": 36,
  "没想到": 36,
  "新手": 36,
  "绳": 36,
  "J@@": 36,
  "优良": 36,
  "上网": 36,
  "灵气": 36,
  "几个": 36,
  "敬请": 36,
  "裤脚": 36,
  "月@@": 36,
  "卖": 36,
  "化@@": 36,
  "4000": 36,
  "身姿": 36,
  "因@@": 36,
  "观": 36,
  "一方": 36,
  "扁平": 36,
  "之杖": 36,
  "迫": 36,
  "38@@": 36,
  "99": 36,
  "世@@": 36,
  "无人": 36,
  "婚礼": 36,
  "纪元": 36,
  "阿@@": 36,
  "赢": 36,
  "棉花": 36,
  "像是": 36,
  "功勋": 36,
  "躲避": 36,
  "更能": 36,
  "夏": 36,
  "玫瑰": 36,
  "十八": 36,
  "附魔": 36,
  "死@@": 36,
  "文化": 36,
  "符": 36,
  "忘记": 36,
  "轮廓": 36,
  "解析": 36,
  "模拟": 36,
  "肤": 36,
  "累充": 36,
  "依据": 36,
  "多年": 36,
  "期限": 36,
  "些": 36,
  "胸@@": 36,
  "脱": 36,
  "59": 35,
  "达成": 35,
  "不止": 35,
  "2014": 35,
  "元@@": 35,
  "产后": 35,
  "70000": 35,
  "消毒": 35,
  "经久": 35,
  "仙佩可": 35,
  "用笔": 35,
  "储存": 35,
  "姓名": 35,
  "奇怪": 35,
  "天下": 35,
  "保健": 35,
  "单次": 35,
  "意思": 35,
  "抢购": 35,
  "出汗": 35,
  "相比": 35,
  "钉": 35,
  "效率": 35,
  "en@@": 35,
  "底@@": 35,
  "武神": 35,
  "诅咒": 35,
  "挑选": 35,
  "狼魂": 35,
  "两双": 35,
  "公开": 35,
  "ml": 35,
  "共@@": 35,
  "耐折": 35,
  "历练": 35,
  "主角": 35,
  "敢": 35,
  "疤痕": 35,
  "证书": 35,
  "Q": 35,
  "炼": 35,
  "上线": 35,
  "上面": 35,
  "克@@": 35,
  "60@@": 35,
  "2019": 35,
  "337": 35,
  "评价": 35,
  "并@@": 35,
  "攻城战": 35,
  "传承": 35,
  "卫生": 35,
  "样": 35,
  "电压": 35,
  "外壳": 35,
  "终于": 35,
  "缝合": 35,
  "旅游": 35,
  "速@@": 35,
  "指甲": 35,
  "斑": 35,
  "血压": 35,
  "形象": 35,
  "竟然": 35,
  "不适": 35,
  "车载": 35,
  "瑕": 35,
  "汗@@": 35,
  "根本": 35,
  "色素": 35,
  "灵动": 35,
  "含@@": 35,
  "范": 35,
  "阴@@": 35,
  "容纳": 35,
  "已@@": 35,
  "配饰": 35,
  "托@@": 35,
  "动态": 35,
  "足@@": 35,
  "圆": 35,
  "即@@": 35,
  "乳胶": 35,
  "份": 35,
  "关@@": 35,
  "双足": 35,
  "松弛": 35,
  "非凡": 35,
  "嫩": 35,
  "帽": 35,
  "或许": 35,
  "地下城": 35,
  "超声波": 35,
  "孕妇": 35,
  "光芒": 34,
  "盘": 34,
  "看得见": 34,
  "公证": 34,
  "麻@@": 34,
  "传导": 34,
  "摄像头": 34,
  "本品": 34,
  "幻影": 34,
  "粘": 34,
  "查询": 34,
  "540": 34,
  "排出": 34,
  "粗糙": 34,
  "选大": 34,
  "经历": 34,
  "追踪": 34,
  "100@@": 34,
  "33@@": 34,
  "凹凸": 34,
  "SR": 34,
  "小于": 34,
  "蝴蝶结": 34,
  "姿态": 34,
  "原创": 34,
  "关节": 34,
  "夜光": 34,
  "没什么": 34,
  "单元": 34,
  "落@@": 34,
  "A4": 34,
  "风情": 34,
  "承诺": 34,
  "银@@": 34,
  "亮丽": 34,
  "增@@": 34,
  "氨纶": 34,
  "专家": 34,
  "录像": 34,
  "焦点": 34,
  "##": 34,
  "暂停": 34,
  "切割": 34,
  "形态": 34,
  "相当于": 34,
  "难以": 34,
  "之选": 34,
  "工@@": 34,
  "NPC": 34,
  "露@@": 34,
  "直到": 34,
  "面对": 34,
  "请@@": 34,
  "很大": 34,
  "踢": 34,
  "加油": 34,
  "品类": 34,
  "药剂": 34,
  "减肥": 34,
  "降噪": 34,
  "求": 34,
  "N": 34,
  "链条": 34,
  "亲爱": 34,
  "死角": 34,
  "SSR": 34,
  "近@@": 34,
  "常": 34,
  "42": 34,
  "可见": 34,
  "颗粒": 34,
  "各自": 34,
  "华丽": 34,
  "尘": 34,
  "圣印": 34,
  "看着": 34,
  "冲": 34,
  "视": 34,
  "假": 34,
  "55": 34,
  "文": 34,
  "厚底": 34,
  "17%": 34,
  "事故": 34,
  "酒": 34,
  "400%": 34,
  "PVC": 34,
  "刚刚": 34,
  "猪皮": 34,
  "针@@": 34,
  "假@@": 34,
  "叶": 34,
  "逛街": 34,
  "三层": 34,
  "阶蓝": 34,
  "之灵": 34,
  "喷@@": 34,
  "分布": 34,
  "舒@@": 34,
  "容六": 34,
  "横@@": 34,
  "移除": 34,
  "舒爽": 34,
  "重力": 34,
  "工整": 34,
  "短": 34,
  "团": 34,
  "单独": 34,
  "群体": 34,
  "噪音": 34,
  "阵亡": 34,
  "推出": 34,
  "愿意": 34,
  "上班": 34,
  "酒馆": 34,
  "3600": 34,
  "季节": 34,
  "预计": 34,
  "半身": 34,
  "毒@@": 34,
  "剑魂": 34,
  "与众不同": 34,
  "含有": 33,
  "复@@": 33,
  "小包": 33,
  "24@@": 33,
  "嘉年华": 33,
  "到@@": 33,
  "液体": 33,
  "供电": 33,
  "藏@@": 33,
  "兽神": 33,
  "知识": 33,
  "0.75%": 33,
  "背带": 33,
  "地点": 33,
  "氧化": 33,
  "买一送一": 33,
  "脂": 33,
  "纤瘦": 33,
  "尤其": 33,
  "豆豆": 33,
  "教学": 33,
  "420": 33,
  "工序": 33,
  "蓝@@": 33,
  "柔韧性": 33,
  "青云": 33,
  "挺括": 33,
  "坠": 33,
  "加维鲁": 33,
  "牙@@": 33,
  "充@@": 33,
  "不可抗力": 33,
  "德": 33,
  "容": 33,
  "还原": 33,
  "稳定性": 33,
  "按压": 33,
  "各个": 33,
  "风范": 33,
  "毒": 33,
  "攻": 33,
  "色斑": 33,
  "赤@@": 33,
  "反应": 33,
  "65": 33,
  "手腕": 33,
  "604": 33,
  "击倒": 33,
  "1.2": 33,
  "KG": 33,
  "支": 33,
  "紫": 33,
  "一针一线": 33,
  "法国": 33,
  "趋势": 33,
  "想法": 33,
  "步骤": 33,
  "必@@": 33,
  "印@@": 33,
  "腰围": 33,
  "电机": 33,
  "躺": 33,
  "高强度": 33,
  "蕴藏": 33,
  "跳转": 33,
  "磨砂": 33,
  "惊@@": 33,
  "匠心": 33,
  "灵感": 33,
  "飘逸": 33,
  "常@@": 33,
  "撞色": 33,
  "沉@@": 33,
  "参照": 33,
  "刻印": 33,
  "密": 33,
  "F": 33,
  "型号": 33,
  "父母": 33,
  "神经": 33,
  "深处": 33,
  "身后": 33,
  "电影": 33,
  "同一": 33,
  "x": 33,
  "浓度": 33,
  "散": 33,
  "理@@": 33,
  "粉线": 33,
  "施加": 33,
  "吸血": 33,
  "桑蚕丝": 33,
  "凳": 33,
  "蚊子": 33,
  "茶@@": 33,
  "饰": 33,
  "游@@": 33,
  "净": 33,
  "泡": 33,
  "显@@": 33,
  "410": 33,
  "十六": 33,
  "按键": 33,
  "满@@": 33,
  "辆": 33,
  "弩": 33,
  "应用程序": 33,
  "若有": 33,
  "品位": 33,
  "mon": 33,
  "额": 33,
  "露": 33,
  "吸引": 32,
  "90000": 32,
  "抢": 32,
  "波@@": 32,
  "祈福": 32,
  "有限": 32,
  "受损": 32,
  "加热": 32,
  "须": 32,
  "政府": 32,
  "56": 32,
  "炼器": 32,
  "化学": 32,
  "蛮牛": 32,
  "研究者": 32,
  "资金": 32,
  "手中": 32,
  "权": 32,
  "雪@@": 32,
  "暂未": 32,
  "痘": 32,
  "女孩": 32,
  "r": 32,
  "理": 32,
  "电厂": 32,
  "噩梦": 32,
  "服务商": 32,
  "国内": 32,
  "承包方": 32,
  "雨伞": 32,
  "480": 32,
  "莱亚": 32,
  "潮@@": 32,
  "福袋": 32,
  "35@@": 32,
  "0x13ee22": 32,
  "种子": 32,
  "大赛": 32,
  "养": 32,
  "体温": 32,
  "如同": 32,
  "办": 32,
  "卡牌": 32,
  "肩膀": 32,
  "客": 32,
  "低级": 32,
  "氛围": 32,
  "492": 32,
  "两点": 32,
  "马达": 32,
  "逃@@": 32,
  "弓": 32,
  "同伴": 32,
  "受击时": 32,
  "魔珠": 32,
  "打破": 32,
  "小脚": 32,
  "时长": 32,
  "坚固": 32,
  "使者": 32,
  "潮湿": 32,
  "强烈": 32,
  "听@@": 32,
  "指导": 32,
  "乐@@": 32,
  "支援": 32,
  "2015": 32,
  "车工": 32,
  "630": 32,
  "酸@@": 32,
  "穿脱": 32,
  "27@@": 32,
  "o": 32,
  "一场": 32,
  "蕴含": 32,
  "群@@": 32,
  "力度": 32,
  "华@@": 32,
  "留@@": 32,
  "栏": 32,
  "铁匠": 32,
  "40@@": 32,
  "号码": 32,
  "鸠": 32,
  "矿石": 32,
  "鬼@@": 32,
  "永@@": 32,
  "27": 32,
  "深入": 32,
  "精": 32,
  "提亮": 32,
  "短裤": 32,
  "或是": 32,
  "除外": 32,
  "提出": 32,
  "雷霆": 32,
  "尊敬": 32,
  "165": 32,
  "姿势": 32,
  "残@@": 32,
  "室内": 32,
  "符合人体": 32,
  "幻魔园": 32,
  "分子": 32,
  "317": 32,
  "h": 32,
  "村庄": 32,
  "一生": 32,
  "长款": 32,
  "论道": 32,
  "软底": 32,
  "快去": 32,
  "模块": 32,
  "拖": 32,
  "同行": 31,
  "实@@": 31,
  "位@@": 31,
  "270": 31,
  "睡觉": 31,
  "之美": 31,
  "恶@@": 31,
  "累加": 31,
  "新一代": 31,
  "健": 31,
  "书@@": 31,
  "退款": 31,
  "深红": 31,
  "螨": 31,
  "完善": 31,
  "边@@": 31,
  "高弹性": 31,
  "吹@@": 31,
  "九霄": 31,
  "国外": 31,
  "灰尘": 31,
  "立": 31,
  "裤装": 31,
  "340": 31,
  "音": 31,
  "顶部": 31,
  "致@@": 31,
  "PC": 31,
  "来袭": 31,
  "枪": 31,
  "停@@": 31,
  "摆脱": 31,
  "批量": 31,
  "95%": 31,
  "首@@": 31,
  "远程": 31,
  "草药": 31,
  "炉": 31,
  "岁月": 31,
  "再试": 31,
  "裁决": 31,
  "学院": 31,
  "斗": 31,
  "好身材": 31,
  "点数": 31,
  "管@@": 31,
  "哪个": 31,
  "标志": 31,
  "膝盖": 31,
  "臂": 31,
  "斯@@": 31,
  "防撞": 31,
  "感恩": 31,
  "答对": 31,
  "阶粉": 31,
  "言": 31,
  "务必": 31,
  "位于": 31,
  "玄武": 31,
  "温柔": 31,
  "边缘": 31,
  "鞋型": 31,
  "慢": 31,
  "分开": 31,
  "青龙": 31,
  "十七": 31,
  "业": 31,
  "路@@": 31,
  "只为": 31,
  "读": 31,
  "负担": 31,
  "青": 31,
  "k@@": 31,
  "赶紧": 31,
  "c58": 31,
  "瞳孔": 31,
  "经久耐用": 31,
  "提前": 31,
  "粘贴": 31,
  "顺序": 31,
  "无毒": 31,
  "墙": 31,
  "错过": 31,
  "脱线": 31,
  "回旋": 31,
  "残留": 31,
  "英国": 31,
  "阻止": 31,
  "开心": 31,
  "插头": 31,
  "以外": 31,
  "称": 31,
  "长久": 31,
  "后背": 31,
  "背后": 31,
  "天然橡胶": 31,
  "f@@": 31,
  "不仅仅": 31,
  "登记": 30,
  "柔滑": 30,
  "更强": 30,
  "经络": 30,
  "量@@": 30,
  "酷": 30,
  "快点": 30,
  "零钱": 30,
  "血液": 30,
  "争夺": 30,
  "围@@": 30,
  "灯@@": 30,
  "尽量": 30,
  "里@@": 30,
  "两件套": 30,
  "吸湿性": 30,
  "投@@": 30,
  "毛巾": 30,
  "管控": 30,
  "张扬": 30,
  "水温": 30,
  "秀": 30,
  "不凡": 30,
  "乳腺": 30,
  "大师": 30,
  "烟": 30,
  "开车": 30,
  "总有": 30,
  "这位": 30,
  "更为": 30,
  "满意": 30,
  "304": 30,
  "经济": 30,
  "99%": 30,
  "萃取": 30,
  "剑@@": 30,
  "往@@": 30,
  "病@@": 30,
  "沙发": 30,
  "解": 30,
  "坏": 30,
  "八": 30,
  "长裙": 30,
  "496": 30,
  "成绩": 30,
  "灵丹": 30,
  "幻境": 30,
  "ETP": 30,
  "后缀": 30,
  "冰爽": 30,
  "新型": 30,
  "猫": 30,
  "128": 30,
  "使用者": 30,
  "感到": 30,
  "平滑": 30,
  "蛋": 30,
  "网纱": 30,
  "破@@": 30,
  "由@@": 30,
  "家用": 30,
  "怎么办": 30,
  "存": 30,
  "短@@": 30,
  "295": 30,
  "韵味": 30,
  "124": 30,
  "照@@": 30,
  "唤醒": 30,
  "玉@@": 30,
  "背法": 30,
  "抗水": 30,
  "额度": 30,
  "谢谢": 30,
  "道路": 30,
  "疯狂": 30,
  "商@@": 30,
  "458": 30,
  "博客": 30,
  "追@@": 30,
  "命中率": 30,
  ".5": 30,
  "福@@": 30,
  "珠宝": 30,
  "学校": 30,
  "级别": 30,
  "9.@@": 30,
  "资格": 30,
  "1600": 30,
  "过度": 30,
  "以前": 30,
  "菜单": 30,
  "重点": 30,
  "加速器": 30,
  "1.1": 30,
  "然而": 30,
  "范儿": 30,
  "鸿蒙": 30,
  "挎": 30,
  "维持": 30,
  "首先": 30,
  "以便": 30,
  "音响": 30,
  "试用": 30,
  "52": 30,
  "减龄": 30,
  "销量": 30,
  "银行卡": 30,
  "铝合金": 30,
  "50000": 30,
  "书面": 30,
  "弧形": 30,
  "佛@@": 30,
  "验证码": 30,
  "表情": 30,
  "无损": 30,
  "米@@": 30,
  "神庙": 30,
  "宝贝": 30,
  "辐射": 30,
  "回弹": 30,
  "浮@@": 30,
  "现": 30,
  "冻结": 30,
  "圆头": 30,
  "代@@": 30,
  "扣除": 30,
  "引发": 30,
  "336": 30,
  "幽泉曜石": 30,
  "落英": 30,
  "y": 30,
  "380": 30,
  "角质": 30,
  "mg": 30,
  "230": 30,
  "铆钉": 30,
  "最强": 30,
  "大自然": 30,
  "再生": 30,
  "跨": 30,
  "兰州": 30,
  "帽子": 30,
  "气孔": 30,
  "明确": 30,
  "侧面": 30,
  "反光": 30,
  "id": 30,
  "虫": 30,
  "淡": 29,
  "跳": 29,
  "AquiverBiz": 29,
  "陷阱": 29,
  "02": 29,
  "脊椎": 29,
  "约会": 29,
  "迷@@": 29,
  "父亲": 29,
  "左@@": 29,
  "刚@@": 29,
  "脸上": 29,
  "九分": 29,
  "神明": 29,
  "广场": 29,
  "吸水": 29,
  "优选": 29,
  "克鲁拉": 29,
  "墓": 29,
  "补@@": 29,
  "赤羽": 29,
  "脚底": 29,
  "薄款": 29,
  "大约": 29,
  "震撼": 29,
  "有没有": 29,
  "下属": 29,
  "北@@": 29,
  "十九": 29,
  "应当": 29,
  "当时": 29,
  "离火": 29,
  "大多数": 29,
  "运": 29,
  "麻": 29,
  ".5%": 29,
  "弱": 29,
  "致命": 29,
  "剧毒": 29,
  "网红": 29,
  "第一名": 29,
  "喷雾": 29,
  "实用性": 29,
  "线索": 29,
  "树脂": 29,
  "200%": 29,
  "于@@": 29,
  "角斗场": 29,
  "缠绕": 29,
  "施放": 29,
  "罩杯": 29,
  "斗士": 29,
  "收入": 29,
  "三叶草": 29,
  "一段时间": 29,
  "主流": 29,
  "用力": 29,
  "逐鹿": 29,
  "声@@": 29,
  "条纹": 29,
  "直达": 29,
  "口红": 29,
  "进去": 29,
  "路上": 29,
  "脸型": 29,
  "三界": 29,
  "据说": 29,
  "视听": 29,
  "引领": 29,
  "上市": 29,
  "震@@": 29,
  "怎样": 29,
  "阶@@": 29,
  "齿": 29,
  "每年": 29,
  "邪恶": 29,
  "翼": 29,
  "独家": 29,
  "人口": 29,
  "季度": 29,
  "计时": 29,
  "下方": 29,
  "蚊虫": 29,
  "以内": 29,
  "套@@": 29,
  "定期": 29,
  "千万": 29,
  "娘": 29,
  "皂": 29,
  "个字符": 29,
  "195": 29,
  "造": 29,
  "送货": 29,
  "常见": 29,
  "魔像": 29,
  "遵守": 29,
  "冲锋": 29,
  "小羊皮": 29,
  "社交": 29,
  "客人": 29,
  "检验": 29,
  "注重": 29,
  "交叉": 29,
  "改": 29,
  "滑@@": 29,
  "公测": 29,
  "探寻": 29,
  "铸石": 29,
  "座椅": 29,
  "乱@@": 29,
  "火爆": 29,
  "纤体": 29,
  "熨烫": 29,
  "阶橙一星": 29,
  "z@@": 29,
  "贷款": 29,
  "花朵": 29,
  "英@@": 29,
  "那边": 29,
  "杀@@": 29,
  "胶@@": 29,
  "遗憾": 29,
  "么": 29,
  "海绵": 29,
  "不变": 29,
  "直升": 29,
  "广@@": 29,
  "承受": 29,
  "19%": 29,
  "申诉": 29,
  "致": 29,
  "图@@": 29,
  "清水": 28,
  "1250": 28,
  "定位": 28,
  "野@@": 28,
  "肚子": 28,
  "棉质": 28,
  "过于": 28,
  "遭遇": 28,
  "歌": 28,
  "260": 28,
  "一身": 28,
  "支@@": 28,
  "立体声": 28,
  "拉力": 28,
  "乳房": 28,
  "目": 28,
  "前面": 28,
  "限于": 28,
  "发光": 28,
  "四季": 28,
  "钻@@": 28,
  "腹": 28,
  "报@@": 28,
  "财@@": 28,
  "白虎": 28,
  "回血": 28,
  "格@@": 28,
  "豪礼": 28,
  "ins": 28,
  "裆部": 28,
  "腰身": 28,
  "驱动": 28,
  "广播": 28,
  "官": 28,
  "取出": 28,
  "笔记本": 28,
  "尊贵": 28,
  "古": 28,
  "英文": 28,
  "境界": 28,
  "视@@": 28,
  "继承": 28,
  "选项": 28,
  "流量": 28,
  "．": 28,
  "尾@@": 28,
  "离@@": 28,
  "Z@@": 28,
  "巴@@": 28,
  "盾": 28,
  "分组": 28,
  "29%": 28,
  "受伤": 28,
  "779": 28,
  "磨损": 28,
  "疏通": 28,
  "2016": 28,
  "适中": 28,
  "暴击时": 28,
  "诞生": 28,
  "市面上": 28,
  "收藏": 28,
  "大腿": 28,
  "脱@@": 28,
  "温": 28,
  "甲醛": 28,
  "丝滑": 28,
  "心动": 28,
  "向@@": 28,
  "射击": 28,
  "9000": 28,
  "密封": 28,
  "AI": 28,
  "没事": 28,
  "打理": 28,
  "新颖": 28,
  "尾": 28,
  "爱情": 28,
  "等同": 28,
  "天天": 28,
  "烟@@": 28,
  "首": 28,
  "持@@": 28,
  "简介": 28,
  "不见": 28,
  "没错": 28,
  "充": 28,
  "11000": 28,
  "贴纸": 28,
  "既然": 28,
  "加拿大": 28,
  "写@@": 28,
  "27%": 28,
  "不行": 28,
  "利": 28,
  "h@@": 28,
  "第一@@": 28,
  "俏皮": 28,
  "知": 28,
  "1199": 28,
  "变色": 28,
  "天罚": 28,
  "家长": 28,
  "亿美元": 28,
  "188": 28,
  "优点": 28,
  "泼水": 28,
  "债权人": 28,
  "310": 28,
  "尽情": 28,
  "典雅": 28,
  "级任务": 28,
  "加快": 28,
  "微小": 28,
  "狂": 28,
  "提取物": 28,
  "变身": 28,
  "寿命": 28,
  "年轻人": 28,
  "长椅": 28,
  "大致相同": 28,
  "对称": 28,
  "千年": 28,
  "飙升": 28,
  "卡扣": 28,
  "圆润": 28,
  "超越": 28,
  "纯净": 28,
  "珍珠": 28,
  "光学": 28,
  "设": 27,
  "铁": 27,
  "实在": 27,
  "an@@": 27,
  "赠": 27,
  "猎魔": 27,
  "飞升": 27,
  "一半": 27,
  "淡@@": 27,
  "荷叶": 27,
  "雪纺衫": 27,
  "班": 27,
  "c63": 27,
  "镇压": 27,
  "蒸汽": 27,
  "上去": 27,
  "帮战": 27,
  "秀发": 27,
  "甄选": 27,
  "纱": 27,
  "鞋跟": 27,
  "池": 27,
  "拾取": 27,
  "北": 27,
  "东方": 27,
  "之中": 27,
  "犹如": 27,
  "白纸": 27,
  "损坏": 27,
  "供": 27,
  "免伤": 27,
  "右@@": 27,
  "太阳能": 27,
  "缺": 27,
  "帮@@": 27,
  "楼": 27,
  "荔枝": 27,
  "星斗": 27,
  "中有": 27,
  "发质": 27,
  "指数": 27,
  "意见": 27,
  "证": 27,
  "触@@": 27,
  "卡片": 27,
  "唯美": 27,
  "你@@": 27,
  "乳": 27,
  "碧天莲羽": 27,
  "泡沫": 27,
  "始终": 27,
  "牛@@": 27,
  "板块": 27,
  "织": 27,
  "势": 27,
  "何@@": 27,
  "潮牌": 27,
  "5.@@": 27,
  "续费": 27,
  "包容": 27,
  "回家": 27,
  "哟": 27,
  "敌": 27,
  "三种": 27,
  "挑剔": 27,
  "产": 27,
  "功率": 27,
  "500%": 27,
  "帐号": 27,
  "加压": 27,
  "端@@": 27,
  "管道": 27,
  "翻@@": 27,
  "那种": 27,
  "异@@": 27,
  "贵": 27,
  "招募": 27,
  "通常": 27,
  "姐姐": 27,
  "少@@": 27,
  "肩@@": 27,
  "采取": 27,
  "工匠": 27,
  "积@@": 27,
  "伸缩": 27,
  "害": 27,
  "主袋": 27,
  "皱": 27,
  "袭": 27,
  "防臭": 27,
  "手提包": 27,
  "休闲裤": 27,
  "春秋": 27,
  "巧妙": 27,
  "增大": 27,
  "随心所欲": 27,
  "浏览": 27,
  "33%": 27,
  "小一码": 27,
  "紧实": 27,
  "飞行": 27,
  "含量": 27,
  "这片": 27,
  "刻@@": 27,
  "嘴唇": 27,
  "以免": 27,
  "流转": 27,
  "内衬": 27,
  "肌@@": 27,
  "硬度": 27,
  "脚踝": 27,
  "手洗": 27,
  "v@@": 27,
  "靠近": 27,
  "西亚": 27,
  "勾选": 27,
  "浅蓝": 27,
  "表格": 27,
  "巧克力": 27,
  "诉讼": 27,
  "反射": 27,
  "疑问": 27,
  "一整天": 27,
  "退": 27,
  "纯@@": 27,
  "偏高": 27,
  "600%": 27,
  "甲@@": 27,
  "乳@@": 27,
  "复合": 27,
  "灰@@": 27,
  "这件": 27,
  "养@@": 27,
  "喜@@": 27,
  "先生": 27,
  "因子": 27,
  "总计": 27,
  "白天": 27,
  "卫衣": 27,
  "7000": 27,
  "家居": 27,
  "测": 27,
  "松@@": 27,
  "草本": 27,
  "下午": 27,
  "道@@": 27,
  "刺": 27,
  "29": 27,
  "112": 27,
  "被@@": 27,
  "对象": 27,
  "小腿": 27,
  "演@@": 27,
  "本月": 27,
  "念": 27,
  "角@@": 27,
  "梦想": 27,
  "龙纹": 26,
  "浓@@": 26,
  "遇见": 26,
  "暴@@": 26,
  "战术": 26,
  "虎": 26,
  "庇护": 26,
  "笔记本电脑": 26,
  "颜值": 26,
  "古老": 26,
  "200@@": 26,
  "造@@": 26,
  "佩饰": 26,
  "公平": 26,
  "12.@@": 26,
  "透过": 26,
  "词": 26,
  "画面": 26,
  "食@@": 26,
  "罗林": 26,
  "圣谕": 26,
  "幻化": 26,
  "详情页": 26,
  "拉合": 26,
  "之战": 26,
  "之日起": 26,
  "万能": 26,
  "一边": 26,
  "佣兵": 26,
  "弹劾": 26,
  "箭": 26,
  "p": 26,
  "高阶": 26,
  "军@@": 26,
  "目@@": 26,
  "幻@@": 26,
  "柔美": 26,
  "糖": 26,
  "蚕丝": 26,
  "压迫": 26,
  "房": 26,
  "刀@@": 26,
  "防尘": 26,
  "户外运动": 26,
  "鞋内": 26,
  "球@@": 26,
  "入口": 26,
  "果@@": 26,
  "纸@@": 26,
  "理想": 26,
  "引@@": 26,
  "测定": 26,
  "点亮": 26,
  "魔幻": 26,
  "100000": 26,
  "碰撞": 26,
  "信仰": 26,
  "宝盒": 26,
  "施展": 26,
  "绅士": 26,
  "580": 26,
  "放下": 26,
  "极佳": 26,
  "掠夺": 26,
  "45@@": 26,
  "4.5%": 26,
  "老化": 26,
  "lo@@": 26,
  "@": 26,
  "明亮": 26,
  "神级": 26,
  "电子@@": 26,
  "简直": 26,
  "丛林": 26,
  "紧张": 26,
  "惬意": 26,
  "相当": 26,
  "拿@@": 26,
  "投票": 26,
  "汇聚": 26,
  "台@@": 26,
  "建设": 26,
  "摇@@": 26,
  "蜘蛛": 26,
  "移@@": 26,
  "爽": 26,
  "顺@@": 26,
  "竞争对手": 26,
  "熔岩": 26,
  "吃@@": 26,
  "经营": 26,
  "蛛": 26,
  "轴": 26,
  "作业": 26,
  "磨": 26,
  "神威": 26,
  "雨@@": 26,
  "种植": 26,
  "争@@": 26,
  "仙果": 26,
  "脑@@": 26,
  "祈愿": 26,
  "上乘": 26,
  "君": 26,
  "11%": 26,
  "玩@@": 26,
  "绝@@": 26,
  "补给": 26,
  "法院": 26,
  "脚步": 26,
  "梳": 26,
  "洁净": 26,
  "层数": 26,
  "视野": 26,
  "贴@@": 26,
  "重庆": 26,
  "排序": 26,
  "干什么": 26,
  "缔造": 26,
  "蜥蜴人": 26,
  "不留": 26,
  "菜": 26,
  "排除": 26,
  "奥术": 26,
  "距": 26,
  "音效": 26,
  "识别": 26,
  "涂": 26,
  "未经": 26,
  "98%": 26,
  "内侧": 26,
  "彩": 26,
  "l": 26,
  "插入": 26,
  "堆积": 26,
  "宝塔": 26,
  "今@@": 26,
  "形@@": 26,
  "将@@": 26,
  "代码": 26,
  "冬季": 26,
  "药@@": 26,
  "附@@": 26,
  "图示": 26,
  "包型": 26,
  "IN@@": 26,
  "应以": 26,
  "牌": 26,
  "一面": 26,
  "毫米": 26,
  "幽@@": 26,
  "鞋码": 26,
  "流苏": 26,
  "色板": 26,
  "绝世": 26,
  "创@@": 26,
  "宫": 26,
  "看见": 26,
  "隐私": 26,
  "之下": 26,
  "挺拔": 25,
  "牙刷": 25,
  "日常用品": 25,
  "图腾": 25,
  "电费": 25,
  "险": 25,
  "防震": 25,
  "灰色": 25,
  "隔层": 25,
  "200000": 25,
  "坐垫": 25,
  "射": 25,
  "收纳袋": 25,
  "柱": 25,
  "办公室": 25,
  "可选": 25,
  "初始化": 25,
  "～": 25,
  "此时": 25,
  "撒贡": 25,
  "连胜": 25,
  "眉@@": 25,
  "雷电": 25,
  "可靠": 25,
  "勾勒": 25,
  "断裂": 25,
  "配@@": 25,
  "全程": 25,
  "漩涡": 25,
  "清晰可见": 25,
  "怒": 25,
  "直购": 25,
  "夜@@": 25,
  "插槽": 25,
  "认@@": 25,
  "整": 25,
  "撕拉": 25,
  "一次性": 25,
  "曲": 25,
  "厂": 25,
  "利@@": 25,
  "回答": 25,
  "440": 25,
  "三角": 25,
  "后面": 25,
  "从容": 25,
  "专@@": 25,
  "炫彩": 25,
  "莫代尔": 25,
  "免@@": 25,
  "妆": 25,
  "忙": 25,
  "睡@@": 25,
  "送给": 25,
  "黄色": 25,
  "击退": 25,
  "705": 25,
  "感谢您": 25,
  "通天": 25,
  "此类": 25,
  "魂@@": 25,
  "kg": 25,
  "328": 25,
  "太极": 25,
  "二夫": 25,
  "冷": 25,
  "通": 25,
  "蒸发": 25,
  "10.@@": 25,
  "单词": 25,
  "轻质": 25,
  "材": 25,
  "洞": 25,
  "灭蚊": 25,
  "批准": 25,
  "脚臭": 25,
  "回去": 25,
  "欢乐": 25,
  "排名第": 25,
  "牛津布": 25,
  "负荷": 25,
  "禁锢": 25,
  "4.2": 25,
  "树@@": 25,
  "底板": 25,
  "基于": 25,
  "人间": 25,
  "毕竟": 25,
  "烟花": 25,
  "该@@": 25,
  "新陈代谢": 25,
  "症状": 25,
  "汗液": 25,
  "少量": 25,
  "按下": 25,
  "端午": 25,
  "npc": 25,
  "红名": 25,
  "天魔": 25,
  "翻领": 25,
  "保温": 25,
  "优美": 25,
  "萤之石": 25,
  "年龄": 25,
  "麦克风": 25,
  "鞋楦": 25,
  "冒险": 25,
  "瘦@@": 25,
  "午夜": 25,
  "疗效": 25,
  "玉": 25,
  "哥": 25,
  "925": 25,
  "民@@": 25,
  "首选": 25,
  "对照表": 25,
  "施工": 25,
  "乐趣": 25,
  "一名": 25,
  "823": 25,
  "魔龙": 25,
  "尽@@": 25,
  "布局": 25,
  "减抗光": 25,
  "一卡通": 25,
  "蛇": 25,
  "阶白": 25,
  "帐篷": 25,
  "隐@@": 25,
  "效应": 25,
  "对抗": 25,
  "筒": 25,
  "天罡": 25,
  "确实": 25,
  "拜托": 25,
  "每月": 25,
  "机器人": 25,
  "BUFF": 25,
  "大礼包": 25,
  "女生": 25,
  "34%": 25,
  "潮鞋": 25,
  "哪@@": 25,
  "嗨": 25,
  "抽奖": 25,
  "动物": 25,
  "英语": 25,
  "相邻": 25,
  "报": 25,
  "圣兽": 25,
  "救@@": 25,
  "阳": 25,
  "皮带": 25,
  "耐心": 25,
  "1080": 25,
  "闪烁": 25,
  "原告": 25,
  "十": 25,
  "称谓": 25,
  "偷@@": 25,
  "协助": 25,
  "滚动": 25,
  "仍然": 25,
  "久@@": 25,
  "探@@": 25,
  "利落": 24,
  "好鞋": 24,
  "的确": 24,
  "毛衣": 24,
  "熊": 24,
  "136": 24,
  "一支": 24,
  "早@@": 24,
  "命运": 24,
  "过期": 24,
  "蜂巢": 24,
  "545": 24,
  "阵营": 24,
  "背负": 24,
  "锁@@": 24,
  "模": 24,
  "犀": 24,
  "那样": 24,
  "一句": 24,
  "绝版": 24,
  "夜间": 24,
  "脱发": 24,
  "断@@": 24,
  "亚": 24,
  "坚硬": 24,
  "巴洛克": 24,
  "每层": 24,
  "做@@": 24,
  "震": 24,
  "精益求精": 24,
  "合法": 24,
  "城@@": 24,
  "晚宴": 24,
  "税@@": 24,
  "爆款": 24,
  "混乱": 24,
  "阳@@": 24,
  "恤": 24,
  "签订": 24,
  "魔帅": 24,
  "制鞋": 24,
  "妖怪": 24,
  "电子邮件": 24,
  "师@@": 24,
  "练": 24,
  "防刮": 24,
  "使@@": 24,
  "正面": 24,
  "枕头": 24,
  "权益": 24,
  "亦": 24,
  "华": 24,
  "卫": 24,
  "in@@": 24,
  "水中": 24,
  "肤质": 24,
  "驱蚊": 24,
  "沙域": 24,
  "圣使": 24,
  "一旦": 24,
  "蝎": 24,
  "1099": 24,
  "真武": 24,
  "涡流": 24,
  "登": 24,
  "表达": 24,
  "无忧": 24,
  "33": 24,
  "夹@@": 24,
  "便携式": 24,
  "轩辕": 24,
  "阶紫一星": 24,
  "纯银": 24,
  "社团": 24,
  "导@@": 24,
  "沐浴": 24,
  "加绒": 24,
  "重塑": 24,
  "在家": 24,
  "之上": 24,
  "对不起": 24,
  "60000": 24,
  "维生素": 24,
  "弟子": 24,
  "天凰彩羽": 24,
  "氧": 24,
  "治": 24,
  "3750": 24,
  "恐惧": 24,
  "域": 24,
  "290": 24,
  "摩擦力": 24,
  "商业": 24,
  "预警": 24,
  "维纳": 24,
  "150%": 24,
  "九": 24,
  "封@@": 24,
  "AN@@": 24,
  "卡通": 24,
  "助您": 24,
  "领地": 24,
  "屏": 24,
  "涉外": 24,
  "明明": 24,
  "补": 24,
  "五大": 24,
  "求@@": 24,
  "黑眼圈": 24,
  "使用方便": 24,
  "劣质": 24,
  "接听": 24,
  "零售": 24,
  "风雨": 24,
  "安全带": 24,
  "轮胎": 24,
  "日系": 24,
  "高跟鞋": 24,
  "扇形": 24,
  "连体": 24,
  "玩具": 24,
  "惊艳": 24,
  "公分": 24,
  "后续": 24,
  "蛊": 24,
  "姑娘": 24,
  "40000": 24,
  "奇@@": 24,
  "一字": 24,
  "毕业": 24,
  "工作人员": 24,
  "缺少": 24,
  "中文": 24,
  "柔顺": 24,
  "统一": 24,
  "真空": 24,
  "英寸": 24,
  "舒适性": 24,
  "降": 24,
  "尊享": 24,
  "切": 24,
  "菌": 24,
  "刮@@": 24,
  "不闷": 24,
  "弹@@": 24,
  "创世": 24,
  "涤纶": 24,
  "懂得": 24,
  "未知": 24,
  "天生": 24,
  "涂层": 24,
  "场@@": 24,
  "专享": 24,
  "正序": 24,
  "威@@": 24,
  "永不": 24,
  "速速": 24,
  "粉@@": 24,
  "耗@@": 24,
  "大礼": 24,
  "潜能": 24,
  "Ⅰ": 24,
  "意外": 24,
  "883": 24,
  "我国": 24,
  "顶": 24,
  "问@@": 24,
  "神魔": 24,
  "运@@": 24,
  "光彩": 24,
  "气场": 24,
  "混@@": 24,
  "诛仙": 24,
  "注意事项": 24,
  "更具": 24,
  "分割": 24,
  "终身": 24,
  "有害": 24,
  "裙摆": 24,
  "传奇": 24,
  "试穿": 23,
  "笑": 23,
  "掌控": 23,
  "213": 23,
  "全世界": 23,
  "茶": 23,
  "五夫": 23,
  "观察": 23,
  "居": 23,
  "我方": 23,
  "亲们": 23,
  "柔": 23,
  "黑魔": 23,
  "士@@": 23,
  "气味": 23,
  "1380": 23,
  "院": 23,
  "竞猜": 23,
  "洗衣机": 23,
  "示意图": 23,
  "缝": 23,
  "4.1": 23,
  "扫@@": 23,
  "银离子": 23,
  "芯": 23,
  "全景": 23,
  "超出": 23,
  "之门": 23,
  "各大": 23,
  "酸痛": 23,
  "留言": 23,
  "1888": 23,
  "驯兽师": 23,
  "26@@": 23,
  "认识": 23,
  "概念": 23,
  "螨虫": 23,
  "得出": 23,
  "就@@": 23,
  "穿越": 23,
  "开合": 23,
  "签发": 23,
  "Ⅱ": 23,
  "铸红": 23,
  "仙女": 23,
  "母@@": 23,
  "独@@": 23,
  "网面": 23,
  "湿气": 23,
  "隔离": 23,
  "附": 23,
  "指引": 23,
  "舞@@": 23,
  "特有": 23,
  "曼谷": 23,
  "模组": 23,
  "战争": 23,
  "硬@@": 23,
  "矿物": 23,
  "教育": 23,
  "64": 23,
  "纳@@": 23,
  "300%": 23,
  "他人": 23,
  "团长": 23,
  "景点": 23,
  "主页": 23,
  "十夫长": 23,
  "跳@@": 23,
  "大大": 23,
  "河": 23,
  "静音": 23,
  "币": 23,
  "4.@@": 23,
  "盛装": 23,
  "软件": 23,
  "待机": 23,
  "点燃": 23,
  "撤销": 23,
  "等@@": 23,
  "长达": 23,
  "三夫": 23,
  "时会": 23,
  "51": 23,
  "开机": 23,
  "弯折": 23,
  "粉刺": 23,
  "炎龙": 23,
  "晋升": 23,
  "公斤": 23,
  "浓淡": 23,
  "上架": 23,
  "水晶石": 23,
  "口腔": 23,
  "影@@": 23,
  "雕像": 23,
  "角落": 23,
  "回流": 23,
  "洗手": 23,
  "2.0": 23,
  "模型": 23,
  "重核": 23,
  "采购": 23,
  "林": 23,
  "遮挡": 23,
  "哭": 23,
  "建": 23,
  "信用卡": 23,
  "天堂": 23,
  "尔@@": 23,
  "终@@": 23,
  "往往": 23,
  "售价": 23,
  "181": 23,
  "PP": 23,
  "食品级": 23,
  "承重": 23,
  "迹": 23,
  "乃": 23,
  "510": 23,
  "突袭": 23,
  "安静": 23,
  "意识": 23,
  "开叉": 23,
  "赛尔": 23,
  "醒": 23,
  "聚酯纤维": 23,
  "198": 23,
  "螺纹": 23,
  "拉链袋": 23,
  "另一方": 23,
  "仙魔": 23,
  "此处": 23,
  "第名": 23,
  "生意": 23,
  "类似": 23,
  "较@@": 23,
  "扬声器": 23,
  "绝命": 23,
  "每一处": 23,
  "两次": 23,
  "文案": 23,
  "结": 23,
  "不敢": 23,
  "阻挡": 23,
  "招@@": 23,
  "咲太": 23,
  "一路": 23,
  "成立": 23,
  "其他人": 23,
  "之外": 23,
  "麻痹": 23,
  "善良": 23,
  "扩散": 23,
  "充气": 23,
  "格格": 23,
  "星圣盾": 23,
  "民": 23,
  "秋@@": 23,
  "笔记": 23,
  "桌面": 23,
  "奖": 23,
  "无可": 23,
  "交": 23,
  "缓": 23,
  "方便快捷": 23,
  "级@@": 23,
  "意义": 23,
  "原则": 23,
  "若@@": 23,
  "散落": 23,
  "解放": 23,
  "15000": 23,
  "混乱状态": 23,
  "漆": 23,
  "营造": 23,
  "伺服": 23,
  "事实": 23,
  "调度": 23,
  "32%": 23,
  "开衫": 23,
  "兼具": 23,
  "静电": 23,
  "道工序": 23,
  "修长": 23,
  "胸前": 23,
  "之城": 23,
  "为何": 23,
  "磁扣": 23,
  "归": 23,
  "3450": 23,
  "偏小": 23,
  "击破": 23,
  "滴": 23,
  "手套": 23,
  "仔细": 23,
  "裂": 23,
  "很快": 23,
  "息": 23,
  "神格": 23,
  "磁@@": 23,
  "搬": 23,
  "最早": 23,
  "美腿": 23,
  "摆@@": 23,
  "破绽": 23,
  "闪@@": 23,
  "米莉姆": 23,
  "食品": 23,
  "藏宝图": 22,
  "梦@@": 22,
  "太阳": 22,
  "凤@@": 22,
  "无尽": 22,
  "类@@": 22,
  "极大": 22,
  "仙丹": 22,
  "负@@": 22,
  "明曜石": 22,
  "镶": 22,
  "文明": 22,
  "答案": 22,
  "主城": 22,
  "425": 22,
  "然@@": 22,
  "疼": 22,
  "黑名单": 22,
  "齐@@": 22,
  "er@@": 22,
  "焚烧炉": 22,
  "塔@@": 22,
  "发射": 22,
  "宽@@": 22,
  "炫酷": 22,
  "摧毁": 22,
  "120%": 22,
  "空中": 22,
  "娱乐": 22,
  "护体": 22,
  "凝聚": 22,
  "魂石": 22,
  "及@@": 22,
  "废弃": 22,
  "期@@": 22,
  "村": 22,
  "罪": 22,
  "四个": 22,
  "权杖": 22,
  "系统故障": 22,
  "献祭": 22,
  "撕裂": 22,
  "步@@": 22,
  "物件": 22,
  "侵权": 22,
  "腹肌": 22,
  "七彩": 22,
  "急@@": 22,
  "一段": 22,
  "义": 22,
  "发挥": 22,
  "大一码": 22,
  "染": 22,
  "优秀": 22,
  "祛痘": 22,
  "服@@": 22,
  "差@@": 22,
  "插件": 22,
  "亚@@": 22,
  "留": 22,
  "炉渣": 22,
  "小孩": 22,
  "润": 22,
  "有助于": 22,
  "告@@": 22,
  "330": 22,
  "久坐": 22,
  "市@@": 22,
  "可怕": 22,
  "体系": 22,
  "眼前": 22,
  "血管": 22,
  "付费": 22,
  "精油": 22,
  "更大": 22,
  "第二层": 22,
  "气氛": 22,
  "78": 22,
  "仙戒": 22,
  "知性": 22,
  "强袭": 22,
  "推": 22,
  "指南": 22,
  "简": 22,
  "重击": 22,
  "哪儿": 22,
  "我来": 22,
  "短按": 22,
  "te@@": 22,
  "300@@": 22,
  "行车": 22,
  "大学": 22,
  "受击": 22,
  "川律": 22,
  "瑕疵": 22,
  "680": 22,
  "早上": 22,
  "橄榄": 22,
  "95": 22,
  "格雷戈里": 22,
  "盔": 22,
  "差距": 22,
  "展开": 22,
  "同一个": 22,
  "保密": 22,
  "2830": 22,
  "西": 22,
  "k": 22,
  "加持": 22,
  "零@@": 22,
  "星魂": 22,
  "编制": 22,
  "min": 22,
  "均衡": 22,
  "x1": 22,
  "花纹": 22,
  "集福": 22,
  "船": 22,
  "附魔书": 22,
  "堵塞": 22,
  "孤星": 22,
  "层次": 22,
  "闪电": 22,
  "另外": 22,
  "蚊": 22,
  "凌@@": 22,
  "程": 22,
  "潮人": 22,
  "菲尼克斯": 22,
  "金品": 22,
  "守": 22,
  "承托": 22,
  "铺子": 22,
  "污渍": 22,
  "壁垒": 22,
  "黑色素": 22,
  "哪怕": 22,
  "驾车": 22,
  "向上": 22,
  "擦拭": 22,
  "不得不": 22,
  "母": 22,
  "闪": 22,
  "手指": 22,
  "3.2": 22,
  "友": 22,
  "遗@@": 22,
  "薄@@": 22,
  "床@@": 22,
  "组@@": 22,
  "数据@@": 22,
  "持": 22,
  "痕": 22,
  "分泌": 22,
  "安全@@": 22,
  "张@@": 22,
  "Google": 22,
  "注@@": 22,
  "成功率": 22,
  "照射": 22,
  "言@@": 22,
  "知识产权": 22,
  "比如": 22,
  "重铸": 22,
  "丽": 22,
  "命令": 22,
  "已用": 22,
  "325": 22,
  "底座": 22,
  "190": 22,
  "地位": 22,
  "奇遇": 22,
  "春季": 22,
  "心脏": 22,
  "认真": 22,
  "1300": 22,
  "而已": 22,
  "圣盾": 22,
  "星驱": 22,
  "3500": 22,
  "朵": 22,
  "传递": 22,
  "狂@@": 22,
  "消灭": 22,
  "咖啡": 22,
  "GB": 22,
  "画@@": 22,
  "烧@@": 22,
  "腾讯": 22,
  "高中": 22,
  "证@@": 22,
  "句子": 22,
  "规模": 22,
  "哥哥": 22,
  "一目了然": 22,
  "待@@": 22,
  "海底": 22,
  "激光": 22,
  "肌底": 22,
  "洗礼": 22,
  "规范": 22,
  "还@@": 22,
  "星圣愈": 22,
  "虚空": 22,
  "2700": 22,
  "卖@@": 22,
  "造就": 22,
  "625": 22,
  "才@@": 21,
  "凝@@": 21,
  "失眠": 21,
  "镰": 21,
  "螺丝": 21,
  "65%": 21,
  "导向": 21,
  "烈阳": 21,
  "轻奢": 21,
  "降妖": 21,
  "挂@@": 21,
  "85%": 21,
  "便于": 21,
  "荒@@": 21,
  "有个": 21,
  "后悔": 21,
  "讲@@": 21,
  "戒": 21,
  "29@@": 21,
  "秘@@": 21,
  "花边": 21,
  "橙红": 21,
  "精工": 21,
  "一块": 21,
  "道友": 21,
  "用料": 21,
  "丰泉": 21,
  "05": 21,
  "c44": 21,
  "春": 21,
  "防磨": 21,
  "窗": 21,
  "福": 21,
  "臃肿": 21,
  "挂钩": 21,
  "信赖": 21,
  "考究": 21,
  "叶@@": 21,
  "路径": 21,
  "Q@@": 21,
  "霉菌": 21,
  "仿真": 21,
  "薄雾": 21,
  "三十": 21,
  "层@@": 21,
  "帮主": 21,
  "魔化": 21,
  "翘": 21,
  "运气": 21,
  "走时": 21,
  "悬浮": 21,
  "决战": 21,
  "设@@": 21,
  "产业": 21,
  "650": 21,
  "收取": 21,
  "除魔": 21,
  "频繁": 21,
  "强击": 21,
  "火种": 21,
  "绑": 21,
  "身份证": 21,
  "彩色": 21,
  "剪@@": 21,
  "除臭": 21,
  "荡": 21,
  "早已": 21,
  "气体": 21,
  "卷发": 21,
  "钢蓝": 21,
  "修": 21,
  "成像": 21,
  "砖红": 21,
  "苦": 21,
  "报表": 21,
  "阴雨": 21,
  "帮忙": 21,
  "37@@": 21,
  "必": 21,
  "衰老": 21,
  "幕": 21,
  "追": 21,
  "顺利": 21,
  "特价": 21,
  "繁@@": 21,
  "云顶": 21,
  "射线": 21,
  "五层": 21,
  "极光": 21,
  "冰箱": 21,
  "600000": 21,
  "朱雀": 21,
  "无畏": 21,
  "斗@@": 21,
  "思考": 21,
  "448": 21,
  "脸形": 21,
  "活着": 21,
  "鬼神": 21,
  "谈@@": 21,
  "缓@@": 21,
  "响应": 21,
  "形状": 21,
  "刺@@": 21,
  "高挑": 21,
  "深受": 21,
  "代价": 21,
  "母亲": 21,
  "普@@": 21,
  "有害物质": 21,
  "线下": 21,
  "教堂": 21,
  "上升": 21,
  "欣赏": 21,
  "荒原": 21,
  "样品": 21,
  "一股": 21,
  "镇@@": 21,
  "痛苦": 21,
  "灵山": 21,
  "优@@": 21,
  "正是": 21,
  "36@@": 21,
  "经得起": 21,
  "1298": 21,
  "晶": 21,
  "省力": 21,
  "吊带": 21,
  "违反": 21,
  "刻": 21,
  "镀膜": 21,
  "邮@@": 21,
  "拉丝": 21,
  "导师": 21,
  "鲲鹏": 21,
  "塞@@": 21,
  "落实": 21,
  "本来": 21,
  "负责人": 21,
  "五星": 21,
  "签字": 21,
  "西装": 21,
  "1180": 21,
  "唤": 21,
  "蛋白": 21,
  "结界": 21,
  "648": 21,
  "触": 21,
  "为止": 21,
  "争议": 21,
  "129": 21,
  "嘲讽": 21,
  "清单": 21,
  "li@@": 21,
  "江@@": 21,
  "头皮": 21,
  "爆发": 21,
  "大概": 21,
  "突显": 21,
  "技术@@": 21,
  "表壳": 21,
  "诛神": 21,
  "腹@@": 21,
  "公交": 21,
  "只会": 21,
  "加倍": 21,
  "350%": 21,
  "37": 21,
  "百年": 21,
  "驾驶": 21,
  "晶@@": 21,
  "面板": 21,
  "警@@": 21,
  "宁静": 21,
  "课程": 21,
  "定时": 21,
  "秋季": 21,
  "牛筋": 21,
  "动感": 21,
  "不屈": 21,
  "低温": 21,
  "通风": 21,
  "医用": 21,
  "或@@": 21,
  "180%": 21,
  "怎么回事": 21,
  "羡慕": 21,
  "中医": 21,
  "倾@@": 21,
  "急速": 21,
  "最小": 21,
  "日常生活": 21,
  "望远镜": 21,
  "分段": 21,
  "抗氧化": 21,
  "鼻@@": 21,
  "步伐": 21,
  "瑜伽": 21,
  "祖母绿": 21,
  "我能": 21,
  "祈祷": 21,
  "雾": 21,
  "巡逻": 21,
  "鱼@@": 21,
  "置": 21,
  "精工细作": 21,
  "le": 21,
  "优异": 21,
  "一转": 21,
  "仙子": 21,
  "上来": 21,
  "痒": 21,
  "分流": 21,
  "拆@@": 21,
  "确@@": 21,
  "通行证": 21,
  "星狂": 21,
  "腰椎": 21,
  "胜@@": 21,
  "39": 21,
  "楼@@": 21,
  "中空": 21,
  "带上": 21,
  "售": 21,
  "闻": 21,
  "脚气": 21,
  "3.1": 21,
  "赶快": 21,
  "发送给": 21,
  "多色": 21,
  "误@@": 21,
  "假释": 20,
  "精读": 20,
  "聚集": 20,
  "询盘": 20,
  "无袖": 20,
  "由此": 20,
  "牢度": 20,
  "溢出": 20,
  "居住": 20,
  "风靡": 20,
  "流星": 20,
  "结晶": 20,
  "油蜡": 20,
  "著名": 20,
  "体积": 20,
  "读@@": 20,
  "枫叶": 20,
  "袭击": 20,
  "码@@": 20,
  "乐": 20,
  "喔": 20,
  "编@@": 20,
  "抹": 20,
  "安": 20,
  "袜": 20,
  "跨境": 20,
  "羽毛": 20,
  "矿物质": 20,
  "州": 20,
  "275": 20,
  "推广": 20,
  "专门": 20,
  "沉稳": 20,
  "还会": 20,
  "口气": 20,
  "灵羽": 20,
  "二层": 20,
  "扩展": 20,
  "忘@@": 20,
  "查": 20,
  "丽@@": 20,
  "原始": 20,
  "一抹": 20,
  "邪": 20,
  "斑@@": 20,
  "废气": 20,
  "大型": 20,
  "罪恶": 20,
  "紧贴": 20,
  "禁": 20,
  "三大": 20,
  "前去": 20,
  "卧室": 20,
  "麒麟": 20,
  "旁边": 20,
  "风景": 20,
  "TF": 20,
  "真人": 20,
  "润@@": 20,
  "壁@@": 20,
  "洁": 20,
  "跟@@": 20,
  "袖@@": 20,
  "55%": 20,
  "地下": 20,
  "之龙": 20,
  "内在": 20,
  "祛除": 20,
  "大众": 20,
  "粒": 20,
  "个性化": 20,
  "口径": 20,
  "荆棘": 20,
  "西米亚": 20,
  "去@@": 20,
  "服用": 20,
  "96%": 20,
  "召回": 20,
  "操控": 20,
  "旗袍": 20,
  "无数": 20,
  "喂": 20,
  "长裤": 20,
  "储值": 20,
  "框": 20,
  "球形": 20,
  "香水": 20,
  "南": 20,
  "取得": 20,
  "鹿": 20,
  "滑动": 20,
  "ti@@": 20,
  "拖@@": 20,
  "撒旦": 20,
  "场所": 20,
  "着@@": 20,
  "参@@": 20,
  "核@@": 20,
  "想到": 20,
  "考核": 20,
  "东": 20,
  "增": 20,
  "广泛": 20,
  "108": 20,
  "公主": 20,
  "泥@@": 20,
  "洗澡": 20,
  "台湾": 20,
  "区@@": 20,
  "摸": 20,
  "帆布鞋": 20,
  "划@@": 20,
  "究竟": 20,
  "便是": 20,
  "战胜": 20,
  "猿王": 20,
  "以来": 20,
  "歌剧": 20,
  "牙膏": 20,
  "碰": 20,
  "高兴": 20,
  "精心设计": 20,
  "达人": 20,
  "石头": 20,
  "纺织": 20,
  "动人": 20,
  "平稳": 20,
  "连击": 20,
  "吊坠": 20,
  "修剪": 20,
  "三年": 20,
  "极强": 20,
  "摩@@": 20,
  "化妆": 20,
  "乐器": 20,
  "那家伙": 20,
  "鼻子": 20,
  "精良": 20,
  "恰到好处": 20,
  "病毒": 20,
  "兵团": 20,
  "抵消": 20,
  "坐@@": 20,
  "不必": 20,
  "专柜": 20,
  "凭证": 20,
  "苦@@": 20,
  "杯@@": 20,
  "回弹性": 20,
  "功力": 20,
  "饭": 20,
  "了@@": 20,
  "st@@": 20,
  "4393": 20,
  "出战": 20,
  "退回": 20,
  "止": 20,
  "365": 20,
  "赔偿": 20,
  "肥胖": 20,
  "魔尊": 20,
  "七天": 20,
  "照顾": 20,
  "亿": 20,
  "－": 20,
  "陪伴": 20,
  "维鲁": 20,
  "考试": 20,
  "修正": 20,
  "无比": 20,
  "EMS": 20,
  "总之": 20,
  "案": 20,
  "121": 20,
  "原材料": 20,
  "倒序": 20,
  "产品名称": 20,
  "工厂": 20,
  "发热": 20,
  "公爵": 20,
  "露出": 20,
  "摩登": 20,
  "铜": 20,
  "曲@@": 20,
  "激@@": 20,
  "繁琐": 20,
  "是从": 20,
  "迷彩": 20,
  "w": 20,
  "田": 20,
  "泰坦": 20,
  "说明书": 20,
  "再来": 20,
  "超纤": 20,
  "通讯": 20,
  "美体": 20,
  "改良": 20,
  "AR@@": 20,
  "唇": 20,
  "最为": 20,
  "用户名": 20,
  "留在": 20,
  "璀璨": 20,
  "爱心": 20,
  "静@@": 20,
  "见到": 20,
  "压缩": 20,
  "布鞋": 20,
  "存@@": 20,
  "限定": 20,
  "本轮": 20,
  "软化": 20,
  "越大": 20,
  "72": 20,
  "不规则": 20,
  "至今": 20,
  "问战": 20,
  "一部分": 20,
  "绝不": 20,
  "德拉": 20,
  "派对": 20,
  "控@@": 20,
  "储罐": 20,
  "汉字": 20,
  "业@@": 20,
  "浏览器": 20,
  "197": 20,
  "反噬": 20,
  "有所": 20,
  "温水": 20,
  "小肚腩": 20,
  "夔": 20,
  "815": 20,
  "草@@": 20,
  "阵@@": 20,
  "碎": 20,
  "局部": 20,
  "0.02": 20,
  "热销": 20,
  "666": 20,
  "协商": 20,
  "7826": 20,
  "早就": 20,
  "咒怨": 20,
  "传感器": 20,
  "码为": 20,
  "四大": 20,
  "实体": 20,
  "效": 20,
  "54%": 20,
  "留意": 20,
  "爆@@": 20,
  "灵力": 20,
  "签署": 20,
  "处在": 20,
  "本周": 20,
  "合计": 20,
  "56%": 20,
  "欧@@": 20,
  "勿": 19,
  "119": 19,
  "赐予": 19,
  "护肤品": 19,
  "正确率": 19,
  "王者": 19,
  "门票": 19,
  "电话号码": 19,
  "节奏": 19,
  "出游": 19,
  "小白鞋": 19,
  "畅快": 19,
  "盘@@": 19,
  "脚跟": 19,
  "1299": 19,
  "锌": 19,
  "s%": 19,
  "损害": 19,
  "550": 19,
  "吃饭": 19,
  "穿鞋": 19,
  "鼎鼎": 19,
  "爷爷": 19,
  "漏": 19,
  "直径": 19,
  "委员会": 19,
  "浅": 19,
  "排毒": 19,
  "私人": 19,
  "138": 19,
  "从未": 19,
  "上古": 19,
  "异次元": 19,
  "尘@@": 19,
  "11.@@": 19,
  "出差": 19,
  "景": 19,
  "丰满": 19,
  "美观大方": 19,
  "缩": 19,
  "节@@": 19,
  "570": 19,
  "185": 19,
  "唯有": 19,
  "348": 19,
  "不掉": 19,
  "惹": 19,
  "QQ": 19,
  "1315": 19,
  "固@@": 19,
  "费@@": 19,
  "行者": 19,
  "资@@": 19,
  "轮@@": 19,
  "半身裙": 19,
  "盒子": 19,
  "独角兽": 19,
  "丹灵": 19,
  "超高": 19,
  "107": 19,
  "斑点": 19,
  "青睐": 19,
  "巨惠": 19,
  "强效": 19,
  "学会": 19,
  "345": 19,
  "抽绳": 19,
  "猎物": 19,
  "38": 19,
  "全自动": 19,
  "滤芯": 19,
  "滑落": 19,
  "过多": 19,
  "SH@@": 19,
  "不磨脚": 19,
  "垂@@": 19,
  "性质": 19,
  "高科技": 19,
  "双仅": 19,
  "回收": 19,
  "1090": 19,
  "杜": 19,
  "层层": 19,
  "强者": 19,
  "剑锋": 19,
  "轨道": 19,
  "精确": 19,
  "MD": 19,
  "晋级": 19,
  "严@@": 19,
  "→": 19,
  "游": 19,
  "谷": 19,
  "转动": 19,
  "神石": 19,
  "不如": 19,
  "鲁@@": 19,
  "交付": 19,
  "寄@@": 19,
  "移": 19,
  "时尚界": 19,
  "备": 19,
  "招": 19,
  "遗物": 19,
  "星破甲": 19,
  "达标": 19,
  "拖动": 19,
  "缝纫": 19,
  "列@@": 19,
  "论": 19,
  "区分": 19,
  "中断": 19,
  "喜好": 19,
  "友情": 19,
  "著": 19,
  "感知": 19,
  "助@@": 19,
  "随便": 19,
  "很强": 19,
  "千": 19,
  "极具": 19,
  "照明": 19,
  "疫情": 19,
  "礼服": 19,
  "涂@@": 19,
  "联@@": 19,
  "联系人": 19,
  "前置": 19,
  "升@@": 19,
  "卷@@": 19,
  "罐": 19,
  "缩@@": 19,
  "霸主": 19,
  "售完": 19,
  "渣": 19,
  "管委会": 19,
  "52%": 19,
  "炎热": 19,
  "抽": 19,
  "旁": 19,
  "酶": 19,
  "拯救": 19,
  "万物": 19,
  "填@@": 19,
  "不伤": 19,
  "46": 19,
  "轮回": 19,
  "笑容": 19,
  "耐洗": 19,
  "登@@": 19,
  "下装": 19,
  "金镐": 19,
  "450%": 19,
  "相伴": 19,
  "587": 19,
  "星星": 19,
  "观@@": 19,
  "多彩": 19,
  "号@@": 19,
  "据": 19,
  "计@@": 19,
  "co@@": 19,
  "恐怖": 19,
  "品@@": 19,
  "养护": 19,
  "射@@": 19,
  "菱格": 19,
  "扎肯": 19,
  "洞府": 19,
  "判定": 19,
  "十年": 19,
  "皇": 19,
  "掌@@": 19,
  "胃": 19,
  "购电人": 19,
  "高速": 19,
  "绕": 19,
  "旧@@": 19,
  "垂直": 19,
  "禁用": 19,
  "面前": 19,
  "爸爸": 19,
  "可达": 19,
  "115": 19,
  "纤@@": 19,
  "增值税": 19,
  "策略": 19,
  "一站": 19,
  "手术": 19,
  "杜绝": 19,
  "不但": 19,
  "社": 19,
  "聚合物": 19,
  "前来": 19,
  "西方": 19,
  "七分": 19,
  "美味": 19,
  "直线": 19,
  "托特": 19,
  "负": 19,
  "足以": 19,
  "霜@@": 19,
  "监督": 19,
  "一本": 19,
  "延期": 19,
  "盖@@": 19,
  "美美": 19,
  "媒体": 19,
  "双面胶": 19,
  "答应": 19,
  "OK": 19,
  "安全区": 19,
  "依旧": 19,
  "听歌": 19,
  "合体": 19,
  "共有": 19,
  "守@@": 19,
  "c3": 19,
  "全民": 19,
  "超长": 19,
  "梵海": 19,
  "拍@@": 19,
  "部件": 19,
  "泥": 19,
  "烤": 19,
  "新加坡": 19,
  "睫毛": 19,
  "纸巾": 19,
  "250%": 19,
  "搭@@": 19,
  "密保": 19,
  "u": 19,
  "血色": 19,
  "许愿": 19,
  "蓄@@": 19,
  "女儿": 19,
  "节省": 19,
  "周长": 19,
  "可调": 19,
  "1.75%": 19,
  "小衫": 19,
  "次日": 19,
  "鲲": 19,
  "慵懒": 19,
  "神力": 19,
  "分贝": 19,
  "2650": 19,
  "人手": 19,
  "有利于": 19,
  "碎@@": 19,
  "利益": 19,
  "2250": 19,
  "星元": 19,
  "泄漏": 19,
  "未能": 19,
  "废": 19,
  "放心使用": 19,
  "鸡": 19,
  "活跃度": 19,
  "任性": 19,
  "2595": 19,
  "454": 19,
  "香港": 19,
  "烈焰": 19,
  "第四@@": 19,
  "门店": 19,
  "落地": 19,
  "击@@": 19,
  "雅致": 19,
  "邪灵": 19,
  "哼": 19,
  "祛@@": 19,
  "长绒棉": 19,
  "七分裤": 19,
  "碎花": 19,
  "工作日": 19,
  "历史记录": 19,
  "车缝": 19,
  "余额": 18,
  "黑夜": 18,
  "IP": 18,
  "机率": 18,
  "00000": 18,
  "税": 18,
  "法令": 18,
  "太古": 18,
  "养成": 18,
  "较为": 18,
  "远方": 18,
  "综合": 18,
  "觉": 18,
  "风潮": 18,
  "主义": 18,
  "自爆": 18,
  "拉扯": 18,
  "耀眼": 18,
  "复述": 18,
  "168": 18,
  "钛": 18,
  "众": 18,
  "闯关": 18,
  "分身": 18,
  "颜": 18,
  "腰头": 18,
  "便@@": 18,
  "着装": 18,
  "喝": 18,
  "9356": 18,
  "绝品": 18,
  "备@@": 18,
  "双向": 18,
  "多么": 18,
  "服务@@": 18,
  "护发": 18,
  "功能性": 18,
  "爽滑": 18,
  "暴晒": 18,
  "稍微": 18,
  "原来如此": 18,
  "激情": 18,
  "磁疗": 18,
  "混合": 18,
  "传送门": 18,
  "表明": 18,
  "仙石": 18,
  "内涵": 18,
  "晾晒": 18,
  "等于": 18,
  "细小": 18,
  "当地": 18,
  "畅享": 18,
  "靴": 18,
  "休@@": 18,
  "鼠标": 18,
  "心中": 18,
  "大长": 18,
  "风采": 18,
  "奥": 18,
  "喷": 18,
  "剩下": 18,
  "地上": 18,
  "照": 18,
  "摆": 18,
  "外界": 18,
  "牵@@": 18,
  "一共": 18,
  "现金": 18,
  "评估": 18,
  "红宝石": 18,
  "导": 18,
  "相遇": 18,
  "冠军赛": 18,
  "面具": 18,
  "试": 18,
  "尼亚": 18,
  "发丝": 18,
  "选任": 18,
  "仆从": 18,
  "4D": 18,
  "网址": 18,
  "供@@": 18,
  "跳过": 18,
  "进来": 18,
  "49": 18,
  "直至": 18,
  "超时": 18,
  "冰凉": 18,
  "之主": 18,
  "耗": 18,
  "羊奶": 18,
  "地铁": 18,
  "一副": 18,
  "洁@@": 18,
  "猛": 18,
  "魔灵": 18,
  "光亮": 18,
  "仅限": 18,
  "产@@": 18,
  "稳@@": 18,
  "止@@": 18,
  "突@@": 18,
  "本店": 18,
  "臀@@": 18,
  "团@@": 18,
  "症": 18,
  "句": 18,
  "柔软度": 18,
  "插@@": 18,
  "美学": 18,
  "社@@": 18,
  "朗读": 18,
  "讲究": 18,
  "低阶": 18,
  "大脑": 18,
  "讲": 18,
  "抓@@": 18,
  "固体废物": 18,
  "安全性": 18,
  "鞋款": 18,
  "多用": 18,
  "强韧": 18,
  "幻": 18,
  "歌曲": 18,
  "票": 18,
  "单价": 18,
  "玄女": 18,
  "防守": 18,
  "盛@@": 18,
  "舒心": 18,
  "耐高温": 18,
  "秋装": 18,
  "软皮": 18,
  "举": 18,
  "量身": 18,
  "遮@@": 18,
  "光泽度": 18,
  "古代": 18,
  "置@@": 18,
  "挽@@": 18,
  "骨盆": 18,
  "屏障": 18,
  "寓意": 18,
  "爆棚": 18,
  "对照": 18,
  "成品": 18,
  "38%": 18,
  "神灵": 18,
  "搞@@": 18,
  "物体": 18,
  "尽管": 18,
  "容@@": 18,
  "师父": 18,
  "讨厌": 18,
  "眠": 18,
  "扭曲": 18,
  "名媛": 18,
  "挥舞": 18,
  "殿试": 18,
  "挺胸": 18,
  "小编": 18,
  "加粗": 18,
  "些许": 18,
  "箭雨": 18,
  "铸": 18,
  "热水": 18,
  "来看": 18,
  "攻@@": 18,
  "4800": 18,
  "整理": 18,
  "视角": 18,
  "广角": 18,
  "锁边": 18,
  "睡衣": 18,
  "健@@": 18,
  "465": 18,
  "安卓": 18,
  "帅": 18,
  "生气": 18,
  "胡子": 18,
  "丢失": 18,
  "缝@@": 18,
  "第二@@": 18,
  "缤纷": 18,
  "馈赠": 18,
  "任何一方": 18,
  "答": 18,
  "沟通": 18,
  "蛮": 18,
  "夹克": 18,
  "贤者": 18,
  "医院": 18,
  "功": 18,
  "人民币": 18,
  "房@@": 18,
  "发票": 18,
  "骑行": 18,
  "蚊帐": 18,
  "公海": 18,
  "日志": 18,
  "铝@@": 18,
  "CO@@": 18,
  "瑞士": 18,
  "这边": 18,
  "按@@": 18,
  "配备": 18,
  "577": 18,
  "998": 18,
  "惊人": 18,
  "硬朗": 18,
  "协调": 18,
  "破损": 18,
  "枚": 18,
  "任@@": 18,
  "拔": 18,
  "370": 18,
  "月明": 18,
  "晒": 18,
  "防蚊": 18,
  "雕刻": 18,
  "打扰": 18,
  "声望": 18,
  "并非": 18,
  "每场": 18,
  "海边": 18,
  "涨": 18,
  "满满": 18,
  "女人味": 18,
  "7450": 18,
  "145": 18,
  "外穿": 18,
  "雅@@": 18,
  "七日": 18,
  "益处": 18,
  "公共": 18,
  "临": 18,
  "破防": 18,
  "回忆": 18,
  "车型": 18,
  "脖子": 18,
  "冲击": 18,
  "有序": 18,
  "尼@@": 18,
  "新闻": 18,
  "贵@@": 18,
  "林@@": 18,
  "汞": 18,
  "锁扣": 18,
  "一处": 18,
  "0.25%": 18,
  "求求": 18,
  "核": 18,
  "罐@@": 18,
  "床垫": 18,
  "2.1": 18,
  "完@@": 18,
  "尖@@": 18,
  "之物": 18,
  "性格": 18,
  "指示灯": 18,
  "晒@@": 18,
  "347": 18,
  "三百": 18,
  "雕塑": 18,
  "寒@@": 18,
  "前台": 18,
  "测@@": 18,
  "03": 18,
  "前端": 18,
  "烂": 18,
  "网页": 18,
  "四周": 18,
  "66": 18,
  "填充": 18,
  "所谓": 18,
  "沙": 18,
  "字数": 18,
  "猜": 18,
  "每人": 18,
  "码数": 18,
  "丰@@": 18,
  "违规": 18,
  "反": 18,
  "密码保护": 18,
  "替": 18,
  "表层": 18,
  "吊@@": 18,
  "魅力值": 18,
  "擅长": 18,
  "不住": 18,
  "购物车": 18,
  "巾": 18,
  "武@@": 18,
  "停留": 18,
  "锅": 18,
  "巨龙": 18,
  "拔@@": 18,
  "热爱": 18,
  "野": 18,
  "ur@@": 18,
  "关键词": 18,
  "小伙伴": 18,
  "脸@@": 17,
  "战骑": 17,
  "智能手机": 17,
  "or@@": 17,
  "拉大": 17,
  "气囊": 17,
  "端庄": 17,
  "无聊": 17,
  "内胆": 17,
  "家具": 17,
  "固化": 17,
  "劲": 17,
  "三千": 17,
  "腕带": 17,
  "砸": 17,
  "上方": 17,
  "坑": 17,
  "万夫长": 17,
  "承@@": 17,
  "再说": 17,
  "宽窄": 17,
  "⼈": 17,
  "达@@": 17,
  "恐怕": 17,
  "街@@": 17,
  "防控": 17,
  "43%": 17,
  "合服": 17,
  "输入您": 17,
  "4100": 17,
  "切勿": 17,
  "监@@": 17,
  "古树": 17,
  "盾牌": 17,
  "售卖": 17,
  "外侧": 17,
  "上级": 17,
  "基": 17,
  "高雅": 17,
  "织带": 17,
  "吞@@": 17,
  "录音": 17,
  "重视": 17,
  "鸿运": 17,
  "152": 17,
  "有误": 17,
  "80@@": 17,
  "珍品": 17,
  "仙娃": 17,
  "连射": 17,
  "5.1": 17,
  "他@@": 17,
  "6.5%": 17,
  "系@@": 17,
  "430": 17,
  "虎@@": 17,
  "宣言": 17,
  "厂@@": 17,
  "裂@@": 17,
  "擦干": 17,
  "六转": 17,
  "颜@@": 17,
  "略微": 17,
  "b": 17,
  "组装": 17,
  "遮肉": 17,
  "绩效考核": 17,
  "冬日": 17,
  "织@@": 17,
  "截止": 17,
  "丢": 17,
  "敷": 17,
  "旅途": 17,
  "每一件": 17,
  "3010": 17,
  "裤腰": 17,
  "冷静": 17,
  "加密": 17,
  "住@@": 17,
  "即时": 17,
  "龙魂": 17,
  "气旋": 17,
  "素@@": 17,
  "火雨": 17,
  "伴": 17,
  "指针": 17,
  "坏@@": 17,
  "自主": 17,
  "MA@@": 17,
  "阴": 17,
  "在意": 17,
  "勋章": 17,
  "妖兽": 17,
  "准": 17,
  "钩": 17,
  "魔者": 17,
  "酷@@": 17,
  "姆": 17,
  "用手": 17,
  "紫檀": 17,
  "充电器": 17,
  "善@@": 17,
  "相互": 17,
  "部下": 17,
  "洛@@": 17,
  "泳裤": 17,
  "反而": 17,
  "妈": 17,
  "纳": 17,
  "笔@@": 17,
  "县": 17,
  "磁": 17,
  "陈@@": 17,
  "巫族": 17,
  "PA": 17,
  "购@@": 17,
  "理论": 17,
  "墙面": 17,
  "哺乳": 17,
  "实心": 17,
  "宣传": 17,
  "支承": 17,
  "银雕": 17,
  "利麟": 17,
  "裤型": 17,
  "朝": 17,
  "一根": 17,
  "利器": 17,
  "滚@@": 17,
  "避@@": 17,
  "眉": 17,
  "激发": 17,
  "脚下": 17,
  "1280": 17,
  "典籍": 17,
  "跨@@": 17,
  "退@@": 17,
  "网络连接": 17,
  "构成": 17,
  "冲洗": 17,
  "灯泡": 17,
  "39%": 17,
  "主宰": 17,
  "香薰": 17,
  "流失": 17,
  "马场": 17,
  "581": 17,
  "猎人": 17,
  "伸展": 17,
  "土@@": 17,
  "产品@@": 17,
  "战旗": 17,
  "杂质": 17,
  "负重": 17,
  "LINE": 17,
  "箭塔": 17,
  "肉@@": 17,
  "办公": 17,
  "归@@": 17,
  "烫": 17,
  "旗": 17,
  "受欢迎": 17,
  "远处": 17,
  "妹妹": 17,
  "某": 17,
  "人物属性": 17,
  "酒@@": 17,
  "网孔": 17,
  "本人": 17,
  "厨房": 17,
  "五百": 17,
  "棕色": 17,
  "而来": 17,
  "值@@": 17,
  "通往": 17,
  "模样": 17,
  "束": 17,
  "检索": 17,
  "黏@@": 17,
  "采@@": 17,
  "功@@": 17,
  "粒@@": 17,
  "大鬼族": 17,
  "双面": 17,
  "名可": 17,
  "手段": 17,
  "唇@@": 17,
  "身型": 17,
  "上海": 17,
  "闹": 17,
  "一丝": 17,
  "3460": 17,
  "620": 17,
  "不然": 17,
  "背叛": 17,
  "数据线": 17,
  "亮度": 17,
  "款项": 17,
  "新潮": 17,
  "46@@": 17,
  "仿": 17,
  "频道": 17,
  "阶数": 17,
  "吸力": 17,
  "生物@@": 17,
  "大地": 17,
  "天雷": 17,
  "各路": 17,
  "抱": 17,
  "夜晚": 17,
  "我家": 17,
  "仙佩星魂": 17,
  "荒兽": 17,
  "啼魂": 17,
  "身体健康": 17,
  "职场": 17,
  "情缘": 17,
  "圣能": 17,
  "足底": 17,
  "与@@": 17,
  "初": 17,
  "倍数": 17,
  "38000": 17,
  "滴@@": 17,
  "证据": 17,
  "凯金": 17,
  "染色剂": 17,
  "时期": 17,
  "亚伦": 17,
  "羽@@": 17,
  "伴随": 17,
  "一个月": 17,
  "弹窗": 17,
  "约@@": 17,
  "182": 17,
  "主体": 17,
  "财富": 17,
  "桑@@": 17,
  "热情": 17,
  "车轮战": 17,
  "磁性": 17,
  "片@@": 17,
  "计": 17,
  "ec@@": 17,
  "ipad": 17,
  "吹奏乐": 17,
  "百炼": 17,
  "中央": 17,
  "火山": 17,
  "流水": 17,
  "碰@@": 17,
  "食用": 17,
  "有趣": 17,
  "打滑": 17,
  "魔素": 17,
  "沉淀": 17,
  "兼": 17,
  "1580": 17,
  "第三@@": 17,
  "性价比": 17,
  "吉祥": 17,
  "聆听": 17,
  "福气": 17,
  "ss@@": 17,
  "13.@@": 17,
  "开发区": 17,
  "借@@": 17,
  "莱@@": 17,
  "昨日": 17,
  "扬": 17,
  "人气": 17,
  "11@@": 17,
  "击中": 17,
  "主机": 17,
  "代理": 17,
  "人士": 17,
  "痛@@": 17,
  "精钢": 17,
  "闲聊": 17,
  "客户端": 17,
  "纷争": 17,
  "左侧": 17,
  "莱": 17,
  "神道": 17,
  "医疗": 17,
  "念@@": 17,
  "旋风": 17,
  "两边": 17,
  "蜂窝": 17,
  "通透": 17,
  "蜕变": 17,
  "寒风": 17,
  "散发出": 17,
  "馆": 17,
  "清空": 17,
  "阻@@": 17,
  "回馈": 17,
  "分明": 17,
  "资质": 17,
  "胸型": 17,
  "酷炫": 17,
  "AC@@": 17,
  "包女": 17,
  "海外": 17,
  "例": 17,
  "相机": 17,
  "4.8%": 17,
  "亮片": 16,
  "请问": 16,
  "护膝": 16,
  "绒@@": 16,
  "瓶@@": 16,
  "延展性": 16,
  "优惠活动": 16,
  "拜": 16,
  "幽灵": 16,
  "世纪": 16,
  "燃脂": 16,
  "盖章": 16,
  "此地": 16,
  "胖瘦": 16,
  "二转": 16,
  "铬": 16,
  "五千": 16,
  "3150": 16,
  "知@@": 16,
  "高手": 16,
  "俯@@": 16,
  "矮": 16,
  "独有": 16,
  "断电": 16,
  "兜": 16,
  "肥@@": 16,
  "好了吗": 16,
  "视力": 16,
  "代谢": 16,
  "c50": 16,
  "下巴": 16,
  "电网": 16,
  "恶心": 16,
  "不可@@": 16,
  "天璇": 16,
  "构造": 16,
  "／": 16,
  "上榜": 16,
  "付": 16,
  "打造出": 16,
  "抓住": 16,
  "氧化@@": 16,
  "1CM": 16,
  "奥@@": 16,
  "领型": 16,
  "租赁": 16,
  "区别": 16,
  "ar@@": 16,
  "灰甲": 16,
  "嘴巴": 16,
  "评分": 16,
  "243": 16,
  "730": 16,
  "ee@@": 16,
  "1875": 16,
  "眼袋": 16,
  "盐@@": 16,
  "反正": 16,
  "超细": 16,
  "仓": 16,
  "仙友": 16,
  "呦": 16,
  "齐": 16,
  "关机": 16,
  "总共": 16,
  "科@@": 16,
  "依靠": 16,
  "iEnglish": 16,
  "现状": 16,
  "上次": 16,
  "挖宝": 16,
  "护照": 16,
  "饕餮": 16,
  "保持@@": 16,
  "疯": 16,
  "稀@@": 16,
  "示": 16,
  "铃": 16,
  "恨": 16,
  "书面通知": 16,
  "635": 16,
  "爆汗": 16,
  "系数": 16,
  "颈": 16,
  "科": 16,
  "原谅": 16,
  "暖": 16,
  "难题": 16,
  "菲": 16,
  "巡游": 16,
  "操纵": 16,
  "梵天": 16,
  "澳大利亚": 16,
  "拼@@": 16,
  "43": 16,
  "畅": 16,
  "3350": 16,
  "560": 16,
  "外面": 16,
  "春@@": 16,
  "2013": 16,
  "法身": 16,
  "凡@@": 16,
  "似": 16,
  "近程": 16,
  "绒": 16,
  "模@@": 16,
  "在于": 16,
  "子母": 16,
  "760": 16,
  "魔洞": 16,
  "中年": 16,
  "证件": 16,
  "召集": 16,
  "垃圾处理": 16,
  "令牌": 16,
  "超轻": 16,
  "蕴含着": 16,
  "底纹": 16,
  "佩斯": 16,
  "特恩": 16,
  "生产@@": 16,
  "尔比": 16,
  "兄弟": 16,
  "实验室": 16,
  "①": 16,
  "倍感": 16,
  "96": 16,
  "窗户": 16,
  "透亮": 16,
  "le@@": 16,
  "颈@@": 16,
  "无污染": 16,
  "伊": 16,
  "重生": 16,
  "当日": 16,
  "缓冲": 16,
  "护腕": 16,
  "551": 16,
  "泵": 16,
  "胜": 16,
  "运转": 16,
  "DIY": 16,
  "携带方便": 16,
  "EN@@": 16,
  "1550": 16,
  "翻": 16,
  "而异": 16,
  "光环": 16,
  "一会儿": 16,
  "一对": 16,
  "自动@@": 16,
  "法规": 16,
  "凭借": 16,
  "324": 16,
  "松糕": 16,
  "好运": 16,
  "辛苦": 16,
  "支撑力": 16,
  "底层": 16,
  "1.0": 16,
  "漏@@": 16,
  "合格": 16,
  "打鼾": 16,
  "检@@": 16,
  "五十": 16,
  "千夫": 16,
  "蝙蝠": 16,
  "锁住": 16,
  "侧边": 16,
  "哈哈哈": 16,
  "仅@@": 16,
  "塑": 16,
  "营业": 16,
  "牢": 16,
  "塑@@": 16,
  "达维亚": 16,
  "增减": 16,
  "305": 16,
  "好评": 16,
  "测评": 16,
  "存储": 16,
  "撒": 16,
  "魅惑": 16,
  "今后": 16,
  "伸@@": 16,
  "领先": 16,
  "一秒": 16,
  "临床": 16,
  "弧线": 16,
  "奇": 16,
  "尖": 16,
  "ha@@": 16,
  "一座": 16,
  "缺陷": 16,
  "般@@": 16,
  "之所以": 16,
  "和平": 16,
  "别的": 16,
  "神仙": 16,
  "757": 16,
  "狱": 16,
  "铜@@": 16,
  "抗拒": 16,
  "左右脚": 16,
  "兑": 16,
  "延续": 16,
  "秀@@": 16,
  "兔子": 16,
  "线路": 16,
  "限@@": 16,
  "威胁": 16,
  "天可": 16,
  "敬请期待": 16,
  "磨脚": 16,
  "朝@@": 16,
  "吵": 16,
  "松": 16,
  "每件": 16,
  "修炼": 16,
  "尾巴": 16,
  "缺货": 16,
  "场地": 16,
  "298": 16,
  "貌": 16,
  "双腿": 16,
  "预设": 16,
  "管理@@": 16,
  "除恶": 16,
  "斩贼": 16,
  "靠@@": 16,
  "防汗": 16,
  "红外": 16,
  "拿出": 16,
  "不知": 16,
  "2.25%": 16,
  "单一": 16,
  "素颜霜": 16,
  "一杯": 16,
  "杀掉": 16,
  "抢@@": 16,
  "沿": 16,
  "有时候": 16,
  "1880": 16,
  "高分子": 16,
  "略有": 16,
  "透露": 16,
  "n288": 16,
  "鲜橙": 16,
  "大幅度": 16,
  "EL": 16,
  "通勤": 16,
  "制动": 16,
  "紧勒": 16,
  "月饼": 16,
  "低频": 16,
  "18K": 16,
  "身为": 16,
  "获@@": 16,
  "亚特": 16,
  "柳": 16,
  "逆@@": 16,
  "夺@@": 16,
  "伤口": 16,
  "话@@": 16,
  "资": 16,
  "太阳镜": 16,
  "入场券": 16,
  "同名": 16,
  "甲乙双方": 16,
  "飞月": 16,
  "骷髅": 16,
  "狗": 16,
  "雨之仙": 16,
  "377": 16,
  "承": 16,
  "撞": 16,
  "155": 16,
  "刀片": 16,
  "整洁": 16,
  "乐享": 16,
  "化合物": 16,
  "浑@@": 16,
  "艺术品": 16,
  "开店": 16,
  "线上": 16,
  "手持": 16,
  "巧": 16,
  "脚蹬": 16,
  "到来": 16,
  "深色": 16,
  "利息": 16,
  "错@@": 16,
  "基金": 16,
  "度过": 16,
  "犬": 16,
  "束腰": 16,
  "冻": 16,
  "上装": 16,
  "挥@@": 16,
  "hi@@": 16,
  "既@@": 16,
  "水杯": 16,
  "爱不释手": 16,
  "合身": 16,
  "103": 16,
  "松紧带": 16,
  "7680": 16,
  "顽固": 16,
  "新人": 16,
  "维@@": 16,
  "施@@": 16,
  "冲级": 16,
  "莱卡": 16,
  "赞@@": 16,
  "减缓": 16,
  "靴子": 16,
  "文件@@": 16,
  "抗震": 16,
  "遵循": 16,
  "尼": 16,
  "剧": 16,
  "籍": 16,
  "阻隔": 16,
  "控油": 16,
  "泰@@": 16,
  "变动": 16,
  "姿": 16,
  "恋": 16,
  "17.5%": 16,
  "索@@": 16,
  "餐": 16,
  "伞": 16,
  "谨慎": 16,
  "增生": 16,
  "浓郁": 16,
  "难免": 16,
  "天羽": 16,
  "天可领": 16,
  "聚会": 16,
  "武器库": 16,
  "佳@@": 16,
  "带走": 16,
  "化石": 16,
  "愿望": 16,
  "安排": 16,
  "心灵": 16,
  "5.5%": 16,
  "儿@@": 16,
  "灭王": 16,
  "中底": 16,
  "机洗": 16,
  "德@@": 16,
  "猿人": 16,
  "魔兽": 16,
  "火乌": 16,
  "5.5": 16,
  "隔热": 15,
  "四转": 15,
  "亲自": 15,
  "祸": 15,
  "儿子": 15,
  "巫": 15,
  "手机袋": 15,
  "倾慕": 15,
  "塑型": 15,
  "频": 15,
  "ta@@": 15,
  "隐": 15,
  "表皮": 15,
  "102": 15,
  "女巫": 15,
  "软骨": 15,
  "坠@@": 15,
  "人人": 15,
  "对准": 15,
  "沿着": 15,
  "BOSS@@": 15,
  "圣诞节": 15,
  "热门": 15,
  "人心": 15,
  "登塔": 15,
  "收款": 15,
  "亦可": 15,
  "0.1": 15,
  "4200": 15,
  "●": 15,
  "霸": 15,
  "48@@": 15,
  "雅": 15,
  "式@@": 15,
  "16.@@": 15,
  "圣魂": 15,
  "鸣": 15,
  "泳衣": 15,
  "节能": 15,
  "身心": 15,
  "云购": 15,
  "导轨": 15,
  "板@@": 15,
  "没关系": 15,
  "12350": 15,
  "商品名称": 15,
  "途": 15,
  "170@@": 15,
  "企@@": 15,
  "成人": 15,
  "逐@@": 15,
  "一轮": 15,
  "嵌甲": 15,
  "一步到位": 15,
  "审批表": 15,
  "好多": 15,
  "天然纤维": 15,
  "首发": 15,
  "商品信息": 15,
  "兽@@": 15,
  "机能": 15,
  "德里克": 15,
  "204": 15,
  "三转": 15,
  "培训": 15,
  "涅槃": 15,
  "破晓": 15,
  "波浪": 15,
  "无所谓": 15,
  "实际上": 15,
  "手势": 15,
  "传播": 15,
  "罗马": 15,
  "防割": 15,
  "烦": 15,
  "壶": 15,
  "叶清": 15,
  "鼻腔": 15,
  "神经@@": 15,
  "激烈": 15,
  "教师": 15,
  "一赠": 15,
  "鲨鱼": 15,
  "诡王": 15,
  "单调": 15,
  "居民": 15,
  "溶@@": 15,
  "极限": 15,
  "几天": 15,
  "月份": 15,
  "恩@@": 15,
  "甜蜜": 15,
  "吉@@": 15,
  "望@@": 15,
  "力学": 15,
  "打铁": 15,
  "空气@@": 15,
  "龄": 15,
  "随身携带": 15,
  "再接再厉": 15,
  "苹果": 15,
  "味@@": 15,
  "OL": 15,
  "烈日": 15,
  "于是": 15,
  "珠海": 15,
  "穿刺": 15,
  "转化率": 15,
  "享@@": 15,
  "权威": 15,
  "管家": 15,
  "胎": 15,
  "知晓": 15,
  "振@@": 15,
  "四层": 15,
  "丸": 15,
  "封闭": 15,
  "高弹力": 15,
  "故": 15,
  "地球": 15,
  "网眼": 15,
  "衣领": 15,
  "率@@": 15,
  "艺人": 15,
  "阶大": 15,
  "菠萝": 15,
  "本书": 15,
  "昂贵": 15,
  "理疗": 15,
  "偶尔": 15,
  "提款": 15,
  "你好": 15,
  "缺@@": 15,
  "宠儿": 15,
  "奥斯博": 15,
  "恶": 15,
  "不愧": 15,
  "臭": 15,
  "疏散": 15,
  "特定": 15,
  "园": 15,
  "178": 15,
  "型@@": 15,
  "总额": 15,
  "噪声": 15,
  "令@@": 15,
  "下滑": 15,
  "意式": 15,
  "建@@": 15,
  "紧身": 15,
  "少许": 15,
  "耐磨损": 15,
  "曲折": 15,
  "销": 15,
  "不安": 15,
  "魔戒": 15,
  "剩余次数": 15,
  "海洋": 15,
  "5CM": 15,
  "吃掉": 15,
  "绚丽": 15,
  "岚牙": 15,
  "武": 15,
  "划": 15,
  "思@@": 15,
  "正义": 15,
  "某个": 15,
  "乙@@": 15,
  "匹": 15,
  "小型": 15,
  "想起": 15,
  "木之魔": 15,
  "上学": 15,
  "省@@": 15,
  "双线": 15,
  "质量保证": 15,
  "小号": 15,
  "巴": 15,
  "信任": 15,
  "虚@@": 15,
  "短裙": 15,
  "刮花": 15,
  "油腻": 15,
  "胸包": 15,
  "祭": 15,
  "748": 15,
  "回响": 15,
  "0ml": 15,
  "载@@": 15,
  "就够": 15,
  "劳@@": 15,
  "铜币": 15,
  "拼色": 15,
  "缘@@": 15,
  "执@@": 15,
  "异": 15,
  "转让": 15,
  "历": 15,
  "北方": 15,
  "支出": 15,
  "驻": 15,
  "第二天": 15,
  "己": 15,
  "智": 15,
  "一台": 15,
  "间隔": 15,
  "东京": 15,
  "镀金": 15,
  "墓碑": 15,
  "长大": 15,
  "湖@@": 15,
  "地球仪": 15,
  "斗法": 15,
  "捕@@": 15,
  "er": 15,
  "眼霜": 15,
  "历@@": 15,
  "质@@": 15,
  "日子": 15,
  "272": 15,
  "精雕细琢": 15,
  "57@@": 15,
  "滤@@": 15,
  "功夫": 15,
  "美妙": 15,
  "抄@@": 15,
  "叫做": 15,
  "聊": 15,
  "重低音": 15,
  "水桶": 15,
  "图标": 15,
  "穿过": 15,
  "加长": 15,
  "反映": 15,
  "派遣": 15,
  "灭@@": 15,
  "耳边": 15,
  "灭蚊灯": 15,
  "层次感": 15,
  "各县": 15,
  "附魂": 15,
  "舞台": 15,
  "电能": 15,
  "笑@@": 15,
  "插上": 15,
  "私@@": 15,
  "触摸": 15,
  "浸@@": 15,
  "上脚": 15,
  "生命体": 15,
  "姬": 15,
  "力求": 15,
  "紫阳": 15,
  "挑@@": 15,
  "2220": 15,
  "保护膜": 15,
  "适配": 15,
  "存款": 15,
  "披肩": 15,
  "水壶": 15,
  "人均": 15,
  "喜": 15,
  "有礼": 15,
  "c49": 15,
  "耳钉": 15,
  "之王": 15,
  "烟气": 15,
  "商户": 15,
  "鸿": 15,
  "vip": 15,
  "远端": 15,
  "体力": 15,
  "遗忘": 15,
  "便宜": 15,
  "铁轮": 15,
  "莫@@": 15,
  "720": 15,
  "388": 15,
  "炽热": 15,
  "许可": 15,
  "让你在": 15,
  "伏": 15,
  "475": 15,
  "软尺": 15,
  "手袋": 15,
  "特意": 15,
  "熟@@": 15,
  "当做": 15,
  "坚固耐用": 15,
  "查找": 15,
  "贝@@": 15,
  "堆叠": 15,
  "小熊": 15,
  "免除": 15,
  "充足": 15,
  "点赞": 15,
  "碧@@": 15,
  "机车": 15,
  "不上": 15,
  "丝绸": 15,
  "上报": 15,
  "2018%": 15,
  "刻度": 15,
  "尊": 15,
  "瞩目": 15,
  "首页": 15,
  "初次": 15,
  "凉感": 15,
  "载": 15,
  "枕芯": 15,
  "遥@@": 15,
  "淑女": 15,
  "泡泡": 15,
  "炼@@": 15,
  "双眼": 15,
  "孤@@": 15,
  "跟踪": 15,
  "打印": 15,
  "差别": 15,
  "157": 15,
  "讯息": 15,
  "欲@@": 15,
  "火晶": 15,
  "多久": 15,
  "控制@@": 15,
  "4.3": 15,
  "远红外": 15,
  "这座": 15,
  "飞灰": 15,
  "焰": 15,
  "二恶英": 15,
  "干净利落": 15,
  "而言": 15,
  "炎@@": 15,
  "稍": 15,
  "扰": 15,
  "雨水": 15,
  "职": 15,
  "仅仅": 15,
  "昆仑": 15,
  "发育": 15,
  "交换": 15,
  "农@@": 15,
  "当年": 15,
  "酒精": 15,
  "太好了": 15,
  "抵@@": 15,
  "重大": 15,
  "ing": 15,
  "月光": 15,
  "青铜": 15,
  "HUD": 15,
  "当头": 15,
  "昨天": 15,
  "扩大": 15,
  "嘴角": 15,
  "收割": 15,
  "多人": 15,
  "399": 15,
  "手掌": 15,
  "泡@@": 15,
  "690": 15,
  "选填": 15,
  "逃": 15,
  "临@@": 15,
  "水系": 15,
  "+%": 15,
  "板鞋": 15,
  "限": 15,
  "蝴蝶": 15,
  "之路": 15,
  "火灾": 15,
  "传": 15,
  "一眼": 15,
  "原点": 15,
  "风尚": 15,
  "相册": 15,
  "马车": 15,
  "办@@": 15,
  "间@@": 15,
  "益@@": 15,
  "w@@": 15,
  "升到": 15,
  "足弓": 15,
  "57": 15,
  "亿@@": 15,
  "醇": 15,
  "迈@@": 15,
  "交通": 15,
  "58%": 15,
  "互相": 15,
  "张力": 15,
  "鸡蛋": 15,
  "守护者": 15,
  "任何人": 15,
  "刷头": 15,
  "colorid": 15,
  "冲刺": 15,
  "67": 15,
  "打倒": 15,
  "真菌": 14,
  "卫兵": 14,
  "跑鞋": 14,
  "真心": 14,
  "元灵珠": 14,
  "判决": 14,
  "珍宝": 14,
  "到时候": 14,
  "暗夜曜石": 14,
  "保底": 14,
  "医生": 14,
  "连帽": 14,
  "火之魔腕": 14,
  "ON": 14,
  "110@@": 14,
  "样@@": 14,
  "解读": 14,
  "熟悉": 14,
  "158": 14,
  "401": 14,
  "抽到": 14,
  "风向": 14,
  "108000": 14,
  "173": 14,
  "作出": 14,
  "ic@@": 14,
  "NAME%": 14,
  "形容": 14,
  "精华液": 14,
  "几": 14,
  "0.2%": 14,
  "490": 14,
  "金羽": 14,
  "暴风": 14,
  "1100": 14,
  "剑气": 14,
  "南方": 14,
  "柜": 14,
  "378": 14,
  "许可证": 14,
  "暗影": 14,
  "雄@@": 14,
  "盛宴": 14,
  "摄像机": 14,
  "全棉": 14,
  "称@@": 14,
  "典范": 14,
  "对付": 14,
  "摩尔": 14,
  "啥": 14,
  "之击": 14,
  "简称": 14,
  "甩@@": 14,
  "姐": 14,
  "轻微": 14,
  "软件程序": 14,
  "臭氧": 14,
  "衬托": 14,
  "烈火": 14,
  "五金配件": 14,
  "除非": 14,
  "尊重": 14,
  "星数": 14,
  "亮白": 14,
  "师傅": 14,
  "挖@@": 14,
  "货到付款": 14,
  "脱毛膏": 14,
  "饮料": 14,
  "欲": 14,
  "高频": 14,
  "星命": 14,
  "SKU": 14,
  "凸起": 14,
  "按住": 14,
  "指令": 14,
  "固": 14,
  "640": 14,
  "禁@@": 14,
  "容器": 14,
  "09": 14,
  "成果": 14,
  "贴脚": 14,
  "陪@@": 14,
  "养脚": 14,
  "301": 14,
  "按摩器": 14,
  "珠@@": 14,
  "瘙痒": 14,
  "男朋友": 14,
  "幻之神翼": 14,
  "漫@@": 14,
  "公众": 14,
  "统统": 14,
  "is@@": 14,
  "交流": 14,
  "雕": 14,
  "四处": 14,
  "4.0": 14,
  "周边": 14,
  "房子": 14,
  "生活态度": 14,
  "眼周": 14,
  "----": 14,
  "推动": 14,
  "672": 14,
  "套头": 14,
  "鉴宝": 14,
  "貔貅": 14,
  "储@@": 14,
  "刷@@": 14,
  "透出": 14,
  "挂件": 14,
  "法式": 14,
  "累@@": 14,
  "稳重": 14,
  "飞天": 14,
  "运作": 14,
  "欧盟": 14,
  "肌理": 14,
  "峰": 14,
  "一曲": 14,
  "瓦": 14,
  "诱人": 14,
  "难受": 14,
  "当下": 14,
  "4763": 14,
  "得以": 14,
  "宝匣": 14,
  "代购": 14,
  "南非": 14,
  "房源": 14,
  "抓地力": 14,
  "厅": 14,
  "频次": 14,
  "每一寸": 14,
  "缩水": 14,
  "120@@": 14,
  "191": 14,
  "债务": 14,
  "溶解": 14,
  "棕@@": 14,
  "过热": 14,
  "脂@@": 14,
  "狼族": 14,
  "呈": 14,
  "害@@": 14,
  "铁铲": 14,
  "宗@@": 14,
  "2289": 14,
  "放过": 14,
  "如新": 14,
  "墨西哥": 14,
  "市面": 14,
  "决@@": 14,
  "手机号码": 14,
  "幼@@": 14,
  "冥@@": 14,
  "一瓶": 14,
  "神印": 14,
  "101": 14,
  "众人": 14,
  "沐浴露": 14,
  "2674": 14,
  "举行": 14,
  "骨骼": 14,
  "环评": 14,
  "勇@@": 14,
  "v": 14,
  "坐标": 14,
  "创作": 14,
  "皮面": 14,
  "66@@": 14,
  "直筒": 14,
  "艾@@": 14,
  "湿度": 14,
  "208": 14,
  "猩红": 14,
  "885": 14,
  "幅": 14,
  "林子": 14,
  "日历": 14,
  "摄@@": 14,
  "脉": 14,
  "11300": 14,
  "几次": 14,
  "矿@@": 14,
  "喝@@": 14,
  "207": 14,
  "输": 14,
  "厚@@": 14,
  "343": 14,
  "玄鼎": 14,
  "复": 14,
  "猪": 14,
  "一包": 14,
  "次为": 14,
  "恒温": 14,
  "开展": 14,
  "洗涤剂": 14,
  "冰谷": 14,
  "安吉": 14,
  "河@@": 14,
  "学长": 14,
  "畅销": 14,
  "魔怪": 14,
  "找@@": 14,
  "堆@@": 14,
  "58@@": 14,
  "减去": 14,
  "不缩水": 14,
  "擅自": 14,
  "这点": 14,
  "171": 14,
  "URL": 14,
  "刚好": 14,
  "亮@@": 14,
  "241": 14,
  "鉴定": 14,
  "右侧": 14,
  "蓝晶石": 14,
  "渐渐": 14,
  "贴近": 14,
  "心里": 14,
  "4585": 14,
  "牺牲": 14,
  "湖": 14,
  "夺取": 14,
  "源@@": 14,
  "计入": 14,
  "斩妖": 14,
  "股": 14,
  "捕捉": 14,
  "AS@@": 14,
  "女款": 14,
  "销售额": 14,
  "损@@": 14,
  "幽冥": 14,
  "可自": 14,
  "限量": 14,
  "器材": 14,
  "对大": 14,
  "沿@@": 14,
  "抚平": 14,
  "巴姆": 14,
  "测试@@": 14,
  "田@@": 14,
  "翻牌": 14,
  "皋兰县": 14,
  "那天": 14,
  "祖": 14,
  "直播间": 14,
  "绣": 14,
  "对此": 14,
  "发型": 14,
  "锋利": 14,
  "大军": 14,
  "0x00ff00": 14,
  "焕@@": 14,
  "徒": 14,
  "处理结果": 14,
  "鼻炎": 14,
  "卫生@@": 14,
  "揉": 14,
  "立体感": 14,
  "涉及": 14,
  "渍": 14,
  "六大": 14,
  "皮尺": 14,
  "洗脸": 14,
  "魄": 14,
  "GB@@": 14,
  "再见": 14,
  "404": 14,
  "飘@@": 14,
  "偏光": 14,
  "秘": 14,
  "香气": 14,
  "静脉曲张": 14,
  "LO@@": 14,
  "接头": 14,
  "续@@": 14,
  "漏气": 14,
  "215": 14,
  "均@@": 14,
  "牛仔面料": 14,
  "行驶": 14,
  "宫@@": 14,
  "星魔族": 14,
  "银色": 14,
  "根@@": 14,
  "辉煌": 14,
  "5625": 14,
  "免提通话": 14,
  "队员": 14,
  "7.5%": 14,
  "桃@@": 14,
  "回退": 14,
  "阶可": 14,
  "可神": 14,
  "搓洗": 14,
  "尽享": 14,
  "3985": 14,
  "仿@@": 14,
  "小小的": 14,
  "堂": 14,
  "吸盘": 14,
  "苦痛": 14,
  "冰块": 14,
  "104": 14,
  "近视": 14,
  "1314": 14,
  "独奏": 14,
  "土系": 14,
  "扩@@": 14,
  "航@@": 14,
  "不经意": 14,
  "顾问": 14,
  "5mm": 14,
  "抽取": 14,
  "歌@@": 14,
  "中华人民共和国": 14,
  "算@@": 14,
  "法术": 14,
  "温润": 14,
  "980": 14,
  "看不@@": 14,
  "无感": 14,
  "第三": 14,
  "看上去": 14,
  "认领": 14,
  "迷雾": 14,
  "霸气": 14,
  "效@@": 14,
  "意味着": 14,
  "电子产品": 14,
  "新鲜": 14,
  "蛇@@": 14,
  "差不多": 14,
  "暂@@": 14,
  "勾@@": 14,
  "加以": 14,
  "投影": 14,
  "收货": 14,
  "仙坠": 14,
  "炫@@": 14,
  "没法": 14,
  "EN": 14,
  "前缀": 14,
  "3M": 14,
  "平凡": 14,
  "额头": 14,
  "归元": 14,
  "出发": 14,
  "700%": 14,
  "凉席": 14,
  "抓地": 14,
  "4076": 14,
  "联络": 14,
  "救援": 14,
  "MW": 14,
  "烫@@": 14,
  "共振": 14,
  "漏水": 14,
  "性命": 14,
  "卡路里": 14,
  "亚伯": 14,
  "极其": 14,
  "配色": 14,
  "迁移": 14,
  "防范": 14,
  "开户": 14,
  "严密": 14,
  "普里": 14,
  "之羽": 14,
  "万千": 14,
  "内敛": 14,
  "十大": 14,
  "ip@@": 14,
  "592": 14,
  "潜@@": 14,
  "443": 14,
  "86": 14,
  "日程": 14,
  "中途": 14,
  "烈": 14,
  "方形": 14,
  "升级版": 14,
  "晃动": 14,
  "当中": 14,
  "纺": 14,
  "500@@": 14,
  "oo@@": 14,
  "83": 14,
  "踏@@": 14,
  "赢得": 14,
  "ra@@": 14,
  "秒杀": 14,
  "暗袋": 14,
  "76@@": 14,
  "2600": 14,
  "嫩肤": 14,
  "把手": 14,
  "回款": 14,
  "印象": 14,
  "纤": 14,
  "遍": 14,
  "腾@@": 14,
  "运动@@": 14,
  "蜜@@": 13,
  "门槛": 13,
  "二百": 13,
  "令人@@": 13,
  "地宝": 13,
  "甜@@": 13,
  "77": 13,
  "鉴": 13,
  "维": 13,
  "生理": 13,
  "影像": 13,
  "答@@": 13,
  "纯正": 13,
  "锁水": 13,
  "配套": 13,
  "浓密": 13,
  "回头率": 13,
  "一群": 13,
  "不勒@@": 13,
  "70170": 13,
  "显高": 13,
  "司@@": 13,
  "装下": 13,
  "脏": 13,
  "伟大": 13,
  "某些": 13,
  "后方": 13,
  "一并": 13,
  "G1": 13,
  "蒂安": 13,
  "女童": 13,
  "之类": 13,
  "撕开": 13,
  "710": 13,
  "纯粹": 13,
  "惹@@": 13,
  "女子": 13,
  "天材": 13,
  "泷": 13,
  "接受方": 13,
  "所用": 13,
  "之名": 13,
  "排队": 13,
  "增压": 13,
  "ML": 13,
  "箭头": 13,
  "界@@": 13,
  "71": 13,
  "急": 13,
  "船@@": 13,
  "m3": 13,
  "表演": 13,
  "厂界": 13,
  "争锋": 13,
  "口中": 13,
  "壁": 13,
  "55@@": 13,
  "ll": 13,
  "直在": 13,
  "刷牙": 13,
  "渴望": 13,
  "遥控": 13,
  "艺": 13,
  "太阴": 13,
  "全队": 13,
  "防辐射": 13,
  "贴片": 13,
  "贴肤": 13,
  "除异味": 13,
  "春风": 13,
  "每多": 13,
  "赐福": 13,
  "爸妈": 13,
  "呼@@": 13,
  "冷感": 13,
  "剑姬": 13,
  "身影": 13,
  "原件": 13,
  "VI@@": 13,
  "城门": 13,
  "鼻毛": 13,
  "拆": 13,
  "414": 13,
  "re@@": 13,
  "直发": 13,
  "流通": 13,
  "可怜": 13,
  "包覆": 13,
  "杖": 13,
  "级凤": 13,
  "坚@@": 13,
  "染@@": 13,
  "437": 13,
  "9950": 13,
  "建议您": 13,
  "5.2%": 13,
  "鼻": 13,
  "富含": 13,
  "吓": 13,
  "卸下": 13,
  "焦": 13,
  "绝佳": 13,
  "扫描": 13,
  "苏": 13,
  "发声": 13,
  "咖啡@@": 13,
  "20200": 13,
  "44": 13,
  "声波": 13,
  "纹@@": 13,
  "水柱": 13,
  "户@@": 13,
  "尤里": 13,
  "族群": 13,
  "淋巴": 13,
  "庆典": 13,
  "偏瘦": 13,
  "UN@@": 13,
  "更长": 13,
  "男神": 13,
  "射手": 13,
  "烦@@": 13,
  "洋@@": 13,
  "AB@@": 13,
  "性别": 13,
  "唐纳德": 13,
  "养颜": 13,
  "脱胶": 13,
  "164": 13,
  "静脉": 13,
  "华九会": 13,
  "判刑": 13,
  "印玄晶": 13,
  "延迟": 13,
  "增速": 13,
  "齿轮": 13,
  "魂环": 13,
  "恶臭": 13,
  "叫@@": 13,
  "金之魔": 13,
  "针织衫": 13,
  "79": 13,
  "洁面": 13,
  "软垫": 13,
  "ho@@": 13,
  "3625": 13,
  "假期": 13,
  "嫩白": 13,
  "构@@": 13,
  "宠爱": 13,
  "干扰": 13,
  "趣味": 13,
  "剑客": 13,
  "爱上": 13,
  "鼠": 13,
  "三件套": 13,
  "之歌": 13,
  "年级": 13,
  "2.2": 13,
  "育": 13,
  "从不": 13,
  "无害": 13,
  "暗沉": 13,
  "杀戮": 13,
  "拼": 13,
  "课": 13,
  "撑@@": 13,
  "病菌": 13,
  "亚特兰": 13,
  "64%": 13,
  "稳健": 13,
  "水果": 13,
  "魔鬼": 13,
  "怀@@": 13,
  "来回": 13,
  "带到": 13,
  "机组": 13,
  "515": 13,
  "赞助商": 13,
  "笼罩": 13,
  "89": 13,
  "墨@@": 13,
  "肠": 13,
  "UV": 13,
  "考@@": 13,
  "少于": 13,
  "年纪": 13,
  "破碎": 13,
  "族人": 13,
  "洗完": 13,
  "像素": 13,
  "SSSR": 13,
  "老花镜": 13,
  "顿": 13,
  "照相机": 13,
  "之处": 13,
  "净化器": 13,
  "输@@": 13,
  "置于": 13,
  "利润": 13,
  "1399": 13,
  "熬夜": 13,
  "ma@@": 13,
  "24000": 13,
  "充能": 13,
  "三合一": 13,
  "雾@@": 13,
  "无相": 13,
  "信环": 13,
  "390": 13,
  "适宜": 13,
  "外观设计": 13,
  "id@@": 13,
  "167": 13,
  "淋@@": 13,
  "腐蚀": 13,
  "成膜": 13,
  "多数": 13,
  "残忍": 13,
  "损": 13,
  "阿": 13,
  "百万": 13,
  "土地": 13,
  "润泽": 13,
  "御风曜石": 13,
  "即便": 13,
  "数值": 13,
  "剧@@": 13,
  "天内": 13,
  "com": 13,
  "直观": 13,
  "报名": 13,
  "斜插": 13,
  "大剑": 13,
  "平常": 13,
  "邀": 13,
  "CPU": 13,
  "挥发": 13,
  "选拔": 13,
  "更高": 13,
  "走廊": 13,
  "暴走": 13,
  "容六@@": 13,
  "漂@@": 13,
  "耳垢": 13,
  "震地曜石": 13,
  "胡@@": 13,
  "前提": 13,
  "入睡": 13,
  "小个子": 13,
  "白皙": 13,
  "商标": 13,
  "起源": 13,
  "固色": 13,
  "火系": 13,
  "北欧": 13,
  "XXX": 13,
  "规划": 13,
  "官网": 13,
  "8750": 13,
  "校@@": 13,
  "冷水": 13,
  "筋": 13,
  "艾伦": 13,
  "自从": 13,
  "铃@@": 13,
  "烧": 13,
  "勒@@": 13,
  "即刻": 13,
  "正文": 13,
  "nBOSS": 13,
  "研制": 13,
  "V1": 13,
  "樱花": 13,
  "身临其境": 13,
  "贸易": 13,
  "爪": 13,
  "名单": 13,
  "感电": 13,
  "仪器": 13,
  "硬币": 13,
  "周年": 13,
  "序@@": 13,
  "臻": 13,
  "拳": 13,
  "外翻": 13,
  "闲@@": 13,
  "握": 13,
  "268": 13,
  "竖@@": 13,
  "水准": 13,
  "改为": 13,
  "色调": 13,
  "法阵": 13,
  "史莱姆": 13,
  "微米": 13,
  "冰晶": 13,
  "外扩": 13,
  "瘟疫": 13,
  "水流": 13,
  "腰间": 13,
  "仙府": 13,
  "多瓦": 13,
  "丹魂": 13,
  "超乎": 13,
  "天命": 13,
  "伊凡": 13,
  "刮痕": 13,
  "08": 13,
  "响@@": 13,
  "IR@@": 13,
  "荡@@": 13,
  "远红外线": 13,
  "对战": 13,
  "一线": 13,
  "暖@@": 13,
  "齿@@": 13,
  "谱": 13,
  "准时": 13,
  "565": 13,
  "水灵": 13,
  "logo": 13,
  "警告": 13,
  "依法": 13,
  "前袋": 13,
  "麦": 13,
  "余@@": 13,
  "一笔": 13,
  "铸造": 13,
  "迷": 13,
  "锦@@": 13,
  "就让": 13,
  "膨胀": 13,
  "素雅": 13,
  "法杖": 13,
  "韩": 13,
  "背上": 13,
  "税率": 13,
  "齐全": 13,
  "大哥": 13,
  "眼神": 13,
  "凶@@": 13,
  "搭扣": 13,
  "聚": 13,
  "缺乏": 13,
  "弯@@": 13,
  "凉@@": 13,
  "统领": 13,
  "39@@": 13,
  "裆": 13,
  "全频": 13,
  "好吃": 13,
  "过长": 13,
  "能源": 13,
  "鎏金": 13,
  "刻刀": 13,
  "举@@": 13,
  "救救": 13,
  "告知": 13,
  "强制": 13,
  "包带": 13,
  "个体": 13,
  "可能性": 13,
  "579": 13,
  "自动化": 13,
  "社区": 13,
  "ra": 13,
  "乳液": 13,
  "奢@@": 13,
  "SPA": 13,
  "尽可能": 13,
  "到处": 13,
  "这儿": 13,
  "巴黎": 13,
  "逆天": 13,
  "记@@": 13,
  "前进": 13,
  "IP@@": 13,
  "清澈": 13,
  "天枢": 13,
  "合一": 13,
  "冲击力": 13,
  "算是": 13,
  "273": 13,
  "尖头": 13,
  "零件": 13,
  "粽情": 13,
  "悦@@": 13,
  "牙龈": 13,
  "有氧": 13,
  "紧急": 13,
  "愉悦": 13,
  "粉尘": 13,
  "c5": 13,
  "公会": 13,
  "骄傲": 13,
  "平行": 13,
  "织造": 13,
  "不动": 13,
  "坚守": 13,
  "抵挡": 13,
  "一机": 13,
  "140%": 13,
  "响": 13,
  "CH@@": 13,
  "事业": 13,
  "取货": 13,
  "卫队": 13,
  "冻@@": 13,
  "没用": 13,
  "双眼皮": 13,
  "根部": 13,
  "32@@": 13,
  "温婉": 13,
  "腰线": 13,
  "所得": 13,
  "榜@@": 13,
  "星空": 13,
  "372": 13,
  "扎@@": 13,
  "12000": 13,
  "凭": 13,
  "生活@@": 13,
  "ER@@": 13,
  "枕套": 13,
  "撞击": 13,
  "有力": 13,
  "手部": 13,
  "72%": 13,
  "提亲": 13,
  "炫": 13,
  "每当": 13,
  "试验": 13,
  "闹@@": 13,
  "庆祝": 13,
  "直立": 13,
  "畅@@": 13,
  "隐患": 13,
  "四件": 13,
  "HJ": 13,
  "土之魔": 13,
  "407": 13,
  "4.2%": 13,
  "劫": 13,
  "做成": 13,
  "逾期": 13,
  "苏@@": 13,
  "拨@@": 13,
  "刑罚": 13,
  "人民": 13,
  "促使": 13,
  "标定": 13,
  "本色": 13,
  "动手": 13,
  "婚@@": 13,
  "本层": 13,
  "正好": 13,
  "堆": 13,
  "技巧": 13,
  "莲": 13,
  "人会": 13,
  "一部": 13,
  "评@@": 13,
  "实施": 13,
  "空间设计": 13,
  "2007": 13,
  "瘦腿": 13,
  "水嫩": 13,
  "宇治": 13,
  "高性价比": 13,
  "职位": 13,
  "晴@@": 13,
  "把握": 13,
  "六层": 13,
  "挂扣": 13,
  "运动套装": 13,
  "人家": 13,
  "戏": 13,
  "c30": 13,
  "务": 13,
  "比尔": 13,
  "仿生": 13,
  "摔@@": 13,
  "日报": 13,
  "流线型": 13,
  "全开": 13,
  "销@@": 13,
  "狩": 13,
  "砂": 13,
  "赶@@": 13,
  "之巅": 13,
  "246": 13,
  "玉符": 13,
  "美肌": 13,
  "仙玉": 13,
  "初中": 13,
  "剩": 13,
  "盟友": 13,
  "韩版@@": 13,
  "女孩子": 13,
  "圈@@": 13,
  "穿出": 13,
  "460": 13,
  "爽@@": 13,
  "工装": 13,
  "研究@@": 13,
  "奇数": 13,
  "半年": 13,
  "安琪拉": 13,
  "本页": 13,
  "统": 13,
  "那时": 13,
  "把关": 13,
  "无处不在": 13,
  "移管": 13,
  "杜@@": 13,
  "海选": 13,
  "针线": 13,
  "宪兵": 13,
  "装修": 13,
  "精力": 13,
  "有线": 13,
  "火力": 12,
  "5312": 12,
  "MATSUYAMA": 12,
  "双车": 12,
  "一刻": 12,
  "挺@@": 12,
  "安格斯": 12,
  "稍候": 12,
  "抗撕裂": 12,
  "一手": 12,
  "开玩笑": 12,
  "仅售": 12,
  "窗口": 12,
  "抖动": 12,
  "同事": 12,
  "踏": 12,
  "有机": 12,
  "慢@@": 12,
  "侵犯": 12,
  "≥": 12,
  "费力": 12,
  "干嘛": 12,
  "最快": 12,
  "配有": 12,
  "浪费": 12,
  "老朽": 12,
  "阶石": 12,
  "短暂": 12,
  "BO@@": 12,
  "贼": 12,
  "吾": 12,
  "和谐": 12,
  "述": 12,
  "商人": 12,
  "5cm": 12,
  "陨@@": 12,
  "脏@@": 12,
  "跑@@": 12,
  "当初": 12,
  "机械表": 12,
  "角质层": 12,
  "每款": 12,
  "一辈子": 12,
  "维亚": 12,
  "4057": 12,
  "宝物": 12,
  "技艺": 12,
  "羽翼": 12,
  "只用": 12,
  "宛如": 12,
  "立马": 12,
  "硫云": 12,
  "厄": 12,
  "里斯": 12,
  "宠": 12,
  "气候": 12,
  "恰@@": 12,
  "瓜": 12,
  "4cm": 12,
  "好奇": 12,
  "协同": 12,
  "智@@": 12,
  "物理攻击": 12,
  "监管": 12,
  "二代": 12,
  "国师": 12,
  "看不到": 12,
  "看清": 12,
  "骑": 12,
  "返": 12,
  "战熊": 12,
  "妮": 12,
  "15.@@": 12,
  "每分钟": 12,
  "祛斑": 12,
  "衣身": 12,
  "不去": 12,
  "2000000": 12,
  "开具": 12,
  "两天": 12,
  "不来": 12,
  "洗头": 12,
  "威力": 12,
  "639": 12,
  "多样": 12,
  "援军": 12,
  "汉@@": 12,
  "阴煞元魂": 12,
  "防静电": 12,
  "心仪": 12,
  "拔出": 12,
  "后期": 12,
  "line": 12,
  "裁": 12,
  "磁场": 12,
  "皇@@": 12,
  "抹布": 12,
  "检出限": 12,
  "毒性": 12,
  "水珠": 12,
  "世界各地": 12,
  "肯": 12,
  "平安": 12,
  "欢@@": 12,
  "纯罡": 12,
  "同等": 12,
  "戏@@": 12,
  "肠胃": 12,
  "桥": 12,
  "强光": 12,
  "密钥": 12,
  "当事人": 12,
  "夫人": 12,
  "小猪": 12,
  "技": 12,
  "十五@@": 12,
  "最初": 12,
  "摸@@": 12,
  "松山": 12,
  "求婚": 12,
  "养生": 12,
  "仲裁": 12,
  "核对": 12,
  "前所未有": 12,
  "黑白": 12,
  "刷毛": 12,
  "胎压": 12,
  "发动": 12,
  "托玛琳": 12,
  "用水": 12,
  "熔炼": 12,
  "检": 12,
  "击晕": 12,
  "TR@@": 12,
  "入群": 12,
  "年代": 12,
  "艾连": 12,
  "舒展": 12,
  "医学": 12,
  "童@@": 12,
  "买二送": 12,
  "讯": 12,
  "提起": 12,
  "夏@@": 12,
  "研究员": 12,
  "狮@@": 12,
  "傲@@": 12,
  "所示": 12,
  "牢笼": 12,
  "3945": 12,
  "上半年": 12,
  "弹力面料": 12,
  "妆@@": 12,
  "惊": 12,
  "迪@@": 12,
  "博@@": 12,
  "度假": 12,
  "活性炭": 12,
  "大面积": 12,
  "0x@@": 12,
  "这一": 12,
  "跳舞": 12,
  "墙壁": 12,
  "摇摇": 12,
  "反面": 12,
  "狗狗": 12,
  "拇指": 12,
  "燃@@": 12,
  "355": 12,
  "清风": 12,
  "大海": 12,
  "称呼": 12,
  "汤@@": 12,
  "一经": 12,
  "愈": 12,
  "语@@": 12,
  "一看": 12,
  "程@@": 12,
  "显示屏": 12,
  "牛奶": 12,
  "Z": 12,
  "汁": 12,
  "346": 12,
  "也好": 12,
  "双击": 12,
  "石板": 12,
  "藻": 12,
  "82%": 12,
  "制冷": 12,
  "双色": 12,
  "乳腺癌": 12,
  "140@@": 12,
  "当季": 12,
  "记住": 12,
  "随行": 12,
  "晓峰": 12,
  "解决方案": 12,
  "败": 12,
  "罪@@": 12,
  "羊": 12,
  "成效": 12,
  "原有": 12,
  "脖颈": 12,
  "莫桑": 12,
  "月华": 12,
  "IN": 12,
  "探险": 12,
  "一贯": 12,
  "元丹": 12,
  "适配器": 12,
  "530": 12,
  "压铸": 12,
  "懒@@": 12,
  "怒海曜石": 12,
  "法律责任": 12,
  "仰@@": 12,
  "乖乖": 12,
  "今晚": 12,
  "价@@": 12,
  "省心": 12,
  "摇滚": 12,
  "军队": 12,
  "XL": 12,
  "棉纤维": 12,
  "可折叠": 12,
  "会长": 12,
  "体会": 12,
  "量测": 12,
  "512": 12,
  "必不可少": 12,
  "高压": 12,
  "日耀曜石": 12,
  "LE@@": 12,
  "下肢": 12,
  "境内": 12,
  "启@@": 12,
  "神蕴印": 12,
  "护腰": 12,
  "哥布塔": 12,
  "0.1%": 12,
  "夺回": 12,
  "艳丽": 12,
  "421": 12,
  "添麻烦": 12,
  "46780": 12,
  "参赛": 12,
  "生存": 12,
  "送礼": 12,
  "柄": 12,
  "阔": 12,
  "魔阵": 12,
  "积累": 12,
  "流动": 12,
  "解救": 12,
  "一夏": 12,
  "却是": 12,
  "服帖": 12,
  "增高鞋": 12,
  "血狼人": 12,
  "节目": 12,
  "种@@": 12,
  "201": 12,
  "一页": 12,
  "巨兽": 12,
  "兼顾": 12,
  "送花": 12,
  "259": 12,
  "手里": 12,
  "吓@@": 12,
  "末": 12,
  "狮王": 12,
  "折算": 12,
  "奉@@": 12,
  "tt@@": 12,
  "用量": 12,
  "喊": 12,
  "善": 12,
  "92%": 12,
  "感强": 12,
  "书写": 12,
  "波长": 12,
  "律": 12,
  "转向": 12,
  "最大值": 12,
  "联系方式": 12,
  "羁绊": 12,
  "一代": 12,
  "秒钟": 12,
  "触碰": 12,
  "夜视": 12,
  "另一@@": 12,
  "局@@": 12,
  "遇@@": 12,
  "浴@@": 12,
  "截曜石": 12,
  "罗兰": 12,
  "夺": 12,
  "气压": 12,
  "沾": 12,
  "机制": 12,
  "浅色": 12,
  "快快": 12,
  "缠@@": 12,
  "巽": 12,
  "狼@@": 12,
  "耐热": 12,
  "妙@@": 12,
  "分辨率": 12,
  "交谈": 12,
  "雨天": 12,
  "156": 12,
  "剧情": 12,
  "为此": 12,
  "盘扣": 12,
  "后果": 12,
  "向往": 12,
  "勇气": 12,
  "Co@@": 12,
  "模版": 12,
  "完好": 12,
  "档位": 12,
  "EE@@": 12,
  "唱": 12,
  "奴家": 12,
  "加文": 12,
  "皱@@": 12,
  "乌@@": 12,
  "魔晶石": 12,
  "书包": 12,
  "92": 12,
  "强悍": 12,
  "举办": 12,
  "卷边": 12,
  "荧光": 12,
  "艺@@": 12,
  "纺@@": 12,
  "真材实料": 12,
  "始@@": 12,
  "69": 12,
  "美白@@": 12,
  "柔软性": 12,
  "魔界": 12,
  "私密": 12,
  "干部": 12,
  "白泽": 12,
  "电能表": 12,
  "四方": 12,
  "腿@@": 12,
  "小蛮": 12,
  "惊讶": 12,
  "简易": 12,
  "②": 12,
  "1401002162": 12,
  "密集": 12,
  "淮": 12,
  "浮雕": 12,
  "居@@": 12,
  "阵容": 12,
  "老板": 12,
  "掌心雷": 12,
  "就行了": 12,
  "凭@@": 12,
  "魔猪": 12,
  "总价": 12,
  "翻倍": 12,
  "十字": 12,
  "卫生间": 12,
  "07": 12,
  "专用章": 12,
  "很少": 12,
  "重磅": 12,
  "占用": 12,
  "不当": 12,
  "赞": 12,
  "无与伦比": 12,
  "氨": 12,
  "集成": 12,
  "易于": 12,
  "前沿": 12,
  "北美": 12,
  "84%": 12,
  "爬@@": 12,
  "演出": 12,
  "坚实": 12,
  "想想": 12,
  "一体式": 12,
  "玉衡": 12,
  "960": 12,
  "31%": 12,
  "浪": 12,
  "这份": 12,
  "名且": 12,
  "好用": 12,
  "真是太": 12,
  "年龄段": 12,
  "星期": 12,
  "吸取": 12,
  "ad@@": 12,
  "看不见": 12,
  "纱线": 12,
  "福地": 12,
  "鳞": 12,
  "戴@@": 12,
  "胖@@": 12,
  "毁": 12,
  "奋@@": 12,
  "积极": 12,
  "整套": 12,
  "北京": 12,
  "束@@": 12,
  "过后": 12,
  "泽": 12,
  "冲撞": 12,
  "不明": 12,
  "秒@@": 12,
  "苗条": 12,
  "珍惜": 12,
  "移速": 12,
  "保护套": 12,
  "脸颊": 12,
  "拧": 12,
  "800000": 12,
  "镀@@": 12,
  "兴趣": 12,
  "架@@": 12,
  "高性能": 12,
  "316": 12,
  "遮盖": 12,
  "体态": 12,
  "款@@": 12,
  "on": 12,
  "坚信": 12,
  "替代": 12,
  "莉亚": 12,
  "金属@@": 12,
  "潮品": 12,
  "134": 12,
  "DI@@": 12,
  "打卡": 12,
  "年前": 12,
  "芙": 12,
  "传达": 12,
  "制备": 12,
  "握住": 12,
  "热卖": 12,
  "打蜡": 12,
  "长效": 12,
  "棉布": 12,
  "天竺": 12,
  "boss@@": 12,
  "珊": 12,
  "阔腿裤": 12,
  "硬件": 12,
  "81": 12,
  "追寻": 12,
  "转发": 12,
  "法器": 12,
  "说不定": 12,
  "肤@@": 12,
  "族@@": 12,
  "143": 12,
  "106": 12,
  "破洞": 12,
  "盗@@": 12,
  "爱美": 12,
  "圣锚": 12,
  "一首": 12,
  "器@@": 12,
  "合并": 12,
  "酒店": 12,
  "曼": 12,
  "盲盒": 12,
  "趣": 12,
  "致力于": 12,
  "厚重": 12,
  "老公": 12,
  "有意思": 12,
  "蛋糕": 12,
  "独具": 12,
  "玩转": 12,
  "888": 12,
  "151": 12,
  "06": 12,
  "锦纶": 12,
  "凌晨": 12,
  "咱们": 12,
  "EVA": 12,
  "提供商": 12,
  "敬@@": 12,
  "自然@@": 12,
  "变焦": 12,
  "胃@@": 12,
  "发言": 12,
  "299": 12,
  "表冠": 12,
  "1.3": 12,
  "辅@@": 12,
  "600@@": 12,
  "某@@": 12,
  "传真": 12,
  "钟@@": 12,
  "邪@@": 12,
  "顶@@": 12,
  "177": 12,
  "赔@@": 12,
  "钢带": 12,
  "魂器": 12,
  "一声": 12,
  "2100": 12,
  "335": 12,
  "卡位": 12,
  "面罩": 12,
  "37%": 12,
  "0000": 12,
  "牵引": 12,
  "缺水": 12,
  "好处": 12,
  "野生": 12,
  "李华": 12,
  "符号": 12,
  "裂地": 12,
  "萌@@": 12,
  "重金属": 12,
  "奶奶": 12,
  "炒锅": 12,
  "压制": 12,
  "毒素": 12,
  "跟着": 12,
  "很难": 12,
  "洞穴": 12,
  "一脸": 12,
  "附着": 12,
  "会议": 12,
  "满屋": 12,
  "新生": 12,
  "见识": 12,
  "谢": 12,
  "搓": 12,
  "上天": 12,
  "天未": 12,
  "V7": 12,
  "矫正器": 12,
  "女娲": 12,
  "242": 12,
  "多多": 12,
  "暗之仙戒": 12,
  "高硬度": 12,
  "亲密": 12,
  "颠覆": 12,
  "映@@": 12,
  "家庭@@": 12,
  "圣灵": 12,
  "清仓": 12,
  "泪": 12,
  "青春期": 12,
  "绑带": 12,
  "咦": 12,
  "发霉": 12,
  "插卡": 12,
  "苍@@": 12,
  "戴上": 12,
  "复位": 12,
  "本森": 12,
  "棕": 12,
  "谈": 12,
  "岸": 12,
  "机械@@": 12,
  "未找到": 12,
  "明细": 12,
  "浅口": 12,
  "狂战": 12,
  "遣散": 11,
  "饮@@": 11,
  "补足": 11,
  "虚": 11,
  "签@@": 11,
  "123": 11,
  "猫咪": 11,
  "风舞": 11,
  "珠光": 11,
  "插袋": 11,
  "521": 11,
  "签退": 11,
  "中性": 11,
  "兹": 11,
  "景@@": 11,
  "遗失": 11,
  "戒@@": 11,
  "两只": 11,
  "36000": 11,
  "反绒": 11,
  "加购": 11,
  "破军": 11,
  "瘦脸": 11,
  "阿尔瓦": 11,
  "众神": 11,
  "冲天": 11,
  "范@@": 11,
  "审美": 11,
  "治@@": 11,
  "场上": 11,
  "摆放": 11,
  "5.4%": 11,
  "重复使用": 11,
  "江湖": 11,
  "熨斗": 11,
  "创": 11,
  "驱使": 11,
  "抵扣": 11,
  "返@@": 11,
  "公章": 11,
  "368": 11,
  "适@@": 11,
  "免疫力": 11,
  "礼@@": 11,
  "夹层": 11,
  "服务费": 11,
  "竞@@": 11,
  "袖子": 11,
  "1750": 11,
  "防治": 11,
  "锋": 11,
  "99.@@": 11,
  "萌萌": 11,
  "3840": 11,
  "445": 11,
  "卫@@": 11,
  "幸运值": 11,
  "逸": 11,
  "断线": 11,
  "爆满": 11,
  "亮泽": 11,
  "青年": 11,
  "揉搓": 11,
  "连接处": 11,
  "忍受": 11,
  "案件": 11,
  "缸": 11,
  "2mm": 11,
  "1700": 11,
  "打结": 11,
  "松开": 11,
  "恩": 11,
  "直击": 11,
  "赛@@": 11,
  "11310": 11,
  "旅程": 11,
  "忙碌": 11,
  "668": 11,
  "镀": 11,
  "彩虹": 11,
  "浑身": 11,
  "神使": 11,
  "手拿包": 11,
  "效能": 11,
  "3931": 11,
  "三件": 11,
  "13282": 11,
  "甩": 11,
  "九幽": 11,
  "转换成": 11,
  "犹豫": 11,
  "326": 11,
  "穴": 11,
  "222": 11,
  "职责": 11,
  "308": 11,
  "灌@@": 11,
  "示@@": 11,
  "232": 11,
  "Me@@": 11,
  "num": 11,
  "水泥": 11,
  "76": 11,
  "夸张": 11,
  "回路": 11,
  "清扫": 11,
  "开阳": 11,
  "龙虾": 11,
  "口碑": 11,
  "出厂": 11,
  "忽@@": 11,
  "装甲": 11,
  "全都": 11,
  "防潮": 11,
  "此外": 11,
  "救命": 11,
  "盟": 11,
  "泰": 11,
  "占@@": 11,
  "小夜灯": 11,
  "电价": 11,
  "302": 11,
  "星可": 11,
  "平底鞋": 11,
  "利于": 11,
  "617": 11,
  "改进": 11,
  "无人@@": 11,
  "命@@": 11,
  "OFF": 11,
  "暴涨": 11,
  "都行": 11,
  "10cm": 11,
  "449": 11,
  "仪式": 11,
  "发明": 11,
  "257": 11,
  "川": 11,
  "电人": 11,
  "珠子": 11,
  "顺": 11,
  "嘴@@": 11,
  "227": 11,
  "含蓄": 11,
  "横向": 11,
  "软硬": 11,
  "挎包": 11,
  "注明": 11,
  "解开": 11,
  "牛皮鞋": 11,
  "SO@@": 11,
  "促": 11,
  "收敛": 11,
  "88%": 11,
  "吉米": 11,
  "58": 11,
  "魔主": 11,
  "男生": 11,
  "衣橱": 11,
  "梅": 11,
  "着色": 11,
  "带领": 11,
  "显著": 11,
  "把@@": 11,
  "汇@@": 11,
  "1200000": 11,
  "百夫长": 11,
  "二维码": 11,
  "枯@@": 11,
  "不卷": 11,
  "交货": 11,
  "系统@@": 11,
  "忽略": 11,
  "像@@": 11,
  "公共@@": 11,
  "郑州市": 11,
  "给出": 11,
  "一同": 11,
  "琐碎": 11,
  "版@@": 11,
  "非法": 11,
  "势@@": 11,
  "庆": 11,
  "692": 11,
  "驱@@": 11,
  "石英表": 11,
  "井@@": 11,
  "霜冻": 11,
  "吸引力": 11,
  "扇@@": 11,
  "XXXX": 11,
  "圣药": 11,
  "236": 11,
  "澎湃": 11,
  "矮@@": 11,
  "怎能": 11,
  "盗": 11,
  "守方": 11,
  "透明质": 11,
  "原液": 11,
  "暴击值": 11,
  "走进": 11,
  "游荡": 11,
  "客@@": 11,
  "bi@@": 11,
  "破产": 11,
  "还给": 11,
  "奔@@": 11,
  "务@@": 11,
  "患@@": 11,
  "感情": 11,
  "后视镜": 11,
  "天丝": 11,
  "th@@": 11,
  "释": 11,
  "孵化": 11,
  "院校": 11,
  "老年人": 11,
  "布置": 11,
  "已过期": 11,
  "音乐@@": 11,
  "地力": 11,
  "义@@": 11,
  "233": 11,
  "对号入座": 11,
  "白领": 11,
  "ES@@": 11,
  "压印": 11,
  "忘": 11,
  "财产": 11,
  "忠@@": 11,
  "宿": 11,
  "利特": 11,
  "公里": 11,
  "TPU": 11,
  "雪花": 11,
  "没能": 11,
  "冉冉": 11,
  "徽章": 11,
  "雪兽": 11,
  "信心": 11,
  "转后": 11,
  "步数": 11,
  "聪明": 11,
  "待机时间": 11,
  "无关": 11,
  "要死": 11,
  "超凡": 11,
  "门帘": 11,
  "357": 11,
  "细心": 11,
  "旅@@": 11,
  "总会": 11,
  "奖池": 11,
  "争霸赛": 11,
  "代言": 11,
  "148": 11,
  "副@@": 11,
  "摇晃": 11,
  "冰风暴": 11,
  "两者": 11,
  "杯子": 11,
  "违约": 11,
  "质朴": 11,
  "粗大": 11,
  "65@@": 11,
  "鞋套": 11,
  "优于": 11,
  "冲突": 11,
  "家务": 11,
  "shopline": 11,
  "棒球": 11,
  "佛": 11,
  "合流": 11,
  "几年": 11,
  "三重": 11,
  "12510": 11,
  "砂@@": 11,
  "87": 11,
  "疮": 11,
  "IS@@": 11,
  "要说": 11,
  "2.3": 11,
  "甘@@": 11,
  "688": 11,
  "第二次": 11,
  "吸入": 11,
  "TPR": 11,
  "男款": 11,
  "流光": 11,
  "铅": 11,
  "电阻": 11,
  "S925": 11,
  "单笔": 11,
  "源头": 11,
  "VIP4": 11,
  "MO@@": 11,
  "礼券": 11,
  "风之仙镯": 11,
  "307": 11,
  "仪@@": 11,
  "豪@@": 11,
  "送达": 11,
  "乘": 11,
  "4.4": 11,
  "城中": 11,
  "娇@@": 11,
  "下架": 11,
  "资产": 11,
  "发色": 11,
  "怪@@": 11,
  "93": 11,
  "魂兽": 11,
  "凝霜": 11,
  "⼀": 11,
  "飞虹": 11,
  "条数": 11,
  "俱@@": 11,
  "割@@": 11,
  "一瞬间": 11,
  "娜": 11,
  "脱水": 11,
  "绵@@": 11,
  "益": 11,
  "佩带": 11,
  "法人": 11,
  "屋@@": 11,
  "经济@@": 11,
  "熊猫": 11,
  "越强": 11,
  "现有": 11,
  "338": 11,
  "扫": 11,
  "花洒": 11,
  "凯@@": 11,
  "撕@@": 11,
  "浪@@": 11,
  "储物袋": 11,
  "雄鹰": 11,
  "后腰": 11,
  "696": 11,
  "进而": 11,
  "PE@@": 11,
  "订@@": 11,
  "400@@": 11,
  "耳道": 11,
  "奔跑": 11,
  "难得": 11,
  "耳塞": 11,
  "众@@": 11,
  "抛@@": 11,
  "349": 11,
  "这句": 11,
  "11520": 11,
  "曼妙": 11,
  "轻松自在": 11,
  "凹@@": 11,
  "盆@@": 11,
  "咬": 11,
  "亮灯": 11,
  "常常": 11,
  "户外活动": 11,
  "阶后": 11,
  "拥@@": 11,
  "拒@@": 11,
  "455": 11,
  "示范": 11,
  "14000": 11,
  "演": 11,
  "3660": 11,
  "25500": 11,
  "广西": 11,
  "叛@@": 11,
  "凝结": 11,
  "余": 11,
  "大多": 11,
  "考勤": 11,
  "悲@@": 11,
  "本地": 11,
  "盐": 11,
  "醉": 11,
  "蒲公英": 11,
  "ce": 11,
  "556": 11,
  "交替": 11,
  "wifi": 11,
  "声明": 11,
  "斩杀": 11,
  "见效": 11,
  "诉@@": 11,
  "马甲": 11,
  "MP3": 11,
  "妖魄": 11,
  "全天候": 11,
  "pro": 11,
  "发动机": 11,
  "迪": 11,
  "引": 11,
  "而出": 11,
  "4CM": 11,
  "刷怪": 11,
  "保": 11,
  "鲜": 11,
  "on@@": 11,
  "泰文": 11,
  "曲线美": 11,
  "体温计": 11,
  "青兽": 11,
  "适度": 11,
  "前卫": 11,
  "魔蝠": 11,
  "保驾护航": 11,
  "政@@": 11,
  "氧@@": 11,
  "担@@": 11,
  "必需": 11,
  "10500": 11,
  "聚魂": 11,
  "2.75%": 11,
  "到位": 11,
  "光辉": 11,
  "心魔习": 11,
  "之作": 11,
  "汇率": 11,
  "泉": 11,
  "单立": 11,
  "高额": 11,
  "轰顶": 11,
  "香氛": 11,
  "187": 11,
  "＄": 11,
  "火剑袭": 11,
  "楼梯": 11,
  "235": 11,
  "各地": 11,
  "740": 11,
  "厕所": 11,
  "坎": 11,
  "光脚": 11,
  "安装@@": 11,
  "神王": 11,
  "提议": 11,
  "障碍": 11,
  "惩罚": 11,
  "新宠": 11,
  "所属": 11,
  "典": 11,
  "am@@": 11,
  "秉承": 11,
  "肆意": 11,
  "妙": 11,
  "789": 11,
  "冰爆": 11,
  "中式": 11,
  "180000": 11,
  "刺探": 11,
  "摆件": 11,
  "毁灭": 11,
  "n580": 11,
  "纸张": 11,
  "镜@@": 11,
  "存入": 11,
  "袋@@": 11,
  "蘑菇": 11,
  "骑@@": 11,
  "滴水": 11,
  "胸口": 11,
  "64@@": 11,
  "卡伦": 11,
  "契合": 11,
  "卑@@": 11,
  "沙滩鞋": 11,
  "147": 11,
  "字体": 11,
  "热能": 11,
  "红外线": 11,
  "154": 11,
  "适量": 11,
  "医药": 11,
  "扔": 11,
  "太空": 11,
  "面霜": 11,
  "501": 11,
  "异议": 11,
  "方头": 11,
  "段@@": 11,
  "唇部": 11,
  "爆": 11,
  "顾": 11,
  "2008": 11,
  "靓@@": 11,
  "佛陀": 11,
  "f": 11,
  "桶": 11,
  "料@@": 11,
  "分层": 11,
  "铸灵": 11,
  "叮咬": 11,
  "时请": 11,
  "异性": 11,
  "大乘": 11,
  "最少": 11,
  "船长": 11,
  "午@@": 11,
  "衣柜": 11,
  "会员价": 11,
  "骗@@": 11,
  "字词": 11,
  "阴凉处": 11,
  "状@@": 11,
  "票@@": 11,
  "红肿": 11,
  "罗": 11,
  "掉@@": 11,
  "诸多": 11,
  "闻@@": 11,
  "分区": 11,
  "郎": 11,
  "信息@@": 11,
  "海族": 11,
  "天花板": 11,
  "凌乱": 11,
  "尿@@": 11,
  "诱惑": 11,
  "两颗": 11,
  "采样": 11,
  "日记": 11,
  "隔@@": 11,
  "水之魔": 11,
  "妹子": 11,
  "相思": 11,
  "无双": 11,
  "药园": 11,
  "记": 11,
  "淋漓": 11,
  "俗": 11,
  "宽大": 11,
  "剪": 11,
  "犯": 11,
  "烟雾": 11,
  "抵": 11,
  "每轮": 11,
  "不论": 11,
  "项下": 11,
  "升品": 11,
  "356": 11,
  "各种各样": 11,
  "全天": 11,
  "车间": 11,
  "妩媚": 11,
  "实惠": 11,
  "​": 11,
  "康": 11,
  "踪迹": 11,
  "面子": 11,
  "暗扣": 11,
  "活化": 11,
  "小友": 11,
  "缩短": 11,
  "捕食": 11,
  "瑶光": 11,
  "甜": 11,
  "耐用性": 11,
  "览": 11,
  "小孩子": 11,
  "312": 11,
  "427": 11,
  "延伸": 11,
  "指标": 11,
  "第一步": 11,
  "迦蓝炎": 11,
  "缓慢": 11,
  "514": 11,
  "最美": 11,
  "娃娃": 11,
  "小腹": 11,
  "小子": 11,
  "762": 11,
  "主动攻击": 11,
  "高考": 11,
  "情怀": 11,
  "尤": 11,
  "秋冬季": 11,
  "奥地利": 11,
  "不均": 11,
  "警示": 11,
  "遮住": 11,
  "匠人": 11,
  "应付": 11,
  "出错": 11,
  "脚垫": 11,
  "裁@@": 11,
  "百褶": 11,
  "采": 11,
  "请谅解": 11,
  "告": 11,
  "黑龙波": 11,
  "查克": 11,
  "退换货": 11,
  "ce@@": 11,
  "圣符": 11,
  "敦煌": 11,
  "逃杀": 11,
  "荒城": 11,
  "选品": 11,
  "电磁炮": 11,
  "弄": 11,
  "一一": 11,
  "收件人": 11,
  "2012": 11,
  "由内而外": 11,
  "•": 11,
  "熟": 11,
  "不让": 11,
  "梁": 11,
  "4101": 11,
  "尚": 11,
  "六日": 11,
  "256": 11,
  "无障碍": 11,
  "灵器": 11,
  "TE@@": 11,
  "大胆": 11,
  "青春活力": 11,
  "星人族": 11,
  "校": 11,
  "7500": 11,
  "不乏": 11,
  "终": 11,
  "递@@": 11,
  "半个": 11,
  "109": 11,
  "框架": 11,
  "原厂": 11,
  "LION": 11,
  "报酬": 11,
  "姓": 11,
  "论@@": 11,
  "妈咪": 11,
  "不出": 11,
  "情绪": 11,
  "登场": 11,
  "硅": 11,
  "混纺": 11,
  "与子成": 11,
  "MP@@": 11,
  "逍遥": 11,
  "2303": 11,
  "家园": 11,
  "1054": 11,
  "侵蚀": 11,
  "如需": 11,
  "借": 11,
  "插座": 11,
  "轻快": 11,
  "糟糕": 11,
  "责": 11,
  "an": 11,
  "鉴别": 10,
  "467": 10,
  "延@@": 10,
  "113": 10,
  "春装": 10,
  "脱离": 10,
  "2277": 10,
  "鲜明": 10,
  "焚烧": 10,
  "精梳棉": 10,
  "防线": 10,
  "流线": 10,
  "变换": 10,
  "遇": 10,
  "朗": 10,
  "内层": 10,
  "耦合": 10,
  "哥@@": 10,
  "599": 10,
  "兰@@": 10,
  "孔位": 10,
  "鳞片": 10,
  "593": 10,
  "更快": 10,
  "拿到": 10,
  "石像": 10,
  "车体": 10,
  "眼光": 10,
  "回避": 10,
  "GDP": 10,
  "依赖": 10,
  "填埋场": 10,
  "于世": 10,
  "相处": 10,
  "4053": 10,
  "166": 10,
  "不佳": 10,
  "实名": 10,
  "真诚": 10,
  "竹@@": 10,
  "网上": 10,
  "忍@@": 10,
  "画质": 10,
  "新体验": 10,
  "企划": 10,
  "逼@@": 10,
  "做法": 10,
  "末@@": 10,
  "搭建": 10,
  "予": 10,
  "329": 10,
  "纵@@": 10,
  "止鼾": 10,
  "精挑细选": 10,
  "挽": 10,
  "想瘦": 10,
  "一流": 10,
  "廿@@": 10,
  "台币": 10,
  "国家标准": 10,
  "8600": 10,
  "后置": 10,
  "283": 10,
  "刺客": 10,
  "减脂": 10,
  "幽邃": 10,
  "灵王": 10,
  "排湿": 10,
  "凤印": 10,
  "有时": 10,
  "第一个": 10,
  "327": 10,
  "多谢": 10,
  "仕": 10,
  "币种": 10,
  "PM2.5": 10,
  "不起": 10,
  "通路": 10,
  "回弹力": 10,
  "自杀": 10,
  "储能": 10,
  "结构设计": 10,
  "下集": 10,
  "婴幼儿": 10,
  "天玑": 10,
  "之光": 10,
  "111": 10,
  "帐": 10,
  "矮人": 10,
  "冠": 10,
  "一家": 10,
  "钓鱼": 10,
  "拍卖": 10,
  "1000@@": 10,
  "篮球": 10,
  "第二代": 10,
  "岩浆": 10,
  "寒冰": 10,
  "碳@@": 10,
  "大包": 10,
  "ri@@": 10,
  "Ch@@": 10,
  "振膜": 10,
  "尽头": 10,
  "隔": 10,
  "默@@": 10,
  "生方": 10,
  "饭菜": 10,
  "591": 10,
  "茱莉亚": 10,
  "白头": 10,
  "窝": 10,
  "19.@@": 10,
  "291": 10,
  "浅@@": 10,
  "新年": 10,
  "重现": 10,
  "大脚": 10,
  "悟": 10,
  "命名": 10,
  "EXCEL": 10,
  "两位": 10,
  "V4": 10,
  "11330": 10,
  "内存卡": 10,
  "卸妆": 10,
  "3888": 10,
  "寂寞": 10,
  "派@@": 10,
  "洗面奶": 10,
  "毒雾": 10,
  "PS": 10,
  "4.5": 10,
  "暴露": 10,
  "快递": 10,
  "采摘": 10,
  "玛@@": 10,
  "灵敏度": 10,
  "743": 10,
  "雷姆": 10,
  "血肉": 10,
  "环境影响": 10,
  "539": 10,
  "7969": 10,
  "可不": 10,
  "1007": 10,
  "几分钟": 10,
  "可塑性": 10,
  "第二阶段": 10,
  "巧@@": 10,
  "驻@@": 10,
  "造访": 10,
  "561": 10,
  "来源于": 10,
  "萃": 10,
  "3977": 10,
  "癣": 10,
  "注定": 10,
  "不含": 10,
  "问道": 10,
  "休": 10,
  "发电厂": 10,
  "焦@@": 10,
  "中东地区": 10,
  "润滑": 10,
  "每位": 10,
  "19750": 10,
  "背光": 10,
  "上端": 10,
  "养分": 10,
  "命中注定": 10,
  "客户经理": 10,
  "49%": 10,
  "杂@@": 10,
  "加盖": 10,
  "皇宫": 10,
  "壮@@": 10,
  "内裹": 10,
  "光子": 10,
  "符文令": 10,
  "369": 10,
  "危机": 10,
  "双头": 10,
  "淡雅": 10,
  "194": 10,
  "新娘": 10,
  "空战": 10,
  "骗": 10,
  "多亏": 10,
  "服从": 10,
  "477": 10,
  "石英": 10,
  "鼓@@": 10,
  "权重": 10,
  "非常@@": 10,
  "94": 10,
  "丢@@": 10,
  "466": 10,
  "过高": 10,
  "乱世": 10,
  "ro@@": 10,
  "旋@@": 10,
  "怀": 10,
  "c7": 10,
  "去角质": 10,
  "大风": 10,
  "大本营": 10,
  "与其": 10,
  "线香": 10,
  "键盘": 10,
  "供奉": 10,
  "406": 10,
  "轰@@": 10,
  "SI@@": 10,
  "液@@": 10,
  "统帅": 10,
  "431": 10,
  "553": 10,
  "应立即": 10,
  "脚面": 10,
  "倾心": 10,
  "鸾": 10,
  "高质量": 10,
  "516": 10,
  "建筑@@": 10,
  "至级": 10,
  "早晚": 10,
  "判": 10,
  "吊": 10,
  "僵硬": 10,
  "圆环": 10,
  "登山": 10,
  "覆@@": 10,
  "plus": 10,
  "屋": 10,
  "做饭": 10,
  "571": 10,
  "袍": 10,
  "车内": 10,
  "停": 10,
  "肿@@": 10,
  "NO@@": 10,
  "ro": 10,
  "LE": 10,
  "羊@@": 10,
  "添": 10,
  "朴": 10,
  "帆布包": 10,
  "ST@@": 10,
  "咒": 10,
  "故@@": 10,
  "闭@@": 10,
  "化身": 10,
  "认购": 10,
  "第二名": 10,
  "不便": 10,
  "稍@@": 10,
  "兔": 10,
  "性好": 10,
  "釆": 10,
  "地板": 10,
  "7640": 10,
  "生灵": 10,
  "竟": 10,
  "69800": 10,
  "窈窕": 10,
  "279": 10,
  "遮掩": 10,
  "连身": 10,
  "醒来": 10,
  "城墙": 10,
  "单人": 10,
  "参战": 10,
  "手续费": 10,
  "装配": 10,
  "混淆": 10,
  "洗衣粉": 10,
  "四种": 10,
  "充值卡": 10,
  "拜拜": 10,
  "席@@": 10,
  "活泼": 10,
  "玉流": 10,
  "5220": 10,
  "抖": 10,
  "铅笔": 10,
  "美金": 10,
  "2.4": 10,
  "工人": 10,
  "零售业": 10,
  "以往": 10,
  "绵羊": 10,
  "出手": 10,
  "2291": 10,
  "闭合": 10,
  "葫": 10,
  "解绑": 10,
  "泰拉": 10,
  "1350": 10,
  "世间": 10,
  "汉服": 10,
  "下半身": 10,
  "向下": 10,
  "不羁": 10,
  "月桂": 10,
  "樱岛": 10,
  "额定": 10,
  "记载": 10,
  "202": 10,
  "爱车": 10,
  "手握": 10,
  "而定": 10,
  "绿野仙踪": 10,
  "呼": 10,
  "搬运": 10,
  "室@@": 10,
  "18.@@": 10,
  "妇": 10,
  "马克": 10,
  "三清": 10,
  "573": 10,
  "芯@@": 10,
  "Shopify": 10,
  "占据": 10,
  "13611": 10,
  "131": 10,
  "贡": 10,
  "武装": 10,
  "煌": 10,
  "后袋": 10,
  "香皂": 10,
  "巡@@": 10,
  "抓紧时间": 10,
  "出水": 10,
  "炎炎夏日": 10,
  "困惑": 10,
  "214": 10,
  "复苏": 10,
  "靠背": 10,
  "控制器": 10,
  "fe@@": 10,
  "HO@@": 10,
  "4078": 10,
  "基地": 10,
  "本事": 10,
  "冲孔": 10,
  "洗漱": 10,
  "寒芒": 10,
  "走出": 10,
  "喷射": 10,
  "分析@@": 10,
  "美背": 10,
  "骨头": 10,
  "优": 10,
  "昵称": 10,
  "210510": 10,
  "LU@@": 10,
  "皆宜": 10,
  "不可思议": 10,
  "看出": 10,
  "xx": 10,
  "药品监督管理局": 10,
  "722": 10,
  "PIN": 10,
  "厂区": 10,
  "14.5%": 10,
  "阵法": 10,
  "热敷": 10,
  "鱼竿": 10,
  "沥水": 10,
  "享瘦": 10,
  "享有": 10,
  "口感": 10,
  "盖子": 10,
  "减小": 10,
  "在内": 10,
  "内部结构": 10,
  "宴会": 10,
  "吨": 10,
  "途@@": 10,
  "大屏": 10,
  "显瘦@@": 10,
  "苍影": 10,
  "悄@@": 10,
  "426": 10,
  "HOLD": 10,
  "私处": 10,
  "T2": 10,
  "一个@@": 10,
  "芳@@": 10,
  "擦@@": 10,
  "肿胀": 10,
  "793": 10,
  "薄荷": 10,
  "男包": 10,
  "点金": 10,
  "咩": 10,
  "665": 10,
  "701": 10,
  "长老": 10,
  "搭载": 10,
  "疏@@": 10,
  "焕发": 10,
  "汉": 10,
  "望方": 10,
  "星期五": 10,
  "执": 10,
  "失": 10,
  "指示": 10,
  "修为": 10,
  "打折": 10,
  "渗入": 10,
  "广大": 10,
  "40W": 10,
  "CN@@": 10,
  "真皮层": 10,
  "同心": 10,
  "三生石": 10,
  "春夏季": 10,
  "偷": 10,
  "房屋": 10,
  "点点": 10,
  "自由@@": 10,
  "梅@@": 10,
  "死方": 10,
  "穿梭": 10,
  "322": 10,
  "诉": 10,
  "冰雪": 10,
  "象": 10,
  "前辈": 10,
  "炫耀": 10,
  "污染源": 10,
  "果真": 10,
  "超弹": 10,
  "Nm3": 10,
  "实测": 10,
  "721": 10,
  "巅": 10,
  "包头": 10,
  "可燃": 10,
  "年度": 10,
  "后盖": 10,
  "护法": 10,
  "两条": 10,
  "277": 10,
  "无暇": 10,
  "录制": 10,
  "这群": 10,
  "第三阶段": 10,
  "疗法": 10,
  "微针": 10,
  "分数": 10,
  "素材": 10,
  "不勒": 10,
  "愿@@": 10,
  "流逝": 10,
  "猛@@": 10,
  "灯管": 10,
  "G2": 10,
  "腰腹": 10,
  "荷花": 10,
  "79@@": 10,
  "租": 10,
  "663": 10,
  "藤": 10,
  "一人": 10,
  "木材": 10,
  "什么样": 10,
  "不好意思": 10,
  "发达": 10,
  "肩宽": 10,
  "屠杀": 10,
  "潇洒": 10,
  "回生": 10,
  "不满": 10,
  "无惧": 10,
  "搞": 10,
  "阴凉": 10,
  "浆": 10,
  "303": 10,
  "胶垫": 10,
  "包邮": 10,
  "⼝": 10,
  "⻔": 10,
  "53": 10,
  "危险@@": 10,
  "手下": 10,
  "检修": 10,
  "粘性": 10,
  "真相": 10,
  "惨@@": 10,
  "炎城": 10,
  "匠": 10,
  "阿联酋": 10,
  "花型": 10,
  "不死": 10,
  "会以": 10,
  "搬@@": 10,
  "569": 10,
  "销售@@": 10,
  "万元": 10,
  "操作@@": 10,
  "1.8": 10,
  "元老": 10,
  "承载": 10,
  "358": 10,
  "毫无@@": 10,
  "429": 10,
  "＋": 10,
  "周日": 10,
  "医@@": 10,
  "幸@@": 10,
  "山川": 10,
  "另@@": 10,
  "挤@@": 10,
  "原初": 10,
  "495": 10,
  "无疑": 10,
  "独自": 10,
  "天秤": 10,
  "抵达": 10,
  "一览@@": 10,
  "408": 10,
  "良@@": 10,
  "符@@": 10,
  "爱意": 10,
  "116": 10,
  "凡人": 10,
  "战鼓": 10,
  "354": 10,
  "眼球": 10,
  "真红": 10,
  "脖": 10,
  "美化": 10,
  "仅为": 10,
  "纱@@": 10,
  "耐腐蚀": 10,
  "组成部分": 10,
  "脑": 10,
  "鳄鱼": 10,
  "再现": 10,
  "纵火者": 10,
  "油污": 10,
  "完后": 10,
  "墓园": 10,
  "王道": 10,
  "何种": 10,
  "240%": 10,
  "敷@@": 10,
  "氧气": 10,
  "LA@@": 10,
  "一点点": 10,
  "SA@@": 10,
  "78@@": 10,
  "419": 10,
  "阶红品": 10,
  "反对": 10,
  "套筒": 10,
  "春天": 10,
  "悠@@": 10,
  "中东": 10,
  "大增": 10,
  "映": 10,
  "漫步": 10,
  "751": 10,
  "公布": 10,
  "粒子": 10,
  "毫安": 10,
  "乃@@": 10,
  "NFC": 10,
  "NE@@": 10,
  "封面": 10,
  "594": 10,
  "那位": 10,
  "1050": 10,
  "电路": 10,
  "贝壳": 10,
  "昂": 10,
  "处处": 10,
  "231": 10,
  "有益": 10,
  "屏蔽": 10,
  "履": 10,
  "159": 10,
  "73": 10,
  "婚宴": 10,
  "后以": 10,
  "空气流通": 10,
  "特制": 10,
  "见于": 10,
  "750000": 10,
  "单层": 10,
  "代理人": 10,
  "作战": 10,
  "付@@": 10,
  "610": 10,
  "鲜血": 10,
  "变为": 10,
  "都@@": 10,
  "平角": 10,
  "670": 10,
  "27750": 10,
  "一贴": 10,
  "议@@": 10,
  "物料": 10,
  "何": 10,
  "新疆": 10,
  "68%": 10,
  "辅助材料": 10,
  "耳坠": 10,
  "扎": 10,
  "的@@": 10,
  "满足条件": 10,
  "797": 10,
  "索": 10,
  "途中": 10,
  "咯": 10,
  "彼此": 10,
  "重心": 10,
  "形体": 10,
  "严选": 10,
  "不许": 10,
  "个人@@": 10,
  "晚@@": 10,
  "你家": 10,
  "班级": 10,
  "依@@": 10,
  "小钢炮": 10,
  "批": 10,
  "大力": 10,
  "起点": 10,
  "鞋后跟": 10,
  "邮箱地址": 10,
  "黛星帝": 10,
  "糖@@": 10,
  "魔蛛": 10,
  "查@@": 10,
  "顶端": 10,
  "527": 10,
  "j@@": 10,
  "41%": 10,
  "火龙王": 10,
  "虾": 10,
  "供选择": 10,
  "诀": 10,
  "尼龙布": 10,
  "饰@@": 10,
  "模仿": 10,
  "至上": 10,
  "燃": 10,
  "链@@": 10,
  "清零": 10,
  "勒痕": 10,
  "142": 10,
  "c9": 10,
  "110%": 10,
  "格局": 10,
  "头衔": 10,
  "梳@@": 10,
  "看似": 10,
  "饮": 10,
  "4G": 10,
  "405": 10,
  "星神": 10,
  "畅通": 10,
  "564": 10,
  "豆": 10,
  "算了": 10,
  "332": 10,
  "鼠@@": 10,
  "怀疑": 10,
  "四面": 10,
  "引进": 10,
  "选码": 10,
  "公安局": 10,
  "栀子花": 10,
  "祛": 10,
  "威斯": 10,
  "玩笑": 10,
  "in": 10,
  "聚宝": 10,
  "蓬松": 10,
  "银针": 10,
  "下雨天": 10,
  "冬": 10,
  "帝@@": 10,
  "道歉": 10,
  "拜@@": 10,
  "596": 10,
  "封神": 10,
  "区间": 10,
  "前倾": 10,
  "鞋履": 10,
  "煮": 10,
  "项@@": 10,
  "解码": 10,
  "G3": 10,
  "褶": 10,
  "稿": 10,
  "暴": 10,
  "552": 10,
  "442": 10,
  "胶水": 10,
  "顺时针": 10,
  "乐园": 10,
  "贡@@": 10,
  "申请加入": 10,
  "难以@@": 10,
  "香味": 10,
  "瓷": 10,
  "VIP6": 10,
  "专页": 10,
  "6750": 10,
  "雷之仙符": 10,
  "无妄猿": 10,
  "小牛皮": 10,
  "364": 10,
  "担任": 10,
  "优惠券": 10,
  "匹@@": 10,
  "伴侣": 10,
  "展@@": 10,
  "植物纤维": 10,
  "快干": 10,
  "供应商": 10,
  "c45": 10,
  "UM@@": 10,
  "远远": 10,
  "严苛": 10,
  "从来": 10,
  "别样": 10,
  "不透气": 10,
  "极为": 10,
  "先锋": 10,
  "胸垫": 10,
  "青少年": 10,
  "脆弱": 10,
  "睡姿": 10,
  "无纺布": 10,
  "残废": 10,
  "早餐": 10,
  "319": 10,
  "灼@@": 10,
  "马桶": 10,
  "13625": 10,
  "这样一来": 10,
  "获胜": 10,
  "暖宫": 10,
  "垂感": 10,
  "286": 10,
  "活性氧": 10,
  "效力": 10,
  "微循环": 10,
  "驱虫": 10,
  "715": 10,
  "刷子": 10,
  "两不误": 10,
  "vi@@": 10,
  "花灯": 10,
  "纳米银": 10,
  "180@@": 10,
  "反向": 10,
  "利风曜石": 10,
  "461": 10,
  "陷": 10,
  "忌": 10,
  "弄@@": 10,
  "官@@": 10,
  "染料": 10,
  "冲锋衣": 10,
  "美式": 10,
  "置换": 10,
  "387": 10,
  "效果显著": 10,
  "曲度": 10,
  "37625": 10,
  "还好": 10,
  "必填": 10,
  "MB": 10,
  "鲁人": 10,
  "玄月": 10,
  "呼吸@@": 10,
  "TH@@": 10,
  "一圈": 10,
  "471": 10,
  "1575": 10,
  "电视机": 10,
  "喷出": 10,
  "瘦腰": 10,
  "方可": 9,
  "制造商": 9,
  "4074": 9,
  "292": 9,
  "裁切": 9,
  "18k": 9,
  "限值": 9,
  "精琢": 9,
  "2288": 9,
  "梨@@": 9,
  "劲@@": 9,
  "SEO": 9,
  "ke@@": 9,
  "仓储": 9,
  "对接": 9,
  "豁免": 9,
  "职务": 9,
  "至于": 9,
  "鲜艳": 9,
  "鸡@@": 9,
  "话说回来": 9,
  "溢@@": 9,
  "过大": 9,
  "曝光": 9,
  "粘胶纤维": 9,
  "506": 9,
  "超火": 9,
  "572": 9,
  "艮": 9,
  "交互": 9,
  "李@@": 9,
  "小计": 9,
  "3.0": 9,
  "辣": 9,
  "3.3": 9,
  "雪人": 9,
  "塔斯": 9,
  "龙王": 9,
  "知名": 9,
  "颗@@": 9,
  "人才": 9,
  "毫不@@": 9,
  "孕期": 9,
  "内壁": 9,
  "buff@@": 9,
  "单纯": 9,
  "457": 9,
  "535": 9,
  "炼魂": 9,
  "足迹": 9,
  "狭@@": 9,
  "179": 9,
  "发炎": 9,
  "总金额": 9,
  "特地": 9,
  "革": 9,
  "有名": 9,
  "工作鞋": 9,
  "划痕": 9,
  "当成": 9,
  "586": 9,
  "1996": 9,
  "修行": 9,
  "脚尖": 9,
  "配比": 9,
  "异变": 9,
  "旋": 9,
  "轨迹": 9,
  "店@@": 9,
  "仙光": 9,
  "煞": 9,
  "菜鸟": 9,
  "宁@@": 9,
  "闷": 9,
  "件@@": 9,
  "噢": 9,
  "88@@": 9,
  "岛@@": 9,
  "肉眼": 9,
  "蝶": 9,
  "销毁": 9,
  "可不是": 9,
  "精巧": 9,
  "贝": 9,
  "亿枚": 9,
  "药材": 9,
  "而战": 9,
  "727": 9,
  "似@@": 9,
  "起身": 9,
  "109200": 9,
  "裙@@": 9,
  "忠": 9,
  "162": 9,
  "殉道": 9,
  "别说": 9,
  "吸尘": 9,
  "初次见面": 9,
  "席": 9,
  "601": 9,
  "6300": 9,
  "发给": 9,
  "c10": 9,
  "门口": 9,
  "萌": 9,
  "不挤": 9,
  "间距": 9,
  "极细": 9,
  "小队": 9,
  "之手": 9,
  "原生态": 9,
  "452": 9,
  "外置": 9,
  "566": 9,
  "433": 9,
  "二级": 9,
  "493": 9,
  "慢性": 9,
  "120000": 9,
  "悬垂": 9,
  "扯": 9,
  "羽神芒": 9,
  "地形": 9,
  "斩@@": 9,
  "459": 9,
  "尖刺": 9,
  "82": 9,
  "好歹": 9,
  "法石": 9,
  "掌心": 9,
  "趁@@": 9,
  "输送": 9,
  "芦荟": 9,
  "亲近": 9,
  "箱子": 9,
  "总数": 9,
  "烧猪": 9,
  "计费": 9,
  "花瓣": 9,
  "重启": 9,
  "懒": 9,
  "拍打": 9,
  "8.4%": 9,
  "脚后跟": 9,
  "法定": 9,
  "563": 9,
  "us": 9,
  "–": 9,
  "768": 9,
  "优惠@@": 9,
  "斜纹": 9,
  "未到": 9,
  "之意": 9,
  "缘": 9,
  "酒神": 9,
  "户": 9,
  "阁下": 9,
  "700@@": 9,
  "267": 9,
  "对定": 9,
  "主管": 9,
  "高等师范": 9,
  "保护@@": 9,
  "风帽": 9,
  "636": 9,
  "屑": 9,
  "3.25%": 9,
  "杰西": 9,
  "弹簧": 9,
  "测量误差": 9,
  "攻心": 9,
  "761": 9,
  "装饰品": 9,
  "223": 9,
  "赛弗特": 9,
  "松紧度": 9,
  "透光率": 9,
  "本赛季": 9,
  "便利": 9,
  "梯度": 9,
  "升阶": 9,
  "译": 9,
  "云端": 9,
  "梳子": 9,
  "调用": 9,
  "种类": 9,
  "贯@@": 9,
  "慎重": 9,
  "忠诚": 9,
  "友@@": 9,
  "关心": 9,
  "去污": 9,
  "解决问题": 9,
  "坚盾": 9,
  "126": 9,
  "之墙": 9,
  "甘肃": 9,
  "运动量": 9,
  "协@@": 9,
  "身处": 9,
  "同盟": 9,
  "表镜": 9,
  "698": 9,
  "三维": 9,
  "生存率": 9,
  "615": 9,
  "对待": 9,
  "不良@@": 9,
  "719": 9,
  "找个": 9,
  "五分": 9,
  "伴@@": 9,
  "减排": 9,
  "篇": 9,
  "箱包": 9,
  "捏": 9,
  "聘礼": 9,
  "复原": 9,
  "不下": 9,
  "制定": 9,
  "786": 9,
  "支配": 9,
  "334": 9,
  "磁力": 9,
  "14.@@": 9,
  "595": 9,
  "补光": 9,
  "防范措施": 9,
  "是@@": 9,
  "IOS": 9,
  "包内": 9,
  "起皱": 9,
  "爆红款": 9,
  "被誉为": 9,
  "听见": 9,
  "得体": 9,
  "电磁辐射": 9,
  "未成年人": 9,
  "偶然": 9,
  "讨论": 9,
  "做个": 9,
  "啫喱": 9,
  "胜者": 9,
  "402": 9,
  "驱鼠": 9,
  "568": 9,
  "221": 9,
  "淋漓尽致": 9,
  "矩形": 9,
  "900%": 9,
  "贴着": 9,
  "水桶腰": 9,
  "匀称": 9,
  "衬托出": 9,
  "承认": 9,
  "ac@@": 9,
  "编码": 9,
  "普": 9,
  "幻翎": 9,
  "追捧": 9,
  "211": 9,
  "决策": 9,
  "未激活": 9,
  "建造": 9,
  "中秋": 9,
  "18100": 9,
  "2580": 9,
  "墙体": 9,
  "心跳": 9,
  "运动裤": 9,
  "王权": 9,
  "好人": 9,
  "睡袋": 9,
  "圣战": 9,
  "复古风": 9,
  "CO": 9,
  "如有": 9,
  "培养皿": 9,
  "期限内": 9,
  "圣女": 9,
  "608": 9,
  "503": 9,
  "四射": 9,
  "心思": 9,
  "圣诞@@": 9,
  "历经": 9,
  "34@@": 9,
  "1cm": 9,
  "575": 9,
  "高颜值": 9,
  "年来": 9,
  "利斧": 9,
  "之内": 9,
  "23500": 9,
  "144": 9,
  "司机": 9,
  "输入框": 9,
  "洒@@": 9,
  "呆": 9,
  "三日": 9,
  "规@@": 9,
  "闹钟": 9,
  "攻方": 9,
  "鱼子": 9,
  "瑞@@": 9,
  "160@@": 9,
  "第一轮": 9,
  "须知": 9,
  "患者": 9,
  "蒙@@": 9,
  "捕": 9,
  "研": 9,
  "见面": 9,
  "城市@@": 9,
  "怨@@": 9,
  "鬼帝": 9,
  "扩展卡": 9,
  "锤": 9,
  "妖铃": 9,
  "759": 9,
  "入手": 9,
  "哇": 9,
  "点剑魂": 9,
  "加高": 9,
  "收拢": 9,
  "玄金": 9,
  "率性": 9,
  "水蒸气": 9,
  "眼角": 9,
  "迦@@": 9,
  "总能": 9,
  "访": 9,
  "困@@": 9,
  "得知": 9,
  "酒红": 9,
  "84": 9,
  "标淮": 9,
  "几十年": 9,
  "干式": 9,
  "花园": 9,
  "做梦": 9,
  "百姓": 9,
  "网罩": 9,
  "潜水": 9,
  "纯金": 9,
  "董事": 9,
  "装入": 9,
  "放到": 9,
  "婆@@": 9,
  "中袖": 9,
  "荷@@": 9,
  "第二轮": 9,
  "高密": 9,
  "MIN@@": 9,
  "铭刻": 9,
  "闭": 9,
  "勺": 9,
  "包角": 9,
  "遥控器": 9,
  "归来": 9,
  "饭盒": 9,
  "麻布": 9,
  "珠海市": 9,
  "523": 9,
  "落入": 9,
  "海盗": 9,
  "原地": 9,
  "686": 9,
  "周末": 9,
  "359": 9,
  "透视": 9,
  "偷取": 9,
  "光圈": 9,
  "528": 9,
  "依照": 9,
  "魔导师": 9,
  "打扫": 9,
  "舒": 9,
  "联": 9,
  "吹风机": 9,
  "选取": 9,
  "水龙头": 9,
  "乱斗": 9,
  "砖": 9,
  "卡其色": 9,
  "深蓝": 9,
  "操@@": 9,
  "事先": 9,
  "318": 9,
  "雷系": 9,
  "成年人": 9,
  "卸": 9,
  "三宝": 9,
  "640@@": 9,
  "翘@@": 9,
  "破阵": 9,
  "棋子": 9,
  "现价": 9,
  "第七@@": 9,
  "征程": 9,
  "莲花": 9,
  "384": 9,
  "NO": 9,
  "不该": 9,
  "冰牢术": 9,
  "冒@@": 9,
  "取适量": 9,
  "吸走": 9,
  "无法@@": 9,
  "封榜": 9,
  "离不开": 9,
  "猿": 9,
  "伏羲": 9,
  "工作@@": 9,
  "周一": 9,
  "11020": 9,
  "紫水晶": 9,
  "主打": 9,
  "劳损": 9,
  "546": 9,
  "FBA": 9,
  "根源": 9,
  "硅@@": 9,
  "减半": 9,
  "课堂": 9,
  "拨": 9,
  "许@@": 9,
  "融@@": 9,
  "腻": 9,
  "委托人": 9,
  "蒸@@": 9,
  "风系": 9,
  "热闹": 9,
  "制度": 9,
  "473": 9,
  "豹": 9,
  "解压": 9,
  "鸟": 9,
  "集团": 9,
  "案例": 9,
  "excel": 9,
  "伙": 9,
  "169": 9,
  "光灯": 9,
  "533": 9,
  "腰包": 9,
  "MAH": 9,
  "似火": 9,
  "脱颖而出": 9,
  "半袖": 9,
  "俗@@": 9,
  "保险": 9,
  "星河": 9,
  "水分子": 9,
  "到手": 9,
  "侵入": 9,
  "出品": 9,
  "冒": 9,
  "70@@": 9,
  "白金": 9,
  "499": 9,
  "2370": 9,
  "几何": 9,
  "态": 9,
  "参观": 9,
  "惠": 9,
  "猎者": 9,
  "卸载": 9,
  "451": 9,
  "791": 9,
  "记忆合金": 9,
  "丈夫": 9,
  "保鲜": 9,
  "租@@": 9,
  "保暖性": 9,
  "一分钟": 9,
  "繁殖": 9,
  "眉山市": 9,
  "娇嫩": 9,
  "507": 9,
  "127": 9,
  "富@@": 9,
  "外接": 9,
  "焚天": 9,
  "阿卡": 9,
  "投": 9,
  "标示": 9,
  "细嫩": 9,
  "复刻": 9,
  "分离": 9,
  "聚落": 9,
  "弯": 9,
  "餐具": 9,
  "度数": 9,
  "792": 9,
  "遮阳": 9,
  "第三代": 9,
  "炎洞": 9,
  "辞": 9,
  "宣布": 9,
  "批次": 9,
  "丑": 9,
  "凸@@": 9,
  "逃跑": 9,
  "必然": 9,
  "就此": 9,
  "鲜@@": 9,
  "处置": 9,
  "441": 9,
  "克里斯": 9,
  "视线": 9,
  "防腐": 9,
  "餐@@": 9,
  "306": 9,
  "播": 9,
  "重叠": 9,
  "丁": 9,
  "韩式": 9,
  "深刻": 9,
  "黄前": 9,
  "寒冷": 9,
  "478": 9,
  "702": 9,
  "平坦": 9,
  "关爱": 9,
  "247": 9,
  "多加": 9,
  "488": 9,
  "观众": 9,
  "兼修": 9,
  "记录仪": 9,
  "脚肥": 9,
  "800%": 9,
  "思想": 9,
  "po@@": 9,
  "莉娅": 9,
  "美鞋": 9,
  "716": 9,
  "环境空气": 9,
  "琴": 9,
  "投诉": 9,
  "透光": 9,
  "447": 9,
  "554": 9,
  "积": 9,
  "温热": 9,
  "夫@@": 9,
  "格外": 9,
  "借助": 9,
  "近距离": 9,
  "乙": 9,
  "坤": 9,
  "赤霄天": 9,
  "身躯": 9,
  "审议": 9,
  "四肢": 9,
  "停用": 9,
  "799": 9,
  "兴奋": 9,
  "荣": 9,
  "研磨": 9,
  "渡": 9,
  "撕掉": 9,
  "功能@@": 9,
  "意想不到": 9,
  "走向": 9,
  "刺眼": 9,
  "1260": 9,
  "微电": 9,
  "眼里": 9,
  "不同于": 9,
  "脊柱": 9,
  "劈": 9,
  "389": 9,
  "肥皂": 9,
  "专用发票": 9,
  "557": 9,
  "261": 9,
  "之柱": 9,
  "躲": 9,
  "刮痧": 9,
  "增距": 9,
  "另有": 9,
  "不容": 9,
  "四叶草": 9,
  "闺蜜": 9,
  "祖先": 9,
  "现实": 9,
  "妲": 9,
  "盾立": 9,
  "三年级": 9,
  "整件": 9,
  "此刻": 9,
  "钢琴": 9,
  "古神": 9,
  "多元化": 9,
  "产地": 9,
  "高精度": 9,
  "436": 9,
  "不久": 9,
  "229": 9,
  "垢": 9,
  "搜@@": 9,
  "回收站": 9,
  "比起": 9,
  "桃": 9,
  "结缘": 9,
  "哈哈哈哈": 9,
  "蜜蜂": 9,
  "2300": 9,
  "线头": 9,
  "货车": 9,
  "危@@": 9,
  "税费": 9,
  "TE": 9,
  "274": 9,
  "惨": 9,
  "居堂": 9,
  "RO@@": 9,
  "出具": 9,
  "国家有关": 9,
  "野怪": 9,
  "遭受": 9,
  "迟到": 9,
  "兴庆": 9,
  "奢侈": 9,
  "摄影师": 9,
  "法则": 9,
  "再度": 9,
  "电源@@": 9,
  "景象": 9,
  "工地": 9,
  "问世": 9,
  "胶带": 9,
  "不容@@": 9,
  "使命": 9,
  "有效性": 9,
  "扩充": 9,
  "192": 9,
  "点后": 9,
  "丝巾": 9,
  "117": 9,
  "汽@@": 9,
  "性强": 9,
  "摩托车": 9,
  "780": 9,
  "KANKEN": 9,
  "下限": 9,
  "终结": 9,
  "搭档": 9,
  "生死": 9,
  "浸出": 9,
  "洋": 9,
  "0.07": 9,
  "涂鸦": 9,
  "清新自然": 9,
  "有种": 9,
  "397": 9,
  "译稿": 9,
  "红灯": 9,
  "饱和": 9,
  "恋爱": 9,
  "知悉": 9,
  "微孔": 9,
  "经验丰富": 9,
  "进出": 9,
  "织法": 9,
  "水滴": 9,
  "听力": 9,
  "购售": 9,
  "517": 9,
  "607": 9,
  "GPS": 9,
  "听听": 9,
  "布林": 9,
  "两套": 9,
  "腐烂": 9,
  "590": 9,
  "挤": 9,
  "畏惧": 9,
  "词汇": 9,
  "图像": 9,
  "脏污": 9,
  "704": 9,
  "±": 9,
  "1680": 9,
  "op@@": 9,
  "不得了": 9,
  "派个": 9,
  "662": 9,
  "高纯度": 9,
  "正宗": 9,
  "c59": 9,
  "莲@@": 9,
  "偿还债务": 9,
  "642": 9,
  "72000": 9,
  "动画": 9,
  "洪@@": 9,
  "强调": 9,
  "1080P": 9,
  "如初": 9,
  "毕@@": 9,
  "294": 9,
  "更要": 9,
  "管理系统": 9,
  "研@@": 9,
  "朴@@": 9,
  "237": 9,
  "仔细阅读": 9,
  "吸水性": 9,
  "郎@@": 9,
  "珍珑值": 9,
  "183": 9,
  "魔域": 9,
  "341": 9,
  "喝水": 9,
  "静态": 9,
  "心智": 9,
  "坚定": 9,
  "释@@": 9,
  "礼赞": 9,
  "骸": 9,
  "冬@@": 9,
  "YY": 9,
  "路面": 9,
  "产物": 9,
  "不卡@@": 9,
  "电源线": 9,
  "日起": 9,
  "兰": 9,
  "客气": 9,
  "胳膊": 9,
  "展现出": 9,
  "丝毫": 9,
  "龙息": 9,
  "旗@@": 9,
  "笨重": 9,
  "www": 9,
  "勇敢": 9,
  "实践": 9,
  "土壤": 9,
  "高台": 9,
  "交易@@": 9,
  "平静": 9,
  "密训": 9,
  "魔石": 9,
  "落下": 9,
  "最低价": 9,
  "屠@@": 9,
  "弟": 9,
  "瞧": 9,
  "绫罗": 9,
  "世界@@": 9,
  "3335": 9,
  "防晒霜": 9,
  "阁": 9,
  "监测@@": 9,
  "乔": 9,
  "603": 9,
  "呐": 9,
  "印证": 9,
  "平庸": 9,
  "满减": 9,
  "536": 9,
  "708": 9,
  "柚子": 9,
  "油烟": 9,
  "拉链头": 9,
  "策": 9,
  "驭": 9,
  "车道": 9,
  "挨@@": 9,
  "422": 9,
  "蜂": 9,
  "485": 9,
  "游历": 9,
  "新时尚": 9,
  "浴巾": 9,
  "视觉效果": 9,
  "从小": 9,
  "生日": 9,
  "671": 9,
  "凉快": 9,
  "弓@@": 9,
  "问问": 9,
  "郑@@": 9,
  "176": 9,
  "宽带": 9,
  "君@@": 9,
  "时间段": 9,
  "1.4": 9,
  "肚": 9,
  "胡萝卜": 9,
  "真仙": 9,
  "地毯": 9,
  "贪@@": 9,
  "鸭@@": 9,
  "垂": 9,
  "卓@@": 9,
  "双效": 9,
  "翔子": 9,
  "1398": 9,
  "png": 9,
  "679": 9,
  "jpg": 9,
  "582": 9,
  "鞋口": 9,
  "征@@": 9,
  "镜架": 9,
  "Ⅲ": 9,
  "牌子": 9,
  "678": 9,
  "防走光": 9,
  "品牌@@": 9,
  "476": 9,
  "抗压": 9,
  "1530": 9,
  "额@@": 9,
  "粉底": 9,
  "518": 9,
  "1625": 9,
  "残": 9,
  "飘": 9,
  "桩": 9,
  "一类": 9,
  "鱼嘴": 9,
  "血脉": 9,
  "524": 9,
  "催@@": 9,
  "十日": 9,
  "351": 9,
  "公式": 9,
  "453": 9,
  "IPX7": 9,
  "616": 9,
  "菲奥纳": 9,
  "衣袖": 9,
  "指纹": 9,
  "客厅": 9,
  "部族": 9,
  "TEX": 9,
  "没人": 9,
  "296": 9,
  "迎@@": 9,
  "576": 9,
  "握@@": 9,
  "464": 9,
  "4g": 9,
  "活下去": 9,
  "师范大学": 9,
  "小吉": 9,
  "城镇": 9,
  "相结合": 9,
  "维度": 9,
  "乡": 9,
  "217": 9,
  "’": 9,
  "323": 9,
  "qu@@": 9,
  "女朋友": 9,
  "瞬@@": 9,
  "软胶": 9,
  "绘": 9,
  "遍@@": 9,
  "哈@@": 9,
  "径": 9,
  "胶原": 9,
  "臭脚": 9,
  "432": 9,
  "61": 9,
  "邂逅": 9,
  "长剑": 9,
  "ch@@": 9,
  "牧场": 9,
  "311": 9,
  "天品": 9,
  "绕过": 9,
  "扣头": 9,
  "卡槽": 9,
  "逼真": 9,
  "赶走": 9,
  "无可@@": 9,
  "314": 9,
  "隐藏式": 9,
  "热气": 9,
  "哈哈": 9,
  "新版": 9,
  "影武者": 9,
  "付出": 9,
  "第六@@": 9,
  "到期日": 9,
  "弄脏": 9,
  "联合": 9,
  "153": 9,
  "一系列": 9,
  "勇猛": 9,
  "古灵印": 9,
  "方扣": 9,
  "诸@@": 9,
  "残念": 9,
  "观察者": 9,
  "天方": 9,
  "弱@@": 9,
  "术@@": 9,
  "赠@@": 9,
  "爆伤": 9,
  "方向盘": 9,
  "只不过": 9,
  "通知单": 9,
  "万里": 9,
  "中草药": 9,
  "卡七": 9,
  "建筑物": 9,
  "723": 9,
  "428": 9,
  "不二": 9,
  "③": 9,
  "越低": 9,
  "计时器": 9,
  "597": 9,
  "不清": 9,
  "数码": 9,
  "ld": 9,
  "滚珠": 9,
  "斜@@": 9,
  "跳出": 9,
  "墙@@": 9,
  "日至": 9,
  "哨": 9,
  "菜@@": 9,
  "洒脱": 9,
  "都市@@": 9,
  "隆@@": 9,
  "763": 9,
  "抛": 9,
  "发际": 8,
  "内未": 8,
  "皮肤@@": 8,
  "49750": 8,
  "按扣": 8,
  "入组": 8,
  "mo@@": 8,
  "有事": 8,
  "黑点": 8,
  "围绕": 8,
  "汤": 8,
  "363": 8,
  "贫@@": 8,
  "磁铁": 8,
  "252": 8,
  "漠": 8,
  "突刺": 8,
  "皮筋": 8,
  "487": 8,
  "棱镜": 8,
  "兔女郎": 8,
  "个元魂": 8,
  "滑爽": 8,
  "放开": 8,
  "拘@@": 8,
  "维斯": 8,
  "春日": 8,
  "听闻": 8,
  "名次": 8,
  "全场": 8,
  "干枯": 8,
  "涌@@": 8,
  "促@@": 8,
  "手电": 8,
  "翼灵": 8,
  "鞋架": 8,
  "使用@@": 8,
  "529": 8,
  "出新": 8,
  "自称": 8,
  "传到": 8,
  "刑期": 8,
  "售电人": 8,
  "老爷": 8,
  "结局": 8,
  "将来": 8,
  "校对": 8,
  "++": 8,
  "睿智": 8,
  "拟@@": 8,
  "辅材": 8,
  "环节": 8,
  "463": 8,
  "无论如何": 8,
  "太清": 8,
  "部@@": 8,
  "惑": 8,
  "717": 8,
  "塑胶": 8,
  "旁人": 8,
  "置顶": 8,
  "赚": 8,
  "趾甲": 8,
  "桥@@": 8,
  "疲惫": 8,
  "天亮": 8,
  "古龙": 8,
  "往日": 8,
  "减刑": 8,
  "子公司": 8,
  "高速@@": 8,
  "全套": 8,
  "国际标准": 8,
  "边框": 8,
  "铺@@": 8,
  "也就是说": 8,
  "频谱": 8,
  "上档次": 8,
  "府": 8,
  "-----": 8,
  "n1.5": 8,
  "烯": 8,
  "大声": 8,
  "工程@@": 8,
  "早退": 8,
  "469": 8,
  "史": 8,
  "变白": 8,
  "惧怕": 8,
  "阶星": 8,
  "显腿长": 8,
  "肖璞": 8,
  "丰盈": 8,
  "苏醒": 8,
  "详@@": 8,
  "惧": 8,
  "带你去": 8,
  "海魔克鲁拉": 8,
  "slp": 8,
  "汽车座椅": 8,
  "瓜@@": 8,
  "腔体": 8,
  "渗透率": 8,
  "一番": 8,
  "秀出": 8,
  "健身房": 8,
  "舒畅": 8,
  "干洗": 8,
  "买方": 8,
  "位面": 8,
  "每种": 8,
  "察": 8,
  "而动": 8,
  "微型": 8,
  "线马": 8,
  "打圈": 8,
  "仅供": 8,
  "档@@": 8,
  "内部空间": 8,
  "臂@@": 8,
  "变小": 8,
  "pre@@": 8,
  "547": 8,
  "名贵": 8,
  "过敏@@": 8,
  "佩@@": 8,
  "玻": 8,
  "恐@@": 8,
  "股@@": 8,
  "186": 8,
  "开宗": 8,
  "全额": 8,
  "面临": 8,
  "筒@@": 8,
  "AUX": 8,
  "体形": 8,
  "陀": 8,
  "角斗": 8,
  "兼备": 8,
  "1035": 8,
  "摩兰": 8,
  "好包": 8,
  "逆": 8,
  "娃": 8,
  "PAD": 8,
  "墙上": 8,
  "发作": 8,
  "773": 8,
  "目录": 8,
  "步行": 8,
  "刺鼻": 8,
  "督@@": 8,
  "香料": 8,
  "龙头": 8,
  "军衔": 8,
  "帽@@": 8,
  "88888": 8,
  "本质": 8,
  "皂@@": 8,
  "十分钟": 8,
  "麦@@": 8,
  "486": 8,
  "钉珠": 8,
  "白银": 8,
  "天帝": 8,
  "UV@@": 8,
  "To@@": 8,
  "598": 8,
  "眼中": 8,
  "975": 8,
  "楦": 8,
  "532": 8,
  "愈@@": 8,
  "加重": 8,
  "撞@@": 8,
  "SK@@": 8,
  "233@@": 8,
  "帐@@": 8,
  "不堪": 8,
  "绑@@": 8,
  "大大提高": 8,
  "脚踏": 8,
  "欧式": 8,
  "宾客": 8,
  "衍@@": 8,
  "比企": 8,
  "星期@@": 8,
  "玻璃@@": 8,
  "寸@@": 8,
  "副作用": 8,
  "陈塘关": 8,
  "奇异": 8,
  "那群": 8,
  "Ma@@": 8,
  "流浪": 8,
  "瑞拉": 8,
  "732": 8,
  "认定": 8,
  "776": 8,
  "胆": 8,
  "蛋白质": 8,
  "悟性": 8,
  "相识": 8,
  "全包": 8,
  "转盘": 8,
  "电极": 8,
  "5.2": 8,
  "20.@@": 8,
  "猜@@": 8,
  "渣@@": 8,
  "很棒": 8,
  "成形": 8,
  "寻": 8,
  "无拘无束": 8,
  "从中": 8,
  "安全可靠": 8,
  "绕@@": 8,
  "转运": 8,
  "OR@@": 8,
  "股份": 8,
  "风魂": 8,
  "来历": 8,
  "疾@@": 8,
  "说起": 8,
  "工资单": 8,
  "神话": 8,
  "花花公子": 8,
  "不通": 8,
  "康乃馨": 8,
  "403": 8,
  "哈": 8,
  "210%": 8,
  "主管部门": 8,
  "跳动": 8,
  "神迹": 8,
  "描出来": 8,
  "批@@": 8,
  "菲@@": 8,
  "五日": 8,
  "氨基酸": 8,
  "肥": 8,
  "汉语": 8,
  "浅粉": 8,
  "章@@": 8,
  "砍": 8,
  "WIFI": 8,
  "天权": 8,
  "炒@@": 8,
  "摩": 8,
  "星灵族": 8,
  "刷洗": 8,
  "755": 8,
  "肽": 8,
  "482": 8,
  "耶": 8,
  "阻": 8,
  "保温杯": 8,
  "淘汰赛": 8,
  "Prime": 8,
  "反应塔": 8,
  "小家伙": 8,
  "化成": 8,
  "最远": 8,
  "FB": 8,
  "愤怒": 8,
  "0.6": 8,
  "巢穴": 8,
  "所向披靡": 8,
  "拿下": 8,
  "254": 8,
  "web": 8,
  "淡斑": 8,
  "人造": 8,
  "加利": 8,
  "圣所": 8,
  "插销": 8,
  "吉瑞敦": 8,
  "光荣": 8,
  "殿@@": 8,
  "洗出": 8,
  "多效": 8,
  "源源不断": 8,
  "武魂": 8,
  "环境温度": 8,
  "缩小": 8,
  "711": 8,
  "出于": 8,
  "里程碑": 8,
  "格拉": 8,
  "杂音": 8,
  "猎魂": 8,
  "爬": 8,
  "俱佳": 8,
  "137": 8,
  "s925": 8,
  "摄氏度": 8,
  "629": 8,
  "肚腩": 8,
  "情形": 8,
  "287": 8,
  "用尽": 8,
  "781": 8,
  "死神": 8,
  "快充": 8,
  "不准": 8,
  "673": 8,
  "递增": 8,
  "耀": 8,
  "462": 8,
  "瓢虫": 8,
  "11240": 8,
  "蛮力": 8,
  "之森@@": 8,
  "净重": 8,
  "帝王": 8,
  "辉": 8,
  "神翼": 8,
  "颗粒物": 8,
  "澡": 8,
  "粉碎": 8,
  "几下": 8,
  "278": 8,
  "沸@@": 8,
  "验": 8,
  "噪": 8,
  "轻度": 8,
  "309": 8,
  "226": 8,
  "元厚": 8,
  "毛边": 8,
  "疏松": 8,
  "正如": 8,
  "逛": 8,
  "礼金": 8,
  "浮": 8,
  "捕食者": 8,
  "秋": 8,
  "文殊": 8,
  "三天": 8,
  "咆哮": 8,
  "欧气": 8,
  "年限": 8,
  "蓬@@": 8,
  "白牙": 8,
  "换个": 8,
  "重新@@": 8,
  "疾": 8,
  "绝缘": 8,
  "桌": 8,
  "毛刷": 8,
  "瞧@@": 8,
  "极高": 8,
  "侥幸": 8,
  "三色": 8,
  "讯@@": 8,
  "针灸": 8,
  "三档": 8,
  "一日": 8,
  "学者": 8,
  "藤@@": 8,
  "底裤": 8,
  "湿润": 8,
  "规矩": 8,
  "凹": 8,
  "非常适合": 8,
  "766": 8,
  "下期": 8,
  "739": 8,
  "1000%": 8,
  "可惜": 8,
  "386": 8,
  "违@@": 8,
  "‘": 8,
  "东南@@": 8,
  "用时": 8,
  "细腰": 8,
  "恬静": 8,
  "法律效力": 8,
  "冷光": 8,
  "迟@@": 8,
  "GO@@": 8,
  "7.1": 8,
  "传来": 8,
  "无力": 8,
  "锋芒": 8,
  "奖品": 8,
  "维多利亚": 8,
  "2W": 8,
  "世人": 8,
  "男孩": 8,
  "太一": 8,
  "汗腺": 8,
  "高山": 8,
  "菌@@": 8,
  "丹@@": 8,
  "空格": 8,
  "飞行速度": 8,
  "218": 8,
  "细节决定": 8,
  "致残": 8,
  "裹": 8,
  "绝不会": 8,
  "补货": 8,
  "盛夏": 8,
  "室外": 8,
  "头晕": 8,
  "变差": 8,
  "ta": 8,
  "生命力": 8,
  "混战": 8,
  "纤维素": 8,
  "荣获": 8,
  "劳": 8,
  "膜@@": 8,
  "快感": 8,
  "203": 8,
  "孔@@": 8,
  "木系": 8,
  "入门": 8,
  "断开": 8,
  "阅@@": 8,
  "2200": 8,
  "54": 8,
  "GE@@": 8,
  "说走就走": 8,
  "山林": 8,
  "忙@@": 8,
  "说出": 8,
  "护卫": 8,
  "函": 8,
  "受理": 8,
  "科学@@": 8,
  "382": 8,
  "集结": 8,
  "脏东西": 8,
  "叠": 8,
  "212": 8,
  "环境@@": 8,
  "卸@@": 8,
  "衬": 8,
  "消费@@": 8,
  "509": 8,
  "厂址": 8,
  "寻觅": 8,
  "647": 8,
  "框@@": 8,
  "军团长": 8,
  "墙纸": 8,
  "sku": 8,
  "榭": 8,
  "轴@@": 8,
  "234": 8,
  "受限": 8,
  "读量": 8,
  "铸就": 8,
  "47@@": 8,
  "677": 8,
  "横行": 8,
  "沦为": 8,
  "魔修": 8,
  "毁@@": 8,
  "剧烈": 8,
  "MA": 8,
  "水云": 8,
  "si@@": 8,
  "若隐若现": 8,
  "禁忌": 8,
  "酯": 8,
  "决": 8,
  "早点": 8,
  "冠冕": 8,
  "翻盖": 8,
  "相差": 8,
  "□": 8,
  "八方": 8,
  "教训": 8,
  "化学品": 8,
  "防爆": 8,
  "深沉": 8,
  "外国": 8,
  "必将": 8,
  "122": 8,
  "494": 8,
  "棉线": 8,
  "审查": 8,
  "潜力": 8,
  "118": 8,
  "坐在": 8,
  "622": 8,
  "斯城": 8,
  "厌恶": 8,
  "斧": 8,
  "盘踞": 8,
  "哪些": 8,
  "滚屏": 8,
  "丹尼尔": 8,
  "浴": 8,
  "星灵": 8,
  "考": 8,
  "江": 8,
  "锅@@": 8,
  "CD": 8,
  "754": 8,
  "格纹": 8,
  "纪@@": 8,
  "奉": 8,
  "魔羽": 8,
  "剃须": 8,
  "1725": 8,
  "肖@@": 8,
  "提现": 8,
  "金丝绒": 8,
  "野兽": 8,
  "渐变": 8,
  "In@@": 8,
  "26.@@": 8,
  "碳纤维": 8,
  "五转": 8,
  "精制": 8,
  "锆石": 8,
  "松垮": 8,
  "滋@@": 8,
  "耐磨性能": 8,
  "660": 8,
  "用作": 8,
  "剃须刀": 8,
  "扇": 8,
  "分之一": 8,
  "臀型": 8,
  "含义": 8,
  "重定向": 8,
  "如图所示": 8,
  "融": 8,
  "上午": 8,
  "139": 8,
  "绿化": 8,
  "精心制作": 8,
  "杰@@": 8,
  "风干": 8,
  "大片": 8,
  "利角": 8,
  "幽": 8,
  "px": 8,
  "竹纤维": 8,
  "紧跟": 8,
  "酵素": 8,
  "蹲": 8,
  "笠": 8,
  "僧": 8,
  "众生": 8,
  "出席": 8,
  "7CM": 8,
  "双臂": 8,
  "基础课": 8,
  "1499": 8,
  "嫩@@": 8,
  "新星": 8,
  "706": 8,
  "321": 8,
  "767": 8,
  "网购": 8,
  "血腥": 8,
  "封锁": 8,
  "扔掉": 8,
  "王城": 8,
  "偿@@": 8,
  "洗后": 8,
  "嘘": 8,
  "真情": 8,
  "浣": 8,
  "玲珑": 8,
  "定格": 8,
  "低价": 8,
  "崩溃": 8,
  "Call": 8,
  "咏": 8,
  "偶数": 8,
  "网格": 8,
  "氯": 8,
  "符合@@": 8,
  "桂花": 8,
  "立得": 8,
  "泰王国": 8,
  "519": 8,
  "过往": 8,
  "专利@@": 8,
  "实用@@": 8,
  "专利权": 8,
  "后发": 8,
  "544": 8,
  "环境保护": 8,
  "魔渊": 8,
  "高层": 8,
  "灯节": 8,
  "洗刷": 8,
  "太小": 8,
  "浓厚": 8,
  "花盆": 8,
  "B2@@": 8,
  "包盖": 8,
  "富贵": 8,
  "妖魂": 8,
  "大转盘": 8,
  "374": 8,
  "工资": 8,
  "都市女性": 8,
  "螺旋": 8,
  "户口簿": 8,
  "驼背": 8,
  "仅次于": 8,
  "邀战": 8,
  "闪现": 8,
  "282": 8,
  "86%": 8,
  "涡轮": 8,
  "菱格包": 8,
  "果冻": 8,
  "倒车": 8,
  "停歇": 8,
  "从事": 8,
  "女武": 8,
  "称霸": 8,
  "繁忙": 8,
  "准@@": 8,
  "值越": 8,
  "几分": 8,
  "斜坡": 8,
  "营@@": 8,
  "循@@": 8,
  "撒@@": 8,
  "膏体": 8,
  "女夏": 8,
  "os@@": 8,
  "升华": 8,
  "606": 8,
  "一拖二": 8,
  "认": 8,
  "12600": 8,
  "终端": 8,
  "4600": 8,
  "627": 8,
  "复印件": 8,
  "439": 8,
  "警": 8,
  "肩颈": 8,
  "一会": 8,
  "772": 8,
  "间接": 8,
  "质保": 8,
  "下端": 8,
  "飞机": 8,
  "423": 8,
  "组建": 8,
  "吸汗性": 8,
  "容错过": 8,
  "右边": 8,
  "438": 8,
  "生态": 8,
  "停止使用": 8,
  "352": 8,
  "1040": 8,
  "黄金@@": 8,
  "293": 8,
  "承包": 8,
  "宜@@": 8,
  "关怀": 8,
  "寻@@": 8,
  "0.7": 8,
  "西拉": 8,
  "园区": 8,
  "物防法防": 8,
  "何时": 8,
  "堵@@": 8,
  "对本": 8,
  "制药": 8,
  "pv@@": 8,
  "炉@@": 8,
  "栓": 8,
  "偷懒": 8,
  "远距离": 8,
  "专卖店": 8,
  "412": 8,
  "流汗": 8,
  "鼎": 8,
  "BB": 8,
  "糊": 8,
  "不息": 8,
  "祭@@": 8,
  "不论是": 8,
  "安娅": 8,
  "558": 8,
  "金黄": 8,
  "宗": 8,
  "726": 8,
  "发黄": 8,
  "役": 8,
  "古皂": 8,
  "叙利亚": 8,
  "鼓励": 8,
  "紫苑": 8,
  "谢@@": 8,
  "质检": 8,
  "凌绝": 8,
  "抵免": 8,
  "焚影森罗": 8,
  "兴@@": 8,
  "舍@@": 8,
  "611": 8,
  "tion": 8,
  "115@@": 8,
  "呈现出": 8,
  "膜拜": 8,
  "吉祥物": 8,
  "辣@@": 8,
  "193": 8,
  "时下": 8,
  "n100": 8,
  "标志性": 8,
  "高强": 8,
  "撩人": 8,
  "试用期": 8,
  "丰胸": 8,
  "我爱你": 8,
  "摄影": 8,
  "缜密": 8,
  "第二步": 8,
  "罗纹": 8,
  "依次": 8,
  "虎神": 8,
  "在手": 8,
  "侧袋": 8,
  "泛": 8,
  "油性": 8,
  "667": 8,
  "击碎": 8,
  "忍不住": 8,
  "737": 8,
  "挠": 8,
  "勤@@": 8,
  "夺目": 8,
  "雕@@": 8,
  "精魄": 8,
  "拼命": 8,
  "霞": 8,
  "石化": 8,
  "正装": 8,
  "破灭": 8,
  "污@@": 8,
  "助手": 8,
  "衡": 8,
  "保守": 8,
  "筋@@": 8,
  "尊@@": 8,
  "梦幻": 8,
  "目镜": 8,
  "雨衣": 8,
  "潮范": 8,
  "价格@@": 8,
  "直射": 8,
  "备用": 8,
  "感动": 8,
  "抢夺": 8,
  "铝": 8,
  "7.2": 8,
  "摇摆": 8,
  "一送": 8,
  "794": 8,
  "抬@@": 8,
  "光泽感": 8,
  "外貌": 8,
  "种颜色": 8,
  "奶": 8,
  "囚牢": 8,
  "522": 8,
  "动圈": 8,
  "5800": 8,
  "猎@@": 8,
  "主张": 8,
  "赐": 8,
  "扣款": 8,
  "339": 8,
  "吸尘器": 8,
  "775": 8,
  "如图": 8,
  "770": 8,
  "阈值": 8,
  "充沛": 8,
  "港口": 8,
  "发根": 8,
  "高保真": 8,
  "淬炼": 8,
  "凶": 8,
  "718": 8,
  "395": 8,
  "毛病": 8,
  "梳齿": 8,
  "喘": 8,
  "老鼠": 8,
  "卖方": 8,
  "可放": 8,
  "130@@": 8,
  "挂饰": 8,
  "这条": 8,
  "俏": 8,
  "弯腰": 8,
  "闻到": 8,
  "313": 8,
  "芳": 8,
  "555": 8,
  "钟情": 8,
  "录@@": 8,
  "体恤": 8,
  "款型": 8,
  "韩版百": 8,
  "垂坠": 8,
  "舟": 8,
  "全家": 8,
  "狮": 8,
  "哈雷": 8,
  "289": 8,
  "熊@@": 8,
  "龙塔": 8,
  "微生物": 8,
  "计数": 8,
  "省去": 8,
  "选小一码": 8,
  "125%": 8,
  "神域": 8,
  "幻象": 8,
  "多角度": 8,
  "下周": 8,
  "无味": 8,
  "太多": 8,
  "织维": 8,
  "疑问请": 8,
  "手心": 8,
  "分手": 8,
  "浑厚": 8,
  "眼睑": 8,
  "陨落": 8,
  "耗时": 8,
  "冰冷": 8,
  "分红": 8,
  "备受": 8,
  "略": 8,
  "434": 8,
  "宽点": 8,
  "196": 8,
  "规": 8,
  "棋魂": 8,
  "归类": 8,
  "反绒皮": 8,
  "读取": 8,
  "去年": 8,
  "织布": 8,
  "超夯": 8,
  "半价": 8,
  "蓝翼海": 8,
  "十二@@": 8,
  "出彩": 8,
  "乘@@": 8,
  "松糕鞋": 8,
  "LG@@": 8,
  "课@@": 8,
  "530@@": 8,
  "技@@": 8,
  "675": 8,
  "辅料": 8,
  "AC": 8,
  "老大": 8,
  "绳子": 8,
  "想不到": 8,
  "步履": 8,
  "3375": 8,
  "国家广播": 8,
  "册": 8,
  "遮肚显": 8,
  "挖掘": 8,
  "温泉": 8,
  "营业执照": 8,
  "积极@@": 8,
  "行程": 8,
  "提炼": 8,
  "劣": 8,
  "补充协议": 8,
  "天线": 8,
  "滨": 8,
  "古典": 8,
  "卡利": 8,
  "淡淡的": 8,
  "扑@@": 8,
  "破盘": 8,
  "到级": 8,
  "转为": 8,
  "xl@@": 8,
  "边角": 8,
  "盛开": 8,
  "剥@@": 8,
  "百搭款": 8,
  "高音": 8,
  "裤头": 8,
  "恒@@": 8,
  "VIP1": 8,
  "妖精": 8,
  "窗帘": 8,
  "黄沙": 8,
  "说好": 8,
  "杀死": 8,
  "鱼尾": 8,
  "净味": 8,
  "中立": 8,
  "溅": 8,
  "转速": 8,
  "脚丫": 8,
  "班@@": 8,
  "不符": 8,
  "仁": 8,
  "精通": 8,
  "方便使用": 8,
  "生机": 8,
  "拉紧": 8,
  "提花": 8,
  "总量": 8,
  "正规": 8,
  "中如": 8,
  "法律法规": 8,
  "天性": 8,
  "油边": 8,
  "633": 8,
  "已到": 8,
  "6.5": 8,
  "..": 8,
  "一刀": 8,
  "跳跃": 8,
  "淋": 8,
  "霍文": 8,
  "④": 8,
  "友好": 8,
  "创立": 8,
  "原宿": 8,
  "排水": 8,
  "显然": 8,
  "祖@@": 8,
  "人次": 8,
  "2009": 8,
  "等候": 8,
  "785": 8,
  "钟": 8,
  "续": 8,
  "整张": 8,
  "运动员": 8,
  "繁华": 8,
  "仙途": 8,
  "紧紧": 8,
  "下线": 8,
  "立显": 8,
  "各国": 8,
  "牢@@": 8,
  "叉": 8,
  "模糊": 8,
  "毛躁": 8,
  "跨包": 8,
  "56@@": 8,
  "炒": 8,
  "公文包": 8,
  "目的地": 8,
  "躲开": 8,
  "失误": 8,
  "用具": 8,
  "防烫": 8,
  "第二个": 8,
  "228": 8,
  "695": 8,
  "三角形": 8,
  "肿": 8,
  "凤凰": 8,
  "排列": 8,
  "PO@@": 8,
  "一针": 8,
  "材@@": 8,
  "4480": 8,
  "神羽": 8,
  "伦@@": 8,
  "逐步": 8,
  "节约": 8,
  "翩@@": 8,
  "之道": 8,
  "同比": 8,
  "埃及": 8,
  "书本": 8,
  "钢丝": 8,
  "中药": 8,
  "682": 8,
  "明日": 8,
  "牵头": 8,
  "堵": 8,
  "娅": 8,
  "灵阵": 8,
  "插口": 8,
  "财务报表": 8,
  "一号": 8,
  "不及": 8,
  "平衡@@": 8,
  "花生": 8,
  "算法": 8,
  "纯真": 8,
  "略@@": 8,
  "任命": 8,
  "埋@@": 8,
  "超纤皮": 8,
  "献@@": 8,
  "身下": 8,
  "共计": 8,
  "HZ": 8,
  "四条": 8,
  "3.75%": 8,
  "繁复": 8,
  "欢庆": 8,
  "迎来": 8,
  "已读": 8,
  "碗": 8,
  "灾@@": 8,
  "韩@@": 8,
  "男女老少": 8,
  "神屿": 8,
  "石门": 8,
  "点券": 8,
  "泽兰": 8,
  "罗伦斯": 8,
  "26000": 8,
  "146": 8,
  "越短": 8,
  "六股": 8,
  "剑影": 8,
  "审@@": 8,
  "折射": 8,
  "生于": 8,
  "379": 8,
  "不朽": 8,
  "不已": 8,
  "238": 8,
  "276": 8,
  "除以": 8,
  "376": 8,
  "76%": 8,
  "xxx": 8,
  "面包": 8,
  "鸢": 8,
  "天界": 8,
  "妃": 8,
  "暗蚀": 8,
  "督导": 8,
  "75@@": 8,
  "新春": 8,
  "逝方": 8,
  "花粉": 8,
  "聊@@": 8,
  "化为": 8,
  "撤回": 8,
  "黛@@": 8,
  "SE": 8,
  "熟练度": 8,
  "翻身": 8,
  "发生变化": 8,
  "包容性": 8,
  "充满活力": 8,
  "父@@": 8,
  "勒": 8,
  "折损": 8,
  "普通@@": 8,
  "浓缩": 8,
  "253": 8,
  "383": 8,
  "应有": 8,
  "暗黄": 8,
  "高活性": 8,
  "己@@": 8,
  "触及": 8,
  "777": 8,
  "加肥": 8,
  "针对性": 8,
  "捕蛇": 8,
  "朱@@": 8,
  "配以": 8,
  "160%": 8,
  "lin@@": 8,
  "太紧": 8,
  "坎@@": 8,
  "卫生部": 8,
  "均匀分布": 8,
  "逆转": 8,
  "DOT": 8,
  "魔法值": 8,
  "可恶": 8,
  "明日香": 7,
  "厌@@": 7,
  "许愿池": 7,
  "其余": 7,
  "碾压": 7,
  "避开": 7,
  "灵性": 7,
  "闷脚": 7,
  "大厅": 7,
  "扣血": 7,
  "习题": 7,
  "翻转": 7,
  "综上所述": 7,
  "囤积": 7,
  "利古鲁德": 7,
  "之术": 7,
  "吸管": 7,
  "郁@@": 7,
  "求亲": 7,
  "敢@@": 7,
  "布包": 7,
  "抗腐蚀": 7,
  "核心技术": 7,
  "抑@@": 7,
  "新密码": 7,
  "福音": 7,
  "质量@@": 7,
  "螺@@": 7,
  "出世": 7,
  "挡住": 7,
  "吸头": 7,
  "退化": 7,
  "阿勒": 7,
  "WikiFX": 7,
  "对抗赛": 7,
  "格数": 7,
  "接听电话": 7,
  "小鬼": 7,
  "领导": 7,
  "赛车": 7,
  "CC": 7,
  "布满": 7,
  "狐臭": 7,
  "505": 7,
  "药草": 7,
  "瓷砖": 7,
  "子系统": 7,
  "剑冢": 7,
  "绳@@": 7,
  "监测点": 7,
  "丘": 7,
  "臭味": 7,
  "骷髅头": 7,
  "化学物质": 7,
  "渊": 7,
  "稀释": 7,
  "名为": 7,
  "小瓶": 7,
  "BA@@": 7,
  "盾@@": 7,
  "热感": 7,
  "城战": 7,
  "砷": 7,
  "释压": 7,
  "542": 7,
  "之夜": 7,
  "随手": 7,
  "T3": 7,
  "489": 7,
  "能装": 7,
  "碧灵": 7,
  "星时": 7,
  "接地": 7,
  "纤薄": 7,
  "售@@": 7,
  "级心": 7,
  "强壮": 7,
  "PNG": 7,
  "JPG": 7,
  "挂断": 7,
  "入耳": 7,
  "鲜亮": 7,
  "啊@@": 7,
  "蔷薇": 7,
  "不能不": 7,
  "588": 7,
  "ff@@": 7,
  "发达国家": 7,
  "shop@@": 7,
  "毫不": 7,
  "灵敏": 7,
  "丢掉": 7,
  "原住民": 7,
  "6.17": 7,
  "张开": 7,
  "PDF": 7,
  "扶持": 7,
  "原木": 7,
  "版本号": 7,
  "营": 7,
  "泰方": 7,
  "誓@@": 7,
  "洁白": 7,
  "精纺": 7,
  "秘诀": 7,
  "防脱": 7,
  "太阳@@": 7,
  "4.6%": 7,
  "主使": 7,
  "纠@@": 7,
  "每级": 7,
  "女潮": 7,
  "第一阶段": 7,
  "本草": 7,
  "331": 7,
  "统计@@": 7,
  "三角@@": 7,
  "特此": 7,
  "三挡": 7,
  "8.5": 7,
  "马丁": 7,
  "见表": 7,
  "64000": 7,
  "棉料": 7,
  "人民政府": 7,
  "射频": 7,
  "验货": 7,
  "总部": 7,
  "群组": 7,
  "坚强": 7,
  "相符": 7,
  "491": 7,
  "驱除": 7,
  "童子": 7,
  "有助": 7,
  "并存": 7,
  "瞄准": 7,
  "〔": 7,
  "〕": 7,
  "市政府": 7,
  "化妆@@": 7,
  "皮层": 7,
  "13.10": 7,
  "22.@@": 7,
  "泽@@": 7,
  "水性": 7,
  "敏": 7,
  "尚@@": 7,
  "嫉妒": 7,
  "体质": 7,
  "削@@": 7,
  "互联网": 7,
  "不合": 7,
  "呃": 7,
  "长枪": 7,
  "春秋季": 7,
  "永生": 7,
  "分光": 7,
  "光度法": 7,
  "45000": 7,
  "783": 7,
  "小莉": 7,
  "识": 7,
  "中国@@": 7,
  "雾山": 7,
  "刺激性": 7,
  "充电式": 7,
  "极简": 7,
  "组合@@": 7,
  "烟囱": 7,
  "会话": 7,
  "轻按": 7,
  "夸": 7,
  "2031": 7,
  "厂家": 7,
  "ap@@": 7,
  "者@@": 7,
  "挂绳": 7,
  "出入": 7,
  "后会": 7,
  "崩@@": 7,
  "潮款": 7,
  "674": 7,
  "怒火": 7,
  "X1": 7,
  "可升星": 7,
  "1898": 7,
  "顾@@": 7,
  "腰痛": 7,
  "里布": 7,
  "584": 7,
  "嗜血": 7,
  "摘下": 7,
  "ex@@": 7,
  "贴膜": 7,
  "大意": 7,
  "手游": 7,
  "开袋": 7,
  "紧张感": 7,
  "动能": 7,
  "拟建": 7,
  "手册": 7,
  "综合性": 7,
  "74": 7,
  "稳稳": 7,
  "饥饿": 7,
  "sp@@": 7,
  "转账": 7,
  "入微": 7,
  "不曾": 7,
  "25000": 7,
  "感官": 7,
  "J": 7,
  "内有": 7,
  "不愿": 7,
  "联名": 7,
  "sun@@": 7,
  "诚@@": 7,
  "规律": 7,
  "洒": 7,
  "脆": 7,
  "人口@@": 7,
  "哒": 7,
  "影子": 7,
  "镇定": 7,
  "日有所思": 7,
  "牌照": 7,
  "除此之外": 7,
  "织成": 7,
  "刷刷": 7,
  "456": 7,
  "Android": 7,
  "椅@@": 7,
  "放进": 7,
  "套脚": 7,
  "内脏": 7,
  "寿命长": 7,
  "发送到": 7,
  "运送": 7,
  "与生俱来": 7,
  "悄悄": 7,
  "王冠": 7,
  "商业@@": 7,
  "DNS": 7,
  "5125": 7,
  "违约方": 7,
  "取决于": 7,
  "假一": 7,
  "偏光镜": 7,
  "希@@": 7,
  "器灵": 7,
  "尽量避免": 7,
  "时限": 7,
  "3550": 7,
  "妥协": 7,
  "未曾": 7,
  "补妆": 7,
  "污": 7,
  "Line": 7,
  "地牢": 7,
  "史@@": 7,
  "妇科": 7,
  "护士": 7,
  "女弓": 7,
  "67@@": 7,
  "生动": 7,
  "部级": 7,
  "织网": 7,
  "polo": 7,
  "631": 7,
  "金缕": 7,
  "瓦解": 7,
  "地漏": 7,
  "前后左右": 7,
  "蚕@@": 7,
  "al@@": 7,
  "苛刻": 7,
  "缺失": 7,
  "249": 7,
  "红润": 7,
  "天火": 7,
  "吊床": 7,
  "产量": 7,
  "川@@": 7,
  "11050": 7,
  "黑焰": 7,
  "超好": 7,
  "吻": 7,
  "生化": 7,
  "废弃物": 7,
  "撕": 7,
  "维他命": 7,
  "据点": 7,
  "美眉": 7,
  "1780": 7,
  "身体@@": 7,
  "庇佑": 7,
  "沉": 7,
  "况": 7,
  "0.9": 7,
  "披风": 7,
  "航空": 7,
  "词@@": 7,
  "商品价格": 7,
  "舌头": 7,
  "基本上": 7,
  "环扣": 7,
  "774": 7,
  "出没": 7,
  "出自": 7,
  "详": 7,
  "实木": 7,
  "芬芳": 7,
  "火墙": 7,
  "水质": 7,
  "大道": 7,
  "219": 7,
  "趾@@": 7,
  "化纤": 7,
  "娘@@": 7,
  "小朋友": 7,
  "架构": 7,
  "皮纹": 7,
  "周二": 7,
  "巨蟒": 7,
  "各方": 7,
  "全脸": 7,
  "某处": 7,
  "过滤器": 7,
  "巨角兽": 7,
  "澳元": 7,
  "我怕": 7,
  "备战": 7,
  "舍得": 7,
  "身份证号": 7,
  "206": 7,
  "辛@@": 7,
  "葬": 7,
  "16375": 7,
  "阶橙二": 7,
  "ind@@": 7,
  "生前": 7,
  "乳霜": 7,
  "块@@": 7,
  "增多": 7,
  "734": 7,
  "莹润": 7,
  "万一": 7,
  "勇": 7,
  "713": 7,
  "发送至": 7,
  "别具一格": 7,
  "储物": 7,
  "拳@@": 7,
  "8CM": 7,
  "矿": 7,
  "古装": 7,
  "紫微": 7,
  "费劲": 7,
  "奇门遁甲": 7,
  "270%": 7,
  "689": 7,
  "死去": 7,
  "出门在外": 7,
  "543": 7,
  "656": 7,
  "堪称": 7,
  "犯罪分子": 7,
  "良心": 7,
  "赠送给": 7,
  "下围": 7,
  "另一面": 7,
  "通电": 7,
  "垫片": 7,
  "保险@@": 7,
  "有多@@": 7,
  "阶级": 7,
  "479": 7,
  "下级": 7,
  "趾": 7,
  "九天": 7,
  "占坑": 7,
  "骨刺": 7,
  "警卫队": 7,
  "错误@@": 7,
  "交织": 7,
  "424": 7,
  "鞋号": 7,
  "火把": 7,
  "这天": 7,
  "接缝": 7,
  "想着": 7,
  "2045": 7,
  "955": 7,
  "1091": 7,
  "生辰": 7,
  "侍从": 7,
  "环保局": 7,
  "支行": 7,
  "默西迪丝": 7,
  "合法@@": 7,
  "整合": 7,
  "主板": 7,
  "机场": 7,
  "创建人": 7,
  "裤身": 7,
  "大肚腩": 7,
  "拨动": 7,
  "徒@@": 7,
  "但@@": 7,
  "庞大": 7,
  "自制": 7,
  "V3": 7,
  "音频@@": 7,
  "称之为": 7,
  "扩张": 7,
  "天宫": 7,
  "20W": 7,
  "反抗": 7,
  "强势": 7,
  "仙佩玄晶": 7,
  "体脂": 7,
  "管理局": 7,
  "注册@@": 7,
  "MS": 7,
  "mAh": 7,
  "足球": 7,
  "实行": 7,
  "极速": 7,
  "TC": 7,
  "海豚": 7,
  "深邃": 7,
  "Bi@@": 7,
  "水池": 7,
  "694": 7,
  "供给": 7,
  "科研": 7,
  "海后": 7,
  "民间": 7,
  "508": 7,
  "万词": 7,
  "失控": 7,
  "733": 7,
  "116@@": 7,
  "模具": 7,
  "or": 7,
  "使人": 7,
  "移到": 7,
  "复工": 7,
  "湾": 7,
  "喷吐": 7,
  "锦": 7,
  "相守": 7,
  "带回家": 7,
  "之神": 7,
  "发器": 7,
  "遵从": 7,
  "皮脂": 7,
  "童装": 7,
  "盟@@": 7,
  "63": 7,
  "佑": 7,
  "集火": 7,
  "器械": 7,
  "省钱": 7,
  "时变": 7,
  "双动": 7,
  "弱小": 7,
  "水里": 7,
  "643": 7,
  "el@@": 7,
  "电芯": 7,
  "舒压": 7,
  "574": 7,
  "偏小一码": 7,
  "239": 7,
  "小时候": 7,
  "22@@": 7,
  "抗污": 7,
  "没电": 7,
  "埃@@": 7,
  "违法": 7,
  "心机": 7,
  "哎呀": 7,
  "沉睡": 7,
  "12500": 7,
  "小孔": 7,
  "伞@@": 7,
  "办理": 7,
  "高者": 7,
  "收下": 7,
  "拢": 7,
  "倾力": 7,
  "移位": 7,
  "茱": 7,
  "慌": 7,
  "头上": 7,
  "484": 7,
  "烈@@": 7,
  "海水": 7,
  "少不了": 7,
  "俏@@": 7,
  "约翰": 7,
  "予以": 7,
  "iimin": 7,
  "布袋": 7,
  "战时": 7,
  "翔": 7,
  "泳池": 7,
  "362": 7,
  "皮下": 7,
  "271": 7,
  "73%": 7,
  "糟": 7,
  "主材": 7,
  "咋": 7,
  "荣@@": 7,
  "刑天": 7,
  "仍@@": 7,
  "灯体": 7,
  "厨师": 7,
  "捏@@": 7,
  "水泡": 7,
  "工作服": 7,
  "浏览量": 7,
  "扁": 7,
  "定性": 7,
  "逼": 7,
  "寺": 7,
  "乘车": 7,
  "唯@@": 7,
  "416": 7,
  "木珠": 7,
  "轻松自如": 7,
  "双翼": 7,
  "遁@@": 7,
  "床单": 7,
  "俯卧撑": 7,
  "古殿": 7,
  "石巨魔": 7,
  "悠然": 7,
  "765": 7,
  "1480": 7,
  "给与": 7,
  "1500000": 7,
  "播放器": 7,
  "茧": 7,
  "漆黑": 7,
  "中奖": 7,
  "进展": 7,
  "警戒": 7,
  "证人": 7,
  "保管": 7,
  "倾斜": 7,
  "曲子": 7,
  "赏": 7,
  "花色": 7,
  "畅想": 7,
  "限度": 7,
  "轻拍": 7,
  "椎间盘": 7,
  "灵活性": 7,
  "龟": 7,
  "罪魁祸首": 7,
  "重要性": 7,
  "法球": 7,
  "人马": 7,
  "心理": 7,
  "一间": 7,
  "旅馆": 7,
  "物镜": 7,
  "多选": 7,
  "贴紧": 7,
  "必得": 7,
  "736": 7,
  "泛@@": 7,
  "蝶@@": 7,
  "流行@@": 7,
  "讨伐": 7,
  "韵": 7,
  "推拉": 7,
  "703": 7,
  "两端": 7,
  "仙攻": 7,
  "网红@@": 7,
  "救人": 7,
  "残渣": 7,
  "选房": 7,
  "妹": 7,
  "防雾": 7,
  "腐化": 7,
  "缔结": 7,
  "不可或缺": 7,
  "蓝莓": 7,
  "背垫": 7,
  "蜡": 7,
  "裹@@": 7,
  "欣@@": 7,
  "咬@@": 7,
  "指环": 7,
  "1401007322": 7,
  "点位": 7,
  "209": 7,
  "三宅": 7,
  "早春": 7,
  "tex": 7,
  "文明@@": 7,
  "加速度": 7,
  "末日": 7,
  "粗细": 7,
  "国王": 7,
  "仙元": 7,
  "忍者": 7,
  "誉": 7,
  "分量": 7,
  "山河": 7,
  "挑人": 7,
  "661": 7,
  "634": 7,
  "仔": 7,
  "生物质": 7,
  "大叔": 7,
  "生命@@": 7,
  "青苹果": 7,
  "活性剂": 7,
  "624": 7,
  "年华": 7,
  "之眼": 7,
  "浊": 7,
  "思绪": 7,
  "美容院": 7,
  "薄膜": 7,
  "狂热": 7,
  "握感": 7,
  "女裤": 7,
  "债": 7,
  "祛疤": 7,
  "崇@@": 7,
  "且@@": 7,
  "284": 7,
  "四年": 7,
  "指挥": 7,
  "品种": 7,
  "棋阵": 7,
  "FA@@": 7,
  "暴雪": 7,
  "大到": 7,
  "部署": 7,
  "句@@": 7,
  "遍布": 7,
  "灸": 7,
  "得天独厚": 7,
  "历久弥新": 7,
  "跃@@": 7,
  "396": 7,
  "批复": 7,
  "聊天记录": 7,
  "664": 7,
  "添@@": 7,
  "浮动": 7,
  "晒干": 7,
  "371": 7,
  "ang@@": 7,
  "线控": 7,
  "圣树": 7,
  "献上": 7,
  "海军": 7,
  "车身": 7,
  "防锈": 7,
  "侵@@": 7,
  "遗落": 7,
  "玄宝": 7,
  "退税": 7,
  "野性": 7,
  "饮食": 7,
  "灯笼": 7,
  "天元": 7,
  "硫化氢": 7,
  "吞": 7,
  "田中": 7,
  "型格": 7,
  "脆皮": 7,
  "名义": 7,
  "六种": 7,
  "波纹": 7,
  "一口": 7,
  "鉴@@": 7,
  "前期": 7,
  "遗址": 7,
  "股东": 7,
  "转生": 7,
  "比试": 7,
  "含羞草": 7,
  "权威@@": 7,
  "越来越@@": 7,
  "虫@@": 7,
  "搜索引擎": 7,
  "391": 7,
  "梦鲲": 7,
  "单服": 7,
  "990": 7,
  "喽": 7,
  "接收者": 7,
  "自在": 7,
  "金系": 7,
  "百强": 7,
  "喧@@": 7,
  "误": 7,
  "领导小组": 7,
  "五档": 7,
  "沾染": 7,
  "诶": 7,
  "有范": 7,
  "扫码": 7,
  "航": 7,
  "更多": 7,
  "世界卫生组织": 7,
  "放大镜": 7,
  "本法": 7,
  "蛛@@": 7,
  "租金": 7,
  "百次": 7,
  "篮": 7,
  "342": 7,
  "AP@@": 7,
  "紧凑": 7,
  "发光片": 7,
  "分裂": 7,
  "605": 7,
  "却@@": 7,
  "爆裂火焰": 7,
  "预告": 7,
  "一穿": 7,
  "星龙威": 7,
  "引用": 7,
  "缩减": 7,
  "抢险": 7,
  "梳理": 7,
  "期满": 7,
  "育@@": 7,
  "孕@@": 7,
  "特质": 7,
  "铺": 7,
  "锦衣": 7,
  "题@@": 7,
  "口语": 7,
  "⑤": 7,
  "水解": 7,
  "打断": 7,
  "鬼王": 7,
  "全球通": 7,
  "鹰": 7,
  "疤": 7,
  "粉底液": 7,
  "850": 7,
  "亚姆": 7,
  "记忆@@": 7,
  "米里": 7,
  "喷头": 7,
  "整除": 7,
  "护脚": 7,
  "跪地求饶": 7,
  "盖世无双": 7,
  "1738": 7,
  "2928": 7,
  "领奖": 7,
  "418": 7,
  "谎": 7,
  "走到": 7,
  "腕@@": 7,
  "112@@": 7,
  "闯": 7,
  "621": 7,
  "托盘": 7,
  "率先": 7,
  "分辨": 7,
  "挥动": 7,
  "溅射": 7,
  "融为一体": 7,
  "20g": 7,
  "189": 7,
  "长官": 7,
  "具体@@": 7,
  "第十@@": 7,
  "裤女": 7,
  "耐脏": 7,
  "真实性": 7,
  "助理": 7,
  "一粒": 7,
  "天仪": 7,
  "住手": 7,
  "亮眼": 7,
  "5.6%": 7,
  "百分百": 7,
  "ex": 7,
  "推翻": 7,
  "投放": 7,
  "闲谈": 7,
  "较长时间": 7,
  "神鼎@@": 7,
  "海岸": 7,
  "华贵": 7,
  "毛绒": 7,
  "胎儿": 7,
  "冲切": 7,
  "人能": 7,
  "金玉良缘": 7,
  "美元": 7,
  "营地": 7,
  "ET@@": 7,
  "恭喜发财": 7,
  "马来西亚": 7,
  "609": 7,
  "大吉大利": 7,
  "644": 7,
  "优越": 7,
  "镍": 7,
  "宫廷": 7,
  "相连": 7,
  "印有": 7,
  "483": 7,
  "强体": 7,
  "工艺技术": 7,
  "199": 7,
  "凡": 7,
  "392": 7,
  "起始": 7,
  "伊@@": 7,
  "耳饰": 7,
  "展露": 7,
  "品名": 7,
  "585": 7,
  "752": 7,
  "开式": 7,
  "楚": 7,
  "心意": 7,
  "333": 7,
  "分摊": 7,
  "柱@@": 7,
  "氮": 7,
  "全屏": 7,
  "喂食": 7,
  "划算": 7,
  "元圣盾": 7,
  "尽力": 7,
  "不知不觉": 7,
  "连杀": 7,
  "凝固": 7,
  "5.0": 7,
  "504": 7,
  "随处可见": 7,
  "职@@": 7,
  "弥补": 7,
  "腰佩": 7,
  "417": 7,
  "鸟@@": 7,
  "螺杆": 7,
  "食材": 7,
  "瘦高": 7,
  "声响": 7,
  "向来": 7,
  "649": 7,
  "IC@@": 7,
  "废@@": 7,
  "仇": 7,
  "385": 7,
  "尼斯": 7,
  "不卡顿": 7,
  "钓@@": 7,
  "恶劣": 7,
  "可喜可贺": 7,
  "豆@@": 7,
  "选料": 7,
  "宣@@": 7,
  "6CM": 7,
  "村长": 7,
  "哪位": 7,
  "包围": 7,
  "天师": 7,
  "卢@@": 7,
  "513": 7,
  "防疫": 7,
  "柜@@": 7,
  "条约": 7,
  "难忍": 7,
  "万个": 7,
  "691": 7,
  "同胞": 7,
  "期内": 7,
  "竹": 7,
  "一文": 7,
  "隐约": 7,
  "社团活动": 7,
  "纯黑": 7,
  "利姆": 7,
  "犯@@": 7,
  "真君": 7,
  "指压": 7,
  "鲁老爷": 7,
  "垫@@": 7,
  "人力": 7,
  "印章": 7,
  "调味": 7,
  "破盾": 7,
  "面皮": 7,
  "罕@@": 7,
  "790": 7,
  "店主": 7,
  "飞龙": 7,
  "闯@@": 7,
  "绵密": 7,
  "1120%": 7,
  "迹@@": 7,
  "调试": 7,
  "753": 7,
  "城建局": 7,
  "护花使者": 7,
  "游离": 7,
  "现世": 7,
  "不像": 7,
  "时机": 7,
  "阿尔@@": 7,
  "16000": 7,
  "革@@": 7,
  "爱好者": 7,
  "7cm": 7,
  "东盟": 7,
  "芒": 7,
  "讲述": 7,
  "附体": 7,
  "管理中心": 7,
  "任一": 7,
  "降至": 7,
  "251": 7,
  "柏@@": 7,
  "丧@@": 7,
  "墨": 7,
  "133": 7,
  "六个": 7,
  "冲击波": 7,
  "c33": 7,
  "244": 7,
  "盾飞": 7,
  "例外": 7,
  "小猿": 7,
  "ty": 7,
  "主持": 7,
  "小天使": 7,
  "161": 7,
  "鞭炮": 7,
  "精梳": 7,
  "扭@@": 7,
  "通话@@": 7,
  "通风处": 7,
  "整天": 7,
  "卡其布": 7,
  "引爆": 7,
  "漫天": 7,
  "污水": 7,
  "变强": 7,
  "收看": 7,
  "图书": 7,
  "贯": 7,
  "宽边": 7,
  "书阁": 7,
  "腔调": 7,
  "杀灭": 7,
  "唯": 7,
  "已选": 7,
  "某种": 7,
  "路过": 7,
  "蒙古": 7,
  "548": 7,
  "调理": 7,
  "必杀": 7,
  "深深": 7,
  "气温": 7,
  "兵@@": 7,
  "穷@@": 7,
  "阶红二": 7,
  "打孔": 7,
  "地藏": 7,
  "SU@@": 7,
  "光洁": 7,
  "上半身": 7,
  "籽": 7,
  "前视": 7,
  "时能": 7,
  "11600": 7,
  "外显": 7,
  "内战": 7,
  "触觉": 7,
  "472": 7,
  "三步": 7,
  "646": 7,
  "709": 7,
  "成本@@": 7,
  "全局": 7,
  "264": 7,
  "时前": 7,
  "触手可及": 7,
  "很久@@": 7,
  "174": 7,
  "两台": 7,
  "敌@@": 7,
  "糖果": 7,
  "牛津": 7,
  "圣殿": 7,
  "81%": 7,
  "前述": 7,
  "痣": 7,
  "劳动": 7,
  "右手": 7,
  "适应@@": 7,
  "类产品": 7,
  "打败": 7,
  "揽": 7,
  "163": 7,
  "七层": 7,
  "亡": 7,
  "撕出": 7,
  "149": 7,
  "尖锐": 7,
  "路况": 7,
  "木纹": 7,
  "黑面": 7,
  "57250": 7,
  "入耳式": 7,
  "IP地址": 7,
  "涩": 7,
  "一招": 7,
  "披露": 7,
  "老客户": 7,
  "弥漫": 7,
  "嗅觉": 7,
  "6.0": 7,
  "徒步": 7,
  "绿影": 7,
  "超模": 7,
  "芒@@": 7,
  "电台": 7,
  "30600": 7,
  "商场": 7,
  "825": 7,
  "无可挑剔": 7,
  "x30": 7,
  "美的": 7,
  "大鱼": 7,
  "漏斗": 7,
  "下发": 7,
  "企图": 7,
  "les": 7,
  "之星": 7,
  "守塔": 7,
  "大杀": 7,
  "782": 7,
  "1920": 7,
  "许": 7,
  "盘古": 7,
  "UR@@": 7,
  "KA@@": 7,
  "攻城": 7,
  "413": 7,
  "升温": 7,
  "云海": 7,
  "生日礼物": 7,
  "香堂": 7,
  "勃": 7,
  "ve@@": 7,
  "襟": 7,
  "接入": 7,
  "一年四季": 7,
  "534": 7,
  "留痕": 7,
  "一行": 7,
  "射出": 7,
  "94%": 7,
  "2MM": 7,
  "62": 7,
  "狠狠": 7,
  "手机@@": 7,
  "184": 7,
  "赤炎": 7,
  "吼": 7,
  "矿山": 7,
  "习俗": 7,
  "114": 7,
  "柳@@": 7,
  "王子": 7,
  "梓川": 7,
  "141": 7,
  "2.7": 7,
  "魔能": 7,
  "四件套": 7,
  "表扣": 7,
  "697": 7,
  "挺阔": 7,
  "756": 7,
  "存储@@": 7,
  "1.25%": 7,
  "好玩": 7,
  "589": 7,
  "棍": 7,
  "高浓度": 7,
  "口水": 7,
  "魔物@@": 7,
  "进程": 7,
  "亲手": 7,
  "压迫感": 7,
  "串@@": 7,
  "申请人": 7,
  "顽@@": 7,
  "撤@@": 7,
  "走位": 7,
  "波动": 7,
  "妖姬": 7,
  "颛孙水": 7,
  "竞争": 7,
  "614": 7,
  "露天": 7,
  "FMC": 7,
  "满满的": 7,
  "防雷": 7,
  "附表": 7,
  "皮衣": 7,
  "珍藏": 7,
  "叮@@": 7,
  "牢靠": 7,
  "面孔": 7,
  "一个包": 7,
  "拉线": 7,
  "银饰": 7,
  "鱼眼": 7,
  "内饰": 7,
  "身子": 7,
  "神灯": 7,
  "祸@@": 7,
  "二次": 7,
  "实验@@": 7,
  "逢": 7,
  "喷洒": 7,
  "留住": 7,
  "羊毛": 7,
  "牙缝": 7,
  "心底": 7,
  "袜子": 7,
  "眠@@": 7,
  "袖长": 7,
  "请假": 7,
  "在乎": 7,
  "歪": 7,
  "家族": 7,
  "9.6%": 7,
  "躲@@": 7,
  "过低": 7,
  "诺@@": 7,
  "ps": 7,
  "残暴": 7,
  "门襟": 7,
  "外层": 7,
  "演员": 7,
  "选定": 7,
  "姓氏": 7,
  "8.25%": 7,
  "去向": 7,
  "青天": 7,
  "村子": 7,
  "KI@@": 7,
  "破除": 7,
  "掩@@": 7,
  "傻@@": 7,
  "甘油": 7,
  "UVA": 7,
  "卖点": 7,
  "250000": 7,
  "411": 7,
  "宁": 7,
  "汤圆": 7,
  "小金": 7,
  "进食": 7,
  "冷热": 7,
  "好不好": 7,
  "平面": 7,
  "肚@@": 7,
  "练@@": 7,
  "驻车": 7,
  "港@@": 7,
  "褐色": 7,
  "赶来": 7,
  "拾@@": 7,
  "不幸": 7,
  "春节": 7,
  "冰丝@@": 7,
  "显现": 7,
  "梭": 7,
  "盆": 7,
  "658": 7,
  "电波": 7,
  "人民法院": 7,
  "另一只": 7,
  "触控": 7,
  "大吉": 7,
  "咖色": 7,
  "丶": 7,
  "258": 7,
  "征服": 7,
  "蔬@@": 7,
  "防霉": 7,
  "583": 7,
  "中午": 7,
  "蝠@@": 7,
  "够@@": 7,
  "敢于": 7,
  "工作日内": 7,
  "见识一下": 7,
  "526": 7,
  "竖款": 7,
  "器官": 7,
  "通知书": 7,
  "割": 7,
  "魔人": 7,
  "标配": 7,
  "曾@@": 7,
  "app": 7,
  "囚@@": 7,
  "补全": 7,
  "灵巧": 7,
  "战车": 7,
  "克莱门特": 7,
  "洲": 7,
  "652": 7,
  "诱蚊": 7,
  "UPF@@": 7,
  "小弟": 7,
  "总和": 7,
  "辖区": 7,
  "5V": 7,
  "阶紫零": 7,
  "马油": 7,
  "押": 7,
  "任你选": 7,
  "电器": 7,
  "随之": 7,
  "涤": 7,
  "725": 7,
  "伸缩性": 7,
  "遇上": 7,
  "掀起": 7,
  "部长": 7,
  "午后": 7,
  "青灵": 7,
  "庭@@": 7,
  "欠": 7,
  "伸": 7,
  "所说": 7,
  "轻轻松松": 7,
  "宴": 7,
  "花枫": 7,
  "Fi": 7,
  "摇": 7,
  "亚克力": 7,
  "接着": 7,
  "陌生": 7,
  "逆时针": 7,
  "库@@": 7,
  "氯@@": 7,
  "冲冲": 7,
  "659": 7,
  "爱护": 7,
  "重组": 7,
  "钱@@": 7,
  "孤独": 7,
  "小小": 7,
  "多媒体": 7,
  "通信": 7,
  "认知": 7,
  "符合条件": 7,
  "传授": 7,
  "休赛": 7,
  "你别": 7,
  "忧@@": 7,
  "家中": 7,
  "传统医学": 7,
  "挖": 7,
  "MI@@": 7,
  "运单": 7,
  "战虎": 7,
  "541": 7,
  "5400": 7,
  "10.5%": 7,
  "76200": 7,
  "无遗": 7,
  "革命": 7,
  "一盒": 7,
  "mini": 7,
  "清算": 7,
  "狂怒": 7,
  "流云": 7,
  "仙鹿": 7,
  "大肠杆菌": 7,
  "革新": 7,
  "Derma@@": 7,
  "受不了": 7,
  "枪色": 7,
  "牛头怪": 7,
  "瑟@@": 7,
  "盛景": 7,
  "街舞": 7,
  "邻居": 7,
  "克拉": 7,
  "演示": 7,
  "呼唤": 7,
  "崇拜": 7,
  "户口": 7,
  "CVC6.0": 7,
  "此项": 7,
  "全店": 7,
  "66%": 7,
  "罢了": 7,
  "MAX": 7,
  "EXP": 7,
  "港": 7,
  "拐杖": 7,
  "山上": 7,
  "星魔甲": 7,
  "艾灸": 7,
  "圣剑": 7,
  "扇门": 7,
  "胜负": 7,
  "带子": 7,
  "ou@@": 7,
  "唐@@": 7,
  "字领": 7,
  "玩耍": 7,
  "横": 7,
  "重重": 7,
  "未读": 7,
  "下潜": 7,
  "ll@@": 7,
  "软壳": 7,
  "店长": 7,
  "机型": 7,
  "赢@@": 7,
  "较强": 7,
  "珍珑": 7,
  "57%": 6,
  "悬": 6,
  "th": 6,
  "有余": 6,
  "列车": 6,
  "胆@@": 6,
  "露肩": 6,
  "显高显": 6,
  "礼堂": 6,
  "表面温度": 6,
  "衔接": 6,
  "仙纹": 6,
  "唠@@": 6,
  "平方公里": 6,
  "393": 6,
  "TB": 6,
  "语速": 6,
  "电感": 6,
  "臀围": 6,
  "呼救": 6,
  "人眼": 6,
  "难过": 6,
  "石英@@": 6,
  "1401006919": 6,
  "变现": 6,
  "个子": 6,
  "理会": 6,
  "日夜": 6,
  "身高体重": 6,
  "雷云": 6,
  "恢复正常": 6,
  "鸡皮": 6,
  "培元": 6,
  "标准@@": 6,
  "烘干": 6,
  "奇珍异宝": 6,
  "iEnglis@@": 6,
  "四川省": 6,
  "葛@@": 6,
  "民生": 6,
  "心若": 6,
  "锂": 6,
  "小偷": 6,
  "体毛": 6,
  "摧@@": 6,
  "Lv.1": 6,
  "两人": 6,
  "LULULUN": 6,
  "感兴趣": 6,
  "冷淡": 6,
  "痴@@": 6,
  "译文": 6,
  "木骸": 6,
  "俩": 6,
  "排汗功能": 6,
  "理性": 6,
  "0.06": 6,
  "398": 6,
  "更稳": 6,
  "不期而遇": 6,
  "故意": 6,
  "妻子": 6,
  "否@@": 6,
  "多孔性": 6,
  "V10": 6,
  "喷涂": 6,
  "法拉": 6,
  "开门": 6,
  "锦鲤": 6,
  "哎": 6,
  "减弱": 6,
  "套件": 6,
  "接到": 6,
  "唐": 6,
  "481": 6,
  "火球": 6,
  "多方位": 6,
  "跑线": 6,
  ".1%": 6,
  "琅": 6,
  "防刮@@": 6,
  "大写": 6,
  "题目": 6,
  "人鱼公主": 6,
  "悬崖": 6,
  "终将": 6,
  "位居": 6,
  "这场": 6,
  "2.8%": 6,
  "2888": 6,
  "香风": 6,
  "登上": 6,
  "再有": 6,
  "乳木果": 6,
  "高伤": 6,
  "可得": 6,
  "lity": 6,
  "漆面": 6,
  "367": 6,
  "扭动": 6,
  "88.8": 6,
  "无痛": 6,
  "话题": 6,
  "c5@@": 6,
  "单筒": 6,
  "新兴": 6,
  "毛绒玩具": 6,
  "战甲": 6,
  "更广": 6,
  "主导": 6,
  "轻量": 6,
  "漫长": 6,
  "加价": 6,
  "758": 6,
  "睡得": 6,
  "那一刻": 6,
  "一切@@": 6,
  "空白处": 6,
  "乎": 6,
  "闪光灯": 6,
  "公认": 6,
  "97": 6,
  "两款": 6,
  "阵子": 6,
  "瞳": 6,
  "we@@": 6,
  "铺设": 6,
  "深厚": 6,
  "茶壶": 6,
  "1150": 6,
  "鳞@@": 6,
  "恶化": 6,
  "笔直": 6,
  "不灭": 6,
  "脚瘦者": 6,
  "贫僧": 6,
  "亲肤性": 6,
  "扮@@": 6,
  "枕@@": 6,
  "平方": 6,
  "双方同意": 6,
  "现代@@": 6,
  "前胸": 6,
  "738": 6,
  "孔雀东南飞": 6,
  "僵尸": 6,
  "钙": 6,
  "269": 6,
  "卡住": 6,
  "要紧": 6,
  "汽车@@": 6,
  "嘻哈": 6,
  "相反": 6,
  "汇": 6,
  "四海": 6,
  "粘腻": 6,
  "漾": 6,
  "一不@@": 6,
  "态@@": 6,
  "芷兰": 6,
  "庄园": 6,
  "不伤肤": 6,
  "双鱼座": 6,
  "邮寄": 6,
  "安抚": 6,
  "国度": 6,
  "味十足": 6,
  "浇@@": 6,
  "窜": 6,
  "吵@@": 6,
  "计算@@": 6,
  "稳抓": 6,
  "信念": 6,
  "心法": 6,
  "选偏": 6,
  "追究": 6,
  "立现": 6,
  "牌@@": 6,
  "796": 6,
  "假发": 6,
  "级彩": 6,
  "战略": 6,
  "跑车": 6,
  "嘤": 6,
  "0.8": 6,
  "呼应": 6,
  "洞窟": 6,
  "挡@@": 6,
  "面部轮廓": 6,
  "一堆": 6,
  "至下": 6,
  "指挥官": 6,
  "拥挤": 6,
  "549": 6,
  "人造@@": 6,
  "定妆": 6,
  "情感": 6,
  "招新": 6,
  "窄": 6,
  "订单号": 6,
  "褪去": 6,
  "宾@@": 6,
  "微量元素": 6,
  "1401005571": 6,
  "霹雳": 6,
  "箭@@": 6,
  "事物": 6,
  "厨具": 6,
  "雌@@": 6,
  "蜥蜴": 6,
  "太阳神": 6,
  "小费": 6,
  "甩掉": 6,
  "下落": 6,
  "装饰性": 6,
  "温顺": 6,
  "蒙": 6,
  "交通工具": 6,
  "极度": 6,
  "裳": 6,
  "足尖": 6,
  "老婆": 6,
  "险@@": 6,
  "诊@@": 6,
  "充分发挥": 6,
  "疗程": 6,
  "冷藏": 6,
  "柔韧度": 6,
  "精度": 6,
  "车贴": 6,
  "茶具": 6,
  "AG@@": 6,
  "厚薄": 6,
  "参考@@": 6,
  "可乐": 6,
  "波浪@@": 6,
  "745": 6,
  "经受": 6,
  "私": 6,
  "效果图": 6,
  "维鲁加": 6,
  "10625": 6,
  "皮下@@": 6,
  "洒水": 6,
  "断开连接": 6,
  "769": 6,
  "背景": 6,
  "如若": 6,
  "顿@@": 6,
  "刀刃": 6,
  "染发": 6,
  "读懂": 6,
  "不懈": 6,
  "外源性": 6,
  "庆@@": 6,
  "多款": 6,
  "矗立": 6,
  "收纳盒": 6,
  "木质": 6,
  "元气": 6,
  "三针": 6,
  "招财": 6,
  "携": 6,
  "之气": 6,
  "好坏": 6,
  "跌落": 6,
  "1198": 6,
  "兆": 6,
  "令符": 6,
  "锁色": 6,
  "回国": 6,
  "875": 6,
  "碱性": 6,
  "保卫": 6,
  "艳": 6,
  "轻触": 6,
  "供货": 6,
  "奖金": 6,
  "空军一号": 6,
  "压器": 6,
  "----------------@@": 6,
  "迅捷": 6,
  "易拉": 6,
  "科幻": 6,
  "见谅": 6,
  "驯化": 6,
  "流露出": 6,
  "47": 6,
  "等你拿": 6,
  "异火": 6,
  "哥布林@@": 6,
  "只差": 6,
  "UB@@": 6,
  "澜": 6,
  "家居@@": 6,
  "执着": 6,
  "仗": 6,
  "以此类推": 6,
  "时而": 6,
  "水晶玻璃": 6,
  "制服": 6,
  "青素": 6,
  "有期徒刑": 6,
  "戈登": 6,
  "生活用品": 6,
  "牌号": 6,
  "今季": 6,
  "医疗器械": 6,
  "杠@@": 6,
  "伪@@": 6,
  "信件": 6,
  "分叉": 6,
  "444": 6,
  "灿@@": 6,
  "急躁": 6,
  "昆顿": 6,
  "本场": 6,
  "裁定": 6,
  "4580": 6,
  "个人资料": 6,
  "CV": 6,
  "本着": 6,
  "护具": 6,
  "遭到": 6,
  "时装@@": 6,
  "琪沫": 6,
  "HIFI": 6,
  "霉@@": 6,
  "日光": 6,
  "理所当然": 6,
  "延缓": 6,
  "拉开": 6,
  "镭射": 6,
  "尤物": 6,
  "神魂": 6,
  "中老年": 6,
  "防渗": 6,
  "无权": 6,
  "8cm": 6,
  "迷失": 6,
  "头巾": 6,
  "棉量": 6,
  "罐体": 6,
  "准妈妈": 6,
  "农药": 6,
  "出租": 6,
  "不适感": 6,
  "附加@@": 6,
  "778": 6,
  "捂": 6,
  "檀@@": 6,
  "评测": 6,
  "壁挂": 6,
  "东坡区": 6,
  "属实": 6,
  "切菜": 6,
  "伊丽莎白": 6,
  "领袖": 6,
  "做过": 6,
  "前掌": 6,
  "亚坤": 6,
  "多倍": 6,
  "罢@@": 6,
  "在此之前": 6,
  "涧": 6,
  "不吃": 6,
  "生物酶": 6,
  "化身为": 6,
  "文章": 6,
  "彼@@": 6,
  "疼@@": 6,
  "538": 6,
  "报导": 6,
  "氯化氢": 6,
  "售后": 6,
  "AS": 6,
  "岂止": 6,
  "愈发": 6,
  "校准": 6,
  "浩@@": 6,
  "跟上": 6,
  "肆虐": 6,
  "不负": 6,
  "倒塌": 6,
  "尺@@": 6,
  "衣长": 6,
  "复配": 6,
  "低头": 6,
  "屋顶": 6,
  "甘肃省": 6,
  "无数@@": 6,
  "关照": 6,
  "疼痛感": 6,
  "复发": 6,
  "鬼域": 6,
  "CONTENT%": 6,
  "富": 6,
  "别以为": 6,
  "沟": 6,
  "申报": 6,
  "公民": 6,
  "零售@@": 6,
  "坐姿": 6,
  "Glory": 6,
  "自由组合": 6,
  "影殿": 6,
  "al": 6,
  "eteams": 6,
  "不成": 6,
  "高超": 6,
  "削弱": 6,
  "避震": 6,
  "裸@@": 6,
  "opp@@": 6,
  "reno@@": 6,
  "目光": 6,
  "紧接着": 6,
  "杰克逊": 6,
  "预": 6,
  "医师": 6,
  "较差": 6,
  "前脚": 6,
  "棉绒": 6,
  "秒表": 6,
  "728": 6,
  "行使": 6,
  "铂金": 6,
  "萨布丽娜": 6,
  "备件": 6,
  "攻击@@": 6,
  "分秒": 6,
  "93%": 6,
  "开来": 6,
  "准确@@": 6,
  "Banner": 6,
  "无处": 6,
  "as@@": 6,
  "强制性": 6,
  "锐利": 6,
  "详细@@": 6,
  "打电话": 6,
  "暗淡": 6,
  "兼容性": 6,
  "社长": 6,
  "电车": 6,
  "驯@@": 6,
  "清香": 6,
  "时段": 6,
  "司": 6,
  "森@@": 6,
  "龙珠": 6,
  "咒语": 6,
  "FDA": 6,
  "魑魅": 6,
  "两大": 6,
  "74%": 6,
  "营养@@": 6,
  "实体店": 6,
  "一线@@": 6,
  "堪比": 6,
  "一程": 6,
  "280%": 6,
  "160000": 6,
  "心形": 6,
  "一段@@": 6,
  "密友": 6,
  "汇总表": 6,
  "经验总结": 6,
  "交代": 6,
  "饱@@": 6,
  "现货": 6,
  "清晰度": 6,
  "丽斯": 6,
  "阿特": 6,
  "拘束": 6,
  "磁悬浮": 6,
  "卵壳": 6,
  "警报": 6,
  "双眸": 6,
  "设立": 6,
  "可知": 6,
  "纯属": 6,
  "泄露": 6,
  "安神": 6,
  "少数": 6,
  "万次": 6,
  "阻力": 6,
  "脱俗": 6,
  "盛": 6,
  "全能": 6,
  "排名榜": 6,
  "西丝": 6,
  "弗郎": 6,
  "战斗能力": 6,
  "以此": 6,
  "一家人": 6,
  "豪": 6,
  "一见@@": 6,
  "685": 6,
  "燥": 6,
  "卡六海后": 6,
  "肝@@": 6,
  "银翼": 6,
  "空位": 6,
  "遮盖@@": 6,
  "万众瞩目": 6,
  "逸@@": 6,
  "十二生肖": 6,
  "竞赛": 6,
  "回廊": 6,
  "潮汐": 6,
  "香织": 6,
  "家电": 6,
  "莫斯": 6,
  "28.@@": 6,
  "推销": 6,
  "补强": 6,
  "海誓": 6,
  "笼子": 6,
  "抬": 6,
  "数码产品": 6,
  "两层": 6,
  "赚取": 6,
  "出路": 6,
  "拍大": 6,
  "星镇灵": 6,
  "恶意": 6,
  "过得": 6,
  "实属": 6,
  "调查@@": 6,
  "IP67": 6,
  "632": 6,
  "莉娜": 6,
  "服务态度": 6,
  "了不起": 6,
  "10m": 6,
  "47%": 6,
  "22.5%": 6,
  "GORE": 6,
  "提到": 6,
  "席卷": 6,
  "碎甲灵纹": 6,
  "律师": 6,
  "英尺": 6,
  "水量": 6,
  "累脚": 6,
  "莫非": 6,
  "茫@@": 6,
  "name": 6,
  "字段": 6,
  "踏上": 6,
  "磕@@": 6,
  "荷尔蒙": 6,
  "白衬衫": 6,
  "媲美": 6,
  "神秘@@": 6,
  "攀@@": 6,
  "湿地": 6,
  "麻绳": 6,
  "阴影": 6,
  "膝部": 6,
  "关键@@": 6,
  "幸福@@": 6,
  "友善": 6,
  "乐观": 6,
  "倡导": 6,
  "黄水晶": 6,
  "盯": 6,
  "化学成分": 6,
  "拖把": 6,
  "穿甲": 6,
  "50mm": 6,
  "764": 6,
  "缝纫机": 6,
  "城区": 6,
  "热度": 6,
  "埋藏": 6,
  "手艺": 6,
  "翻滚": 6,
  "花样": 6,
  "用网": 6,
  "每一@@": 6,
  "LCD": 6,
  "装裤": 6,
  "十字@@": 6,
  "亚健康": 6,
  "背痛": 6,
  "ger": 6,
  "49@@": 6,
  "适用法律": 6,
  "4.4%": 6,
  "9.2%": 6,
  "八重": 6,
  "墙外": 6,
  "后退": 6,
  "霍@@": 6,
  "偏胖": 6,
  "递": 6,
  "对流": 6,
  "借鉴": 6,
  "严肃": 6,
  "色系": 6,
  "21500": 6,
  "33000": 6,
  "1440000": 6,
  "吐息": 6,
  "隆": 6,
  "哪咤": 6,
  "双股": 6,
  "太棒了": 6,
  "羊羔": 6,
  "薄弱": 6,
  "截@@": 6,
  "感恩节": 6,
  "帝君": 6,
  "棉纶": 6,
  "有件事": 6,
  "771": 6,
  "GIF": 6,
  "爱人": 6,
  "充气床": 6,
  "刹@@": 6,
  "兽王": 6,
  "赋能": 6,
  "事儿": 6,
  "爱宠": 6,
  "解答": 6,
  "媒": 6,
  "TI@@": 6,
  "围巾": 6,
  "黑曜石": 6,
  "恒久": 6,
  "抬头纹": 6,
  "挤脚": 6,
  "寿": 6,
  "广告@@": 6,
  "马拉@@": 6,
  "撼@@": 6,
  "双武": 6,
  "637": 6,
  "丽人": 6,
  "FM": 6,
  "七转": 6,
  "美颜": 6,
  "13.5%": 6,
  "传中": 6,
  "明朗": 6,
  "颂": 6,
  "派送": 6,
  "杂物": 6,
  "精髓": 6,
  "奏@@": 6,
  "串珠": 6,
  "首日": 6,
  "妥@@": 6,
  "蜡皮": 6,
  "昏暗": 6,
  "成年": 6,
  "AL": 6,
  "细则": 6,
  "霸@@": 6,
  "似的": 6,
  "爱好": 6,
  "牙套": 6,
  "744": 6,
  "高尔@@": 6,
  "怜@@": 6,
  "一个个": 6,
  "苏伊士": 6,
  "零食": 6,
  "小不@@": 6,
  "女法": 6,
  "专心": 6,
  "慢跑": 6,
  "安逸": 6,
  "浮风": 6,
  "578": 6,
  "此表": 6,
  "成衣": 6,
  "标注": 6,
  "发红": 6,
  "746": 6,
  "始": 6,
  "248": 6,
  "收税": 6,
  "卡包": 6,
  "年月日": 6,
  "其一": 6,
  "酿": 6,
  "按时": 6,
  "卡二": 6,
  "密封@@": 6,
  "轻轨": 6,
  "首列": 6,
  "朋克": 6,
  "充斥": 6,
  "567": 6,
  "漏出": 6,
  "勺@@": 6,
  "牙签": 6,
  "普遍": 6,
  "整容": 6,
  "威": 6,
  "ge@@": 6,
  "⼦": 6,
  "RO": 6,
  "本季": 6,
  "心头": 6,
  "煎@@": 6,
  "一夜": 6,
  "副社长": 6,
  "发泡": 6,
  "采取@@": 6,
  "双鞋": 6,
  "有所区别": 6,
  "风火轮": 6,
  "尖端": 6,
  "斯特": 6,
  "报备": 6,
  "登入": 6,
  "750%": 6,
  "等同于": 6,
  "翁": 6,
  "垂顺": 6,
  "狐": 6,
  "数据库": 6,
  "逐": 6,
  "那才": 6,
  "￥": 6,
  "生产工艺": 6,
  "蕴养": 6,
  "轻奢@@": 6,
  "琳": 6,
  "口味": 6,
  "手串": 6,
  "吐": 6,
  "原味": 6,
  "ส": 6,
  "์": 6,
  "ร": 6,
  "瓦@@": 6,
  "努@@": 6,
  "灵神": 6,
  "成吨": 6,
  "严格执行": 6,
  "按摩师": 6,
  "353": 6,
  "抱怨": 6,
  "老实": 6,
  "脚平": 6,
  "库特": 6,
  "希波": 6,
  "可视": 6,
  "信物": 6,
  "灾难": 6,
  "畅行": 6,
  "沧澜帝": 6,
  "731": 6,
  "春秋装": 6,
  "独一无二": 6,
  "千锤百炼": 6,
  "纳入": 6,
  "伤痕": 6,
  "店内": 6,
  "女单": 6,
  "镜框": 6,
  "虚拟": 6,
  "情调": 6,
  "条例": 6,
  "度高": 6,
  "骚@@": 6,
  "来不及": 6,
  "IPHONE": 6,
  "愚@@": 6,
  "冽": 6,
  "已久": 6,
  "导热": 6,
  "室内外": 6,
  "业主": 6,
  "业界": 6,
  "3mm": 6,
  "iphone@@": 6,
  "乳根": 6,
  "动听": 6,
  "怀孕": 6,
  "吸纳": 6,
  "蔓延": 6,
  "39375": 6,
  "隔开": 6,
  "揭@@": 6,
  "电脑@@": 6,
  "举例": 6,
  "先后": 6,
  "售后服务": 6,
  "恕": 6,
  "冰垫": 6,
  "狂化": 6,
  "仙羽": 6,
  "方位": 6,
  "店面": 6,
  "VIP5": 6,
  "本土": 6,
  "踩@@": 6,
  "萨@@": 6,
  "不利": 6,
  "绑玉": 6,
  "怕@@": 6,
  "斯蒂芬": 6,
  "枝": 6,
  "凤": 6,
  "531": 6,
  "掩盖": 6,
  "驾驶@@": 6,
  "error": 6,
  "违约金": 6,
  "湿疹": 6,
  "污水处理": 6,
  "风鸢": 6,
  "携@@": 6,
  "摘@@": 6,
  "di@@": 6,
  "的哥": 6,
  "驱": 6,
  "655": 6,
  "吊带裙": 6,
  "王座": 6,
  "打扮": 6,
  "锁脂": 6,
  "常温": 6,
  "委屈": 6,
  "音频线": 6,
  "兮": 6,
  "等离子体": 6,
  "苦菜": 6,
  "该项": 6,
  "止痒": 6,
  "冰湖": 6,
  "漫": 6,
  "无辐射": 6,
  "10350": 6,
  "7430": 6,
  "....": 6,
  "滑屉": 6,
  "网纱@@": 6,
  "点亲": 6,
  "路边": 6,
  "小雪": 6,
  "摇杆": 6,
  "锅铲": 6,
  "内眼角": 6,
  "寻求": 6,
  "风度": 6,
  "118@@": 6,
  "揍": 6,
  "瘦瘦": 6,
  "帖": 6,
  "火龙": 6,
  "ips": 6,
  "水渍": 6,
  "测温": 6,
  "杨@@": 6,
  "椅": 6,
  "511": 6,
  "终生": 6,
  "昏@@": 6,
  "大幅@@": 6,
  "角后": 6,
  "好几个": 6,
  "交易者": 6,
  "小黑裙": 6,
  "十天": 6,
  "协作": 6,
  "时区": 6,
  "用过": 6,
  "半小时": 6,
  "踪": 6,
  "噬魂": 6,
  "郁": 6,
  "增长@@": 6,
  "太过": 6,
  "号角": 6,
  "迎接": 6,
  "683": 6,
  "62%": 6,
  "DD": 6,
  "冒泡": 6,
  "吵死": 6,
  "好事": 6,
  "A1": 6,
  "缴": 6,
  "原样": 6,
  "默读": 6,
  "正版": 6,
  "事宜": 6,
  "报警器": 6,
  "不沾@@": 6,
  "扰@@": 6,
  "小节": 6,
  "侍@@": 6,
  "教学@@": 6,
  "暑": 6,
  "持证": 6,
  "ed@@": 6,
  "爹爹": 6,
  "墙贴": 6,
  "竟@@": 6,
  "灵珠": 6,
  "天下@@": 6,
  "噬犬怪": 6,
  "成都": 6,
  "概@@": 6,
  "收礼": 6,
  "斯洛普": 6,
  "处理器": 6,
  "散步": 6,
  "典型": 6,
  "利率": 6,
  "ken": 6,
  "奥秘": 6,
  "玄关": 6,
  "劳格": 6,
  "贵重": 6,
  "一大": 6,
  "商务@@": 6,
  "沉着": 6,
  "爱恋": 6,
  "免受": 6,
  "含水率": 6,
  "一顿": 6,
  "脉冲": 6,
  "心血": 6,
  "调解": 6,
  "疲劳感": 6,
  "爬虫": 6,
  "一臂之力": 6,
  "流露": 6,
  "瘦小": 6,
  "抗衰老": 6,
  "爆裂": 6,
  "新服": 6,
  "秘术": 6,
  "c2": 6,
  "Angellir": 6,
  "绝": 6,
  "京": 6,
  "回报率": 6,
  "参与者": 6,
  "艳@@": 6,
  "宣誓": 6,
  "天尊": 6,
  "狐狸": 6,
  "克劳迪": 6,
  "牙垢": 6,
  "开灯": 6,
  "整片": 6,
  "暴力": 6,
  "咽": 6,
  "夜行": 6,
  "喜悦": 6,
  "安全感": 6,
  "手提袋": 6,
  "小学生": 6,
  "葡萄": 6,
  "撑": 6,
  "1094": 6,
  "水银": 6,
  "认筹": 6,
  "旋律": 6,
  "圆弧": 6,
  "头型": 6,
  "昆@@": 6,
  "18000": 6,
  "首刀": 6,
  "教皇": 6,
  "柴@@": 6,
  "风味": 6,
  "筹@@": 6,
  "无残留": 6,
  "叹": 6,
  "城管局": 6,
  "生态环境": 6,
  "苏格兰": 6,
  "碳素": 6,
  "投入": 6,
  "夏秋": 6,
  "摒弃": 6,
  "东路": 6,
  "影院": 6,
  "787": 6,
  "耀@@": 6,
  "天仙": 6,
  "饿@@": 6,
  "昨@@": 6,
  "持有": 6,
  "凸": 6,
  "空隙": 6,
  "502": 6,
  "59@@": 6,
  "工业@@": 6,
  "4.25%": 6,
  "牙菌斑": 6,
  "邮编": 6,
  "御用": 6,
  "专为": 6,
  "家居服": 6,
  "735": 6,
  "桂@@": 6,
  "树木": 6,
  "补发": 6,
  "患": 6,
  "五个": 6,
  "上班族": 6,
  "苦恼": 6,
  "起名": 6,
  "619": 6,
  "612": 6,
  "时尚品牌": 6,
  "五年": 6,
  "有益@@": 6,
  "气流": 6,
  "引导@@": 6,
  "吉": 6,
  "str": 6,
  "疑": 6,
  "Boss@@": 6,
  "知识点": 6,
  "骇@@": 6,
  "贴布": 6,
  "英格丽": 6,
  "BAK4": 6,
  "法诀": 6,
  "纯洁": 6,
  "ype": 6,
  "率和格": 6,
  "舌@@": 6,
  "转址": 6,
  "559": 6,
  "卷曲": 6,
  "不太好": 6,
  "区区": 6,
  "令人惊叹": 6,
  "京城": 6,
  "飞线": 6,
  "WORD": 6,
  "调配": 6,
  "偏执": 6,
  "调音": 6,
  "高空": 6,
  "听觉": 6,
  "治理": 6,
  "砍@@": 6,
  "无不": 6,
  "打工": 6,
  "站岗": 6,
  "耐力": 6,
  "精神@@": 6,
  "code": 6,
  "魔鬼身材": 6,
  "热电": 6,
  "加强版": 6,
  "小学": 6,
  "动摇": 6,
  "沟@@": 6,
  "检查@@": 6,
  "燥@@": 6,
  "别出心裁": 6,
  "哀@@": 6,
  "MU@@": 6,
  "保护层": 6,
  "约束": 6,
  "询问": 6,
  "书面形式": 6,
  "min@@": 6,
  "合脚": 6,
  "狰狞": 6,
  "陈晓峰": 6,
  "博多": 6,
  "牛气": 6,
  "车灯": 6,
  "功能强大": 6,
  "150000": 6,
  "圣御": 6,
  "就会": 6,
  "5627": 6,
  "呵呵": 6,
  "深青": 6,
  "马鞍": 6,
  "靛青": 6,
  "奇缘": 6,
  "般若": 6,
  "本能": 6,
  "弃": 6,
  "怪异": 6,
  "一张白纸": 6,
  "iPad": 6,
  "牙医": 6,
  "工具@@": 6,
  "汁@@": 6,
  "践@@": 6,
  "刀光": 6,
  "虫子": 6,
  "2025": 6,
  "枝@@": 6,
  "挪@@": 6,
  "乖@@": 6,
  "森": 6,
  "WIN@@": 6,
  "披@@": 6,
  "祥@@": 6,
  "沧海": 6,
  "等到": 6,
  "³": 6,
  "全年": 6,
  "忌惮": 6,
  "大姐": 6,
  "授权书": 6,
  "一提": 6,
  "虔诚": 6,
  "钢脊": 6,
  "天长": 6,
  "习": 6,
  "灾": 6,
  "G4": 6,
  "电子设备": 6,
  "甜甜": 6,
  "497": 6,
  "361": 6,
  "刷出": 6,
  "童": 6,
  "15300": 6,
  "2240": 6,
  "土豪": 6,
  "垫脚": 6,
  "脐": 6,
  "将要": 6,
  "慎@@": 6,
  "恢复@@": 6,
  "时应": 6,
  "妇科疾病": 6,
  "860": 6,
  "弗雷德": 6,
  "视觉享受": 6,
  "容许": 6,
  "斯坦": 6,
  "殆尽": 6,
  "逃离": 6,
  "肠@@": 6,
  "DO@@": 6,
  "年轻化": 6,
  "6.6%": 6,
  "卫士": 6,
  "妇女": 6,
  "H.264": 6,
  "板材": 6,
  "旅": 6,
  "金蛋": 6,
  "百列": 6,
  "腔@@": 6,
  "欠款": 6,
  "古魔": 6,
  "哄": 6,
  "孩@@": 6,
  "第轮": 6,
  "不妨": 6,
  "不成@@": 6,
  "不粘锅": 6,
  "臣@@": 6,
  "贴画": 6,
  "VR": 6,
  "220@@": 6,
  "驾@@": 6,
  "佩": 6,
  "习@@": 6,
  "附魔@@": 6,
  "大战": 6,
  "狡猾": 6,
  "错觉": 6,
  "侠@@": 6,
  "266": 6,
  "摇动": 6,
  "干纹": 6,
  "VIP2": 6,
  "给@@": 6,
  "流水线": 6,
  "资本": 6,
  "左边": 6,
  "415": 6,
  "掏@@": 6,
  "纺织品": 6,
  "梅林": 6,
  "攀爬": 6,
  "ame": 6,
  "外露": 6,
  "华歌尔": 6,
  "比喻": 6,
  "喂养": 6,
  "口粮": 6,
  "魅@@": 6,
  "夹子": 6,
  "hhh": 6,
  "高韧性": 6,
  "GD": 6,
  "驱动器": 6,
  "驾": 6,
  "铁路车辆": 6,
  "妨碍": 6,
  "扫除": 6,
  "300ml": 6,
  "三倍": 6,
  "618": 6,
  "匿名": 6,
  "桌@@": 6,
  "扑": 6,
  "干透": 6,
  "二合一": 6,
  "吻合": 6,
  "牧": 6,
  "女夏@@": 6,
  "然然": 6,
  "web@@": 6,
  "537": 6,
  "衣着": 6,
  "脊": 6,
  "渗@@": 6,
  "相似": 6,
  "前者": 6,
  "下阵": 6,
  "裤腿": 6,
  "每一刻": 6,
  "366": 6,
  "扶风": 6,
  "大大增加": 6,
  "哪种": 6,
  "拂晓": 6,
  "妖之翼": 6,
  "水油": 6,
  "联动": 6,
  "包款": 6,
  "用电": 6,
  "pad": 6,
  "第三层": 6,
  "淘宝": 6,
  "诡@@": 6,
  "公交车": 6,
  "怎@@": 6,
  "耳骨": 6,
  "博": 6,
  "中腰": 6,
  "AL@@": 6,
  "绸缎": 6,
  "2290": 6,
  "颧骨": 6,
  "倒入": 6,
  "92200": 6,
  "醒@@": 6,
  "硫": 6,
  "试过": 6,
  "hand@@": 6,
  "奇妙": 6,
  "扰乱": 6,
  "无线连接": 6,
  "召@@": 6,
  "夸奖": 6,
  "加点": 6,
  "章节": 6,
  "669": 6,
  "甚": 6,
  "羊绒": 6,
  "密室": 6,
  "5.8%": 6,
  "亿铢": 6,
  "1320": 6,
  "693": 6,
  "后卡牌": 6,
  "1525": 6,
  "挑衅": 6,
  "山笠": 6,
  "啸": 6,
  "防御@@": 6,
  "多项": 6,
  "脱鞋": 6,
  "主石": 6,
  "垃圾@@": 6,
  "不远处": 6,
  "护主": 6,
  "冢": 6,
  "完全@@": 6,
  "洗手@@": 6,
  "猖@@": 6,
  "99.9%": 6,
  "地底": 6,
  "振": 6,
  "账": 6,
  "复方": 6,
  "演变": 6,
  "泪水": 6,
  "棉衣": 6,
  "身份验证": 6,
  "低碳": 6,
  "喂@@": 6,
  "繁杂": 6,
  "介意": 6,
  "荒野": 6,
  "羊驼": 6,
  "TH": 6,
  "廉@@": 6,
  "睡觉时": 6,
  "感好": 6,
  "置物": 6,
  "饿": 6,
  "绷@@": 6,
  "三级": 6,
  "560%": 6,
  "电线": 6,
  "收信": 6,
  "渗": 6,
  "抱@@": 6,
  "口臭": 6,
  "真挚": 6,
  "敏捷": 6,
  "滑座": 6,
  "太久": 6,
  "海藻": 6,
  "囊": 6,
  "32375": 6,
  "难以想象": 6,
  "福羽": 6,
  "芙蓉": 6,
  "勤": 6,
  "气象@@": 6,
  "2011": 6,
  "道门": 6,
  "水牢": 6,
  "四星": 6,
  "御敌": 6,
  "仰": 6,
  "屈@@": 6,
  "297": 6,
  "捡@@": 6,
  "串": 6,
  "思维": 6,
  "颠@@": 6,
  "薄厚": 6,
  "Sa@@": 6,
  "享用": 6,
  "绘画": 6,
  "金甲": 6,
  "越野车": 6,
  "亮肤": 6,
  "阶及": 6,
  "先用": 6,
  "逐日": 6,
  "金库": 6,
  "罚": 6,
  "名模": 6,
  "1.2%": 6,
  "99@@": 6,
  "498": 6,
  "徽": 6,
  "艰难": 6,
  "阻碍": 6,
  "急救": 6,
  "少昊": 6,
  "一站式": 6,
  "人多": 6,
  "坚决": 6,
  "跃": 6,
  "623": 6,
  "布阵": 6,
  "降为": 6,
  "丧失": 6,
  "如果说": 6,
  "战神": 6,
  "份数": 6,
  "树精": 6,
  "苍龙": 6,
  "纤维结构": 6,
  "11060": 6,
  "歪斜": 6,
  "自助": 6,
  "脊@@": 6,
  "多变": 6,
  "盈": 6,
  "丹药": 6,
  "喵": 6,
  "沙发垫": 6,
  "ne": 6,
  "除菌": 6,
  "电荷": 6,
  "85@@": 6,
  "访问量": 6,
  "来临": 6,
  "繁荣": 6,
  "28000": 6,
  "博主@@": 6,
  "缴@@": 6,
  "优质棉": 6,
  "出场": 6,
  "聚酯": 6,
  "出街": 6,
  "藤花南": 6,
  "博士": 6,
  "ul@@": 6,
  "切断": 6,
  "震中": 6,
  "人字拖": 6,
  "镉": 6,
  "输出@@": 6,
  "想必": 6,
  "742": 6,
  "mm@@": 6,
  "梅花": 6,
  "哑@@": 6,
  "恋@@": 6,
  "综合征": 6,
  "观赏": 6,
  "344": 6,
  "借口": 6,
  "皇后": 6,
  "日内": 6,
  "奈": 6,
  "人品": 6,
  "必出": 6,
  "水晶@@": 6,
  "2.7%": 6,
  "一季": 6,
  "首位": 6,
  "绮": 6,
  "过滤网": 6,
  "极好": 6,
  "国际@@": 6,
  "此人": 6,
  "四日": 6,
  "真意": 6,
  "闷@@": 6,
  "赢取": 6,
  "结构@@": 6,
  "伏@@": 6,
  "修补": 6,
  "color": 6,
  "蔽": 6,
  "英勇": 6,
  "起毛": 6,
  "签约": 6,
  "小镇": 6,
  "侦测": 6,
  "遭": 6,
  "第天": 6,
  "app@@": 6,
  "韩版潮": 6,
  "旦": 6,
  "E0@@": 6,
  "丈量": 6,
  "内嵌": 6,
  "VII": 6,
  "车门": 6,
  "杠": 6,
  "仓@@": 6,
  "踏板": 6,
  "灵魄": 6,
  "扁@@": 6,
  "坚持下去": 6,
  "诗@@": 6,
  "教官": 6,
  "追逐": 6,
  "咿呀": 6,
  "紧急@@": 6,
  "骑乘": 6,
  "本体": 6,
  "青帝": 6,
  "不得@@": 6,
  "毯": 6,
  "18485": 6,
  "橡@@": 6,
  "虽@@": 6,
  "秩序": 6,
  "电力@@": 6,
  "IO@@": 6,
  "and@@": 6,
  "洋溢": 6,
  "蠢": 6,
  "小童": 6,
  "熔@@": 6,
  "耐压": 6,
  "78%": 6,
  "诗篇": 6,
  "六价": 6,
  "风扇": 6,
  "旗帜": 6,
  "折磨": 6,
  "防蚊@@": 6,
  "蓝灵龙": 6,
  "眼前一亮": 6,
  "3296": 6,
  "地域": 6,
  "2150": 6,
  "正反面": 6,
  "交叉@@": 6,
  "沉重": 6,
  "Level": 6,
  "浪漫气息": 6,
  "敲": 6,
  "艇": 6,
  "峇": 6,
  "生理@@": 6,
  "磐石": 6,
  "微笑": 6,
  "灵环": 6,
  "连体衣": 6,
  "海怪": 6,
  "彻@@": 6,
  "典藏": 6,
  "9999": 6,
  "bo@@": 6,
  "翡翠": 6,
  "16889": 6,
  "卸甲": 6,
  "绞@@": 6,
  "IE": 6,
  "囊@@": 6,
  "彩妆": 6,
  "第一眼": 6,
  "半径": 6,
  "长辈": 6,
  "转型": 6,
  "荒": 6,
  "饼干": 6,
  "洞洞": 6,
  "美肤": 6,
  "掌": 6,
  "阿姨": 6,
  "团购": 6,
  "回报": 6,
  "挣@@": 6,
  "4050": 6,
  "绒面": 6,
  "法老": 6,
  "77@@": 6,
  "上位": 6,
  "冬天": 6,
  "18250": 6,
  "耐老化": 6,
  "格温": 6,
  "幂": 6,
  "抛弃": 6,
  "封测": 6,
  "策划": 6,
  "槐@@": 6,
  "倍率": 6,
  "一度": 6,
  "下冲切": 6,
  "te": 6,
  "373": 6,
  "雾化": 6,
  "妖塔": 6,
  "沁@@": 6,
  "展翅高飞": 6,
  "纺衫": 6,
  "阿德莱德": 6,
  "一氧化碳": 6,
  "举起": 6,
  "牛津纺": 6,
  "681": 6,
  "741": 6,
  "613": 6,
  "0.6%": 6,
  "缺点": 6,
  "三次": 6,
  "本方": 6,
  "法定代表": 6,
  "住所": 6,
  "TP@@": 6,
  "其次": 6,
  "不计": 6,
  "__@@": 6,
  "满后": 6,
  "探": 6,
  "外来者": 6,
  "孔雀": 6,
  "这珠钗": 6,
  "候": 6,
  "侠客行": 6,
  "游玩": 6,
  "大号": 6,
  "上量": 6,
  "多琳": 6,
  "纤维@@": 6,
  "扫地": 6,
  "待办": 6,
  "两处": 6,
  "挺直": 6,
  "654": 6,
  "婴@@": 6,
  "衰@@": 6,
  "著@@": 6,
  "帐户": 6,
  "荷兰": 6,
  "车衣": 6,
  "638": 6,
  "651": 6,
  "WE@@": 6,
  "低音部": 6,
  "GMC": 6,
  "多件": 6,
  "斗志": 6,
  "COD": 6,
  "缕": 6,
  "超凡@@": 5,
  "妖魔": 5,
  "≤": 5,
  "巴里": 5,
  "传入": 5,
  "猫眼石": 5,
  "压纹": 5,
  "¥": 5,
  "辨@@": 5,
  "神态": 5,
  "勾选@@": 5,
  "沾@@": 5,
  "质疑": 5,
  "该死": 5,
  "一封": 5,
  "第四阶段": 5,
  "操": 5,
  "腐@@": 5,
  "扣子": 5,
  "社的": 5,
  "Sp@@": 5,
  "自由自在": 5,
  "用处": 5,
  "眼泪": 5,
  "油渍": 5,
  "sho@@": 5,
  "1747": 5,
  "2946": 5,
  "杯口": 5,
  "厨房@@": 5,
  "接触面": 5,
  "172": 5,
  "放出": 5,
  "左手": 5,
  "乏": 5,
  "狮子": 5,
  "得分": 5,
  "万美元": 5,
  "有毒": 5,
  "MAJOR": 5,
  "萨妮": 5,
  "现代化": 5,
  "石涂点": 5,
  "埋": 5,
  "信用": 5,
  "徘徊": 5,
  "熄灭": 5,
  "ss": 5,
  "不禁": 5,
  "1498": 5,
  "斗尊": 5,
  "子宫": 5,
  "布面": 5,
  "纤物": 5,
  "Shop@@": 5,
  "唤@@": 5,
  "惜": 5,
  "三线": 5,
  "理智": 5,
  "活络": 5,
  "im@@": 5,
  "集中@@": 5,
  "上角": 5,
  "经典之作": 5,
  "而知": 5,
  "战死": 5,
  "搬迁": 5,
  "拿捏": 5,
  "409": 5,
  "残页": 5,
  "捕猎": 5,
  "宣告": 5,
  "并用": 5,
  "样貌": 5,
  "火麒麟": 5,
  "风华绝代": 5,
  "眷侣": 5,
  "饥@@": 5,
  "仙术": 5,
  "下手": 5,
  "吓人": 5,
  "荷重": 5,
  "睡着": 5,
  "压胶": 5,
  "领部": 5,
  "谷@@": 5,
  "平日": 5,
  "尘埃": 5,
  "0xff9b0f": 5,
  "过目不忘": 5,
  "达标@@": 5,
  "男式": 5,
  "大口": 5,
  "揉捏": 5,
  "数码设备": 5,
  "战歌": 5,
  "JPEG": 5,
  "环境保护@@": 5,
  "积雪草": 5,
  "钟爱": 5,
  "不怎么": 5,
  "何处": 5,
  "喉@@": 5,
  "月度": 5,
  "寄售": 5,
  "诱@@": 5,
  "作者": 5,
  "天冲": 5,
  "狼人": 5,
  "150@@": 5,
  "清透": 5,
  "蓝灯": 5,
  "点睛之笔": 5,
  "贵校": 5,
  "伤及": 5,
  "助眠": 5,
  "if@@": 5,
  "单手剑": 5,
  "察@@": 5,
  "笃@@": 5,
  "脸仪": 5,
  "交通@@": 5,
  "主妇": 5,
  "报仇": 5,
  "蒂": 5,
  "开票": 5,
  "蠕动": 5,
  "基础@@": 5,
  "告诫": 5,
  "三秒": 5,
  "名片": 5,
  "碰到": 5,
  "獠牙": 5,
  "四面弹": 5,
  "偏掌": 5,
  "景德镇": 5,
  "抽丝": 5,
  "翻新": 5,
  "线圈": 5,
  "cs@@": 5,
  "以防": 5,
  "权@@": 5,
  "幡": 5,
  "不离": 5,
  "百服": 5,
  "巩固": 5,
  "一如既往": 5,
  "玄晶箱": 5,
  "一塔": 5,
  "原生": 5,
  "1408": 5,
  "布艺": 5,
  "无辜": 5,
  "良品": 5,
  "亲眼所见": 5,
  "往上@@": 5,
  "闲暇": 5,
  "________@@": 5,
  "胎盘": 5,
  "____@@": 5,
  "魔后": 5,
  "接电话": 5,
  "啤酒肚": 5,
  "基本@@": 5,
  "渐进": 5,
  "__": 5,
  "一排": 5,
  "切磋": 5,
  "络": 5,
  "悬空": 5,
  "数字@@": 5,
  "酋长": 5,
  "687": 5,
  "UE@@": 5,
  "偷工减料": 5,
  "全力": 5,
  "娴熟": 5,
  "学园": 5,
  "破甲法石": 5,
  "皓雪": 5,
  "拧@@": 5,
  "滤网": 5,
  "炸@@": 5,
  "大门": 5,
  "十倍": 5,
  "睡前": 5,
  "从容@@": 5,
  "给力": 5,
  "入眠": 5,
  "所获": 5,
  "声控": 5,
  "举手": 5,
  "era@@": 5,
  "洗发水": 5,
  "患病": 5,
  "ete@@": 5,
  "戴着": 5,
  "绶带": 5,
  "恢复力": 5,
  "填写@@": 5,
  "人事": 5,
  "墨染": 5,
  "第三个": 5,
  "3v3": 5,
  "球菌": 5,
  "端口": 5,
  "陷@@": 5,
  "济": 5,
  "介质": 5,
  "兼@@": 5,
  "所有权": 5,
  "感佳": 5,
  "娱乐@@": 5,
  "屁股": 5,
  "普及@@": 5,
  "车用": 5,
  "两根": 5,
  "人皇": 5,
  "MC": 5,
  "入侵者": 5,
  "无误": 5,
  "那条": 5,
  "语法": 5,
  "上层": 5,
  "价值@@": 5,
  "瞎": 5,
  "细微差别": 5,
  "苍鸾": 5,
  "兼得": 5,
  "锅具": 5,
  "贴于": 5,
  "杀人": 5,
  "欺骗": 5,
  "传输速率": 5,
  "热衷于": 5,
  "普吉岛": 5,
  "水润@@": 5,
  "50W": 5,
  "鞋盒": 5,
  "12875": 5,
  "STOC@@": 5,
  "实用主义": 5,
  "头颅": 5,
  "朱菜": 5,
  "而后": 5,
  "鹤羽": 5,
  "抗静电": 5,
  "车顶": 5,
  "试剂": 5,
  "ki@@": 5,
  "生活品质": 5,
  "x5": 5,
  "秦@@": 5,
  "20cm": 5,
  "栏@@": 5,
  "逃避": 5,
  "始于": 5,
  "护足": 5,
  "届": 5,
  "面纱": 5,
  "天鸟": 5,
  "过该": 5,
  "展": 5,
  "贴服": 5,
  "人为": 5,
  "印玺": 5,
  "分隔": 5,
  "脱皮": 5,
  "碧海": 5,
  "镯": 5,
  "身段": 5,
  "0.2": 5,
  "尾部": 5,
  "TY": 5,
  "臭@@": 5,
  "介于": 5,
  "749": 5,
  "择@@": 5,
  "音色": 5,
  "丙@@": 5,
  "可笑": 5,
  "新风尚": 5,
  "惑@@": 5,
  "杯盖": 5,
  "志@@": 5,
  "匆匆": 5,
  "宿敌": 5,
  "脸色": 5,
  "CU@@": 5,
  "地雷": 5,
  "饰带": 5,
  "底下": 5,
  "蜂蜜": 5,
  "滤": 5,
  "踢毽子": 5,
  "很长": 5,
  "尝尝": 5,
  "完全恢复": 5,
  "催化": 5,
  "生来": 5,
  "2175": 5,
  "Logo": 5,
  "拐角": 5,
  "塌陷": 5,
  "一遍": 5,
  "双边": 5,
  "文曲": 5,
  "创圣": 5,
  "永久性": 5,
  "一新": 5,
  "烂@@": 5,
  "头簪": 5,
  "香囊": 5,
  "涉嫌": 5,
  "开裂": 5,
  "厌": 5,
  "一应俱全": 5,
  "一战": 5,
  "捕获": 5,
  "麦序": 5,
  "兽灵": 5,
  "天庭": 5,
  "89@@": 5,
  "VIP13": 5,
  "8500": 5,
  "封信": 5,
  "监视": 5,
  "新鞋": 5,
  "动向": 5,
  "注塑": 5,
  "0931": 5,
  "反之": 5,
  "开关机": 5,
  "加减": 5,
  "洛": 5,
  "UI": 5,
  "AAA": 5,
[...]
