{
  "<s>": 26019,
  "<pad>": 26018,
  "</s>": 26017,
  "<unk>": 26016,
  "ที่": 26009,
  "ของ": 17811,
  "การ": 15896,
  "และ": 15212,
  "ใน": 13685,
  "n": 13398,
  "ได้": 13161,
  "ไม่": 11798,
  "จะ": 11577,
  "\\": 11460,
  ".": 10768,
  "มี": 10207,
  ":": 9564,
  "เพิ่ม": 9151,
  "%": 8889,
  "สามารถ": 8417,
  "1": 8398,
  "ดาว": 7889,
  "ใช้": 7286,
  "เป็น": 6217,
  "ให้": 5591,
  "+": 5427,
  "Lv": 5163,
  "เปิด": 5124,
  "ได้รับ": 4950,
  "2": 4894,
  "อย่าง": 4789,
  "คุณ": 4716,
  "กับ": 4684,
  "-": 4529,
  "พลัง": 4520,
  "แล้ว": 4409,
  "3": 4268,
  "แบบ": 4243,
  "ขั้น": 4229,
  "*": 4030,
  "แฟชั่น": 3958,
  "ATK": 3821,
  "จาก": 3793,
  "ไป": 3774,
  "ก็": 3741,
  "เมื่อ": 3738,
  "·": 3718,
  "ใช้งาน": 3607,
  "อาวุธ": 3392,
  "ใส่": 3311,
  "HP": 3311,
  "นี้": 3310,
  "หนึ่ง": 3211,
  "5": 3163,
  "หลัง": 3089,
  "ด้วย": 3072,
  "LV": 3047,
  "10": 2985,
  "หรือ": 2934,
  "เลือก": 2906,
  "ทำให้": 2686,
  "ความ": 2620,
  "4": 2577,
  "รองเท้า": 2575,
  "เพื่อ": 2554,
  "ป้องกัน": 2526,
  "สูง": 2523,
  "ระดับ": 2512,
  "สำหรับ": 2494,
  "สบาย": 2472,
  "ดี": 2444,
  "ว่า": 2422,
  "ทำ": 2417,
  "เวลา": 2412,
  "ออกแบบ": 2390,
  "ฉัน": 2372,
  "หิน": 2362,
  "อยู่": 2353,
  "โจมตี": 2294,
  "(": 2292,
  "ๆ": 2289,
  "ถึง": 2289,
  "ธาตุ": 2219,
  "เม": 2200,
  ")": 2193,
  "ดา": 2178,
  "มา": 2131,
  "ลด": 2108,
  "สี": 2072,
  "เกราะ": 2043,
  "เทพ": 2024,
  "คุณภาพ": 2023,
  "อุปกรณ์": 2023,
  "กัน": 2002,
  "ผู้": 1950,
  "เสริม": 1936,
  "ยัง": 1909,
  "6": 1907,
  "จ": 1893,
  "มือ": 1872,
  "ชุด": 1849,
  "ต้อง": 1845,
  "ตัว": 1843,
  "มาก": 1830,
  "รับ": 1823,
  "#": 1791,
  "คน": 1771,
  "สูงสุด": 1749,
  "c": 1722,
  "กระเป๋า": 1699,
  "วัสดุ": 1695,
  "：": 1692,
  "【": 1691,
  "โดย": 1686,
  "สร้าง": 1679,
  "DEF": 1672,
  "รอบ": 1653,
  "ทั้งหมด": 1645,
  "<": 1632,
  "DMG": 1621,
  "ตาม": 1612,
  "ต่อเนื่อง": 1611,
  "หน้า": 1604,
  "】": 1601,
  "ชั้น": 1588,
  "ผิว": 1584,
  "ใหม่": 1575,
  "รบ": 1550,
  "ปีศาจ": 1537,
  "เป้าหมาย": 1535,
  "ดู": 1534,
  "8": 1533,
  "โปรด": 1528,
  "7": 1525,
  "ฝ่าย": 1523,
  "ข้อมูล": 1513,
  "ต่อ": 1513,
  "คู่": 1492,
  "ถูก": 1489,
  "ชิ้น": 1471,
  "โบนัส": 1470,
  "กิจกรรม": 1470,
  "ง่าย": 1464,
  "、": 1457,
  "ขึ้น": 1450,
  "สไตล์": 1440,
  "สินค้า": 1438,
  "20": 1437,
  "เล่น": 1427,
  "คือ": 1401,
  ">": 1384,
  "ฝัง": 1383,
  "เท้า": 1372,
  "คุณสมบัติ": 1343,
  "เข้าไป": 1340,
  "ซึ่ง": 1334,
  "มัน": 1331,
  "ครั้ง": 1331,
  "ซื้อ": 1326,
  "เรา": 1322,
  "อัญมณี": 1314,
  "ศัตรู": 1300,
  "เซียน": 1292,
  "ตัวละคร": 1272,
  "ผ้า": 1271,
  "หลังจาก": 1265,
  "ออก": 1261,
  "ฟ้า": 1256,
  "ปีก": 1253,
  "เสื้อ": 1251,
  "อัตรา": 1246,
  "น้ำ": 1239,
  "รางวัล": 1232,
  "จำกัด": 1231,
  "9": 1229,
  "น": 1225,
  "หีบ": 1223,
  "30": 1203,
  "ภาพ": 1168,
  "เวท": 1161,
  "สุ่ม": 1160,
  "ระบายอากาศ": 1153,
  "แต่": 1149,
  "คริสตัล": 1118,
  "วัน": 1111,
  "ต่อสู้": 1106,
  "ผ่าน": 1105,
  "สอง": 1102,
  "จำนวน": 1099,
  "!": 1099,
  "เลย": 1087,
  "วินาที": 1075,
  "เอฟเฟกต์": 1073,
  "15": 1073,
  "หนัง": 1072,
  "สกิล": 1070,
  "แหวน": 1061,
  "ค่า": 1060,
  "ต้าน": 1050,
  "ช่วย": 1045,
  "สถานะ": 1040,
  "ทุก": 1039,
  "ยิ่ง": 1028,
  "แดง": 1023,
  "บน": 1022,
  "นะ": 1008,
  "คะแนน": 1004,
  "/": 1000,
  "ผู้หญิง": 999,
  "แสดง": 998,
  "เวล": 997,
  "มาร": 988,
  "ท่าน": 987,
  "มีโอกาส": 984,
  "ตน": 983,
  "แห่ง": 975,
  "นั้น": 967,
  "ส้ม": 967,
  "ไว้": 965,
  "อัพ": 955,
  "หาก": 951,
  "สัตว์": 949,
  "ไฟ": 948,
  "0": 947,
  "ไอเทม": 942,
  "ถาวร": 937,
  "ขนาด": 934,
  "พิเศษ": 934,
  "สาม": 933,
  "สวมใส่": 932,
  "พื้น": 930,
  "เปลี่ยน": 927,
  "แต้ม": 925,
  "เซ็ต": 923,
  "ทั่วไป": 910,
  "ที่จะ": 909,
  "BOSS": 909,
  "ส่ง": 904,
  "！": 902,
  "อีก": 899,
  "รู": 897,
  "วิเศษ": 892,
  "สาย": 892,
  "\"": 890,
  "ใหญ่": 889,
  "รุ่น": 888,
  "พื้นฐาน": 887,
  "รวม": 882,
  "เสื้อผ้า": 881,
  "กว่า": 875,
  "เครื่อง": 866,
  "แสง": 855,
  "ก่อน": 851,
  "ทน": 842,
  "22": 840,
  "เพิ่มขึ้น": 840,
  "ทาง": 826,
  "100": 824,
  "อป": 824,
  "เกิด": 824,
  "เอง": 820,
  "ดร": 818,
  "มากขึ้น": 814,
  "50": 807,
  "EXP": 807,
  "ยาว": 806,
  "เขา": 805,
  "ปี": 804,
  "เส้น": 804,
  "ส่วน": 802,
  "อัน": 801,
  "ส่วนประกอบ": 798,
  "（": 797,
  "มุก": 796,
  "เก็บ": 792,
  "ข้า": 789,
  "ปรับ": 787,
  "วัด": 787,
  "ทั้ง": 786,
  "）": 786,
  ",": 784,
  "เรื่อง": 781,
  "รูปลักษณ์": 778,
  "วิ": 776,
  "ขา": 774,
  "ชิ้นส่วน": 772,
  "ทะลุ": 768,
  "ยา": 768,
  "เธอ": 764,
  "นาย": 757,
  "รับรางวัล": 754,
  "หลัก": 751,
  "รายละเอียด": 751,
  "ที่สุด": 750,
  "ลาย": 749,
  "ทอง": 747,
  "หมวก": 743,
  "ถ้า": 740,
  "ห่อ": 738,
  "ภายใน": 735,
  "：\\": 735,
  "เล": 731,
  "ต้องการ": 729,
  "ลง": 729,
  "กรุณา": 728,
  "เนื้อผ้า": 728,
  "แค่": 728,
  "เดี่ยว": 726,
  "nHP": 725,
  "ผม": 721,
  "เอ": 720,
  "เดียว": 716,
  "ด้าน": 713,
  "หลาย": 711,
  "อะไร": 710,
  "ระบบ": 706,
  "สมบัติ": 706,
  "รูป": 702,
  "หอ": 700,
  "เท่านั้น": 700,
  "เล็ก": 699,
  "ไซส์": 699,
  "ร่างกาย": 699,
  "หรือไม่": 698,
  "ดังนี้": 698,
  "พวก": 697,
  "ฮีโร่": 690,
  "ผลิตภัณฑ์": 690,
  "ธรรมชาติ": 690,
  "%\\": 684,
  "อาจ": 684,
  "กางเกง": 683,
  "มือรอง": 682,
  "แยก": 682,
  "อันดับ": 680,
  "ลม": 679,
  "ลูกค้า": 679,
  "ดัน": 675,
  "ยูนิต": 673,
  "ทรง": 670,
  "สเตตัส": 668,
  "วจะ": 667,
  "เมือง": 664,
  "ม่วง": 664,
  "หา": 664,
  "รูปแบบ": 663,
  "จริง": 661,
  "ชื่อ": 660,
  "ต้านทาน": 650,
  "ขณะเดียวกัน": 650,
  "รายการ": 646,
  "เงิน": 645,
  "วิญญาณ": 639,
  "ใบ": 637,
  "12": 637,
  "แล้": 636,
  "เหมือน": 634,
  "ผู้ชาย": 632,
  "ร้านค้า": 628,
  "สร้อยคอ": 626,
  "แรง": 625,
  "นัก": 623,
  "กำหนด": 623,
  "เรียบง่าย": 622,
  "กำลัง": 622,
  "เข้า": 621,
  "ตัวเอง": 617,
  "เลือด": 615,
  "เอว": 612,
  "ดิน": 607,
  "ฟื้นฟู": 607,
  "เค": 604,
  "เจ้า": 603,
  "|": 602,
  "ที่อยู่": 600,
  "ด่าน": 600,
  "ประเภท": 599,
  "ชีวิต": 597,
  "นางฟ้า": 595,
  "24": 594,
  "นาน": 594,
  "ผล": 594,
  "เดิน": 593,
  "สัมผัส": 592,
  "ลื่น": 592,
  "รักษา": 590,
  "+\\": 587,
  "กิลด์": 584,
  "ทันที": 584,
  "ส": 584,
  "เสียง": 582,
  "กลาง": 581,
  "แนะนำ": 578,
  "แผน": 578,
  "หัว": 578,
  "เสน่ห์": 577,
  "สะดวก": 576,
  "เต็ม": 570,
  "ได้ที่": 568,
  "แตก": 562,
  "เริ่ม": 561,
  "ดีเลิศ": 560,
  "สำเร็จ": 559,
  "สวย": 558,
  "ผอม": 558,
  "อื่น": 556,
  "ริ": 554,
  "รวบรวม": 551,
  "วันที่": 551,
  "ใช่": 550,
  "อัปเกรด": 550,
  "รู้สึก": 548,
  "เข้าสู่": 548,
  "สุด": 548,
  "ด้วยมือ": 547,
  "ติด": 544,
  "พื้นที่": 543,
  ":\\": 542,
  "โลก": 538,
  "1000": 538,
  "เผ่า": 537,
  "เบา": 536,
  "ตกแต่ง": 534,
  "คอ": 532,
  "นี่": 532,
  "ดาบ": 531,
  "ลฟ์": 530,
  "แก่น": 528,
  "41": 521,
  "ต่างกัน": 521,
  "ป่า": 521,
  "26": 520,
  "แผ่น": 520,
  "ตำลึง": 519,
  "40": 518,
  "ประณีต": 517,
  "มังกร": 517,
  "ความยืดหยุ่น": 517,
  "เหรอ": 517,
  "แขน": 516,
  "กลายร่าง": 515,
  "บันทึก": 514,
  "เพียง": 513,
  "เฉพาะ": 513,
  "ตรวจสอบ": 513,
  "ละเอียด": 512,
  "P": 509,
  "ราย": 508,
  "เนื่องจาก": 508,
  "วัว": 507,
  "วิธีการ": 507,
  "สวยงาม": 501,
  "สะสม": 499,
  "สีส้ม": 499,
  "ถุงมือ": 496,
  "วส": 495,
  "ขาว": 493,
  "%，": 492,
  "ทีม": 491,
  "ไหล่": 491,
  "นำ": 491,
  "60": 489,
  "เห็น": 489,
  "ขี่": 488,
  "จุด": 488,
  "สุขภาพ": 487,
  "์": 486,
  "นักรบ": 485,
  "เครื่องประดับ": 484,
  "เพชร": 483,
  "มอนสเตอร์": 483,
  "M": 481,
  "เจี้ยน": 481,
  "CRIT": 477,
  "สะดวกสบาย": 476,
  "จิต": 474,
  "สังหาร": 473,
  "งาน": 471,
  "11": 469,
  "ราคา": 466,
  "ระหว่าง": 466,
  "ผูก": 466,
  "อยาก": 465,
  "เกิน": 465,
  "คำ": 464,
  "ไร้": 464,
  "จึง": 462,
  "ยาก": 461,
  "เขียว": 459,
  "เย็บ": 457,
  "รอง": 456,
  "s": 456,
  "ทุกครั้งที่": 455,
  "สง่างาม": 455,
  "ดำ": 454,
  "ช่วง": 451,
  "มนุษย์": 449,
  "เป็นเวลา": 448,
  "ควร": 446,
  "น้อย": 444,
  "สิ่งประดิษฐ์": 444,
  "สปีด": 444,
  "แท้": 444,
  "ปล่อย": 443,
  "13": 441,
  "มิติ": 441,
  "เทคโนโลยี": 441,
  "สิ่ง": 441,
  "แดน": 439,
  "ช่อง": 437,
  "พอ": 436,
  "ล้าง": 436,
  "อัญเชิญ": 436,
  "ใช้ได้": 435,
  "ปกติ": 432,
  "ฤดูร้อน": 432,
  "ตั้งค่า": 431,
  "เร็ว": 431,
  "ความรู้สึก": 430,
  "มีประสิทธิภาพ": 428,
  "ผ้าฝ้าย": 428,
  "จัดการ": 427,
  "ต่างๆ": 427,
  "ตรง": 427,
  "ทดสอบ": 426,
  "นุ่ม": 426,
  "สำคัญ": 424,
  "14": 423,
  "อย่า": 421,
  "ข้าง": 421,
  "มืด": 421,
  "ลำลอง": 419,
  "นำเข้า": 419,
  "รวดเร็ว": 418,
  "?": 418,
  "อาชีพ": 417,
  "เพิ่มเติม": 416,
  "การ์ด": 415,
  "แก่": 415,
  "มากกว่า": 414,
  "พร้อม": 410,
  "เขต": 410,
  "แห้ง": 409,
  "เติม": 408,
  "โดน": 408,
  "เหมาะสม": 407,
  ";": 406,
  "ผสาน": 403,
  "ข้อผิดพลาด": 402,
  "นาที": 402,
  "กันน้ำ": 401,
  "แต่ละ": 400,
  "ตา": 399,
  "สัญญา": 399,
  "อุณหภูมิ": 398,
  "เหงื่อ": 398,
  "เตือน": 397,
  "ไหม": 397,
  "กลับ": 396,
  "ต่ำกว่า": 396,
  "$": 395,
  "เริ่มต้น": 393,
  "เดียวกัน": 390,
  "ควบคุม": 389,
  "เอา": 389,
  "ใด": 388,
  "ไม่ต้อง": 387,
  "บ้าน": 385,
  "ขน": 385,
  "รู้": 384,
  "เข้าร่วม": 384,
  "น้ำหนัก": 384,
  "คิด": 383,
  "หนา": 383,
  "สีแดง": 381,
  "200": 380,
  "ล": 380,
  "ขอ": 380,
  "ได้ดี": 380,
  "สุดยอด": 380,
  "เรียบ": 379,
  "สิทธิ์": 379,
  "ขั้นสูง": 379,
  "นุ่มนวล": 377,
  "ตำแหน่ง": 376,
  "ตอนนี้": 375,
  "ตาย": 375,
  "ยืนยัน": 374,
  "คืน": 374,
  "ตัด": 371,
  "วิธี": 370,
  "กว้าง": 368,
  "ครบ": 368,
  "เนื้อ": 368,
  "กระชับ": 368,
  "รองรับ": 367,
  "ผลิต": 367,
  "800": 367,
  "ดูด": 366,
  "สวรรค์": 366,
  "ไฟฟ้า": 366,
  "ไขมัน": 363,
  "รอ": 362,
  "ยันต์": 362,
  "รอย": 361,
  "แก้ไข": 361,
  "เซิร์ฟ": 361,
  "ปลดล็อก": 361,
  "แจ้ง": 359,
  "ฉายา": 359,
  "ชัดเจน": 357,
  "ราชา": 356,
  "เส้นทาง": 355,
  "ประเทศ": 355,
  "เคย": 355,
  "=": 354,
  "การ@@": 354,
  "รูปร่าง": 354,
  "500": 354,
  "เพราะ": 353,
  "ชิป": 353,
  "หมด": 353,
  "ทนทาน": 352,
  "ถูกต้อง": 352,
  "แบรนด์": 351,
  "ลดลง": 351,
  "ปลอดภัย": 351,
  "ตั้ง": 350,
  "แม่นยำ": 350,
  "ดึง": 350,
  "ดูแล": 350,
  "ที่นี่": 348,
  "ดังกล่าว": 347,
  "เกี่ยวข้อง": 347,
  "ห้า": 345,
  "สั้น": 345,
  "รถ": 345,
  "300": 345,
  "43": 345,
  "วง": 345,
  "ซัก": 345,
  "สั่งซื้อ": 343,
  "อร": 343,
  "พวกเขา": 343,
  "...": 343,
  "ลบ": 342,
  "คอลเลคชั่น": 342,
  "กำจัด": 342,
  "ตนเอง": 342,
  "ขาย": 341,
  "ตรา": 341,
  "แพ็ก": 340,
  "สิ่งแวดล้อม": 340,
  "เพื่อน": 340,
  "น้ำแข็ง": 339,
  "ชาร์จ": 339,
  "400": 338,
  "จีน": 338,
  "กลัว": 338,
  "เงา": 338,
  "พวกเรา": 337,
  "เด็ก": 336,
  "วันนี้": 335,
  "ยอดเยี่ยม": 335,
  "กด": 334,
  "คลาสสิก": 334,
  "อ่อนนุ่ม": 333,
  "อีกครั้ง": 333,
  "เท่ากับ": 332,
  "ปัจจุบัน": 332,
  "ใคร": 332,
  "งั้น": 331,
  "ปิด": 331,
  "กลายเป็น": 331,
  "ล่า": 331,
  "อัพเกรด": 331,
  "ชั่วโมง": 330,
  "แข็งแกร่ง": 329,
  "ทุกคน": 329,
  "ลิ": 328,
  "อากาศ": 326,
  "แข็งแรง": 326,
  "18": 325,
  "ต่อไป": 324,
  "ฟังก์ชั่น": 323,
  "เป็นมิตร": 322,
  "เรียก": 322,
  "ชำระเงิน": 321,
  "ยิ่งขึ้น": 321,
  "ยอด": 321,
  "มาตรฐาน": 321,
  "ทะเล": 320,
  "จำนวนมาก": 320,
  "พบ": 319,
  "บริการ": 319,
  "สี่": 319,
  "ทิศ": 318,
  "ข้าม": 318,
  "ดำเนินการ": 317,
  "CRI": 316,
  "โล่": 316,
  "จำเป็น": 316,
  "หัวใจ": 316,
  "ครั้งนี้": 316,
  "ยาง": 315,
  "บัญชี": 314,
  "ครับ": 313,
  "ภูต": 313,
  "พูด": 313,
  "สิ": 312,
  "เดือน": 312,
  "เท่า": 311,
  "เด": 311,
  "อัป": 309,
  "แรก": 308,
  "ประสบการณ์": 308,
  "ไหน": 308,
  "เย็น": 308,
  "ร่าง": 307,
  "ปัญหา": 307,
  "งานฝีมือ": 306,
  "ก็ได้": 306,
  "25": 305,
  "ซิป": 304,
  "สร้อย": 304,
  "ชอบ": 304,
  "ค": 303,
  "สีม่วง": 303,
  "เข็มขัด": 303,
  "ความร้อน": 303,
  "ข้อ": 303,
  "รส": 301,
  "ของขวัญ": 300,
  "--": 299,
  "16": 296,
  "ฟังก์ชัน": 296,
  "กรอบ": 295,
  "นาฬิกา": 295,
  "เชื่อมต่อ": 294,
  "สู้": 294,
  "สหาย": 294,
  "กองทัพ": 293,
  "มากมาย": 293,
  "ความ@@": 293,
  "กีฬา": 293,
  "ทำความสะอาด": 292,
  "CD": 292,
  "◆": 291,
  "ปรับปรุง": 291,
  "ออกมา": 291,
  "แบบนี้": 291,
  "ต่าง": 290,
  "เช่น": 290,
  "โชคดี": 290,
  "มาจาก": 290,
  "ทุกวัน": 289,
  "มีผล": 289,
  "รับรอง": 289,
  "ลินิน": 289,
  "โดยตรง": 288,
  "แลก": 288,
  "กายภาพ": 286,
  "ชนิด": 285,
  "เกาหลี": 285,
  "อ่อน": 283,
  "คำสั่ง": 283,
  "โลหะ": 282,
  "เท": 282,
  "กิน": 282,
  "ทิพย์": 282,
  "ซม.": 282,
  "ต่ำ": 281,
  "คง": 280,
  "จับ": 280,
  "หนังสือ": 280,
  "ธุรกิจ": 280,
  "อิสระ": 278,
  "นวด": 278,
  "ลึก": 278,
  "โปรไฟล์": 277,
  "ความสูง": 277,
  "แถว": 277,
  "โหมด": 276,
  "ทูต": 276,
  "ถุง": 276,
  "จริงๆ": 276,
  "เรียบร้อย": 275,
  "，": 275,
  "หน้าอก": 275,
  "ฉบับ": 275,
  "กรอก": 274,
  "การใช้งาน": 273,
  "สาร": 273,
  "ปุ่ม": 272,
  "เรียน": 272,
  "สมบูรณ์แบบ": 272,
  "เดิม": 272,
  "31": 272,
  "ลับ": 272,
  "ไหล": 272,
  "ลอง": 272,
  "กลุ่ม": 271,
  "กลิ่น": 271,
  "มือถือ": 270,
  "ปกป้อง": 269,
  "แบตเตอรี่": 268,
  "รวมถึง": 268,
  "ผลึก": 268,
  "เกี่ยวกับ": 267,
  "ตอน": 267,
  "VIP": 267,
  "แบคทีเรีย": 267,
  "เดินทาง": 266,
  "สมาชิก": 266,
  "ศึก": 265,
  "โอกาส": 265,
  "ง": 264,
  "ตก": 263,
  "ข้อความ": 263,
  "บท": 263,
  "กระตุ้น": 262,
  "เนื้อหา": 262,
  "ระดับสูง": 262,
  "รัด": 262,
  "ปริมาณ": 261,
  "ร์": 261,
  "จน": 261,
  "วาง": 260,
  "หยวน": 260,
  "ผู้บัญชาการ": 260,
  "ใต้": 260,
  "ลักษณะ": 260,
  "ถอด": 260,
  "เพื่อให้": 260,
  "หมายเลข": 260,
  "หญิง": 259,
  "ยังไง": 258,
  "ความปลอดภัย": 258,
  "600": 258,
  "ขึ้นไป": 258,
  "กล่อง": 257,
  "กา": 257,
  "ธนู": 256,
  "เรียนรู้": 256,
  "การต่อสู้": 256,
  "บลูทูธ": 256,
  "ทำไม": 256,
  "ธรรมดา": 255,
  "ภารกิจ": 255,
  "00": 255,
  "เกม": 255,
  "น้ำเงิน": 254,
  "ระบาย": 252,
  "ขณะนี้": 252,
  "สิบ": 252,
  "พลังงาน": 252,
  "สะท้อน": 251,
  "บล็อก": 251,
  "จัด": 250,
  "ดีไซน์": 250,
  "เถอะ": 250,
  "ปลุกใจ": 249,
  "ญี่ปุ่น": 249,
  "ชมพู": 248,
  "องค์ประกอบ": 248,
  "กระบวนการ": 248,
  "ชาย": 248,
  "ค่าย": 248,
  "ลูก": 248,
  "ออกจาก": 248,
  "ร้าน": 247,
  "บาง": 247,
  "อสูร": 246,
  "สาว": 246,
  "ความชื้น": 246,
  "เหมาะกับ": 246,
  "เสร็จ": 245,
  "บริสุทธิ์": 245,
  "ตาราง": 243,
  "ที่สอง": 243,
  "เอาชนะ": 243,
  "ดินแดน": 242,
  "ฟัน": 242,
  "ร่าย": 242,
  "ดอกไม้": 241,
  "ห้อง": 241,
  "ฟัง": 241,
  "ภายนอก": 241,
  "ทำงาน": 240,
  "“": 240,
  "สดใส": 240,
  "ไม้": 239,
  "อ่าน": 239,
  "รัก": 238,
  "ล็อค": 238,
  "เหลือง": 238,
  "หยุด": 238,
  "พัฒนา": 237,
  "ต่อไปนี้": 237,
  "ยืด": 236,
  "หุ่น": 236,
  "ผู้ใช้": 236,
  "ต้น": 236,
  "ตี": 235,
  "เพลิดเพลิน": 235,
  "โดยอัตโนมัติ": 235,
  "มุม": 235,
  "เหลือ": 233,
  "คุณภาพดี": 233,
  "รีบ": 233,
  "ขั้นตอน": 232,
  "ยืดหยุ่น": 232,
  "ความมืด": 232,
  "ม": 232,
  "ยับยั้ง": 232,
  "เจอ": 232,
  "หาย": 232,
  "ขนาดใหญ่": 231,
  "ของจริง": 231,
  "ประมาณ": 231,
  "ค่ะ": 231,
  "เลื่อนขั้น": 231,
  "~": 231,
  "ประดับ": 231,
  "ติดตั้ง": 231,
  "บอก": 231,
  "ยินดี": 231,
  "ดังต่อไปนี้": 231,
  "1.5": 230,
  "ญาณ": 230,
  "พอดี": 230,
  "ด้านล่าง": 230,
  "สมบูรณ์": 230,
  "โบราณ": 229,
  "80": 229,
  "น่า": 229,
  "เป็นหลัก": 228,
  "ส้น": 228,
  "เสีย": 228,
  "หล่อ": 226,
  "เป็นต้น": 226,
  "ใช้จ่าย": 226,
  "แถม": 226,
  "สู่": 226,
  "เปรียบเทียบ": 226,
  "ค้นหา": 225,
  "เหล็ก": 225,
  "พับ": 225,
  "หรูหรา": 224,
  "อ้างอิง": 223,
  "ฆ่า": 223,
  "ล้มเหลว": 223,
  "อัศจรรย์": 223,
  "ใจ": 223,
  "สถานการณ์": 223,
  "MAX": 222,
  "สนับสนุน": 222,
  "ห้าม": 222,
  "สดชื่น": 222,
  "ดวล": 221,
  "จบ": 221,
  "กระจาย": 221,
  "เนียน": 220,
  "ครีม": 220,
  "หลีกเลี่ยง": 220,
  "CM": 220,
  "ระยะเวลา": 220,
  "ยก": 220,
  "นอน": 220,
  "ทลาย": 220,
  "อาการ": 219,
  "หัก": 218,
  "บริษัท": 218,
  "เกินไป": 218,
  "ท้า": 218,
  "กระโปรง": 218,
  "ติดต่อ": 217,
  "ฮาร์ดแวร์": 216,
  "เข้าคู่": 216,
  "สงคราม": 216,
  "อีเมล": 216,
  "นั่น": 216,
  "อัตโนมัติ": 216,
  "ขอบ": 215,
  "ตาข่าย": 215,
  "เยอะ": 215,
  "คลิก": 215,
  "ความจุ": 214,
  "150": 213,
  "เล็กน้อย": 212,
  "ประตู": 212,
  "ทา": 212,
  "เสร็จสิ้น": 212,
  "90": 211,
  "item": 211,
  "เส้นโค้ง": 211,
  "อำพัน": 210,
  "ลุค": 210,
  "อาจจะ": 210,
  "ความสามารถ": 210,
  "A": 210,
  "หมายเหตุ": 210,
  "ไล่ล่า": 209,
  "เอกสาร": 209,
  "S": 209,
  "สะอาด": 209,
  "ยุง": 208,
  "ล่าง": 208,
  "ซี": 208,
  "เข้าใจ": 207,
  "พื้นผิว": 207,
  "ฝีมือ": 207,
  "การทำงาน": 207,
  "ละ": 207,
  "ก": 207,
  "โครงสร้าง": 205,
  "d": 205,
  "ผ้าไหม": 205,
  "”": 205,
  "ป้อน": 204,
  "การผลิต": 204,
  "ดวงดาว": 204,
  "ทำลาย": 204,
  "ต่ำสุด": 203,
  "สังกัด": 203,
  "โชว์": 203,
  "เจ็ด": 203,
  "ล่ะ": 203,
  "อื่นๆ": 202,
  "21": 202,
  "คู่หู": 202,
  "องศา": 202,
  "อาหาร": 201,
  "สะพาย": 201,
  "ถึงขั้น": 201,
  "เข้าสู่ระบบ": 201,
  "รายงาน": 201,
  "หยาบ": 201,
  "ผิวหนัง": 201,
  "รูปทรง": 201,
  "ฟรี": 200,
  "ทำการ": 200,
  "สวม": 200,
  "2018": 199,
  "เหล่านี้": 199,
  "โทรศัพท์": 198,
  "เคลื่อนที่": 198,
  "มิ": 198,
  "เนื้อหนัง": 197,
  "ออนไลน์": 197,
  "บำรุง": 197,
  "สภาพ": 197,
  "น้ำมัน": 197,
  "°": 197,
  "NT": 197,
  "เมฆ": 196,
  "360": 196,
  "คุ": 196,
  "เบอร์": 195,
  "350": 195,
  "รับได้": 195,
  "กองทหาร": 194,
  "ฟิต": 194,
  "17": 193,
  "ศักดิ์สิทธิ์": 193,
  "ขยาย": 193,
  "แน่น": 192,
  "ด้านหลัง": 192,
  "สังเคราะห์": 192,
  "cm": 192,
  "มืออาชีพ": 192,
  "ต": 192,
  "เหมือนกัน": 191,
  "2021": 191,
  "ตลอด": 191,
  "ด": 191,
  "หมุน": 191,
  "หู": 190,
  "บูท": 190,
  "ดังนั้น": 190,
  "หูฟัง": 190,
  "ดารา": 190,
  "สะโพก": 190,
  "ออกกำลังกาย": 190,
  "ละเอียดอ่อน": 190,
  "ร้อย": 189,
  "ด้านหน้า": 189,
  "ปาก": 189,
  "ยกเลิก": 189,
  "ขอบเขต": 189,
  "ครั้งแรก": 188,
  "1400": 188,
  "ผู้ค้า": 188,
  "28": 188,
  "เพียงพอ": 188,
  "สม่ำเสมอ": 187,
  "C": 187,
  "ร่วม": 187,
  "พิมพ์": 186,
  "2020": 186,
  "กลับมา": 186,
  "อารักขา": 186,
  "มอง": 186,
  "×": 186,
  "กำไล": 185,
  "กล้ามเนื้อ": 185,
  "แต่งหน้า": 185,
  "คัดเลือก": 185,
  "ง่ายดาย": 185,
  "45": 185,
  "ภายใต้": 185,
  "ติ": 184,
  "ปลุก": 184,
  "เป็นการ": 184,
  "คู่สัญญา": 184,
  "ผ่อนคลาย": 184,
  "จัดส่ง": 184,
  "เกรด": 184,
  "แต่ง": 183,
  "มอบ": 183,
  "น.": 183,
  "แน่ใจ": 183,
  "สนาม": 183,
  "19": 183,
  "url": 182,
  "พกพา": 182,
  "การแสดง": 182,
  "อารมณ์": 181,
  "สกิล:": 181,
  "การออกกำลังกาย": 181,
  "เส้นใย": 181,
  "เหมาะสำหรับ": 181,
  "เทคนิค": 180,
  "สัก": 180,
  "ทองคำ": 180,
  "ซาก": 180,
  "หิมะ": 180,
  "กระจก": 180,
  "T": 179,
  "ตอบ": 179,
  "บวก": 179,
  "？": 179,
  "คา": 179,
  "ซับใน": 178,
  "หน้าจอ": 178,
  "เสื้อยืด": 178,
  "เพลง": 177,
  "x": 177,
  "ระบุ": 177,
  "เต": 176,
  "เข้ากับ": 176,
  "ร้อน": 176,
  "วิ่ง": 175,
  "ญ": 175,
  "ปลาย": 175,
  "น้อยกว่า": 175,
  "35": 175,
  "ม้วน": 175,
  "เป้": 174,
  "หมาป่า": 174,
  "V": 174,
  "ถือ": 174,
  "ฝ้าย": 174,
  "หยก": 174,
  "พัน": 174,
  "แบ่ง": 174,
  "ปรากฏ": 174,
  "หก": 173,
  "ไฟเบอร์": 173,
  "เข็ม": 173,
  "120": 173,
  "สกัด": 173,
  "ขาด": 173,
  "ขีดจำกัด": 173,
  "อ่อนโยน": 173,
  "ตำนาน": 173,
  "โทรศัพท์มือถือ": 172,
  "รีเฟรช": 172,
  "ด้านใน": 172,
  "[": 171,
  "ร": 171,
  "ดีมาก": 171,
  "ฤดูใบไม้ผลิ": 171,
  "ห้อย": 171,
  "2000": 171,
  "อี": 171,
  "สัดส่วน": 171,
  "ดอก": 171,
  "การป้องกัน": 170,
  "ท": 170,
  "ชนะ": 170,
  "ตลาด": 170,
  "กระดาษ": 170,
  "ตัวอย่าง": 169,
  "แปด": 169,
  "แท้จริง": 169,
  "หรอก": 169,
  "เลื่อน": 169,
  "เม็ด": 169,
  "กระดูก": 168,
  "รา": 168,
  "บรรเทา": 168,
  "ซา": 168,
  "ร้าง": 168,
  "กล้า": 168,
  "แฝง": 167,
  "ปรมาจารย์": 167,
  "การสึกหรอ": 167,
  "แม่เหล็ก": 167,
  "ฯลฯ": 167,
  "เน้น": 167,
  "180": 167,
  "วิหาร": 167,
  "ความเร็ว": 167,
  "ชั้นแรก": 166,
  "ร้าย": 166,
  "พิษ": 166,
  "โพ": 166,
  "การย้อมสี": 166,
  "หน่วย": 166,
  "เกิดขึ้น": 166,
  "นา": 165,
  "รายวัน": 164,
  "อายุ": 164,
  "การรักษา": 164,
  "ริ้วรอย": 164,
  "บด": 164,
  "ทอ": 164,
  "ใส": 164,
  "ขณะ": 163,
  "รุ่นใหม่": 163,
  "รหัสผ่าน": 163,
  "แรงดัน": 163,
  "โชค": 163,
  "สีสัน": 162,
  "วัง": 162,
  "หน่อย": 162,
  "ขวา": 162,
  "ฝุ่น": 161,
  "ตามใจ": 161,
  "อ": 161,
  "ประกอบ": 161,
  "เชื้อ": 161,
  "หลุด": 161,
  "โค้ง": 161,
  "บล็อค": 161,
  "nCRI": 161,
  "ค่อย": 160,
  "จสกิล": 160,
  "ถ่าย": 160,
  "ยังมี": 160,
  "ผสม": 160,
  "ทบ": 160,
  "ความต้องการ": 160,
  "ขจัด": 159,
  "คุ้มครอง": 159,
  "สถานที่": 159,
  "การควบคุม": 159,
  "โครงการ": 159,
  "กลางคืน": 159,
  "กระเป๋าสะพาย": 158,
  "ขนนก": 158,
  "ผลกระทบ": 158,
  "มอน": 158,
  "ติดตาม": 158,
  "คนอื่น": 158,
  "จำเป็นต้อง": 158,
  "ซ้ำ": 158,
  "เงื่อนไข": 158,
  "กระบี่": 158,
  "จอม": 156,
  "หนัก": 156,
  "อ้วน": 156,
  "แบน": 156,
  "ซ้าย": 156,
  "I": 156,
  "ส่วนบุคคล": 156,
  "ขนาดเล็ก": 156,
  "ดั้งเดิม": 156,
  "หายใจ": 156,
  "k": 155,
  "ดูดซับ": 155,
  "มอลล์": 155,
  "70": 155,
  "บัตร": 155,
  "รูปภาพ": 155,
  "ผู้คน": 154,
  "ประจำวัน": 154,
  "ปลด": 154,
  "โรค": 154,
  "48": 154,
  "หลากหลาย": 154,
  "มั่นคง": 154,
  "ตั้งแต่": 154,
  "ดีกว่า": 153,
  "แต่ว่า": 153,
  "แม่": 153,
  "ส่วนลด": 153,
  "จับคู่": 153,
  "มีด": 153,
  "1000000": 152,
  "วิดีโอ": 152,
  "ข้อกำหนด": 152,
  "D": 151,
  "สิ้นสุด": 151,
  "เติบโต": 151,
  "ตรงกัน": 151,
  "42": 150,
  "ยีนส์": 150,
  "เสื้อเชิ้ต": 150,
  "บ้าง": 150,
  "นับ": 150,
  "รังสี": 150,
  "MU": 149,
  "มีเสน่ห์": 149,
  "รับผิดชอบ": 149,
  "เต็มที่": 149,
  "ถนน": 149,
  "บอ": 148,
  "เซลล์": 148,
  "ท้าทาย": 148,
  "เหรียญทอง": 148,
  "เซิร์ฟเวอร์": 148,
  "ซิ": 148,
  "ทันสมัย": 147,
  "คอม": 147,
  "สอดคล้อง": 147,
  "ใบหน้า": 147,
  "เต็มไปด้วย": 147,
  "ทั้งตัว": 146,
  "ระยะ": 146,
  "กาย": 146,
  "หงส์": 146,
  "ออ": 146,
  "นั่ง": 146,
  "เครื่องหมาย": 145,
  "ได้ยิน": 145,
  "น่ารัก": 145,
  "ลี": 145,
  "หัวเข็มขัด": 145,
  "ท้อง": 145,
  "รสนิยม": 145,
  "เพลิง": 145,
  "พยายาม": 144,
  "ที": 144,
  "ต้นไม้": 144,
  "ลงทะเบียน": 144,
  "เก": 144,
  "ถัก": 144,
  "กลม": 144,
  "47": 144,
  "การเปลี่ยนแปลง": 144,
  "แล้วก็": 143,
  "ช่วงเวลา": 143,
  "มีความรู้สึก": 143,
  "1500": 143,
  "เซ": 143,
  "ประกอบด้วย": 143,
  "นอนหลับ": 143,
  "แกะ": 143,
  "ระเบิด": 143,
  "ท์": 143,
  "เปอร์เซ็นต์": 142,
  "ลืม": 142,
  "เก้า": 142,
  "ดำเนินงาน": 142,
  "ผนึก": 141,
  "ยืน": 141,
  "สด": 141,
  "เพียงแค่": 141,
  "K": 141,
  "สูตร": 141,
  "ว": 141,
  "สุดท้าย": 141,
  "จากนั้น": 141,
  "ทะลวง": 140,
  "ง่ายๆ": 140,
  "ส่งมอบ": 140,
  "S@@": 140,
  "สำรวจ": 140,
  "ล@@": 140,
  "รี": 140,
  "ซ่อน": 140,
  "】\\": 139,
  "<>": 139,
  "ข้อตกลง": 139,
  "ลึกลับ": 139,
  "อันตราย": 139,
  "ทั้งสอง": 139,
  "ขอบคุณ": 138,
  "แผดเผา": 138,
  "ลำโพง": 138,
  "ดีขึ้น": 138,
  "ขอให้": 138,
  "ข้างใน": 138,
  "ชม": 138,
  "1200": 138,
  "ใช่ไหม": 138,
  "ค่อนข้าง": 138,
  "ชั้นยอด": 137,
  "ผู้พิทักษ์": 137,
  "วา": 137,
  "แกน": 137,
  "อา": 137,
  "เร": 137,
  "หัวหน้า": 137,
  "กระดุม": 137,
  "ก@@": 137,
  "เชือก": 136,
  "คลื่น": 136,
  "สายฟ้า": 136,
  "กรอง": 136,
  "3000": 136,
  "รุ": 136,
  "ไหลเวียน": 136,
  "ล้าน": 136,
  "ย": 135,
  "นิ้ว": 135,
  "รหัส": 135,
  "C@@": 135,
  "75": 135,
  "เซ็กซี่": 135,
  "แน่นอน": 135,
  "ปก": 135,
  "ฐาน": 135,
  "เทรนด์": 134,
  "ปฏิเสธ": 134,
  "%+": 134,
  "รุนแรง": 134,
  "กังวล": 134,
  "เทียบ": 134,
  "B": 134,
  "จันทรา": 133,
  "มองเห็น": 133,
  "จู่โจม": 133,
  "ปราณ": 133,
  "；": 133,
  "ที่เกิด": 133,
  "ข้างนอก": 133,
  "ตัดเย็บ": 133,
  "มีความสุข": 133,
  "ถัดไป": 133,
  "ให้การ": 133,
  "เอกลักษณ์": 132,
  "มลพิษ": 132,
  "ด้านบน": 132,
  "สัปดาห์": 132,
  "ดีเยี่ยม": 132,
  "สมาร์ท": 132,
  "ขัด": 132,
  "ยอมรับ": 132,
  "รองเท้าหนัง": 132,
  "2.5": 132,
  "หลวม": 132,
  "450": 132,
  "ความดัน": 131,
  "เมตร": 131,
  "เข้ามา": 131,
  "กลางแจ้ง": 131,
  "เจาะ": 131,
  "หลังจากที่": 131,
  "อุตสาหกรรม": 131,
  "นิล": 131,
  "ไอ": 131,
  "ดวงจิต": 130,
  "โดดเด่น": 130,
  "ทหาร": 130,
  "ยักษ์": 130,
  "สมาคม": 130,
  "ได": 130,
  "ยุโรป": 130,
  "ความรัก": 130,
  "ส่วนใหญ่": 130,
  "บิน": 130,
  "แพลตฟอร์ม": 130,
  "แถบ": 130,
  "สตัน": 129,
  "สภาพแวดล้อม": 129,
  "ใช้การ": 129,
  "เล็บ": 129,
  "ตัดสิน": 129,
  "จ่าย": 129,
  "เข้าชุด": 129,
  "พร้อมกับ": 129,
  "กระแสไฟฟ้า": 129,
  "มุ": 129,
  "ตัวอักษร": 129,
  "ใกล้": 129,
  "เหตุผล": 129,
  "รูขุมขน": 129,
  "ชา": 129,
  "ลวดลาย": 128,
  "น@@": 128,
  "อบ": 128,
  "23": 128,
  "ย้อนยุค": 128,
  "ด้วยกัน": 127,
  "โปร": 127,
  "สิว": 127,
  "หน้าท้อง": 127,
  "boss": 127,
  "ฉาก": 127,
  "ครอบครัว": 127,
  "แก้ว": 127,
  "ส่วนตัว": 126,
  "คำอธิบาย": 126,
  "PVP": 126,
  "ลักษณ์": 126,
  "ยึด": 126,
  "หนาแน่น": 126,
  "สิทธิ": 126,
  "วิเคราะห์": 126,
  "แน่": 126,
  "หลา": 126,
  "หมายถึง": 125,
  "เปลี่ยนเป็น": 125,
  "ถือว่า": 125,
  "สึกหรอ": 125,
  "นิ": 125,
  "เป็นเรื่อง": 125,
  "ปัก": 125,
  "แปลง": 124,
  "ผู้@@": 124,
  "ผี": 124,
  "สีชมพู": 124,
  "ก้าว": 124,
  "อยู่แล้ว": 124,
  "2400": 123,
  "แข็ง": 123,
  "ทุกที่": 123,
  "เชื่อม": 123,
  "ดำเนิน": 123,
  "อัปโหลด": 123,
  "มึนงง": 123,
  "แทน": 123,
  "เล่ม": 123,
  "ไม่เพียงแต่": 123,
  "อนุญาต": 123,
  "ใดๆ": 122,
  "เจ้าของ": 122,
  "นอก": 122,
  "250": 122,
  "ม@@": 122,
  "โปร่งใส": 121,
  "_": 121,
  "II": 121,
  "ส่วนเกิน": 121,
  "เหรียญ": 121,
  "กาว": 121,
  "หมื่น": 121,
  "ห": 120,
  "พ่อ": 120,
  "แปล": 120,
  "ราบรื่น": 120,
  "ฝึก": 120,
  "เบาะ": 120,
  "จี้": 120,
  "ชิง": 120,
  "แพ้": 120,
  "ความถี่": 120,
  "เทศกาล": 120,
  "ทางการ": 120,
  "ยู": 119,
  "บังคับ": 119,
  "ทิ้ง": 119,
  "ยี่ห้อ": 119,
  "โดยเฉพาะ": 119,
  "เทียน": 119,
  "หน้าที่": 119,
  "พา": 119,
  "คุ้ม": 119,
  "ทำให้เกิด": 119,
  "ด@@": 118,
  "ทำได้": 118,
  "อัจฉริยะ": 118,
  "โครง": 118,
  "ดูดซึม": 118,
  "&": 118,
  "ทรัพยากร": 118,
  "ขั้นต้น": 118,
  "หลอม": 118,
  "ฤดูใบไม้ร่วง": 118,
  "แอคทีฟ": 118,
  "เชื่อ": 117,
  "โอ": 117,
  "เสมอ": 117,
  "คำแนะนำ": 117,
  "2017": 117,
  "หมู่บ้าน": 116,
  "ฤดูกาล": 116,
  "ชน": 116,
  "ส่งเสริม": 116,
  "นักเรียน": 116,
  "แขวน": 116,
  "ล้วน": 116,
  "ช": 116,
  "ดัง": 116,
  "โปรโมชั่น": 115,
  "ชั่วคราว": 115,
  "แอ": 115,
  "แกร่ง": 115,
  "ชั่น": 115,
  "ตอนที่": 115,
  "ไกล": 115,
  "คาร์": 115,
  "ศิลปะ": 115,
  "การอนุมัติ": 115,
  "Flee": 115,
  "ชีฟอง": 115,
  "กระดูกสันหลัง": 115,
  "คล้อง": 115,
  "พร": 115,
  "เสียบ": 115,
  "ชาว": 115,
  "ใส่ใจ": 114,
  "อีแปะ": 114,
  "สำนัก": 114,
  "เว็บไซต์": 114,
  "ความงาม": 114,
  "มองข้าม": 114,
  "เทพเจ้า": 114,
  "เข้มงวด": 114,
  "สิ่งของ": 114,
  "ข้อมือ": 113,
  "ผู้นำ": 113,
  "เผา": 113,
  "มายา": 113,
  "ต่างหู": 112,
  "ป": 112,
  "ลา": 112,
  "บ": 112,
  "ตั้งใจ": 112,
  "หมอก": 112,
  "ตลอดเวลา": 112,
  "คืนชีพ": 112,
  "พืช": 112,
  "วิชา": 112,
  "เป็นพิเศษ": 111,
  "ฤดูหนาว": 111,
  "ผู้ขาย": 111,
  "สายสะพาย": 111,
  "มัลติ": 111,
  "ล็อก": 111,
  "ตกลง": 111,
  "ขีด": 111,
  "ความสวยงาม": 110,
  "โค": 110,
  "เหล่า": 110,
  "ทั้งสองฝ่าย": 110,
  "สว่าง": 110,
  "ไทย": 110,
  "กลวง": 110,
  "กล้อง": 110,
  "ใกล้ชิด": 110,
  ">+": 110,
  "เทพธิดา": 110,
  "ทั่วโลก": 110,
  "ดวงตา": 110,
  "แพ็กเกจ": 110,
  "ระวัง": 110,
  "ป้าย": 110,
  "กางเกงใน": 109,
  "รองเท้าแตะ": 109,
  "อเมริกา": 109,
  "ป@@": 109,
  "ครอบคลุม": 109,
  "รีเซ็ต": 109,
  "ล้ำค่า": 109,
  "แนวโน้ม": 109,
  "สูญเสีย": 109,
  "นพเก้า": 108,
  "ชีวิตประจำวัน": 108,
  "เห": 108,
  "ประหยัด": 108,
  "ล่าสุด": 108,
  "๑": 108,
  "แจก": 108,
  "ลาวา": 108,
  "คงที่": 108,
  "มูลค่า": 107,
  "หมวดหมู่": 107,
  "ชำระ": 107,
  "B@@": 107,
  "แก": 107,
  "ร@@": 107,
  "การจัดส่ง": 107,
  "ทุกเวลา": 107,
  "น่ะ": 107,
  "สองเท่า": 107,
  "ถาม": 107,
  "โทร": 107,
  "ส@@": 107,
  "ต่อต้าน": 107,
  "อย่างไร": 106,
  "แปลก": 106,
  "36": 106,
  "แถวหน้า": 106,
  "เอียง": 106,
  "ทั่ว": 106,
  "ความชุ่มชื้น": 106,
  "สนองความต้องการ": 105,
  "อีกด้วย": 105,
  "……": 105,
  "ความแตกต่าง": 105,
  "เป็นที่": 105,
  "คลัง": 105,
  "บัฟ": 105,
  "ฝน": 105,
  "ซะ": 105,
  "หลบหลีก": 105,
  "32": 104,
  "0.5": 104,
  "ยาน": 104,
  "ผู้ซื้อ": 104,
  "อั่งเปา": 104,
  "บ@@": 104,
  "56": 104,
  "คัน": 104,
  "ว่างเปล่า": 104,
  "เหนือ": 104,
  "ท@@": 104,
  "สนามรบ": 104,
  "ผลงาน": 104,
  "ประสิทธิภาพ": 104,
  "ข้างหน้า": 103,
  "ภาษา": 103,
  "เลนส์": 103,
  "ราตรี": 103,
  "รู้จัก": 103,
  "คอมพิวเตอร์": 103,
  "ออกเดินทาง": 103,
  "ไง": 103,
  "สัญญาณ": 103,
  "ซ่อมแซม": 103,
  "ศูนย์": 103,
  "ยังคง": 103,
  "10000": 102,
  "จักรวรรดิ": 102,
  "คุณแม่": 102,
  "ดาวน์โหลด": 102,
  "สำนักงาน": 102,
  "ตื่น": 102,
  "รับประกัน": 102,
  "เก่า": 102,
  "จดหมาย": 102,
  "เข้มข้น": 102,
  "โจว": 102,
  "เปลี่ยนแปลง": 102,
  "ท่าทาง": 102,
  "คัทลู": 102,
  "ออฟไลน์": 102,
  "สมุนไพร": 101,
  "ตั๋ว": 101,
  "มาถึง": 101,
  "แล": 101,
  "บางส่วน": 101,
  "ง@@": 101,
  "แดงเข้ม": 101,
  "ปีศาจร้าย": 101,
  "ผิดปกติ": 101,
  "ประจำ": 101,
  "โร": 101,
  "แนว": 101,
  "ราบ": 101,
  "รถยนต์": 101,
  "แตกต่าง": 101,
  "ทุกๆ": 101,
  "อัด": 100,
  "ไนลอน": 100,
  "บำรุงรักษา": 100,
  "A@@": 100,
  "ความคิด": 100,
  "อัปเดต": 100,
  "คะ": 100,
  "หลายครั้ง": 100,
  "ว@@": 99,
  "โดยรวม": 99,
  "หลาน": 99,
  "สายตา": 99,
  "ผลไม้": 99,
  "หวัง": 99,
  "ต@@": 99,
  "บางเบา": 99,
  "สะเทือน": 99,
  "บรรยากาศ": 99,
  "G": 98,
  "T@@": 98,
  "สมดุล": 98,
  "AFK": 98,
  "สิทธิพิเศษ": 98,
  "โก": 98,
  "ยาวนาน": 98,
  "ขยะ": 98,
  "pid": 98,
  "ฟิล์ม": 98,
  "แสดงออก": 97,
  "ค.ศ.": 97,
  "พี่": 97,
  "แผนที่": 97,
  "ไร": 97,
  "ความเสียหาย": 97,
  "ขวด": 97,
  "เหมือนกับ": 97,
  "ทางเลือก": 97,
  "อีกต่อไป": 97,
  "160": 96,
  "ทุกอย่าง": 96,
  "บุคลิกภาพ": 96,
  "ห่วง": 96,
  "ฮา": 96,
  "ร่วง": 96,
  "โรงงาน": 96,
  "_]": 96,
  "ถัง": 96,
  "เก้าอี้": 96,
  "ล้อ": 96,
  "คั่งแค้น": 96,
  "นอกจาก": 96,
  "แปรง": 95,
  "สั่นสะเทือน": 95,
  "หุ้ม": 95,
  "โด": 95,
  "ช่าง": 95,
  "สร้อยข้อมือ": 95,
  "คาด": 95,
  "พาหนะ": 95,
  "เหม็น": 95,
  "เชิญ": 95,
  "จมูก": 95,
  "จ้าง": 94,
  "ชิ": 94,
  "เด่น": 94,
  "หอคอย": 94,
  "ไว": 94,
  "ถู": 94,
  "ครึ่ง": 94,
  "ประ": 94,
  "เข้ม": 94,
  "ผิด": 94,
  "อะ": 94,
  "ผนัง": 94,
  "เครื่องมือ": 93,
  "ดับ": 93,
  "ไฟล์": 93,
  "ปฏิบัติตาม": 93,
  "สมัคร": 93,
  "g": 93,
  "พ@@": 93,
  "มีปัญหา": 93,
  "มักจะ": 93,
  "กฎ": 92,
  "ซีซั่น": 92,
  "ม่า": 92,
  "อน": 92,
  "คม": 92,
  "เหนื่อย": 92,
  "ตามที่": 91,
  "มันวาว": 91,
  "อำนาจ": 91,
  "กรรมการ": 91,
  "ภูมิภาค": 91,
  "จาง": 91,
  "ความเสี่ยง": 91,
  "ติดตัว": 91,
  "เคลื่อนไหว": 91,
  "ย@@": 91,
  "ไมโคร": 91,
  "ปลา": 91,
  "ขับไล่": 91,
  "หมอน": 91,
  "วาร": 91,
  "เร่ง": 91,
  "เคลือบ": 91,
  "L": 90,
  "ประลอง": 90,
  "ดูเหมือน": 90,
  "P@@": 90,
  "การเคลื่อนไหว": 90,
  "รุ่งอรุณ": 90,
  "ถ่ายภาพ": 90,
  "ฝา": 90,
  "เจล": 90,
  "กำลังจะ": 90,
  "ได้มา": 90,
  "วิน": 90,
  "กุญแจ": 90,
  "ชม.": 90,
  "สีน้ำเงิน": 90,
  "ตรวจ": 90,
  "ประกาศ": 90,
  "สาบสูญ": 90,
  "ในเวลาเดียวกัน": 90,
  "ตกน้ำ": 90,
  "ขนส่ง": 90,
  "น้ำยา": 90,
  "แบต": 90,
  "บุก": 89,
  "ความคืบหน้า": 89,
  "ท่า": 89,
  "อ@@": 89,
  "แตกแยก": 89,
  "ฮิต": 89,
  "วน": 89,
  "เย็นสบาย": 89,
  "แฟน": 89,
  "ลำดับ": 89,
  "จางหาย": 89,
  "mm": 89,
  "บริเวณ": 89,
  "สอดคล้องกัน": 89,
  "หมดอายุ": 89,
  "ด์": 89,
  "บรรลุ": 88,
  "งาม": 88,
  "อธิบาย": 88,
  "สองชั้น": 88,
  "อบอุ่น": 88,
  "แพ": 88,
  "หมู": 88,
  "ห่าง": 88,
  "ตะ": 88,
  "ยุทธ์": 88,
  "เพี้ยน": 88,
  "สัตว์เลี้ยง": 88,
  "เลขที่": 88,
  "ทะเลทราย": 88,
  "อาจารย์": 88,
  "เพ": 88,
  "กรณี": 87,
  "อีกแล้ว": 87,
  "แช่": 87,
  "ข@@": 87,
  "ความสง่างาม": 87,
  "อังกฤษ": 87,
  "กระถาง": 87,
  "นาฬิกาข้อมือ": 87,
  "บับเบิ้ล": 87,
  "เตรียม": 87,
  "_#": 87,
  "กาลเวลา": 87,
  "ทดลอง": 87,
  "ฤดู": 87,
  "แยกตัว": 87,
  "นรก": 86,
  "แปลงร่าง": 86,
  "ย้อนกลับ": 86,
  "กระแส": 86,
  "ในขณะเดียวกัน": 86,
  "ความสุข": 86,
  "ทองแดง": 86,
  "แม้แต่": 86,
  "เซอร์": 86,
  "ที่สูง": 86,
  "จู": 86,
  "พร้อมกัน": 86,
  "ขโมย": 86,
  "240": 86,
  "ไปดู": 86,
  "มั่นใจ": 86,
  "แก้": 85,
  "ฐานะ": 85,
  "เอส": 85,
  "เวทมนตร์": 85,
  "นะคะ": 85,
  "ซิลิโคน": 85,
  "แชท": 85,
  "ว่าง": 85,
  "สรุป": 85,
  "105": 85,
  "เฉพาะตัว": 85,
  "หรู": 85,
  "จง": 85,
  "เป้า": 85,
  "นักผจญภัย": 85,
  "ทิศทาง": 85,
  "ทมิฬ": 85,
  "ผู้บริโภค": 85,
  "-@@": 85,
  "ฟ": 85,
  "ย้อมสี": 85,
  "หนี": 84,
  "ทำร้าย": 84,
  "ชาร์ต": 84,
  "พลัส": 84,
  "มอ": 84,
  "เทมเพลต": 84,
  "ไร้สาย": 84,
  "กันแดด": 84,
  ">◆": 84,
  "แก้ไขปัญหา": 84,
  "M@@": 84,
  "700": 84,
  "เต้น": 84,
  "อารี": 84,
  "รอด": 83,
  "พุง": 83,
  "เรื่อยๆ": 83,
  "มินิ": 83,
  "เครื่องสำอาง": 83,
  "ไรท์": 83,
  "โล": 83,
  "ผลตอบแทน": 83,
  "9@@": 83,
  "ลอย": 83,
  "ฟลูออ": 83,
  "เวอร์ชั่น": 83,
  "ซ์": 83,
  "กลืน": 83,
  "ปวด": 83,
  "เสียดสี": 83,
  "แสวงหา": 83,
  "5000": 83,
  "สนใจ": 83,
  "ทราบ": 82,
  "ย์": 82,
  "กี่": 82,
  "เจ็บ": 82,
  "เข้าถึง": 82,
  "E@@": 82,
  "8@@": 82,
  "เช็ค": 82,
  "t": 82,
  "ซ้อน": 82,
  "กระ": 82,
  "ข้างต้น": 82,
  "ยื่น": 82,
  "แลกเปลี่ยน": 82,
  "เป็นหนึ่ง": 82,
  "ส่งออก": 82,
  "กัด": 82,
  "ลมแรง": 82,
  "ตรวน": 82,
  "บาท": 81,
  "สิทธิบัตร": 81,
  "ริม": 81,
  "ห@@": 81,
  "ราง": 81,
  "คมชัด": 81,
  "หน่วยงาน": 81,
  "ผา": 81,
  "a": 81,
  "โบสถ์": 81,
  "จ@@": 81,
  "D@@": 81,
  "จนถึง": 81,
  "เสียงรบกวน": 81,
  "่": 81,
  "ทุ": 81,
  "กฎหมาย": 81,
  "ใช้เวลา": 81,
  "ปู": 81,
  "สแตนเลส": 80,
  "_]#": 80,
  "สมาธิ": 80,
  "งดงาม": 80,
  "บอส": 80,
  "ย้าย": 80,
  "H@@": 80,
  "สนุก": 80,
  "ล่วงหน้า": 80,
  "ธาร": 80,
  "ฝัน": 80,
  "สัญลักษณ์": 80,
  "G@@": 80,
  "80000": 80,
  "เป็นธรรมชาติ": 80,
  "12@@": 80,
  "การพัฒนา": 80,
  "ไซ": 79,
  "สวน": 79,
  "ความนิยม": 79,
  "ไซต์": 79,
  "SMS": 79,
  "ลดน้ำหนัก": 79,
  "เรียว": 79,
  "รุ่นพี่": 79,
  "ก้อน": 79,
  "ความแข็งแรง": 79,
  "L@@": 79,
  "โม": 79,
  "บาย": 79,
  "ลูกไม้": 79,
  "คลุม": 79,
  "Facebook": 79,
  "44": 79,
  "ร์ค": 79,
  "คลาส": 78,
  "อายุการใช้งาน": 78,
  "หัวข้อ": 78,
  "ชื้น": 78,
  "อาศัย": 78,
  "Aquiver": 78,
  "ซึม": 78,
  "อย่างนี้": 78,
  "ทางเทคนิค": 78,
  "หรือเปล่า": 78,
  "ค@@": 78,
  "ชุ่มชื้น": 78,
  "3400": 78,
  "กระเป๋าสตางค์": 78,
  "คราบ": 78,
  "นิยม": 78,
  "มีชีวิตชีวา": 78,
  "จำ": 78,
  "ซื้อขาย": 78,
  "โคร่ง": 78,
  "หอม": 78,
  "อัคคี": 78,
  "๒": 78,
  "บุ": 78,
  "แช่แข็ง": 77,
  "เฮอริเคน": 77,
  "พันธมิตร": 77,
  "ไฮเอนด์": 77,
  "อก": 77,
  "การสัมผัส": 77,
  "อาณาจักร": 77,
  "3.5": 77,
  "ร่ม": 77,
  "แนวคิด": 77,
  "650000": 77,
  "หน้าปัด": 77,
  "ชุดชั้นใน": 77,
  "เขียน": 77,
  "ที่ไหน": 77,
  "98": 77,
  "ต่างประเทศ": 77,
  "USB": 76,
  ":%": 76,
  "กดปุ่ม": 76,
  "สิ่งมีชีวิต": 76,
  "บีบ": 76,
  "แม้ว่า": 76,
  "X": 76,
  "ตะลุมบอน": 76,
  "เสียหาย": 76,
  "โรแมนติก": 76,
  "แก้ปัญหา": 76,
  "ความแข็ง": 76,
  "รวมกัน": 76,
  "420": 76,
  "จัดอันดับ": 76,
  "สุ": 76,
  "คนเดียว": 76,
  "8000": 75,
  "พ": 75,
  "เคล็ด": 75,
  "《": 75,
  "อาบน้ำ": 75,
  "เสื้อชั้นใน": 75,
  "135": 75,
  "เอกัตภาพ": 75,
  "คอเสื้อ": 75,
  "แบก": 75,
  "ระงับ": 75,
  "คุณลักษณะ": 75,
  "ด้านนอก": 75,
  "Boss": 75,
  "110": 75,
  "จิ": 75,
  "500000": 75,
  "วัย": 75,
  "ที่รัก": 75,
  "ขับ": 75,
  "อ่อนแอ": 75,
  "คำถาม": 74,
  "p@@": 74,
  "หวาน": 74,
  "ย่อย": 74,
  "สะ": 74,
  "ประชาชน": 74,
  "III": 74,
  "โหลด": 74,
  "การสั่งซื้อ": 74,
  "นาง": 74,
  "คีย์": 74,
  "สติกเกอร์": 74,
  "เปิดเผย": 74,
  "ตัวจริง": 74,
  "ร่องรอย": 74,
  "ในขณะที่": 74,
  "เพิ่ง": 73,
  "ค่าใช้จ่าย": 73,
  "จัง": 73,
  "สตรี": 73,
  "สนิท": 73,
  "ซักผ้า": 73,
  "จุติ": 73,
  "ขี้เกียจ": 73,
  "175": 73,
  "ถ้ำ": 73,
  "สงบ": 73,
  "บริจาค": 73,
  "พัง": 73,
  "ความเหนียว": 73,
  "เมิร์ซ": 73,
  "คลั่ง": 73,
  "พรสวรรค์": 73,
  "ภายหลัง": 73,
  "ขยะมูลฝอย": 73,
  "ฆ่าเชื้อ": 73,
  "บิ": 73,
  "ฝ่าเท้า": 73,
  "m": 72,
  "อบอ้าว": 72,
  "มรกต": 72,
  "ครา": 72,
  "หมุนเวียน": 72,
  "จา": 72,
  "โบ": 72,
  "BP": 72,
  "มหากาพย์": 72,
  "วัยรุ่น": 72,
  "ชดเชย": 72,
  "ร้อง": 72,
  "วิหค": 72,
  "โต": 71,
  "การกระทำ": 71,
  "แต่ละคน": 71,
  "ออน": 71,
  "เยอรมัน": 71,
  "วิถี": 71,
  "รบกวน": 71,
  "คู่รัก": 71,
  "เซียว": 71,
  "มีค่า": 71,
  "ศึกษา": 71,
  "ความหนาแน่น": 71,
  "เลี่ยง": 71,
  "ชั่วร้าย": 71,
  "แร่": 71,
  "แย่": 71,
  "การประเมิน": 71,
  "วงกลม": 71,
  "แสดงให้เห็น": 71,
  "ความมั่นใจ": 71,
  "กลไก": 71,
  "750": 71,
  "แหล่ง": 71,
  "บุคคล": 71,
  "คุ้มกัน": 71,
  "กิจ": 71,
  "แสงแดด": 71,
  "ฯ": 70,
  "ยูวี": 70,
  "พนักงาน": 70,
  "ตำรา": 70,
  "ณาพ（": 70,
  "สังเกต": 70,
  "เต้านม": 70,
  "ะ": 70,
  "ม้า": 70,
  "ทรงพลัง": 70,
  "ประทาน": 70,
  "ข": 70,
  "พลาสติก": 70,
  "กันกระแทก": 70,
  "ชุบ": 70,
  "กระ@@": 70,
  "แอปพลิเคชัน": 70,
  "มด": 70,
  "i": 70,
  "1800": 70,
  "อาร์": 70,
  "F@@": 70,
  "หมอ": 70,
  "มีชีวิต": 69,
  "คน@@": 69,
  "กระแทก": 69,
  "เหยียบ": 69,
  "ถ@@": 69,
  "ตามปกติ": 69,
  "ขึ้นอยู่กับ": 69,
  "สกุล": 69,
  "34": 69,
  "ค่อยๆ": 69,
  "Gold": 69,
  "ส่งผล": 69,
  "210": 69,
  "ประโยค": 69,
  "วัตถุดิบ": 69,
  "้": 69,
  "กระเป๋าถือ": 69,
  "ขนาดที่": 69,
  "ใย": 69,
  "ที่วัด": 69,
  "ตรวจรับ": 69,
  "นิ่ม": 68,
  "ชัด": 68,
  "อิเล็กทรอนิกส์": 68,
  "อินเทรนด์": 68,
  "ฉีก": 68,
  "แมตช์": 68,
  "จ:": 68,
  "แม้": 68,
  "สกิล·": 68,
  "เบส": 68,
  "ในประเทศ": 68,
  "รัดรูป": 68,
  "ขอโทษ": 68,
  "ณ": 68,
  "คิ้ว": 68,
  "ให้บริการ": 68,
  "โซน": 68,
  "เป็นเพื่อน": 68,
  "ยางพารา": 68,
  "แชร์": 68,
  "แสน": 67,
  "คทา": 67,
  "85": 67,
  "สิ่งสกปรก": 67,
  "รัดตัว": 67,
  "คุย": 67,
  "ใช้แล้ว": 67,
  "288": 67,
  "ลิงก์": 67,
  "ล้ม": 67,
  "เท่": 67,
  "เหล็กกล้า": 67,
  "บ่อย": 67,
  "ลอร์ด": 67,
  "ขุด": 67,
  "เ": 67,
  "ช้า": 67,
  "O@@": 67,
  "ช@@": 67,
  "เบาบาง": 67,
  "ปานกลาง": 67,
  "ทารก": 67,
  "พระ": 67,
  "บรรจง": 67,
  "เกาะ": 67,
  "บุคคลที่สาม": 67,
  "อินเทอร์เน็ต": 67,
  "ตะวัน": 67,
  "ไอออน": 67,
  "ส่องแสง": 66,
  "นโยบาย": 66,
  "หญ้า": 66,
  "ดิ": 66,
  "ส้มมือ": 66,
  "ต์": 66,
  "ตระเวน": 66,
  "---": 66,
  "s@@": 66,
  "อม": 66,
  "จัดเก็บ": 66,
  "เพราะว่า": 66,
  "เตียง": 66,
  "หนู": 66,
  "นูน": 66,
  "นอกจากนี้": 66,
  "ราชินี": 66,
  "วิทยาศาสตร์": 66,
  "มอเตอร์": 66,
  "ข้างบน": 66,
  "ฝ่า": 66,
  "เห็นได้ชัด": 66,
  "แข่ง": 66,
  "46": 66,
  "หวี": 66,
  "การขนส่ง": 65,
  "หล่อน": 65,
  "สบายใจ": 65,
  "นักออกแบบ": 65,
  "ซัพพอร์ต": 65,
  "เส": 65,
  "พายุ": 65,
  "เกือบ": 65,
  "ปากกา": 65,
  "หุ่นเชิด": 65,
  ")*": 65,
  "การแลก": 65,
  "แท็ก": 65,
  "โลโก้": 65,
  "พหูสูต": 65,
  "I@@": 65,
  "เพจ": 65,
  "คนใน": 65,
  "โปรแกรม": 64,
  "i@@": 64,
  "เทป": 64,
  "เมน": 64,
  "ไล่ตาม": 64,
  "ทราย": 64,
  "เอสเตอร์": 64,
  "27": 64,
  "อธิษฐาน": 64,
  "แลนด์": 64,
  "หรือว่า": 64,
  "หลักฐาน": 64,
  "ทั้งคู่": 64,
  "ที่เก็บ": 64,
  "กำมะหยี่": 64,
  "ผู้ให้บริการ": 64,
  "เคส": 64,
  "130": 64,
  "อัศวิน": 64,
  "อัตราส่วน": 64,
  "ก็ตาม": 64,
  "งอ": 64,
  "ออสเตรเลีย": 64,
  "ทั้งวัน": 64,
  "หมายความว่า": 64,
  "ค์": 64,
  "พระเจ้า": 64,
  "ระ": 64,
  "เป็น@@": 63,
  "นิสัย": 63,
  "โซ": 63,
  "เสนอ": 63,
  "หลักการ": 63,
  "สมอ": 63,
  "สลับ": 63,
  "บำเพ็ญ": 63,
  "มืดมิด": 63,
  "ซ@@": 63,
  "การตะโกน": 63,
  "ทุกครั้ง": 63,
  "ช่องทาง": 63,
  "บาดเจ็บ": 63,
  "220": 63,
  "E": 63,
  "จุดเด่น": 63,
  "บัว": 63,
  "วะ": 63,
  "เหมาะ": 63,
  "สบู่": 63,
  "ค้าง": 63,
  "ยอดขาย": 63,
  "ลิ่ว": 63,
  "℃": 63,
  "หรง": 63,
  "ความทรงจำ": 62,
  "N@@": 62,
  "ใต้ดิน": 62,
  "พัก": 62,
  "วัล": 62,
  "ดนตรี": 62,
  "มี@@": 62,
  "ซับซ้อน": 62,
  "ระยะไกล": 62,
  "พรีเมี่ยม": 62,
  "เหว": 62,
  "ก.": 62,
  "แบบฟอร์ม": 62,
  "สถิติ": 62,
  "ผู้รับ": 62,
  "ตัวเลข": 62,
  "ปลั๊ก": 62,
  "เบื้องหลัง": 62,
  "ความจริง": 62,
  "เสริมสวย": 62,
  "วงการ": 62,
  "การตลาด": 62,
  "K@@": 62,
  "H": 62,
  "ชั้นสูง": 62,
  "ระคายเคือง": 62,
  "แสดงผล": 62,
  "ท่อ": 62,
  "พิจารณา": 62,
  "สกปรก": 61,
  "แมงมุม": 61,
  "ฟิลด์": 61,
  "เทา": 61,
  "รี่": 61,
  "รอบเอว": 61,
  "บริโภค": 61,
  "ที่นั่น": 61,
  "นก": 61,
  "a@@": 61,
  "า": 61,
  "เปืด": 61,
  "ท่อน": 61,
  "Y@@": 61,
  "รอยเท้า": 61,
  "เว้า": 61,
  "ถอยหลัง": 61,
  "e": 61,
  "เสถียรภาพ": 61,
  "มุ่งเน้น": 61,
  "ส่วนผสม": 61,
  "ใจกว้าง": 61,
  "ไหว้": 61,
  "ล็อกอิน": 61,
  "ประสาทสัมผัส": 61,
  "%；": 61,
  "ข้างหลัง": 61,
  "ความกดดัน": 61,
  "ระเหย": 61,
  "เปลือก": 61,
  "33": 61,
  "เช่นกัน": 61,
  "คูปอง": 61,
  "กล้าหาญ": 61,
  "65": 60,
  "วานร": 60,
  "คัดลอก": 60,
  "ซาน": 60,
  "ดูดี": 60,
  "ปลอกแขน": 60,
  "คล่องแคล่ว": 60,
  "ที่สาม": 60,
  "หนีบ": 60,
  "เฉลี่ย": 60,
  "ยอม": 60,
  "แต่งงาน": 60,
  "รูปปั้น": 60,
  "ลิมิต": 60,
  "เครื่องจักร": 60,
  "หาทาง": 60,
  "ธรรม": 60,
  "เหตุการณ์": 60,
  "โย": 60,
  "กอ": 60,
  "นิ้วเท้า": 60,
  "ภูเขา": 60,
  "ให้ได้": 60,
  "ฟื้น": 60,
  "AI": 60,
  "ตามกฎหมาย": 59,
  "ยุค": 59,
  "ข้อดี": 59,
  "พุ่ง": 59,
  "บ้าคลั่ง": 59,
  "กวาดล้าง": 59,
  "ร้อยละ": 59,
  "อุ่น": 59,
  "ราก": 59,
  "d@@": 59,
  "": 59,
  "มีพลัง": 59,
  "29": 59,
  "HPLv": 59,
  "ของแท้": 59,
  "กระจ่าง": 59,
  "U@@": 59,
  "ราศี": 59,
  "เป็นทางการ": 59,
  "ช่วยเหลือ": 59,
  "จิตใจ": 59,
  "เหนียว": 59,
  "แกะสลัก": 59,
  "19@@": 59,
  "เวอร์ชัน": 59,
  "การปรับปรุง": 59,
  "โน": 59,
  "c@@": 59,
  "ริมฝีปาก": 59,
  "โลหิต": 59,
  "เนื่องด้วย": 59,
  "พลาด": 59,
  "ที่ผ่านมา": 59,
  "ตุ๊กตา": 59,
  "กะ": 59,
  "ไปเที่ยว": 59,
  "แทงค์": 59,
  "ความคิดเห็น": 59,
  "สึก": 58,
  "450000": 58,
  "3@@": 58,
  "แว่นตา": 58,
  ".@@": 58,
  "แนบ": 58,
  "หน้าต่าง": 58,
  "ปัจจัย": 58,
  "โอน": 58,
  "ฉลอง": 58,
  "225": 58,
  "เลน": 58,
  "์@@": 58,
  "อินเดีย": 58,
  "จักรวาล": 58,
  "หิ้ว": 58,
  "ตรงหน้า": 58,
  "ใช้กับ": 58,
  "สั่น": 58,
  "คอย": 58,
  "ลี่": 58,
  "สิ้นสุดลง": 58,
  "525": 58,
  "2@@": 58,
  "มอบให้": 58,
  "หน้าตา": 58,
  "><": 58,
  "เมฆา": 58,
  "ความลับ": 58,
  "เพิ่มค่า": 57,
  "ยกเว้น": 57,
  "หลายอย่าง": 57,
  "99": 57,
  "52": 57,
  "รัฐบาล": 57,
  "แอตแลนติส": 57,
  "กัดกร่อน": 57,
  "อัล": 57,
  "สรีรศาสตร์": 57,
  "พารามิเตอร์": 57,
  "อุปนิสัย": 57,
  "ภาษาอังกฤษ": 57,
  "เทียม": 57,
  "u@@": 57,
  "ดวง": 57,
  "สร้างสรรค์": 57,
  "ปราสาท": 57,
  "！\\": 57,
  "แจ็คเก็ต": 57,
  "ซาร์": 57,
  "โหนด": 57,
  "๓": 57,
  "ตอนนั้น": 57,
  "พิถีพิถัน": 57,
  "อลูมิเนียม": 57,
  "พูดคุย": 57,
  "เครื่อง@@": 57,
  "ถ้วย": 57,
  "999": 57,
  "เป่า": 57,
  "):": 57,
  "ยิง": 57,
  "สีเหลือง": 57,
  "การระบายอากาศ": 56,
  "การแข่งขัน": 56,
  "หาง": 56,
  "88": 56,
  "ผ้าใบ": 56,
  "ถอน": 56,
  "แสดงถึง": 56,
  "สารพิษ": 56,
  "การวิจัย": 56,
  "เชื่อมโยง": 56,
  "อง": 56,
  "【%": 56,
  "ช้อปปิ้ง": 56,
  "ผสมผสาน": 56,
  "ดึกดำบรรพ์": 56,
  "ธนาคาร": 56,
  "ฟสกิล": 56,
  "หลอด": 56,
  "หลง": 56,
  "การถ่ายภาพ": 56,
  "ไฮ": 56,
  "ลูกกลิ้ง": 56,
  "บางที": 56,
  "ก่อสร้าง": 56,
  "ร่วมกัน": 56,
  "มีประโยชน์": 56,
  "บรรจุภัณฑ์": 56,
  "ว่าการ": 56,
  "315": 56,
  "5@@": 56,
  "พ่น": 56,
  "ลูกปัด": 56,
  "สม": 56,
  "แสงไฟ": 56,
  "Amazon": 55,
  "ไม": 55,
  "เกียร์": 55,
  "58": 55,
  "ความฝัน": 55,
  "ด้าย": 55,
  "เป็นอันตราย": 55,
  "ตะขอ": 55,
  "นิพพาน": 55,
  "ปักษา": 55,
  "บา": 55,
  "์ค": 55,
  "โคมไฟ": 55,
  "นาโน": 55,
  "R": 55,
  "เส้นด้าย": 55,
  "แมทช์": 55,
  "สิบสอง": 55,
  "ด่วน": 55,
  "แทนที่": 55,
  "วงแหวน": 55,
  "รั่ว": 55,
  "ร่า": 55,
  "เป็นไปตาม": 55,
  "มีประสบการณ์": 55,
  "แว่น": 55,
  "55": 55,
  "ต่างหาก": 54,
  "เก่ง": 54,
  "นม": 54,
  "แปะ": 54,
  "โดเมน": 54,
  "ในที่สุด": 54,
  "ญี่": 54,
  "บอร์ด": 54,
  "วาด": 54,
  "LED": 54,
  "ทักษะ": 54,
  "ผิดพลาด": 54,
  "การเฝ้า": 54,
  "กู้": 54,
  "0@@": 54,
  "ฟต์": 54,
  "ขับรถ": 54,
  "โรงเรียน": 54,
  "เมล็ด": 54,
  "กลาย": 54,
  "เผย": 54,
  "มณฑล": 54,
  "g@@": 54,
  "เทียมทาน": 54,
  "ได้รับอนุญาต": 54,
  "ABS": 54,
  "แนวตั้ง": 54,
  "ทรราช": 54,
  "SHOPLINE": 54,
  "อักเสบ": 54,
  "เป็นห่วง": 54,
  "ทับ": 54,
  "สืบทอด": 54,
  "ชื่อว่า": 53,
  "ศพ": 53,
  "นวัตกรรม": 53,
  "พิพากษา": 53,
  "เคล็ดลับ": 53,
  "285": 53,
  "แสดงว่า": 53,
  "กระบวน": 53,
  "สง่า": 53,
  "สถานี": 53,
  "เดี๋ยว": 53,
  "ทั้งหลาย": 53,
  "ผิวหน้า": 53,
  "พักผ่อน": 53,
  "ชีพ": 53,
  "น้ำค้าง": 53,
  "จันทร์": 53,
  "n@@": 53,
  "ศาสตร์": 53,
  "เรื่องราว": 53,
  "สา": 53,
  "ตรึง": 53,
  "มม.": 53,
  "เสา": 53,
  "อดีต": 53,
  "ป้อง": 53,
  "IV": 53,
  "ฉีด": 53,
  "์ก": 53,
  "เด็ดขาด": 53,
  "170": 53,
  "อักษร": 53,
  "เวทย์มนตร์": 53,
  "ตามเงื่อนไข": 53,
  "สหรัฐอเมริกา": 53,
  "มาส": 53,
  "พ.ศ.": 53,
  "95": 53,
  "ส์": 53,
  "ภาพถ่าย": 52,
  "MM": 52,
  "หย่อน": 52,
  "ฝรั่งเศส": 52,
  "เว้น": 52,
  "ปุ่น": 52,
  "วีรบุรุษ": 52,
  "ศีรษะ": 52,
  "ละลาย": 52,
  "ตอบสนอง": 52,
  "มากยิ่งขึ้น": 52,
  "ที่จริง": 52,
  "e@@": 52,
  "—": 52,
  "เกล็ด": 52,
  "ความสัมพันธ์": 52,
  "งู": 52,
  "ถ่ายทอดสด": 52,
  "เข่า": 52,
  "ไอแพด": 52,
  "อเนกประสงค์": 52,
  "โมดูล": 52,
  "ลงโทษ": 52,
  "ใบไม้": 52,
  "มีสิทธิ์": 52,
  "ความตาย": 52,
  "ฟ@@": 52,
  "เวอร์": 52,
  "การศึกษา": 52,
  "หนาว": 52,
  "ตั้งครรภ์": 52,
  "ประการ": 52,
  "รึเปล่า": 52,
  "กิจการ": 52,
  "แต่งตัว": 51,
  "การคัดเลือก": 51,
  "วงจร": 51,
  "ทุกท่าน": 51,
  "2800": 51,
  "ปรับเปลี่ยน": 51,
  "ปืน": 51,
  "ผิวขาว": 51,
  "ที่นั่ง": 51,
  "245": 51,
  "ฝนตก": 51,
  "แย่ง": 51,
  "ขณะที่": 51,
  "โฆษณา": 51,
  "เถิง": 51,
  "900": 51,
  "สุสาน": 51,
  "รวมทั้ง": 51,
  "อนาคต": 51,
  "EVA": 51,
  "ประวัติศาสตร์": 51,
  "R@@": 51,
  "ตัวเล็ก": 51,
  "เฝ้า": 51,
  "ขออภัย": 51,
  "ผ่านการทดสอบ": 51,
  "การเจริญเติบโต": 51,
  "ทรงผม": 51,
  "อลเวง": 51,
  "3200": 51,
  "ที่หนึ่ง": 51,
  "เสริมสร้าง": 51,
  "วายุ": 51,
  "คำ@@": 51,
  "ผลประโยชน์": 51,
  "ทีละ": 51,
  "ผีเสื้อ": 51,
  "ซม": 50,
  "ไน": 50,
  "ธร": 50,
  "สถาน": 50,
  "ร้อนที่": 50,
  "140": 50,
  "การันตี": 50,
  "buff": 50,
  "เรือ": 50,
  "ฟุต": 50,
  "ส่อง": 50,
  "สาธารณะ": 50,
  "เซ้นส์": 50,
  "ํา": 50,
  "ทำ@@": 50,
  "รับรู้": 50,
  "ตัวแทน": 50,
  "สักครู่": 50,
  "ความสำเร็จ": 50,
  "ที่แล้ว": 50,
  "เผยแพร่": 50,
  "พวกคุณ": 50,
  "320": 50,
  "ตีความ": 50,
  "ประมุข": 50,
  "น่า@@": 50,
  "ศตวรรษ": 50,
  "กริด": 50,
  "นางแบบ": 50,
  "คริสต์มาส": 50,
  "จังหวะ": 50,
  "โปร่ง": 50,
  "ฟอก": 50,
  "300000": 50,
  "ชำระล้าง": 50,
  "ซุปเปอร์": 50,
  "กุหลาบ": 50,
  "ภาวะ": 50,
  "ตอบคำถาม": 50,
  "t@@": 50,
  "นิตยสาร": 50,
  "แก่นแท้": 50,
  "หมี": 50,
  "พี": 50,
  "ตัวเลือก": 50,
  "ตะลุย": 49,
  "เจ็บปวด": 49,
  "ชิด": 49,
  "ต้องห้าม": 49,
  "คอลลาเจน": 49,
  "สวัสดี": 49,
  "ลายเส้น": 49,
  "59": 49,
  "คร@@": 49,
  "เผ่าพันธุ์": 49,
  "หยาง": 49,
  "สมเหตุสมผล": 49,
  "ไล่": 49,
  "หรอ": 49,
  "PU": 49,
  "แท่ง": 49,
  "จิน": 49,
  "สนุกสนาน": 49,
  "ยา@@": 49,
  "ลาน": 49,
  "บอกลา": 49,
  "กลิ่นหอม": 49,
  "สอน": 49,
  "ปลอม": 49,
  "ลักษณะพิเศษ": 49,
  "y@@": 49,
  "เสียทรง": 49,
  "ควัน": 49,
  "จำหน่าย": 49,
  "ต้นฉบับ": 49,
  "ดึงดูด": 49,
  "เจ": 49,
  "นิรันดร์": 49,
  "เสียรูป": 49,
  "คล้ำ": 49,
  "เบบี้": 49,
  "ค่ำ": 49,
  "โต้กลับ": 49,
  "ตัดสินใจ": 48,
  "กลั่น": 48,
  "25@@": 48,
  "อินฟราเรด": 48,
  "ด้วยตัวเอง": 48,
  "แมน": 48,
  "ทั้งนั้น": 48,
  "หลุม": 48,
  "ธีม": 48,
  "ปิดบัง": 48,
  "งา": 48,
  "ปลดปล่อย": 48,
  "W@@": 48,
  "ผู้ดูแล": 48,
  "——": 48,
  "สับสน": 48,
  "อักขระ": 48,
  "ทำสมาธิ": 48,
  "ขัดข้อง": 48,
  "ดรีม": 48,
  "วิศวกรรม": 48,
  "มากเกินไป": 48,
  "นึก": 48,
  "อุบัติเหตุ": 48,
  "ลูกหนี้": 48,
  "สอบถาม": 48,
  "สต": 48,
  "ครึ่งตัว": 48,
  "ทับซ้อน": 48,
  "คำนวณ": 48,
  "ลูกโป่ง": 48,
  "การเผาผลาญ": 48,
  "รอยต่อ": 48,
  "ท้องฟ้า": 48,
  "เจ้าหน้าที่": 48,
  "ศิษย์": 48,
  "ส้นเท้า": 48,
  "อิตาลี": 48,
  "เศษ": 48,
  "เต้นรำ": 47,
  "แบบอย่าง": 47,
  "ต้นทุน": 47,
  "อนุมัติ": 47,
  "สถาบัน": 47,
  "สว่างไสว": 47,
  "ทัศนคติ": 47,
  "พัด": 47,
  "ร่วงหล่น": 47,
  "ข้อบกพร่อง": 47,
  "30000": 47,
  "ครู": 47,
  "งานการ": 47,
  "แม่น้ำ": 47,
  "ออกซิเจน": 47,
  "ผง": 47,
  "คอมมิชชั่น": 47,
  "เพาเวอร์": 47,
  "สังคม": 47,
  "เข้าชม": 47,
  "หอการค้า": 47,
  "เธียม": 47,
  "คุ้มค่า": 47,
  "สูงศักดิ์": 47,
  "280": 47,
  "ภูมิ": 47,
  "รองพื้น": 47,
  "เหมือนเดิม": 47,
  "ที่ว่าง": 47,
  "์ป": 47,
  "รอยขีดข่วน": 47,
  "ผู้เชี่ยวชาญ": 47,
  "เส้นสาย": 47,
  "ลาก": 47,
  "สเตอริโอ": 47,
  "ได้ผล": 47,
  "เล่า": 47,
  "ดื่ม": 47,
  "บอล": 47,
  "b@@": 47,
  "อึดอัด": 46,
  "h@@": 46,
  "ไม่ค่อย": 46,
  "อืม": 46,
  "แชมป์": 46,
  "มีบทบาท": 46,
  "มหัศจรรย์": 46,
  "ee": 46,
  "เอาไว้": 46,
  "ฝ่ายตรงข้าม": 46,
  "ก่อนที่": 46,
  "แรงเสียดทาน": 46,
  "ดีงาม": 46,
  "วาสนา": 46,
  "ดัชนี": 46,
  "..": 46,
  "สีน้ำตาล": 46,
  "รีด": 46,
  "การโต้ตอบ": 46,
  "คู่ต่อสู้": 46,
  "มกราคม": 46,
  "การคืน": 46,
  "263": 46,
  "Y": 46,
  "ปัจจุบันนี้": 46,
  "ลื่นไถล": 46,
  "การสำรวจ": 46,
  "เปียก": 46,
  "205": 46,
  "เปอร์": 46,
  "ภาระ": 46,
  "ยานพาหนะ": 46,
  "ประกบ": 46,
  "เกียรติยศ": 46,
  "บรรจุ": 46,
  "วี": 46,
  "การผสาน": 46,
  "บับเบิ้ล·": 46,
  "）、": 46,
  "ให้เช่า": 46,
  "20000": 46,
  "GB": 46,
  "ฮี": 46,
  "คู่มือ": 46,
  "ฝรั่ง": 46,
  "ประกัน": 46,
  "20@@": 46,
  "โรงไฟฟ้า": 46,
  "ลูก@@": 45,
  "U": 45,
  "่น": 45,
  "ไว้วางใจ": 45,
  "6000": 45,
  "ความต้านทาน": 45,
  "ฝึกฝน": 45,
  "ย่อม": 45,
  "ผู้เข้าชม": 45,
  "125": 45,
  "บูชา": 45,
  "ไม่เป็นไร": 45,
  "บริหาร": 45,
  "วัฒนธรรม": 45,
  "เรืองแสง": 45,
  "เพรียว": 45,
  "r@@": 45,
  "ทาน": 45,
  "กระโดด": 45,
  "5250": 45,
  "โซ่": 45,
  "บางอย่าง": 45,
  "เปล่า": 45,
  "รังผึ้ง": 45,
  "เท่ากัน": 45,
  "ติดกับ": 45,
  "ยาม": 45,
  "ตะโกน": 45,
  "คุณธรรม": 45,
  "โจม": 45,
  "เซ็น": 45,
  "รอยแยก": 45,
  "ให้ความสำคัญ": 45,
  "ส้นรองเท้า": 45,
  "ข่าว": 45,
  "บุกรุก": 45,
  "เหล่านั้น": 45,
  "เคร่งครัด": 45,
  "255": 45,
  "บาน": 45,
  "เลี้ยง": 45,
  "รอบคอบ": 45,
  "กรัม": 45,
  "เป็นประโยชน์": 45,
  "นิดหน่อย": 45,
  "ปรากฏตัว": 45,
  "ฉุกเฉิน": 45,
  "N": 45,
  "ดีเด่น": 45,
  "หยิบ": 45,
  "ผ่าเผย": 45,
  "ฟิตเนส": 45,
  "ศาล": 45,
  "สั่งทำ": 44,
  "สาเหตุ": 44,
  "การสอน": 44,
  "มาตรา": 44,
  "กันที่": 44,
  "ช่องว่าง": 44,
  "สูท": 44,
  "เย็บปักถักร้อย": 44,
  "พยัคฆ์": 44,
  "2500": 44,
  "พิศดาร": 44,
  "มีผลกระทบ": 44,
  "แพง": 44,
  "พิสูจน์": 44,
  "กองกำลัง": 44,
  "่@@": 44,
  "(@@": 44,
  "สลาย": 44,
  "คำตอบ": 44,
  "อิน": 44,
  "มีเรื่อง": 44,
  "หลับ": 44,
  "ลำตัว": 44,
  "468": 44,
  "กระบวนการผลิต": 44,
  "นที": 44,
  "โท": 44,
  "เย็บแบบ": 44,
  "คอกลม": 44,
  "มุมมอง": 44,
  "68": 44,
  "ของแถม": 44,
  "รุ้ง": 44,
  "ชุมชน": 44,
  "รสชาติ": 44,
  ">%": 44,
  "กำแพง": 44,
  "ประ@@": 44,
  "ไลน์": 44,
  "ทำเครื่องหมาย": 44,
  "เก็บรักษา": 44,
  "925": 44,
  "ปราบ": 44,
  "ตากแดด": 44,
  "เอเชีย": 44,
  "ปฏิบัติ": 44,
  "ขุย": 44,
  "อาตมา": 44,
  "คณะกรรมการ": 44,
  "สั่ง": 44,
  "เขย่า": 44,
  "ตามใจชอบ": 44,
  "นักฆ่า": 44,
  "ภพ": 44,
  "ล้างหน้า": 43,
  "สารภาพ": 43,
  "o@@": 43,
  "ทางบก": 43,
  "ทาง@@": 43,
  "ปรากฏการณ์": 43,
  "ปลูก": 43,
  "ความแรง": 43,
  "มุ่งมั่น": 43,
  "nFlee": 43,
  "ฉลาด": 43,
  "ก่อนหน้านี้": 43,
  "ซ่อนตัว": 43,
  "ดอลลาร์สหรัฐ": 43,
  "น่าจะ": 43,
  "ซ": 43,
  "มาสเตอร์": 43,
  "บรา": 43,
  "แรงบันดาลใจ": 43,
  "ขัดเงา": 43,
  "โมเลกุล": 43,
  "ประชากร": 43,
  "แมว": 43,
  "": 43,
  "ชื่นชอบ": 43,
  "ดัดแปลง": 43,
  "ชีวภาพ": 43,
  "เนี่ย": 43,
  "ตราประทับ": 43,
  "ผ่า": 43,
  "ดูเหมือนว่า": 43,
  "ตลอดไป": 43,
  "พ่อแม่": 43,
  "หง": 43,
  "ยางยืด": 43,
  "เปลี่ยนรูป": 43,
  "เยี่ยม": 43,
  "มีประสิทธิผล": 43,
  "อยากได้": 43,
  "โปโล": 43,
  "เอ็น": 43,
  "กวาด": 43,
  "โฟม": 43,
  "ศักยภาพ": 43,
  "โดยเร็ว": 43,
  "ไดนามิก": 43,
  "F": 43,
  "ฟังเพลง": 43,
  "มัด": 43,
  "กล": 43,
  "นักวิจัย": 43,
  "ความหมาย": 42,
  "บิด": 42,
  "เปลวไฟ": 42,
  "สารเคมี": 42,
  "ลำบาก": 42,
  "ระยะทาง": 42,
  "แห่งชาติ": 42,
  "รัน": 42,
  "J@@": 42,
  "แดด": 42,
  "กล่าว": 42,
  "หด": 42,
  "้น": 42,
  "ให้ความสนใจ": 42,
  "ผู้ใหญ่": 42,
  "เยาวชน": 42,
  "เที่ยว": 42,
  "ประเมิน": 42,
  "สมอง": 42,
  "เน็ต": 42,
  "คงทน": 42,
  "ของใช้": 42,
  "แป": 42,
  "มื่อ": 42,
  "ลูกแก้ว": 42,
  "ทั้งสิ้น": 42,
  "การเรียนรู้": 42,
  "ศิลา": 42,
  "สลัก": 42,
  "จารึก": 42,
  "ความอบอุ่น": 42,
  "ขุมทรัพย์": 42,
  "ตู้": 42,
  "อย่างไรก็ตาม": 42,
  "ความนุ่มนวล": 42,
  "แบ": 42,
  "กลบ": 42,
  "1.@@": 42,
  "270": 42,
  "โมเดล": 42,
  "หดตัว": 42,
  "2019": 42,
  "คลอด": 42,
  "63": 42,
  "ครบถ้วน": 42,
  "ผ้าคลุม": 42,
  "แมลง": 42,
  "ระมัดระวัง": 42,
  "ตรวจจับ": 42,
  "ทัวร์": 42,
  "วิจัย": 42,
  "เงียบ": 42,
  "แบกรับ": 42,
  "ลงทุน": 42,
  "4.@@": 42,
  "ชาญฉลาด": 42,
  "แตะ": 42,
  "เท่าไหร่": 42,
  "พูดถึง": 41,
  "1818": 41,
  "ธง": 41,
  "WeChat": 41,
  "ชัยชนะ": 41,
  "เผาผลาญ": 41,
  "มือใหม่": 41,
  "o": 41,
  "ฝ้า": 41,
  "ไข่": 41,
  "ฉ@@": 41,
  "ผูกมัด": 41,
  "เซอร์ไพรส์": 41,
  "ชิ่ง": 41,
  "PK": 41,
  "ไค": 41,
  "ธันวาคม": 41,
  "ม.": 41,
  "ตกใจ": 41,
  "รก": 41,
  "49": 41,
  "มิฉะนั้น": 41,
  "ตกค้าง": 41,
  "ปีน": 41,
  "ครั้งหนึ่ง": 41,
  "คัพ": 41,
  "มงกุฎ": 41,
  "ผจญภัย": 41,
  "224": 41,
  "คงจะ": 41,
  "บิล": 41,
  "ได้ประโยชน์": 41,
  "บาร์": 41,
  "นว": 41,
  "แข่งขัน": 41,
  "พลิก": 41,
  "แฮนด์เมด": 41,
  "แล้วกัน": 41,
  "ยูรีเทน": 41,
  "ระยะห่าง": 41,
  "หมุด": 41,
  "ร้ายแรง": 41,
  "สอบ": 41,
  "สว": 41,
  "เรื่อย": 41,
  "วันหยุด": 41,
  "ครอบ": 41,
  "สกรู": 40,
  "เช็ด": 40,
  "คำขอ": 40,
  "ตั้งอยู่": 40,
  "รอบรู้": 40,
  "ชมรม": 40,
  "ผู้จัดจำหน่าย": 40,
  "ละเมิด": 40,
  "เชื้อรา": 40,
  "เคลื่อน": 40,
  "4@@": 40,
  "375": 40,
  "เปิดตัว": 40,
  "วัตถุ": 40,
  "รับสาย": 40,
  "กั้น": 40,
  "สมุทร": 40,
  "สาขา": 40,
  "in@@": 40,
  "ยึดครอง": 40,
  "ในกรณีที่": 40,
  "จนกว่า": 40,
  "ลายลักษณ์อักษร": 40,
  "กู": 40,
  "ผู้ว่าจ้าง": 40,
  "ฝึกอบรม": 40,
  "สีผิว": 40,
  "สเปค": 40,
  "ใบรับรอง": 40,
  "id": 40,
  "en@@": 40,
  "โทษ": 40,
  "ที่มา": 40,
  "ระยะยาว": 40,
  "น่ากลัว": 40,
  "ผู้ปกครอง": 40,
  "ความรู้": 40,
  "มีชื่อ": 40,
  "เลียนแบบ": 40,
  "คลู": 40,
  "เฟิง": 40,
  "แพ็คเกจ": 40,
  "520": 40,
  "เสือ": 40,
  "ข้างๆ": 40,
  "แบ่งปัน": 40,
  "1@@": 40,
  "ภาษี": 40,
  "ลมหายใจ": 40,
  "3409": 39,
  "ทีวี": 39,
  "ข้างล่าง": 39,
  "โต้ตอบ": 39,
  "เป็นประจำ": 39,
  "ข้อเท้า": 39,
  "1591": 39,
  "แผลเป็น": 39,
  "ชายหาด": 39,
  "HIT": 39,
  "》": 39,
  "สภาพอากาศ": 39,
  "โกรธ": 39,
  "f@@": 39,
  "สแตนด์": 39,
  "อำลา": 39,
  "63640": 39,
  "อด": 39,
  "4.5": 39,
  "พอใจ": 39,
  "ยาวิเศษ": 39,
  "ใช้ชีวิต": 39,
  "น้ำ@@": 39,
  "m@@": 39,
  "ช็อปปิ้ง": 39,
  "นานๆ": 39,
  "บำบัด": 39,
  "หลบ": 39,
  "คุก": 39,
  "ผลลัพธ์": 39,
  "วร": 39,
  "or@@": 39,
  "APP": 39,
  "เสี่ยว": 39,
  "ไมโครโฟน": 39,
  "เตา": 39,
  "พร้อมทั้ง": 39,
  "4000": 39,
  "เคียว": 39,
  "480": 39,
  "ที่ตั้ง": 39,
  "อวบ": 39,
  "38": 39,
  "จิตวิญญาณ": 39,
  "พล@@": 39,
  "เขตหวงห้าม": 39,
  "เสื้อคลุม": 39,
  "บางคน": 39,
  "580": 39,
  "ปราศจาก": 39,
  "ย้อม": 39,
  "ลึกซึ้ง": 39,
  "สำรอง": 39,
  "หมา": 39,
  "ฝาก": 39,
  "สเปรย์": 39,
  "การอนุญาต": 39,
  "คำสาป": 38,
  "39": 38,
  "หม่อน": 38,
  ">@@": 38,
  "ยกระดับ": 38,
  "ข.": 38,
  "ปกปิด": 38,
  "ฝังเข็ม": 38,
  "หน้ากาก": 38,
  "คำพูด": 38,
  "เพิ่มประสิทธิภาพ": 38,
  "เปลี่ยนไป": 38,
  "ตัน": 38,
  "หนังสือรับรอง": 38,
  "ทางการแพทย์": 38,
  "แยกส่วน": 38,
  "ชั้นเยี่ยม": 38,
  "คงคลัง": 38,
  "สนทนา": 38,
  "เพอร์เฟค": 38,
  "จักรพรรดิ": 38,
  "พ้น": 38,
  "64": 38,
  "ว่ายน้ำ": 38,
  "เขาวงกต": 38,
  "วิสัยทัศน์": 38,
  "รายสัปดาห์": 38,
  "การสั่น": 38,
  "ขั้นต่ำ": 38,
  "พระจันทร์": 38,
  "กระทะ": 38,
  "ก่อ": 38,
  "เล@@": 38,
  "โซฟา": 38,
  "เคารพ": 38,
  "หุบเขา": 38,
  "สากล": 38,
  "ยิ่งใหญ่": 38,
  "สีเทา": 38,
  "นำไปใช้": 38,
  "หยด": 38,
  "มา@@": 38,
  "กวาง": 38,
  "อย่างยิ่ง": 38,
  "กาแฟ": 38,
  "เช่นนี้": 38,
  "ไอ้": 38,
  "ฉีกขาด": 38,
  "ิ@@": 38,
  "เซ@@": 38,
  "4500": 38,
  "ฟีดแบค": 38,
  "นภา": 38,
  "k@@": 38,
  "6@@": 38,
  "ร่วมใน": 38,
  "ทางกฎหมาย": 38,
  "ข่วน": 38,
  "การนำ": 38,
  "หลังจากนั้น": 38,
  "ไททัน": 38,
  "เป็นไปได้": 38,
  "15@@": 38,
  "ตํา": 38,
  "กรด": 38,
  "เหนื่อยล้า": 38,
  "ลวงตา": 38,
  "ที่จับ": 38,
  "ทางออก": 38,
  "สุภาพบุรุษ": 38,
  "๕": 37,
  "กระตือรือร้น": 37,
  "ตามหา": 37,
  "ลอก": 37,
  "อำเภอ": 37,
  "Buff": 37,
  "ซูเปอร์": 37,
  "ริ้ว": 37,
  "สึ": 37,
  "มีสีสัน": 37,
  "ไส้": 37,
  "จุด@@": 37,
  "18@@": 37,
  "ส่วนที่เหลือ": 37,
  "มีอายุ": 37,
  "ทัน": 37,
  "การทดลอง": 37,
  "เมนู": 37,
  "โมโนเรล": 37,
  "หรือยัง": 37,
  "เคมี": 37,
  "ศูนย์กลาง": 37,
  "กรน": 37,
  "แหลม": 37,
  "เจน": 37,
  "เอ@@": 37,
  "นำทาง": 37,
  "แตกแขนง": 37,
  "ได้แก่": 37,
  "การปกป้อง": 37,
  "อา@@": 37,
  "ไหปลาร้า": 37,
  "iEnglish": 37,
  "ก่อนที่จะ": 37,
  "อร่อย": 37,
  "ไปหา": 37,
  "การบีบ": 37,
  "ปลิด": 37,
  "เลอ": 37,
  "ใกล้เคียง": 37,
  "แสงสว่าง": 37,
  "แคบ": 37,
  "ลงชื่อ": 37,
  "สติ": 37,
  "ผ@@": 37,
  "132": 37,
  "เป็นอย่างมาก": 37,
  "ที่ซ่อน": 37,
  "งานเลี้ยง": 37,
  "้ง": 37,
  "โดยทั่วไป": 37,
  "อวยพร": 37,
  "โภชนาการ": 37,
  "ยินดีต้อนรับ": 37,
  "เว็บ": 37,
  "นอกเมือง": 37,
  "กว้างใหญ่": 37,
  "กระต่าย": 37,
  "อย่างหนึ่ง": 37,
  "รอบตัว": 37,
  "เมล": 37,
  "ชาติ": 37,
  "ช่างตีเหล็ก": 37,
  "ฮ่า": 37,
  "of": 37,
  "พราง": 36,
  "410": 36,
  "ร็อค": 36,
  "คงเหลือ": 36,
  "รถไฟ": 36,
  "3.@@": 36,
  "เก@@": 36,
  "สื่อ": 36,
  "เข้า@@": 36,
  "ส่วนหลัง": 36,
  "อิฐ": 36,
  "7@@": 36,
  "จุดด่าง": 36,
  "แม่ทัพ": 36,
  "ส่งคืน": 36,
  "สภาวะ": 36,
  "l@@": 36,
  "กิ": 36,
  "อุกกาบาต": 36,
  "้@@": 36,
  "ค้างคาว": 36,
  "จักร": 36,
  "ภัย": 36,
  "กลุ่มคน": 36,
  "14@@": 36,
  "แหล่งกำเนิด": 36,
  "ส่วนหนึ่ง": 36,
  "400000": 36,
  "เบาะแส": 36,
  "จัดทำ": 36,
  "กอง": 36,
  "u": 36,
  "ตะวันออก": 36,
  "ตามสบาย": 36,
  "Z@@": 36,
  "50000": 36,
  "7.@@": 36,
  "ลงนาม": 36,
  "สุข": 36,
  "เนอ": 36,
  "ฮ@@": 36,
  "พู่": 36,
  "URL": 36,
  "ยอดนิยม": 36,
  "คุณพ่อ": 36,
  "540": 36,
  "ที่@@": 36,
  "ท้าย": 36,
  "li@@": 36,
  "เชิง": 36,
  "er@@": 36,
  "13@@": 36,
  "LOGO": 36,
  "ไผ่": 36,
  "การฟื้นฟู": 36,
  "คลาย": 36,
  "เฉียบ": 36,
  "ยึดมั่น": 36,
  "สาน": 36,
  "ผู้รับจ้าง": 36,
  "ป้อม": 36,
  "165": 36,
  "in": 36,
  "บวม": 36,
  "๔": 36,
  "ตัว@@": 36,
  "ผ้าลูกไม้": 36,
  "อย่างนั้น": 36,
  "อัคนี": 36,
  "ออฟฟิศ": 35,
  "เกลียว": 35,
  "สังเกตการณ์": 35,
  "โค้ด": 35,
  "มอบหมาย": 35,
  "อุดตัน": 35,
  "นิ่ง": 35,
  "ทำเป็น": 35,
  "พื้นเมือง": 35,
  "ค่าที่": 35,
  "ซู": 35,
  "ที่รวม": 35,
  "70000": 35,
  "12.5": 35,
  "การคำนวณ": 35,
  "อัต": 35,
  "ล้ำเลิศ": 35,
  "ครอง": 35,
  "w@@": 35,
  "ทีเดียว": 35,
  "เปลี่ยนสี": 35,
  "ปุย": 35,
  "แท่นบูชา": 35,
  "เรียลไทม์": 35,
  "พิ@@": 35,
  "O": 35,
  "อัพเล": 35,
  "ทอผ้า": 35,
  "โฟ": 35,
  "กัมมันต์": 35,
  "การเรียน": 35,
  "มัก": 35,
  "ความมั่นคง": 35,
  "เท@@": 35,
  "จี": 35,
  "พิธี": 35,
  "ขอรับ": 35,
  "โทสะ": 35,
  "สื่อสาร": 35,
  "เป็นช่วง": 35,
  "เป็นความ": 35,
  "จดทะเบียน": 35,
  "ความแม่นยำ": 35,
  "รูปถ่าย": 35,
  "เม@@": 35,
  "เกิดผล": 35,
  "เสียใจ": 35,
  "337": 35,
  "ทันเวลา": 35,
  "ID": 35,
  "ความคลาดเคลื่อน": 35,
  "ญ@@": 35,
  "เคลื่อนย้าย": 35,
  "17@@": 35,
  "ถ่ายรูป": 35,
  "37": 35,
  "ตั้งชื่อ": 35,
  "โบว์": 35,
  "สตาร์": 35,
  "W": 35,
  "ผูกพัน": 35,
  "1.2": 35,
  "แค": 35,
  "สุ@@": 34,
  "หัวเข่า": 34,
  "สถาปัตยกรรม": 34,
  "เครือข่าย": 34,
  "วัตถุประสงค์": 34,
  "##": 34,
  "ความสนใจ": 34,
  "IPAD": 34,
  "ผู้อื่น": 34,
  "มีชื่อเสียง": 34,
  "เต๋า": 34,
  "การส่งออก": 34,
  "มั้ย": 34,
  "หน้าไม้": 34,
  "ไอดอล": 34,
  "หนุ่ม": 34,
  "บี้": 34,
  "ฝั่ง": 34,
  "NPC": 34,
  "วิตามิน": 34,
  "เบื้องต้น": 34,
  "260": 34,
  "5.5": 34,
  "ร้านเหล้า": 34,
  "1600": 34,
  "ขอพร": 34,
  "IP": 34,
  "คงอยู่": 34,
  "ความดันโลหิต": 34,
  "มีระดับ": 34,
  "ครึ่งหนึ่ง": 34,
  "ปลอก": 34,
  "หน้า@@": 34,
  "ชั่ว": 34,
  "ชื่อเสียง": 34,
  "เครื่องซักผ้า": 34,
  "ราว": 34,
  "ยับ": 34,
  "สักหน่อย": 34,
  "ปราบปราม": 34,
  "492": 34,
  "แท็บ": 34,
  "จม": 34,
  "ตั้ง@@": 34,
  "เงินสะสม": 34,
  "รายเดือน": 34,
  "เลข": 34,
  "เสฉวน": 34,
  "กล้าม": 34,
  "ห้องน้ำ": 34,
  "เวต": 34,
  "ฟีนิกซ์": 34,
  "ก้น": 34,
  "องค์กร": 34,
  "บัลเลต์": 34,
  "พรุ่งนี้": 34,
  "กับดัก": 34,
  "เบ@@": 34,
  "ภาษาจีน": 34,
  "พื้นดิน": 34,
  "แซ": 34,
  "มุ้ง": 34,
  "ิน": 34,
  "เสื่อ": 34,
  "พูดว่า": 34,
  "่ง": 34,
  "คู่แข่ง": 33,
  "กิลด์@@": 33,
  "มาตรการ": 33,
  "ยุติธรรม": 33,
  "เลเซอร์": 33,
  "ภาย": 33,
  "เลีย": 33,
  "การซึม": 33,
  "น·": 33,
  "ด้าม": 33,
  "เดินเส้น": 33,
  "กลางวัน": 33,
  "1080": 33,
  "ยอดเงิน": 33,
  "คาถา": 33,
  "ขายดี": 33,
  "นวล": 33,
  "mon": 33,
  "เลิก": 33,
  "บี": 33,
  "ฎ": 33,
  "จอ": 33,
  "โฟกัส": 33,
  "ตุลาคม": 33,
  "ก้าน": 33,
  "·@@": 33,
  "ประหลาด": 33,
  "h": 33,
  "รายชื่อ": 33,
  "แพคเกจ": 33,
  "เอน": 33,
  "โต๊ะ": 33,
  "เจดีย์": 33,
  "ต่อกัน": 33,
  "ในอนาคต": 33,
  "ฟื้นคืนชีพ": 33,
  "พก": 33,
  "ฝันร้าย": 33,
  "3600": 33,
  "ซ่อม": 33,
  "604": 33,
  "พอที่จะ": 33,
  "ขยับ": 33,
  "96": 33,
  "ตามเวลา": 33,
  "ส่วนล่าง": 33,
  "ปา": 33,
  "สวิตช์": 33,
  "0.75": 33,
  "อดทน": 33,
  "ฝาครอบ": 33,
  "ตัวตน": 33,
  "บ้า": 33,
  "อาคาร": 33,
  "ไข่มุก": 33,
  "ใบสั่ง": 33,
  "เป็นตัว": 33,
  "an": 33,
  "โกน": 33,
  "ดีใจ": 33,
  "แท้ๆ": 33,
  "พยุง": 33,
  "รึ": 33,
  "เกณฑ์": 33,
  "เช้า": 33,
  "ราชัน": 33,
  "90000": 33,
  "ความเจ็บปวด": 33,
  "แต่ละครั้ง": 33,
  "72": 33,
  "ที่สี่": 33,
  "พลังงานไฟฟ้า": 33,
  "ผล@@": 33,
  "รา@@": 33,
  "ิ": 32,
  "ต้นกำเนิด": 32,
  "แท่น": 32,
  "ร้องไห้": 32,
  "%)": 32,
  "แผล": 32,
  "01": 32,
  "คาที่": 32,
  "ดับกลิ่น": 32,
  "คำเตือน": 32,
  "มนุษยชาติ": 32,
  "แร่ธาตุ": 32,
  "☆": 32,
  "ความสว่าง": 32,
  "SSR": 32,
  "%）": 32,
  "336": 32,
  "ติดต่อกัน": 32,
  "เซต": 32,
  "สมหวัง": 32,
  "เหลืออยู่": 32,
  "เด้ง": 32,
  "แอพ": 32,
  "นิ@@": 32,
  "กำเนิด": 32,
  "เพ@@": 32,
  "ประสบความสำเร็จ": 32,
  "ค้าปลีก": 32,
  "ปัญญา": 32,
  "หย@@": 32,
  "เตี้ย": 32,
  "ค่าไฟฟ้า": 32,
  "มีผลบังคับใช้": 32,
  "ประโยชน์": 32,
  "ผลดี": 32,
  "สิ่งทอ": 32,
  "317": 32,
  "ค่าธรรมเนียม": 32,
  "ผ้าขนหนู": 32,
  "ล่อ": 32,
  "ปณิธาน": 32,
  "หนาม": 32,
  "มาร์ค": 32,
  "องอาจ": 32,
  "ไต": 32,
  "ตา@@": 32,
  "โอเค": 32,
  "ปะทะ": 32,
  "ไวท์เทนนิ่ง": 32,
  "02": 32,
  "ปกคลุม": 32,
  "แห้งแล้ง": 32,
  "ธุรกรรม": 32,
  "มีผลต่อ": 32,
  "ถ่ายทอด": 32,
  "สวิทช์": 32,
  "กัง": 32,
  "อิ": 32,
  "er": 32,
  "ตาม@@": 32,
  "ประกาย": 32,
  "ยืนหยัด": 32,
  "ล้อมรอบ": 32,
  "ต่อมา": 32,
  "ลิง": 32,
  "ทรัพย์สิน": 32,
  "เจ้าหนี้": 32,
  "ความรับผิดชอบ": 32,
  "เหตุสุดวิสัย": 32,
  "ดั่ง": 32,
  "วิจัยและพัฒนา": 32,
  "ปราก": 31,
  "เทค": 31,
  "10@@": 31,
  "เตารีด": 31,
  "ไท": 31,
  "เด@@": 31,
  "หม@@": 31,
  "ต่ออายุ": 31,
  "อุดม": 31,
  "ไหว": 31,
  "ี": 31,
  "กระจัดกระจาย": 31,
  "แขก": 31,
  "เซ็นเซอร์": 31,
  "แพทย์": 31,
  "ur@@": 31,
  "มองไม่เห็น": 31,
  "ml": 31,
  "ดิจิตอล": 31,
  "เจ@@": 31,
  "ก๊าซ": 31,
  "ตามมา": 31,
  "SR": 31,
  "ฮู้": 31,
  "รจิต": 31,
  "สามเหลี่ยม": 31,
  "ผู้เช่า": 31,
  "คัด": 31,
  "X@@": 31,
  "ทรงกลม": 31,
  "เคน": 31,
  "นอ": 31,
  "หลงรัก": 31,
  "แท็บเล็ต": 31,
  "ฟองน้ำ": 31,
  "โลหะผสม": 31,
  "วิวัฒนาการ": 31,
  "00@@": 31,
  "ปรอท": 31,
  "ข้าว": 31,
  "เนียม": 31,
  "ขาตั้ง": 31,
  "อ่อนเยาว์": 31,
  "สมใน": 31,
  "ลงมา": 31,
  "ตามลำดับ": 31,
  "re@@": 31,
  "ing": 31,
  "นท": 31,
  "ฉุ": 31,
  "ร์@@": 31,
  "แอด": 31,
  "เมื่อวาน": 31,
  "ความผิด": 31,
  "สัน": 31,
  "แต่งตั้ง": 31,
  "จุดเริ่มต้น": 31,
  "ผู้สูงอายุ": 31,
  "ชัน": 31,
  "ช็อก": 31,
  "124": 31,
  "ไอเสีย": 31,
  "มายัง": 31,
  "เมื่อก่อน": 31,
  "54": 31,
  "แผนการ": 31,
  "ซับเหงื่อ": 31,
  "รั@@": 31,
  "รูม่านตา": 31,
  "หัว@@": 31,
  "เตะ": 31,
  "คล้อย": 31,
  "ที่ว่า": 31,
  "นี": 31,
  "ออโต้": 30,
  "ผิดกฎหมาย": 30,
  "ลู": 30,
  "ฮ่องกง": 30,
  "ผัก": 30,
  "เจี้ย": 30,
  "่า": 30,
  "ทางกายภาพ": 30,
  "นิค": 30,
  "คาร์บอน": 30,
  "ล้ำลึก": 30,
  "กำกับ": 30,
  "น้ำหอม": 30,
  "230": 30,
  ".5": 30,
  "ถูกใจ": 30,
  "พิทักษ์": 30,
  "จับเวลา": 30,
  "คลิป": 30,
  "ETP": 30,
  "630": 30,
  "304": 30,
  "ติดกัน": 30,
  "คำนำหน้า": 30,
  "แปรงสีฟัน": 30,
  "หน@@": 30,
  "295": 30,
  "เรือน": 30,
  "ราค": 30,
  "ปฏิกิริยา": 30,
  "ภูมิคุ้มกัน": 30,
  "ลง@@": 30,
  "458": 30,
  "บ่อ": 30,
  "งาน@@": 30,
  "ทางวิทยาศาสตร์": 30,
  "ชื่นชม": 30,
  "สาวงาม": 30,
  "คัทชู": 30,
  "รับงาน": 30,
  "หลายชนิด": 30,
  "ก่อนหน้า": 30,
  "เข@@": 30,
  "ของเหลว": 30,
  "บ่อยๆ": 30,
  "เงินทุน": 30,
  "ลิปสติก": 30,
  "จ้าว": 30,
  "ปลอด": 30,
  "สมควร": 30,
  "บางครั้ง": 30,
  "ยุ่ง": 30,
  "an@@": 30,
  "ปาร์ตี้": 30,
  "ฮิ": 30,
  "ของเล่น": 30,
  "y": 30,
  "รักแร้": 30,
  "อันนี้": 30,
  "ความคิดสร้างสรรค์": 30,
  "ออกรบ": 30,
  "รอน": 30,
  "โพสต์": 30,
  "190": 30,
  "นุ่มนิ่ม": 30,
  "เวที": 30,
  "รู้เรื่อง": 30,
  "แผนภูมิ": 30,
  "ท่องเที่ยว": 30,
  "ต่อท้าย": 30,
  "ไล": 30,
  "รับจ้าง": 30,
  "นัก@@": 30,
  "มิเตอร์": 30,
  "สมัย": 30,
  "บุตร": 30,
  "496": 30,
  "ดูแลรักษา": 30,
  "หมาย": 29,
  "คล้าย": 29,
  "ชี้": 29,
  "น้ำตา": 29,
  "》（": 29,
  "ผู้จัดการ": 29,
  "บุคลากร": 29,
  "ถือเป็น": 29,
  "2.@@": 29,
  "ออกซิเดชัน": 29,
  "บุพเพ": 29,
  "บารมี": 29,
  "ดี@@": 29,
  "16@@": 29,
  "310": 29,
  "ความทนทาน": 29,
  "สำนักพิมพ์": 29,
  "0.@@": 29,
  "บัง": 29,
  "ครั้งสุดท้าย": 29,
  "กลับบ้าน": 29,
  "งอก": 29,
  "สุนัข": 29,
  "ลำ": 29,
  "วิ@@": 29,
  "ความเครียด": 29,
  "จ+": 29,
  "ความสะอาด": 29,
  "ต่อให้": 29,
  "เมื่อย": 29,
  "al@@": 29,
  "เหยื่อ": 29,
  "ความเมื่อยล้า": 29,
  "มล": 29,
  "188": 29,
  "380": 29,
  "เมีย": 29,
  "กระแสไฟ": 29,
  "รัง": 29,
  "ค้าขาย": 29,
  "สนิม": 29,
  "สกิล@@": 29,
  "เสียด": 29,
  "เก่าแก่": 29,
  "ขั้ว": 29,
  "แนบท้าย": 29,
  "ตำหนัก": 29,
  "มะ": 29,
  "เป็นผล": 29,
  "คอน": 29,
  "ความหรูหรา": 29,
  "อิง": 29,
  "npc": 29,
  "ใบอนุญาต": 29,
  "ข้างเดียว": 29,
  "คิ": 29,
  "ค้า": 29,
  "การประเมินผล": 29,
  "ถก": 29,
  "การกรอง": 29,
  "เด็กผู้หญิง": 29,
  "สำเร็จรูป": 29,
  "เสื้อกั๊ก": 29,
  "เค@@": 29,
  "เชื้อโรค": 29,
  "195": 29,
  "ซ้อม": 29,
  "ความผิดพลาด": 29,
  "รัฐ": 29,
  "ta@@": 29,
  "ความจำ": 29,
  "คอลัมน์": 29,
  "ต้นขา": 29,
  "การปฏิบัติ": 29,
  "เศรษฐกิจ": 29,
  "นา@@": 29,
  "ความทน": 29,
  "ทั้งนี้": 28,
  "เบน": 28,
  "สกิลส": 28,
  "แทง": 28,
  "นค": 28,
  "รอบด้าน": 28,
  "นอนไม่หลับ": 28,
  "โรงแรม": 28,
  "สงบนิ่ง": 28,
  "หุ่นดี": 28,
  "จากนี้ไป": 28,
  "mg": 28,
  "หยิน": 28,
  "b": 28,
  "ครบกำหนด": 28,
  "เนม": 28,
  "บัตรธนาคาร": 28,
  "ควรจะ": 28,
  "แค่นี้": 28,
  ":@@": 28,
  "ตะวันตก": 28,
  "รีไซเคิล": 28,
  "รุ่งโรจน์": 28,
  "ต่อหน้า": 28,
  "ศ": 28,
  "รับมือ": 28,
  "เต็มๆ": 28,
  "4.1": 28,
  "เยือน": 28,
  "คิว": 28,
  "อนุภาค": 28,
  "วางใจ": 28,
  "สิ่ง@@": 28,
  "หมอง": 28,
  "เงิน@@": 28,
  "ฟอร์มาลดีไฮด์": 28,
  "ข้อเสนอแนะ": 28,
  "คำเชิญ": 28,
  "น้ำอุ่น": 28,
  "ไอออนลบ": 28,
  "เรียกคืน": 28,
  "ข้อบังคับ": 28,
  "ขึ้นทะเบียน": 28,
  "เป็นที่นิยม": 28,
  "ol@@": 28,
  "1250": 28,
  "ม้านั่ง": 28,
  "จ่ายไฟ": 28,
  "การพิจารณา": 28,
  "11000": 28,
  "หล้า": 28,
  "จาน": 28,
  "ล่าสัตว์": 28,
  "เร@@": 28,
  "ถึงที่สุด": 28,
  "นั@@": 28,
  "จํา": 28,
  "ยุทธวิธี": 28,
  "v@@": 28,
  "112": 28,
  "สงบสุข": 28,
  "ดอกไม้ไฟ": 28,
  "7000": 28,
  "เมื่อกี้": 28,
  "ป่อง": 28,
  "แด": 28,
  "ซอฟต์แวร์": 28,
  "รอบข้าง": 28,
  "คราม": 28,
  "เรียง": 28,
  "9000": 28,
  "ลอน": 28,
  "พยากรณ์": 28,
  "779": 28,
  "ซิง": 28,
  "ชวน": 28,
  "กุ": 28,
  "บ๊ะจ่าง": 28,
  "บัน": 28,
  "ลวด": 28,
  "พากย์": 28,
  "l": 28,
  "ประสิทธิผล": 28,
  "ความมัน": 28,
  "KG": 28,
  "V@@": 27,
  "ชั้นใน": 27,
  "ขจัดคราบ": 27,
  "ร์ด": 27,
  "สกา": 27,
  "นเซีย": 27,
  "100000": 27,
  "ขาดไม่ได้": 27,
  "บอบบาง": 27,
  "เช่นเดียวกับ": 27,
  "ดอกบัว": 27,
  "เคียงข้าง": 27,
  "ภาพลักษณ์": 27,
  "รวมตัวกัน": 27,
  "ดุ": 27,
  "เห็นผล": 27,
  "x@@": 27,
  "ต้า": 27,
  "นี่เอง": 27,
  "เงินได้": 27,
  "เหลี่ยม": 27,
  "จอง": 27,
  "ท้องถิ่น": 27,
  "PC": 27,
  "คุง": 27,
  "พฤศจิกายน": 27,
  "ผลัก": 27,
  "คุณูปการ": 27,
  "4.2": 27,
  "ประวัติ": 27,
  "กันชน": 27,
  "เสบียง": 27,
  "ย่าง": 27,
  "ส่งสัญญาณ": 27,
  "OBT": 27,
  "โคลน": 27,
  "เผชิญหน้า": 27,
  "่อ": 27,
  "ทะยาน": 27,
  "ร่วมกับ": 27,
  "โครงข่าย": 27,
  "เซียมซี": 27,
  "ประจำปี": 27,
  "ลิ้นจี่": 27,
  "ครบวงจร": 27,
  "นัด": 27,
  "ว์": 27,
  "พบกัน": 27,
  "ชุดว่ายน้ำ": 27,
  "128": 27,
  "ตื่นขึ้น": 27,
  "เป็นตัวแทน": 27,
  "ก่อให้เกิด": 27,
  "\",": 27,
  "ผิวพรรณ": 27,
  "กี้": 27,
  "เบล": 27,
  "หน่วยความจำ": 27,
  "โดย@@": 27,
  "ประกาศสงคราม": 27,
  "\"@@": 27,
  "40000": 27,
  "กรอบรูป": 27,
  "คุณค่า": 27,
  "จินตนาการ": 27,
  "กางเกงขาสั้น": 27,
  "วงกว้าง": 27,
  "Instagram": 27,
  "การ์ตูน": 27,
  "ค่า@@": 27,
  "จริงใจ": 27,
  "ไต้หวัน": 27,
  "มดลูก": 27,
  "รวมตัว": 27,
  "ยกทรง": 27,
  "ไตรมาส": 27,
  "ทะเบียน": 27,
  "ด้ามจับ": 27,
  "%@@": 27,
  "ขอร้อง": 27,
  "มายากล": 27,
  "เสียงต่ำ": 27,
  "ไข": 27,
  "เจ้าหญิง": 27,
  "อินเทอร์เฟซ": 27,
  "สาด": 27,
  "ทุกสิ่ง": 27,
  "ระหว่างประเทศ": 27,
  "ต่อม": 27,
  "ผ่าตัด": 27,
  "ตลอดชีวิต": 27,
  "เข้าใกล้": 26,
  "โรงพยาบาล": 26,
  "ความเข้าใจ": 26,
  "น่าสนใจ": 26,
  "ประเพณี": 26,
  "ย่า": 26,
  "ึ@@": 26,
  "มีเหตุผล": 26,
  "อวกาศ": 26,
  "คืนเงิน": 26,
  "ติดเชื้อ": 26,
  "เครื่องปรับอากาศ": 26,
  "รองเท้าส้นสูง": 26,
  "เซรามิก": 26,
  "ซุบซิบ": 26,
  "มีอำนาจ": 26,
  "เชิ้ต": 26,
  "เกา": 26,
  "440": 26,
  "66": 26,
  "ti@@": 26,
  "2.1": 26,
  "ป่าทึบ": 26,
  "ยูนิคอร์น": 26,
  "เต@@": 26,
  "กรกฎาคม": 26,
  "ตึง": 26,
  "เรียกเก็บเงิน": 26,
  "เยาะเย้ย": 26,
  "นึกถึง": 26,
  "ผงซักฟอก": 26,
  "แผ่นดิน": 26,
  "การค้า": 26,
  "กร@@": 26,
  "ห่างไกล": 26,
  "เดือด": 26,
  "ทางเดิน": 26,
  "มั้ง": 26,
  "สมุด": 26,
  "ขยัน": 26,
  "เถื่อน": 26,
  "การชุบ": 26,
  "อิ@@": 26,
  "เหนียวแน่น": 26,
  "78": 26,
  "สามสิบ": 26,
  "ความยินยอม": 26,
  "หลักสูตร": 26,
  "เส้นเลือด": 26,
  "ข้อเสนอ": 26,
  "สำเนา": 26,
  "ขนม": 26,
  "ถั่ว": 26,
  "โจทก์": 26,
  "วีดีโอ": 26,
  "เชื่อถือได้": 26,
  "สา@@": 26,
  "เสาร์": 26,
  "ใบ้": 26,
  "290": 26,
  "330": 26,
  "เคลียร์": 26,
  "คิดถึง": 26,
  "สายรุ้ง": 26,
  "ข้อ@@": 26,
  "ยิ้ม": 26,
  "หนวด": 26,
  "กล@@": 26,
  "้ม": 26,
  "ตากแห้ง": 26,
  "มหาวิทยาลัย": 26,
  "สามชั้น": 26,
  "แม่มด": 26,
  "แปรรูป": 26,
  "เพิ่มจำนวน": 26,
  "สู": 26,
  "ล้น": 26,
  "เต็นท์": 26,
  "ซักล้าง": 26,
  "ละคร": 26,
  "มะกอก": 26,
  "วางแผน": 26,
  "แต่งกาย": 26,
  "ทวยเทพ": 26,
  "มหาศาล": 26,
  "มหา": 26,
  "ความหวัง": 26,
  "กรุ่น": 26,
  "การลดน้ำหนัก": 26,
  "มัจฉา": 26,
  "ข้อต่อ": 26,
  "เทวทูต": 26,
  "พระ@@": 26,
  "ตีห้า": 25,
  "ออกเสียง": 25,
  "สารอาหาร": 25,
  "6.5": 25,
  "ฮาเร็ม": 25,
  "เสีย@@": 25,
  "ทางเข้า": 25,
  "เถ้า": 25,
  "อย": 25,
  "หลอดไฟ": 25,
  "เตือนภัย": 25,
  "เป็นระเบียบ": 25,
  "3500": 25,
  "กะทัดรัด": 25,
  "ยี่สิบ": 25,
  "ออฟ": 25,
  "คล่องตัว": 25,
  "ไห": 25,
  "823": 25,
  "ตาก": 25,
  "nLv": 25,
  "705": 25,
  "328": 25,
  "สาธารณรัฐ": 25,
  "เสรี": 25,
  "มือ@@": 25,
  "ช็อคโกแลต": 25,
  "โครงกระดูก": 25,
  "กระทบ": 25,
  "เตรียมตัว": 25,
  "560": 25,
  "สตรีท": 25,
  "หน้าร้อน": 25,
  "ถ่าน": 25,
  "มาหา": 25,
  "ตี้": 25,
  "ย่อยสลาย": 25,
  "0.1": 25,
  "ส่องสว่าง": 25,
  "BUFF": 25,
  "พฤติกรรม": 25,
  "ดีแล้ว": 25,
  "พฤษภาคม": 25,
  "เป็นสมาชิก": 25,
  "โปรตีน": 25,
  "แคนาดา": 25,
  "หน้าผาก": 25,
  "ฉวน": 25,
  "คัมภีร์": 25,
  "ธ@@": 25,
  "ปฏิบัติงาน": 25,
  "รักษาสุขภาพ": 25,
  "อนุมาน": 25,
  "ตรงกลาง": 25,
  "1300": 25,
  "า@@": 25,
  "แนวนอน": 25,
  "นิรภัย": 25,
  "ี@@": 25,
  "กก.": 25,
  "หมดเวลา": 25,
  "เ@@": 25,
  "มุ่งหน้า": 25,
  "ไม่ต้องการ": 25,
  "เฉย": 25,
  "ศ@@": 25,
  "(%": 25,
  ")@@": 25,
  "ซัง": 25,
  "โยน": 25,
  "รีวิว": 25,
  "15000": 25,
  "ล้างมือ": 25,
  "ใบเสร็จ": 25,
  "[]": 25,
  "เอ๋": 25,
  "เบื่อ": 25,
  "ลิ@@": 25,
  "อัมพาต": 25,
  "ตอนแรก": 25,
  "แมง": 25,
  "เนื้อที่": 25,
  "PVC": 25,
  "ตะกรัน": 25,
  "ซี่": 25,
  "ตอบรับ": 25,
  "สี่เหลี่ยมขนมเปียกปูน": 25,
  "แยกกัน": 25,
  "ถุงเท้า": 24,
  "03": 24,
  "รองเท้าผ้าใบ": 24,
  "กระจายเสียง": 24,
  "545": 24,
  "คร่อม": 24,
  "ผิ": 24,
  "หมาก": 24,
  "ปราการ": 24,
  "ผิดสัญญา": 24,
  "：<": 24,
  "กติกา": 24,
  "น่าเบื่อ": 24,
  "%ลด": 24,
  "3450": 24,
  "สม@@": 24,
  "·คม": 24,
  "ec@@": 24,
  "สน": 24,
  "จำลอง": 24,
  "340": 24,
  "จนกระทั่ง": 24,
  "เหตุ": 24,
  "วันเกิด": 24,
  "เสมือน": 24,
  "สุทธิ": 24,
  "แรด": 24,
  "ปฏิทิน": 24,
  "เดท": 24,
  "บุคลิกลักษณะ": 24,
  "กิโลกรัม": 24,
  "แหล่งที่มา": 24,
  "เนิน": 24,
  "เกลียด": 24,
  "ลองดู": 24,
  "อาณาเขต": 24,
  "86": 24,
  "แผนกต้อนรับ": 24,
  "le": 24,
  "05": 24,
  "รถ@@": 24,
  "อุ@@": 24,
  "แรงกดดัน": 24,
  "บุคลิก": 24,
  "1199": 24,
  "จีบ": 24,
  "ar@@": 24,
  "ข้อสงสัย": 24,
  "เอะ": 24,
  "สายลม": 24,
  "ทุบ": 24,
  "เลิกงาน": 24,
  "ผืน": 24,
  "ma@@": 24,
  "51": 24,
  "มีนาคม": 24,
  "ข้อพิพาท": 24,
  "คลังสมบัติ": 24,
  "ประจัน": 24,
  "แย่งชิง": 24,
  "บันได": 24,
  "ri@@": 24,
  "ราวกับ": 24,
  "แฮนด์": 24,
  "น้ำชา": 24,
  "136": 24,
  "มาตร": 24,
  "รายการสินค้า": 24,
  "อัพตก": 24,
  "กรรม": 24,
  "ื@@": 24,
  "สิ้น": 24,
  "ความถูกต้อง": 24,
  "เสียชีวิต": 24,
  "พอสมควร": 24,
  "นิด": 24,
  "ออดิชั่น": 24,
  "อายัด": 24,
  "ของรางวัล": 24,
  "ร่วมมือ": 24,
  "ฟา": 24,
  "ประชิด": 24,
  "เย็นฉ่ำ": 24,
  "57": 24,
  "บูรณาการ": 24,
  "หมู่": 24,
  "883": 24,
  "น่าเสียดาย": 24,
  "เน@@": 24,
  "จับได้": 24,
  "3750": 24,
  "เซี่ยงไฮ้": 24,
  "】！": 24,
  "ขยายตัว": 24,
  "ริบบิ้น": 24,
  "เป@@": 24,
  "ซากุระ": 24,
  "ทิวทัศน์": 24,
  "มิดไนท์": 24,
  "ตื่นเต้น": 24,
  "ปั่น": 24,
  "เรีย": 24,
  "ร่วมงาน": 24,
  "60000": 24,
  "โหวต": 24,
  "92": 24,
  "ติ@@": 24,
  "สมรรถ": 24,
  "สิวเสี้ยน": 24,
  "การตาม": 24,
  "ผู้ผลิต": 24,
  "ลอ": 24,
  "_#*、[": 24,
  "แผนก": 24,
  "อุปสรรค": 24,
  "น้อยลง": 24,
  "คำศัพท์": 24,
  "เห็นด้วย": 24,
  "Android": 24,
  "ชู": 24,
  "สกิล\\": 24,
  "เข้าที่": 24,
  "ตรงนี้": 24,
  "เหล้า": 24,
  "ใจ@@": 24,
  "ตร@@": 24,
  "รุกราน": 24,
  "p": 24,
  "หล@@": 24,
  "มันเงา": 24,
  "ู": 23,
  "ปร@@": 23,
  "ท็อป": 23,
  "ทธิ์": 23,
  "ผู้อาวุโส": 23,
  "เมจิก": 23,
  "อก@@": 23,
  "ตะเข็บ": 23,
  "สแกน": 23,
  "เด็กน้อย": 23,
  "เย@@": 23,
  "ยอมแพ้": 23,
  "680": 23,
  "เค้า": 23,
  "510": 23,
  "โกะ": 23,
  "เมษายน": 23,
  "ขบ": 23,
  "ต่อ@@": 23,
  "1,@@": 23,
  "แต่ละวัน": 23,
  "ความสะดวก": 23,
  "เซรามิค": 23,
  "198": 23,
  "แฟ้มเอกสาร": 23,
  "ประสบ": 23,
  "เป็นอิสระ": 23,
  "กี่เพ้า": 23,
  "ปิดผนึก": 23,
  "สีเข้ม": 23,
  "os@@": 23,
  "๖": 23,
  "บาป": 23,
  "น้ำเสีย": 23,
  "ยี": 23,
  "แม่พิมพ์": 23,
  "พึ่งพา": 23,
  "หลังจากนี้": 23,
  "ไปมา": 23,
  "หลาก": 23,
  "โอสถ": 23,
  "กร": 23,
  "ฟ้าแลบ": 23,
  "พิสุทธิ์": 23,
  "w": 23,
  "ซื่อ": 23,
  "กัปตัน": 23,
  "แช่น้ำ": 23,
  "）*": 23,
  "กระบอก": 23,
  "เป็นความลับ": 23,
  "อ่านหนังสือ": 23,
  "รับประทาน": 23,
  "อุดมสมบูรณ์": 23,
  "การชน": 23,
  ",@@": 23,
  "เลก": 23,
  "กระเทือน": 23,
  "2016": 23,
  "ฑล": 23,
  "/%": 23,
  "รายได้": 23,
  "325": 23,
  "เฮ": 23,
  "พาร์ท": 23,
  "ทำอาหาร": 23,
  "ถ้าหาก": 23,
  "::": 23,
  "@@": 23,
  "%（": 23,
  "ฝ่ามือ": 23,
  "ปล@@": 23,
  "ผู้ประกอบการ": 23,
  "อด@@": 23,
  "หม้อ": 23,
  "ผึ้ง": 23,
  "หั่น": 23,
  "อ่อนล้า": 23,
  "เข็มขัดนิรภัย": 23,
  "ลดา": 23,
  "สารประกอบ": 23,
  "งานแต่ง": 23,
  "ต้อนรับ": 23,
  "จำได้": 23,
  "1888": 23,
  "ก็ดี": 23,
  "ร้องเรียน": 23,
  "1380": 23,
  "ยาแผนโบราณ": 23,
  "ผู้ช่วย": 23,
  "ซีรีส์": 23,
  "84": 23,
  "หลับใหล": 23,
  "ยุ่งยาก": 23,
  "ธ": 23,
  "ศิลปิน": 23,
  "เงินสด": 23,
  "สมมาตร": 23,
  "นำพา": 23,
  "ปั๊ม": 23,
  "สักนิด": 23,
  "ล้อม": 23,
  "181": 23,
  "บู@@": 23,
  "เข้ารูป": 23,
  "AquiverBiz": 23,
  "ขายของ": 23,
  "อินพุต": 23,
  "สงวน": 23,
  "เจอกัน": 23,
  "กา@@": 23,
  "จัดหา": 23,
  "ล*": 23,
  "พรม": 23,
  "】【": 23,
  "ช่วงนี้": 23,
  "แพร่กระจาย": 23,
  "เรียกร้อง": 23,
  "โดยปกติ": 23,
  "ใจเย็น": 23,
  "ทีมงาน": 23,
  "ซีล": 23,
  ":สกิล【": 23,
  "เพียงแต่": 23,
  "ทํา": 23,
  "สมา": 23,
  "ถึงที่": 23,
  "กาง": 23,
  "Tencent": 23,
  "การสื่อสาร": 23,
  "ตอบกลับ": 23,
  "กระเบื้อง": 23,
  "ท่าที": 23,
  "บัตรเครดิต": 23,
  "Q@@": 23,
  "00.00": 23,
  "ดิฉัน": 23,
  "กระดูกเชิงกราน": 23,
  "เส้นโลหิต": 23,
  "ทุกปี": 23,
  "จาร": 23,
  "ภูเขาไฟ": 23,
  "ีย": 22,
  "เสื้อกล้าม": 22,
  "สาวน้อย": 22,
  "ไว้ใจ": 22,
  "flyknit": 22,
  "ช่างฝีมือ": 22,
  "บุหรี่": 22,
  "ล้ำ": 22,
  "ลิมิเต็ด": 22,
  "อยู่เลย": 22,
  "รับเงิน": 22,
  "ประสาท": 22,
  "ตกปลา": 22,
  "คุ้มภัย": 22,
  "213": 22,
  "ตู้เย็น": 22,
  "หวาดกลัว": 22,
  "แวร์": 22,
  "ชะตา": 22,
  "คู": 22,
  "ร่อง": 22,
  "พาโนรามา": 22,
  "รถบรรทุก": 22,
  "ชุดนอน": 22,
  "งานแต่งงาน": 22,
  "ห้องนอน": 22,
  "2.0": 22,
  "เนื้อเยื่อ": 22,
  "วันทำการ": 22,
  "คุณ@@": 22,
  "คนรัก": 22,
  "200000": 22,
  "2830": 22,
  "425": 22,
  "วาล์ว": 22,
  "ไอคอน": 22,
  "้อ": 22,
  "ชั้นนำ": 22,
  "เท่าที่": 22,
  "เฟ@@": 22,
  "เฉียง": 22,
  "อาทิตย์": 22,
  "ขวาง": 22,
  "เหลือเกิน": 22,
  "มน": 22,
  "ประยุกต์": 22,
  "ความปรารถนา": 22,
  "ช่วงชิง": 22,
  "ปราชญ์": 22,
  "Q": 22,
  "จักษุ": 22,
  "ศัตร": 22,
  "ขัง": 22,
  "ฝ่ายใดฝ่ายหนึ่ง": 22,
  "ตะวันออกกลาง": 22,
  "บทบาท": 22,
  "ความคงทน": 22,
  "EMS": 22,
  "2700": 22,
  "เท่าเทียมกัน": 22,
  "รกร้าง": 22,
  "SKU": 22,
  "CO": 22,
  "เตาเผา": 22,
  "เต่า": 22,
  "625": 22,
  "มีส่วน": 22,
  "เย็บจักร": 22,
  "มอญ": 22,
  "6.@@": 22,
  "365": 22,
  "เย่": 22,
  "เส้นรอบวง": 22,
  "เป็นต้นไป": 22,
  "ร่ำรวย": 22,
  "ที่ปรึกษา": 22,
  "สาย@@": 22,
  "ประกายไฟ": 22,
  "ทึบ": 22,
  "ก่อตั้ง": 22,
  "ตะกร้า": 22,
  "เพิ่มขนาด": 22,
  "แวววาว": 22,
  "ระดับโลก": 22,
  "ข้อจำกัด": 22,
  "73": 22,
  "เชียร์": 22,
  "เป็นปัญหา": 22,
  "สิ้นเชิง": 22,
  "เดี๋ยวนี้": 22,
  "ซู่": 22,
  "เอนไซม์": 22,
  "ปกครอง": 22,
  "ตลอดชีพ": 22,
  "กาน": 22,
  "【ห": 22,
  "ที่นอน": 22,
  "กิ@@": 22,
  "จากนี้": 22,
  "แพ็ค": 22,
  "the": 22,
  "สันทนาการ": 22,
  "หล่น": 22,
  "วง@@": 22,
  "คอนโด": 22,
  "บทสนทนา": 22,
  "การสกัด": 22,
  "คล่อง": 22,
  "ลูกโลก": 21,
  "โน๊ตบุ๊ค": 21,
  "เย": 21,
  "185": 21,
  "สง": 21,
  "ชรา": 21,
  "ขุนเขา": 21,
  "แ@@": 21,
  "หลอก": 21,
  "สก๊อต": 21,
  "ราศี@@": 21,
  "งก": 21,
  "เดิมพัน": 21,
  "All-in-one": 21,
  "รอยยิ้ม": 21,
  "%、": 21,
  "เปลือกตา": 21,
  "ความหลากหลาย": 21,
  "แผง": 21,
  "ติด@@": 21,
  "สรีระ": 21,
  "ตัวหลัก": 21,
  "ความช่วยเหลือ": 21,
  "82": 21,
  "หลิน": 21,
  "ผลาญ": 21,
  "ให": 21,
  "วิทยุ": 21,
  "หักลบ": 21,
  "ตบะ": 21,
  "เครื่องกล": 21,
  "สันโดษ": 21,
  "ความล้มเหลว": 21,
  "เครื่องใช้ไฟฟ้า": 21,
  "สุขสบาย": 21,
  "ทุ@@": 21,
  "อินทรี": 21,
  "กลอง": 21,
  "นิยาม": 21,
  "โมฆะ": 21,
  "การลงทุน": 21,
  "QQ": 21,
  "การงาน": 21,
  "ทำตาม": 21,
  "ขี้ผึ้ง": 21,
  "เสถียร": 21,
  "เผาไหม้": 21,
  "ฉนวน": 21,
  "เจรจา": 21,
  "IN@@": 21,
  "26@@": 21,
  "เอาต์พุต": 21,
  "วรรณกรรม": 21,
  "จื้อ": 21,
  "ปิดกั้น": 21,
  "โดยธรรมชาติ": 21,
  "สายโซ่": 21,
  "Google": 21,
  "ล่องหน": 21,
  "ดม": 21,
  "ซากปรักหักพัง": 21,
  "ดู@@": 21,
  "สายตาสั้น": 21,
  "แคระ": 21,
  "โทรทัศน์": 21,
  "275": 21,
  "ล์": 21,
  "เปล่งประกาย": 21,
  "ขี้@@": 21,
  "โอนย้าย": 21,
  "กฎระเบียบ": 21,
  "มือจับ": 21,
  "จุดโฟกัส": 21,
  "ื้อ": 21,
  "แม้กระทั่ง": 21,
  "คำนึงถึง": 21,
  "'": 21,
  "สลิป": 21,
  "เครื่องดนตรี": 21,
  "แอร์": 21,
  "วงกต": 21,
  "มีทาง": 21,
  "สระ": 21,
  "สปอร์ต": 21,
  "com": 21,
  "แตร": 21,
  "ท่าเรือ": 21,
  "ตซ์": 21,
  "เว": 21,
  "ic@@": 21,
  "600000": 21,
  "แฟนซี": 21,
  "ฮิปสเตอร์": 21,
  "การตาย": 21,
  "ซิงค์": 21,
  "448": 21,
  "ปรารถนา": 21,
  "ไฟฉาย": 21,
  "เห็ด": 21,
  "การณ์": 21,
  "อุด": 21,
  "ชั้นหนึ่ง": 21,
  "ขอแสดงความยินดี": 21,
  "ระบำ": 21,
  "129": 21,
  "สายไฟ": 21,
  "จ้า": 21,
  "การตรวจวัด": 21,
  "ที่ทำงาน": 21,
  "ชำนาญ": 21,
  "เหตุใด": 21,
  "หลี": 21,
  "108": 21,
  "TF": 21,
  "เวลานี้": 21,
  "โหดร้าย": 21,
  "แบงค์": 21,
  "ติดอันดับ": 21,
  "นิดเดียว": 21,
  "เงียบสงบ": 21,
  "เห@@": 21,
  "ลมหนาว": 21,
  "สูญญากาศ": 21,
  "รับ@@": 21,
  "นำมา": 21,
  "อณู": 21,
  "ให้อภัย": 21,
  "โกหก": 21,
  "ความพยายาม": 21,
  "ตอนเช้า": 21,
  "::\\": 21,
  "ที่ร้าง": 21,
  "168": 21,
  "ก่อนอื่น": 21,
  "ฟู": 21,
  "ซับ": 21,
  "ตำรับ": 21,
  "ทีหลัง": 21,
  "หลุน": 21,
  "ใช": 21,
  "ๆ@@": 21,
  "ปล่อยมือ": 20,
  "สัง": 20,
  "นิติบุคคล": 20,
  "nEXP": 20,
  "น้ำเย็น": 20,
  "เซนติเมตร": 20,
  "เมเปิล": 20,
  "ณ@@": 20,
  "ิด": 20,
  "แว้งกัด": 20,
  "st@@": 20,
  "็@@": 20,
  "ลิ้มลอง": 20,
  "กระดิ่ง": 20,
  "พัฒนาการ": 20,
  "โชคชะตา": 20,
  "อัลลอย": 20,
  "ลั@@": 20,
  "สามี": 20,
  "1180": 20,
  "ลูกสาว": 20,
  "รูป@@": 20,
  "ตรวจดู": 20,
  "ขูด": 20,
  "76": 20,
  "%%": 20,
  "เสียม": 20,
  "วิว": 20,
  "การซ่อมแซม": 20,
  "ลดราคา": 20,
  "โซเชียล": 20,
  "ลงมือ": 20,
  "โผล่": 20,
  "815": 20,
  "วุ่นวาย": 20,
  "เช่นนั้น": 20,
  "เหนือกว่า": 20,
  "โครเชต์": 20,
  "ตะ@@": 20,
  "งวด": 20,
  "สมัยใหม่": 20,
  "เป็นจริง": 20,
  "0.0@@": 20,
  "ยังอยู่": 20,
  "แนวทาง": 20,
  "al": 20,
  "155": 20,
  "โรง": 20,
  "ความเป็น@@": 20,
  "์*": 20,
  "ณ์": 20,
  "บัลลังก์": 20,
  "อเมริกัน": 20,
  "คล": 20,
  "การรับประกัน": 20,
  "กำไร": 20,
  "วาง@@": 20,
  "โล่ง": 20,
  "ราชวงศ์": 20,
  "ไม่@@": 20,
  "้น@@": 20,
  "อีกที": 20,
  "สิงหาคม": 20,
  "ป้า": 20,
  "ซาตาน": 20,
  "สงสัย": 20,
  "เหตุฉุกเฉิน": 20,
  "1298": 20,
  "พลั่ว": 20,
  "์ด": 20,
  "ทรมาน": 20,
  "ราม": 20,
  "ฟอร์ม": 20,
  "อุ": 20,
  "ขบวน": 20,
  "คลา": 20,
  "ว่าแต่": 20,
  "อารยธรรม": 20,
  "ยก@@": 20,
  "ตรงไหน": 20,
  "คนขับ": 20,
  "】—": 20,
  "ทำความเข้าใจ": 20,
  "นท@@": 20,
  "พิฆาต": 20,
  "ราบเรียบ": 20,
  "สุดขั้ว": 20,
  "ผิว@@": 20,
  "ว่าด้วย": 20,
  "ทรัพย์": 20,
  "ตามหลักการ": 20,
  "4.0": 20,
  "โฟน": 20,
  "กล้องโทรทรรศน์": 20,
  "เมนทอล": 20,
  "7826": 20,
  "วาม": 20,
  "ทั@@": 20,
  "345": 20,
  "คล@@": 20,
  "เชีย": 20,
  "นอกเหนือจาก": 20,
  "ภาค": 20,
  "อุ่นใจ": 20,
  "อมตะ": 20,
  "สปริง": 20,
  "ขัดขวาง": 20,
  "กล่าวถึง": 20,
  "กอด": 20,
  "วันนั้น": 20,
  "11@@": 20,
  "5.2": 20,
  "พิการ": 20,
  "สไลด์": 20,
  "โปร่งแสง": 20,
  "เลซ": 20,
  "ไฟฟ้าสถิตย์": 20,
  "le@@": 20,
  "81": 20,
  "น้ำร้อน": 20,
  "2014": 20,
  "คิด@@": 20,
  "แคลอรี่": 20,
  "ของ@@": 20,
  "th@@": 20,
  "17.5": 20,
  "ความเป็นส่วนตัว": 20,
  "ย้ำ": 20,
  "เคาน์เตอร์": 20,
  "อัลตราโซนิก": 20,
  "ไบโอ": 20,
  "สังกะสี": 20,
  "4393": 20,
  "การผูก": 20,
  "แทรกซึม": 20,
  "เยี่ยมชม": 20,
  "MW": 20,
  "อั@@": 20,
  "ประทับใจ": 20,
  "620": 20,
  "es": 20,
  "ใ@@": 20,
  "เค้าโครง": 20,
  "วิทยา": 20,
  "ยมทูต": 20,
  "197": 20,
  "อิจฉา": 20,
  "วาน": 20,
  "มีความหมาย": 20,
  "ละเลย": 20,
  "จัดสรร": 20,
  "สภาพเดิม": 20,
  "ทัพ": 20,
  "วอร์ม": 20,
  "แสงอาทิตย์": 20,
  "บะ": 20,
  "มนุษยธรรม": 20,
  "ได้@@": 20,
  "มม": 20,
  "โฉมงาม": 20,
  "ผลักดัน": 20,
  "ใจดี": 20,
  "ออกจะ": 20,
  "0.02": 20,
  "รับผิด": 20,
  "ของดี": 20,
  "33@@": 20,
  "น้ำวน": 20,
  "เป็นขุย": 20,
  "สกิ": 20,
  "การวางแผน": 20,
  "27@@": 20,
  "รอคอย": 20,
  "โป": 20,
  "บรรลุผล": 20,
  "เอาแต่": 20,
  "ชายกระโปรง": 20,
  "ป้ายชื่อ": 20,
  "ตัดกัน": 20,
  "เชื่อมั่น": 19,
  "152": 19,
  "【แพ็ก": 19,
  "ลุง": 19,
  "๋": 19,
  "พ่ายแพ้": 19,
  "ดาวตก": 19,
  "ช่องปาก": 19,
  "6.0": 19,
  "สหราชอาณาจักร": 19,
  "587": 19,
  "เป็นครั้งแรก": 19,
  "กันยายน": 19,
  "ฮอต": 19,
  "30@@": 19,
  "ra@@": 19,
  "ส้นสูง": 19,
  "หลินจือ": 19,
  "เสียเวลา": 19,
  "มนต์": 19,
  "โยคะ": 19,
  "อาย": 19,
  "MD": 19,
  "สต๊อก": 19,
  "งานแปล": 19,
  "5.1": 19,
  "348": 19,
  "on@@": 19,
  "ริก": 19,
  "พรุน": 19,
  "ข้ามพรมแดน": 19,
  "1090": 19,
  "ครัวเรือน": 19,
  "ไว้ใจได้": 19,
  "f": 19,
  "เสียงดัง": 19,
  "พันปี": 19,
  "มิตร": 19,
  "จัดเตรียม": 19,
  "ไม่เลว": 19,
  "ตำ": 19,
  "โดยที่": 19,
  "ดยุค": 19,
  "ทำหน้าที่": 19,
  "จอแสดงผล": 19,
  "เสวียน": 19,
  "ใบสมัคร": 19,
  "ือ": 19,
  "รู้ตัว": 19,
  "สำ": 19,
  "ตราบใดที่": 19,
  "ทรัพย์สินทางปัญญา": 19,
  "ภาพ@@": 19,
  "VI@@": 19,
  "วา@@": 19,
  "ทาย": 19,
  "สิต": 19,
  "ดัก": 19,
  "ท่อง": 19,
  "1099": 19,
  "577": 19,
  "โกลาหล": 19,
  "เฮ@@": 19,
  "【@@": 19,
  "1.75": 19,
  "โถ": 19,
  "ตอนกลางคืน": 19,
  "สะพายเฉียง": 19,
  "การแสดงออก": 19,
  "กล้องถ่ายรูป": 19,
  "ทั่วถึง": 19,
  "ทฤษฎี": 19,
  "ปู่": 19,
  "r": 19,
  "แลน": 19,
  "บา@@": 19,
  "นิ้วมือ": 19,
  "1315": 19,
  "อิทธิพล": 19,
  "93": 19,
  "ุ": 19,
  "เครื่องแบบ": 19,
  "ไดรฟ์": 19,
  "138": 19,
  "ส่วนหัว": 19,
  "สิงคโปร์": 19,
  "ON": 19,
  "ยุติ": 19,
  "คนเรา": 19,
  "ความเห็น": 19,
  "ฝูง": 19,
  "คาดคิด": 19,
  "โคม": 19,
  "เป็นผู้ใหญ่": 19,
  "รถบัส": 19,
  "/@@": 19,
  "ว่องไว": 19,
  "te@@": 19,
  "เครื่องใช้": 19,
  "570": 19,
  "ชั้นนี้": 19,
  "เมื่อกี้นี้": 19,
  "เผื่อ": 19,
  "ความชุ่มชื่น": 19,
  "วาล": 19,
  "550": 19,
  "เป็นสาว": 19,
  "วิจารณ์": 19,
  "เฟอร์นิเจอร์": 19,
  "๗": 19,
  "ขัน": 19,
  "เฉิน": 19,
  "ครบรอบ": 19,
  "นุ่ม": 19,
  "งานศิลปะ": 19,
  "อัสนี": 19,
  "ผ้าม่าน": 19,
  "ตก@@": 19,
  "ค่าเหนื่อย": 19,
  "กดดัน": 19,
  "อ่าง": 19,
  "สต@@": 19,
  "เปื้อน": 19,
  "“@@": 19,
  "ฟอง": 19,
  "อุทธรณ์": 19,
  "ผู้เข้าร่วม": 19,
  "ตอบแทน": 19,
  "ที่ใด": 19,
  "จำพวก": 19,
  "ยี้": 19,
  "ถึง@@": 19,
  "....": 19,
  "53": 19,
  "ลูกบอล": 19,
  "นวม": 19,
  "MA@@": 19,
  "ผู้คุ้มกัน": 19,
  "เกมส์": 19,
  "โ@@": 19,
  "4800": 19,
  "แพร่หลาย": 19,
  "2595": 19,
  "In@@": 19,
  "2650": 19,
  "145": 19,
  "สิ่งจำเป็น": 19,
  "ดินสอ": 19,
  "ผู้รอดชีวิต": 19,
  "ุ@@": 19,
  "650": 19,
  "2250": 19,
  "รับใช้": 19,
  "บรรดา": 19,
  "มอบอำนาจ": 19,
  "แว่นกันแดด": 19,
  "เสรีภาพ": 19,
  "ความไว้วางใจ": 19,
  "ซัน": 19,
  "ภู่": 19,
  "าม": 19,
  "LINE": 19,
  "คุ้นเคย": 18,
  "การตัดสินใจ": 18,
  "สองหน้า": 18,
  "67": 18,
  "เล็ง": 18,
  "มิลลิเมตร": 18,
  "ห้อ": 18,
  "แก้ม": 18,
  "เพื่อที่จะ": 18,
  "โจร": 18,
  "ู@@": 18,
  "กระจกเงา": 18,
  "เอก": 18,
  "ค้ำจุน": 18,
  "399": 18,
  "พลอย": 18,
  "เบราว์เซอร์": 18,
  "เดิน@@": 18,
  "￥": 18,
  "9356": 18,
  "แรงงาน": 18,
  "หลอดเลือด": 18,
  "EN@@": 18,
  "เทพี": 18,
  "38@@": 18,
  "รช": 18,
  "ฟิ": 18,
  "305": 18,
  "หลายเท่า": 18,
  "0.25": 18,
  "สิวหัวดำ": 18,
  ".อัพ": 18,
  "ั้น": 18,
  "บรรพบุรุษ": 18,
  "คึกคัก": 18,
  "กรณีพิเศษ": 18,
  "★": 18,
  "ปักกิ่ง": 18,
  "เข้มแข็ง": 18,
  "เฮ้": 18,
  "ิง": 18,
  "หญิงสาว": 18,
  "ผ้าพันคอ": 18,
  "เนีย": 18,
  "วสี": 18,
  "ปรึกษา": 18,
  "ทะเลสาบ": 18,
  "ความโค้ง": 18,
  "ชั้นดี": 18,
  "เรซิน": 18,
  "สายตรวจ": 18,
  "รอยย่น": 18,
  "1.0": 18,
  "โปรดทราบ": 18,
  "นั่นแหละ": 18,
  "ได้มาตรฐาน": 18,
  "สับปะรด": 18,
  "ลุย": 18,
  "พัสดุ": 18,
  "เจิ้ง": 18,
  "การขับ": 18,
  "ff": 18,
  "UV": 18,
  "นึกไม่ถึง": 18,
  "ความนุ่ม": 18,
  "ผ้าห่ม": 18,
  "สูงส่ง": 18,
  "มีคุณค่า": 18,
  "ขอความช่วยเหลือ": 18,
  "ของแข็ง": 18,
  "แผนภาพ": 18,
  "ความชอบ": 18,
  "ไซเรน": 18,
  "ผ้า@@": 18,
  "|@@": 18,
  "วรรค": 18,
  "เหมย": 18,
  "7450": 18,
  "พาวเวอร์": 18,
  "สิง": 18,
  "จิ้งจอก": 18,
  "Ⅰ": 18,
  "ไม้@@": 18,
  "2.2": 18,
  "อี@@": 18,
  "แรม": 18,
  "วารี": 18,
  "เวิร์ด": 18,
  "23.00": 18,
  "สาร@@": 18,
  "เข้ากันได้": 18,
  "หลั่ง": 18,
  "เรียบเรียง": 18,
  "ภาชนะ": 18,
  "จัดซื้อ": 18,
  "รั่ม": 18,
  "อุปรากร": 18,
  "สระผม": 18,
  "มีจำกัด": 18,
  "465": 18,
  "ตั@@": 18,
  "เว@@": 18,
  "per": 18,
  "จุดสิ้นสุด": 18,
  "ไวรัส": 18,
  "สีตก": 18,
  "แยกแยะ": 18,
  "ป้อมปราการ": 18,
  "ความเรียบง่าย": 18,
  "สนามแม่เหล็ก": 18,
  "347": 18,
  "การซื้อขาย": 18,
  "ac@@": 18,
  "ยิ่งกว่า": 18,
  "เครื่องดื่ม": 18,
  "......": 18,
  "เป็นไปไม่ได้": 18,
  "370": 18,
  "้ง@@": 18,
  "เข้าด้วยกัน": 18,
  "็ก": 18,
  "คราวนี้": 18,
  "ขั้นสุดท้าย": 18,
  "อม@@": 18,
  "่ง@@": 18,
  "115": 18,
  "1550": 18,
  "107": 18,
  "ครอบครอง": 18,
  "lo@@": 18,
  "”)": 18,
  "เว้นแต่": 18,
  "กวน": 18,
  "พบเห็น": 18,
  "บังคับใช้": 18,
  "ตลอดกาล": 18,
  "พิกัด": 18,
  "เจ้านาย": 18,
  "๘": 18,
  "องครักษ์": 18,
  "ทิศเหนือ": 18,
  "กิโล": 18,
  "เช่า": 18,
  "อะ@@": 18,
  "นู": 18,
  "เผชิญ": 18,
  "แรงโน้มถ่วง": 18,
  "ตรวจวัด": 18,
  "อปร": 18,
  "คู่@@": 18,
  "ขวาน": 18,
  "ทางสังคม": 18,
  "นันทนาการ": 18,
  "454": 18,
  "Push": 18,
  "ดึก": 18,
  "เครื่องแต่งกาย": 18,
  "เกรง": 18,
  "เชือกผูกรองเท้า": 18,
  "666": 18,
  "ชุดกีฬา": 18,
  "วัยกลางคน": 18,
  "ปีใหม่": 18,
  "ล้าง@@": 18,
  "สักที": 18,
  "ใน่": 18,
  "998": 18,
  "ขวบ": 18,
  "ก้าวเดิน": 18,
  "พี่สาว": 18,
  "นามสกุล": 18,
  "หมด@@": 18,
  "หลิ่ว": 18,
  "กะทันหัน": 18,
  "น่าเชื่อถือ": 18,
  "คดี": 17,
  "สักพัก": 17,
  "โถง": 17,
  "ความบริสุทธิ์": 17,
  "2558": 17,
  "71": 17,
  "ระดับเสียง": 17,
  "เท่ห์": 17,
  "ทรยศ": 17,
  "ความร่วมมือ": 17,
  "ให้นม": 17,
  "ประธาน": 17,
  "มาร์ช": 17,
  "รด": 17,
  "โรคระบาด": 17,
  "430": 17,
  "เข็มทิศ": 17,
  "อนามัย": 17,
  "กันฝน": 17,
  "38000": 17,
  "หนังกำพร้า": 17,
  "ฟอ": 17,
  "กึ่ง": 17,
  "รถราง": 17,
  "----": 17,
  "กระพริบ": 17,
  "คาดหวัง": 17,
  "พยาน": 17,
  "1280": 17,
  "อาบ": 17,
  "เปิดบัญชี": 17,
  "เด็กผู้ชาย": 17,
  "จริงจัง": 17,
  "ตรงเวลา": 17,
  "ครีเอท": 17,
  "จุ": 17,
  "การกำกับ": 17,
  "ชล": 17,
  "ความระมัดระวัง": 17,
  "ผู้ใช้งาน": 17,
  "กก": 17,
  "ผู้อนุมัติ": 17,
  ">เล": 17,
  "ปั@@": 17,
  "ไท่": 17,
  "จอก": 17,
  "3010": 17,
  "โล@@": 17,
  "ทิ@@": 17,
  "เพลย์": 17,
  "ฉลาม": 17,
  "เมลานิน": 17,
  "ang": 17,
  "AR@@": 17,
  "lu@@": 17,
  "121": 17,
  "เหล็กกล้าไร้สนิม": 17,
  "316": 17,
  "สเก็ต": 17,
  "เงือก": 17,
  "บทความ": 17,
  "การทอ": 17,
  "ฟี": 17,
  "ไทเทเนียม": 17,
  "ภาพยนตร์": 17,
  "เพศ": 17,
  "การท่องเที่ยว": 17,
  "ส่งสินค้า": 17,
  "เป็นโรค": 17,
  "FBA": 17,
  "ทะเลหลวง": 17,
  "ลัทธิ": 17,
  "3460": 17,
  "อิ่มตัว": 17,
  "เลือน": 17,
  "พอแล้ว": 17,
  "กุด": 17,
  "ไม่งั้น": 17,
  "7.5": 17,
  "ต่อจากนั้น": 17,
  "สามสี": 17,
  "สละ": 17,
  "อาละวาด": 17,
  "4100": 17,
  "นับไม่ถ้วน": 17,
  "แทรก": 17,
  "ปอนด์": 17,
  "100@@": 17,
  "อ้าง": 17,
  "จล": 17,
  "ได้เวลา": 17,
  "ลาดตระเวน": 17,
  "หวง": 17,
  "ที่อื่น": 17,
  "กั@@": 17,
  "ทำสัญญา": 17,
  "ผู": 17,
  "รย์": 17,
  "เบ": 17,
  "730": 17,
  "ความผิดปกติ": 17,
  "แอรอน": 17,
  "1580": 17,
  "648": 17,
  "ขอด": 17,
  "ประหยัดเวลา": 17,
  "ริ@@": 17,
  "2.4": 17,
  "ฝูงชน": 17,
  "เท้าเปล่า": 17,
  "ตรงกันข้าม": 17,
  "บัด": 17,
  "ล้าสมัย": 17,
  "จำคุก": 17,
  "ชะ": 17,
  "ก้าวหน้า": 17,
  "720": 17,
  "ปลายทาง": 17,
  "ข่าย": 17,
  "อยู่กับที่": 17,
  "เซสชั่น": 17,
  "ทรวงอก": 17,
  "ริมน้ำ": 17,
  "ลา@@": 17,
  "ประวัติการ": 17,
  "วน@@": 17,
  "ซอ": 17,
  "สติ๊กเกอร์": 17,
  "สูญ": 17,
  "แม@@": 17,
  "แพร่ระบาด": 17,
  "kg": 17,
  "เพชรพลอย": 17,
  "มีเสียง": 17,
  "พร้อมด้วย": 17,
  "ทำนอง": 17,
  "เข้ากลุ่ม": 17,
  "อัลลอยด์": 17,
  "4.8": 17,
  "am@@": 17,
  "เส้นผ่าศูนย์กลาง": 17,
  "เดิมที": 17,
  "ชิ@@": 17,
  "สุภาพสตรี": 17,
  "น์": 17,
  "่ม": 17,
  "119": 17,
  "กรงเล็บ": 17,
  "#、#": 17,
  "เท่าไร": 17,
  "ถึงแม้ว่า": 17,
  "ประมาท": 17,
  "ผู้ชนะ": 17,
  "วัยเด็ก": 17,
  "ไก่": 17,
  "่ว": 17,
  "การกระแทก": 17,
  "หมึก": 17,
  "ลองของ": 17,
  "โดยปริยาย": 17,
  "ทุ่มเท": 17,
  "and": 17,
  "สี่เหลี่ยม": 17,
  "กัน@@": 17,
  "ขนาน": 17,
  "ส่งผ่าน": 17,
  "สี@@": 17,
  "เกี่ยว": 17,
  "มองดู": 17,
  "บรรพชน": 17,
  "เชี่ยวชาญ": 17,
  "คัท": 17,
  "ประชุม": 17,
  "อยู่รอด": 17,
  "แน่ๆ": 17,
  "0.2": 17,
  "แขวนลอย": 17,
  "ฝึกซ้อม": 17,
  "³": 17,
  "ขุนนาง": 17,
  "แอลกอฮอล์": 17,
  "ระดับชาติ": 17,
  "อยู่ดี": 17,
  "เย็บผ้า": 17,
  "พี่ชาย": 17,
  "คอวี": 17,
  "เดซิเบล": 17,
  "เกลือ": 17,
  "ความจริงใจ": 17,
  "แอนด์": 17,
  "แว็กซ์": 17,
  "แอบ": 17,
  "ดิบ": 17,
  "1.1": 17,
  "ตามคำแนะนำ": 17,
  "กิเลน": 17,
  "ชำระบัญชี": 17,
  "ไม้บรรทัด": 17,
  "เมาส์": 17,
  "อินเตอร์เน็ต": 17,
  "วัน@@": 17,
  "ter": 17,
  "าน": 17,
  "ม่": 17,
  "581": 17,
  "้ว": 17,
  "โตเกียว": 17,
  "ou@@": 17,
  "มาย": 17,
  "28@@": 17,
  "ความพึงพอใจ": 17,
  "คำบรรยาย": 17,
  "298": 17,
  "ผิดหวัง": 17,
  "mp@@": 16,
  "้า@@": 16,
  "คนชั่ว": 16,
  "หมวด": 16,
  "อนุมูล": 16,
  "1.3": 16,
  "มาตรการป้องกัน": 16,
  "980": 16,
  "ดอกเบี้ย": 16,
  "แตะต้อง": 16,
  "แอปเปิ้ล": 16,
  "บท@@": 16,
  "635": 16,
  "3150": 16,
  "ยั่งยืน": 16,
  "หัตถกรรม": 16,
  "กฎเกณฑ์": 16,
  "ha@@": 16,
  "มิถุนายน": 16,
  "เวทย์": 16,
  "คลอดลูก": 16,
  "เสื่อม": 16,
  "ัก": 16,
  "@@": 16,
  "โว": 16,
  "ซ่า": 16,
  "ฟอร์ด": 16,
  "โดยเฉพาะอย่างยิ่ง": 16,
  "นรีเวช": 16,
  "ความลึก": 16,
  "อายุใช้งาน": 16,
  "แพะ": 16,
  "ชักโครก": 16,
  "to": 16,
  "การต้าน": 16,
  "ฝีมือดี": 16,
  "ยศ": 16,
  "ลิงค์": 16,
  "อ้อม": 16,
  "ทางได้": 16,
  "102": 16,
  "สอบเทียบ": 16,
  "ฉาย": 16,
  "ฟุตบอล": 16,
  "2.25": 16,
  "ค่าเสียหาย": 16,
  "แก๊ส": 16,
  "วแทนท์": 16,
  "แปลงกาย": 16,
  "ตี@@": 16,
  "ลุกขึ้น": 16,
  "et@@": 16,
  "</": 16,
  "87": 16,
  "าด": 16,
  "แกว่ง": 16,
  "ตำบล": 16,
  "ir@@": 16,
  "cent": 16,
  "ข้อควรระวัง": 16,
  "ตกหล่น": 16,
  "ยอ": 16,
  "อพยพ": 16,
  "ความเป็นไปได้": 16,
  "ให้สี": 16,
  "กระเพาะ": 16,
  "วันหนึ่ง": 16,
  "+@@": 16,
  "ประหลาดใจ": 16,
  "ปฏิ@@": 16,
  "รู้@@": 16,
  "พ่อค้า": 16,
  "การสลัก": 16,
  "กาก": 16,
  "ซึ่งกันและกัน": 16,
  "สะพาน": 16,
  "ลิ้น": 16,
  "ข่าวสาร": 16,
  "103": 16,
  "ปูพื้น": 16,
  "ผู้รับผิดชอบ": 16,
  "่น@@": 16,
  "ัน": 16,
  "ผัด": 16,
  "กระจอก": 16,
  "ช่วยไม่ได้": 16,
  "รวมพล": 16,
  "ตั้งแต่แรก": 16,
  "ปุ่ม": 16,
  "Ⅱ": 16,
  "5.@@": 16,
  "จุดบกพร่อง": 16,
  "โมโห": 16,
  "）\\": 16,
  "ส่วนลึก": 16,
  "PP": 16,
  "กู่": 16,
  "on": 16,
  "760": 16,
  "ฉาง": 16,
  "สุริยัน": 16,
  "เอา@@": 16,
  "ก้า": 16,
  "ทำตัว": 16,
  "รอยแผล": 16,
  "สมรรถนะ": 16,
  "te": 16,
  "ท้องที่": 16,
  "324": 16,
  "ค้ม": 16,
  "อร@@": 16,
  "377": 16,
  "3.2": 16,
  "การระเบิด": 16,
  "กลยุทธ์": 16,
  "1875": 16,
  "รวบ": 16,
  "ตุ้ย": 16,
  "ss@@": 16,
  "เยอะแยะ": 16,
  "8.@@": 16,
  "1880": 16,
  "สิงโต": 16,
  "ตัวอย่างเช่น": 16,
  "ตรงนั้น": 16,
  "แคน": 16,
  "มิตรภาพ": 16,
  "หนทาง": 16,
  "ดึงดูดใจ": 16,
  "ดัล": 16,
  "ซิลิกา": 16,
  "★★★★": 16,
  "มิดชิด": 16,
  "เสียง@@": 16,
  "พีช": 16,
  "บทบัญญัติ": 16,
  "％\\": 16,
  "แอนไอออน": 16,
  "757": 16,
  "oo@@": 16,
  "แน่นหนา": 16,
  "ครีมกันแดด": 16,
  "ฝ@@": 16,
  "เจ้า@@": 16,
  "ตรุษจีน": 16,
  "7680": 16,
  "กางเกงว่ายน้ำ": 16,
  "จอด": 16,
  "โทน": 16,
  "ปฏิบัติการ": 16,
  "ชั้นเรียน": 16,
  "243": 16,
  "คลินิก": 16,
  "ป่วย": 16,
  "จัดหมวดหมู่": 16,
  "สํา": 16,
  "พูด@@": 16,
  "el@@": 16,
  "จุก": 16,
  "ธูป": 16,
  "โม่": 16,
  "หา@@": 16,
  "เปลวเพลิง": 16,
  "เตรียมการ": 16,
  "แปลกประหลาด": 16,
  "รุ@@": 16,
  "ทาส": 16,
  "【】": 16,
  "เส@@": 16,
  "อู": 16,
  "พิรุณ": 16,
  "รถม้า": 16,
  "เวิร์ค": 16,
  "ใจกลาง": 16,
  "83": 16,
  "เปล่งแสง": 16,
  "3350": 16,
  "ับ": 16,
  "แหลมคม": 16,
  "ตั้งขึ้น": 16,
  "น่อง": 16,
  "สลิม": 16,
  "มุต": 16,
  "พันธนาการ": 16,
  "ลงวันที่": 16,
  "มองหา": 16,
  "ดัด": 16,
  "!@@": 16,
  "ถูก@@": 16,
  "เร่งด่วน": 16,
  "เเล้ว": 16,
  "กำลังไฟฟ้า": 16,
  "ตัด@@": 16,
  "ความสดชื่น": 16,
  "ฟาด": 16,
  "แตกหัก": 16,
  "ศุกร์": 16,
  "ชี": 16,
  "พร@@": 16,
  "สะ@@": 16,
  "ลิสต์": 16,
  "กว่าง": 16,
  "ay": 16,
  "104": 16,
  "พวงมาลัย": 15,
  "ลูกพี่": 15,
  "การสังหาร": 15,
  "ตู้เสื้อผ้า": 15,
  "ฮะ": 15,
  "ปวดหัว": 15,
  "เปียโน": 15,
  "เป็นเจ้าของ": 15,
  "ผู้สร้าง": 15,
  "ชั่ง": 15,
  "การนำทาง": 15,
  "สรีรวิทยา": 15,
  "การบริหาร": 15,
  "5.4": 15,
  "คลาดเคลื่อน": 15,
  "ขึ้นกับ": 15,
  "ฝี": 15,
  "551": 15,
  "ส่วน@@": 15,
  "เตรียมพร้อม": 15,
  "เต่าดำ": 15,
  "การอัญเชิญ": 15,
  "แรงดูด": 15,
  "101": 15,
  "45@@": 15,
  "ยัท·": 15,
  "2.3": 15,
  "·ค": 15,
  "ค้ำ": 15,
  "คุม": 15,
  "ได้รับบาดเจ็บ": 15,
  "คำราม": 15,
  "ต้น@@": 15,
  "89": 15,
  "แลกซ์": 15,
  "โรมัน": 15,
  "เขี้ยว": 15,
  "วันสุดท้าย": 15,
  "ล้างบาป": 15,
  "คลื่นเสียง": 15,
  "388": 15,
  "2015": 15,
  "นพ": 15,
  "ลำไส้": 15,
  "รอม": 15,
  "ยาสีฟัน": 15,
  "ช้าๆ": 15,
  "157": 15,
  "ชีวิตชีวา": 15,
  "เป็ด": 15,
  "แก่ตัว": 15,
  "เมมเบรน": 15,
  "นิ่งเงียบ": 15,
  "AS@@": 15,
  "Ch@@": 15,
  "อื้ม": 15,
  "ปลายเท้า": 15,
  "คลาสสิค": 15,
  "บร": 15,
  "แหละ": 15,
  "ช่วยชีวิต": 15,
  "กำมะถัน": 15,
  "เจือจาง": 15,
  "158": 15,
  "กระทิง": 15,
  "เครื่องยนต์": 15,
  "ผู้เฒ่า": 15,
  "รู้ใจ": 15,
  "di@@": 15,
  "อังคาร": 15,
  "12350": 15,
  "อำ": 15,
  "พราว": 15,
  "กรม": 15,
  "อินทรีย์": 15,
  "สรรเสริญ": 15,
  "ดอน": 15,
  "หนึ่งเดียว": 15,
  "2557": 15,
  "หลุมฝังศพ": 15,
  "z@@": 15,
  "เวลาเปิด": 15,
  "ภาค@@": 15,
  "ระ@@": 15,
  "กลิ้ง": 15,
  "SSSR": 15,
  "colorid": 15,
  "สายตายาว": 15,
  "=|": 15,
  "เมืองหลวง": 15,
  "（@@": 15,
  "แอมโมเนีย": 15,
  "ตามคำสั่ง": 15,
  "ข้อได้เปรียบ": 15,
  "299": 15,
  "ยู่": 15,
  "ออโรรา": 15,
  "390": 15,
  ".+": 15,
  "บอกเลิก": 15,
  "ลูกชาย": 15,
  "ดวงดี": 15,
  "อบ@@": 15,
  "เจียง": 15,
  "ปั้น": 15,
  "690": 15,
  "รั่วไหล": 15,
  "CO@@": 15,
  "ละทิ้ง": 15,
  "ความตั้งใจ": 15,
  "ให้หลัง": 15,
  "29@@": 15,
  "รับมอบหมาย": 15,
  "ห้าสิบ": 15,
  "โฮ": 15,
  "คอมเมนต์": 15,
  "207": 15,
  "ครอบงำ": 15,
  "ปะการัง": 15,
  "เคราะห์": 15,
  "โอ@@": 15,
  "เป็นไฟ": 15,
  "LA@@": 15,
  "#\\": 15,
  "ชั่ว@@": 15,
  "ชำระหนี้": 15,
  "460": 15,
  "ขัดแย้ง": 15,
  "พายุไซโคลน": 15,
  "94": 15,
  "โยม": 15,
  "คลังสินค้า": 15,
  "มาสู่": 15,
  "อ้า": 15,
  "ถ่ายโอน": 15,
  "579": 15,
  "จิ@@": 15,
  "เอาต์": 15,
  "ปรัชญา": 15,
  "อิ่ม": 15,
  "1299": 15,
  "204": 15,
  "ค่าเช่า": 15,
  "ละ@@": 15,
  "62": 15,
  "ลูกศร": 15,
  "ตามกำหนด": 15,
  "สะบัด": 15,
  "ลี้": 15,
  "รับคืน": 15,
  "640": 15,
  "4200": 15,
  "เหลว": 15,
  "ทำความ": 15,
  "ฤ@@": 15,
  "เปน": 15,
  "การกัน": 15,
  "co@@": 15,
  "สายพาน": 15,
  "ปาฏิหาริย์": 15,
  "สุด@@": 15,
  "ยะ": 15,
  "ด้วยใจ": 15,
  "ปีก่อน": 15,
  "ค่าบริการ": 15,
  "ราคาขาย": 15,
  "วั@@": 15,
  "Retsu": 15,
  "ระบุชื่อ": 15,
  "กินข้าว": 15,
  "ดูถูก": 15,
  "ี่": 15,
  "ทู": 15,
  "กำบัง": 15,
  "อง@@": 15,
  "ท่ามกลาง": 15,
  "เช@@": 15,
  "บาด": 15,
  "เอาล่ะ": 15,
  "อัลบั้ม": 15,
  "ห้อง@@": 15,
  "ค่าหัว": 15,
  "ไห่": 15,
  "บัญชีดำ": 15,
  "นาม": 15,
  "id@@": 15,
  "ขัด@@": 15,
  "ยอมให้": 15,
  "1700": 15,
  "สตูดิโอ": 15,
  "ไหมพรม": 15,
  "2220": 15,
  "ใช้ประโยชน์": 15,
  "การจัดจำหน่าย": 15,
  "สั่งการ": 15,
  "้า": 15,
  "สปอ": 15,
  "แบ@@": 15,
  "215": 15,
  "ะ@@": 15,
  "ดวงจันทร์": 15,
  "672": 15,
  "748": 15,
  "บัดนี้": 15,
  "มาลี": 15,
  "จระเข้": 15,
  "เงินเดือน": 15,
  "พอเพียง": 15,
  "ho@@": 15,
  "การผจญภัย": 15,
  "ทิศใต้": 15,
  "ควบคู่": 15,
  "208": 15,
  "ซัมเมอร์": 15,
  "ต้องหา": 15,
  "ร้อนใน": 15,
  "จุดชมวิว": 15,
  "เฟท": 15,
  "ไวน์": 15,
  "272": 15,
  "มุ่ง": 15,
  "นอก@@": 15,
  "นาฏศิลป์": 15,
  "178": 15,
  "รอยสัก": 15,
  "ลำคอ": 15,
  "จากไป": 15,
  "กว้างขวาง": 15,
  "ใช้เวลานาน": 15,
  "Z": 15,
  "มีส่วนร่วม": 15,
  "เจีย": 15,
  "ทุ่ง": 15,
  "475": 15,
  "ก่อ@@": 14,
  "ไม@@": 14,
  "ั@@": 14,
  "แจ็ค": 14,
  "ลัง": 14,
  "op@@": 14,
  "กล่าวว่า": 14,
  "นำไปสู่": 14,
  "หว@@": 14,
  "710": 14,
  "1100": 14,
  "ครัว": 14,
  "เฉ": 14,
  "4076": 14,
  "คบ": 14,
  "ทำกิจกรรม": 14,
  "DI@@": 14,
  "การพักผ่อน": 14,
  "ลาจาก": 14,
  "เกียรติ": 14,
  "เป็นปกติ": 14,
  "ro@@": 14,
  "ภูผา": 14,
  "การประมวลผล": 14,
  "4763": 14,
  "การระคายเคือง": 14,
  "นำร่อง": 14,
  "พาส": 14,
  "วูด": 14,
  "ใต้เท้า": 14,
  "เจาะจง": 14,
  "2289": 14,
  "กดขี่": 14,
  "๑๒": 14,
  "เดินผ่าน": 14,
  "490": 14,
  "รำ": 14,
  "ไป@@": 14,
  "อันที่จริง": 14,
  "สัญชาตญาณ": 14,
  "ตารางเมตร": 14,
  "108000": 14,
  "หนาน": 14,
  "ื่@@": 14,
  "2674": 14,
  "พั@@": 14,
  "ยามา": 14,
  "ถอย": 14,
  "301": 14,
  "การเขียน": 14,
  "TA": 14,
  "เร็ก·": 14,
  "วันอาทิตย์": 14,
  "ไร้กังวล": 14,
  "ปิด@@": 14,
  "คิรี": 14,
  "บุปผา": 14,
  "ไมครอน": 14,
  "เว่อร์": 14,
  "วิชาชีพ": 14,
  "หนวดเครา": 14,
  "บทเรียน": 14,
  "เช่นเดียวกัน": 14,
  "ชั้น@@": 14,
  "tion": 14,
  "สั่งสอน": 14,
  "ประเด็น": 14,
  "ประจำเดือน": 14,
  "เหงือก": 14,
  "คํา": 14,
  "ผู้บัญชา": 14,
  "เรเดียน": 14,
  "77": 14,
  "000": 14,
  "การสลับ": 14,
  "ซึมซับ": 14,
  "พวกพ้อง": 14,
  "ขรุขระ": 14,
  "สถานที่ก่อสร้าง": 14,
  "หาร": 14,
  "372": 14,
  "3985": 14,
  "ป๊อป": 14,
  "นี้แหละ": 14,
  "บทเพลง": 14,
  "เส้นตรง": 14,
  "ํา@@": 14,
  "ๆคน": 14,
  "11.@@": 14,
  "กีฬากลางแจ้ง": 14,
  "ผ": 14,
  "885": 14,
  "ไมล์": 14,
  "เครื่องวัด": 14,
  "คร่า": 14,
  "171": 14,
  "HUD": 14,
  "ต่อหัว": 14,
  "จัดกลุ่ม": 14,
  "ประคบ": 14,
  "เม็กซิโก": 14,
  "หยดน้ำ": 14,
  "แล็ปท็อป": 14,
  "าย": 14,
  "เซิร์ฟ@@": 14,
  "เล่าเรื่อง": 14,
  "ความอ่อนโยน": 14,
  "การระงับ": 14,
  "ที่ระลึก": 14,
  "4585": 14,
  "จัดตั้ง": 14,
  "ul@@": 14,
  "0,000": 14,
  "สุนทรียศาสตร์": 14,
  "แอฟริกาใต้": 14,
  "ลิขิต": 14,
  "กระเป๋าเดินทาง": 14,
  "ดับ@@": 14,
  "ความงดงาม": 14,
  "กลางอากาศ": 14,
  "ap@@": 14,
  "530": 14,
  "โลว์": 14,
  "MP": 14,
  "246": 14,
  "ขุนพล": 14,
  "ความน่ารัก": 14,
  "หนังสือเดินทาง": 14,
  "ตง": 14,
  "ใยสังเคราะห์": 14,
  "เด็กทารก": 14,
  "ชั้นนอก": 14,
  "รับสมัคร": 14,
  "เป็นเกียรติ": 14,
  "：%": 14,
  "ม่าน": 14,
  "241": 14,
  "บทกวี": 14,
  "แต่กลับ": 14,
  "หน": 14,
  "เปิดช่อง": 14,
  "]": 14,
  "เกิดเรื่อง": 14,
  "คอจีน": 14,
  "ข้อเท็จจริง": 14,
  "46@@": 14,
  "ติ้ง": 14,
  "เชียว": 14,
  "เบิก": 14,
  "กรู": 14,
  "น้องสาว": 14,
  "ปรูด": 14,
  "คลอ": 14,
  "โดยสิ้นเชิง": 14,
  "EL": 14,
  "จักรยาน": 14,
  "อริ": 14,
  "โดยบังเอิญ": 14,
  "ong": 14,
  "STR": 14,
  ",000": 14,
  "ล้อเล่น": 14,
  "โอโซน": 14,
  "00000": 14,
  "บรรพกาล": 14,
  "หลักเกณฑ์": 14,
  "191": 14,
  "มต": 14,
  "ความสง่า": 14,
  "เบี่ยงเบน": 14,
  "ลุ": 14,
  "บริวาร": 14,
  "ที่ยอมรับ": 14,
  "เส้นผ่านศูนย์กลาง": 14,
  "โซโล่": 14,
  "1314": 14,
  "(“": 14,
  "อับอาย": 14,
  "หนังไก่": 14,
  "น้ำเหลือง": 14,
  "สรรพคุณ": 14,
  "พิชิต": 14,
  "=@@": 14,
  "โคล": 14,
  "การสวม": 14,
  "ฟท์": 14,
  "อเวจี": 14,
  "om@@": 14,
  "เชิงพาณิชย์": 14,
  "el": 14,
  "ยากลำบาก": 14,
  "กระทำ": 14,
  "ต่อจากนี้": 14,
  "กองทุน": 14,
  "ส่วนกลาง": 14,
  "401": 14,
  "ทดแทน": 14,
  "กห": 14,
  "โชคร้าย": 14,
  "ตอน@@": 14,
  "สยบ": 14,
  "ชุน": 14,
  "มั@@": 14,
  "ไฟไหม้": 14,
  "พังทลาย": 14,
  "592": 14,
  "ขี้หู": 14,
  "_#*": 14,
  "แปรงฟัน": 14,
  "404": 14,
  "ถ้วน": 14,
  "สอด": 14,
  "กุมภาพันธ์": 14,
  "LO@@": 14,
  "บังเอิญ": 14,
  "+%": 14,
  "ระเบียบ": 14,
  "ที่มั่น": 14,
  "ิม": 14,
  "ื่อ": 14,
  "องค์": 14,
  "RMB": 14,
  "ใช้ไม่ได้": 14,
  "ใครๆ": 14,
  "เมืองร้าง": 14,
  "เดินเล่น": 14,
  "คุณภาพชีวิต": 14,
  "สาหร่าย": 14,
  "เปิดร้าน": 14,
  "เจ้าที่": 14,
  "วัดอุณหภูมิ": 14,
  "ชู่": 14,
  "ว้ะ": 14,
  "บูชายัญ": 14,
  "%】【": 14,
  "ปฏิสัมพันธ์": 14,
  "3.1": 14,
  "คนอื่นๆ": 14,
  "ลงตัว": 14,
  "5625": 14,
  "น้ำฝน": 14,
  "ความลึกลับ": 14,
  "รวย": 14,
  "น้ํา": 14,
  "ค่าขนส่ง": 14,
  "2600": 14,
  "ทำซ้ำ": 14,
  "ฟ้าผ่า": 14,
  "เฉ@@": 14,
  "173": 14,
  "69": 14,
  "11300": 14,
  "เปล่งปลั่ง": 14,
  "แป้ง": 14,
  "ออสเตรีย": 13,
  "ละออง": 13,
  "24000": 13,
  "กรรมวิธี": 13,
  "443": 13,
  "กันและกัน": 13,
  "156": 13,
  "พิกเซล": 13,
  "หมัด": 13,
  "อ๋อง": 13,
  "ANG": 13,
  "ตาง": 13,
  "กำ": 13,
  "เงินทอง": 13,
  "：@@": 13,
  "ประมูล": 13,
  "？\\": 13,
  "อาคม": 13,
  "IM@@": 13,
  "รีเทิร์น": 13,
  "ถาด": 13,
  "เปลี่ยนเส้นทาง": 13,
  "โฮม": 13,
  ".2": 13,
  "wifi": 13,
  "、ขน": 13,
  "ภาพวาด": 13,
  "คลอรีน": 13,
  "414": 13,
  "ทั้งปี": 13,
  "670": 13,
  "จับ@@": 13,
  "ป่ะ": 13,
  "565": 13,
  "พอง": 13,
  "ผมหยิก": 13,
  "407": 13,
  "เห็นชอบ": 13,
  "ทดลองใช้": 13,
  "แรง@@": 13,
  "เป็นระบบ": 13,
  "www": 13,
  "CPU": 13,
  "ครู่": 13,
  "บ้าบิ่น": 13,
  "บันเทิง": 13,
  "343": 13,
  "หันหน้า": 13,
  "เมื่อ@@": 13,
  "อับ": 13,
  "เหมือนว่า": 13,
  "ขอแต่งงาน": 13,
  "HJ": 13,
  "ค้อน": 13,
  "ทั้งคืน": 13,
  "9.@@": 13,
  "โดยประมาณ": 13,
  "โง่": 13,
  "116": 13,
  "ทำลายล้าง": 13,
  "โดยรอบ": 13,
  "จิง": 13,
  "มหาสมุทร": 13,
  "256": 13,
  "แ": 13,
  "ตลอดจน": 13,
  "มีฝีมือ": 13,
  "312": 13,
  "ภูมิใจ": 13,
  "เวียนหัว": 13,
  "ดุร้าย": 13,
  "หลบหนี": 13,
  "ขยายเวลา": 13,
  "มาแรง": 13,
  "เลี้ยงดู": 13,
  "เบสบอล": 13,
  "ว่าที่": 13,
  "12000": 13,
  "8750": 13,
  "ฝีเท้า": 13,
  "จดจำ": 13,
  "พองลม": 13,
  "สิทธิประโยชน์": 13,
  "ค้นพบ": 13,
  "ุด": 13,
  "ื่ม": 13,
  "มูล": 13,
  "โปรโมชัน": 13,
  "นักบุญ": 13,
  "งด": 13,
  "79": 13,
  "น้อง": 13,
  "ตรวจหา": 13,
  "74": 13,
  "2100": 13,
  "ปวดหลัง": 13,
  "264": 13,
  "คำร้อง": 13,
  "9950": 13,
  "หัวแหลม": 13,
  "เส้นประสาท": 13,
  "อายุขัย": 13,
  "เมื่อไหร่": 13,
  "20200": 13,
  "สีหน้า": 13,
  "ร้าว": 13,
  "Kai": 13,
  "เอาใจ": 13,
  "หลุมพราง": 13,
  "เดี๋ยวก่อน": 13,
  "คนแก่": 13,
  "ทร@@": 13,
  "จุดสำคัญ": 13,
  "ลฟ์*": 13,
  "แพน": 13,
  "ปรู": 13,
  "ชิน": 13,
  "อนุญาโตตุลาการ": 13,
  "50@@": 13,
  "167": 13,
  "·เฉียน·": 13,
  "เซิร์ฟ】": 13,
  "1401002162": 13,
  "แผนผัง": 13,
  "ความบันเทิง": 13,
  "การรั่วไหล": 13,
  "สิงห์": 13,
  "เปป": 13,
  "เสียงเพลง": 13,
  "106": 13,
  "การพ่น": 13,
  "ฟ้อง": 13,
  "LI@@": 13,
  "พี่น้อง": 13,
  "ลิ้นชัก": 13,
  "เฟส": 13,
  "เป็นสนิม": 13,
  "หุ่น": 13,
  "ั": 13,
  "ดื้อรั้น": 13,
  "ห้องครัว": 13,
  "ไลค์": 13,
  "พุธ": 13,
  "อย@@": 13,
  "ปาก@@": 13,
  "ก่อนเวลา": 13,
  "รหัสไปรษณีย์": 13,
  "เข้าหู": 13,
  "กระทั่ง": 13,
  "346": 13,
  "คาง": 13,
  "437": 13,
  "คัดค้าน": 13,
  "พอร์ต": 13,
  "IPX": 13,
  "จัตุรัส": 13,
  "ความสนุก": 13,
  "2.7": 13,
  "4.3": 13,
  "ผู้บังคับบัญชา": 13,
  ";ดรอป": 13,
  "แค้น": 13,
  "ไฟฟ้าสถิต": 13,
  "การจำแนก": 13,
  "พีวีซี": 13,
  "เบื้องบน": 13,
  "ดำน้ำ": 13,
  "by": 13,
  "บัฟบน": 13,
  "ความยากลำบาก": 13,
  "เข้าใจผิด": 13,
  "หมอบ": 13,
  "★★★": 13,
  "เป็นได้": 13,
  "3625": 13,
  "โห": 13,
  "น่าสงสาร": 13,
  "อุดมคติ": 13,
  "ปรับตัว": 13,
  "en": 13,
  "รับทราบ": 13,
  "ส่วนมาก": 13,
  "il@@": 13,
  "ไกด์": 13,
  ".%": 13,
  "หลังคา": 13,
  "201": 13,
  "ทิช": 13,
  "13.@@": 13,
  "ad@@": 13,
  "โลชั่น": 13,
  "โอ้": 13,
  "พอ@@": 13,
  "515": 13,
  "วสกิลด์": 13,
  "★★★★★": 13,
  "ซินเจียง": 13,
  "เพรียวลม": 13,
  "อารมณ์ดี": 13,
  "้อ@@": 13,
  "สมุดบันทึก": 13,
  "โครงร่าง": 13,
  "คนดี": 13,
  "อร์@@": 13,
  "ทอด": 13,
  "เมื่อยล้า": 13,
  "กันแสง": 13,
  "กันเอง": 13,
  "จั๊ม": 13,
  "หนี้": 13,
  "ซ.": 13,
  "ร่วม@@": 13,
  "มู": 13,
  "268": 13,
  "เรียนจบ": 13,
  "โน้ตบุ๊ค": 13,
  "สินค้าหลัก": 13,
  "พระพุทธองค์": 13,
  "164": 13,
  "คอนโทรล": 13,
  "โรค@@": 13,
  "โดยละเอียด": 13,
  "ระยิบระยับ": 13,
  "หยิก": 13,
  "๑๐": 13,
  "อ่อนหวาน": 13,
  "OR@@": 13,
  "โก้": 13,
  "บ่าย": 13,
  "),": 13,
  "ทุกชนิด": 13,
  "48@@": 13,
  "AN@@": 13,
  "ช่วยกัน": 13,
  "70170": 13,
  "อุป@@": 13,
  "รู@@": 13,
  "ของจำเป็น": 13,
  "หัน": 13,
  "มิ@@": 13,
  "นิทาน": 13,
  "แพนด้า": 13,
  "ปารีส": 13,
  "ล่าช้า": 13,
  "ผิด@@": 13,
  "คนละ": 13,
  "ปรุง": 13,
  "โบยบิน": 13,
  "จัดเรียง": 13,
  "โมจิ": 13,
  "ที่พัก": 13,
  "หู@@": 13,
  "แฝด": 13,
  "ให้หน้า": 13,
  "ยม": 13,
  "สหภาพ": 13,
  "ลัก": 13,
  "มะ@@": 13,
  "จรัส": 13,
  "นารี": 13,
  "เยือกแข็ง": 13,
  "เป็นพิษ": 13,
  "num": 13,
  "qu@@": 13,
  "เหี่ยวย่น": 13,
  "กู้ยืม": 13,
  "เพียงผู้เดียว": 13,
  "คนรับใช้": 13,
  "องศาเซลเซียส": 13,
  "ทุกสิ่งทุกอย่าง": 13,
  "สนอง": 13,
  "、@@": 13,
  "สายลับ": 13,
  "888": 13,
  "แข็งตัว": 13,
  "ประทับตรา": 13,
  "•": 13,
  "①": 13,
  "คอ@@": 13,
  "อี้": 13,
  "ip@@": 13,
  "สกรีน": 12,
  "ฝ่าฝืน": 12,
  "งานหลัก": 12,
  "ลำแสง": 12,
  "ไตร": 12,
  "โกลด์": 12,
  "ถึงขนาด": 12,
  "ตะแกรง": 12,
  "กระดูกอ่อน": 12,
  "Pro": 12,
  "เจ๋อ": 12,
  "กรง": 12,
  "เปา": 12,
  "คันเบ็ด": 12,
  "ทางไกล": 12,
  "|>": 12,
  "ย่อท้อ": 12,
  "พู่กัน": 12,
  "เพ้อฝัน": 12,
  "จำไว้": 12,
  "ตลก": 12,
  "ภ@@": 12,
  "เครื่องตกแต่ง": 12,
  "หาไม่": 12,
  "61": 12,
  "รองหัวหน้า": 12,
  "อัน@@": 12,
  "ที่ราบ": 12,
  "ทางเหนือ": 12,
  "เกี่ยวเนื่อง": 12,
  "ซิลเวอร์": 12,
  "46780": 12,
  "；\\": 12,
  "นร": 12,
  "ร่าเริง": 12,
  "ed": 12,
  "ความสูญเสีย": 12,
  "ู่": 12,
  "น้ำสะอาด": 12,
  "st": 12,
  "มั่ง": 12,
  "กสทช.": 12,
  "เผ็ดร้อน": 12,
  "คงตัว": 12,
  "สาระสำคัญ": 12,
  "151": 12,
  "น่าเกรงขาม": 12,
  "14.5": 12,
  "0.6": 12,
  "ผลได้": 12,
  "บังกะโล": 12,
  "สนาม@@": 12,
  "จด": 12,
  "ตะกั่ว": 12,
  "เฟือง": 12,
  "ผู้ชม": 12,
  "800000": 12,
  "ี่@@": 12,
  "กะ@@": 12,
  "บิต": 12,
  "ิน@@": 12,
  "สาธิต": 12,
  "นับถือ": 12,
  "MATSUYAMA": 12,
  "น*": 12,
  "179": 12,
  "แก้วน้ำ": 12,
  "กลียุค": 12,
  "ถ่าย@@": 12,
  "ชา@@": 12,
  "ซุ่ม": 12,
  "ยัย": 12,
  "PE@@": 12,
  "ความเชื่อ": 12,
  "เชิญชวน": 12,
  "รีโมท": 12,
  "143": 12,
  "คอร์": 12,
  "ชน@@": 12,
  "จู้จี้จุกจิก": 12,
  "ปริมาณมาก": 12,
  "นั่นสิ": 12,
  "ปลา@@": 12,
  "ON@@": 12,
  "242": 12,
  "ภาพลวงตา": 12,
  "หน้าเป็น": 12,
  "ของฝาก": 12,
  "as@@": 12,
  "สับเปลี่ยน": 12,
  "สีผม": 12,
  "โรคจมูกอักเสบ": 12,
  "สูญหาย": 12,
  "บั@@": 12,
  "จำแลง": 12,
  "แนล": 12,
  "เจริญ": 12,
  "SU@@": 12,
  "เจี้ยน@@": 12,
  "เงินกู้": 12,
  "ลังเล": 12,
  "ถ": 12,
  "บอกเล่า": 12,
  "hy@@": 12,
  "อัง": 12,
  "ถา": 12,
  "ผู้ติดตาม": 12,
  "อย่างเช่น": 12,
  "_#！": 12,
  "แสตมป์": 12,
  "ตะกอน": 12,
  "2000000": 12,
  "สาม@@": 12,
  "ตำรวจ": 12,
  "ประสงค์": 12,
  "123": 12,
  "421": 12,
  "รวมทั้งหมด": 12,
  "960": 12,
  "ขอบใจ": 12,
  "สี่เหลี่ยมผืนผ้า": 12,
  "จื่อ": 12,
  "3945": 12,
  "335": 12,
  "ภาระหน้าที่": 12,
  "กำหนดการ": 12,
  "ปลูกฝัง": 12,
  "จืดจาง": 12,
  "ด้วยซ้ำ": 12,
  "งานบริหาร": 12,
  "มงคล": 12,
  "ำ@@": 12,
  "ส่งต่อ": 12,
  "เต่งตึง": 12,
  "36000": 12,
  "แอก": 12,
  "134": 12,
  "โครเมียม": 12,
  "ปวดร้าว": 12,
  "กษัตริย์": 12,
  "เปิด@@": 12,
  "Zen": 12,
  "170@@": 12,
  "แผ่": 12,
  "ตุ่ม": 12,
  "ความทุกข์": 12,
  "mAh": 12,
  "ความตึงเครียด": 12,
  "ช่าง@@": 12,
  "ปฐพี": 12,
  "ปริศนา": 12,
  "Jin": 12,
  "355": 12,
  "เตอร์": 12,
  "176": 12,
  "ยื่นคำร้อง": 12,
  "it@@": 12,
  "ไฮโดร": 12,
  "512": 12,
  "368": 12,
  "j@@": 12,
  "259": 12,
  "ขอ@@": 12,
  "หุ่นยนต์": 12,
  "ต้ม": 12,
  "1750": 12,
  "เลื่อก": 12,
  "อัตราภาษี": 12,
  "\\\"": 12,
  "ชั@@": 12,
  "รู้ดี": 12,
  "สารวัตรทหาร": 12,
  "ผู้ยิ่งใหญ่": 12,
  "เที่ยง": 12,
  "การจราจร": 12,
  "ดวงวิญญาณ": 12,
  "ตัวเรา": 12,
  "ผัน": 12,
  "แทบ": 12,
  "กลิ่นอาย": 12,
  "กลุ่มอายุ": 12,
  "Mana": 12,
  "me@@": 12,
  "มีระบบ": 12,
  "โลจิสติกส์": 12,
  "ค่าตอบแทน": 12,
  "ค่อม": 12,
  "สุข@@": 12,
  "ว่าน": 12,
  "กำ@@": 12,
  "ลฟ์·": 12,
  "ว่าจ้าง": 12,
  "เบรค": 12,
  "…": 12,
  "เค้ก": 12,
  "ไฮไลท์": 12,
  "โดยเฉลี่ย": 12,
  "เพื่อนสนิท": 12,
  "แสดง@@": 12,
  "เถิด": 12,
  "2007": 12,
  "น้ำเต้า": 12,
  "รากผม": 12,
  "การขี่": 12,
  "349": 12,
  "ห้องปฏิบัติการ": 12,
  "ตึก": 12,
  "XXX": 12,
  "692": 12,
  "กักขัง": 12,
  "เติมเต็ม": 12,
  "บิชอป": 12,
  "ความสงบ": 12,
  "รุก": 12,
  "สบายดี": 12,
  "ศรี": 12,
  "ไลม์": 12,
  "ราชครู": 12,
  "ตามจริง": 12,
  "ใบกำกับภาษี": 12,
  "สามัญ": 12,
  "ปุ่มกด": 12,
  "ปรับระดับ": 12,
  "ฟิสิกส์": 12,
  "เชฟ": 12,
  "ฉลาก": 12,
  "ฟอกขาว": 12,
  "ครั้งแล้วครั้งเล่า": 12,
  "DIY": 12,
  "ช่วยด้วย": 12,
  "นต์": 12,
  "เส้นเอ็น": 12,
  "เป็นธรรมดา": 12,
  "อัตราแลกเปลี่ยน": 12,
  "Pyou": 12,
  "ร้ายกาจ": 12,
  "เงามืด": 12,
  "ษ": 12,
  "XL": 12,
  "วด": 12,
  "ึ": 12,
  "มี่": 12,
  "ตระกูล": 12,
  "แพร่": 12,
  "น่าสะพรึงกลัว": 12,
  "เป็นกลาง": 12,
  "ดา@@": 12,
  "น็อค": 12,
  "ที่แท้": 12,
  "ให้รางวัล": 12,
  "ไหร่": 12,
  "แยกประเภท": 12,
  "เพลิน": 12,
  "สู้รบ": 12,
  "หลง@@": 12,
  "％": 12,
  "บรรเลง": 12,
  "เก๋": 12,
  "บัลเล่ต์": 12,
  "นาฬิกาปลุก": 12,
  "สปอนเซอร์": 12,
  "639": 12,
  "ซอง": 12,
  "มิวสิค": 12,
  "ภูมิแพ้": 12,
  "ปิ่น": 12,
  "สิ้นเปลือง": 12,
  "ถุงลมนิรภัย": 12,
  "หือ": 12,
  "740": 12,
  "ัง": 12,
  "เก็บภาษี": 12,
  "ล้มละลาย": 12,
  "เป็นไป": 12,
  "แว@@": 12,
  "การเข้าสู่": 12,
  "ชะลอ": 12,
  "โน@@": 12,
  "การร้อย": 12,
  "ค่ารักษา": 12,
  "NO": 12,
  "แท@@": 12,
  "ประจัญบาน": 12,
  "มุง": 12,
  "ศาลา": 12,
  "กำหนดให้": 12,
  "สั่งจอง": 12,
  "ผู": 12,
  "นกยูง": 12,
  "แฟนตาซี": 12,
  "บัตรประชาชน": 12,
  "คําขอ": 12,
  "bi@@": 12,
  "ข้อศอก": 12,
  "ตัวเมือง": 12,
  "เยื่อ": 12,
  "ละเมิดลิขสิทธิ์": 12,
  "โมง": 12,
  "ฝืน": 12,
  "24.00": 12,
  "177": 12,
  "คค": 12,
  "Sha": 12,
  "เด็กแรกเกิด": 12,
  "อ็อกซ์ฟอร์ด": 12,
  "โตะ": 12,
  "su@@": 12,
  "วาว": 12,
  "มีหน้า": 12,
  "วิ่น": 12,
  "ก๊อกน้ำ": 12,
  "it": 12,
  "เวลาปิด": 12,
  "Ma@@": 12,
  "เป็นบ้า": 12,
  "ด้วยดี": 12,
  "236": 12,
  "ดวงอาทิตย์": 12,
  "จน@@": 12,
  "5312": 12,
  "เฉพาะที่": 12,
  "น่ารำคาญ": 12,
  "เมา": 12,
  "ไม": 12,
  "เร่งรัด": 12,
  "ตู": 12,
  "กลับคืน": 12,
  "แล้วไป": 12,
  "ฤทธิ์": 12,
  "ให้@@": 12,
  "สะกด": 12,
  ".4": 12,
  "4057": 12,
  "วัตต์": 12,
  "338": 12,
  "ความเหมาะสม": 12,
  "ธนบัตร": 12,
  "นางสาว": 11,
  "เสพ": 11,
  "sp@@": 11,
  "ฟื้นตัว": 11,
  "โลหะหนัก": 11,
  "300@@": 11,
  "โพลิเมอร์": 11,
  "อย่าง@@": 11,
  "1200000": 11,
  "สินสอด": 11,
  "แบบพิมพ์": 11,
  "กด@@": 11,
  "หยุ": 11,
  "ไคลเอนต์": 11,
  "Rin": 11,
  "】@@": 11,
  "แนะ": 11,
  "กลายพันธุ์": 11,
  "เครดิต": 11,
  "การทำลายล้าง": 11,
  "คาดไม่ถึง": 11,
  "หนาวเย็น": 11,
  "วาย": 11,
  "ีบ": 11,
  "ห์": 11,
  "ค่าชดเชย": 11,
  "ลอบ": 11,
  "11310": 11,
  "ศาสนา": 11,
  "เทนนิส": 11,
  "235": 11,
  "รับสัญญาณ": 11,
  "โอเวอร์": 11,
  "สล็อต": 11,
  "ความสมบูรณ์": 11,
  "รมยา": 11,
  "ชั้นเดียว": 11,
  "717": 11,
  "②": 11,
  "จร": 11,
  "โจรสลัด": 11,
  "กรวย": 11,
  "เมื่อไร": 11,
  "๊@@": 11,
  "ราวกับว่า": 11,
  "ยัน": 11,
  "307": 11,
  "จิมมี่": 11,
  "เข้าบัญชี": 11,
  "เส้น@@": 11,
  "ชุ่มชื่น": 11,
  "ออ@@": 11,
  "มืน": 11,
  "สมัยโบราณ": 11,
  "ชี้ขาด": 11,
  "ด้วยเหตุนี้": 11,
  "ื่น": 11,
  "หอย": 11,
  "762": 11,
  "ราคาแพง": 11,
  "จัดวาง": 11,
  "ข่าวลือ": 11,
  "สรรพสิ่ง": 11,
  "Flyknit": 11,
  "อาหารเช้า": 11,
  "รุ่งเรือง": 11,
  "สมัยนี้": 11,
  "ทักทาย": 11,
  "3.0": 11,
  "การแย่งชิง": 11,
  "ความยาวคลื่น": 11,
  "สุขสันต์": 11,
  "รัก@@": 11,
  "18485": 11,
  "สวิส": 11,
  "วัยหนุ่มสาว": 11,
  "เลขประจำตัว": 11,
  "เที่ย】": 11,
  "รว@@": 11,
  "เอี๊ยม": 11,
  "ag@@": 11,
  "อัคคีภัย": 11,
  "ไร้สาระ": 11,
  "สตาร์ท": 11,
  "แฟลต": 11,
  "ตื้น": 11,
  "เฟรม": 11,
  "แป@@": 11,
  "เจิด": 11,
  "ภรรยา": 11,
  "126": 11,
  "ถัว": 11,
  "เจ้าเมือง": 11,
  "ร้า": 11,
  "โร@@": 11,
  "J": 11,
  "เบรก": 11,
  "หักหลัง": 11,
  "หน้าผา": 11,
  "ซ้ำๆ": 11,
  "ลิป": 11,
  "ฉี": 11,
  "ผู้มีอำนาจ": 11,
  "พฤหัส": 11,
  "2.75": 11,
  "696": 11,
  "ช่องหู": 11,
  "งกัส·": 11,
  "@": 11,
  "มานะ": 11,
  "113": 11,
  "-Debuff": 11,
  "222": 11,
  "มูลค่าเพิ่ม": 11,
  "us@@": 11,
  "ขึ้น@@": 11,
  "การยศาสตร์": 11,
  "วงดุริยางค์": 11,
  "แพร": 11,
  "ความมีชีวิตชีวา": 11,
  "ให้ความร่วมมือ": 11,
  "ทั่วหล้า": 11,
  "3660": 11,
  "162": 11,
  "มีราคา": 11,
  "TI@@": 11,
  "สับ": 11,
  "ให้คะแนน": 11,
  "จวน": 11,
  "●": 11,
  "11520": 11,
  "เก็ต": 11,
  "25500": 11,
  "2303": 11,
  "1054": 11,
  "เครื่องหมายการค้า": 11,
  "เสนห": 11,
  "4101": 11,
  "พื้น@@": 11,
  "แซก": 11,
  "อิฟ": 11,
  "การแกะสลัก": 11,
  "7500": 11,
  "เขตแดน": 11,
  "กลางคัน": 11,
  "พฤติ": 11,
  "เสี่ยง": 11,
  "สงบ@@": 11,
  "กรุงเทพมหานคร": 11,
  "การประชุม": 11,
  "จังหวัด": 11,
  "แร": 11,
  "%%</": 11,
  "เส้นเมอริเดียน": 11,
  "10.@@": 11,
  "สวนสนุก": 11,
  "สืบ": 11,
  "คุมขัง": 11,
  "ดับไฟ": 11,
  "เหงา": 11,
  "ป่าไม้": 11,
  "เพดาน": 11,
  "รีดผ้า": 11,
  "599": 11,
  "บัฟเฟอร์": 11,
  "สัญญาซื้อขาย": 11,
  "เด็กสาว": 11,
  "ตอนบ่าย": 11,
  "็น": 11,
  "เท็จ": 11,
  "40@@": 11,
  "เงียบๆ": 11,
  "449": 11,
  "ดั@@": 11,
  "0.7": 11,
  "EXCEL": 11,
  "คืนให้": 11,
  "12510": 11,
  "จำ@@": 11,
  "่อง": 11,
  "14000": 11,
  "ฮู": 11,
  "แอ@@": 11,
  "อำนวยความสะดวก": 11,
  "มะเร็ง": 11,
  "ซี@@": 11,
  "405": 11,
  "ความอดทน": 11,
  "3840": 11,
  "์ม": 11,
  "166": 11,
  "หนวกหู": 11,
  "ฟาร์ม": 11,
  "เนื้อ@@": 11,
  "ทางใน": 11,
  "งง": 11,
  "มีความสำคัญ": 11,
  "โช": 11,
  "ย้อน": 11,
  "558": 11,
  "364": 11,
  "จักรเย็บผ้า": 11,
  "ดิก": 11,
  "สร้าง@@": 11,
  "แต่ก่อน": 11,
  "e-@@": 11,
  "187": 11,
  "เชื่อฟัง": 11,
  "กลศาสตร์": 11,
  "มีโอ": 11,
  "อัปสร": 11,
  "UN@@": 11,
  "ห่อของขวัญ": 11,
  "คุณสมบัติพิเศษ": 11,
  "ดล": 11,
  "ไขว้": 11,
  "หรับ": 11,
  "09": 11,
  "โพรงจมูก": 11,
  "iOS": 11,
  "Re@@": 11,
  "ค้นคว้า": 11,
  ")\\": 11,
  "！！！": 11,
  "ซือ": 11,
  "นำเสนอ": 11,
  ".,": 11,
  "จะแจ้ง": 11,
  "มต@@": 11,
  "ลำพัง": 11,
  "ลูบ": 11,
  "มีตระกูล": 11,
  "การอธิบาย": 11,
  "คนเอเชีย": 11,
  "พึ่ง": 11,
  "เชิงเส้น": 11,
  "หมิง": 11,
  "นํา": 11,
  "EN": 11,
  "มวลชน": 11,
  "ทัณฑ์": 11,
  "โวการ": 11,
  "Tou": 11,
  "สถานประกอบการ": 11,
  "455": 11,
  "4.4": 11,
  "ยกขึ้น": 11,
  "แป้น": 11,
  "พัลส์": 11,
  "วดี": 11,
  "2008": 11,
  "ให้เสียง": 11,
  "527": 11,
  "การสู่ขอ": 11,
  "เจี้ยน、": 11,
  "การเคลือบ": 11,
  "147": 11,
  "ซีด": 11,
  "แสงจันทร์": 11,
  "ยอดจาก": 11,
  "427": 11,
  "มาเลเซีย": 11,
  "ย่อ": 11,
  "ประดิษฐ์": 11,
  "ขัดจังหวะ": 11,
  "ในเวลานี้": 11,
  "ถือกำเนิด": 11,
  "มื้อ": 11,
  "3931": 11,
  "นี@@": 11,
  "13282": 11,
  "น้า": 11,
  "850": 11,
  "LION": 11,
  "เนตร": 11,
  "จัดระเบียบ": 11,
  "308": 11,
  "ฆา": 11,
  "นักกีฬา": 11,
  "ยาง@@": 11,
  "ขั้นพื้นฐาน": 11,
  "แข": 11,
  "ล็อบส": 11,
  "สัตว์ประหลาด": 11,
  "ย่าหยา": 11,
  "หยาบกร้าน": 11,
  "ดวง@@": 11,
  "เชิงกล": 11,
  "มาตรฐานสากล": 11,
  "ผอมบาง": 11,
  "688": 11,
  "แบ่งแยก": 11,
  "แฟ@@": 11,
  "ประกอบธุรกิจ": 11,
  "ข้อสังเกต": 11,
  "มั่งคั่ง": 11,
  "ความชื่นชม": 11,
  "ตลับ": 11,
  "เดือดร้อน": 11,
  "ss": 11,
  "รร": 11,
  "-B": 11,
  "เหวี่ยง": 11,
  "556": 11,
  "ศอก": 11,
  "สิ่งอำนวยความสะดวก": 11,
  "วส】": 11,
  "142": 11,
  "668": 11,
  "การบำบัด": 11,
  "356": 11,
  "กลัก": 11,
  "1.8": 11,
  "ท้อ": 11,
  "หิว": 11,
  "ฟัก": 11,
  "ทั้งที่": 11,
  "ความก้าวหน้า": 11,
  "กลมกลืน": 11,
  "ดาว@@": 11,
  "น่าตื่นตาตื่นใจ": 11,
  "610": 11,
  "เป็นงาน": 11,
  "ภา@@": 11,
  "180000": 11,
  "?@@": 11,
  "ล+": 11,
  "จากกัน": 11,
  "มหายาน": 11,
  "han@@": 11,
  "ประดู่": 11,
  "to@@": 11,
  "เดา": 11,
  "ติก": 11,
  "233": 11,
  "่าน": 11,
  "เร่ร่อน": 11,
  "เซลลูโลส": 11,
  "วม": 11,
  "ดี้": 11,
  "กลา": 11,
  "302": 11,
  "าง": 11,
  "789": 11,
  "ชดใช้": 11,
  "โกดัง": 11,
  "445": 11,
  "เพราะอะไร": 11,
  "ระหว่างทาง": 11,
  "ความดัง": 11,
  "รน": 11,
  "กรรม@@": 11,
  "10500": 11,
  "อียิปต์": 11,
  "ไส": 11,
  "สว@@": 11,
  "เชิง@@": 11,
  "ส่งเสียง": 11,
  "นึง": 11,
  "เหมือง": 11,
  "คอน@@": 11,
  "เป้ากางเกง": 11,
  "รัง@@": 11,
  "เพิ่งจะ": 11,
  "กางเกงขายาว": 11,
  "บ้านเกิด": 11,
  "ขั้นสูงสุด": 11,
  "หลอดเลือดดำ": 11,
  "ตร": 11,
  "ยู@@": 11,
  "สุภาพ": 11,
  "·ลม·": 11,
  "ท้องทะเล": 11,
  "(/)": 11,
  "เด่นชัด": 11,
  "ยอดเขา": 11,
  "ญาติ": 11,
  "เก็บตัว": 11,
  "）@@": 11,
  "พี่ใหญ่": 11,
  "IP@@": 11,
  "บวง": 11,
  "กัลป์": 11,
  "ิ่ง": 11,
  "501": 11,
  "36@@": 11,
  "ำ": 11,
  "148": 11,
  "ทางเศรษฐกิจ": 11,
  "เป็นไง": 11,
  "คุ@@": 11,
  "257": 11,
  "สรูป": 11,
  "326": 11,
  "357": 11,
  "กันต์": 11,
  "ป่าน": 11,
  "หนุ่มสาว": 11,
  "โม@@": 11,
  "ว้าว": 11,
  "วิบัติ": 11,
  "154": 11,
  "Me@@": 11,
  "กลับด้าน": 11,
  "514": 11,
  "ซุป": 11,
  "ตามความเป็นจริง": 11,
  "ลักษณะเฉพาะ": 11,
  "เอย": 11,
  "ขยี้": 11,
  "499": 11,
  "LE@@": 11,
  "เชอ": 11,
  "กู้ภัย": 11,
  "เซน": 11,
  "ผ้าเช็ดตัว": 11,
  "ช่อง@@": 11,
  "กําหนด": 11,
  "พเนจร": 11,
  "เก็บความ": 11,
  "617": 11,
  "แก้แค้น": 10,
  "☆☆·": 10,
  "เชื้อเชิญ": 10,
  "ที่หก": 10,
  "คัล": 10,
  "ไลท์": 10,
  "ราง@@": 10,
  "ม็อบ": 10,
  "6750": 10,
  "เปิดไฟ": 10,
  "เง@@": 10,
  "319": 10,
  "De@@": 10,
  "408": 10,
  "กบฏ": 10,
  "Oppo": 10,
  "369": 10,
  "ฉ่ำ": 10,
  "มาสาย": 10,
  "น่าจะเป็น": 10,
  "เห็นชัด": 10,
  "จำกัดความ": 10,
  "คั่น": 10,
  "ขนส่งสินค้า": 10,
  "ทางซ้าย": 10,
  "QR": 10,
  "เฉิงตู": 10,
  "283": 10,
  "แห": 10,
  "ซิก": 10,
  "วี@@": 10,
  "ประทับ": 10,
  "ลำดับชั้น": 10,
  "สน@@": 10,
  "การประกาศสงคราม": 10,
  "วก": 10,
  "เน": 10,
  "คลื่นความถี่": 10,
  "as": 10,
  "AC": 10,
  "เลื่อม": 10,
  "หลุดพ้น": 10,
  "คนตาย": 10,
  "66@@": 10,
  "111": 10,
  "เย็นชา": 10,
  "นิดหนึ่ง": 10,
  "3.3": 10,
  "ห้องรับแขก": 10,
  "การเงิน": 10,
  "ฟัน@@": 10,
  "คั@@": 10,
  "ขาเข้า": 10,
  "บรรลุเป้าหมาย": 10,
  "1050": 10,
  "แค่นั้น": 10,
  "ปล้น": 10,
  "58@@": 10,
  "คนพูด": 10,
  "ค่อน": 10,
  "ไพลิน": 10,
  "ขออนุญาต": 10,
  "การบวม": 10,
  "IOS": 10,
  "·ซ": 10,
  "ประสาน": 10,
  "ปนเปื้อน": 10,
  "พุ่งชน": 10,
  "เรซิ่น": 10,
  "เห็น@@": 10,
  "406": 10,
  "พันธุ์": 10,
  "คดเคี้ยว": 10,
  "267": 10,
  "ที่อยู่อาศัย": 10,
  "จดสิทธิบัตร": 10,
  "เวลานอน": 10,
  "ยุทธ": 10,
  "เสี้ยว": 10,
  "่ย": 10,
  "กลาก": 10,
  "สักครั้ง": 10,
  "๙": 10,
  "มุม@@": 10,
  "บาล": 10,
  "เวียร": 10,
  "442": 10,
  "การลงนาม": 10,
  "2.8": 10,
  "ชี้แจง": 10,
  "27750": 10,
  "419": 10,
  "471": 10,
  "บลู": 10,
  "พรต": 10,
  "คว๊อทซ์": 10,
  "ประจำ@@": 10,
  "สิ่งใด": 10,
  "คว่ำ": 10,
  "ทางผ่าน": 10,
  "354": 10,
  "1.4": 10,
  "รุ่น": 10,
  "มารยาท": 10,
  "ความดี": 10,
  "ระฆัง": 10,
  "ฉะนั้น": 10,
  "539": 10,
  "บรรยาย": 10,
  "หรั่น": 10,
  "หล่อหลอม": 10,
  "จอภาพ": 10,
  "552": 10,
  "701": 10,
  "715": 10,
  "คุกคาม": 10,
  "กราฟ": 10,
  "LE": 10,
  "ใหม่เอี่ยม": 10,
  "บัตรอวยพร": 10,
  "วอ": 10,
  "มาสก์": 10,
  "461": 10,
  "การยกเว้น": 10,
  "ยง": 10,
  "ซ้ำ@@": 10,
  "303": 10,
  "เหนี่ยว": 10,
  "หนักแน่น": 10,
  "286": 10,
  "ไดอารี่": 10,
  "ัก@@": 10,
  "594": 10,
  "~@@": 10,
  "สหรัฐอาหรับเอมิเรตส์": 10,
  "ยิงกราด": 10,
  "★★": 10,
  "ค้น": 10,
  "ตัวควบคุม": 10,
  "ซุน": 10,
  "อัพโหลด": 10,
  "ad": 10,
  "เด็ก@@": 10,
  "ช่างเถอะ": 10,
  "อ่ะ": 10,
  "ฮ็อต": 10,
  "จสกิล：": 10,
  "ลาย@@": 10,
  "ให้น้ำ": 10,
  "ผู้ใช้บริการ": 10,
  "ผู้เยาว์": 10,
  "โรง@@": 10,
  "XXXX": 10,
  "หลบเลี่ยง": 10,
  "ลมกรด": 10,
  "เปรี้ยว": 10,
  "บอร์น": 10,
  "จค": 10,
  "ชาด": 10,
  "535": 10,
  "797": 10,
  "ตาโต": 10,
  "ความเป็นผู้หญิง": 10,
  "โพลาไรซ์": 10,
  "กะพริบ": 10,
  "ทันทีที่": 10,
  "Di@@": 10,
  "ครั้งหน้า": 10,
  "ตลอดทั้ง": 10,
  "เจริญรุ่งเรือง": 10,
  "บัตรเติมเงิน": 10,
  "322": 10,
  "ยิ@@": 10,
  "277": 10,
  "เปิดปาก": 10,
  "ลดความอ้วน": 10,
  "อล": 10,
  "ผู้ป่วย": 10,
  "ด้อย": 10,
  "ชิงชัย": 10,
  "กระเรียน": 10,
  "พุด": 10,
  "โปรโมท": 10,
  "5220": 10,
  "ลายอย่าง": 10,
  "1350": 10,
  "เฉพาะเจาะจง": 10,
  "ตกแต่งภายใน": 10,
  "เสื่อมสภาพ": 10,
  "ให้คำปรึกษา": 10,
  "593": 10,
  "แคชเมียร์": 10,
  "ความกล้า": 10,
  "เซ็นสัญญา": 10,
  "≥": 10,
  "หยุดนิ่ง": 10,
  "นั้นแหละ": 10,
  "น้องใหม่": 10,
  "144": 10,
  "4053": 10,
  "เครื่องฟอกอากาศ": 10,
  "กองหนุน": 10,
  "743": 10,
  "ข้าง@@": 10,
  "กิโลเมตร": 10,
  "ย์@@": 10,
  "หางจระเข้": 10,
  "466": 10,
  "ไร@@": 10,
  "เภสัชกรรม": 10,
  "อาหารเย็น": 10,
  "ชั้นบน": 10,
  "กระท่อม": 10,
  "บุ@@": 10,
  "721": 10,
  "ซักแห้ง": 10,
  "TPR": 10,
  "ชายฝั่ง": 10,
  "รับคำ": 10,
  "422": 10,
  "ไบ": 10,
  "สำ@@": 10,
  "1120": 10,
  "131": 10,
  "ภาพประกอบ": 10,
  "569": 10,
  "ดิ่ง": 10,
  "พริบตาเดียว": 10,
  "2277": 10,
  "Video": 10,
  "ํ@@": 10,
  "บก": 10,
  "มองว่า": 10,
  "กองไฟ": 10,
  "291": 10,
  "อวดดี": 10,
  "202": 10,
  "อาหาร@@": 10,
  "ซื่อสัตย์": 10,
  "เถาวัลย์": 10,
  "ยี่": 10,
  "ความกล้าหาญ": 10,
  "ของตลาด": 10,
  "770": 10,
  "3888": 10,
  "มีแนวโน้ม": 10,
  "477": 10,
  "279": 10,
  "สาบาน": 10,
  "775": 10,
  "ยินยอม": 10,
  "วย": 10,
  "ออยล์": 10,
  "ลวก": 10,
  "424": 10,
  "เปลือกนอก": 10,
  "ความวุ่นวาย": 10,
  "เรื่องสำคัญ": 10,
  "สักวัน": 10,
  "1399": 10,
  "ออกอากาศ": 10,
  "387": 10,
  "ระยะสั้น": 10,
  "น่ายินดี": 10,
  "มิได้": 10,
  "สินค้า@@": 10,
  "ทวี": 10,
  "กระหายเลือด": 10,
  "To@@": 10,
  "บรรทุก": 10,
  "ทางจิตใจ": 10,
  "590": 10,
  "มือขึ้น": 10,
  "อำนวย": 10,
  "ชัค": 10,
  "750000": 10,
  "2013": 10,
  "น้ำนม": 10,
  "ใช้บน": 10,
  "ให้โอกาส": 10,
  "กระดาน": 10,
  "HD": 10,
  "SVIP": 10,
  "ธุ@@": 10,
  "596": 10,
  "ไ@@": 10,
  "เครื่องเล่น": 10,
  "สอดแนม": 10,
  "เจ้าตัว": 10,
  "สังเวย": 10,
  "หักเห": 10,
  "TPU": 10,
  "น่าทึ่ง": 10,
  "เกร@@": 10,
  "ผู้วางเพลิง": 10,
  "๊ก": 10,
  "ท้องถนน": 10,
  "เต็มกำลัง": 10,
  "รุ่นเก่า": 10,
  "Nm": 10,
  "ใจจริง": 10,
  "บิดเบือน": 10,
  "！@@": 10,
  "ตั้งเวลา": 10,
  "751": 10,
  "สติปัญญา": 10,
  "ลาด": 10,
  "นัล·": 10,
  "จุลินทรีย์": 10,
  "จอห์น": 10,
  "431": 10,
  "คุณหนู": 10,
  "ทิน": 10,
  "ปลอกหมอน": 10,
  "พาณิชย์": 10,
  "un@@": 10,
  "ษ@@": 10,
  "เสียงดนตรี": 10,
  "เข้ากัน": 10,
  "ด์@@": 10,
  "Mobile": 10,
  "663": 10,
  "467": 10,
  "เอาท์": 10,
  "แต็ค": 10,
  "มีอิทธิพล": 10,
  "เครียด": 10,
  "กางปีก": 10,
  "ราชอาณาจักร": 10,
  "เยอรมนี": 10,
  "การรับรู้": 10,
  "โดยไม่รู้ตัว": 10,
  "227": 10,
  "429": 10,
  "วันพรุ่งนี้": 10,
  "591": 10,
  "ขนมปัง": 10,
  "ลิขสิทธิ์": 10,
  "8.4": 10,
  "พรหมลิขิต": 10,
  "แสดงความสามารถ": 10,
  "332": 10,
  "ปริ@@": 10,
  "ชงชา": 10,
  "ต่อย": 10,
  "รุจ": 10,
  "ครอป": 10,
  "SA@@": 10,
  "ปะ": 10,
  "รง": 10,
  "ซัพพลายเออร์": 10,
  "@@": 10,
  "→": 10,
  "573": 10,
  "ฮอร์โมน": 10,
  "BOSSLv": 10,
  "37625": 10,
  "1575": 10,
  "ไขข้อ": 10,
  "ือ@@": 10,
  "เคล@@": 10,
  "นำหน้า": 10,
  "iphone": 10,
  "159": 10,
  "()": 10,
  "716": 10,
  "ตกเป็น": 10,
  "665": 10,
  "การแพทย์": 10,
  "BO@@": 10,
  "ควอตซ์": 10,
  "ู่@@": 10,
  "ขวัญ": 10,
  "อินดี้": 10,
  "ทุกทิศทาง": 10,
  "311": 10,
  "8.5": 10,
  "ไดออกซิน": 10,
  "ชั้นล่าง": 10,
  "Downwind": 10,
  "ชุ่ม": 10,
  "ความยุ่งยาก": 10,
  "ลือ": 10,
  "231": 10,
  "ถอนเงิน": 10,
  "ผู้ต้องโทษ": 10,
  "214": 10,
  "ประสานงาน": 10,
  "516": 10,
  "564": 10,
  "สภาพร่างกาย": 10,
  "รูปสี่เหลี่ยม": 10,
  "มอ@@": 10,
  "8600": 10,
  "ปากปลา": 10,
  "ออกไซด์": 10,
  "ความรุ่งโรจน์": 10,
  "เซิฟ": 10,
  "สายเลือด": 10,
  "แฟก": 10,
  "เรื่องใหญ่": 10,
  "ขอ": 10,
  "น้ำมัน@@": 10,
  "ถือ@@": 10,
  "cut": 10,
  "Top": 10,
  "ต่อราคา": 10,
  "Die": 10,
  "ry": 10,
  "mm@@": 10,
  "ถี่": 10,
  "／": 10,
  "ทร": 10,
  "351": 10,
  "ร้องเพลง": 10,
  "378": 10,
  "·ฝน·": 10,
  "12.@@": 10,
  "วิสาหกิจ": 10,
  "ปะ@@": 10,
  "194": 10,
  "ลำบากใจ": 10,
  "๋อ": 10,
  "พุ@@": 10,
  "รัศมี": 10,
  "รถไฟฟ้า": 10,
  "ชะล้าง": 10,
  "428": 10,
  "*@@": 10,
  "โมเดิร์น": 10,
  "2.6": 10,
  "06": 10,
  "ลวง": 10,
  "Zai": 10,
  "ความในใจ": 10,
  "ถ้าอย่างนั้น": 10,
  "อินเตอร์": 10,
  "ชาติพันธุ์": 10,
  "MI@@": 10,
  "้ย": 10,
  "มีดโกน": 10,
  "GDP": 10,
  "ช็อต": 10,
  "ยว": 10,
  "ยืดตัว": 10,
  "232": 10,
  "521": 10,
  "210510": 10,
  "ปา@@": 10,
  "217": 10,
  "358": 10,
  "426": 10,
  "นท์": 10,
  "11330": 10,
  "109": 10,
  "เป๋า": 10,
  "": 10,
  "ทัศน": 10,
  "เจริญเติบโต": 10,
  "การร้องเรียน": 10,
  "327": 10,
  "0.8": 10,
  "การสืบทอด": 10,
  "หม่า": 10,
  "793": 10,
  "ขึ้นรา": 10,
  "722": 10,
  "มูเนีย": 10,
  "สถานที่ทำงาน": 10,
  "บรร@@": 10,
  "ผู้มาเยือน": 10,
  "แน@@": 10,
  "กราม": 10,
  "การขับขี่": 10,
  "เลือดเนื้อ": 10,
  "Prime": 10,
  "4078": 10,
  "การเจาะ": 10,
  "ไฮโดรเจน": 10,
  "13611": 10,
  "ความเมตตา": 10,
  "2291": 10,
  "อวัยวะภายใน": 10,
  "Shopify": 10,
  "7640": 10,
  "เท็ม": 10,
  "ไวไฟ": 10,
  "ตั้งต้น": 10,
  "ผู้สังเกตการณ์": 10,
  "%】；": 10,
  "เครื่องบิน": 10,
  "โฟตอน": 10,
  "เปรียบ": 10,
  "รูปหน้า": 10,
  "13625": 10,
  "ศัลยกรรม": 10,
  "ช่า": 10,
  "กรรไกร": 10,
  "ขายต่อ": 10,
  "ซ้อนทับ": 10,
  "one": 10,
  "3977": 10,
  "ro": 10,
  "1007": 10,
  "มาโดยตลอด": 10,
  "ทรงเกียรติ": 10,
  "192": 10,
  "19750": 10,
  "Pixiu": 10,
  "495": 10,
  "เช็ต": 10,
  "7969": 10,
  "ลงอาญา": 10,
  "เลือด@@": 10,
  "ชั้นสอง": 10,
  "ทัณฑ์บน": 10,
  "าะ": 10,
  "กิ่ง": 10,
  "AN": 10,
  "【เซวียน": 10,
  "มลพิษทางอากาศ": 10,
  "ไหม้": 10,
  "from": 10,
  "69800": 10,
  "นิ้ว@@": 10,
  "อีกไม่นาน": 10,
  "เยือกเย็น": 10,
  "เหมันต์": 10,
  "ีย@@": 10,
  "ภาษาไทย": 10,
  "！！": 10,
  "ตัวใหม่": 10,
  "ปรา@@": 9,
  "หมาย@@": 9,
  "อีเมล์": 9,
  "ถุงนอน": 9,
  "แคมป์": 9,
  "1625": 9,
  "จงใจ": 9,
  "เน่าเปื่อย": 9,
  "บริติช": 9,
  "กงล้อ": 9,
  "ผ้าปูโต๊ะ": 9,
  "ความชื่นชอบ": 9,
  "ไม่ขาดสาย": 9,
  "เจี๋ย": 9,
  "ฟิ@@": 9,
  "รักใคร่": 9,
  "473": 9,
  "786": 9,
  "นับตั้งแต่": 9,
  "529": 9,
  "จุดประกาย": 9,
  "120000": 9,
  "671": 9,
  "ทั้งโลก": 9,
  "มัธยมปลาย": 9,
  "568": 9,
  "เนื้อคู่": 9,
  "ศุลกากร": 9,
  "ชีว@@": 9,
  "ทางเดียว": 9,
  "76@@": 9,
  "สำนักงานคณะกรรมการอาหารและยา": 9,
  "ชี้นำ": 9,
  "·เกิ้น·": 9,
  "หนี้สิน": 9,
  "สัน@@": 9,
  "ชะ@@": 9,
  "่า@@": 9,
  "ิล": 9,
  "la@@": 9,
  "มาร์@@": 9,
  "ความมั่งคั่ง": 9,
  "518": 9,
  "1680": 9,
  "ภูมิศาสตร์": 9,
  "LTD": 9,
  "พาด": 9,
  "528": 9,
  "3335": 9,
  "SK@@": 9,
  "447": 9,
  "สั@@": 9,
  "840": 9,
  "เด็กเล็ก": 9,
  "72000": 9,
  "แข@@": 9,
  "554": 9,
  "วิชาการ": 9,
  "มั่น": 9,
  "–": 9,
  "37@@": 9,
  "สรรพ": 9,
  "607": 9,
  "ปูนซีเมนต์": 9,
  "ปี้": 9,
  "น้ำดี": 9,
  "ข้อมูล@@": 9,
  "ชนบท": 9,
  "วาดภาพ": 9,
  "ผ่อน": 9,
  "แว๊กซ์": 9,
  "ยอดฮิต": 9,
  "YY": 9,
  "โบ@@": 9,
  "โซ@@": 9,
  "ลม@@": 9,
  "704": 9,
  "เรียงหน้า": 9,
  "ฮึ": 9,
  "274": 9,
  "พี@@": 9,
  "กู๊ดบาย": 9,
  "็ค": 9,
  "PROTECTION": 9,
  "ทุกเมื่อ": 9,
  "การมอบหมาย": 9,
  "294": 9,
  "ตามเข็มนาฬิกา": 9,
  "ษัท": 9,
  "แบ่ง@@": 9,
  "ซั@@": 9,
  "น่าเกลียด": 9,
  "วาดรูป": 9,
  "เจ๋ง": 9,
  "กำลังวังชา": 9,
  "ENVIRONMETAL": 9,
  "6300": 9,
  "ร้าน@@": 9,
  ">ลด": 9,
  "±": 9,
  "759": 9,
  "มืดมน": 9,
  "แปลกใจ": 9,
  "สัมผัสมือ": 9,
  "ic": 9,
  "แฟรม": 9,
  "507": 9,
  "ต้นทาง": 9,
  "ชี@@": 9,
  "451": 9,
  "3.25": 9,
  "ด้วน": 9,
  "่อ@@": 9,
  "ติดอาวุธ": 9,
  "Line": 9,
  "595": 9,
  "193": 9,
  "0.07": 9,
  "ประจุ": 9,
  "533": 9,
  "เครื่องเป่าผม": 9,
  "หง@@": 9,
  "ฝุ่นละออง": 9,
  "ถ่อมตัว": 9,
  "ขึ้นสนิม": 9,
  "ชุดลำลอง": 9,
  "ทิ": 9,
  "ประจำตัว": 9,
  "แฉก": 9,
  "หลอด@@": 9,
  "》(": 9,
  "763": 9,
  "โจ@@": 9,
  "/*": 9,
  "v": 9,
  "กัปตันเรือ": 9,
  "*/": 9,
  "xx": 9,
  "โควตา": 9,
  "402": 9,
  "แนวหน้า": 9,
  "78@@": 9,
  "me": 9,
  "ยาหมู่": 9,
  "Remote": 9,
  "ตัวกำหนด": 9,
  "ริเริ่ม": 9,
  "บอย": 9,
  "รื่น": 9,
  "ไข@@": 9,
  "ig@@": 9,
  "ต่อสาย": 9,
  "tt@@": 9,
  "if@@": 9,
  "การทด": 9,
  "เก๋ไก๋": 9,
  "เครื่องเสียง": 9,
  "แม่@@": 9,
  "1398": 9,
  "ทาสี": 9,
  "616": 9,
  "517": 9,
  "☆☆☆·": 9,
  "GM": 9,
  "บาง@@": 9,
  "png": 9,
  "ผลิ": 9,
  "323": 9,
  "jpg": 9,
  "5.6": 9,
  "ord": 9,
  "นึ่ง": 9,
  "แบบแผน": 9,
  "mini": 9,
  "2300": 9,
  "คิง": 9,
  "ความละเอียดอ่อน": 9,
  "นานาชาติ": 9,
  "ส่วนโค้ง": 9,
  "56@@": 9,
  "ภัยพิบัติ": 9,
  "608": 9,
  "ฟอยล์": 9,
  "ญ·": 9,
  "โหล": 9,
  "สมการ": 9,
  "597": 9,
  "ธิดา": 9,
  "ทุน": 9,
  "292": 9,
  "ไต่": 9,
  "เลิกกัน": 9,
  "เซวียน": 9,
  "สวมหน้ากาก": 9,
  "ปน": 9,
  "รั้ว": 9,
  "ระวังตัว": 9,
  "พานพบ": 9,
  "กรุง": 9,
  "ิ่น": 9,
  "เดินหน้า": 9,
  "โทรสาร": 9,
  "มอง@@": 9,
  "เพาะเชื้อ": 9,
  "ล่องลอย": 9,
  "436": 9,
  "582": 9,
  "506": 9,
  "10,000": 9,
  "แฟ": 9,
  "ค่าเฉลี่ย": 9,
  "ปลิว": 9,
  "เพิกถอน": 9,
  "บรรทัด": 9,
  "ละเว้น": 9,
  "ครั้งนั้น": 9,
  "ก่": 9,
  "เหล@@": 9,
  "109200": 9,
  "127": 9,
  "23500": 9,
  "อาร์@@": 9,
  "่าง": 9,
  "ปล่อยแสง": 9,
  "ตัดผม": 9,
  "เขิน": 9,
  "ถอยรถ": 9,
  "11020": 9,
  "488": 9,
  "หัน@@": 9,
  "สุกใส": 9,
  "GPS": 9,
  "662": 9,
  "เป็นใหญ่": 9,
  "·ขั่น·": 9,
  "ยัง@@": 9,
  "169": 9,
  "ขา@@": 9,
  "ts": 9,
  "สแควร์": 9,
  "กลด": 9,
  "563": 9,
  "พรรณนา": 9,
  "ฝอย": 9,
  "เสียงเงียบ": 9,
  "ส่ง@@": 9,
  "เกือบจะ": 9,
  "261": 9,
  "768": 9,
  "คลื่นแม่เหล็กไฟฟ้า": 9,
  "ก้ม": 9,
  "้อม": 9,
  "แบบฝึกหัด": 9,
  "ความขัดแย้ง": 9,
  "503": 9,
  "สักขี": 9,
  "วอลเปเปอร์": 9,
  "318": 9,
  "221": 9,
  "ภาระผูกพัน": 9,
  "ฮอลล์": 9,
  "571": 9,
  "Environmental": 9,
  "เลื่อนเวลา": 9,
  "ล่วง@@": 9,
  "ฮั่น": 9,
  "TEVISE": 9,
  "การเช่า": 9,
  "TH": 9,
  "รายใหญ่": 9,
  "%@": 9,
  "อบรม": 9,
  "มรณ": 9,
  "รอยแตก": 9,
  "122": 9,
  "แบบจำลอง": 9,
  "723": 9,
  "780": 9,
  "636": 9,
  "761": 9,
  "ความยุติธรรม": 9,
  "CVC": 9,
  "524": 9,
  "459": 9,
  "เป็นไร": 9,
  "เซนต์": 9,
  "ยาวความ": 9,
  "กงจักร": 9,
  "แค@@": 9,
  "0.3": 9,
  "ชนชั้นสูง": 9,
  "เคาะ": 9,
  "ี้": 9,
  "OFF": 9,
  "ดิน@@": 9,
  "640@@": 9,
  "คิดดู": 9,
  "น้อยที่สุด": 9,
  "AC@@": 9,
  "บัง@@": 9,
  "หัวเราะ": 9,
  "สีกากี": 9,
  "359": 9,
  "วิถีชีวิต": 9,
  "ST@@": 9,
  "182": 9,
  "น่าอัศจรรย์": 9,
  "523": 9,
  "642": 9,
  "แห่": 9,
  "฿": 9,
  "1401007322": 9,
  "มล@@": 9,
  "อวด": 9,
  "คอพับ": 9,
  "องุ่น": 9,
  "601": 9,
  "MAH": 9,
  "การปลุก": 9,
  "ตุง": 9,
  "เนื้อใน": 9,
  "ยน": 9,
  "แส้": 9,
  "วิคตอเรีย": 9,
  "441": 9,
  "นอนหงาย": 9,
  "457": 9,
  "วัง@@": 9,
  "97": 9,
  "รัส": 9,
  "พัก@@": 9,
  "หยุ่น": 9,
  "กลับเป็น": 9,
  "เรียงลำดับ": 9,
  "ตลอดทาง": 9,
  "คำวิจารณ์": 9,
  "Reno": 9,
  "ความเคยชิน": 9,
  "หยั่งรู้": 9,
  "มือขวา": 9,
  "เหล่": 9,
  "18100": 9,
  "si@@": 9,
  "452": 9,
  "ดิสก์": 9,
  "เหมืองแร่": 9,
  "ปรุง@@": 9,
  "561": 9,
  "ระย้า": 9,
  "แต่เดิม": 9,
  "เกรงกลัว": 9,
  "การแทนที่": 9,
  "686": 9,
  "ใ": 9,
  "การหลอม": 9,
  "2580": 9,
  "โฮสต์": 9,
  "ภา": 9,
  "หอก": 9,
  "คว้า": 9,
  "เดะ": 9,
  "iPad": 9,
  "เจี้ยนกิลด์": 9,
  "ทแยง": 9,
  "กระทำการ": 9,
  "คุณภาพต่ำ": 9,
  "อันเป็น": 9,
  "ทอดทิ้ง": 9,
  "237": 9,
  "เด็ดเดี่ยว": 9,
  "ซวน": 9,
  "เสียแล้ว": 9,
  "273": 9,
  "เจียว": 9,
  "476": 9,
  "546": 9,
  "มีความจำเป็น": 9,
  "ลด@@": 9,
  "เอ่อ": 9,
  "118": 9,
  "791": 9,
  "sh@@": 9,
  "รับเชิญ": 9,
  "AI@@": 9,
  "615": 9,
  "จูบ": 9,
  "แคปซูล": 9,
  "เฉียว": 9,
  "ลล์": 9,
  "296": 9,
  "สกาย": 9,
  "329": 9,
  "586": 9,
  "แจ่มใส": 9,
  "ระบบนิเวศ": 9,
  "ชนชาติ": 9,
  "ตล@@": 9,
  "ต่าง@@": 9,
  "~~": 9,
  "แปร": 9,
  "ทำนาย": 9,
  "Seller": 9,
  "กิลด์\\": 9,
  "432": 9,
  "นอกบ้าน": 9,
  "433": 9,
  "ความประณีต": 9,
  "306": 9,
  "1996": 9,
  "389": 9,
  "99@@": 9,
  "รายปี": 9,
  "ล้มล้าง": 9,
  "พนักพิง": 9,
  "ออก@@": 9,
  "สำลี": 9,
  "ของป่า": 9,
  "โค@@": 9,
  "603": 9,
  "341": 9,
  "มัว": 9,
  "แช่เย็น": 9,
  "z": 9,
  "แบ่งกลุ่ม": 9,
  "ค้างชำระ": 9,
  "825": 9,
  "557": 9,
  "กุ@@": 9,
  "og@@": 9,
  "สะดุดตา": 9,
  "698": 9,
  "ประตูเมือง": 9,
  "ย้ายที่": 9,
  "บริษัทฯ": 9,
  "679": 9,
  "ถิ่น": 9,
  "228": 9,
  "183": 9,
  "ยึดถือ": 9,
  "727": 9,
  "หึ": 9,
  "เร่งความเร็ว": 9,
  "☆·": 9,
  "ซึ้ง": 9,
  "รักษาโรค": 9,
  "1530": 9,
  "ัส": 9,
  "ภาคผนวก": 9,
  "เชน": 9,
  "ภายในประเทศ": 9,
  "ทางข้าม": 9,
  "or": 9,
  "ชิม": 9,
  "。": 9,
  "★★★★★★★★★": 9,
  "แจกจ่าย": 9,
  "หญ@@": 9,
  "เป็นสาเหตุ": 9,
  "1260": 9,
  "เหาะ": 9,
  "792": 9,
  "ทศวรรษ": 9,
  "๒๕@@": 9,
  "223": 9,
  "เบิล": 9,
  "ความเคารพ": 9,
  "OK": 9,
  "576": 9,
  "678": 9,
  "แกล": 9,
  "งามตา": 9,
  "หายนะ": 9,
  "รับบริจาค": 9,
  ");": 9,
  "137": 9,
  "ด้": 9,
  "โร่": 9,
  "รอดชีวิต": 9,
  "ความเรียบ": 9,
  "397": 9,
  "153": 9,
  "๒๔": 9,
  "ZHUHAI": 9,
  "ซีเรีย": 9,
  "ณา": 9,
  "453": 9,
  "ป้องกันตัว": 9,
  "572": 9,
  "702": 9,
  "len@@": 9,
  "หลิว": 9,
  "ไร้@@": 9,
  "660": 9,
  "เสื้อแขนยาว": 9,
  "ผู้บริหาร": 9,
  "60@@": 9,
  "En@@": 9,
  "ไปรษณีย์": 9,
  "ควบแน่น": 9,
  "ครองเมือง": 9,
  "่ม@@": 9,
  "ang@@": 9,
  "ปากกว้าง": 9,
  "จงรักภักดี": 9,
  "อํา": 9,
  "อัพเดท": 9,
  "ลูกน้อง": 9,
  "แพรพรรณ": 9,
  "คัดสรร": 9,
  "คืนนี้": 9,
  "เป็นเลิศ": 9,
  "ช้าง": 9,
  "หายตัว": 9,
  "สกิลฝน": 9,
  "แฟลช": 9,
  "314": 9,
  "เฉิง": 9,
  "ch@@": 9,
  "บริบูรณ์": 9,
  "ทัส": 9,
  "shopline": 9,
  "4074": 9,
  "แพ็ก@@": 9,
  "2288": 9,
  "ไนล่อน": 9,
  "ฆ่าตัวตาย": 9,
  "478": 9,
  "แห@@": 9,
  "211": 9,
  "สืบ@@": 9,
  "ในทางปฏิบัติ": 9,
  "13.5": 9,
  "คืน@@": 9,
  "T-": 9,
  "ในนามของ": 9,
  "พยาบาล": 9,
  "เซี่ย": 9,
  "ถึงตาย": 9,
  "พา@@": 9,
  "ฐ": 9,
  "XINHUAN": 9,
  "ซากศพ": 9,
  "117": 9,
  "ation": 9,
  "ทำความรู้จัก": 9,
  "334": 9,
  "แคลเซียม": 9,
  "ระลอก": 9,
  "EL@@": 9,
  "เกล": 9,
  "ภูมิปัญญา": 9,
  "ได้ขนาด": 9,
  "799": 9,
  "PIN": 9,
  "708": 9,
  "ลุ@@": 9,
  "493": 9,
  "566": 9,
  "บรรณาธิการ": 9,
  "โท้ท": 9,
  "ไข้": 9,
  "องค": 9,
  "les": 9,
  "คนงาน": 9,
  "\\\\": 9,
  "·คน·": 9,
  "ชิ่น": 9,
  "ของล้ำค่า": 9,
  "um": 9,
  "อุดมศึกษา": 9,
  "384": 9,
  "PA": 9,
  "ทางขวา": 9,
  "ขี้": 9,
  "ลี@@": 9,
  "ส่งตัว": 9,
  "553": 9,
  "เปลือกไข่": 9,
  "2370": 9,
  "แคว้น": 9,
  "การฟื้นตัว": 9,
  "tur@@": 9,
  "ทุกวันนี้": 9,
  "เพิ่มพูน": 9,
  "575": 9,
  "เกสร": 9,
  "ฉลุ": 9,
  "แบริ่ง": 9,
  "กางเกงชั้นใน": 9,
  "536": 9,
  "คุณปู่": 8,
  "การถ่ายรูป": 8,
  "PM": 8,
  "ระบาย@@": 8,
  "ัด": 8,
  "กฏ": 8,
  "：$": 8,
  "ตัดแต่ง": 8,
  "ff@@": 8,
  "3.75": 8,
  "ิ่ม": 8,
  "\"\"": 8,
  "ว่าว": 8,
  "ไท้เก็ก": 8,
  "เบิกบาน": 8,
  "เอาจริง": 8,
  "719": 8,
  "นักธุรกิจ": 8,
  "464": 8,
  "ศร": 8,
  "ื่อง": 8,
  "ทวีป": 8,
  "790": 8,
  "ไม่ต้องสงสัย": 8,
  "อวัยวะ": 8,
  "ไนโตรเจน": 8,
  "647": 8,
  "อสุรา": 8,
  "ce": 8,
  "ปล่องไฟ": 8,
  "คาย": 8,
  "ความเป็นจริง": 8,
  "555": 8,
  "115@@": 8,
  "จับตัว": 8,
  "ท้อง@@": 8,
  "★★★★★★★": 8,
  "ลายนิ้วมือ": 8,
  "438": 8,
  "การอพยพ": 8,
  "อนุทิน": 8,
  "**": 8,
  "794": 8,
  "114": 8,
  "บูร@@": 8,
  "5800": 8,
  "เป็นอันหนึ่งอันเดียวกัน": 8,
  "โฉม": 8,
  "เซ้นซ์": 8,
  "แบบบาง": 8,
  "ตัดออก": 8,
  "บดี": 8,
  "ประณีตบรรจง": 8,
  "นาโนเมตร": 8,
  "ดิ@@": 8,
  "แทร@@": 8,
  "ปล่อย@@": 8,
  "net": 8,
  "อุ้ม": 8,
  "212": 8,
  "เป็นเงา": 8,
  "ไ": 8,
  "เลขคู่": 8,
  "ผิง": 8,
  "ตกต่ำ": 8,
  "ตะหลิว": 8,
  "สูญสิ้น": 8,
  "ปัจจัยสำคัญ": 8,
  "10.5": 8,
  "ป้าน": 8,
  "เดีย@@": 8,
  "ทุกข์": 8,
  "รากฐาน": 8,
  "1040": 8,
  "ชะตากรรม": 8,
  "สันหลัง": 8,
  "ดาวน์": 8,
  "ly": 8,
  "☆☆☆☆·": 8,
  "ไพเราะ": 8,
  "706": 8,
  "ik@@": 8,
  "em@@": 8,
  "หมา@@": 8,
  "633": 8,
  "ของปลอม": 8,
  "ของส่วนตัว": 8,
  "ine@@": 8,
  "627": 8,
  "ลอเรนซ์": 8,
  "ไตรภูมิ": 8,
  "หางปลา": 8,
  "4600": 8,
  "ผู้โดยสาร": 8,
  "ปัง": 8,
  "MB": 8,
  "เฟซ": 8,
  "กดจุด": 8,
  "มีหัว": 8,
  "ลุก@@": 8,
  "12600": 8,
  "มีพรสวรรค์": 8,
  "การแข็งตัว": 8,
  "293": 8,
  "ตื่นตาตื่นใจ": 8,
  "หนองน้ำ": 8,
  "ขี้เขม่า": 8,
  "มีพิษ": 8,
  "คลั่งไคล้": 8,
  "คนธรรมดา": 8,
  "แบดมินตัน": 8,
  "แล้วแต่": 8,
  "606": 8,
  "ก้มหัว": 8,
  "แคมเปญ": 8,
  "คอลเลกชัน": 8,
  "ผื่น": 8,
  "อภัย": 8,
  "บุคคลภายนอก": 8,
  "กลิ่นไอ": 8,
  "สเปน": 8,
  "เปลี่ยนหน้า": 8,
  "หลงเสน่ห์": 8,
  "เจิ้น": 8,
  "เชิงลบ": 8,
  "๋น": 8,
  "เซนเซอร์": 8,
  "229": 8,
  "เออ": 8,
  "เหมา": 8,
  "ม่า·": 8,
  "ย่อหน้า": 8,
  "ชาวต่างชาติ": 8,
  "8.0": 8,
  "★★★★★★": 8,
  "โหดเหี้ยม": 8,
  "คนดู": 8,
  "เอาชีวิต": 8,
  "④": 8,
  "ณี@@": 8,
  "519": 8,
  "หมู่@@": 8,
  "กระเพาะอาหาร": 8,
  "นุ": 8,
  "739": 8,
  "้าง@@": 8,
  "ตรี": 8,
  "การดำรงอยู่": 8,
  "ห้ามล้อ": 8,
  "งบการเงิน": 8,
  "แขนขา": 8,
  "ษ์": 8,
  "การข้าม": 8,
  "iv@@": 8,
  "ก็@@": 8,
  "โดดเดี่ยว": 8,
  "ong@@": 8,
  "ขน@@": 8,
  "ทั้ง@@": 8,
  "คาวบอย": 8,
  "๑๕": 8,
  "แครอท": 8,
  "สมรส": 8,
  "ตกหนัก": 8,
  "นิกเกิล": 8,
  "สันต์": 8,
  "ทรงกระบอก": 8,
  "หาเรื่อง": 8,
  "ทางน้ำ": 8,
  "คราว": 8,
  "สัมภาระ": 8,
  "777": 8,
  "มก": 8,
  "675": 8,
  "chan@@": 8,
  "SEO": 8,
  "สูงตระหง่าน": 8,
  "ใบ@@": 8,
  "ิ่ง@@": 8,
  "็": 8,
  "จบ@@": 8,
  "ป่านนี้": 8,
  "624": 8,
  "ub@@": 8,
  "ดำรงอยู่": 8,
  "สะดือ": 8,
  "มห@@": 8,
  "หงส์แดง": 8,
  "16000": 8,
  "ไบ@@": 8,
  "วินัย": 8,
  "!!": 8,
  "รอ@@": 8,
  "แล้วจึง": 8,
  "แจ่": 8,
  "อิน@@": 8,
  "ศิลป์": 8,
  "อุทิศ": 8,
  "V-": 8,
  "HZ": 8,
  "ประชาสัมพันธ์": 8,
  "าร์@@": 8,
  "ชาย@@": 8,
  "เวลา@@": 8,
  "ฟาง": 8,
  "px": 8,
  "ติ๊ก": 8,
  "ศาสตรา": 8,
  "สถานที่@@": 8,
  "โดยตลอด": 8,
  "แส@@": 8,
  "ยอง": 8,
  "·พ": 8,
  "ใช้หัว": 8,
  "หมดสิ้น": 8,
  "นิดๆ": 8,
  "209": 8,
  "การประสานงาน": 8,
  "แล้วเสร็จ": 8,
  "ชุดราตรี": 8,
  "เจ้าสาว": 8,
  "ปิฏก": 8,
  "522": 8,
  "47@@": 8,
  "แหวก": 8,
  "ถึงว่า": 8,
  "plus": 8,
  "ความเหนื่อย": 8,
  "อร์": 8,
  "้ำ": 8,
  "อาภรณ์": 8,
  "667": 8,
  "ระบบประสาท": 8,
  "อ๊อก": 8,
  "ลีก": 8,
  "เทอร์มินัล": 8,
  "ฟุ่มเฟือย": 8,
  "จุดประสงค์": 8,
  "บัณฑิต": 8,
  "ปฏิบัติหน้าที่": 8,
  "หั่วฮ่วน": 8,
  "์ท": 8,
  "สถาบันการศึกษา": 8,
  "LG@@": 8,
  "ดื้อ": 8,
  "39@@": 8,
  "70@@": 8,
  "เงินปันผล": 8,
  "แสบ": 8,
  "767": 8,
  "จุดมุ่งหมาย": 8,
  "AM@@": 8,
  "MO@@": 8,
  "ME@@": 8,
  "ไร้เดียงสา": 8,
  "เฟ่น": 8,
  "321": 8,
  "718": 8,
  "ล้อหมุน": 8,
  "ขาใหญ่": 8,
  "333": 8,
  "677": 8,
  "ียน": 8,
  "Books": 8,
  "ทิ่ม": 8,
  "ทางใต้": 8,
  "ยุบ": 8,
  "เคลื่อนตัว": 8,
  "พลัส\"": 8,
  "Videos": 8,
  "งานฉลอง": 8,
  "จืด": 8,
  "ลลิ่ง": 8,
  "เสียงเตือน": 8,
  "หาดทราย": 8,
  "เวียน": 8,
  "544": 8,
  "ถือได้ว่า": 8,
  "หน้าปก": 8,
  "เอื้อ": 8,
  "คลัตช์": 8,
  "206": 8,
  "203": 8,
  "234": 8,
  "XX@@": 8,
  "สถิต": 8,
  "้อง": 8,
  "ตะเกียง": 8,
  "2200": 8,
  "วัย@@": 8,
  "รอยขีด": 8,
  "·คน": 8,
  "รอย@@": 8,
  "นอน@@": 8,
  "%】\\": 8,
  "4.6": 8,
  "สุก": 8,
  "ห่อหุ้ม": 8,
  "ด่างพร้อย": 8,
  "สระว่ายน้ำ": 8,
  "พิง": 8,
  "โธ่": 8,
  "เรขาคณิต": 8,
  "494": 8,
  "ดูก่อน": 8,
  "อหังกา": 8,
  "ต้องตาม": 8,
  "หนอน": 8,
  "ผู้เขียน": 8,
  "MAN": 8,
  "อลังการ": 8,
  "วางสาย": 8,
  "ทัศนศาสตร์": 8,
  "ซู@@": 8,
  "462": 8,
  "บนสุด": 8,
  "57@@": 8,
  "ไฟกัลป์": 8,
  "ชื่อเล่น": 8,
  "-A": 8,
  "กวาน": 8,
  "หล่อลื่น": 8,
  "184": 8,
  "web": 8,
  "975": 8,
  "ฟรอสต์": 8,
  "วันหมดอายุ": 8,
  "ถ่ายเท": 8,
  "แปลกใหม่": 8,
  "ถอนตัว": 8,
  "339": 8,
  "ล้างจาน": 8,
  "□": 8,
  "สะเทือนใจ": 8,
  "สินทรัพย์": 8,
  "ตบ": 8,
  "เถา": 8,
  "เครื่องเทศ": 8,
  "เจ็บป่วย": 8,
  "xxx": 8,
  "253": 8,
  "622": 8,
  "254": 8,
  "แดเนียล": 8,
  "ฮิปฮอป": 8,
  "เหยี่ยว": 8,
  "ช่องระบายอากาศ": 8,
  "1035": 8,
  "เทคโนโลยีชั้นสูง": 8,
  "เคร@@": 8,
  "คำบอกกล่าว": 8,
  "มดี": 8,
  "บุญคุณ": 8,
  "ผู้ใต้บังคับบัญชา": 8,
  "ตอก": 8,
  "ออกห่าง": 8,
  "เปลือย": 8,
  "เพิ่มทวี": 8,
  "สร้างบ้าน": 8,
  "ยืนยาว": 8,
  "กังฟู": 8,
  "773": 8,
  "บอดี้": 8,
  "386": 8,
  "287": 8,
  "รี@@": 8,
  "เจียงซู": 8,
  "691": 8,
  "กระปุก": 8,
  "เปลว": 8,
  "ลูกอม": 8,
  "เมท": 8,
  "ประทัด": 8,
  "ปุ@@": 8,
  "99.9": 8,
  "et": 8,
  "จิ่ว": 8,
  "เมื่อใด": 8,
  "379": 8,
  "ซูม": 8,
  "เฉียน": 8,
  "เกิน@@": 8,
  "16.@@": 8,
  "469": 8,
  "กล่อม": 8,
  "่ว@@": 8,
  "จุดหลัง": 8,
  "การอัด": 8,
  "คนใช้": 8,
  "เกิร์ล": 8,
  "อภิปราย": 8,
  "าง": 8,
  "แอน@@": 8,
  "ซิตี้": 8,
  "ซีทรู": 8,
  "ยุคใหม่": 8,
  "547": 8,
  "ผู้อ@@": 8,
  "186": 8,
  "ในกรณีนี้": 8,
  "คนหนุ่มสาว": 8,
  "พูดจา": 8,
  "น้ำลาย": 8,
  "289": 8,
  "คนสวย": 8,
  "หัวมุม": 8,
  "RE@@": 8,
  "376": 8,
  "อ๊อกซ์ฟอร์ด": 8,
  "sa@@": 8,
  "บิดเบี้ยว": 8,
  "slp": 8,
  "766": 8,
  "ต์@@": 8,
  "เสื่อมโทรม": 8,
  "หนังสือมอบอำนาจ": 8,
  "673": 8,
  "－": 8,
  "เชื้อไวรัส": 8,
  "ราน": 8,
  "คำฟ้อง": 8,
  "342": 8,
  "แพร่เชื้อ": 8,
  "รั้ง": 8,
  "ซาบซึ้ง": 8,
  "Ar@@": 8,
  "กัง@@": 8,
  "ในระหว่างนั้น": 8,
  "เข้างาน": 8,
  "เปีน": 8,
  "เต่าทอง": 8,
  "374": 8,
  "313": 8,
  ">ลง": 8,
  "ขับขี่": 8,
  "ทว่า": 8,
  "อสังหาริมทรัพย์": 8,
  "ซิ่ง": 8,
  "มีหน้ามีตา": 8,
  "726": 8,
  "แรงค์": 8,
  "ใช้@@": 8,
  "พัดลม": 8,
  "มิต": 8,
  "5.0": 8,
  "์เฟกต์": 8,
  "เสียงดี": 8,
  "ถอดรหัส": 8,
  "196": 8,
  "การคุย": 8,
  "สเต@@": 8,
  "ดล@@": 8,
  "1725": 8,
  "ST": 8,
  "....@@": 8,
  "ในความเป็นจริง": 8,
  "ืน@@": 8,
  "สัง@@": 8,
  "ลบ@@": 8,
  "คัง": 8,
  "ING@@": 8,
  "ล่มสลาย": 8,
  "ดิ้ง": 8,
  "ตอนกลางวัน": 8,
  "753": 8,
  "คลุมเครือ": 8,
  "ฮ่องกงฟุต": 8,
  "403": 8,
  "ภัณฑ์": 8,
  "ศรัทธา": 8,
  "พรรคพวก": 8,
  "อิสรภาพ": 8,
  "มร@@": 8,
  "สป@@": 8,
  ".เล": 8,
  "อดใจ": 8,
  "383": 8,
  "year": 8,
  "Ⅲ": 8,
  "26000": 8,
  "แก@@": 8,
  "ลีดเดอร์": 8,
  "226": 8,
  "ปอด": 8,
  "น่าขยะแขยง": 8,
  "คาดเดา": 8,
  "NFC": 8,
  "ผุ้": 8,
  "เสียแรง": 8,
  "3,000": 8,
  "276": 8,
  "732": 8,
  "เนชั่น": 8,
  "de@@": 8,
  "598": 8,
  "146": 8,
  "ยามค่ำคืน": 8,
  "คลาวด์": 8,
  "ไวยากรณ์": 8,
  "．": 8,
  "ส่วนหน้า": 8,
  "ว่า@@": 8,
  "【ดรอป": 8,
  "ติดขัด": 8,
  "AOE": 8,
  "หลวง": 8,
  "คิดได้": 8,
  "hi@@": 8,
  "ซุ@@": 8,
  "49750": 8,
  "๋@@": 8,
  "นิยาย": 8,
  "สิ@@": 8,
  "ไม้ตาย": 8,
  "เฉวียน": 8,
  "เลิกจ้าง": 8,
  "DOT": 8,
  "กรวด": 8,
  "การฝึกฝน": 8,
  "781": 8,
  "หย่า": 8,
  "TY": 8,
  "บรอนซ์": 8,
  "แชมพู": 8,
  "จัก": 8,
  "ฟี@@": 8,
  "ผู้บุกเบิก": 8,
  "ัด@@": 8,
  "เฒ่า": 8,
  "เจ้าชาย": 8,
  "4480": 8,
  "ทนไม่ไหว": 8,
  "its": 8,
  "กง": 8,
  "ฝักบัว": 8,
  "711": 8,
  "ถอน@@": 8,
  "772": 8,
  "แพลทินัม": 8,
  "อ้อน": 8,
  "กอง@@": 8,
  "755": 8,
  "ซิลิคอน": 8,
  "สวิง": 8,
  "and@@": 8,
  "Non-@@": 8,
  "ภาควิชา": 8,
  "พลุ": 8,
  "482": 8,
  "ภาพรวม": 8,
  "ปริซึม": 8,
  "463": 8,
  "มน@@": 8,
  "3375": 8,
  "541": 8,
  "395": 8,
  "ตาแมว": 8,
  "ห้างสรรพสินค้า": 8,
  "OS": 8,
  "ขับเคลื่อน": 8,
  "สร@@": 8,
  "785": 8,
  "STA": 8,
  "ล：": 8,
  "ย่น": 8,
  "ความเมื่อย": 8,
  "าด@@": 8,
  "ML": 8,
  "อูฐ": 8,
  "การตรวจจับ": 8,
  "282": 8,
  "1.25": 8,
  "③": 8,
  "163": 8,
  "278": 8,
  "ครอง@@": 8,
  "มิ้ง": 8,
  "486": 8,
  "min": 8,
  "เยาว์": 8,
  "238": 8,
  "เคร่งขรึม": 8,
  "487": 8,
  "อ่อน@@": 8,
  "เวลาทำงาน": 8,
  "วัยเรียน": 8,
  "07": 8,
  "629": 8,
  "เข็มกลัด": 8,
  "hu@@": 8,
  "กำแพงเมือง": 8,
  "737": 8,
  "ต๋า": 8,
  "ฝึกหัด": 8,
  "CSR": 8,
  "ละอาย": 8,
  "ตึงเครียด": 8,
  "ปรับอากาศ": 8,
  "ไฮไลต์": 8,
  "363": 8,
  "ฮ๊อต": 8,
  "532": 8,
  "โต้": 8,
  "สลัว": 8,
  "หลงใหล": 8,
  "รร@@": 8,
  "ธรรมเนียม": 8,
  "พ่อ@@": 8,
  "ไม่ออก": 8,
  "ภัย@@": 8,
  "สมรภูมิ": 8,
  "สูบ": 8,
  "695": 8,
  "เหตุ@@": 8,
  "เป็นอัน": 8,
  "509": 8,
  "โคจร": 8,
  "ร็อก": 8,
  "ตุ@@": 8,
  "App": 8,
  "เหิน": 8,
  "แกนกลาง": 8,
  "SE@@": 8,
  "【ไท่": 8,
  "218": 8,
  "ซาว": 8,
  "เพศชาย": 8,
  "382": 8,
  "คลอไรด์": 8,
  "776": 8,
  "ณี": 8,
  "สำมะโนครัว": 8,
  "แน่วแน่": 8,
  "ภูมิทัศน์": 8,
  "รับแขก": 8,
  "สายวัด": 8,
  "พิจารณาคดี": 8,
  "://": 8,
  "าก@@": 8,
  "การกลิ้ง": 8,
  "ว่าความ": 8,
  "ความโชคดี": 8,
  "ต้นเหตุ": 8,
  "มวน": 8,
  "MS@@": 8,
  "ติดใจ": 8,
  "คนขับรถ": 8,
  "สำราญ": 8,
  "จุดจบ": 8,
  "วิกฤต": 8,
  "รักษาการ": 8,
  "กันผม": 8,
  "มีประวัติ": 8,
  "ai": 8,
  "คาน": 8,
  "UPF": 8,
  "ปิ@@": 8,
  "＄": 8,
  "385": 8,
  "พื้นบ้าน": 8,
  "เหลียน": 8,
  "กำเริบ": 8,
  "น่าอิจฉา": 8,
  "423": 8,
  "๐": 8,
  "611": 8,
  "จุลภาค": 8,
  "แหล่งข้อมูล": 8,
  "SH@@": 8,
  "แหล่งผลิต": 8,
  "ลายน้ำ": 8,
  "08": 8,
  "ตับ": 8,
  "เต็มใจ": 8,
  "รถประจำทาง": 8,
  "ทำสำเร็จ": 8,
  "UT@@": 8,
  "682": 8,
  "มพ@@": 8,
  "439": 8,
  "412": 8,
  "ป่าเถื่อน": 8,
  "พระอาทิตย์": 8,
  "นำมาใช้": 8,
  "คะนึง": 8,
  "ชั้นปี": 8,
  "11240": 8,
  "434": 8,
  "คาด@@": 8,
  "139": 8,
  "Friday": 8,
  "ความกระชับ": 8,
  "กลิ่นตัว": 8,
  "ดิส": 8,
  "แทบจะ": 7,
  "621": 7,
  "Pal": 7,
  "ต่างเพศ": 7,
  "ภูมิประเทศ": 7,
  "57250": 7,
  "้วง": 7,
  "สารหนู": 7,
  ">/": 7,
  "ค้าส่ง": 7,
  "ight": 7,
  "ข้างใต้": 7,
  "๓@@": 7,
  "ปี@@": 7,
  "ศีล": 7,
  "แสบตา": 7,
  ".6": 7,
  "เซา": 7,
  "หยุดพัก": 7,
  "ความศรัทธา": 7,
  "โหนกแก้ม": 7,
  "ขฯะ": 7,
  "ua@@": 7,
  "การปลด": 7,
  "งม": 7,
  "จิ้ง": 7,
  "10.2": 7,
  "955": 7,
  "ก่อตัว": 7,
  "609": 7,
  "กลั@@": 7,
  "สหรัฐฯ": 7,
  "ออกกำลัง": 7,
  "คาว": 7,
  "11.5": 7,
  "ร้องขอ": 7,
  "Bi@@": 7,
  "ไมยราบ": 7,
  "อีกหน่อย": 7,
  "ความประทับใจ": 7,
  "1738": 7,
  "2928": 7,
  "แผนโบราณ": 7,
  "code": 7,
  "iDubbing": 7,
  "1740": 7,
  "so@@": 7,
  "ว์@@": 7,
  "สติ้ง": 7,
  "คางคก": 7,
  "ความอ้วน": 7,
  "วอนขอ": 7,
  "DE@@": 7,
  "แบบเสื้อ": 7,
  "ย้อย": 7,
  "การเกณฑ์": 7,
  "เขตปลอดภัย": 7,
  "674": 7,
  "กลุ่ม@@": 7,
  "2045": 7,
  "ลก": 7,
  "ชายแดน": 7,
  "สก@@": 7,
  "FB": 7,
  "ชื่น": 7,
  "เรียม": 7,
  "ch": 7,
  "คว@@": 7,
  "1780": 7,
  "ดำ@@": 7,
  "หยุดชั่วคราว": 7,
  "าย@@": 7,
  "ไฮสคูล": 7,
  "ดอกกุหลาบ": 7,
  "หนึ่งร้อย": 7,
  "we@@": 7,
  "Plus": 7,
  "สต็อก": 7,
  "เปลือง": 7,
  "247": 7,
  "ลอย@@": 7,
  "ของโปรด": 7,
  "las@@": 7,
  "ins": 7,
  "เลวร้าย": 7,
  "บ่งชี้": 7,
  "04": 7,
  "ไรผม": 7,
  "สถาน@@": 7,
  "ยางรัด": 7,
  "ภูตผี": 7,
  "PI@@": 7,
  "กิลด์/": 7,
  "นำ้": 7,
  "352": 7,
  "แบบสอบถาม": 7,
  "เป็นอยู่": 7,
  "782": 7,
  "่าม": 7,
  "เชื้อชาติ": 7,
  "☆☆☆☆☆·": 7,
  "Sta@@": 7,
  "689": 7,
  "ตั้งตัว": 7,
  "ผู้ถือหุ้น": 7,
  "OL": 7,
  "ดูเถอะ": 7,
  "กระเป๋า@@": 7,
  "เเบบ": 7,
  "รถสปอร์ต": 7,
  "เดือน@@": 7,
  "EE@@": 7,
  "เหลวไหล": 7,
  "นักวิทยาศาสตร์": 7,
  "ฟุ": 7,
  "แสดงความคิดเห็น": 7,
  "พักผ่อนหย่อนใจ": 7,
  "ER@@": 7,
  "ion": 7,
  "99.@@": 7,
  "เข็มนาฬิกา": 7,
  "ยิ้ม@@": 7,
  "ความเป็นอยู่": 7,
  "เซียง": 7,
  "ใจเต้น": 7,
  "UR@@": 7,
  "KA@@": 7,
  "ก๊อก": 7,
  "ี่ย": 7,
  "★★★★★★★★★★": 7,
  "ก็เพราะว่า": 7,
  "ย่างก้าว": 7,
  "ทั้งกายและใจ": 7,
  "ดีจริง": 7,
  "อัดเสียง": 7,
  "หย่อนยาน": 7,
  "เพื่อน@@": 7,
  "มือปราบ": 7,
  "？@@": 7,
  "189": 7,
  "271": 7,
  "470": 7,
  "ความภาคภูมิใจ": 7,
  "ฉวี่】": 7,
  "ตุ่น": 7,
  "กระถางดอกไม้": 7,
  "แจ็คพอต": 7,
  "%：": 7,
  "ทูตสวรรค์": 7,
  "OnePlus": 7,
  "1091": 7,
  "22@@": 7,
  "ยื่นมือ": 7,
  "THB": 7,
  "ฉุน": 7,
  "app@@": 7,
  "zh@@": 7,
  "ุง": 7,
  "แต่ละบุคคล": 7,
  "ก้": 7,
  "ของเสีย": 7,
  "เวลาเล่น": 7,
  "!\\": 7,
  "418": 7,
  "ช็อค": 7,
  "สั่ง@@": 7,
  "ซ์@@": 7,
  "Su@@": 7,
  "ชาล": 7,
  "|\\": 7,
  "ยั@@": 7,
  "น่าอาย": 7,
  "7200": 7,
  "ไม้เท้า": 7,
  "ช่วยดูแล": 7,
  "652": 7,
  "สาง": 7,
  "ทหารยาม": 7,
  "★★★★★★★★": 7,
  "WIFI": 7,
  "ปรับ@@": 7,
  "PAD": 7,
  "483": 7,
  "แยกย้าย": 7,
  "ราช@@": 7,
  "534": 7,
  "สเกล": 7,
  "่ำ@@": 7,
  "งค์": 7,
  "605": 7,
  "คนเก่ง": 7,
  "ตัวถัง": 7,
  "411": 7,
  "362": 7,
  "๒๕๕@@": 7,
  "ทริ@@": 7,
  "หลับไหล": 7,
  "ฤกษ์": 7,
  "อ่อนเพลีย": 7,
  "งิ": 7,
  "ความไม่สะดวก": 7,
  "หรือไง": 7,
  "คิ@@": 7,
  "รื้อถอน": 7,
  "แนบ@@": 7,
  "SI@@": 7,
  "ฝอ": 7,
  "รัฐมนตรี": 7,
  "774": 7,
  "หร@@": 7,
  "หลอกลวง": 7,
  "สัด": 7,
  "5400": 7,
  "ผ้าขนสัตว์": 7,
  "ปัดเป่า": 7,
  "กันสนิม": 7,
  "มัลติมีเดีย": 7,
  "649": 7,
  "709": 7,
  "lity": 7,
  "PS": 7,
  "วูฟ": 7,
  "เวน": 7,
  "โซล": 7,
  "ซิม": 7,
  "416": 7,
  "ความเป็นเลิศ": 7,
  "634": 7,
  "เวนเดอร์": 7,
  "643": 7,
  "664": 7,
  "pre@@": 7,
  "ควบ": 7,
  "กากี": 7,
  "ดุจ": 7,
  "เสียดฟ้า": 7,
  "ศรีษะ": 7,
  "แม่บ้าน": 7,
  "่ำ": 7,
  "765": 7,
  "อุดอู้": 7,
  "391": 7,
  "ดุเดือด": 7,
  "อย่างไรบ้าง": 7,
  "้ก": 7,
  "อู้": 7,
  "นักแสดง": 7,
  "ลิ้มรส": 7,
  "เมอร์เซเดส": 7,
  "สารละลาย": 7,
  "ET@@": 7,
  "เครื่องครัว": 7,
  "ความสามารถพิเศษ": 7,
  "ลิ่ม": 7,
  "รถไฟใต้ดิน": 7,
  "585": 7,
  "รถชน": 7,
  "กายภาพบำบัด": 7,
  "วงแขน": 7,
  "11050": 7,
  "733": 7,
  "1920": 7,
  "าน@@": 7,
  "กองทัพเรือ": 7,
  "ยอดรวม": 7,
  "เดอร์": 7,
  "VIP@@": 7,
  "เอาละ": 7,
  "เต็มเปี่ยม": 7,
  "เครื่องจักรกล": 7,
  "ส่วนสำคัญ": 7,
  "เศร้า": 7,
  "เดสก์ท็อป": 7,
  "อาชญากร": 7,
  "๗@@": 7,
  "สําคัญ": 7,
  "ปลาย@@": 7,
  "โฮ่ว\\": 7,
  "TOP": 7,
  "646": 7,
  "ฮ่องเต้": 7,
  "มีเกียรติ": 7,
  "ลฟ์@@": 7,
  "297": 7,
  "\")": 7,
  "หูรูด": 7,
  "ระบบ@@": 7,
  "tra@@": 7,
  "ปรุงรส": 7,
  "8.25": 7,
  "548": 7,
  "BR@@": 7,
  "การหล่อ": 7,
  "สยาย": 7,
  "แอบ@@": 7,
  "ความสำคัญ": 7,
  "199": 7,
  "ียง@@": 7,
  "กุม": 7,
  "น่าเชื่อ": 7,
  "392": 7,
  "สตั๊ด": 7,
  "พิโรธ": 7,
  "ยุ่งเหยิง": 7,
  "เสียดาย": 7,
  "อยากรู้อยากเห็น": 7,
  "อุปทาน": 7,
  "เป็นหนึ่งเดียว": 7,
  "เซ็@@": 7,
  "อยุ่": 7,
  "สมทบ": 7,
  "โคตร": 7,
  "หนังสือ@@": 7,
  "องค์การอนามัยโลก": 7,
  "การประดิษฐ์": 7,
  "เซ็นชื่อ": 7,
  "บัวลอย": 7,
  "752": 7,
  "บังคับบัญชา": 7,
  "ลมโชย": 7,
  "สูงใหญ่": 7,
  "หิน@@": 7,
  "ชีพจร": 7,
  "371": 7,
  "นัยสำคัญ": 7,
  "แอน": 7,
  "ล้า": 7,
  "ความใฝ่ฝัน": 7,
  "กราฟิก": 7,
  "795": 7,
  "จัดตั้งขึ้น": 7,
  "เลพอร์": 7,
  "IS@@": 7,
  "141": 7,
  "สโตน": 7,
  "We@@": 7,
  "SS@@": 7,
  "658": 7,
  "โจ·": 7,
  "508": 7,
  "644": 7,
  "มึน": 7,
  "ภาพจริง": 7,
  "สารพัด": 7,
  "วันหลัง": 7,
  "เมกะ": 7,
  "พาเหรด": 7,
  "ขอบพระคุณ": 7,
  "จูงใจ": 7,
  "25000": 7,
  "3.4": 7,
  "ลัด": 7,
  "ร่ำร้อง": 7,
  "รม": 7,
  "6.6": 7,
  "โรคมะเร็ง": 7,
  "ถนัด": 7,
  "ทานอาหาร": 7,
  "ฝู": 7,
  "ภาคภูมิใจ": 7,
  "ตะปู": 7,
  "ฝ่าย@@": 7,
  "mo@@": 7,
  "ผู้ตรวจสอบ": 7,
  "หลงทาง": 7,
  "วันรุ่งขึ้น": 7,
  "จันท@@": 7,
  "OR": 7,
  "284": 7,
  "ความมุ่งมั่น": 7,
  "697": 7,
  "จอน": 7,
  "ณะ": 7,
  "JPG": 7,
  "ค่าสัมประสิทธิ์": 7,
  "PNG": 7,
  "บัตรประจำตัวประชาชน": 7,
  "PDF": 7,
  "บีช": 7,
  "ฐานข้อมูล": 7,
  "X-": 7,
  "อัพเดต": 7,
  "เหยียด": 7,
  "เตรียมใจ": 7,
  "บัฟลด": 7,
  "กวัด": 7,
  "ปริมาตร": 7,
  "3550": 7,
  "505": 7,
  "หลัง@@": 7,
  "ศาสดา": 7,
  "-V": 7,
  "คบเพลิง": 7,
  "331": 7,
  "ืน": 7,
  "1150": 7,
  "ยุ@@": 7,
  "จด@@": 7,
  "ัน@@": 7,
  "ศักดิ์": 7,
  "472": 7,
  "นินจา": 7,
  "เอ็ม": 7,
  "526": 7,
  "ทวนเข็มนาฬิกา": 7,
  "DNS": 7,
  "754": 7,
  "แฝงตัว": 7,
  "ทรงตัว": 7,
  "พาย": 7,
  "บิ@@": 7,
  "ในที่นี้": 7,
  "สาบ": 7,
  "บริษัท@@": 7,
  "us": 7,
  "บังอาจ": 7,
  "เสียงร้อง": 7,
  "เป็นที่รู้จัก": 7,
  "คำขวัญ": 7,
  "ดูด@@": 7,
  "เบียร์": 7,
  "อว@@": 7,
  "พลังงานแสงอาทิตย์": 7,
  "ฟังได้": 7,
  "เรียล": 7,
  "วู@@": 7,
  "เจี๋ย\\": 7,
  "บอ@@": 7,
  "IR@@": 7,
  "พลิกตัว": 7,
  "ใหญ่โต": 7,
  "๊ะ": 7,
  "258": 7,
  "บลูเบอร์รี่": 7,
  "239": 7,
  "สายพันธุ์": 7,
  "กรดอะมิโน": 7,
  "น้ำเสียง": 7,
  "ถังน้ำ": 7,
  "จำเพาะ": 7,
  "วันก่อน": 7,
  "ครุศาสตร์": 7,
  "ร่วมสุข": 7,
  "น้ำพุ": 7,
  "ซิ่ว": 7,
  "484": 7,
  "เป็นต้นมา": 7,
  "วย": 7,
  "พอลิเมอร์": 7,
  "9.6": 7,
  "ี่ย@@": 7,
  "ราด": 7,
  "จุดสูงสุด": 7,
  "⑤": 7,
  "โอ้อวด": 7,
  "แฟนคลับ": 7,
  "เกร่": 7,
  "12500": 7,
  "อู่": 7,
  "รองประธาน": 7,
  "ขาดแคลน": 7,
  "สูบบุหรี่": 7,
  "ดีไซเนอร์": 7,
  "64000": 7,
  "หวน": 7,
  "interest": 7,
  "โช@@": 7,
  "น้ำตาล": 7,
  "กฎหมาย@@": 7,
  "ลการ": 7,
  "133": 7,
  "เรือง": 7,
  "ตัง": 7,
  "417": 7,
  "ความใน": 7,
  "725": 7,
  "เติมน้ำมัน": 7,
  "ึ่ง": 7,
  "ความเงียบสงบ": 7,
  "783": 7,
  "ชอปปิ้ง": 7,
  "574": 7,
  "นุ@@": 7,
  "ชาวประมง": 7,
  "ผลผลิต": 7,
  "เดินป่า": 7,
  "เดินทางไกล": 7,
  "ผาย": 7,
  "วิก": 7,
  "ตกหลุมรัก": 7,
  "กระผม": 7,
  "หั@@": 7,
  "งี่เง่า": 7,
  "รูปลักษณ์ภายนอก": 7,
  "45000": 7,
  "ุน": 7,
  "คั้น": 7,
  "เซอร์เบีย": 7,
  "กระแส@@": 7,
  "อัลตราไวโอเลต": 7,
  "756": 7,
  "๒๕๕๖": 7,
  "นึก@@": 7,
  "๔@@": 7,
  "US@@": 7,
  "ชอบ@@": 7,
  "160@@": 7,
  "ท่อ@@": 7,
  "จุน": 7,
  "แอโรบิก": 7,
  "พล": 7,
  "631": 7,
  "ดีด": 7,
  "734": 7,
  "ket": 7,
  "ญ|": 7,
  "เศร้าโศก": 7,
  "250000": 7,
  "ES@@": 7,
  "ทะ@@": 7,
  "โด่งดัง": 7,
  "การฝาก": 7,
  "บาดแผล": 7,
  "ทั่ว@@": 7,
  "ช์น": 7,
  "สิ้น@@": 7,
  "รำคาญ": 7,
  "612": 7,
  "เครื่องราง": 7,
  "สปา": 7,
  "วัถุ": 7,
  "ชาวพื้นเมือง": 7,
  "ืด": 7,
  "656": 7,
  "Banner": 7,
  "ซ้ำแล้วซ้ำอีก": 7,
  "SHI@@": 7,
  "เดินเท้า": 7,
  "เกล@@": 7,
  "เพื่อนร่วมงาน": 7,
  "เต็มตัว": 7,
  "244": 7,
  "ปัสสาวะ": 7,
  "ที่ว่างเปล่า": 7,
  "จนถึงที่สุด": 7,
  "LU@@": 7,
  "479": 7,
  "ริน": 7,
  "เม็ด@@": 7,
  "name": 7,
  "นทา": 7,
  "659": 7,
  "ll@@": 7,
  "จราจร": 7,
  "ปั่นป่วน": 7,
  "เปลียน": 7,
  "ลุ่ม": 7,
  "เกินกำหนด": 7,
  "E-@@": 7,
  "88888": 7,
  "ประทุ": 7,
  "เกาหลีใต้": 7,
  "ทิศตะวันตก": 7,
  "นักษัตร": 7,
  "๑@@": 7,
  "oun@@": 7,
  "พึงประสงค์": 7,
  "เครื่องวัดอุณหภูมิ": 7,
  "กรุงเทพ": 7,
  "413": 7,
  "ชื่อดัง": 7,
  "614": 7,
  "โดยสาร": 7,
  "ive": 7,
  "ด้า": 7,
  "ปอ": 7,
  "นิเวศน์": 7,
  "กรุงเทพฯ": 7,
  "ความใส่ใจ": 7,
  "ระเบียบการ": 7,
  "คคัส": 7,
  "เกา@@": 7,
  "จับตามอง": 7,
  "สัมภาษณ์": 7,
  "มหาเทพ": 7,
  "ลูกสูบ": 7,
  "แตกร้าว": 7,
  "ไวท์": 7,
  "มือหนึ่ง": 7,
  "CH@@": 7,
  "เว้นวรรค": 7,
  "ขมัง": 7,
  "ซา@@": 7,
  "hat": 7,
  "EXPBOSS": 7,
  "2150": 7,
  "513": 7,
  "1898": 7,
  "รอดพ้น": 7,
  "ผู้สูงวัย": 7,
  "ศีลธรรม": 7,
  "ดอลลาร์ออสเตรเลีย": 7,
  "เคิล": 7,
  "11.2": 7,
  "ชี้แนะ": 7,
  "นาย@@": 7,
  "ื่อน": 7,
  "การเหนี่ยวนำ": 7,
  "ไม่เป็นการ": 7,
  "า": 7,
  "กุม@@": 7,
  "ความกังวล": 7,
  "การลดราคา": 7,
  "๓๐": 7,
  "DC": 7,
  "ทะ": 7,
  "ตล์": 7,
  "สอบสวน": 7,
  "ทั้งๆ": 7,
  "149": 7,
  "แต่กำเนิด": 7,
  "Ⅱ@@": 7,
  "น้อยๆ": 7,
  "รายจ่าย": 7,
  "เล็กๆ": 7,
  "ฝากตัว": 7,
  "หัวเข็ม": 7,
  "๊ย": 7,
  "ไทเป": 7,
  "th": 7,
  "309": 7,
  "สั่น@@": 7,
  "แร@@": 7,
  "ตารางกิโลเมตร": 7,
  "11600": 7,
  "ลาน@@": 7,
  "ฉีดยา": 7,
  "วี่": 7,
  "ถุงน่อง": 7,
  "งานวิจัย": 7,
  "ระยะ@@": 7,
  "ปิค": 7,
  "30600": 7,
  "584": 7,
  "1500000": 7,
  "543": 7,
  "แม้แต่น้อย": 7,
  "สุรา": 7,
  "วอล@@": 7,
  "โสด": 7,
  "กระซิบ": 7,
  "++": 7,
  "ความสด": 7,
  "ที@@": 7,
  "ข@@": 7,
  "661": 7,
  "SE": 7,
  "อสุรกาย": 7,
  "ลู@@": 7,
  "ผู้รับใช้": 7,
  "9.2": 7,
  "อง": 7,
  "พระพุทธศาสนา": 7,
  "ab@@": 7,
  "กังวลใจ": 7,
  "vi@@": 7,
  "FM": 7,
  "เพลา": 7,
  "ที่เกิดเหตุ": 7,
  "ใครก็ได้": 7,
  "76200": 7,
  "โด@@": 7,
  "โวลต์": 7,
  "249": 7,
  "งา@@": 7,
  "ลัน": 7,
  "ผู@@": 7,
  "เกษตร": 7,
  "ผู้คุม": 7,
  "TO": 7,
  "skill": 7,
  "736": 7,
  "498": 7,
  "588": 7,
  "583": 7,
  "ง": 7,
  "ซ่อนเร้น": 7,
  "เมตตา": 7,
  "ธิ": 7,
  "เซี่ยน": 7,
  "ื่อย@@": 7,
  "คนดัง": 7,
  "ไอ@@": 7,
  "มืดครึ้ม": 7,
  "ี้ย@@": 7,
  "161": 7,
  "เห็นที": 7,
  "โพรง": 7,
  "ลำ@@": 7,
  "เป็นลำดับ": 7,
  "713": 7,
  "สุ่ย": 7,
  "กี": 7,
  "ไม่อย่างนั้น": 7,
  "ทุกที": 7,
  "542": 7,
  "ฟ้า@@": 7,
  "485": 7,
  "489": 7,
  "ตรวจ@@": 7,
  "ด้วย@@": 7,
  "703": 7,
  "491": 7,
  "ไดออกไซด์": 7,
  "5125": 7,
  "ออกงาน": 7,
  "ุ่ม": 7,
  "ผลสำเร็จ": 7,
  "เอฟ": 7,
  "771": 7,
  "ถูกต้องตามกฎหมาย": 7,
  "เป๊ป": 7,
  "251": 7,
  "ปิดไฟ": 7,
  "แสดงตัว": 7,
  "ดังก้อง": 7,
  "พิก": 7,
  "2031": 7,
  "เดีย": 7,
  "กฎกระทรวง": 7,
  "Ba@@": 7,
  "10.00": 7,
  "จู่": 7,
  "ไฮโซ": 7,
  "ไลฟ์สไตล์": 7,
  "อนุ": 7,
  "18.5": 7,
  "ตัวต่อ": 7,
  "สัตว์ร้าย": 7,
  "แดนซ์": 7,
  "”@@": 7,
  "ความมหัศจรรย์": 7,
  "เครื่องดูดฝุ่น": 7,
  "456": 7,
  "สแต@@": 7,
  "219": 7,
  "ผู้ส่งสาร": 7,
  "มีเดีย": 7,
  "ทางอ้อม": 7,
  "ช์": 7,
  "สิ่งปลูกสร้าง": 7,
  "7.1": 7,
  "iimin": 7,
  "โรคภูมิแพ้": 7,
  "โอกาศ": 7,
  "กระบวย": 7,
  "สวิตเซอร์แลนด์": 7,
  "ม่า@@": 7,
  "เท่านั้นเอง": 7,
  "เจียน": 7,
  "จับภาพ": 7,
  "วีธี": 7,
  "าร": 7,
  "ment": 7,
  "VR": 7,
  "ดก": 7,
  "กุ้ยฮ": 7,
  "ทางการค้า": 7,
  "มัน@@": 7,
  "จ้อง": 7,
  "COD": 7,
  "Shopline": 7,
  "396": 7,
  "แส": 7,
  "ขยายความ": 7,
  "แตกสลาย": 7,
  "(/": 7,
  "16375": 7,
  "ขาดทุน": 7,
  "จ้องมอง": 7,
  "การประมูล": 7,
  "หัก@@": 7,
  "ความรุนแรง": 7,
  "ca@@": 7,
  "ที่ต่ำ": 7,
  "ลองใน": 7,
  "ทองเหลือง": 7,
  "แมก": 7,
  "504": 7,
  "เล่น@@": 7,
  "694": 7,
  "ting": 7,
  "กลีบ": 7,
  "ิต": 7,
  "·ส": 7,
  "อ้างสิทธิ์": 7,
  "ทรัมเป็ต": 7,
  "796": 6,
  "excel": 6,
  "Angellir": 6,
  "หัวนม": 6,
  "ลำดับความสำคัญ": 6,
  "ได@@": 6,
  "ban@@": 6,
  "จื่อห": 6,
  "เล่ยจื่อ": 6,
  "ความผันผวน": 6,
  ".1": 6,
  "บัตเตอร์": 6,
  "Bt": 6,
  "เสือดาว": 6,
  "คำนิยาม": 6,
  "92200": 6,
  "ปลาโลมา": 6,
  "NIM": 6,
  "ขุ@@": 6,
  "แบบทดสอบ": 6,
  "เมื่อคืน": 6,
  "ฃ": 6,
  "ลดทอน": 6,
  "was": 6,
  "ี้ยง": 6,
  "อัฉ": 6,
  "บ่งบอก": 6,
  "เชื่อง": 6,
  "745": 6,
  "เสพติด": 6,
  "รับบท": 6,
  "บริบท": 6,
  "เพทาย": 6,
  "วงเล็บ": 6,
  "ละมุนละม่อม": 6,
  "ทิป": 6,
  "ปัจจัยภายนอก": 6,
  "เปลญวน": 6,
  "อิม": 6,
  "กัด@@": 6,
  "การเฉลิมฉลอง": 6,
  "738": 6,
  "หน่าย": 6,
  "2778": 6,
  "แน่นแฟ้น": 6,
  "กระเป๋าเสื้อ": 6,
  "）（": 6,
  "คนแปลกหน้า": 6,
  "imp@@": 6,
  "โคก": 6,
  "อำพราง": 6,
  "18000": 6,
  "ความล่าช้า": 6,
  "แจ": 6,
  "บ้าระห่ำ": 6,
  "252": 6,
  "มัธยมต้น": 6,
  "ย่อง": 6,
  "1094": 6,
  "กราบไหว้": 6,
  "คู่ควร": 6,
  "กรี@@": 6,
  "จัดงาน": 6,
  "ใจร้าย": 6,
  "TB": 6,
  "โก@@": 6,
  "็อก": 6,
  "หนุ่มน้อย": 6,
  "91": 6,
  "ทันใดนั้น": 6,
  "เนล": 6,
  "ต่ำ@@": 6,
  "นายแบบ": 6,
  "หมายเลขประจำตัว": 6,
  "393": 6,
  "กว@@": 6,
  "502": 6,
  "ent": 6,
  "แบบ@@": 6,
  "เป่าผม": 6,
  "CE": 6,
  "ข่าวดี": 6,
  "ในทำนองเดียวกัน": 6,
  "เทียบเท่า": 6,
  "จริย": 6,
  "กรรมสิทธิ์": 6,
  "367": 6,
  "ฟาโรห์": 6,
  "JI@@": 6,
  "ทัศน์": 6,
  "4580": 6,
  "ปลดออก": 6,
  "ตลอด@@": 6,
  "444": 6,
  "รอบทิศทาง": 6,
  "ทางทฤษฎี": 6,
  "เหลือเชื่อ": 6,
  "ชื่อจริง": 6,
  "ระดับนานาชาติ": 6,
  "เพียงใด": 6,
  "ถ่านไม้": 6,
  "ืม": 6,
  "589": 6,
  "โฉมใหม่": 6,
  "ลมปราณ": 6,
  "ก้อง": 6,
  "จับตา": 6,
  "อคติ": 6,
  "CONTENT": 6,
  "แว่นตากันแดด": 6,
  "เย็นยะเยือก": 6,
  "ขีด@@": 6,
  "ติดไฟ": 6,
  "แสวง": 6,
  "สนับมือ": 6,
  "415": 6,
  "คณะ": 6,
  "สวยหรู": 6,
  "ลำเอียง": 6,
  "CV": 6,
  "ตัก": 6,
  "อัลคาไลน์": 6,
  "เบจ": 6,
  "สัญชาติ": 6,
  "๊ต": 6,
  "องค์การ": 6,
  "หนักหนา": 6,
  "875": 6,
  "โค่นล้ม": 6,
  "ทางธรรมชาติ": 6,
  "โซลูชั่น": 6,
  "ฉันท์": 6,
  "HPx": 6,
  "ยาหม่อง": 6,
  "การซ่อน": 6,
  "duc@@": 6,
  "อัส": 6,
  "เมจิ": 6,
  "๓๑": 6,
  "-----": 6,
  "แต่อย่างใด": 6,
  ":【": 6,
  "กองทัพอากาศ": 6,
  "ส์@@": 6,
  "ไท่@@": 6,
  "ดูท่าทาง": 6,
  "ออกฤทธิ์": 6,
  "ธิ@@": 6,
  "3.7": 6,
  "เซ้ง": 6,
  "：《": 6,
  "นับแต่": 6,
  "ถูไถ": 6,
  "ไฮโดรเจนซัลไฟด์": 6,
  "14554": 6,
  "นับว่า": 6,
  "กลับ@@": 6,
  "ชาติ@@": 6,
  "โบราณสถาน": 6,
  "ต่า": 6,
  "728": 6,
  "เครื่องเพชรพลอย": 6,
  "เงินฝาก": 6,
  "เลม": 6,
  "สมจริง": 6,
  "12.00": 6,
  "ดีละ": 6,
  "ฝากเงิน": 6,
  "สาธารณชน": 6,
  "ทำสำเนา": 6,
  "นางเอก": 6,
  "วางขาย": 6,
  "น่าประทับใจ": 6,
  "บดขยี้": 6,
  "เดือย": 6,
  "ipad": 6,
  "บิ๊ก": 6,
  "พวงกุญแจ": 6,
  "AUX": 6,
  "ม์": 6,
  "กับข้าว": 6,
  "685": 6,
  "มิตรแท้": 6,
  "โน้ต": 6,
  "รีม": 6,
  "สอบผ่าน": 6,
  "น้ำขึ้น": 6,
  "น้ำลง": 6,
  "จ้างวาน": 6,
  "รถจักรยานยนต์": 6,
  "เร้นลับ": 6,
  "ex@@": 6,
  "โภชนา": 6,
  "หมวก@@": 6,
  "559": 6,
  "II-": 6,
  "แช@@": 6,
  "ฟรานซิส": 6,
  "จุ@@": 6,
  "ธิการ": 6,
  "พรรค": 6,
  "กรร@@": 6,
  "ไฮ@@": 6,
  "ขี้โกง": 6,
  "ระเบิดเพลิง": 6,
  "เก่น": 6,
  "%！": 6,
  "๒๒": 6,
  "OF@@": 6,
  "Tote": 6,
  "ทางอาญา": 6,
  "สนธิสัญญา": 6,
  "IN": 6,
  "SPF": 6,
  "กบ": 6,
  "iPhone": 6,
  "เนื้อเรื่อง": 6,
  "จํานวน": 6,
  "ส่วนแบ่ง": 6,
  "39375": 6,
  "ตีนกา": 6,
  "ออม": 6,
  "มาร์ติน": 6,
  "567": 6,
  "โดยพลการ": 6,
  "งานใหญ่": 6,
  "MotorcycleBag": 6,
  "ร่อน": 6,
  "MA": 6,
  "744": 6,
  "is@@": 6,
  "หนึ่งในสี่": 6,
  "746": 6,
  "ย้อนหลัง": 6,
  "ฝ่าฟัน": 6,
  "ตามฤดูกาล": 6,
  "Ne@@": 6,
  "ีร@@": 6,
  "นิกาย": 6,
  "FA@@": 6,
  "งงงวย": 6,
  "7.2": 6,
  "ให@@": 6,
  "ใยพืช": 6,
  "สัม@@": 6,
  "CBT": 6,
  "ปรบ@@": 6,
  "ค์@@": 6,
  "ไม้จิ้มฟัน": 6,
  "%@@@": 6,
  "RO": 6,
  "รวมกลุ่ม": 6,
  "ตาบอด": 6,
  "สง@@": 6,
  "ค่าจ้าง": 6,
  "บอกกล่าว": 6,
  "ฏ": 6,
  "WikiFX": 6,
  "วัฏจักร": 6,
  "ข้าม@@": 6,
  "ลิตร": 6,
  "บ่น": 6,
  "353": 6,
  "ชะมัด": 6,
  "โยธา": 6,
  "วงจร@@": 6,
  "9.5": 6,
  "ing@@": 6,
  "นัล": 6,
  "รับมอบ": 6,
  "ทำใจ": 6,
  "China": 6,
  "ู้": 6,
  "สู่ขอ": 6,
  "ไร้ความรู้สึก": 6,
  "ตะลึง": 6,
  "530@@": 6,
  "ฟูก": 6,
  "บัค": 6,
  "ธุระ": 6,
  "มีฤทธิ์": 6,
  "ด่าง": 6,
  "005": 6,
  "จิว": 6,
  "กาล": 6,
  "ความจำเป็น": 6,
  "778": 6,
  "Ex@@": 6,
  "สล@@": 6,
  "ค่าแรง": 6,
  "ก้ม@@": 6,
  "ทำงานบ้าน": 6,
  "ผลการวิจัย": 6,
  "โหมกระหน่ำ": 6,
  "ตระการตา": 6,
  "AS": 6,
  "538": 6,
  "ดังกล่าวข้างต้น": 6,
  "เนื้อโลหะ": 6,
  "หอบหืด": 6,
  "่วย": 6,
  "ตุล": 6,
  "หนอง": 6,
  "แผ่ออก": 6,
  "มิน@@": 6,
  "637": 6,
  "กค": 6,
  "ยาย": 6,
  "248": 6,
  "โคน": 6,
  "เจี้ยน)": 6,
  "คอนโทรลเลอร์": 6,
  "ทุกข์ทรมาน": 6,
  "โบ้": 6,
  "โฮ@@": 6,
  "32375": 6,
  ".....": 6,
  "รุ่ง@@": 6,
  "578": 6,
  "ดะ": 6,
  "1401005571": 6,
  "สโลป": 6,
  "อลิซาเบธ": 6,
  "โปรโมต": 6,
  "pp@@": 6,
  "511": 6,
  "กลับกัน": 6,
  "ชักจะ": 6,
  "Be@@": 6,
  "731": 6,
  "ชิง@@": 6,
  "ลิต": 6,
  "4.25": 6,
  "SPA": 6,
  "361": 6,
  "497": 6,
  "น้อม": 6,
  "เจ็บใจ": 6,
  "แผ่นดินใหญ่": 6,
  "สก็อต": 6,
  "คิคอล\\": 6,
  "หวาดระแวง": 6,
  "เชย": 6,
  "ความชำนาญ": 6,
  "ผ่าน@@": 6,
  "แข้ง": 6,
  "266": 6,
  "ภิ@@": 6,
  "อิมัลชัน": 6,
  "·เจิ้น·": 6,
  "มัง": 6,
  "ดอลลาร์": 6,
  "ไม่ดี": 6,
  "ชก": 6,
  "แสง@@": 6,
  "ความเกี่ยวข้อง": 6,
  "โทมัส": 6,
  "dow@@": 6,
  "DS": 6,
  "บัญชา": 6,
  "ที่ทาง": 6,
  "15300": 6,
  "2240": 6,
  "69@@": 6,
  "จับต้อง": 6,
  "ช้อน": 6,
  "537": 6,
  "สินค้าออก": 6,
  "ไข่ไก่": 6,
  "ออปติคอล": 6,
  "กำลัง@@": 6,
  "ia": 6,
  "1499": 6,
  "เหรียญทองแดง": 6,
  "นี่แหละ": 6,
  "ได้คืน": 6,
  "...@@": 6,
  "ถุ@@": 6,
  "ไส้@@": 6,
  "มู@@": 6,
  "ook": 6,
  "บริการเสริม": 6,
  "การแสดงความคิดเห็น": 6,
  "·เฟรด": 6,
  "860": 6,
  "เรนโบว์": 6,
  "กระทรวง@@": 6,
  "อน@@": 6,
  "ื้น": 6,
  "งเจิล": 6,
  "~\\": 6,
  "ความเข้มแข็ง": 6,
  "เชื่อถือ": 6,
  "พระสงฆ์": 6,
  "๑๔": 6,
  "รู้อยู่": 6,
  "ขั้ว@@": 6,
  "เจี้ยน：": 6,
  "คำสาบาน": 6,
  "มัธยม": 6,
  "2,000": 6,
  ";ถก": 6,
  "เผยความลับ": 6,
  "1480": 6,
  "สวัสดิการ": 6,
  "คนโง่": 6,
  "เครื่องอุปกรณ์": 6,
  "การชะ": 6,
  "118@@": 6,
  "ิด@@": 6,
  "รับโทษ": 6,
  "UVA": 6,
  "ตรง@@": 6,
  "ผู้อำนวยการ": 6,
  "DB": 6,
  "สิ้นดี": 6,
  "พอได้": 6,
  "คงเดิม": 6,
  "ภาวะ@@": 6,
  "สัตว์ป่า": 6,
  "ขาวสะอาด": 6,
  "บ๊อก": 6,
  "ce@@": 6,
  "แก้ว@@": 6,
  "ผักขม": 6,
  "ice": 6,
  "งานบ้าน": 6,
  "7430": 6,
  "10350": 6,
  "แข็งๆ": 6,
  "ภัณฑ": 6,
  "ลูกขนไก่": 6,
  "เกลื้อน": 6,
  "สุดความสามารถ": 6,
  "ขยันหมั่นเพียร": 6,
  "ใน@@": 6,
  "เท็จจริง": 6,
  "ตอนเย็น": 6,
  "เพ่งเล็ง": 6,
  "รับฟัง": 6,
  "สงวนสิทธิ์": 6,
  "เมือ": 6,
  "เลป": 6,
  "22.5": 6,
  "kWh": 6,
  "ve": 6,
  "ข้าวสาลี": 6,
  "655": 6,
  "มิ่ง": 6,
  "พญา": 6,
  "เท่าตัว": 6,
  "หยาบคาย": 6,
  "การยับยั้ง": 6,
  "สวน@@": 6,
  "ึก": 6,
  "จุดต่อ": 6,
  "กัญชา": 6,
  "ชุ@@": 6,
  "เงียบสงัด": 6,
  "160000": 6,
  "ประถม": 6,
  "โรคผิวหนัง": 6,
  "งบประมาณ": 6,
  "BA@@": 6,
  "BAK": 6,
  "ิ้น": 6,
  "เดินตาม": 6,
  "่ะ": 6,
  "เหม@@": 6,
  "ถึงกับ": 6,
  "ึก@@": 6,
  "ใจร้อน": 6,
  "ข่ม@@": 6,
  "ขนถ่าย": 6,
  "619": 6,
  "ท้องแบน": 6,
  "735": 6,
  "ฝา@@": 6,
  "174": 6,
  "มีข้อบกพร่อง": 6,
  "แกว่งไกว": 6,
  "ซ่าง": 6,
  "น้ำผลไม้": 6,
  "ความดีงาม": 6,
  "2025": 6,
  "อุตส่าห์": 6,
  "Huawei": 6,
  "อานม้า": 6,
  "คลี": 6,
  "150000": 6,
  "มีเงิน": 6,
  "การปฏิวัติ": 6,
  "มุ@@": 6,
  "เสียรูปทรง": 6,
  "ตรวจตรา": 6,
  "ร้านค้าปลีก": 6,
  "ร่ายรำ": 6,
  "ปีเกิด": 6,
  "เพศหญิง": 6,
  "ทับ@@": 6,
  "การค้าขาย": 6,
  "ด้วยว่า": 6,
  "________@@": 6,
  "เผิง": 6,
  "ภ": 6,
  "เหอะ": 6,
  "ล่วง": 6,
  "อส": 6,
  "การบ้าน": 6,
  "990": 6,
  "เสียสติ": 6,
  "ความหวาดกลัว": 6,
  "การบังคับใช้": 6,
  "Zhuhai": 6,
  "เช็น": 6,
  "๒.@@": 6,
  "ทั้งชาติ": 6,
  "พนักงานบริการ": 6,
  "สต์": 6,
  "ใด้": 6,
  "มัฟฟิน": 6,
  "An@@": 6,
  "ให้พร": 6,
  "ทางลาด": 6,
  "อ่างล้างหน้า": 6,
  "ซิลเวีย": 6,
  "เฟย": 6,
  "ก้@@": 6,
  "hhh": 6,
  "คาราวาน": 6,
  "366": 6,
  "ผน@@": 6,
  "ตื่นตา": 6,
  "AB": 6,
  "ทาร์": 6,
  "fi@@": 6,
  "เขตเมือง": 6,
  "AAA": 6,
  "ชัง": 6,
  "มีระเบียบ": 6,
  "ควอทซ์": 6,
  "นิ่มนวล": 6,
  "เลี้ยงสัตว์": 6,
  "บรอดแบนด์": 6,
  "หัวแม่เท้า": 6,
  "รพิ": 6,
  "แซ@@": 6,
  "คม@@": 6,
  "ข่าวกรอง": 6,
  "ขิง": 6,
  "Gu@@": 6,
  "ge": 6,
  "การออกอากาศ": 6,
  "เสียโฉม": 6,
  "เงยหน้า": 6,
  "กำลังใจ": 6,
  "มือดี": 6,
  "cu@@": 6,
  "481": 6,
  "GD": 6,
  "ขึ้นอยู่": 6,
  "อัลตรา": 6,
  "!#": 6,
  "Logo": 6,
  "ทำงานหนัก": 6,
  "พนักงาน@@": 6,
  "ชำ@@": 6,
  "ps": 6,
  "แนวความคิด": 6,
  "ความหมายแฝง": 6,
  "หายใจ@@": 6,
  "หาว่า": 6,
  "ศาล@@": 6,
  "ดาร": 6,
  "ือก": 6,
  "ห้าง": 6,
  "รดน้ำ": 6,
  "651": 6,
  "ตัวพิมพ์": 6,
  "638": 6,
  "GMC": 6,
  ">●": 6,
  "เซ็นทรัล": 6,
  "ภูเก็ต": 6,
  "ียด": 6,
  "10625": 6,
  "เลด": 6,
  "บู": 6,
  "373": 6,
  "จิ่ง": 6,
  "741": 6,
  "รท": 6,
  "bo@@": 6,
  "เงินสเตอร์ลิง": 6,
  "สายน้ำ": 6,
  "ช่อ": 6,
  "EI": 6,
  "1125": 6,
  "คำพิพากษา": 6,
  "3296": 6,
  "ตัวบ่งชี้": 6,
  "มิลลิลิตร": 6,
  "คลื่นวิทยุ": 6,
  "end": 6,
  "อวบอ้วน": 6,
  "TE@@": 6,
  "344": 6,
  "คิคอล": 6,
  "สเตอร์": 6,
  "อาน": 6,
  "กรา@@": 6,
  "3900": 6,
  "ให้ผล": 6,
  "ต้นตอ": 6,
  "LULULUN": 6,
  "กํา": 6,
  "ความเพลิดเพลิน": 6,
  "ผิดรูป": 6,
  "แน่ชัด": 6,
  "สันติภาพ": 6,
  "LCD": 6,
  "อยู่ในเส้นทาง": 6,
  "ความหวาน": 6,
  "ขั้น@@": 6,
  "8.8": 6,
  "จัดกิจกรรม": 6,
  "669": 6,
  "กีดขวาง": 6,
  "USD": 6,
  "ปวด@@": 6,
  "เลว": 6,
  "ท้ายที่สุด": 6,
  "Energy": 6,
  "ไขควง": 6,
  "742": 6,
  "ข้าน้อย": 6,
  "ราคา@@": 6,
  "ซักรีด": 6,
  "！（": 6,
  "เหมียว": 6,
  "สัมพันธ์": 6,
  "28000": 6,
  "เทพ@@": 6,
  "้ม@@": 6,
  "ทางตะวันตก": 6,
  "ุก@@": 6,
  "นด": 6,
  "LAOGESHI": 6,
  "อาชา": 6,
  "นตน": 6,
  "แบ็ค": 6,
  "ภักดี": 6,
  "ุ่น": 6,
  "อะตอม": 6,
  "แต่@@": 6,
  "อยากรู้": 6,
  "ุน@@": 6,
  "ผ้านวม": 6,
  "2290": 6,
  "พร้อย": 6,
  "ช่วง@@": 6,
  "สีสด": 6,
  "แถลง": 6,
  "ผ้าอ้อม": 6,
  "【ส้าวเฮ่า】": 6,
  "ขี@@": 6,
  "University": 6,
  "5.8": 6,
  "บ้าน@@": 6,
  "ใจมา": 6,
  "กอบกู้": 6,
  "ยืนนาน": 6,
  "สามัคคี": 6,
  "ครอว์": 6,
  "·อวี้เหิง·": 6,
  "เมื้อ": 6,
  "อี่": 6,
  "ชอบด้วยกฎหมาย": 6,
  "ขับเคลื่อนด้วย": 6,
  "็ก@@": 6,
  "ตราชั่ง": 6,
  "แจ@@": 6,
  "ลี้ลับ": 6,
  "11060": 6,
  "UM@@": 6,
  "ทางทหาร": 6,
  "ฟักทอง": 6,
  "มีธุระ": 6,
  "หกล้ม": 6,
  "เปี่ยม": 6,
  "เกลา": 6,
  "หมายรวม": 6,
  "ไฟแดง": 6,
  "7.8": 6,
  "0.06": 6,
  "เกิดเหตุ": 6,
  "เปล@@": 6,
  "ปิ่นปักผม": 6,
  "ซิบ": 6,
  "ดึงดูดสายตา": 6,
  "ในแง่": 6,
  "นย": 6,
  "เสียสละ": 6,
  "ปัด": 6,
  "0.4": 6,
  "บอดี้การ์ด": 6,
  "คอปาด": 6,
  "549": 6,
  "เด็ด": 6,
  "ราศีมีน": 6,
  "ยิ่งกว่านั้น": 6,
  "แจ้งให้ทราบ": 6,
  "แคดเมียม": 6,
  "ประนีประนอม": 6,
  "อุษาคเนย์": 6,
  "ๆๆ@@": 6,
  "เชื่อใจ": 6,
  "แอล": 6,
  "ถอด@@": 6,
  "ผ้าขี้ริ้ว": 6,
  "ปิ้ง": 6,
  "ประหาร": 6,
  "ผ้าคลุมไหล่": 6,
  "แว่นขยาย": 6,
  "ได้รับการยกย่อง": 6,
  "ตีเมือง": 6,
  "ัง@@": 6,
  "ทอร์นาโด": 6,
  "เท่านี้": 6,
  "ตำ@@": 6,
  "ร์:": 6,
  "แออัด": 6,
  "ผ้@@": 6,
  "กะรัต": 6,
  "ตรงๆ": 6,
  "พลัน": 6,
  "นิว@@": 6,
  "ฉับ@@": 6,
  "พายุ@@": 6,
  "ที่เชื่อถือได้": 6,
  "วิธีใช้": 6,
  "น้ำมันพืช": 6,
  "269": 6,
  "758": 6,
  "ชด": 6,
  "หลับสนิท": 6,
  "คาร์@@": 6,
  "เนต": 6,
  "เอบีเอส": 6,
  "ขนคิ้ว": 6,
  "พิเษศ": 6,
  "ความยิ่งใหญ่": 6,
  "1401006919": 6,
  "693": 6,
  "หน้าใหม่": 6,
  "เซลฟี่": 6,
  "ความหนืด": 6,
  "ว่าย": 6,
  "1525": 6,
  "สุจริต": 6,
  "จิตสำนึก": 6,
  "ข้อเรียกร้อง": 6,
  "ยืดเวลา": 6,
  "color": 6,
  "สมนาคุณ": 6,
  "ระดับความสูง": 6,
  "Terminal": 6,
  "Unit": 6,
  "Integrated": 6,
  "Totals": 6,
  "โปรโตคอล": 6,
  "กางเขน": 6,
  "วย@@": 6,
  "เฉพาะ@@": 6,
  "การฟ้องร้อง": 6,
  "การสาน": 6,
  "........@@": 6,
  "ถ่วง": 6,
  "ตอง": 6,
  "116@@": 6,
  "ผลข้างเคียง": 6,
  "613": 6,
  "FMC": 6,
  "ถึงชีวิต": 6,
  "นง": 6,
  "531": 6,
  "0.9.0": 6,
  "DI": 6,
  "SLR": 6,
  "เก่าๆ": 6,
  "า": 6,
  "ตำหนิ": 6,
  "4050": 6,
  "Dual": 6,
  "อุจจาระ": 6,
  "ชะตาชีวิต": 6,
  "ขออนุมัติ": 6,
  "เนเธอร์แลนด์": 6,
  "ร้อน@@": 6,
  "623": 6,
  "มวล": 6,
  "ดำเนินต่อไป": 6,
  "โอ่อ่า": 6,
  "ับ@@": 6,
  "อำ@@": 6,
  "ly@@": 6,
  "น้ำยา@@": 6,
  "ver": 6,
  "res@@": 6,
  "๒๕": 6,
  "สลุบ": 6,
  "ขายส่ง": 6,
  "18250": 6,
  "หมายปล่อย": 6,
  "ตอนท้าย": 6,
  "80@@": 6,
  "แวววับ": 6,
  "ความเคลื่อนไหว": 6,
  "แพทย": 6,
  "เคราติน": 6,
  "สำริด": 6,
  "ิ้ม": 6,
  "ยู๋": 6,
  "ถุงลม": 6,
  "ขาออก": 6,
  "683": 6,
  "ให@@": 6,
  "กันสาด": 6,
  "เอส@@": 6,
  "21500": 6,
  "app": 6,
  "9999": 6,
  "เป็นที่ยอมรับ": 6,
  "200@@": 6,
  "ลื่นไหล": 6,
  "เด็กโต": 6,
  "แซ่": 6,
  "วิทยา@@": 6,
  "เวลาเริ่ม": 6,
  "681": 6,
  "สำนวน": 6,
  "33000": 6,
  "is": 6,
  "อิตาเลียน": 6,
  "โป๊": 6,
  "คล้ายคลึง": 6,
  "ขมวดคิ้ว": 6,
  "กระเป๋ากางเกง": 6,
  "หึ่ง": 6,
  "จอง@@": 6,
  "1440000": 6,
  "ฟินิกซ์": 6,
  "บวมน้ำ": 6,
  "โน้ตบุ๊ก": 6,
  "อัพ@@": 6,
  "ทีน": 6,
  "คำประกาศ": 6,
  "กบฎ": 6,
  "GORE-TEX": 6,
  "กล่าว@@": 6,
  "เรื้อรัง": 6,
  "สะท้าน": 6,
  "ยืด@@": 6,
  "ตุ": 6,
  "ห้องเรียน": 6,
  "ครอส": 6,
  "พลา@@": 6,
  "764": 6,
  "าบ": 6,
  "เทศ": 6,
  "ให้แรง": 6,
  "ทุกหนทุกแห่ง": 6,
  "แสดงท่าทาง": 6,
  "เลต": 6,
  "ลุ่มน้ำ": 6,
  "เทือกเขา": 6,
  "632": 6,
  "787": 6,
  "งาช้าง": 6,
  "ห้องอาบน้ำ": 6,
  "ใหม": 6,
  "769": 6,
  "ภูมิอากาศ": 6,
  "ปศุสัตว์": 6,
  "รุน": 6,
  "ตรา@@": 6,
  "ปม": 6,
  "ภาวนา": 6,
  "เซียร์": 6,
  "พระราชวัง": 6,
  "ผลกรรม": 6,
  "เท้าหลัง": 6,
  "ทางเท้า": 6,
  "ทนายความ": 6,
  "คำแปล": 6,
  "ควรจะเป็น": 6,
  "รักษา@@": 6,
  "ิง@@": 6,
  "ซิ@@": 6,
  "แปรผัน": 6,
  "ดังที่": 6,
  "billion": 6,
  "699": 6,
  "DEX": 6,
  "รังเกียจ": 6,
  "น】": 6,
  "เกื้อกูล": 6,
  "ขึ้นชื่อ": 6,
  "รถเมล์": 6,
  "ชบา": 6,
  "แล@@": 6,
  "มีความรู้": 6,
  "หะ": 6,
  "654": 6,
  "628": 6,
  "แดนดิน": 6,
  "ในนาม": 6,
  "เอาเป็นว่า": 6,
  ".กด": 6,
  "ฟองอากาศ": 6,
  "ไอซ์": 6,
  "398": 6,
  "ข้อเสีย": 6,
  "จับกุม": 6,
  "ตาราง@@": 6,
  "หนังสือพิมพ์": 6,
  "คงไว้": 6,
  "1320": 6,
  "ภูมิ@@": 6,
  "ให้เหตุผล": 6,
  "CC": 6,
  "ประกอบการ": 6,
  "สบ@@": 6,
  "POLO": 6,
  "16889": 6,
  "หม": 6,
  "ุ่ม": 5,
  "พลวัต": 5,
  "อัดลม": 5,
  "วลี": 5,
  "ฏ@@": 5,
  "ริม@@": 5,
  "2175": 5,
  "ตร์": 5,
  "ผัง": 5,
  "409": 5,
  "เบริลเลียม": 5,
  "ฟอกสี": 5,
  "วาจา": 5,
  "บุรุษ": 5,
  "แฟกซ์": 5,
  "YA@@": 5,
  "สกิล·ส": 5,
  "ข้าว@@": 5,
  "ทั้งคน": 5,
  "พุทธะ": 5,
  "ไมโครอิเล็กทรอนิกส์": 5,
  "ีบ@@": 5,
  "สติ@@": 5,
  "88.80": 5,
  "ยิ่งนัก": 5,
  "ษา": 5,
  "ตกใน": 5,
  "13.3": 5,
  "เหที่ย": 5,
  "CU@@": 5,
  "ส่": 5,
  "ตาเปล่า": 5,
  "ผูก@@": 5,
  "วีไอพี": 5,
  "โต๊ะ@@": 5,
  "๊": 5,
  "หวั่นไหว": 5,
  "ครุ@@": 5,
  "ต่อตัว": 5,
  "สะอาดสะอ้าน": 5,
  "โดยทันที": 5,
  "ตรงข้าม": 5,
  "โลภ": 5,
  "โกรธแค้น": 5,
  "281": 5,
  "ชาม": 5,
  "แผ่ซ่าน": 5,
  "คีบอร์ด": 5,
  "http": 5,
  "กระจก@@": 5,
  "คละ": 5,
  "are": 5,
  "การตอบโต้": 5,
  "1100000": 5,
  "ได้ข่าว": 5,
  "๑๑": 5,
  "mom@@": 5,
  "สิบ@@": 5,
  "alth": 5,
  "สวีเดน": 5,
  "474": 5,
  "ตอนหลัง": 5,
  "ประกา@@": 5,
  "โนะ": 5,
  "บาสเกตบอล": 5,
  "โบราณกาล": 5,
  "เอพี": 5,
  "ยื่น@@": 5,
  "นัดหมาย": 5,
  "แยกจาก": 5,
  "คนร้าย": 5,
  "หมุนรอบ": 5,
  "ทะล@@": 5,
  "มหู": 5,
  "กลางดึก": 5,
  "ไกล่เกลี่ย": 5,
  "isho@@": 5,
  "เคือง": 5,
  "ความสามัคคี": 5,
  "ตั้งใจจริง": 5,
  "เอาแต่ใจ": 5,
  "หุบปาก": 5,
  "ศักราช": 5,
  "เทพบุตร": 5,
  "อนุรักษ์": 5,
  "ไม่เห็นจะ": 5,
  "ประเมินค่า": 5,
  "ถึงแม้": 5,
  "ตอนจบ": 5,
  "ene": 5,
  "anv@@": 5,
  "รวด": 5,
  "ออกแรง": 5,
  "เจาะตลาด": 5,
  "เป็นที่ชื่นชอบ": 5,
  "เหตุนี้": 5,
  "าว": 5,
  "ความเจริญ": 5,
  "0.01": 5,
  "$@@": 5,
  "กลม@@": 5,
  "facebook": 5,
  "ฝัง@@": 5,
  "การตกปลา": 5,
  "）×": 5,
  "ขอบ@@": 5,
  "สก": 5,
  "หารือ": 5,
  "AP@@": 5,
  "เท่าเทียม": 5,
  "ก็ต่อเมื่อ": 5,
  "<>[]": 5,
  "สกอตแลนด์": 5,
  "สภา": 5,
  "สภาพ@@": 5,
  "แสด": 5,
  "หยิ่ง": 5,
  "พลิ้ว": 5,
  "เดินสาย": 5,
  "OP@@": 5,
  "มีสติปัญญา": 5,
  "ออกคำสั่ง": 5,
  "กวาวเครือ": 5,
  "ดำคล้ำ": 5,
  "คีบ": 5,
  "อ่อนหัด": 5,
  "ความเปลี่ยนแปลง": 5,
  "TO@@": 5,
  "1,099": 5,
  "นิ้วหัวแม่มือ": 5,
  "พ.ย.|": 5,
  "เอ้ย": 5,
  "ข้อมูลขนาดใหญ่": 5,
  "ทิ้ง@@": 5,
  "การเก็บเงิน": 5,
  "ty": 5,
  "HONG": 5,
  "น่าดู": 5,
  "ku@@": 5,
  "รซ": 5,
  "ยานยนต์": 5,
  "ทรงไว้": 5,
  "คติ": 5,
  "ที่ทำการ": 5,
  "อาชญากรรม": 5,
  "3850": 5,
  "คนชรา": 5,
  "อ่าว": 5,
  "ท่า@@": 5,
  "1999": 5,
  "โรย": 5,
  "ใช้เนื้อ": 5,
  "น้อย@@": 5,
  "เสียเงิน": 5,
  "หนักหน่วง": 5,
  "เรดาร์": 5,
  "ack": 5,
  "สตี้": 5,
  "แวว": 5,
  "ทด": 5,
  "เหนือ@@": 5,
  "749": 5,
  "MU@@": 5,
  "นิคมอุตสาหกรรม": 5,
  "----------------------------@@": 5,
  "นุ่ง": 5,
  "หว่าน": 5,
  "กระท@@": 5,
  "TC": 5,
  "MoTianJi": 5,
  "ช่วงแรก": 5,
  ".8": 5,
  "ภาษีมูลค่าเพิ่ม": 5,
  "（/": 5,
  "องค์การบริหารส่วนตำบล": 5,
  "ชานเมือง": 5,
  "ken": 5,
  "ในทันที": 5,
  "กิลด์】": 5,
  "เมนบอร์ด": 5,
  "กลาง@@": 5,
  "เหยียนฮ": 5,
  "อ้างว้าง": 5,
  "มีเจ้าของ": 5,
  "35@@": 5,
  "พ่าย": 5,
  "บุกเบิก": 5,
  "โป@@": 5,
  "การโค้ง": 5,
  "se@@": 5,
  "งาย": 5,
  "จสกิล+": 5,
  "ฉุด": 5,
  "ผิวกาย": 5,
  "นักสิ่งแวดล้อม": 5,
  "ลุก": 5,
  "12875": 5,
  "โปรเซสเซอร์": 5,
  "สถิตย์": 5,
  "การณ์@@": 5,
  "ขัดขืน": 5,
  "เรียก@@": 5,
  "น่าเป็นห่วง": 5,
  "เขียง": 5,
  "เบิร์ด": 5,
  "Faces": 5,
  "ความคาดหวัง": 5,
  "การฝังเข็ม": 5,
  "้ำ@@": 5,
  "ออร์@@": 5,
  "เปิดสวิตช์": 5,
  "รับศึก": 5,
  "6800": 5,
  "ความสุขสบาย": 5,
  "ผืน@@": 5,
  "อัล@@": 5,
  "มือสอง": 5,
  "มี้@@": 5,
  "Places": 5,
  "ith": 5,
  "ke@@": 5,
  "บูติก": 5,
  "บิสซิเนส": 5,
  "ความเป็นมิตร": 5,
  "าร@@": 5,
  "การเสริมสวย": 5,
  "Leg@@": 5,
  "tal": 5,
  "การค้นคว้า": 5,
  "มันดี": 5,
  "ส่งกลับ": 5,
  "เข": 5,
  "19920": 5,
  "ปัด@@": 5,
  "นรา": 5,
  "262": 5,
  "กาลเทศะ": 5,
  "รูปหล่อ": 5,
  "ลิ่ง": 5,
  "AT@@": 5,
  "นัด@@": 5,
  "วัสดุก่อสร้าง": 5,
  "พัวพัน": 5,
  "แล้ง": 5,
  "5.3": 5,
  "Taobao": 5,
  "Te@@": 5,
  "เบิร์น": 5,
  "าน": 5,
  "เรย์": 5,
  "นักพรต": 5,
  "โรล": 5,
  "เรียน@@": 5,
  "เพียร": 5,
  "บรัด": 5,
  "ดิ้นรน": 5,
  "ผู้แพ้": 5,
  "ซึมเศร้า": 5,
  "[\"": 5,
  "นั้นมา": 5,
  "ฯ,": 5,
  "crypto": 5,
  "การร้องขอ": 5,
  ":<": 5,
  "0000": 5,
  "ชาวบ้าน": 5,
  "เก็บเกี่ยว": 5,
  "ถนอม": 5,
  "Type": 5,
  "ข้ามคืน": 5,
  "ม": 5,
  "ฟิล": 5,
  "จี่": 5,
  "ค": 5,
  "ale@@": 5,
  "ใบชา": 5,
  "ชุดแต่งงาน": 5,
  "จำกัด@@": 5,
  "He@@": 5,
  "โบราณวัตถุ": 5,
  "q@@": 5,
  "กระเป๋าเอกสาร": 5,
  "น้ำค้างแข็ง": 5,
  "บิน@@": 5,
  "1.7": 5,
  "มง": 5,
  "อานุภาพ": 5,
  "ผ้าคลุมเตียง": 5,
  "ความทะเยอทะยาน": 5,
  "มัสลิน": 5,
  "YA": 5,
  "เวลาทำการ": 5,
  "จั@@": 5,
  "ยัด": 5,
  "สุขุม": 5,
  "ทางอากาศ": 5,
  "ึ้ง": 5,
  "บาร์เรล": 5,
  "จ๊อกกิ้ง": 5,
  "เย็บ@@": 5,
  "กระชาก": 5,
  "ทำท่า": 5,
  "ค์+": 5,
  "2925": 5,
  "you@@": 5,
  "เห้": 5,
  "วาบ": 5,
  "วบ": 5,
  "นักบิน": 5,
  "ทันตแพทย์": 5,
  "เสียงสะท้อน": 5,
  "ิบ": 5,
  "PMMA": 5,
  "วังวน": 5,
  "โคมดอกไม้": 5,
  "ยืม": 5,
  "้วย@@": 5,
  "1115": 5,
  "ฟลอ": 5,
  "เอกภาพ": 5,
  "คำร้องขอ": 5,
  "หยุด@@": 5,
  "บี@@": 5,
  "ถ้า@@": 5,
  "เพลง@@": 5,
  "รายการโทรทัศน์": 5,
  "วิธีวัด": 5,
  "ข./": 5,
  "นข": 5,
  "น\\": 5,
  "ยึดติด": 5,
  "xff": 5,
  "การจัดเตรียม": 5,
  "สนิทสนม": 5,
  "น้ำใจ": 5,
  "กิ่งไม้": 5,
  "เฝ้าดู": 5,
  "มีไหวพริบ": 5,
  "นบ": 5,
  "1198": 5,
  "พริบตา": 5,
  "รวม@@": 5,
  "แม่แบบ": 5,
  "ลึกล้ำ": 5,
  "น่าสงสัย": 5,
  "เห้น": 5,
  "คริสตจักร": 5,
  "ใบแจ้งหนี้": 5,
  "แต@@": 5,
  "WE": 5,
  "KE": 5,
  "แทนที่จะ": 5,
  "0.075": 5,
  "2365": 5,
  "เวิร์ม": 5,
  "Pol@@": 5,
  "ญญ@@": 5,
  "Pin@@": 5,
  "ยื่นคำขอ": 5,
  "เกี่ยว@@": 5,
  "2555": 5,
  "ตามตัว": 5,
  "แย@@": 5,
  "รจ์": 5,
  "เหี่ยว": 5,
  "วุ@@": 5,
  "ประกอบ@@": 5,
  "เดร@@": 5,
  "ลอง@@": 5,
  "เปล": 5,
  "เสียที": 5,
  "str": 5,
  "Mon@@": 5,
  "AB@@": 5,
  "พระราชบัญญัติ": 5,
  "การฝึกซ้อม": 5,
  "บาร์บีคิว": 5,
  "สปอต": 5,
  "จมน้ำ": 5,
  "Mate": 5,
  "กระจ@@": 5,
  "first": 5,
  "ลองจิจูด": 5,
  "อุณห": 5,
  "ภั@@": 5,
  "พันธ์": 5,
  "ตกตะกอน": 5,
  "น้ำแร่": 5,
  "ไข้@@": 5,
  "ลายมือ": 5,
  "OC": 5,
  "จอดรถ": 5,
  "สิ้นหวัง": 5,
  "ช่วงต้น": 5,
  "ศิ@@": 5,
  "ละติจูด": 5,
  "มือเบา": 5,
  "าร์": 5,
  "๑๓": 5,
  "เข้ากันได้ดี": 5,
  "เมคอัพ": 5,
  "IPS": 5,
  "าง": 5,
  "็ด": 5,
  "รงควัตถุ": 5,
  "BI@@": 5,
  "สึกิ": 5,
  "49@@": 5,
  "หน่วยงานรัฐ": 5,
  "บัญญัติ": 5,
  "บงการ": 5,
  "จุดขาย": 5,
  "เพลิงไหม้": 5,
  "216": 5,
  "โทรคมนาคม": 5,
  "กระบอกสูบ": 5,
  "นิดนึง": 5,
  "5627": 5,
  "คนจริง": 5,
  "เหย@@": 5,
  "ใจชั่ว": 5,
  "สมัย@@": 5,
  "หงุดหงิด": 5,
  "ตั้งแต่@@": 5,
  "0.045": 5,
  "855": 5,
  "ประสาท@@": 5,
  "นานา": 5,
  "งานประจำวัน": 5,
  "มือซ้าย": 5,
  "ใจถึง": 5,
  "หัวเรื่อง": 5,
  "ซาอุดีอาระเบีย": 5,
  "เลี้ยว": 5,
  "กระดาษสี": 5,
  "car@@": 5,
  "ian@@": 5,
  "3.2.2": 5,
  "แบนเนอร์": 5,
  "17500": 5,
  "Origin": 5,
  "เวียดนาม": 5,
  "..@@": 5,
  "ค้อ": 5,
  "ric": 5,
  "พรี@@": 5,
  "มอยส์เจอร์": 5,
  "ning": 5,
  "8888": 5,
  "ตระหง่าน": 5,
  "Met@@": 5,
  "8.6": 5,
  "นัยน์ตา": 5,
  "ข้ออ้าง": 5,
  "ๆๆ": 5,
  "ศิลปวัตถุ": 5,
  "เพิ่มมากขึ้น": 5,
  "มิ้ง\\": 5,
  "ci": 5,
  "Dr": 5,
  ".)": 5,
  "ครึก@@": 5,
  "ใฝ่ฝัน": 5,
  "เฟ": 5,
  "The": 5,
  "】——": 5,
  "แยงซีเกียง": 5,
  "ทีละ@@": 5,
  "tCode": 5,
  "กิลด์！": 5,
  "สาหร่ายทะเล": 5,
  "การปลดปล่อย": 5,
  "คำรับรอง": 5,
  "่วม": 5,
  "เบอร์โทรศัพท์": 5,
  "น้ำทะเล": 5,
  "เยน": 5,
  "เศษอาหาร": 5,
  "นุกรม": 5,
  "การเกิดใหม่": 5,
  "การทหาร": 5,
  "__@@": 5,
  "หัวสะพาน": 5,
  "618": 5,
  "\",\"": 5,
  "สาเก": 5,
  "การบุก": 5,
  "MC": 5,
  "แนว@@": 5,
  "ขาด@@": 5,
  "ตามนั้น": 5,
  "สํา@@": 5,
  "น่ารังเกียจ": 5,
  "ไฟ@@": 5,
  "ver@@": 5,
  "3608": 5,
  "ร้านเสริมสวย": 5,
  "การพิสูจน์": 5,
  "ไม่มีที่เปรียบ": 5,
  "เสียงหัวเราะ": 5,
  "ถูกจับ": 5,
  "X-@@": 5,
  "เด็กชาย": 5,
  "การลา": 5,
  "ห้องทดลอง": 5,
  "พัฟ": 5,
  "วส\\": 5,
  "Bo@@": 5,
  "ขับ@@": 5,
  "นส์": 5,
  "ปริมาณ@@": 5,
  "MAJOR": 5,
  "วายุภักษ์": 5,
  "9.9": 5,
  "%,": 5,
  "TE": 5,
  "ลูลูลูน": 5,
  "1498": 5,
  "การกู้": 5,
  "ขึ้นราคา": 5,
  "6.2": 5,
  "687": 5,
  "เป็นหนี้": 5,
  "จัด@@": 5,
  "กล่า": 5,
  "หด@@": 5,
  "การออกไป": 5,
  "่าย": 5,
  "แพ็ก￥": 5,
  "ANA": 5,
  "้องกัน": 5,
  "ได้การ": 5,
  "แพร์": 5,
  "3320": 5,
  "1408": 5,
  "หล่อเลี้ยง": 5,
  "https": 5,
  "eed": 5,
  "สิ้นเดือน": 5,
  "โทรศัพท์เคลื่อนที่": 5,
  "ลอจิสติกส์": 5,
  "เจ้าของ@@": 5,
  "ตรงไปตรงมา": 5,
  "Lyocell": 5,
  "แผน@@": 5,
  "เบะ": 5,
  "ข้างน้อย": 5,
  "ยืดยาว": 5,
  "เป็@@": 5,
  "ชำรุด": 5,
  "คชั่น": 5,
  "กราก": 5,
  "สส": 5,
  "เป็นใจ": 5,
  "ทวีคูณ": 5,
  "ซุ": 5,
  "ีม": 5,
  "ักษณ์": 5,
  "7100": 5,
  "8500": 5,
  "การวน": 5,
  "ง+": 5,
  "อ้าว": 5,
  "linical": 5,
  "VN": 5,
  "12212": 5,
  "Biomass": 5,
  "788": 5,
  "อาการหนัก": 5,
  "ปากทาง": 5,
  "ทาน@@": 5,
  "เอกชน": 5,
  "OM": 5,
  "กลีเซ@@": 5,
  "SU": 5,
  "คุกกี้": 5,
  "ยุคสมัย": 5,
  "เนื้อวัว": 5,
  "ตุ้น": 5,
  "oom": 5,
  "แท": 5,
  "รนด": 5,
  "การดำรงชีวิต": 5,
  "ล้ม@@": 5,
  "กระเด็น": 5,
  "รับโทรศัพท์": 5,
  "AL@@": 5,
  "พลังงานจลน์": 5,
  "446": 5,
  "Hi-Fi": 5,
  "Thermal": 5,
  "ตัวการ": 5,
  "Power": 5,
  "Project": 5,
  "คับ": 5,
  "fer@@": 5,
  "นว@@": 5,
  "Id": 5,
  "กราบ": 5,
  "วุธ": 5,
  "เทวดา": 5,
  "2916": 5,
  "1731": 5,
  "แพร่พันธุ์": 5,
  "กระป๋อง": 5,
  "ไฉ@@": 5,
  "การจัดแต่ง": 5,
  "2060": 5,
  "รูปไข่": 5,
  "ประจำสัปดาห์": 5,
  "ผสมพันธุ์": 5,
  "OLED": 5,
  "32000": 5,
  "MU-": 5,
  "ดอล": 5,
  "เครื่องมือแพทย์": 5,
  "zer@@": 5,
  "วินิจฉัย": 5,
  "สูง@@": 5,
  "สไ@@": 5,
  "ี้@@": 5,
  "ซามูไร": 5,
  "ผู้แทน": 5,
  "มินท์": 5,
  "อาการ@@": 5,
  "9783": 5,
  "2935": 5,
  "การแก้ปัญหา": 5,
  "CN@@": 5,
  "ไพ่": 5,
  "ตายตัว": 5,
  "ล่า@@": 5,
  "หมายกำหนดการ": 5,
  "คูณ": 5,
  "เมื่อนานมาแล้ว": 5,
  "GMV": 5,
  "7.0": 5,
  "ตื่นตระหนก": 5,
  "Lin@@": 5,
  "๓.๒": 5,
  "เป็นหวัด": 5,
  "กอล์ฟ": 5,
  "การรัด": 5,
  "ผู้บุกรุก": 5,
  "สุขาภิบาล": 5,
  "น่าหลงใหล": 5,
  "กำลังดี": 5,
  "PLAYBOY": 5,
  "บัญชาการ": 5,
  "ลือชื่อ": 5,
  "การปะทะ": 5,
  "exc@@": 5,
  "ทำชั่ว": 5,
  "หมอน@@": 5,
  "๊า": 5,
  "ตามตรง": 5,
  "ทำดี": 5,
  "\"ผม": 5,
  "กิริ@@": 5,
  "เย็น@@": 5,
  "ศักดิ์ศรี": 5,
  "การปรับตัว": 5,
  "เกรงใจ": 5,
  "ข้อยกเว้น": 5,
  "ไฮเทค": 5,
  "ส่@@": 5,
  "มหา@@": 5,
  "ขาย@@": 5,
  "ตะเกียบ": 5,
  "เพาะปลูก": 5,
  "ส้อม": 5,
  "ถาง": 5,
  "แตก@@": 5,
  "์+": 5,
  "cha@@": 5,
  "พลิก@@": 5,
  "mer@@": 5,
  "ภัตตาคาร": 5,
  "ทู@@": 5,
  "UAS@@": 5,
  "เป็นน้ำ": 5,
  "#！": 5,
  "5000@@": 5,
  "500146": 5,
  "สวดมนต์": 5,
  "ออกโรง": 5,
  "แท็กซี่": 5,
  "น้ำเปล่า": 5,
  "ทอง@@": 5,
  "ส่าน": 5,
  "วิทยาลัยครู": 5,
  "การเพิ่มเติม": 5,
  "”(": 5,
  "แคช": 5,
  "GEN": 5,
  "ลูกไฟ": 5,
  "คว": 5,
  "ด่า": 5,
  "ดอลล่าร์": 5,
  "ไพ@@": 5,
  "ลึ@@": 5,
  "เอช": 5,
  "4475": 5,
  "-C@@": 5,
  "เปร": 5,
  "PA@@": 5,
  "คอนเสิร์ต": 5,
  "ก่อความวุ่นวาย": 5,
  "5,000": 5,
  "เข็ง": 5,
  "ดูดกลืน": 5,
  "ประสบ@@": 5,
  "สื่อ@@": 5,
  "มัธยม@@": 5,
  "59000": 5,
  "ต้อน": 5,
  "แอล@@": 5,
  "ลาง": 5,
  "เรียง@@": 5,
  "แฮ่ม": 5,
  "----------------@@": 5,
  "สารท": 5,
  "ป้อนข้อมูล": 5,
  "นัส": 5,
  "KV": 5,
  "หม้อแปลง": 5,
  "หมาง": 5,
  "641": 5,
  "เต็มดวง": 5,
  "ta": 5,
  "กช": 5,
  "ค่าเงิน": 5,
  "ลุ้น": 5,
  "หงาย": 5,
  "ชอง": 5,
  "【ผู่": 5,
  "การผ่อนคลาย": 5,
  "วหา": 5,
  "โอกาสดี": 5,
  "อยู่@@": 5,
  "กษิ": 5,
  "ครรภ": 5,
  "ถั่วลิสง": 5,
  "เหนอะหนะ": 5,
  "โพ@@": 5,
  "Modal": 5,
  "ไน@@": 5,
  "？！": 5,
  "sk@@": 5,
  "วิ่งหนี": 5,
  "เข้ารอบ": 5,
  "ตั้งถิ่นฐาน": 5,
  "วัส": 5,
  "ยึด@@": 5,
  "โยก": 5,
  "สักวันหนึ่ง": 5,
  "2009": 5,
  "รื่นเริง": 5,
  "สด@@": 5,
  "กุ้ง": 5,
  "ไอเดีย": 5,
  "ช่างทำ@@": 5,
  "ียง": 5,
  "MARSHALL": 5,
  "เตาเผาขยะ": 5,
  "ค่ำคืน": 5,
  "เฟิ่ง": 5,
  "อื@@": 5,
  "ทั้งเป็น": 5,
  "「": 5,
  "เบาะลม": 5,
  "UE": 5,
  "หนังกลับ": 5,
  "แองเจลิน่า": 5,
  "คนใด": 5,
  "ระเบียน": 5,
  "ศิลปะการแสดง": 5,
  "YouTube": 5,
  "ฟ้องร้อง": 5,
  "เลขคี่": 5,
  "(ก)": 5,
  "ด้าง": 5,
  "eteams": 5,
  "ธาตุแท้": 5,
  "ตรงจุด": 5,
  "นะจ๊ะ": 5,
  "ตาสว่าง": 5,
  "แซะ": 5,
  "เพื่อนบ้าน": 5,
  "ผู้รับมอบอำนาจ": 5,
  "ดำเนินคดี": 5,
  "4645": 5,
  "ขู่": 5,
  "CM-": 5,
  "ปลายนิ้ว": 5,
  "คาร@@": 5,
  "NO@@": 5,
  "SP": 5,
  "นก@@": 5,
  "กติก": 5,
  "ครั้งก่อน": 5,
  "วล": 5,
  "ียด@@": 5,
  "กระบอง": 5,
  "พลั@@": 5,
  "กิจ@@": 5,
  "คิก": 5,
  "เถ้าแก่เนี้ย": 5,
  "สืบพันธุ์": 5,
  "798": 5,
  "กระเทียม": 5,
  "แสงอินฟราเรด": 5,
  "ลูกหลาน": 5,
  "จะ@@": 5,
  "มินิ@@": 5,
  "จูง": 5,
  "เข้าใส่": 5,
  "ฌ": 5,
  "พาล": 5,
  "คลาน": 5,
  "BCL@@": 5,
  "................................@@": 5,
  "................................................................@@": 5,
  "เต๋": 5,
  "ตรึงใจ": 5,
  "มตา": 5,
  "๒๘": 5,
  "%!": 5,
  "พริ้ว": 5,
  "กล้องจุลทรรศน์": 5,
  "1650": 5,
  "พึงพอใจ": 5,
  "100,000": 5,
  "BE@@": 5,
  "ออร์แกนิค": 5,
  "ล้ำ@@": 5,
  "TR@@": 5,
  "มีผลบังคับ": 5,
  "ทธ@@": 5,
  "ดีไซน์เนอร์": 5,
  "Vivo": 5,
  "คริสต์": 5,
  "ญ】": 5,
  "เจลลี่": 5,
  "go@@": 5,
  "ให้อาหาร": 5,
  "โรคหัวใจ": 5,
  "FDA": 5,
  "435": 5,
  "แชมเปญ": 5,
  "3.6": 5,
  "เฉดสี": 5,
  "ผู้ให้ข้อมูล": 5,
  "0.9": 5,
  "การปฏิรูป": 5,
  "วิทยาลัย": 5,
  "อุตสาห": 5,
  "sec@@": 5,
  "อร์ด": 5,
  "【ฝู": 5,
  "RO@@": 5,
  "กสิ": 5,
  "Dermatix": 5,
  "//": 5,
  "เป็นครั้งคราว": 5,
  "โสม": 5,
  "นักปราชญ์": 5,
  "การเล่นกีฬา": 5,
  "วากะ": 5,
  "อท": 5,
  "712": 5,
  "เพียงเท่านี้": 5,
  "ล้น@@": 5,
  "นาง@@": 5,
  "๊บ": 5,
  "สุกงอม": 5,
  "ศา@@": 5,
  "25250": 5,
  "7.6": 5,
  "สูด": 5,
  "จุดแข็ง": 5,
  "หัวต่อ": 5,
  "โค้ช": 5,
  "ld": 5,
  "ดำรงชีวิต": 5,
  "mail": 5,
  "วิสามัญ": 5,
  "หิมาลัย": 5,
  "พักพิง": 5,
  "ชู@@": 5,
  "รอง@@": 5,
  "562": 5,
  "จับมือ": 5,
  "สุดท้ายนี้": 5,
  "ล่อใจ": 5,
  "ล้าหลัง": 5,
  "เรื่อง@@": 5,
  "เอคโค่": 5,
  "ควบคุม@@": 5,
  "รักษ์": 5,
  "มองโลกในแง่ดี": 5,
  "880": 5,
  "ว่": 5,
  "·ฟิ": 5,
  "แต่เช้า": 5,
  "394": 5,
  "ส่อง@@": 5,
  "สุลต่าน": 5,
  "ฟุกุโอกะ": 5,
  "zip": 5,
  "ประกวดราคา": 5,
  "เลิศ": 5,
  "657": 5,
  "โดรน": 5,
  "ไลบรารี": 5,
  "low@@": 5,
  "สนามบิน": 5,
  "Com@@": 5,
  "เสื้อนอก": 5,
  "ปลั๊กไฟ": 5,
  "แซนน์": 5,
  "สร้างตัว": 5,
  "(อัพ": 5,
  "กลอน": 5,
  "คับ@@": 5,
  "แขวง": 5,
  "แจ็ก": 5,
  "ซาลา@@": 5,
  "9.8": 5,
  "ยล": 5,
  "น่าตื่นเต้น": 5,
  "เรือนจำ": 5,
  "โซลูชัน": 5,
  "ass@@": 5,
  "1747": 5,
  "2946": 5,
  "เวลาพักผ่อน": 5,
  "เบี้ยเลี้ยง": 5,
  "เอก@@": 5,
  "มูล@@": 5,
  "อ่อนน้อม": 5,
  "ท็@@": 5,
  "องด@@": 5,
  "รีบร้อน": 5,
  "โชคลาภ": 5,
  "เร็จ": 5,
  "ตัวประกอบ": 5,
  "ตกทอด": 5,
  "un": 5,
  "ก์": 5,
  "เสียภาษี": 5,
  "ที่ดิน": 5,
  "WhatsApp": 5,
  "WABA": 5,
  "172": 5,
  "37500": 5,
  "น้องชาย": 5,
  "ฐ@@": 5,
  "ต้อย": 5,
  "มีอิสระ": 5,
  "tion@@": 5,
  "1,000": 5,
  "กลางเมือง": 5,
  "โกล@@": 5,
  "พลังจิต": 5,
  "SPU": 5,
  "รอดไป": 5,
  "ขวด@@": 5,
  "นางพยาบาล": 5,
  "การฟังเสียง": 5,
  "แทน@@": 5,
  "ราย@@": 5,
  "การจัดประเภท": 5,
  "กระทรวงสาธารณสุข": 5,
  "กลับหัว": 5,
  "TS@@": 5,
  "สง่าผ่าเผย": 5,
  "API": 5,
  "เซลล์@@": 5,
  "ต้นสน": 5,
  "ลเวย์": 5,
  "ํา้": 5,
  "เหมือนเคย": 5,
  "แผนปัจจุบัน": 5,
  "ซีดี": 5,
  "เวย": 5,
  "หลับใน": 5,
  "๋ว": 5,
  "ประปา": 5,
  "เสื่อมถอย": 5,
  "#@@": 5,
  "54000": 5,
  "เน่า": 5,
  "ซอมบี้": 5,
  "โดยไม่จำเป็น": 5,
  "men@@": 5,
  "บอด": 5,
  "กวา": 5,
  "พันธุกรรม": 5,
  "ออกผล": 5,
  "เข็ม@@": 5,
  "OL@@": 5,
  "ระลอกคลื่น": 5,
  "คลื่น@@": 5,
  "met@@": 5,
  "สหพันธ์": 5,
  "logo": 5,
  "สลบ": 5,
  "Wacoal": 5,
  "ดูออก": 5,
  "น้ำซึม": 5,
  "เวหา": 5,
  "เป็นคุณ": 5,
  "เสียได้": 5,
  "3100": 5,
  "ร้อนแรง": 5,
  "ไต้": 5,
  "ขยาย@@": 5,
  "ชง": 5,
  "ฃ@@": 5,
  "เข้าทาง": 5,
  "、ผู่กง": 5,
  "SNCR": 5,
  "คราวหน้า": 5,
  "707": 5,
  "เสื้อ@@": 5,
  "ซัล@@": 5,
  "3344": 5,
  "ALT": 5,
  "·อ": 5,
  "__": 5,
  "สาวก": 5,
  "หย่ง": 5,
  "ซีน": 5,
  "ยากจน": 5,
  "เสื่อม@@": 5,
  "ลาก@@": 5,
  "ภู": 5,
  "HK": 5,
  "คั่ง": 5,
  "เซ็นเตอร์": 5,
  "ถัวเฉลี่ย": 5,
  "สถานีตำรวจ": 5,
  "preme": 5,
  "อุ้งเท้า": 5,
  "เลิกเล่น": 5,
  "ศาสตราวุธ": 5,
  "ทอด@@": 5,
  "เวลาว่าง": 5,
  "รัฐ@@": 5,
  "AG@@": 5,
  "Reta@@": 5,
  "por@@": 5,
  "ลิด": 5,
  "pro@@": 5,
  "เสริมกำลัง": 5,
  "I-": 5,
  "ปีกกา": 5,
  "เบรียล\\": 5,
  "ยีน": 5,
  "นขา": 5,
  "การหุ้ม": 5,
  "stra@@": 5,
  "โทษทางอาญา": 5,
  "จูน": 5,
  "อึ@@": 5,
  "1860": 5,
  "ย้อมผม": 5,
  "เท้าหน้า": 5,
  "1465": 5,
  "สอ": 5,
  "เหลือ@@": 5,
  "ื": 5,
  "-T": 5,
  "NipponKodo": 5,
  "วงเงิน": 5,
  "KO@@": 5,
  "การประมวลผลข้อมูล": 5,
  "รถเข็น": 5,
  "6.1": 5,
  "อุปกรณ์พกพา": 5,
  "นิเวศวิทยา": 5,
  "Ra@@": 5,
  "Fracora": 5,
  "ได้ความ": 5,
  "๕๐": 5,
  "ทั้งเมือง": 5,
  "​@@": 5,
  "684": 5,
  "ผนวก": 5,
  "เป็นพื้น": 5,
  "Sh@@": 5,
  "พลบค่ำ": 5,
  "13.10.@@": 5,
  "ตัวเมีย": 5,
  "บิดา": 5,
  "น้ำยาง": 5,
  "ขนสัตว์": 5,
  "140@@": 5,
  "IPHONE": 5,
  "ตีกลับ": 5,
  "พุทธ": 5,
  "ห้องทำงาน": 5,
  "กิน@@": 5,
  "0931": 5,
  "สามขา": 5,
  "=#": 5,
  "<>@@": 5,
  "คัน@@": 5,
  "เจียระไน": 5,
  "๒๐@@": 5,
  "VII": 5,
  "ตัวหนังสือ": 5,
  "ผู้ใด": 5,
  "ชำ": 5,
  "ไช@@": 5,
  "34250": 5,
  "】；": 5,
  "he@@": 5,
  "2784": 5,
  "เชื้อเพลิง": 5,
  "เป็นอันขาด": 5,
  "ขนลุก": 5,
  "ระเบียบ@@": 5,
  "ผู้อยู่อาศัย": 5,
  "ริ้น": 5,
  "ภูมิหลัง": 5,
  "9.7": 5,
  "boss@@": 5,
  "Pos@@": 5,
  "หก@@": 5,
  "็ง": 5,
  "ตัวผู้": 5,
  "รอบสะโพก": 5,
  "ส่วนขยาย": 5,
  "วารสาร": 5,
  "381": 5,
  "18.@@": 5,
  "นีบาต": 5,
  "ดัม": 5,
  "ฟฟิน": 5,
  "กลอเรีย": 5,
  "คอนกรีต": 5,
  "ัว": 5,
  "ปิดสวิตช์": 5,
  "ราชการ": 5,
  "ซ·": 5,
  "2888": 5,
  "เปิดโลก": 5,
  "512000": 5,
  "ดตัว": 5,
  "ปะทุ": 5,
  "กรวม": 5,
  "เฉพาะทาง": 5,
  "เงินย่อย": 5,
  "2012": 5,
  "โมเมนตัม": 5,
  "สุขใจ": 5,
  "per@@": 5,
  "จริงอยู่": 5,
  "ในสังกัด": 5,
  "4090": 5,
  "NE@@": 5,
  "แมกนีเซียม": 5,
  "สหรัฐ": 5,
  "เรือ@@": 5,
  "แต่ต้น": 5,
  "ความคึกคัก": 5,
  "การติดต่อสื่อสาร": 5,
  "ครึ่งวงกลม": 5,
  "shop@@": 5,
  "ยม@@": 5,
  "1950": 5,
  "ตราบ@@": 5,
  "เพรา": 5,
  "ผู่ตง": 5,
  "อิ่มเอิบ": 5,
  "676": 5,
  "พูดมาก": 5,
  "6720": 5,
  "ี๋@@": 5,
  "เซ็ท": 5,
  "ไดร์": 5,
  "%คน": 5,
  "729": 5,
  "เว่ย": 5,
  "09@@": 5,
  "Con@@": 5,
  "ตามแฟชั่น": 5,
  "T-@@": 5,
  "สะดึง": 5,
  "รู้สึกตัว": 5,
  "คล้ายๆ": 5,
  "โหม": 5,
  "แหล่ง@@": 5,
  "ออส@@": 5,
  "อินโดนีเซีย": 5,
  "【ฮง": 5,
  "ws": 5,
  "จอมพล": 5,
  "Ip@@": 5,
  "ภูติ": 5,
  "ตราสินค้า": 5,
  "JPEG": 5,
  "ทวน": 5,
  "โภคภัณฑ์": 5,
  "เวลาจริง": 5,
  "ซัพพลาย": 5,
  "ดัดผม": 5,
  "รูด": 5,
  "โหด": 5,
  "เขียนจดหมาย": 5,
  "กระแสนิยม": 5,
  "เพนท์": 5,
  "กระทรวง": 5,
  "19.8": 5,
  "อนุกรม": 5,
  "WORD": 5,
  "ชัก": 5,
  "ชุด@@": 5,
  "·ลด": 5,
  "๑๘": 5,
  "ไหลผ่าน": 5,
  "แมส": 5,
  "วันเดียวกัน": 5,
  "784": 5,
  "ทาวน์": 5,
  "โฆษก": 5,
  "GIF": 5,
  "reported": 5,
  "gro@@": 5,
  "สิ่งกีดขวาง": 5,
  "inco@@": 5,
  "คอเต่า": 5,
  "ba@@": 5,
  "ตั้งอกตั้งใจ": 5,
  "ไลซ์": 5,
  "โอะ": 5,
  "29500": 5,
  "แคะ": 5,
  "เฟอร์": 5,
  "สิน": 5,
  "626": 5,
  "zed": 4,
  "LYCRA": 4,
  "เยี่ยง": 4,
  "เปรี้ยวจี๊ด": 4,
  "ขี้ขลาด": 4,
  "เลื่อน@@": 4,
  "สำเร็จการศึกษา": 4,
  "·จิ่ว": 4,
  "ว\\": 4,
  "ละเมิดสิทธิ์": 4,
  "การทุ่มเท": 4,
  "ฮึกเหิม": 4,
  "ตากผ้า": 4,
  "Cr-v": 4,
  "๔๐": 4,
  "3751": 4,
  "กูรู": 4,
  "ต้อ": 4,
  "เปลือกหอย": 4,
  "ร่าง@@": 4,
  "11040": 4,
  "วัญ": 4,
  "lip@@": 4,
  "หดห@@": 4,
  "ประกัน@@": 4,
  "จุ่ม": 4,
  "ฌ@@": 4,
  "วิสุทธิ์": 4,
  "นิวยอร์ก": 4,
  "ฟาก": 4,
  "เบ้า": 4,
  "การล้ม": 4,
  "ลาออก": 4,
  "อารมณ์เสีย": 4,
  "้อย": 4,
  "ถุง@@": 4,
  "dec@@": 4,
  "คณะ@@": 4,
  "ฟอรั่ม": 4,
  "พืน@@": 4,
  "ผง@@": 4,
  "……@@": 4,
  "ยื@@": 4,
  "24375": 4,
  "≤": 4,
  "ภาษา@@": 4,
  "8.00": 4,
  "พิณ": 4,
  "**@@": 4,
  "ini@@": 4,
  "เจิน": 4,
  "กำราบ": 4,
  "เอล": 4,
  "Bra@@": 4,
  "ระแบบ": 4,
  "อิ่ม@@": 4,
  "มีชัย": 4,
  "·นก": 4,
  "โยนทิ้ง": 4,
  "Tiger": 4,
  "แอนดรอยด์": 4,
  "แฮ@@": 4,
  "ผ้าแดง": 4,
  "เยี่ยม@@": 4,
  "๒๕๕๕": 4,
  "ตั้งโต๊ะ": 4,
  "2868": 4,
  "กรุ๊ป": 4,
  "5.25": 4,
  "เก็ย": 4,
  "จ่าย@@": 4,
  "usiness": 4,
  ";//": 4,
  "เด็กดี": 4,
  "สุดสัปดาห์": 4,
  "·ล": 4,
  "แรกเกิด": 4,
  "add@@": 4,
  "บัคเก็ต": 4,
  "ภาย@@": 4,
  "ไฟสูง": 4,
  "าง@@": 4,
  "เที่ยงตรง": 4,
  "หยุดชะงัก": 4,
  "มตะ": 4,
  "โฟลว์": 4,
  "ศั@@": 4,
  "ับหลัง": 4,
  "ส่วนน้อย": 4,
  "ชนั": 4,
  "แรงจูงใจ": 4,
  "สำรับ": 4,
  "513@@": 4,
  "St@@": 4,
  "แปรพักตร์": 4,
  "สอง@@": 4,
  "๒๕๖๐": 4,
  "เล็บเท้า": 4,
  "SO": 4,
  "บันดาลใจ": 4,
  "เว็ป": 4,
  "สาหัส": 4,
  "admin": 4,
  "ระลึกถึง": 4,
  "สายยาง": 4,
  "ผุ": 4,
  "คำหลัก": 4,
  "2880": 4,
  "ุม@@": 4,
  "19.6": 4,
  "HO@@": 4,
  "เหยียบย่ำ": 4,
  "ขััน": 4,
  "การกรอก": 4,
  "เข้าถ้ำ": 4,
  "method": 4,
  "ตัดไม้": 4,
  "20.@@": 4,
  "ป็@@": 4,
  "ชัดแจ้ง": 4,
  "สงบเงียบ": 4,
  "！,": 4,
  "ลท์": 4,
  "ของกอง": 4,
  "คำสอน": 4,
  "เข้ารหัส": 4,
  "ลอก@@": 4,
  "ข้างมาก": 4,
  "ใบตราส่ง": 4,
  "การเยียวยา": 4,
  "TS": 4,
  "HANKEY": 4,
  "Lo@@": 4,
  "ลูกศิษย์": 4,
  "สีจาง": 4,
  "เข้าออก": 4,
  "ภาษาท้องถิ่น": 4,
  "การเที่ยว": 4,
  "์วูฟ": 4,
  "ผวา": 4,
  "ปอกเปลือก": 4,
  "DE": 4,
  "อ้อ": 4,
  "เบ่งบาน": 4,
  "แสยะ": 4,
  "ชำระคืน": 4,
  "คิดผิด": 4,
  "ื้อ@@": 4,
  "ในใจ": 4,
  "คนญี่ปุ่น": 4,
  "เวส": 4,
  "๓.๑": 4,
  "ชุ": 4,
  "ในเครือ": 4,
  "พิ่ม": 4,
  "enc@@": 4,
  "เพราะฉะนั้น": 4,
  "บ้านเรือน": 4,
  "หว่ะ": 4,
  "อาญา": 4,
  "ตามใจคุณ": 4,
  "แพ่ง": 4,
  "เห็นภาพ": 4,
  "หุ@@": 4,
  "gra@@": 4,
  "หน้าด้าน": 4,
  "818@@": 4,
  "high@@": 4,
  "ตรัสรู้": 4,
  "ดวงใจ": 4,
  "เชิ@@": 4,
  "ฟิก": 4,
  "ค.ศ": 4,
  "เนื่อ": 4,
  "สะใจ": 4,
  "5100": 4,
  "เขน": 4,
  "อันโต": 4,
  "คุณชาย": 4,
  "ช่องคลอด": 4,
  "โน๊@@": 4,
  "iFi": 4,
  "ฮ๊อด": 4,
  "สละ@@": 4,
  "ไว้ชีวิต": 4,
  "แกรนด์": 4,
  "ละครใน": 4,
  "ลอยฟ้า": 4,
  "spectro@@": 4,
  "ปรับโครงสร้าง": 4,
  "lasma": 4,
  "DR": 4,
  "ประธา@@": 4,
  "100800": 4,
  "pled": 4,
  "โดนใจ": 4,
  "จี๋": 4,
  "เซนส์": 4,
  "เนื่องใน": 4,
  "หาความ": 4,
  "ขยับตัว": 4,
  "ยืนกราน": 4,
  "-on": 4,
  "เบิ้ล": 4,
  "การประ@@": 4,
  "ser@@": 4,
  "อเร@@": 4,
  "IX": 4,
  "จิ้ม": 4,
  "Sequence": 4,
  "สารอินทรีย์": 4,
  "เหยียนเฉิง": 4,
  "ประจำเมือง": 4,
  "กรณ์": 4,
  "รวด@@": 4,
  "ทัน@@": 4,
  "ัล": 4,
  "กษั@@": 4,
  "ดิจิทัล": 4,
  "ตุ้": 4,
  "การกวาดล้าง": 4,
  "rate": 4,
  "้วย": 4,
  "แก้ต่าง": 4,
  "ne@@": 4,
  "เม็ดมะยม": 4,
  "ัย": 4,
  "ฮอส": 4,
  "ริมทะเล": 4,
  "Induct@@": 4,
  "Vortecon": 4,
  "เปียก@@": 4,
  "15500": 4,
  "ผู้เริ่มต้น": 4,
  "ทิศตะวันออก": 4,
  "สาระ": 4,
  "โกฐ": 4,
  "ลมร้อน": 4,
  "ทศนิยม": 4,
  "ขัดถู": 4,
  "ประกันสังคม": 4,
  "บน้ำ": 4,
  "ความเฉลียวฉลาด": 4,
  "แนง": 4,
  "โซเดียม": 4,
  "ร.": 4,
  "714": 4,
  "น้ำเกลือ": 4,
  "ICA": 4,
  "LIN@@": 4,
  "แสดงหลักฐาน": 4,
  "1078": 4,
  "เอ็@@": 4,
  "ton": 4,
  "【อวี้": 4,
  "ชั้นพิเศษ": 4,
  "การจำแนกประเภท": 4,
  "ส่งจดหมาย": 4,
  "med@@": 4,
  "ก้อนหิน": 4,
  "กิลด์】@@": 4,
  "18650": 4,
  "ไลเนอร์": 4,
  "มีน้ำใจ": 4,
  "อ่อนไหว": 4,
  "เภ@@": 4,
  "พอที่": 4,
  "เทฟลอน": 4,
  "ระดับชั้น": 4,
  "รุ่น@@": 4,
  "ความตื่นเต้น": 4,
  "มื@@": 4,
  "เรียกหา": 4,
  "โดยอิสระ": 4,
  "เลิ@@": 4,
  "น้ำดื่ม": 4,
  "man@@": 4,
  "Sale": 4,
  "แจกัน": 4,
  "๊ก@@": 4,
  "งัด": 4,
  "กัก@@": 4,
  "all@@": 4,
  "Tencel": 4,
  "สันติ": 4,
  "ก้อย": 4,
  "ปู@@": 4,
  "เอาท์@@": 4,
  "พิธ@@": 4,
  "ไฮดรอลิก": 4,
  "ษฏ@@": 4,
  "พู@@": 4,
  "เกลียด@@": 4,
  "-WHITE": 4,
  "ze": 4,
  "ข้ออ้างอิง": 4,
  "โผ@@": 4,
  "NA": 4,
  "1,199": 4,
  "กลุ่มย่อย": 4,
  "ไมโคร@@": 4,
  "กัก": 4,
  "น้ำมันมะกอก": 4,
  "JBL": 4,
  "0.055": 4,
  "าร์ด": 4,
  "แผล@@": 4,
  "เฝ้าบ้าน": 4,
  "ล่ว": 4,
  "โควิด": 4,
  "ซาติน": 4,
  "เป่ย": 4,
  "วญ": 4,
  "ตั่ว": 4,
  "ห้องพัก": 4,
  "1240": 4,
  "เยี่อ": 4,
  "ชั่น@@": 4,
  "ศีล@@": 4,
  "ัม": 4,
  "\"คน": 4,
  "ดาวรุ่ง": 4,
  "ิว": 4,
  "ความคลาด": 4,
  "ที่โล่ง": 4,
  "รักษาการณ์": 4,
  "Vertex": 4,
  "เครื่องหอม": 4,
  "On@@": 4,
  "Zn@@": 4,
  "UO": 4,
  "เผ@@": 4,
  "เห็นแก่": 4,
  "แข็งขัน": 4,
  "ไม@@": 4,
  "รอบ@@": 4,
  "พารา": 4,
  "ยุ": 4,
  "วัก": 4,
  "เสิ่น": 4,
  "ื้น@@": 4,
  "ADI@@": 4,
  "ยำ": 4,
  "อะนะ": 4,
  "ความลำบาก": 4,
  "พลาดโอกาส": 4,
  "ทุ่งหญ้า": 4,
  "เข้าแบบ": 4,
  "Tric@@": 4,
  "ซี่โครง": 4,
  "เรื่องไร้สาระ": 4,
  "แอ่ง": 4,
  "กร้าน": 4,
  "sun@@": 4,
  "พจน์": 4,
  "สัญญาณรบกวน": 4,
  "คร": 4,
  "ลัส": 4,
  "ราษฎ@@": 4,
  "xi@@": 4,
  "อะลูมิเนียม": 4,
  "1220": 4,
  "โหยหา": 4,
  "หมดแรง": 4,
  "หัวกะโหลก": 4,
  "เจ้าเล่ห์": 4,
  "ภาคเหนือ": 4,
  "เพล็กซ์": 4,
  "บาดเจ็บสาหัส": 4,
  "คนสำคัญ": 4,
  "ความดีใจ": 4,
  "ทั่ง": 4,
  "กลางเวหา": 4,
  "ทพ": 4,
  "นาม@@": 4,
  "​": 4,
  "ตอ": 4,
  "ิ่น@@": 4,
  "PH": 4,
  "Tal@@": 4,
  "White": 4,
  "น้ำผึ้ง": 4,
  "%...": 4,
  "Micro@@": 4,
  "ค่าสูงสุด": 4,
  "2840": 4,
  "zz@@": 4,
  "ศัตรูพืช": 4,
  "....................": 4,
  "นิสัย@@": 4,
  "เบา@@": 4,
  "บันทึกภาพ": 4,
  "dd": 4,
  "ถา@@": 4,
  "คุณย่า": 4,
  "เสน่หา": 4,
  "เล็@@": 4,
  "จิ้งหรีด": 4,
  "ส)": 4,
  "แวะ": 4,
  "รือ": 4,
  "เพาะ": 4,
  "ล้อ@@": 4,
  "ราะ@@": 4,
  "ๆจน": 4,
  "เบอร์รี": 4,
  "กุล": 4,
  "ุ่น": 4,
  "ต้อกระจก": 4,
  "UI": 4,
  "xfef": 4,
  "หยุดงาน": 4,
  "ประมวล": 4,
  "หวนคืน": 4,
  "เสมอ@@": 4,
  "เถ@@": 4,
  "ท่วงทำนอง": 4,
  "ฟอนต์": 4,
  "ฝน@@": 4,
  "ย่ำรุ่ง": 4,
  "ขสมก.": 4,
  "ปี่": 4,
  "ปอน": 4,
  "So@@": 4,
  "\"%": 4,
  "LY": 4,
  "ครู่หนึ่ง": 4,
  "ke": 4,
  "ดัง@@": 4,
  "DAC@@": 4,
  "เต้อ": 4,
  "ลดขั้น": 4,
  "ผืด": 4,
  "%/": 4,
  "Jo@@": 4,
  "โทรม": 4,
  ";#": 4,
  "การลอก": 4,
  "ทุกคืน": 4,
  "มด@@": 4,
  "—@@": 4,
  "คลาย@@": 4,
  "ขาดหาย": 4,
  "HH": 4,
  "vip": 4,
  "เออะ": 4,
  "โคล@@": 4,
  "ห้าม@@": 4,
  "เซฟ": 4,
  "เพรียวบาง": 4,
  "เฝ้ามอง": 4,
  "การปล้น": 4,
  "ดื่มด่ำ": 4,
  "สักการะ": 4,
  "เท้าสาน": 4,
  "เลอะ": 4,
  "÷": 4,
  "ฟักตัว": 4,
  "KIN@@": 4,
  "รฟฟรุ้ต": 4,
  "Mic@@": 4,
  "IE@@": 4,
  "Spectro@@": 4,
  "igh@@": 4,
  "บูลด็อก": 4,
  "โรคเหน็บชา": 4,
  "dust@@": 4,
  "คีย์บอร์ด": 4,
  "เหลา": 4,
  "เก็น": 4,
  "con@@": 4,
  "นักแปล": 4,
  "อยู่ร่วม": 4,
  "ยั้ง": 4,
  "ดื่มเหล้า": 4,
  "เช็ก": 4,
  "ผ้าสำลี": 4,
  "6.8": 4,
  "webp": 4,
  "ผุด": 4,
  "แต่วัน": 4,
  "001": 4,
  "16200": 4,
  "DA": 4,
  "คา@@": 4,
  "ดินทราย": 4,
  "CHAR@@": 4,
  "ฮุ่ย": 4,
  "หญ่า": 4,
  "คำตัดสิน": 4,
  "แด่": 4,
  "ผ้าโพกหัว": 4,
  "หลู": 4,
  "บาทหลวง": 4,
  "ทังสเตน": 4,
  "สตริง": 4,
  "เป": 4,
  "RUNBEN": 4,
  "เก่งกาจ": 4,
  "การยกมือ": 4,
  "หมายความ": 4,
  "เลื่อ": 4,
  "เหนียน": 4,
  "เข้าตา": 4,
  "พลิ้วไหว": 4,
  "ซีกโลก": 4,
  "าก": 4,
  "เนรเทศ": 4,
  "้อน": 4,
  "็ต": 4,
  "6.4": 4,
  "ROH@@": 4,
  "ได้เสีย": 4,
  "น่าเอ็นดู": 4,
  "KE@@": 4,
  "เคอร์@@": 4,
  "TV@@": 4,
  "Co@@": 4,
  "จิก": 4,
  "แพ็ด": 4,
  "เปล่าๆ": 4,
  "แฟล@@": 4,
  "เด้": 4,
  "พุทธศาสนา": 4,
  "game": 4,
  "พลิกแพลง": 4,
  "กล่าวคือ": 4,
  "เฝ้าคอย": 4,
  "เก้าอี้โยก": 4,
  "โมรา": 4,
  "South": 4,
  "：/": 4,
  "เขย": 4,
  "วา": 4,
  ">สกิล": 4,
  "ยับยั้งชั่งใจ": 4,
  "้าม": 4,
  "ทานข้าว": 4,
  "GER": 4,
  "มะนาว": 4,
  "เรื่องจริง": 4,
  "อุปมา": 4,
  "สัญญา@@": 4,
  "กษ@@": 4,
  "ลลี่": 4,
  "เหยียน@@": 4,
  "๋อ@@": 4,
  "จู่ๆ": 4,
  "สุนทรีย์": 4,
  "ใบเสร็จรับเงิน": 4,
  "แนวตรง": 4,
  "HC@@": 4,
  "เครื่องบันทึก": 4,
  "ช้อย": 4,
  "หันไป": 4,
  "หุ้น": 4,
  "ใส่@@": 4,
  "CNC": 4,
  "ทวี@@": 4,
  "รถถัง": 4,
  "ความหิวโหย": 4,
  "พืช@@": 4,
  "เต้": 4,
  "Typ@@": 4,
  "จอแสดงภาพ": 4,
  "bas@@": 4,
  "RS-": 4,
  "คนจน": 4,
  "ฟรีสไตล์": 4,
  "หินยาน": 4,
  "SGS": 4,
  "ลอนดอน": 4,
  "เชิด": 4,
  "sti@@": 4,
  "ลายคราม": 4,
  "เอ็กซ์คลูซีฟ": 4,
  "0501006079": 4,
  "โดยเจตนา": 4,
  "ทารกในครรภ์": 4,
  "เสนอ@@": 4,
  "ตัวต่อตัว": 4,
  "ฝันหวาน": 4,
  "ระบ@@": 4,
  "แย่มาก": 4,
  "ลูกอัณฑะ": 4,
  "มูฟ": 4,
  "2808": 4,
  "จักจั่น": 4,
  "กระต่าย@@": 4,
  "ของเก่า": 4,
  "บับเบิ้ล@@": 4,
  "มุ่น": 4,
  "เท่าใด": 4,
  "ฝั่ง@@": 4,
  "เสาอากาศ": 4,
  "ต้อง@@": 4,
  "พิพากษ์": 4,
  "เปิดทาง": 4,
  "ไม้แดง": 4,
  "แป๊ก": 4,
  "ตามอำเภอใจ": 4,
  "สย@@": 4,
  "0.035": 4,
  "Sp@@": 4,
  "เหน็บ": 4,
  "พระพุทธเจ้า": 4,
  "ฟู@@": 4,
  "ควรระวัง": 4,
  "ลู่": 4,
  "มัว@@": 4,
  "1698": 4,
  "ทัศนียภาพ": 4,
  "15.6": 4,
  "ชัวร์": 4,
  "เก่": 4,
  "สูญเปล่า": 4,
  "ทะเลาะ": 4,
  "โพก": 4,
  "200,000": 4,
  "ความสมเหตุสมผล": 4,
  "คิดค้น": 4,
  "เงินอุดหนุน": 4,
  "โรคติดเชื้อ": 4,
  "กลีบ@@": 4,
  "ลบล้าง": 4,
  "ร์ม่า·": 4,
  "ull": 4,
  "ผักบุ้ง": 4,
  "เล่า@@": 4,
  "สัตว์@@": 4,
  "ตื่นนอน": 4,
  "รับภาระ": 4,
  "3128": 4,
  "ซึ@@": 4,
  "ปฎิ": 4,
  "หาเงิน": 4,
  "ทาวเวอร์": 4,
  "เขต@@": 4,
  "วิจิตร@@": 4,
  "อุบัติ": 4,
  "ไว@@": 4,
  "การสืบพันธุ์": 4,
  "ทางเพศ": 4,
  "ใบสั่งซื้อ": 4,
  "กร่าง": 4,
  "ใบอนุญาตขับขี่": 4,
  "การออกแบบผลิตภัณฑ์": 4,
  "5750": 4,
  "1701": 4,
  "ตระ@@": 4,
  "ดุลพินิจ": 4,
  "้าย": 4,
  "เสื้อกันฝน": 4,
  "MUJI": 4,
  "นยักษ์": 4,
  "แย้ม": 4,
  "MAC": 4,
  "SHI": 4,
  "0.96": 4,
  "ชั้นวางของ": 4,
  "loans": 4,
  "ปรึกษาหารือ": 4,
  "หรรษา": 4,
  "half": 4,
  "พอกับ": 4,
  "นิก": 4,
  "เบื้องล่าง": 4,
  "ดุจ@@": 4,
  "ไดรเวอร์": 4,
  "เร่าร้อน": 4,
  "ลอกคราบ": 4,
  "RF": 4,
  "ธัญพืช": 4,
  "โพง": 4,
  "หลบ@@": 4,
  "ล้างน้ำ": 4,
  "BIRKENSTOCK": 4,
  "12.75": 4,
  "ประจุไฟฟ้า": 4,
  "ไอน้ำ": 4,
  "รอก": 4,
  "99.99": 4,
  "ตราสาร": 4,
  "ระดับ@@": 4,
  "4140": 4,
  "การคมนาคม": 4,
  "ลังกา": 4,
  "1015": 4,
  "ค่าปรับ": 4,
  "2001": 4,
  "ควอนตัม": 4,
  "ยิน": 4,
  "ขัดรองเท้า": 4,
  "เชื่อได้": 4,
  "ตีสนิท": 4,
  "KB@@": 4,
  "ใคร@@": 4,
  "ปิดประตู": 4,
  "2.9": 4,
  "9.75": 4,
  "วางก@@": 4,
  "ฉื่อ": 4,
  "1.9": 4,
  "โรคเรื้อรัง": 4,
  "lene": 4,
  "1598": 4,
  "VI": 4,
  "น(": 4,
  "หินอ่อน": 4,
  "ตาขอ": 4,
  "นีคสกิล": 4,
  "การเต้นรำ": 4,
  "ปฐ@@": 4,
  "นิว": 4,
  "ย้ายออก": 4,
  "รู้ซึ้ง": 4,
  "การละทิ้ง": 4,
  "เจอร์@@": 4,
  "ครบ@@": 4,
  "ปูน@@": 4,
  "lec@@": 4,
  "เหล็กใน": 4,
  "เปรย": 4,
  "นักเดินทาง": 4,
  "tic": 4,
  "รุ่ง": 4,
  "สกิล【": 4,
  "ในขณะนั้น": 4,
  "ๆๆ！": 4,
  "เพียงลำพัง": 4,
  "ความคิด@@": 4,
  "โกเมน": 4,
  "เรื่องตลก": 4,
  "แดงก่ำ": 4,
  "ความอยู่รอด": 4,
  "แวดล้อม": 4,
  "อ่า": 4,
  "เฟิง@@": 4,
  "การเซ็นสัญญา": 4,
  "ผู้ส่ง": 4,
  "TD": 4,
  "เครื่องทำความเย็น": 4,
  "ขนย้าย": 4,
  "มีรส": 4,
  "ร้านอาหาร": 4,
  "พุทรา": 4,
  "ปล่อยวาง": 4,
  "ล่องเรือ": 4,
  "น่าสยดสยอง": 4,
  "23@@": 4,
  "เรียส": 4,
  "โค้ท": 4,
  "76380": 4,
  "Ying@@": 4,
  "2182": 4,
  "ลืม@@": 4,
  "16.8": 4,
  "อวัยวะเพศ": 4,
  "กวัดแกว่ง": 4,
  "เอเชียตะวันออกเฉียงใต้": 4,
  "ไอโฟน": 4,
  "653": 4,
  "ประชาชาติ": 4,
  "21.5": 4,
  "สตรอ@@": 4,
  ".อัพเล": 4,
  "สระน้ำ": 4,
  "อู๋": 4,
  "ความพ่ายแพ้": 4,
  "าว": 4,
  "เลขทะเบียน": 4,
  "ดุ@@": 4,
  "พิธีกร": 4,
  "ความโลภ": 4,
  "แน่ว": 4,
  "แหม": 4,
  "2750": 4,
  "ชิ้นเอก": 4,
  "รำ@@": 4,
  "พึง": 4,
  "อยู่ในเกณฑ์": 4,
  "คุ้น": 4,
  "Au@@": 4,
  "ช่างมันเถอะ": 4,
  "การแผ่รังสี": 4,
  "〔": 4,
  "ทางหลวง": 4,
  "ue": 4,
  "บ้านเดี่ยว": 4,
  "ี่ยว": 4,
  "แปรธาตุ": 4,
  "ปัญ": 4,
  "ดาวเหนือ": 4,
  "นางรำ": 4,
  "เปิดกว้าง": 4,
  "233@@": 4,
  "8400": 4,
  "tor": 4,
  "cont@@": 4,
  "ปล่อง": 4,
  "วก@@": 4,
  "อดไม่ไหว": 4,
  "〕": 4,
  "ราชสำนัก": 4,
  "แคร์": 4,
  "พิธี@@": 4,
  "มหาลัย": 4,
  "เอาใจใส่": 4,
  "ISO": 4,
  "ผ้าปูที่นอน": 4,
  "การจำลอง": 4,
  "tro@@": 4,
  "ผม@@": 4,
  "รืน": 4,
  "MP@@": 4,
  "ลำเลียง": 4,
  "เรือนกระจก": 4,
  "ไล่ออก": 4,
  "เทียบ@@": 4,
  "เนี@@": 4,
  "guideline": 4,
  "EU": 4,
  "CA@@": 4,
  "ตาดำ": 4,
  "บล็อกเกอร์": 4,
  "ฟากฟ้า": 4,
  "Aiweier": 4,
  "การส@@": 4,
  "สถานีรถไฟ": 4,
  "ค.": 4,
  "ศ.": 4,
  "อพาร์@@": 4,
  "ขุด@@": 4,
  "tic@@": 4,
  "cn": 4,
  "ผู้ทำลาย": 4,
  "ลายเซ็น": 4,
  "รณ@@": 4,
  "อำนาจ@@": 4,
  "ทำแต้ม": 4,
  "เยาว์วัย": 4,
  "tml": 4,
  "การสุ่มตัวอย่าง": 4,
  "นํา้": 4,
  "สิน@@": 4,
  "วอลล์": 4,
  "ถ่องแท้": 4,
  "ตระหนักถึง": 4,
  "ุณ": 4,
  "dur@@": 4,
  "ance": 4,
  "5080": 4,
  "โคร@@": 4,
  "14250": 4,
  "ญาติพี่น้อง": 4,
  "ของว่าง": 4,
  "GIA": 4,
  "พราย": 4,
  "ข้าพเจ้า": 4,
  "ทุกแห่ง": 4,
  "ไพร": 4,
  "1190": 4,
  "890": 4,
  "์|": 4,
  "ห่อตัว": 4,
  "ก์ชั่": 4,
  "ผู้สนับสนุน": 4,
  "มร": 4,
  "ซ้ํา": 4,
  "สังเกต@@": 4,
  "ไคล": 4,
  "เเท้": 4,
  "หลว": 4,
  "ชุดเจ้าสาว": 4,
  "เกะกะ": 4,
  "อ่อนวัย": 4,
  "กัว": 4,
  "พิบัติ": 4,
  "พอด@@": 4,
[...]
