<s>
<pad>
</s>
<unk>
de
la
et
des
les
à
le
du
en
pour
par
dans
ou
au
est
:
sur
une
un
Les
(@@
que
Le
aux
être
sont
-
avec
;
qui
La
d’@@
d'@@
l’@@
ne
sera
l'@@
a
pas
doit
seront
ce
,
.
é
cas
-@@
se
1
Maître
er
plus
2
mise
travaux
)
il
és
ces
tous
entre
ée
doivent
e,
toutes
y
ées
été
d’un
Il
son
3
devra
tout
ses
e.
d’une
leur
cette
deux
A
DE
ainsi
m
chaque
prix
ant
En
es,
type
M@@
T@@
S@@
sous
peut
toute
B@@
re@@
s@@
système
sans
ent
d'un
présent
comme
C@@
niveau
in@@
soit
/@@
«
A@@
conformément
P@@
si
béton
dé@@
non
L’@@
ont
conditions
4
après
compris
contrôle
D@@
charge
selon
partie
l’Entrepreneur
Dans
es.
Pour
e
avant
projet
compte
sa
autres
e@@
t@@
).
protection
F@@
age
L@@
3@@
équipements
matériaux
d'une
on
dont
»
L'@@
5
moins
d@@
ation
zone
Ce
N@@
E@@
R@@
nécessaires
s,
m@@
devront
),
essais
n@@
place
.@@
i@@
l@@
4@@
G@@
2@@
6
dispositions
es
10
s
b@@
K@@
fait
c@@
même
1@@
é,
construction
t
plan
plans
rapport
date
5@@
ement
ouvrages
où
œuvre
pendant
service
–
H@@
6@@
réseau
Un
s.
r@@
suivant
Ces
ré@@
O@@
éléments
V@@
réalisation
sécurité
ation,
g@@
o@@
afin
faire
Si
i
/
base
Une
également
documents
mm
qualité
é@@
I@@
données
eur
Cette
ations
droit
elle
é.
20
mesures
p@@
peuvent
al@@
k@@
%
cours
techniques
o
er,
leurs
jours
age,
contre
en@@
=
000
h@@
pose
demande
ET
produits
site
autre
ement,
fourniture
a@@
frais
7@@
7
transport
tension
montant
cadre
réception
lors
ligne
8
délai
ti@@
al
l'Entrepreneur
pièces
0@@
fonction
era
,@@
valeur
notamment
f@@
mesure
8@@
eaux
is@@
fonctionnement
zones
ar@@
ation.
er@@
és,
ements
période
aussi
ch@@
avoir
durée
mais
travail
"@@
es@@
an@@
di@@
nombre
présente
ée,
installations
point
marché
surface
garantie
able
50
manière
production
te
titre
DES
L’Entrepreneur
x
or@@
e)
30
nécessaire
ée.
9@@
caractéristiques
pourra
ons
et@@
partir
forme
câbles
ement.
terre
vers
és.
fin
it@@
temps
normes
sol
1.@@
couche
gestion
commande
:@@
chantier
résultats
trois
façon
mis
20@@
15
matériel
2.@@
Figure
lieu
10@@
v@@
Marché
S
parties
câble
E
elles
de@@
suivantes
y@@
ex@@
U@@
qu@@
aires
fournir
C
tableau
0,@@
3.@@
ac@@
électrique
u@@
eurs
ants
eau
z@@
et/ou
technique
aire
d’eau
T
ages
Tous
on@@
maître
exigences
position
EN
ées,
qu’il
différents
@@
bonne
bien
Des
personnel
+
im@@
s’@@
permettre
ag@@
el@@
ées.
tes
sujétions
x@@
prendre
co@@
D
Tableau
ant@@
prise
at@@
age.
charges
pression
ale
9
nous
4.@@
services
capacité
ables
tenu
ou@@
informations
nature
as@@
minimum
vi@@
phase
l’exécution
section
J@@
assurer
200@@
l’Ouvrage
hauteur
points
état
mois
cm
opérations
ni
tant
très
suivants
ayant
conception
norme
cet
con@@
100
lui
s'@@
tr@@
d
I
poste
par@@
ite
er.
5.@@
w@@
B
résistance
am@@
calcul
que,
•
développement
mètre
étant
courant
14@@
per@@
P
R
moyen
st@@
j@@
acier
plusieurs
groupe
Fourniture
li@@
jour
sur@@
W@@
F/P
puissance
contrat
réserve
ol@@
De
n’est
permettant
aura
+@@
température
Z@@
long
vue
Au
traitement
comprend
ér@@
F
ri@@
ante
taux
IN@@
au@@
fois
a,
risques
kV
l
ci@@
_@@
spécifications
12@@
L
ts
el
lorsque
donc
"
disposition
tion,
?
re,
c
longueur
aire,
stockage
concernant
moyens
mettre
limite
conformité
l’ensemble
bi@@
ateur
eur,
supérieure
25
règles
faut
Article
ité
conforme
aucun
référence
ent@@
droits
pré@@
40
12
ant,
soumis
re
M
dis@@
dispositif
études
ie
systèmes
L'Entrepreneur
13@@
pays
l'exécution
ab@@
du@@
dossier
ans
V
utilisés
00@@
distribution
ét@@
Toutes
r
u
valeurs
eux
Ils
activités
fi@@
voie
depuis
60
joints
ap@@
paiement
50@@
prises
è@@
si@@
1,
celles
travaux,
aire.
l’article
ait
permet
électriques
0
part
total
LA
prévues
montage
présence
mode
an
liste
celle
personne
n
raccordement
réaliser
document
donner
différentes
lignes
locaux
CA@@
In@@
modèle
ad@@
moyenne
vigueur
ils
s)
prescriptions
DU
Con@@
offre
réseaux
1.
prévu
produit
l’Autorité
Société
em@@
remise
15@@
fin@@
inter@@
60@@
ES
ance
Elle
distance
me
d'eau
choix
procédure
personnes
maximum
d’exécution
matière
tu@@
pouvoir
ales
É@@
Projet
haute
qu'il
prestations
société
X@@
programme
centrale
RE@@
)@@
sou@@
ques
ni@@
LE
oc@@
2,
ceux
00
om@@
sauf
30@@
circulation
tri@@
16@@
dépôt
possible
terrain
conformes
port
général
première
N
responsable
ers
2.
vitesse
obligations
MA@@
débit
modification
in
route
Y@@
entreprises
diamètre
appareils
TI@@
aucune
op@@
application
vous
concerne
actions
AN@@
AR@@
des@@
e-@@
tels
le@@
accord
support
etc.
matériels
pa@@
fabrication
contractante
inférieure
1,@@
éviter
19@@
lot
0.@@
ique
ence
Par
16
aires,
eurs,
re.
Chaque
11
com@@
volume
eur.
Section
the
sortie
structure
maximale
201@@
responsabilité
directement
voies
ère
cas,
us@@
(1@@
salle
il@@
prévus
SI@@
l’objet
relatives
réalisés
car@@
pris
défaut
Q@@
sous-@@
Contractant
On
tel
l’ouvrage
h
d'exécution
suite
paragraphe
travaux.
n’@@
tion.
n'est
ation@@
te@@
hors
O
niveaux
al,
av@@
alors
Dé@@
eur@@
ciment
méthode
ro@@
1-@@
soient
ine
risque
EN@@
ères
coûts
ver@@
travers
pl@@
tions
TE
18@@
Travaux
celui
ser@@
local
égale
t,
ités
n°
situation
ec@@
6.@@
telle
supérieur
ations,
ant.
25@@
17@@
100@@
coût
totale
cr@@
Partie
dispositifs
besoins
gaz
largeur
l'ouvrage
armé
ON@@
compter
is
poids
Soumissionnaire
(P@@
exécution
es)
of
nouveau
réalisé
conduite
formation
euse
ot@@
porte
14
a.
moment
port@@
m.
sites
fera
pro@@
PA@@
ents
vie
jusqu'à
jusqu’à
bâtiment
sens
su@@
cu@@
gr@@
80
1/@@
dimensions
Après
types
public
premier
l'ensemble
24
Lorsque
500
véhicules
us
ants,
maintenance
ob@@
marchés
passage
ER@@
corps
min@@
l’eau
d’ex@@
critères
199@@
g
rés
al.
groupes
secteur
limites
revêtement
ale,
7.@@
contact
Sur
».
offres
surfaces
joint
effectués
fixation
Plan
3.
ité,
que.
Code
Ex@@
res,
res.
et,
profil
trans@@
l’Ingénieur
station
ers,
iss@@
ent,
panneaux
cuivre
suivi
certains
ai@@
profondeur
all@@
termes
vérifier
correspondant
eu@@
laquelle
côté
déchets
U
13
d’œuvre
CO@@
présenter
antes
bon
=@@
(
recherche
durant
aux,
sols
utilisé
TION
rée
gu@@
eront
IS@@
e;
onn@@
40@@
structures
classe
l’offre
postes
Re@@
at
chapitre
respect
n°@@
ateurs
fond
vent
couches
d’autres
'@@
cinq
ites
X
CI@@
minimale
22@@
Contrat
TA@@
n'@@
ements,
domaine
ARTICLE
générale
quantité
ue
respecter
SA@@
devant
particulier
installation
retour
inférieur
pourront
4-@@
and
Marché,
ement@@
portant
tenir
H
cl@@
cent
els
vérification
soumissionnaire
G
br@@
f
procédures
supports
Pro@@
prévue
préalable
mètres
res@@
aires.
EC@@
ten@@
ances
ter
effet
(1)
définies
transformateur
notification
ss@@
éventuellement
tique
contrôles
ez
m,
res
po@@
ques,
votre
9.@@
p
nom
ment
accessoires
réglage
environ
1)
objet
début
(C@@
fil@@
mes
chacun
l'article
bassin
CP@@
faible
écrit
DA@@
règlement
essai
tion@@
cela
dernier
délais
dès
marchandises
raison
ale.
mar@@
18
représentant
80@@
el,
2)
L’ENTREPRENEUR
réglementation
ell@@
PR@@
cré@@
liés
l’entreprise
masse
mo@@
Nous
propres
conducteurs
alis@@
for@@
lu@@
d’exploitation
consommation
bar@@
ages,
(voir
lieux
Ch@@
D'@@
Tout
décision
siège
grande
peinture
ES@@
DI@@
direction
N°
mi@@
pi@@
24@@
quantités
isation
connexion
pouvant
l’in@@
LI@@
effets
accès
3-@@
détails
ter@@
signalisation
2,@@
2-@@
fournis
indications
DE@@
projets
ir@@
Contrôle
code
réalisée
form@@
ci-après
cour@@
28
composants
exécutés
chaussée
circuit
double
ing
ca@@
projet.
terme
man@@
Dossier
métallique
vis@@
t.
LA@@
étude
31
CH@@
Constructeur
perte
lo@@
CEI
métalliques
19
calculs
tiques
d'ex@@
rel@@
font
heures
3,
propriété
RA@@
paramètres
km
EX@@
telles
d’ouvrage
70
17
certaines
on,
région
ère,
modalités
communication
200
(2)
MAITRE
ég@@
relatifs
°C
suit
o-@@
rer
Marché.
8.@@
);
ance,
ill@@
surveillance
centre
peu
pompe
l’A@@
tion
able.
d’in@@
matériau
principaux
complète
principal
as
serait
ensemble
processus
dou@@
livraison
dix
face
e).
ette
it
ques.
puis
alisation
CON@@
automatique
prévoir
auprès
te,
En@@
tenue
ci-dessus
laboratoire
démarrage
(S@@
contraintes
procéder
l'eau
reste
Toute
échantillons
articles
its
seul
déjà
ressources
épaisseur
teneur
bou@@
ente
ci-dessous
applicables
vertu
proximité
fréquence
voir
aval
ité.
import@@
relative
rées
réalisées
fondation
TS
elle,
ations.
anti@@
auront
ir
quatre
%)
à@@
tiers
(ou
équipé
établi
limit@@
ess@@
but
LES
biens
fournitures
th@@
l'Ouvrage
années
OU@@
’@@
effectué
économique
bois
liées
cou@@
effectuer
ales,
a)
iques
pr@@
D’@@
ellement
end@@
un@@
était
sable
mises
dommages
d’Ouvrage
én@@
bâtiments
(B@@
ang@@
échéant,
fonds
utiliser
PI@@
stabilité
établissements
21
phases
tions,
b
nouvelle
»,
Système
mêmes
Cahier
Elles
source
nouveaux
préparation
Mise
l'ex@@
l'objet
faisant
Ré@@
série
22
santé
conducteur
fondations
possibilité
té
ain@@
impacts
abilité
À
tif
ens
égal
changement
ce,
…
pour@@
indiqué
Avant
rémunère
fins
ordre
s’il
cal@@
able,
bas@@
ent.
MO@@
OR@@
donné
cul@@
couleur
liaison
300
AC@@
matières
fourniture,
EMENT
um
3)
hydro@@
haut
eurs.
sub@@
loi
barres
ati@@
l’Entrepreneur,
figure
résultant
se@@
encore
permis
ise
is,
erie
ble
ass@@
la@@
C.
nettoyage
bl@@
méthodes
exemple
BA@@
oi@@
Prix
efforts
Annexe
marche
ER
cause
%.
garantir
de,
d’appel
ais
(T@@
ines
pont
condition
principales
modifications
retenue
abl@@
bu@@
action
complet
aient
garde
particulières
N°@@
publics
°
ais@@
membres
bureau
toujours
(en
ur@@
gar@@
vanne
millions
d’accès
VI@@
n’a
AP@@
provisoire
détail
tenant
mer
ma@@
l’installation
dimensionnement
90
/0@@
drainage
tre
mécanique
s-@@
engins
5-@@
projet,
PRO@@
obtenir
basse
ure
l’ex@@
interne
emb@@
issement
transformateurs
définis
400
so@@
to
note
régime
e:
clause
col@@
utilis@@
d’offres
équipement
*@@
TE@@
requis
dépenses
marché.
exécuter
etc.)
3,@@
générales
taxes
(M@@
solution
chantier,
EL@@
talus
principe
divers
anti-@@
marché,
sions
A,
numéro
MI@@
rou@@
profils
enne
der@@
70@@
faite
les@@
au-dessus
utilisant
Installations
éri@@
transmission
fr@@
45
GE
(s)
remplacement
défauts
k
fication
ats
signature
défini
pièce
tard
propre
pu@@
portes
appar@@
termin@@
procédé
compactage
l’Entrepreneur.
do@@
chargé
sion,
extérieur
copie
jeu
nominale
ins@@
él@@
dés@@
entreprise
por@@
immédiatement
pylônes
publique
«@@
bétons
ants.
installés
pou@@
pourrait
pente
our@@
blocs
reprise
ère.
hi@@
000@@
§
proposition
pied
armatures
unités
catégorie
fournira
élément
és@@
garanties
relatif
désigne
mur
présentation
résultat
satisfaire
198@@
matériaux,
che
indiquées
simple
>
EM@@
remblais
CE
*
l’aide
val@@
CE@@
SE@@
4.
tête
charg@@
tive
ance.
fourni
Clause
l’état
RI@@
tés
analyse
AL@@
linéaire
titulaire
A.
Di@@
alité
suivante
atif
l'in@@
répondre
og@@
W
pylône
elles,
tracé
(à
¨¦@@
dues
portée
5,
notre
&
déterminer
ém@@
ème
fonctionnant
déplacement
ban@@
réservoir
fonctions
mm.
Nord
(D@@
FI@@
E,
situé
mortier
d’alimentation
génér@@
Maitre
d'autres
véhicule
150
enti@@
constitué
ers.
6-@@
rupture
to@@
déclaration
Parties
effet,
sé@@
figurant
ach@@
avis
bo@@
ce@@
principalement
demander
fixé
qu’@@
page
01
circuits
mon@@
bas
coll@@
el.
tableaux
ville
comprenant
d,
l’exploitation
aux.
aire@@
IS
s;
(A@@
eu
sion
suspension
tives
dernière
age@@
ures
vis
Par@@
effectuée
isé
vari@@
tra@@
besoin
cé@@
lequel
centr@@
ative
réalis@@
performance
fl@@
chacune
Com@@
mission
réduction
pompes
isol@@
puits
TR@@
donne
amont
quelle
terres
o,
uni@@
décrit
transfert
ets
35@@
C,
Toutefois,
l’Ingénieur.
murs
á@@
pieux
ches
sections
conven@@
ul@@
ences
éc@@
s).
régulation
aluminium
main
signé
dus
5.
intérieur
coefficient
Titulaire
ante,
int@@
spécifiques
US@@
plus,
10.@@
quelconque
ettes
Spécifications
bande
SO@@
ères,
L’OUVRAGE
eux,
id@@
due
norm@@
celui-ci
thermique
ge
présent@@
force
75
important
donnée
spécifique
bornes
indiquant
fixées
elle.
utilisées
unité
employés
S,
it,
vr@@
soumissionnaires
destinés
fournisseur
inclus
iser
milieu
réserves
groupement
loc@@
l’environnement
POUR
moteur
Co@@
Ac@@
nouvelles
d'in@@
11@@
l’Article
capital
vol@@
chute
!
ed
annexe
ins
az@@
gl@@
mm²
fer@@
Commission
trafic
définie
soumettre
mm,
pon@@
décembre
sommes
iv@@
composition
ist@@
seule
GE@@
détection
autour
dûment
ven@@
dé
provenant
mécaniques
instructions
soumission
dat@@
ues
utilisée
TIONS
secours
l'A@@
%,
euses
â@@
description
remis
tube
4,
Ar@@
HT
hydraulique
ables,
tubes
que@@
or
250
sorte
NO@@
« @@
Sauf
bord
ra
pass@@
3/@@
près
QUE
ci
Pl@@
d.
ST@@
RE
“@@
ON
terminé
d’en@@
notes
PO@@
26@@
deuxième
répartition
approbation
départ
ci-dessus,
mor@@
quant
certificat
contenant
réduire
23
relais
quelques
CONSTRUCTEUR
w
ê@@
Lors
augmentation
tre@@
tionn@@
préciser
11.@@
els,
sup@@
LE@@
susceptibles
2.1
trop
ence,
gé@@
ite,
Qu@@
autoris@@
Essais
35
der
l’étude
Conseil
ren@@
dispose
IP@@
Ministère
continu@@
correspond
visite
dée
l'installation
ales.
SP@@
mé@@
e),
C.@@
chargement
est@@
dr@@
fu@@
pertes
installé
ph@@
module
90@@
trous
5%
os@@
A.@@
seulement
outre,
Chef
Im@@
d'accès
AS@@
no@@
multi@@
d'exploitation
l’intérieur
e.@@
lettre
non-@@
ct@@
b)
terrains
●
équivalent
parois
aine
contr@@
test
usine
dernières
(3)
sign@@
quai
proposé
présentes
six
car
inform@@
construction,
permettra
République
dosé
principale
comptes
activ@@
ables.
nu@@
ie,
existe
Afin
définitive
retard
14.@@
populations
Pré@@
indiqués
TU@@
kg
Inter@@
seraient
ET@@
considéré
panneau
via
27@@
l'état
autant
Banque
recommandations
FA@@
états
qu’ils
parfaitement.
men@@
(y
An@@
z
avons
va
cahier
pourraient
limiter
nes
33@@
ç@@
candidat
BI@@
atteindre
équipés
AU
création
ques@@
équipements,
d'ouvrage
mu@@
autorisation
outils
définir
...
préalablement
s’agit
connaissance
400@@
faciliter
S.
recevoir
remblai
l'aide
applicable
spécification
initi@@
vannes
plaques
somme
T,
uniquement
écr@@
is.
es;
auxiliaires
cité
totalité
rapports
renseignements
potable
Aucune
télé@@
Mar@@
Selon
opér@@
e/@@
Al@@
chantier.
règlements
social
(R@@
Construction
fermeture
finition
supplémentaires
détermin@@
feu
routes
6,@@
courants
CU@@
fiche
l’approbation
définition
atives
éventuels
3.1.@@
l’usine
activité
ons,
payer
contraire
it.
recours
entr@@
(0@@
pe
altern@@
quelque
1000
Au@@
BT
ensuite
proposer
carrières
P.@@
um@@
65
rédu@@
CT@@
dés
utilisation
cin@@
l’entrepreneur
ay@@
coupe
Deux
particulièrement
requises
pli@@
caractère
s'il
propos@@
exploitation
4)
Y
fil
décret
Rapport
entes
comprennent
généralement
cit@@
performances
fixée
bles
II
CR@@
révision
cation
.,
can@@
fac@@
réparation
schéma
ction
K
-0@@
décompte
1er
établis
industri@@
qu'ils
TO@@
ventilation
Techniques
conduites
):
savoir
pal@@
ité@@
tres
fabricant
2018
forte
détaillée
02
sondages
fixe
site,
plein
<
C)
supervision
raisons
fixés
ements.
Mission
navires
PE@@
suffisamment
naturel
cote
Protection
5)
obligatoirement
TES
tes,
i,
ing@@
fournies
marque
lesquels
roch@@
pe@@
constituée
fix@@
post@@
ologie
tou@@
population
maintenir
ain
validité
Ou@@
26
rechange
Service
Béton
28@@
Marchés
tonnes
normal
provisoires
500@@
transport,
ak@@
indication
personn@@
disjoncteur
ation)
ci-dessus.
représent@@
diverses
12.@@
formes
plan@@
financiers
habit@@
ateurs,
janvier
plaque
complémentaires
situés
quement
financement
vigueur.
entièrement
install@@
espaces
ouvrage
présentant
tions.
dur@@
croissance
question
importante
exploit@@
ô@@
fonctionn@@
and@@
sous@@
bétonnage
cor@@
ille
porter
coffrages
m)
aill@@
Conditions
197@@
libre
Cet
eau@@
traction
digue
aux@@
effectu@@
montants
trente
2015
3.1
sol@@
fon@@
NF@@
teur
atten@@
matéri@@
DU@@
poteaux
sein
Clauses
29@@
qu’elle
rés@@
oire
membre
année
France
€
assure
voi@@
ment@@
…)
Date
située
constitue
m3
remplissage
éventuelles
résiliation
grav@@
densité
cro@@
Directeur
EV@@
seuil
ont@@
juin
'
bri@@
ante.
ru@@
tor@@
dépôts
sécurité,
29
tests
sous-traitants
sociétés
es).
mm@@
IR@@
s:
ts,
aff@@
Groupe
dées
ies
bruit
formations
QU@@
ouver@@
AUX
aqu@@
incendie
défaillance
maintien
compression
atifs
ères.
l’ENTREPRENEUR
précis@@
tin@@
ds
d’ac@@
objectifs
ard
a-@@
Est
configuration
l'intérieur
cas@@
permettent
ATION
actu@@
l’utilisation
dent
E-@@
pres@@
Zone
nationale
poly@@
d’air
l’équipement
not@@
pos@@
existant
te.
unitaire
on.
bureaux
d’être
Li@@
/201@@
AU@@
coupure
l'Entrepreneur.
bitume
cube
pol@@
vingt
locales
350
33
outre
d'Ouvrage
préjudice
l’autre
unique
faites
s/@@
l’en@@
oir
boulons
2.2
44@@
GR@@
relation
acteurs
pleine
béton,
détermination
bat@@
agents
ennes
DR@@
éch@@
conten@@
limitée
fier
qu’une
lots
°@@
ouvr@@
lég@@
angle
radi@@
couverture
dehors
béton.
ou,
2/@@
autorités
exclu@@
conserv@@
houle
elles.
tolérances
infrastructures
roches
erreur
32
indiquer
grands
évaluation
présenté
canalisations
l’ordre
article
formule
ME
potentiel
év@@
flux
protéger
At@@
eri@@
log@@
6,
surtout
OP@@
LO@@
poser
aciers
prendra
ens@@
Direction
constituant
installer
mine
ces@@
génie
sources
fouilles
Bordereau
fils
ate
politique
,5
s’applique
q@@
bles,
arr@@
continue
obtenu
alement
air
Type
économiques
autorisé
indique
8,
l'Entrepreneur,
d'œuvre
ne@@
dant
Câble
qu'@@
supplémentaire
6.
lit
ar
plage
associ@@
2.1.@@
PL@@
compt@@
feront
vagues
posé
pan@@
indiquée
eux.
distribu@@
os
donn@@
lesquelles
bus
PVC
acte
SS@@
bouton
tient
demeure
Contrat.
facteur
part,
ig@@
Programme
gros
locale
nappe
mieux
clairement
d’im@@
carte
précision
re)
conseil
site.
mini@@
transmis
ce.
champ
transformation
commun
appel
manutention
tronçon
juillet
ME@@
ouvrages,
Z
%@@
candidats
27
8.
act@@
CLIENT
vente
de.
cobalt
quand
conform@@
isés
atteint
usées
Nombre
pollution
anc@@
armoires
600
occup@@
Vérifier
emplacements
incluant
d'essais
éventuelle
convient
cs
enn@@
intérêts
précise
physique
T.
vibr@@
5/@@
300@@
attribu@@
tique,
assurée
environnement@@
dosage
Réseau
tre,
existants
quer
TER@@
civil
spécifi@@
présentés
ju@@
dépasser
MP@@
entre@@
temporaire
ique,
aliser
ents.
cer@@
mont@@
pes
comportant
techniques,
ouverture
forage
grand
DN
établir
l'établissement
sion@@
quel
déblais
erait
médi@@
extérieure
prévoit
câblage
usage
canal
met@@
03
c’est
réserv@@
n'a
considérée
ités,
graphique
t-@@
d’énergie
schémas
conformer
qualification
tot@@
hydrauliques
Mo@@
ateur,
localisation
assez
revêtements
vérifications
adi@@
ann@@
l'environnement
comprise
rem@@
lib@@
capacités
roul@@
l'entrepreneur
til@@
Cependant,
essentiellement
constructions
St@@
BO@@
s’engage
approuvés
isant
comporte
facteurs
ladite
20.@@
parfaitement
corrosion
mat@@
FCFA
march@@
rejet
oni@@
tabl@@
soins
Technique
C’est
GA@@
l’un
convention
d’A@@
Documents
s'applique
clauses
suffisante
décrites
défini@@
l'entreprise
mobil@@
actionn@@
chantiers
posés
del@@
galerie
annexes
sal@@
fibres
caissons
apporter
puisse
fuite
réunion
trait@@
Montant
composé
rev@@
effectuées
j
fabrication,
protections
contrat.
profilés
l'Ingénieur
3.2
d’essai
manque
met
iter
antes,
cteurs
carrière
Hz
missions
déchargement
échantillon
120
dessus
-1
l'application
tôle
tolérance
ori@@
l'en@@
pré-@@
issant
fond@@
câbl@@
coup@@
dimension
extrémités
ł@@
Ap@@
taille
nie
d’Oeuvre
large
représente
mati@@
S.@@
Candidat
accident@@
respectivement
isée
granulats
tera
d’Œuvre
pourcentage
comman@@
ho@@
ari@@
600@@
issent
bilité
esse
ance@@
spécifiés
toutefois
stations
saison
mélange
Pendant
ents,
turbine
gaz@@
cat@@
Générale
fibre
stipulations
signifie
aut@@
95
document@@
ologique
ailleurs,
hypothèses
...)
d’essais
documentation
analyses
gn@@
Dis@@
T)
souvent
régl@@
direc@@
in,
conn@@
standard
générale,
remettre
ci-dessous.
oul@@
l’analyse
public@@
continu
verticale
bal@@
4,@@
ail@@
ajust@@
prend
plateforme
d’entrée
consiste
soumises
aliment@@
bles.
nécessaire,
déterminée
C-@@
els.
modes
prévention
Tension
construire
23@@
oun@@
nomin@@
nos
agré@@
fer
retenu
éventu@@
stock@@
ier
Centrale
pressions
coffret
constitu@@
montre
débits
dû
contexte
mentionnées
faits
qu’un
associés
le,
–@@
quinze
manœuvre
lié
spéci@@
opérateurs
travail,
l’autorité
positions
globale
800
contacts
assu@@
err@@
ire
organis@@
disponibilité
8-@@
susceptible
externe
sujet
EP@@
parc
commandes
objectif
ev@@
Client
EE
possible,
filtr@@
sh@@
HA@@
financière
Sous
ali@@
rejet@@
Aucun
inf@@
liaisons
fournit
logiciel
élev@@
flu@@
dimensionn@@
aires@@
ances,
compét@@
(par
plans,
procès-verbal
sanitaires
conteneurs
1.1
lim@@
trouve
(10)
précautions
roche
réponse
d’évaluation
sif
problèmes
proposés
”
prix,
investissements
verre
tique.
ty@@
48
grâce
ateur.
sondage
alités
pren@@
rapide
Ad@@
150@@
agréé
électrique,
SU@@
ge@@
des,
disponibles
programmes
me,
(N@@
Lot
55
approuvé
NA@@
produire
dit
Ainsi,
obligation
for
Su@@
Centre
contenu
itu@@
l’énergie
remboursement
P.
ans,
CF@@
HT@@
Voir
Règlement
global
différence
pratiques
l'ordre
fou@@
commerce
7-@@
coul@@
be
dragage
ins,
gisement
conception,
textes
l’une
1,5
vis-à-vis
CM@@
Garantie
110@@
l’entrée
cellules
tiv@@
S)
exécution.
l'agrément
tempor@@
grandes
précisé
statique
dem@@
225
Contrat,
décisions
annex@@
7)
propositions
d’au
pêche
étudi@@
visés
ect@@
je
plafond
équ@@
informer
d’huile
utile
m2
requise
arrêté
registre
ouvert
organes
appliquer
E.
sol,
étrang@@
indu@@
Gestion
l'Etat
neu@@
±
contrat,
emplacement
15.@@
at,
str@@
concern@@
ret@@
tablier
volumes
version
A)
d‘@@
6)
cycle
écrite
manu@@
s’assurer
derniers
fréqu@@
chaînes
service,
celle-ci
eng@@
environnement
RES@@
modifier
anci@@
mesurée
camions
ble,
cli@@
l’air
mention
heure
ris@@
bassins
deman@@
eaux,
bil@@
paiements
ement)
analys@@
•@@
D.
commun@@
produ@@
plate-forme
montage,
tur@@
manuel
détaillé
exemplaires
comp@@
Ouest
attention
placés
retrait
équipée
compact@@
conséquences
l’alimentation
ente,
L.
out@@
CS
propose
machine
roulement
financières
.Le
sécurité.
œuvre,
national
rôle
végét@@
Po@@
refroidissement
ï@@
5,@@
mentionné
existantes
tal@@
36
suffisant
parti@@
planning
dessins
provenance
variante
isées
qué
me.
chaîne
variation
enrochements
4/@@
paroi
épreuves
dalle
présentées
établissement
fonte
D,
calculé
levage
l'utilisation
l'approbation
décharge
format
inclure
portées
unitaires
endroits
critère
reçu
cav@@
1).
les,
impact
Services
indiqu@@
chauff@@
batterie
LIN
électronique
EL
observations
l'exploitation
soumise
oss@@
supérieures
galvanisé
cap@@
contre@@
tour
ici
essais,
2016
transform@@
regard
références
Contr@@
table
l'étude
au-delà
ération
posi@@
rejets
terre,
récupération
traversées
r,
né@@
etc@@
î@@
mes,
d’Appel
support@@
05
tier
rémunération
ani@@
oeuvre
client
vide
consult@@
final
continuité
d’environ
minerai
jeux
signal
enduit
faç@@
devrait
l’habitacle
her@@
situations
l'une
sse
réel
eau.
contrats
ong@@
ceux-ci
clients
constru@@
.Les
‐
évaluer
énergie
l’accès
tensions
l'exercice
ateur@@
l’unité
législation
arri@@
2000
Site
décrits
7,@@
étaient
réglementaires
oirs
9,
opération
l’Ouvrage.
poutres
financi@@
196@@
Général
espace
TOTAL
ine,
fo@@
tionnel
IV@@
naturelle
frais,
Essai
théorique
incorpor@@
charge,
contrôle,
ax@@
atique
es-@@
façade
l’application
ponts
axes
mars
degré
le.
in.
D.@@
relativement
compos@@
niv@@
collec@@
actuelle
e @@
accidents
cô@@
(3@@
sp@@
administratives
att@@
passation
carré
—
aurait
visi@@
sion.
lors@@
tâches
EU@@
concernés
ll@@
ond@@
correspondante
particuli@@
6/@@
propriétés
ef@@
addi@@
Sécurité
(30)
centrales
P,
Loi
similaire
04
utiles
auquel
considérés
L'entrepreneur
(F@@
nord
organisme
bre
chemins
ISO
2020
environnementale
terminal
0,5
Cl@@
contrôler
Comme
(I@@
l’évaluation
alt@@
minér@@
D)
calculée
lois
d’exécution.
Plans
couvrir
an,
sud
instruction
annuel
const@@
TEN@@
che,
émissions
internes
DO@@
age)
particulière
LU@@
coffrage
eau,
d'alimentation
ages.
bru@@
disponible
45@@
pierre
III.@@
4.1
dom@@
ve
intérieure
Per@@
éré@@
fixes
petits
cad@@
cependant
rap@@
Convention
entendu
identifi@@
arm@@
s'engage
Bu@@
superficie
s),
em
spécifiées
sept
lutte
21@@
accor@@
l’axe
primaire
MIN@@
chang@@
oph@@
faces
scénario
qui,
évacu@@
9.
orient@@
fourni@@
édi@@
l’Ouvrage,
projet@@
solutions
ram@@
pointe
peut,
influence
améliorer
7.
muni
L.@@
avantages
qu'un
importants
principes
accept@@
comportement
d’autre
‘@@
Représentant
observ@@
bandes
fiches
tifs
calcul@@
ép@@
démontage
graphi@@
tent
Tr@@
arrêt
que)
d’ar@@
protégés
ajou@@
périmètre
démolition
v
eux@@
spécifié
monnaie
secondaire
hy@@
ecteur
sorties
optique
aménagements
Vi@@
soumissionn@@
exécuté
granul@@
lev@@
autorisations
l’exercice
……@@
lement
l’aménagement
constituer
B,
compren@@
mentionnés
mas@@
règle
déci@@
coordination
plancher
chemin
Niger
(2@@
profit
teurs
asse
7,
L’ensemble
prom@@
constitués
d’œuvre,
conservation
pu
applic@@
estimation
ai
T.@@
explo@@
d’œuvre.
din@@
…@@
stratégie
ez@@
E)
chimiques
réservoirs
Cela
supporter
tes.
batteries
douane
4.2
cri@@
ter,
acc@@
PAR@@
conçu
antes.
(15)
destination
définitif
38@@
Sou@@
signaux
aspects
origin@@
place,
cher
avril
".
Réalisation
contrainte
(m@@
c)
clôture
17.@@
cuve
jusqu'au
erg@@
Nationale
objets
péri@@
isolation
R.@@
internation@@
ambi@@
fournisseurs
RO@@
rési@@
ture,
crédit
d'épaisseur
assurant
110
ini@@
catégories
sables
ans.
appliquée
l'autre
1.2
sais@@
thèse
demandé
(pour
pla@@
an.
PROJET
dossiers
sabl@@
qu’en
organismes
réhabilitation
2017
（@@
SUR
contrôl@@
sol.
tis@@
8)
jusqu’au
résister
fur
microfinance
contractuelles
qu'une
demande,
l’établissement
2,5
pompage
press@@
condu@@
information
constructeur
l‘@@
températures
disposer
actifs
o.
pluvi@@
semi-@@
tivité
r.
nominal
recouvrement
Produits
jonction
tuyau
concentration
éro@@
colonnes
bordereau
Qualité
terre.
contractu@@
modules
régulièrement
interven@@
tif@@
consultation
proche
B.
hum@@
vu
d’utilisation
L’entreprise
transition
intervention
alimentation
chaud
sous-traitant
reconnaissance
beaucoup
industrielle
caisson
chron@@
BU@@
larg@@
publi@@
finale
géotechniques
nécessaire.
suivantes:
participation
û@@
compens@@
dates
normalement
3.3
one
rouge
group@@
en,
associé
environnementales
actes
its,
liant
compar@@
fau@@
intéress@@
EUR
Fournisseur
territoire
compl@@
ED@@
sem@@
DN@@
situées
justifier
horizontale
préven@@
constitution
calage
minutes
déterminé
perman@@
(G@@
(le
priv@@
sz@@
colonne
veiller
variable
d'im@@
assembl@@
réglement@@
préférence
rayon
d'ancrage
Niveau
ique.
l’exception
RECEPTION
maçonnerie
Règles
Publics
tuyaux
changements
cm.
grille
ze
IL@@
plac@@
ż@@
codes
isme
af@@
ira
pén@@
acceptation
pratique
auxquelles
centres
amen@@
bor@@
pul@@
vers@@
emprunts
na
‐@@
itaire
dit@@
/m@@
tranchée
forages
tir@@
tre.
passe
IE
ports
candidat@@
l’entretien
pri@@
ons.
œuvre.
ence@@
déformation
AL
commune
char@@
ane
protection,
qu'elle
comporter
communi@@
éré
l’ouverture
sti@@
Min@@
tranch@@
m/@@
suc@@
chef
195@@
Transport
MW
liée
fic@@
visu@@
pollu@@
d’électricité
technologie
lavage
dommage
0/@@
che.
événement
verrouillage
Un@@
Installation
automatiquement
arbres
organisation
",
produc@@
soigneusement
drain@@
alisé
détaill@@
at.
axe
créer
jou@@
reti@@
donnés
échelle
massif
ę@@
37@@
passages
sociales
CCTP
éventuel
minerais
retar@@
administr@@
langue
Exécution
d’assurer
gauche
ouest
évolution
èrent
grès
charge.
n’y
cam@@
Chine
V.
ion@@
l'ar@@
vidange
l’Ingénieur,
étape
consomm@@
visées
major@@
l'équipement
portuaire
quée
apport
payé
d'air
cal
offre,
machines
comité
étanchéité
personnels
ais,
sécur@@
ff@@
Données
atelier
Lors@@
ir,
visé
Comité
majeure
restent
ouvrages.
fouille
fossés
chargée
désigné
événements
approche
éprouvettes
soumettra
sec
T-@@
lieu,
fication,
déplac@@
.)
armoire
normale
travail.
septembre
d'essai
sous-trait@@
tension,
tuyauteries
conçus
u,
ées@@
me@@
util@@
rencontr@@
ces,
vent@@
empêcher
dér@@
compensation
micro@@
hydr@@
respectant
etc.,
(ii)
admissible
L’entrepreneur
numérique
interdit
f.
d’application
25.@@
dynamique
liquid@@
Por@@
salles
l’emprise
preuve
Génér@@
d’entretien
l’achèvement
matériel,
février
i-@@
légèrement
bloc
(i)
navire
destin@@
nation@@
da@@
CCAP
s'agit
Pose
sèche
dessous
Vérification
compatible
CC@@
001
directe
propriétaire
employ@@
assur@@
développer
re-@@
passer
demandes
sous-sol
Lu@@
itation
Note
tuyauterie
pistes
siv@@
destiné
vo@@
nom@@
GU@@
illes
contact@@
angles
ture
traité
différ@@
serrage
prélèvement
détaillées
tôles
75@@
donnant
engagement
courbes
Bureau
prenant
former
d’arrêt
37
riv@@
Trans@@
8/@@
possède
même,
dégradation
s’est
(5)
fascicule
gal@@
considération
évolu@@
jours,
sélection
\-@@
réduit
d'utilisation
No@@
fixation,
Q
inférieures
sociaux
clé
ges
mobilisation
Ceci
227
l’im@@
atu@@
d’Offres
dépasse
vertical@@
particulier,
gou@@
dangereux
évit@@
mal@@
Pri@@
B)
reprises
d'assurer
option
pai@@
nécessité
agent
Etude
es),
problème
aménag@@
iques,
(V@@
120@@
IP
PLA@@
A-@@
d'au
barrage
exécu@@
ène,
atteinte
maximal
ellement,
causés
Cu@@
m3/@@
ont,
BA
2.2.@@
Conformément
ments
Port
trac@@
situ@@
questions
enregistr@@
délib@@
huit
variantes
aines
déroul@@
lign@@
renforcement
opti@@
bancaire
suivre
l’av@@
d'être
relations
géologique
importantes
M.
ide
pénalités
comprendra
guide
◄
d´@@
EMENTS
arrière
9-@@
transport@@
agissant
d'environ
échéant
entraîner
droite
tenus
kV@@
Chapitre
alisée
sociale
expressément
commande,
ep@@
décrite
préliminaire
en.
électriques,
cartes
iques.
climatiques
aci@@
soudure
l'épaisseur
entrée
38
tiers,
piqu@@
représentants
d'ar@@
physiques
B.@@
méthodologie
ers@@
omètre
ie@@
ée@@
câbles,
wi@@
10%
autorité
traversée
central
toiture
chlor@@
Sud
our
MAÎTRE
oblig@@
instruments
constituent
minimales
rapport@@
Pi@@
révis@@
USD
amb@@
<@@
19.@@
facilement
vigueur,
raccords
’
DD@@
effectivement
culture
prim@@
Equipements
Ma@@
Réception
mouvements
entrer
doit,
Liste
V,
Ag@@
industriel
n’ont
cellule
strictement
travailleurs
étanche
ager
ré.
limitation
tifs,
ie.
peau
Em@@
E.@@
intérêt
modèles
Caractéristiques
limité
duc@@
Dét@@
périodes
commencer
LOT
connaître
es:
marquage
cent@@
acteur
établie
direct
onnement
appliqué
oli@@
nécessaires.
mouvement
ches,
220
ère@@
procédés
ci-après.
précédent@@
joint@@
erre
l'air
TATION
lam@@
déclar@@
pluie
lixiviation
dz@@
repères
mai
rien
exécutées
désign@@
présentent
installées
relevé
arrêt@@
modifié
appareil
longueurs
vapeur
dél@@
sec@@
valid@@
eur)
destinées
douan@@
treillis
lav@@
Pres@@
2).
ré
neuf
qu’elles
OM@@
yl@@
chiffre
épa@@
démarr@@
é)
EI@@
stade
Président
Fi@@
érer
Pr@@
lier
journ@@
verrouill@@
ates
ble.
maxim@@
chez
caiss@@
ence.
recommandé
rac@@
déclenchement
distances
conduit
capit@@
comprendre
modifi@@
III
sin@@
réclamation
acqu@@
validation
az
placé
maîtrise
indices
programm@@
installée
organe
2.3
parements
cont@@
-R@@
présents
contenir
point@@
CES
politiques
électri@@
ément
troisième
technique,
neutre
●@@
l’accord
ite.
eaux.
voy@@
bitumineux
cteur
Avec
No
auto@@
Et@@
13.@@
amenée
étapes
garantit
remplac@@
garanti@@
munis
fié
montés
l’on
etc.).
élabor@@
euse,
court-circuit
impli@@
Km
pay@@
ections
PER@@
ré,
difficultés
fournie
National
lig@@
nécess@@
présentée
ion
haut@@
Vu
________________@@
barre
rotation
ci-@@
poutre
certificats
pes@@
sédiments
ST
chauffage
long@@
Uni@@
régions
place.
organ@@
fourreaux
argil@@
protocole
IM@@
faux
rapidement
IS.
utilise
assemblage
tradu@@
correspondants
intégré
détaillés
permanent
er)
secteurs
remplir
trouver
passerelle
personnel,
concass@@
traités
FCF@@
rig@@
texte
ch
justifi@@
départ@@
identifiés
proposées
BLE
ANT
..
Prescriptions
atoires
D’OUVRAGE
d’étanchéité
h.
EAU
fications
armature
considérer
celles-ci
etc.@@
N.@@
d’inter@@
rég@@
estimée
dro@@
hydroélectrique
net
responsabilités
gran@@
posée
payés
syn@@
bass@@
avait
plastique
graphiques
puissent
dalles
augment@@
·@@
）@@
atis@@
diagnostic
x,
non@@
octobre
tionnelle
fortement
ad
effort
insuffis@@
PRESTATIONS
créances
assurera
VO@@
concernées
entité
commerci@@
forfaitaire
partielle
couple
2009
oy@@
prestation
crit@@
fs
motif
prévenir
annuelle
baisse
adapt@@
mer@@
cot@@
are
actuellement
ś@@
intermédiaire
premiers
be@@
l’absence
posées
essais.
mettra
vois@@
d’épaisseur
seconde
coupes
encastr@@
choisir
48@@
sacs
confirmer
bour@@
cz@@
service.
sor@@
titres
indice
2000@@
main@@
Gr@@
généraux
bus@@
standards
attestation
’’
kg/m3
espèces
VER@@
ber@@
Spécification
entes.
plat@@
qu’à
indemnité
ciel
communes
fort
premières
sifs
64@@
certain
considér@@
parallèle
lat@@
ici@@
imprim@@
16.@@
assi@@
...@@
ection
visible
constat@@
compa@@
Décret
iste
verticaux
l’extérieur
condens@@
papier
affich@@
clés
test@@
canaux
tour@@
correspond@@
horizont@@
Du
extérieurs
05@@
stationnement
Formulaires
existante
implant@@
confi@@
fait@@
situ
tel@@
chiff@@
diffusion
plant@@
dudit
représentent
ah@@
l'Autorité
ml
alisées
direct@@
déformations
serv@@
aven@@
°C.
ités.
(4)
100%
glob@@
respec@@
circonstances
simul@@
FOR@@
semble
franch@@
appliqu@@
sû@@
SE
assurance
temps,
pétroli@@
bénéfice
impôts
raccordements
canalisation
Leur
habitants
garantie,
entretien
obtenus
MARS
atoire
kW@@
Le@@
soit,
ans@@
issues
contribu@@
Bor@@
CFA
parts
résult@@
roulant
d’éviter
milliards
extérieures
caractéris@@
36@@
défaut,
ins.
spécifiée
TRAVAUX
meu@@
particip@@
dynam@@
satisfaction
chambres
For@@
tron@@
commencement
général,
petites
ó@@
conséquence
ci-
connect@@
d'arrêt
2x@@
caution
descente
Revêtement
production,
compteur
fonc@@
Comp@@
grave
d’ouvrages
permanente
auraient
faisabilité
indic@@
qualité,
tif,
nature,
similaires
class@@
24.@@
;@@
illages
précisées
SI
appliquées
absence
l'extérieur
QUES
urb@@
appu@@
ail
2010
régler
dét@@
élimin@@
Can@@
renouvellement
Es@@
mm2
vill@@
expérience
mesuré
»)
tac@@
vitesses
l'Article
marge
TP
Et
PRES@@
portique
ventil@@
renouvel@@
vérifi@@
identi@@
Or@@
adapté
s.@@
anti
respect@@
ets,
res)
Soumissionnaires
hor@@
contre-@@
interface
venant
anim@@
d'étanchéité
l'un
comptable
réuni@@
érique
réveil
07@@
signal@@
seu@@
eure.
i.
contract@@
ensi@@
directives
ajustement
second
étage
angl@@
dilatation
PS
notifier
PAR
Mais
prior@@
cess@@
TITULAIRE
Ca@@
iers
proposée
fonctionner
visibles
Certificat
isation,
mobile
calendrier
chambre
réf@@
Sous-clause
ativ@@
Cor@@
caractéristique
Ne
Critères
emprun@@
d'autre
pé@@
routi@@
bilan
issus
1000@@
initial
résolution
caniveaux
(U@@
té@@
cale
évaluée
massi@@
disposi@@
avanc@@
antenne
alignement
équipées
diam@@
aille
cur@@
engag@@
aspect
Ban@@
moteurs
développ@@
tion)
CC
écar@@
chaleur
pages
(1
exemple,
(de
1.3
liquide
rendre
C.D:09.00
pression,
fosse
pann@@
(et
maximales
élevée
dera
■
l’ouvrage.
ds,
).@@
Bou@@
ablement
simulation
excéder
re;
MW@@
ts.
m²
nécessaires,
endroit
tation
ouv@@
tiques,
repris
appartient
appropri@@
change
localités
directeur
d’oeuvre
qualités
dévers@@
écran
trice
PV
ailleurs
contrôle.
pouss@@
examen
meilleure
rendement
l'axe
POR@@
prati@@
gaines
A/@@
Projet,
plupart
cop@@
rive
alternateur
MT
1:
alement,
paragraphes
S-@@
caus@@
plans.
c,
l'accord
pouvoirs
simil@@
juge
al)
air@@
excep@@
bac@@
référ@@
électricité
l’année
>@@
rembours@@
c'est
D-@@
PARTIE
sollicitations
Des@@
l’appel
(au
qualifi@@
y,
Form@@
magné@@
rémun@@
tonn@@
CAR@@
(avec
il,
copies
Algéri@@
l’essai
minière
bénéfici@@
défectu@@
inten@@
salariés
villages
42
technologies
Dès
l'essai
RÉ@@
opérationn@@
courbe
publiques
fri@@
banque
exig@@
?@@
plas@@
supérieurs
dégag@@
co-@@
Ouvrages
filtre
trouv@@
rester
l'offre
superfici@@
sy@@
rend@@
requ@@
moitié
porté
considérées
go@@
\_@@
PH@@
d'A@@
approprié
(a)
passant
oires
minimal
eusement
800@@
yer
intervenir
jamais
servant
initiale
devis
quées
dire
possibles
aér@@
160
Am@@
3).
tiss@@
alisés
h,
tourn@@
l'alimentation
pris@@
9)
suivants:
économ@@
2014
puis@@
propreté
faibles
bul@@
trame
f,
exist@@
ą
qu'elles
65@@
(ci-après
compétences
conserver
P)
efficace
IRE
déplacements
61
d'éviter
TEUR
cule
ase
accompagn@@
rocheux
contraire,
9,@@
arti@@
institu@@
1-
accepté
second@@
Nom
il.
définit
possible.
de)
nécessite
active
appropriés
correctement
TRA@@
protec@@
financier
≤
125
ène
..@@
parmi
ateurs.
électrique.
IS,
erie,
bétonn@@
l’Acheteur
géotechnique
ale@@
aison
té,
adaptée
composant
tres,
l'exception
2.5
démont@@
protégées
mot@@
p.
l'Ouvrage.
érés
aire)
filtration
offres,
l’agrément
ois@@
possibilités
ferm@@
refus
délai,
quantitatif
Mon@@
nettoy@@
aise
Analyse
boucle
optiques
trou@@
cali@@
√
accident
Détail
observation
remédier
exécution,
CCAG.
rails
cotes
Localisation
d'énergie
ry@@
CCAP,
déclench@@
l'analyse
Puissance
l’effet
l’O@@
OU
appuis
relevés
concentr@@
département
couver@@
estimé
privé
transversale
eff@@
annul@@
l’électricité
De@@
noter
dall@@
adjac@@
s'assurer
prélèvements
g/@@
propriét@@
danger
diminution
terrassements
contraires
cep@@
imposées
mois,
assurances
d’Off@@
explic@@
motifs
apparaître
fournitures,
adop@@
foudre
corpor@@
mesurer
Val@@
Vue
tirage
régulateur
des.
formulaire
complémentaire
sive
inspections
logistique
séri@@
réputé
siè@@
coordonnées
endu@@
ment,
pertin@@
scellement
ba@@
basé
disjoncteurs
basée
l’organisation
eure,
ière
durable
dépend
résistances
juridique
l´@@
\@@
qu'à
PE
itaires
10-@@
tronçons
isse
huile
dite
composée
bout
choisi
ple@@
Résultats
attach@@
mètres.
34
Lo@@
d’aménagement
résist@@
référer
automatis@@
l’emplacement
m³/@@
Etudes
phas@@
inv@@
bases
trouvent
parfaite
détérior@@
dépend@@
hou@@
gérer
amélioration
ision
traiter
europé@@
capteurs
Car@@
ente.
excav@@
Sont
CNPIPELINE
moyennes
ard@@
classes
affér@@
concerné
ANCE
fabriqués
onde
quelles
ordin@@
conduits
Spéci@@
c.
Matériaux
recherch@@
devient
PU@@
usin@@
erci@@
parfait
NE
SH@@
ler
Compte
évacuation
approuv@@
provo@@
international
l'annexe
Bo@@
nég@@
d’acier
évidence
placement
succes@@
G.@@
retenus
....@@
potentiels
intégr@@
d’affaires
illage
we@@
COMP@@
ajouter
Concessionnaire
l’annexe
d’utiliser
(H@@
ferroviaire
vas@@
d'origine
l’Etat
individu@@
entrées
profil@@
d’ancrage
tes@@
kil@@
souhait@@
Norme
recommandée
3-
dre,
vir@@
pentes
financ@@
érée
satis@@
isi@@
t)
Fin@@
tranchées
bag@@
sanitaire
conditionn@@
PM@@
F,
sk@@
feuille
horizontal
favor@@
d’ouverture
algéri@@
poursuite
ressort
connexions
engager
ESSAIS
planches
tées
Autres
DES@@
consign@@
scell@@
(02)
age;
comparaison
longue
maladies
abor@@
d'acier
petite
déf@@
am
seuls
précon@@
engagements
contient
net@@
rév@@
ès
démarche
dém@@
ma
environnementaux
l’Entreprise
poussi@@
MAR@@
ats,
EUR@@
choc
Liaison
concurrence
montée
identifier
juste
identique
piste
Modèle
justification
carbon@@
séparation
l'entrée
lecture
pieds
mécanisme
Poste
l'entretien
ecteurs
visant
al.,
tak@@
revenus
correspondent
idité
BR@@
its.
brut
sismique
masses
Description
Gé@@
construit
coupl@@
domin@@
gravier
commission
CO
II@@
as,
travaill@@
Guinée
réaction
tage
passé
CHE
scénarios
mélang@@
effective
d’origine
plantation
strati@@
variations
parement
accompagnée
arrêter
Profil
Mi@@
climatis@@
considé@@
(b)
impôt
compéti@@
indemn@@
vann@@
est,
n'ont
aigu@@
communications
mou@@
ges@@
investiss@@
audi@@
AC
stabil@@
EMEN@@
Ø
cen@@
Log@@
endre
d’en
…………………………………………@@
per
(E@@
56
comptabil@@
ONN@@
Techni@@
maçonn@@
RES
structur@@
alarme
mod@@
sulf@@
salarié
calendaires
transmettre
Dou@@
Enfin,
socle
gne
SA
spéciaux
MT@@
inoxydable
2021
tif.
3.4
som@@
l'usine
Etat
auxquels
restant
achet@@
signer
HTA
spécial
El@@
46
44
visée
min
lation
positionnement
attente
assise
circulaire
jour,
passagers
4.1.@@
(c@@
voirie
érant
Période
ions
L’OUVRAGE,
indicateurs
représenter
désignation
nucléaire
équipe
annu@@
transports
pénétration
DTU
cm,
jour@@
circul@@
d'inter@@
inclu@@
ancrage
entraîn@@
amélior@@
DM@@
SON@@
soudures
&@@
issements
équi@@
l’ac@@
teneurs
DA
cales
émission
l’Annexe
l'ouvrage.
résulte
court
téléphon@@
décapage
conséquent,
700
embl@@
rendu
établies
permanence
participer
vibrations
es.@@
PV@@
l’expiration
08
2-
Fiche
2012
fixer
supéri@@
poursuivre
intervenant
DP
affi@@
composantes
portera
nivellement
satisfais@@
message
résidu@@
d'Œuvre
construction.
ites,
effectif
parcours
admis
routier
d’extraction
lien
sépar@@
l'ouvrage,
assuré
vap@@
train
impu@@
original
radio@@
entes,
normes,
terrassement
rich@@
l'Ouvrage,
couvre
préfér@@
livrés
CS@@
servir
approvisionn@@
NFP
encour@@
viol@@
travers@@
constituants
répar@@
IRES
L'ensemble
variables
désignés
kg/m@@
§@@
sus@@
terrass@@
classification
Pas
Consultant
repérage
ième
ade
cités
connex@@
harmon@@
voi
Formulaire
impôts,
marques
prof@@
mille
industrielles
quantit@@
pierres
DC@@
ation;
l’impact
suivent
épaiss@@
UN@@
Contrô@@
visa
MM@@
C'est
allant
rot@@
nu
adaptés
réunions
plu@@
................................................................@@
tiendra
implantation
extrémité
appropriées
rempli@@
ü@@
tée
pér@@
tranche
compte.
INTER@@
galvan@@
TIF
géologiques
fixations
fère
soumis@@
l’autorisation
ő@@
Off@@
latér@@
d)
d’eau,
color@@
Ten@@
biais
FO@@
vision
réseau,
demandés
tures
levée
agrément
agricoles
èn@@
architecture
Volume
affecter
aéro@@
vos
équivalente
l’épaisseur
TH@@
The
milli@@
grilles
fication.
d’Ouvrage.
êt@@
coffrets
es/@@
ouverte
ti
prépar@@
8,@@
achev@@
cass@@
AD@@
française
actif
Chambre
ordres
débit@@
Cré@@
LAN@@
kg@@
précisant
TURE
surface,
débl@@
part@@
gaine
séparément
Développement
chimique
géni@@
DG@@
nécessitant
dériv@@
côtés
blo@@
restitution
SS
complètement
courte
ledit
itinéraire
végétation
ations@@
environnemental
capable
charbon
interrupteur
obtenue
KV
effec@@
prononcée
issage
métrique
super@@
cm@@
exécut@@
M-@@
hospit@@
fissures
énergétique
études,
notifi@@
emploi
Lim@@
cycles
jug@@
éclairage
ensembles
inspection
éli@@
Mesure
UNI@@
trices
mes.
minim@@
ue,
équilibre
stock
jours.
acquit@@
Si@@
2008
mécan@@
È@@
complets
domm@@
fichier
comptage
A.3.1.@@
cure
eill@@
l’huile
ter.
motor@@
forc@@
sions,
Euro@@
région@@
équip@@
fuites
manipul@@
zon@@
électro@@
Gab@@
fonctionnement.
Exigences
intern@@
chargement,
itant
d’avoir
Aux
d’obtenir
conséquence,
importance
oct@@
clô@@
tionnels
COMM@@
hypothèse
commerciale
cub@@
responsables
réelle
acceptable
campagne
ES,
salari@@
enc@@
multipli@@
I.@@
d'avoir
conjointement
≥
euros
Particulières
ruissellement
08@@
d’offres,
ative,
débris
déroulage
techni@@
réguli@@
ométriques
monde
réparations
pein@@
déterminées
i)
çant
´@@
signific@@
manœuvres
gri@@
km@@
perform@@
véri@@
bordure
sédiment@@
Gabon
entrant
réfection
là
attestant
STA@@
pas,
2006
taxe
adress@@
F.
ha
pas@@
destinée
compléter
ENT
novation
accessibles
derni@@
L,
Pass@@
CCAG
dits
faute
recouvr@@
l’activité
47@@
épaisseurs
ois
laisser
diff@@
douanes
coefficients
couronnement
BS
GP@@
hydrauli@@
ol
crue
bruits
cumul@@
utilisateurs
août
intégrante
inclut
G.
appropriée
retenues
déclarations
ancrages
actuel
ELLE
thermiques
tiges
terminaux
itude
GI@@
inox
anch@@
adaptation
AT@@
er;
minimiser
diminu@@
flèche
obtenues
estimatif
corrig@@
export@@
vient
ctions
d'éclairage
06
contractante,
NI@@
liv@@
désignée
ERE
augmenter
renforc@@
aiss@@
LIN@@
gabions
soud@@
procé@@
classement
d’installation
III,
interventions
aéri@@
pati@@
cadres
palier
valable
délivré
l'O@@
réputés
esclave
relev@@
lettres
camion@@
nette
éliminer
d'ac@@
quais
mag@@
potenti@@
faveur
çage
radier
estime
signe
sujétions.
brides
-20@@
proch@@
remplacer
port.
facture
ligne.
matériels,
vibration
Sans
dess@@
temp@@
Ev@@
examin@@
d'étude
adhérence
épi@@
distinc@@
plafond@@
végétale
côte
intégration
notice
esti@@
IC
filtres
ui@@
ther@@
portation
avant@@
ze@@
off@@
poussières
simultan@@
coor@@
identification
patrimoine
constituées
aménagement
blanc
stockage,
ais.
apports
étal@@
français
séjour
d’implantation
arrage
protég@@
vant
associées
droits,
entraîne
66
000)
rivière
Document
extension
3.2.@@
avance
ai.
mentionnée
d’isolement
démoli@@
vitr@@
sommet
établ@@
9/@@
structu@@
(si
corro@@
ole
FF@@
2007
arg@@
PC
grammes

manuels
suivant@@
ART.@@
95@@
solid@@
BSA
réception.
joindre
vertical
combinaison
l'ouverture
soutien
Sous-@@
bres
39
commen@@
détail@@
exclusivement
noy@@
extra@@
incendie,
raccord
bét@@
Secrétaire
Résistance
signée
AM@@
(7)
mis@@
tradi@@
obten@@
l'appareil
x.
discu@@
Mesures
forme,
ues,
sociét@@
plutôt
NOR@@
assemblages
êtes
cy@@
conclu@@
Equipement
permettront
égou@@
jetée
rigide
ant)
bords
professionn@@
espacement
ométrie
tro@@
contractant
trou
compatibles
perfor@@
tent@@
priorité
dirig@@
offre.
garantie.
49
seuils
climat
chape
influ@@
ssi@@
sélec@@
cession
formulaires
adopter
TRI@@
u.
titude
plis
Fr@@
ISS@@
Int@@
quels
adaptées
ec
Page
cisaillement
reli@@
isolateurs
feuill@@
Non
autres,
IT
í@@
fleuve
.Il
Affouillement
construc@@
confirm@@
Porte
demandé@@
concernent
rail
roug@@
41
……………………@@
sièges
abr@@
l’opération
：@@
élévation
écart
adéqu@@
→
récep@@
ciment@@
rue
ci,
Offres
age/@@
85
prés@@
liation
absorb@@
occupation
autonomie
GES
UE
banc
Calcul
audit
extr@@
métal
hydrocarbures
étu@@
Charges
ress@@
autorisée
mener
alimenter
regroup@@
minéralisation
Bénin
habil@@
tile
enveloppe
ordinaires
au,
verticales
secondaires
complexe
derrière
préparer
résistant
boîte
aériennes
ace
Grou@@
PK
………………@@
extérieur.
FOURNISSEUR
ANNEXE
5.1
l'im@@
TRE
raccord@@
exiger
établira
CN@@
réseau.
de-@@
F.@@
récol@@
offici@@
Structure
longitudinale
protégé
liers
grue
urg@@
arrivée
l'année
54
voire
affectés
État
porteur
consoles
on)
chau@@
calculés
2015,
consoli@@
fait,
PLAN
affleur@@
plafonds
pays@@
ordinaire
offres.
l'énergie
b.
COU@@
consentement
G)
DOCUMENTS
prévisions
gisements
58@@
faisceau
informatique
ains
07
18.@@
5.2
3.3.@@
ête
d'entretien
TYPE
exigence
mal
galvanis@@
TC@@
couvrant
d'administration
sph@@
cavation
signaler
endommag@@
ding
rè@@
émis
250@@
levé
appui
suivantes :
l’attribution
châssis
l’adresse
local@@
glissement
mandat@@
tendance
d’occupation
d’état
constatation
dent@@
nombreux
poussière
interfaces
dre
Contractante
ALI@@
électricité,
RS@@
prot@@
compteurs
levés
stockés
lumin@@
uv@@
placées
d’impact
d'obtenir
éloign@@
(03)
ondul@@
judici@@
RU@@
RDC
auxili@@
travaux@@
(2
ind@@
dégâts
notamment,
piè@@
teinte
da
fais@@
mm)
osité
liqu@@
SER@@
naturel@@
d'entrée
impos@@
carreaux
26.@@
prolongation
consigne
maj@@
séries
cultures
M)
chim@@
ajout
qui@@
granulométrie
gare
d’évacuation
Centr@@
se,
collecte
prix.
tandis
(01)
nationales
R.
clari@@
hu@@
précontrainte
d'application
ines,
dam@@
mus@@
couleurs
lie
totalement
MISE
ouvertures
commutation
internationales
d'en@@
environn@@
CCAP.
CHA@@
convenu
Rég@@
ours
froid
Install@@
négoci@@
versant
Touba
Bien
principal@@
tension.
qualifications
introdu@@
constatées
ères@@
S’il
ONS
base,
cell@@
hauteurs
adhé@@
tar@@
sci@@
soudage
gue
pist@@
mauvaise
nouv@@
réception,
l'accès
programmation
transmises
pétrole
épreuve
élevé
recharge
collecteur
graiss@@
VA@@
d'exécution.
32@@
identiques
don@@
ELECTRI@@
correction
l’issue
Cam@@
Bat@@
ferraillage
ront
grill@@
ques)
ron@@
spéciales
l’Acte
dra
faill@@
complément@@
publication
formul@@
formalités
ak
détect@@
mécanismes
sul@@
COR@@
design
accords
complè@@
écoul@@
ing,
huiles
FR@@
èr@@
tari@@
interruption
crues
accep@@
Industri@@
appartenant
litige
(notamment
fabricant.
IN
MEN@@
SN@@
envisag@@
Electricité
extern@@
procédera
ture.
Valeur
exécutée
raisonnablement
tures,
Commande
55@@
Génie
OPGW
étude,
notifié
orientation
quement,
l'implantation
eté
management
topographiques
39@@
néglig@@
2%
forces
d'ét@@
cuv@@
auxiliaire
d’étude
étro@@
CL@@
ra@@
ve@@
déch@@
manipulation
.La
Veuillez
apport@@
Man@@
lui-même
secour@@
citation
entrepreneurs
indemnités
F)
chanti@@
extérieur,
galvanisation
Mettre
polaire
10/@@
consac@@
50%
CCT@@
sus
l’avis
34@@
valorisation
assignée
Phase
h)
(cf.
ą@@
Ro@@
dre.
s :
n'y
bénéfices
Ouvrage
acier,
63
Fourniture,
erreurs
professionnelle
répondant
exécutif
liss@@
sug@@
intégrer
réceptionn@@
qu’après
kV,
20%
62
-K@@
się
enveloppes
inage
places
Normes
âme
eant
×@@
alluvi@@
BH@@
GN@@
pur@@
parfois
comment
d’off@@
proportion
mainten@@
viendra
correspondantes
longitudinal
mét@@
47
68@@
rapid@@
cher@@
mur@@
devraient
réduite
et.
définitifs
sses
(4@@
conclu
ERIE
F-@@
fonctionnement,
Instructions
l’ar@@
d'huile
Coût
prescrites
FER@@
défin@@
terrain,
déliv@@
mois.
emp@@
ciment,
gamme
filière
versement
1.5
fication@@
Cocontractant
faudra
valider
ta
Ob@@
internationale
Si,
remblaiement
conventions
importation
d'évacuation
(la
réglementaire
èv@@
Conven@@
jest
petit
obligatoire
Super@@
géométrie
habitu@@
trait
Condu@@
déroulement
fraction
soci@@
±@@
RIC
restitu@@
ge,
Hauteur
agricol@@
revêt@@
étendue
en-@@
dist@@
l’entreprise.
film
suivi@@
conduire
centi@@
boul@@
liquides
déversement
d'information
contractuel
d’équipements
bres,
V)
redevances
fiabilité
vit@@
indiquera
qués
Contract@@
danger@@
soudu@@
mandataire
TVA
fortes
échang@@
statut
traitées
¨¤
Suivant
meuble
accompagné
chiffres
climatisation
décis@@
extéri@@
PSA
Conception
recyclage
dénommé
évacuer
répon@@
d'appel
déviation
tionnement
déc@@
clav@@
synthèse
occasionn@@
pen@@
raisonnable
mémoire
omm@@
association
d'installation
Tou@@
11-@@
reprendre
front@@
déb@@
accumul@@
éti@@
police
opérateur
enne,
technique.
vant@@
ène.
qu'en
Droit
suffis@@
Côte
installations,
Ouvr@@
étanch@@
externes
Depuis
régulière
DANS
dépassant
omè@@
rattach@@
partenariat
l’importance
U1000
établit
O.
L’A@@
SION
dépassement
carbone
jec@@
l/@@
envers
chap@@
G,
cham@@
prospection
renforcer
EQUIPEMENTS
l'organe
ampl@@
élaboration
że
surcharge
maintenance,
(O@@
frein@@
courante
COBAC
repose
INE
promotion
accessible
rang
CCAG,
dit,
coulage
planification
décor@@
extraction
techniques.
partie,
Prise
extrêmes
particules
us,
plat
duction
NG@@
lage
argile
chaude
mation
DEM@@
Protocole
EURS
équipement,
réparti@@
clos
doubl@@
mes@@
dangers
Déc@@
2013
retourn@@
emball@@
écrans
L’analyse
Ni@@
chet@@
équival@@
BE
ion.
lever
Pays
juridi@@
bes
conv@@
carot@@
drag@@
d’appui
poteau
blement
causes
électrogène
anée
dépass@@
Offre
bail
inée
ING
Procédure
chois@@
Jus@@
TION@@
refoulement
Pièce
09@@
Modi@@
atures
vér@@
tement
couvr@@
délégu@@
ms
certaine
Cherchell
sensibles
condi@@
l'évacuation
eure
semelles
novembre
renseign@@
diffus@@
Schéma
Ensemble
solu@@
modélisation
lour@@
COM@@
jour.
uniforme
livr@@
lot.
anorm@@
ISO@@
escal@@
raccordement,
impossible
numéri@@
vise
l'emprise
chenal
TA
mesu@@
by
sc@@
002
67
communaut@@
domaines
recycl@@
écu@@
comprises
propagation
refus@@
air,
préalables
montrent
civil,
rect@@
Conn@@
Santé
acoustique
b)@@
ench@@
habillage
noyau
Déclaration
coté
vides
ga@@
diversité
compatibilité
Régulation
provoquer
és)
rée.
lab@@
droit,
FOURNITURE
enduits
TAN@@
expli@@
OC@@
soumission.
l'échelle
iture
Pou@@
alo@@
Sal@@
porte-@@
rail@@
production.
entreten@@
Rel@@
course
distingu@@
retenir
ateli@@
longu@@
conçue
10.
érieur
fusion
Fon@@
Ministre
gestionnaire
CCTP.
l'origine
futur
d’incendie
intervalles
recherches
appro@@
d'utiliser
systématiquement
c’est-à-dire
viss@@
demande.
intérieures
liquidation
propriétaires
d’éclairage
morale
Surface
rés,
nivel@@
Accord
dence
fa@@
Electri@@
Débit
particuliers
d’analyse
agglom@@
►Le
Evolution
l'opération
ationn@@
OUR@@
Se
l'on
tiques.
80%
précédemment
l’arrière
3.4.@@
concentré
itinér@@
mentionn@@
solli@@
flot@@
Chantier
emment
sensibilisation
Cou@@
bride
sives
alarmes
charger
Do@@
pieu
l’usage
si,
l’armoire
illustr@@
vitrage
PN@@
circu@@
SITE
dage
isations
go
architectur@@
4).
commande.
complét@@
l’inter@@
PGES
ens,
popul@@
ck@@
réellement
soign@@
l’ouvrage,
paliers
cau@@
d’Œuvre.
nul@@
semaines
ologiques
chal@@
vont
pluies
éb@@
trains
public,
comportent
lumière
tis
rang@@
produite
Production
déform@@
interprét@@
appel@@
contamin@@
rec@@
bordures
Son
pom@@
(les
AV@@
liné@@
ta@@
desdits
difficile
…).
avantage
pétroliers
ciments
contrôleur
pens@@
Sup@@
minier
composante
abil@@
alarm@@
pluviales
Titre
destruction
(L@@
visit@@
l'unité
3D
Modification
fossé
exempl@@
det@@
autobus
sond@@
engend@@
PP@@
prolong@@
exemp@@
ci-dessou@@
tex@@
ern@@
alimenté
préal@@
prêt
accumulation
comprimé
descriptif
prob@@
port,
contenues
350@@
lisse
s,@@
Sénégal
ceci
D/@@
Monsieur
prescrit@@
agir
pilot@@
DÉ@@
fiscale
Classe
serveur
kVA
omb@@
ś
prépa@@
Responsable
69@@
traitants
naturelles
Entre
comport@@
usu@@
iquement
actionnaires
afférents
conduct@@
entretien,
publique,
connaiss@@
…………@@
houles
puiss@@
main-@@
disponi@@
subi
maxi
manuelle
gén@@
N/@@
sélectionn@@
uniform@@
LLE
fili@@
Je
itinéraires
boîtier
AVEC
vues
contractuels
distributeur
________@@
robinet
d'offres
d'implantation
descentes
crête
compris@@
cause,
ERS
situe
cations
barrières
lon@@
tien
pier@@
satisfait
sensiblement
Nations
constat
kg/@@
disposés
21-@@
d’assurance
factures
pag@@
Caisse
frastructure
gues
Pression
Sa
ataire
l'emploi
ances.
établi@@
ci-après,
tub@@
décomposition
dot@@
l’obligation
champs
affichage
grillage
r¨¦@@
route,
prouv@@
rest@@
2002
attestations
ards
dérogation
aine,
appelé
EST
ć
traduction
Réf@@
ée)
doi@@
chaussée,
d'évaluation
employé
vidéo
IV,
mul@@
graisse
mobiles
industriels
(dans
éni@@
monté
horizontaux
découlant
obstacle
habilitation
TGBT
Total
engin
Op@@
Soci@@
abords
Installations,
froi@@
portu@@
l'achèvement
crire
confection
donnera
obstacles
Dimensions
espac@@
humid@@
stati@@
d’offre
ain,
Indi@@
450
artifici@@
chev@@
3.5
adhér@@
teur@@
condamn@@
kWh
l’implantation
propageant
Activités
sav@@
correct@@
e(s)
tropi@@
fermé@@
l’intermédiaire
C/@@
ple
rur@@
ros@@
conces@@
public.
moul@@
ativement
ES.
Autorisation
atif.
IL
Administr@@
enregistrement
soin
SOU@@
2019
Rec@@
Autor@@
sols,
varie
fini
constitutifs
maladie
augmenté
chutes
équipements.
ouvriers
l’origine
HY@@
rés.
TD@@
emplois
Energie
pin@@
te)
chement
inférieurs
latérale
seules
bure@@
bois,
commentaires
den@@
suppression
composés
faune
gi@@
10)
bénéficier
m;
souterraines
hau@@
52
décou@@
cohér@@
lourds
travée
ventilateur
GEN@@
us.
console
isent
Point
10,@@
statiques
toit
animaux
statu@@
valide
caoutchouc
élém@@
talu@@
atiques
accordée
recomman@@
MAN@@
arché@@
recettes
défenses
Sur@@
automate
cho@@
structurel@@
spec@@
naturels
Syn@@
Algérie
d’établir
Rou@@
l’obtention
implanté
besoin,
chu@@
J
inclin@@
remar@@
dési@@
aw@@
modu@@
6).
boîtes
PARTIES
he@@
univers@@
aî@@
au.
navi@@
passerelles
CF
minimum.
réclam@@
sil@@
ode
l'Assemblée
dis
Congo
lèv@@
-B@@
charpente
immerg@@
Exper@@
l’offre.
calculées
ploration
vrac
d’emprunt
kW
d’offres.
pose,
clu@@
isolant
humidité
!@@
litres
l'Entreprise
type,
DC
empl@@
nationaux
délivrance
peu@@
O,
certifi@@
43
données,
B/@@
l,
roue
usag@@
concession
émet@@
d'état
GT@@
préavis
équipes
gravité
appuy@@
partiellement
dispos@@
qualité.
souple
SOCI@@
couvert
×
usine,
euses,
quent
Projet.
justifications
dépô@@
cailloux
distance,
admis@@
troduction
placer
Plus
1,50
modè@@
st
corni@@
vention
Délégué
(6)
graphie
atta@@
l'Ingénieur.
MA
indi@@
achat
procédu@@
calcul,
annuels
largement
Associ@@
euse.
reten@@
Lou@@
Ass@@
ative.
consignes
a)@@
DIS@@
ous@@
gro@@
camion
compétence
Dém@@
bâche
l’action
fractu@@
Alimentation
abilité,
(K@@
tru@@
Mont@@
bio@@
Organisation
flexion
É
village
autorisés
Jo@@
utilisera
apa@@
dev@@
chaussées
Fascicule
pression.
matériaux.
érées
RATP
rectifi@@
coulé
assujet@@
solaire
professionnelles
indépend@@
moy@@
bli@@
vert@@
H.@@
pays.
blanch@@
démontrer
DRA@@
Rem@@
horaire
aspir@@
résili@@
FORMA@@
d'urgence
volum@@
l'emplacement
arité
provisi@@
massifs
Fait
pis@@
Méthode
compte,
piles
P-@@
culturel@@
tige
ogramme
document,
d'en
approxim@@
l’élaboration
ę
d'eau,
position,
International
trouvant
cabinet
définitivement
guid@@
différend
²
tol@@
gence
LONGSTAR
fiscal@@
unit@@
servi
entière
NFC
soumission,
achèvement
l’avancement
IEC
égales
axi@@
ets.
è
chargés
ferr@@
Mode
Burkina
présentera
foresti@@
commutateur
fourn@@
céder
micr@@
atrice
ateliers
èle
conclusion
te-@@
bro@@
coff@@
exemplaire
pondér@@
Prévoir
tifs.
aujourd’hui
principa@@
max
Unité
divers@@
relié
personnes,
omp@@
e-
apparaît
acceptée
2011
lampes
Force
maitre
EP
sit@@
sures
graveleux
pays,
l’espace
autonome
occupants
57
AF@@
re:
d'Ouvrage.
rage
alliage
6.1
tribunal
échange
écrit,
systè@@
titudes
forfait@@
fai@@
délivrée
itures
contrôlé
connu
faire,
recevant
entend
l’économie
Laboratoire
ne,
INSTALLATIONS
ces.
98@@
X,
sonore
L’étude
cellul@@
MATERIELS

conversion
considère
spécifiquement
enlever
décl@@
Ingénieur
dex
01.@@
Ju@@
traitements
munie
qualit@@
um,
routière
centrale.
d’ouvrage.
descrip@@
ises
fonctionnelle
douani@@
entrepren@@
monnaies
oll@@
Durée
ingu@@
véhicul@@
tionnelles
bloc@@
pinces
l'autorité
l’Offre
prévu@@
re).
étudier
Marché@@
complété
bâtiment,
99@@
assister
der,
inte
l'aménagement
DEC@@
invers@@
rabais
soixante
exigé
LC@@
[@@
dans@@
exercice
aines,
marin
analyser
Ville
meilleurs
l’avance
bathy@@
intempéries
aéroport
spir@@
diction
modifiée
enlev@@
Eng@@
normales
citer
mesur@@
RO2V
poli@@
admission
olog@@
cè@@
régionale
teront
d’après
64
TÉ
d’information
hausse
d’urgence
détermine
orang@@
fondament@@
branch@@
approuvée
quette
alisation,
ENTRE
CONTRAT
a-
électron@@
préfabriqués
Celui-ci
confirmation
concassage
charges.
stipulé
favoriser
buses
majorité
d'œuvre,
onnage
deur
hydrat@@
frag@@
plomb@@
chi@@
d’équipement
Franç@@
revue
l’éclairage
OUVRAGES
l'activité
mettant
oire,
projection
compétente
agréés
eures
~@@
sûreté
Maintenance
turbin@@
ine.
rentabilité
DPAO,
motiv@@
représenté
Paris
rée,
l'égard
délégué
Vari@@
oeuv@@
séquence
munies
SSI@@
lamin@@
mini
porteurs
BETON
scellement,
refroidiss@@
chocs
Soit
outillages
autom@@
connecté
sondes
L’Autorité
d’ét@@
d'ouvrages
de:
évalu@@
nuisances
CONSTRUCTION
V/@@
exigées
ht
vices
intégrés
tention
touch@@
S’@@
ai,
non-conformité
Chem@@
préfabriqu@@
tise
sep@@
tion;
Zones
exploiter
accepte
lt@@
l’organisme
commerciales
ci-dessous,
jugé
00m
amin@@
perturb@@
disposent
appliquant
Les@@
consécu@@
viennent
ouvrir
d’études
l’essentiel
mani@@
circulation,
malax@@
conf@@
ORI@@
prétendre
flott@@
m3/h
■@@
phon@@
véhicule,
eaux@@
différences
collectivités
outillage
transvers@@
CHAR@@
creux
actualisation
zinc
dérivation
marché@@
résilier
Groupement
identifié
d’atténuation
efficac@@
aisons
onne
Autorité
futurs
kö@@
Trois
4-
Lettre
hém@@
BE@@
conditionnement
appareillage
rampe
société,
UN
tapis
produits,
d'é@@
utilisateur
l'huile
ii)
précédent
extrait
véhicule.
susp@@
tive,
%).
perc@@
essai,
CONTRA@@
Ti@@
TOU@@
anneau
lac@@
Aménagement
semaine
°C,
réacteurs
ek@@
volcan@@
européenne
suivie
ment.
assimil@@
rémunère,
Entre@@
ox@@
d’achèvement
sour@@
) ;
armé,
décide
nouvel
capitaux
détru@@
Couche
GL@@
Ø@@
74
publique.
femmes
bonnes
perturbation
Outre
embar@@
cinquante
30%
modél@@
glissières
Ligne
Température
demandée
UM
ray@@
suiv@@
nord-@@
remettra
ALE
manutention,
ouvrables
@@@
observer
façades
M.@@
ign@@
réfrigération
l’échelle
objec@@
cons@@
confidenti@@
pré
géotextile
1:@@
égal@@
gou
inst@@
intérieurs
Particuli@@
affaire
noir
logiciels
TANTS
XI@@
fois@@
son@@
NF
MU@@
tester
but@@
contractante.
nombreuses
rav@@
(05)
cas.
53
trésorerie
REV@@
directs
Ã©@@
garn@@
arrach@@
ut@@
exer@@
transpar@@
adapter
trim@@
centri@@
ko@@
0+@@
Seu@@
ili@@
Concernant
isseur
GARANTIE
d'identification
président
clapet
profondeurs
butée
requi@@
âge
négatifs
pru@@
Systèmes
supplément@@
ajoutée
Ainsi
anche
d'œuvre.
bordereaux
contrôlée
Commerce
carburant
remont@@
perç@@
ue.
approvisionnement
l'écoulement
affectées
tions@@
hôpit@@
Générales
vent,
dites
armatu@@
traite
converti@@
amor@@
l’heure
frau@@
78@@
communic@@
usages
atique,
statistiques
Ter@@
cycl@@
Matéri@@
l’évolution
signés
machin@@
exprim@@
isolés
simpli@@
d’éléments
GRA@@
vingt-@@
mère
pali@@
indicateur
PC@@
facile
d'isolement
livré
traitée
commercial
(200@@
Traitement
possi@@
oit
départs
plani@@
comportera
ELS
schedule
jointe
METRE
l'absence
SM@@
flo@@
commence
inscription
ature
fin,
vesti@@
aléas,
inventaire
►L'unité◄
séqu@@
autre,
ca
accélération
modification,
sanctions
l’arrêt
onduleur
1500
l'avis
180
2),
pince
spéciale
dollars
mensuel
Trav@@
moyennant
Argile
tiles
bétonnage.
es,@@
l’alinéa
document.
titu@@
Appli@@
dépos@@
ressortir
déclare
pent@@
répond
accusé
calculer
Main@@
respir@@
27.@@
classi@@
amen
identifiées
PT@@
électr@@
µ@@
brute
redond@@
défavor@@
verbal
02@@
pénalité
l’évacuation
prévisionn@@
signataire
d'action
long,
acide
SD@@
publics,
innov@@
barrière
aou@@
TRAI@@
(AP@@
issement.
pac@@
68
contradictoirement
allongement
brev@@
périodi@@
onnées
AIRE
peine
appréci@@
qualifiés
^@@
ire,
(+@@
1%
enfants
possession
trage
terrain.
ETA@@
échelles
fum@@
ves
spécialis@@
aur@@
briques
géotechni@@
non-respect
WA@@
59@@
terrasse
%),
actives
chage
l’Investisseur
physi@@
tionnaire
administratif
approuvées
consistance
urbain
mass@@
thermo@@
pleinement
ction,
caill@@
disposera
gér@@
1+@@
stipulées
oir@@
in-@@
terne
assemblée
combin@@
souhaite
plâtre
Moy@@
...).
immobil@@
qu'après
déten@@
ences,
+/-
plate
réels
ey@@
tuyau@@
cm)
dévi@@
correc@@
tionner
raccordés
service@@
Se@@
location
kV.
l'obtention
autorisées
acceptabl@@
d’am@@
contamination
Nonobstant
ion,
iner@@
Capacité
with
d’exécution,
....
reaux
Information
esthé@@
investigations
cabine
Ver@@
modi@@
quartz
do
clin@@
certification
rend
premi@@
ation:
excl@@
traverse
Contractant.
UL@@
analy@@
amend@@
guidage
ez-vous
qualifié
tir
gram@@
intermédi@@
SEM@@
hal@@
four@@
régul@@
ement;
tolér@@
électroniques
réglé
inféri@@
Compl@@
aprè@@
numérot@@
ouill@@
omission
aide
èmes
LL@@
vice
rencontre
examiner
Titul@@
dépose
figurer
rouille
individuel
»@@
loin
procès-verbaux
N+@@
détérioration
profond@@
parce
bre@@
paras@@
communautés
l’E@@
program@@
suit@@
métri@@
RK_BH
confort
proposera
intensité
Sous-traitant
μ@@
demandées
di
numér@@
entrain@@
phénomènes
d'agrément
relève
subir
pulsion
têtes
etage
initialement
réglementations
sorti@@
❖
L'entreprise
contrain@@
ton
proprement
cle,
préf@@
problématique
airement
exploitation,
Cal@@
cheminement
m/s
extrém@@
Ph@@
agres@@
sanit@@
-00@@
offer@@
d'exécution,
anticip@@
etc.),
SUR@@
minimum,
rique
cloisons
fusibles
Formation
surven@@
g.
opérationnelle
RT@@
agrégats
échantillonnage
coulis
l'Annexe
heures.
CONTRACTANT
4.5
recherche,
72
fem@@
dessou@@
aspiration
pulvéris@@
logements
dress@@
mutu@@
Char@@
50)
BRE
compresseur
connaissances
courrier
HSE
pe,
eraient
système.
image
hé@@
presque
atif,
Personnel
sensibilité
PK@@
ultérieurement
arbi@@
évalué
Bén@@
heur@@
plo@@
poudre
sui@@
requis.
alisation.
marqu@@
radio
frottement
oire.
phénomène
utilisation,
famille
art@@
accessibilité
passi@@
l’alternateur
passer@@
ège
rais@@
01/@@
align@@
ouvertes
admissibles
teri@@
illi@@
SEC@@
schist@@
assemblés
années,
mg/@@
(iii)
sili@@
accroch@@
peintures
travail@@
za
veillera
codage
Gar@@
séch@@
satisfaisant
d’ordre
ö@@
c'est-à-dire
49@@
prorog@@
journée
l'autorisation
51
titulaires
acquis
6.3
Charge
lesdits
élév@@
aillage
S/@@
dement
cours,
théori@@
fouill@@
tran@@
devra,
I’@@
Ordre
Bâtiment
ami@@
défaut@@
entrepris@@
placée
Vous
abattage
rets
d’alarme
éprouv@@
anomalies
alcal@@
découver@@
décarbon@@
salaire
ov@@
sensibil@@
optimiser
Taux
permé@@
0-@@
Plac@@
dispens@@
olu@@
jus@@
favorable
complément
démo@@
deaux
évo@@
ity
usines
wy@@
commerce,
Matériel
l'impact
privilégi@@
d’or@@
VEN@@
couplage
convo@@
ENTREPRISE
pôts
brû@@
l'assemblée
séparé@@
tomb@@
indirectement
saisie
blindage
incidents
atives,
mé
tension@@
pénétr@@
10,
…..@@
logis@@
dégagement
santé,
validé
d'intérêt
PARTI@@
maîtr@@
Manuel
terie
Commiss@@
esses
touche
fluide
84
Module
est-@@
Demande
registres
protection.
adresse
CTION
convenance
procède
ż
stocks
quin@@
batardeaux
maintenance.
(5@@
Carte
intégrée
éché@@
emballage
CG@@
ki@@
judiciaire
57@@
PA
renfor@@
temporaires
jet
institution
minima
bur@@
panne
mesurées
gaz,
notion
économique,
impose
bâtiment.
gâch@@
sure

combustibles
tinction
l'évaluation
Not@@
V.@@
To@@
ba
calcaire
auri@@
ecter
démonstration
river@@
différente
douche
bitumin@@
déblai
freinage
obstru@@
terrestre
opie
configur@@
envir@@
veille
constitutives
l’augmentation
offrir
l'enlèvement
part.
découverte
traces
Parti@@
d¨¦@@
II.@@
précontrain@@
évacuateur
Quand
e"
probablement
rond@@
libres
transversal
archiv@@
listes
fixant
me)
mètres,
teau
Vit@@
les.
ément@@
fluides
restera
oxyde
micro-@@
www.@@
06@@
déterminés
manuellement
Produ@@
SERVICE
domicile
TIVE
isolé
s’y
suppose
planch@@
ref@@
failles
élevage
dossi@@
facil@@
rédaction
requis@@
épaisseur,
ènes
instrumentation
horizontales
sert
TÉ@@
thè@@
outil
solde
prési@@
différentiel
_
Accor@@
tamis
s’ils
crois@@
résulter
Res@@
rappelé
adressée
ique@@
route.
TIQUE
cherch@@
sen@@
mol@@
typi@@
s’entend
enlèvement
œ@@
ang
ération,
rati@@
culées
gué
coup
Organ@@
vag@@
alli@@
F/@@
erie.
considérant
chem@@
dévelop@@
tification
Mr
capteur
gain
manchons
logici@@
ir.
reliant
5.1.@@
30.@@
usagers
viendr@@
rain@@
pourvu
blocage
let@@
€@@
appare@@
isson
(v@@
cône
denti@@
échanges
dette
Temps
RAGE
isation.
enrobés
Matériels
qu’au
opération,
enne.
Soumissionnaire,
indépendamment
concernée
organiser
frais.
carott@@
sè@@
infr@@
ING@@
rup@@
HI@@
Région@@
couliss@@
95%
référence.
régional
Principa@@
exploitant
progres@@
report
olo@@
repos
4.3
régie
piét@@
d'impact
chaîn@@
riques
pot@@
KA@@
tie
logique
M,
mesure,
tra
veill@@
respons@@
atmosph@@
remblay@@
lac
visites
l’existence
technologiques
valor@@
compose
ENCE
écarts
concept
appliqués
SC@@
redress@@
température,
noms
mixte
solides
Pour@@
respectiv@@
rendus
patient
vou@@
l’environnement,
ge.
ac
l’appareil
ENTR@@
Voi@@
incidence
rement
BL@@
transmis@@
Informations
km/@@
Sites
ligne,
recommand@@
révél@@
tements
élevées
2.4
additif
je@@
économie
pare-@@
tan@@
esclav@@
altération
satisfaisante
Affi@@
ting
ation-@@
formant
cohérence
ŕ
suit:
fonctionnels
hypothè@@
France,
enter@@
tres.
atif@@
bad@@
pédition
vidang@@
atoi@@
Gouvernement
évi@@
étanchéité,
enrobage
assemblées
So@@
ae
hiérarch@@
l'information
stabilisation
dur
s'appliquent
sous-
expériment@@
A.3.1.7.@@
lixivi@@
précé@@
accueil
Rémunère
débor@@
5).
génération
compac@@
préfabriquées
15-@@
adopté
réuss@@
ex
ous
230
15/@@
teur,
frig@@
villes
reven@@
ings
figurent
collect@@
spécialement
I.
autre.
suspen@@
Recherche
Ô@@
SCADA
étudiants
0,2
Exploitation
Application
électrogènes
¨ºtre
istes
formulation
écartement
Administratives
trafic@@
agitation
n’en
aires)
charges,
fonctionnel
onnes
91
riche
d’Œuvre,
degrés
induits
sont,
séchage
bâtiments,
nuit
O.@@
administrative
enfin
Guide
plan,
précisés
professionnels
auto-@@
humide
escaliers
recu@@
synthétique
topographie
15%
1200
fonctionnelles
qu’on
syndi@@
pav@@
réservations
constatée
frontière
marchandis@@
MONTANT
lit@@
Bi@@
aujour@@
directions
essi@@
onneur
partenaires
banc@@
quel@@
l’hypothèse
2010@@
PEHD
assement
ROU@@
PSA@@
tionne
atifs,
Ma
IA@@
endommager
SOUS
dents
3.5.@@
huil@@
flèches
____________@@
ale)
dépendance
Tra@@
09
mm²@@
confidentialité
Exécu@@
donnent
simulations
augmente
¨¨@@
TC
efficacité
arron@@
excé@@
frac@@
concep@@
és;
dynamiques
onération
citées
WI@@
étranger
diplô@@
excède
Environnement
(10@@
Etats
suite,
qu’aux
lorsqu’il
3%
d’effectuer
l’offre,
budget
définissant
autr@@
Source
informé
séance
ger
eries
alu@@
autrement
):@@
réglés
homologu@@
Cr@@
12-@@
4.4
pô@@
chariot
ellement.
ferme
transit
anneaux
renvoy@@
l'action
d’identification
décider
Equip@@
Syst@@
L’installation
maintenu
digues
revenu
inond@@
couloir
(s@@
PROTECTION
Sign@@
ate@@
piquets
assis@@
calend@@
surcharges
remplis
ètre
construits
résidus
majeur
jon@@
manquement
parties,
analog@@
minimum@@
chrom@@
56@@
(Antea_RWA)
(sans
GC@@
Numéro
GPS
homme
5m
simultanément
1,00
acheminement
contenus
Ét@@
quartz@@
directrices
non,
extérieur@@
livre
accessi@@
(non
issue
exigé@@
conférence
Unies
(28)
mê@@
métaux
foss@@
plateau
interprétation
Distribution
Deziwa
fines
fabrication.
Disjoncteur
débar@@
magas@@
1),
vend@@
piquetage
quit@@
graves
recouver@@
prescrip@@
brun@@
collaboration
Différ@@
expédi@@
Contractu@@
ement).
précisions
exper@@
exprimés
tabli@@
adéquat
législ@@
aises
230@@
terr@@
ites.
paysage
bouch@@
l’U@@
ENERGY
ps
Br@@
résine
ANN@@
vents
dégr@@
intermédiaires
]
d’E@@
connecteurs
sous-jac@@
e ;
ève
fichiers
dégradations
défaillances
réc@@
GW@@
longitudin@@
l'Afrique
triphas@@
fé@@
que;
générateur
Pièces
3:
240
ator@@
d'O@@
Cas
stipulée
Travaux,
prélev@@
l’effort
avertiss@@
é-@@
classés
câbles.
pê@@
lux
chen@@
argileux
71
arrêtés
restre@@
balayage
souff@@
sie
humains
arros@@
climatique
ponctu@@
positionn@@
Fer@@
ot
Du@@
concours
nomenclature
pronon@@
vingt-huit
calculs,
allum@@
Garanti@@
déplacer
exposées
sauv@@
africa@@
50/@@
l'issue
doté
225-@@
légal
moment,
Délai
l'h@@
ité)
s'entend
connectés
Tests
apparition
libération
stratégies
constante
Direc@@
substances
ensemble,
tax@@
effor@@
secondes
telefon@@
correspondre
défaill@@
page,
huile,
affecté
chapitres
dilat@@
entil@@
émerg@@
stipul@@
résistivité
effectue
accompagnement
soutenir
ajánlat@@
d’excitation
CV
digu@@
SY@@
servi@@
Sociét@@
volumique
atteint@@
d'appui
etc
00)
Signalisation
viendront
euv@@
dég@@
d'aluminium
avez
PS@@
l.
l’emploi
arriv@@
attein@@
essentiel
intéressant
FICATION
ménag@@
Base
proviennent
LED
mix@@
phasage
Lon@@
--@@
reconnu
Coll@@
bétonnage,
profilé
comment@@
associée
effectuera
allong@@
gouvernement
cylind@@
représentés
l’examen
installations.
plantations
couverts
prêts
diagnosti@@
constater
fluctu@@
confir@@
Salle
clim@@
ides
l'économie
cercle
érosion
intru@@
Digue
”@@
CCTP,
onom@@
étanché@@
rayons
d’attribution
CAN@@
schém@@
qu'au
Station
l’Appel
4x@@
technolog@@
géolog@@
Seuls
documents,
fique
carapace
justifiant
Parties.
meilleures
l'intermédiaire
payable
iso@@
offres@@
habilité
anc
ei@@
logement
dés,
0,
-T@@
métalli@@
exercer
édition
rie
Bamak@@
»).
co
Comment
communiquer
l'éclairage
connec@@
croiss@@
souffl@@
critique
ERI@@
ost@@
ELEC@@
(selon
entreposage
procès-verb@@
forfaitaires
quatorze
âtre,
d'emploi
path@@
Isol@@
g)
rempl@@
repli
l’incendie
sect@@
surfac@@
abra@@
s’ag@@
abond@@
Plusieurs
dé,
estim@@
fas@@
2ème
s ;
d’intérêt
évalués
pôles
BLES
fonci@@
(hors
affectation
Fournitures
ELLES
synthé@@
transférer
CCA@@
avant,
créé
enquêtes
d'isolateurs
aine.
vali@@
écoulement
fiée
groupe,
numéros
l’investissement
correcte
latéral
N,
oxy@@
Projet@@
travailler
effluents
bras
habitation
GUI@@
FD@@
prêt@@
séparés
Loc@@
mè@@
L’OUVRAGE.
hommes
mon
caractérisée
férence
Europé@@
CONSTRUCT@@
existants,
applique
parking
Entrepreneur
d'après
cules
boues
lé@@
implantés
réflexion
ja
air.
L/@@
latéritique
méthod@@
contradiction
portés
compresseurs
critiques
érations
partiel
Ty@@
fermé
ip@@
proxim@@
Dispositions
températu@@
reporter
GEMENT
administrateur
fabriqu@@
répandage
OPM
frais@@
LIS@@
essay@@
Impact
d'effectuer
d’approvisionnement
Hab@@
d’é@@
bles@@
dégrad@@
l'Ingénieur,
coffrage,
posant
emploi@@
trace
DPAO
OUV@@
s’ét@@
Certains
résultent
cru@@
31.@@
reliés
Préparation
ducation
bronze
era,
implique
factu@@
individuellement
quoi
résumé
euro@@
justific@@
ORD@@
cord@@
exacte
âtre
communs
7/@@
extraction,
système,
mondi@@
SF@@
l'expiration
immobili@@
sible
provisions
cir@@
apparente
Bét@@
soudés
légales
sac@@
arithmé@@
54@@
civile
REM@@
éligi@@
attachements
ails
alimentés
indépendant
durabilité
t/@@
turbines
vall@@
€.
ception
ats.
Nig@@
chacun@@
vitrages
régulier
l’exploitant
VI,
notifiera
2004
urban@@
Année
ennes,
O)
verti@@
francs
04@@
retirer
ouvrant
zéro
dressé
Présentation
conduc@@
appréciation
lanc@@
enregistré
manch@@
utilisés.
0,50
s'est
entreprise,
agement
étiqu@@
latr@@
empêch@@
vieillissement
américa@@
équipement@@
autor@@
Constru@@
résis@@
conclusions
Démocratique
entreprises,
constaté
tiques@@
L)
abilisation
gère
relance
jusqu'@@
out
lait@@
territori@@
0,00
SECTION
emprises
parti
respecte
BP
dangereuses
réalise
Distance
rom@@
kN/m@@
extraits
acquisition
connexes
tivement
èse
HU@@
hab@@
istr@@
agricole
procè@@
cera
précisée
métriques
21.@@
risques,
dédi@@
IV
tox@@
ains,
laire
recev@@
amortissement
jak@@
ku@@
atiques,
mensuels
opératoire
ote
achemin@@
Cap@@
XX@@
client@@
EUR.
annuelles
mètre.
CPT
reconn@@
ceinture
rétention
mousse
pont@@
Hz@@
Concili@@
investi@@
SPECI@@
treuil
classées
claire
minu@@
supprim@@
répartis
Ser@@
lith@@
PIB
tonne
dédu@@
sembl@@
démontr@@
iné@@
salaires
fret
~
Appu@@
çonn@@
répondent
dimen@@
fini@@
choisis
robinets
fonctionne
Fabricant
March@@
plomb
atténu@@
(article
Courant
Prot@@
age).
ées)
feuilles
Sud-@@
spor@@
coupe-feu
dens@@
mortiers
oxydes
luminaire
permet@@
privés
extrê@@
69
intérieur,
(sauf
contractante @@
born@@
................................@@
isolées
artisan@@
précis
exten@@
Défini@@
puissance,
équili@@
é;
160@@
hygiène
érences
dessin
recru@@
Articles
e,@@
b.@@
fiées
DomRaider
annonc@@
vois
_LIN_@@
PUBLI@@
topographi@@
amment
88@@
monnai@@
roues
ia
Cu
ocène
équivalent.
bois@@
2005
nécessairement
Aff@@
dix@@
d’informations
conception.
douze
Mat@@
routiers
attribution
l’identification
demi-@@
fabric@@
Bancaire
CA
l’acceptation
l’art
librement
Durant
08.@@
fères
RELA@@
séquences
estimés
travées
quement.
file
installe
(cf.@@
ancr@@
d’av@@
BLI@@
limon@@
visualisation
essai.
sionn@@
justificatives
................@@
Terr@@
assainissement
Appel
622@@
attribuer
d.@@
thermi@@
approfon@@
celui-ci.
contractuelle
télécommunication
branchement
désigner
ratio
substitution
envoy@@
applications
élastique
dégra@@
l’Administration
prescrits
manifest@@
continues
sous-traitance
montées
PRIX
incendie.
dure
presse
enroulements
entrepôt
sens@@
précisera
réclamations
ement:
encourus
bureaux,
subs@@
@@
usure
aît
épandage
débroch@@
HP@@
médical
perturbations
avenant
générer
Terminal
circulations
4.2.@@
deven@@
stratégique
proposi@@
Cong@@
pomp@@
ordinateur
78
évitant
s'ét@@
métr@@
hydrogène
reliées
être@@
carrel@@
mangui@@
requis,
baie
Poids
eur-@@
intes
remontée
Support
tion/@@
galeries
ossature
sollicitation
diamètres
orie
énergies
Coffrage
serr@@
propriation
règlement@@
montrant
impermé@@
licences
duquel
surveill@@
délivrer
2:
indiquent
io@@
Vis@@
up@@
adu@@
précisément
laine
loi.
(«
positive
perspective
L’objectif
développé
R+@@
l'inter@@
hour@@
constatés
pote@@
gabarit
aj@@
litiges
intégralement
(cas
terrain@@
(ml)
ragré@@
¨¦chec
all
souterraine
appareillages
piétons
max@@
propr@@
onnés
Mou@@
ade,
TRAV@@
59
d'eau.
d’isolation
5.3
inscrit
portiques
communication,
diverg@@
rs
menuiseries
ib@@
raccor@@
join@@
aptitude
fabriqué
entier
d'ordre
médicam@@
transport.
refuser
préfabriqué
détecteur
m).
nomination
d'assurance
trav@@
pastor@@
lic@@
bout@@
l’opérateur
avec@@
dérog@@
TP@@
détach@@
prét@@
néglige@@
colis
moellons
transversales
messages
égard
R&D
intervalle
provision
protégée
probable
ors
substitu@@
7.1
coffr@@
béton@@
no
chaudi@@
indicatif
aly@@
milieux
Mad@@
tô@@
impérativement
courb@@
TANT
Program@@
Google
apprécier
diminuer
branche
MV@@
utiliser,
stable
Cul@@
rencontrés
Ka@@
voisinage
énumérées
Fenêtre
ade.
convenablement
alu
apportées
perpendiculaire
KVA
Réaliser
Estimation
pilotage
18-@@
informe
rotor
débu@@
Détermination
marqués
publié
US
stipulation
wag@@
TM@@
12/@@
autonom@@
réglable
tél@@
Elec@@
ases
provisoire.
FON@@
130
4464-RAC-@@
(20@@
précipitations
suffisantes
entrav@@
adoptée
peinture,
d’investissement
28.@@
Epaisseur
0,1
fosses
continuer
wa@@
dB
qualification,
taill@@
CEM@@
pério@@
significative
soli@@
conséquent
CO2
compétent
définitive.
des)
Entrée
CV@@
gé
chauss@@
d'extraction
d'aménagement
aller
nomm@@
période,
III@@
balises
chinois@@
.000
avant-@@
blanche
clois@@
exploitation.
parvenir
bobines
humaines
25.
l’étanchéité
captures
formules
supervis@@
tassement
onduleurs
groupement,
d'accrochage
D.T.U.
revêtus
tissage
natu@@
exposé
desserte
l'évolution
chargées
ly@@
Fourniss@@
bâ@@
sujétion
limitant
monophas@@
bétons,
forfaitairement
l'étanchéité
utilisables
ométri@@
anomalie
disjon@@
fragments
photo@@
agrée
dec@@
base.
ressour@@
engagent
Electrique
L'épaisseur
E/@@
gris@@
intéri@@
desc@@
géotex@@
...),
gradi@@
évènement
flam@@
contacteur
cinqu@@
cteur,
abatt@@
qualification.
synoptique
dolomi@@
explosion
l’Entrepren@@
irrigation
sanction
art.@@
soufflage
2022
signalisation,
value
abs@@
PLO@@
émis@@
intellectu@@
ambiante
Parmi
Pont
s’appliquent
riverains
encastré
CHAPITRE
incer@@
élaborer
phy@@
balis@@
L’Entreprise
érieure
notifiée
COUR@@
0000
PEN@@
redevance
titre,
43@@
transitoire
portent
kV)
absorption
informatiques
jaunâtre
contrôle-commande
soi@@
efs
régular@@
ancement
onné
DEFINI@@
accessoires,
procu@@
：
transmise
consommables
câble.
tranches
mécanique,
l'écran
déviations
approvisionnements
endant
compacté
amovi@@
temps.
régu@@
eur:
installation,
épaisseur.
administration
l’acquisition
hô@@
galets
l’organe
crip@@
gout@@
décès
B-@@
km/h
age:
minérales
Masse
oué
ruiss@@
MON@@
stocker
franchissement
l'obligation
supérieur@@
oir,
mer,
fru@@
Investiss@@
bitu@@
accorder
220@@
H.
UNE
adé@@
Membre
affaires
malfaçons
contractuelles.
dent,
bleu@@
enroch@@
constate
sollicit@@
émise
territ@@
Publique
verse
d’administration
boss@@
industries
98
formation,
minéraux
bT
préjudici@@
pp@@
actionnaire
génierie
(25@@
nettement
paraph@@
alité,
F/p
(201@@
comptabilité
accroissement
contribution
choix,
évacués
latérales
DPAO.
synchron@@
capac@@
gy@@
DB
maritime
fir@@
corriger
har@@
provenir
optimisation
enrochement
cein@@
cubes
not
secré@@
Eff@@
employer
QUA@@
poche
Travaux.
(type
manqu@@
46@@
garde-corps
poussée
côtes
l’entité
canalis@@
ex.
Actu@@
revanche,
remet
mi-@@
____@@
automatiques
caractérisé
Photo
ades
conti@@
vin
bel@@
éco@@
Fond@@
langu@@
fiscal
enrob@@
eur;
sensi@@
résul@@
fenêtres
conditions,
accepter
attributaire
ISI@@
CES@@
fréquences
parties.
diesel
paramétr@@
pompes,
l’é@@
successives
faibl@@
géo@@
livrer
coû@@
CE,
éclair@@
d'équipement
impact@@
trémie
Que
d'avancement
bitrage
l’usine.
hygi@@
marchandise
conviennent
preuves
é).
région.
Pe@@
relief
pact@@
ométrique
oirs,
Nord-@@
202@@
trapézoïd@@
consultant
clair
Transformateur
l’administration
chaussée.
Posi@@
localement
CEMENT
estimer
ralenti@@
origine
atique.
○
IMP@@
groupe.
conçues
cab@@
appareil@@
Remar@@
ers;
récup@@
gui@@
sud-@@
exprimée
Taou@@
sphère
-la
dront
avis@@
céré@@
puissances
somm@@
glac@@
inclus@@
session
nécessit@@
broyage
locales.
S'il
verb@@
exigée
bob@@
prest@@
justifié
gravillons
mailles
pylôn@@
TER
d'exécuter
borne
cle.
défense
exhaus@@
lot,
RS
alise
enregistrées
évolutions
toi@@
contractantes
ret.
CLA@@
démarrer
(14)
pylône.
2+@@
pneumatique
transmet@@
d’assainissement
robinetterie
substanti@@
étendu@@
combustible
immédiate
ation).
érieurement
comprendront
raccordé
Bar@@
rénovation
délais,
nœuds
San@@
DIN
Architecte
eau-@@
armé@@
Cli@@
XC@@
sensible
compacité
péage
planche
IX@@
Ba@@
dimensionné
laboratoi@@
collecteurs
étrangers
consol@@
2003
fabricant,
quanti@@
l’écran
éclairage,
caniveau
céramique
topographique
d’action
divulgu@@
transf@@
gratu@@
rempliss@@
buse
ffe
difficulté
élasticité
Cependant
véhicules,
malgré
expresse
fications,
corrosion.
Tableaux
opé@@
prescrit
viv@@
gris
6.2
mensuelle
99
l'Ouest
aque
chapi@@
jau@@
l’extension
san@@
étanchéité.
l’Ingéni@@
l’amélioration
abli@@
Fonds
HTA@@
l'acceptation
(dont
d'exploitation,
biologique
émulsion
règl@@
(fig.
cel@@
obligatoi@@
altitude
........@@
étude.
prévoi@@
stat@@
imposer
civ@@
hyper@@
Cameroun
négatif
DF
01@@
BILI@@
facilité
littoral
évén@@
trouver@@
comparti@@
parall@@
budg@@
BAN@@
amené
EUR,
violation
tiennent
l'avancement
T/@@
mA
l’industrie
contrôle@@
subor@@
trottoir
ko
d'isol@@
1.4
cultiv@@
225@@
vérifié
désaccord
échéant.
TG@@
montré
zy@@
L'objectif
d’expérience
incomb@@
raccordées
sable,
correctives
homologation
ues.
yu@@
para@@
sujétions,
DUI@@
souterrain@@
dal@@
PRE@@
3000
approbation.
ess
l’écoulement
effet.
Pu@@
11/@@
servent
GAR@@
fumées
naturel,
l'arrêt
istre
joints,
(4
plantes
Prom@@
pel@@
las@@
rechargement
(5
rai@@
balisage
affect@@
assurent
Comm@@
spécifications,
jection
list@@
polices
Pla@@
grossi@@
terrasses
juridiction
courir
CST@@
humides
rares
Memb@@
lourd
etc...
souill@@
50m
Utiliser
drains
ampli@@
atmosphère
aban@@
Usine
l'effet
Mal@@
repère
Travail
saurait
correspondance
èvent
alternateurs
DT@@
aérien
Nation@@
reçoit
socio@@
conflit
corri@@
corrections
symbo@@
09.@@
systématique
appli@@
Sci@@
OUVRAGE
vantail
el)
ectu@@
nets
détr@@
secs
déficit
K,
Suite
froide
Passation
supprimer
rendements
Infrastructures
ferraill@@
Définition
emprise
GECA
rappel@@
agriculture
excavations
autorise
singu@@
(0,@@
notices
prestataire
gen@@
ey
insérer
achevés
tract@@
décal@@
alinéas
adou@@
ation),
consommateurs
pourcent@@
préserver
132
ouverts
occupant
famili@@
complétée
D'une
dédié
grani@@
oly@@
numériques
choisie
ions,
Etanchéité
extin@@
nommé
sibles
pat@@
typ@@
douanier
combustion
°.
flexi@@
ociation
surface.
ancrage,
FO
Est.
9.1
mission@@
caisse
sauvegarde
mer.
d’enroch@@
lancement
centimètres
recouverts
com
/01/@@
services.
répan@@
L-@@
hangar@@
sujet@@
vannes,
érieur@@
formé
sions.
catalogue
impér@@
satur@@
doubles
ventes
Nettoyage
l’occasion
combinaisons
2m
jonctions
enf@@
Eléments
venir
luminaires
ant :
compagnie
nuclé@@
internet
e :
préjudi@@
portion
institutions
livraison,
orientations
terie,
s-
contradictoi@@
sectionneur
7).
Eurocode
commencé
individuels
rez
servomoteur
réglages
revient
interrupteurs
dernier.
branchements
végétaux
outil@@
d’accord
étrangère
échangeur
combrement
chargeur
intégrité
métalliques,
malaxage
TECHNIQUES
bar
exposés
d'affaires
ny@@
garantissant
d¡¯@@
ated
illon
58
èlement
IE@@
dédiée
IRE,
deux@@
ej@@
visibilité
BC@@
se.
échantillon@@
Granul@@
l'Accord
monétaires
eurs)
Fournir
raisonnables
lif@@
PI
ancien
d’art
synchronisation
voix
Sable
Référence
titul@@
ordonn@@
nettoyer
pli
Personne
incorporés
communiqué
maintenant
compétents
Candidats
capables
d'informations
Lagdo
technologique
desdites
avis,
proches
ser,
d’activ@@
FR
résum@@
guiné@@
passif
fiés
renonciation
Cir@@
d'Ouvrage,
compartiment
oci@@
accot@@
arrêt,
probl@@
sismi@@
CONTRACTUEL
1m
In
aux)
Vol@@
exigés
commer@@
noir@@
annonce
rosage
SICOMINES
PROVISO@@
voul@@
R)
ISTAN@@
photovoltaï@@
même.
indirectement,
exemple@@
CBR
l’enlèvement
confor@@
demeurent
I,
volet
d'achèvement
d’eau.
formée
correspondants.
TEL@@
proportions
mac@@
retiré
latéritiques
étrangères
(3
soupa@@
PN
imprégn@@
3),
enseignants
reçue
L’utilisation
l'organisation
répéti@@
devoir
tâ@@
armé.
abilité.
électrog@@
Fé@@
acquisi@@
SARL
ame
otechni@@
provoque
bo
EDF
m²@@
dimensionnés
oration
mai@@
nœud
Techn@@
d’enregistrement
carbur@@
durance
arrosage
signatu@@
fuge
mél@@
office
pivot@@
d’Oeuvre,
persist@@
réputée
locale.
ots
…),
prévau@@
écrous
TRANS@@
bénéficiaire
tives,
(20)
BEN@@
Assurer
92
0.
cendres
-2
présu@@
d’exploitation,
figu@@
TS,
cert@@
g,
VA
magasins
instrument
arbitr@@
préliminaires
poste,
(m3)
afférentes
information,
moindre
vert
Ã@@
d'éléments
mots
compress@@
montrer
Stockage
organisations
produit@@
TAGE
affectée
armement
ds.
homogène
ne.
ois,
générés
bancaires
débarrass@@
préc@@
n.
plément@@
polyéthylène
rob@@
Largeur
soubassement
réf.
années.
bars
complétées
EXECUTION
liants
cheteur
DI
fron@@
élaboré
cela,
ULI@@
dettes
heures,
Sain@@
immédiat
différent
ard,
broy@@
agit
notifications
détecteurs
érieurs
échappement
gam@@
indépendante
générale.
900
letin
Parties,
davantage
LATION
ation/@@
tières
États
compréhension
TRO@@
positif
l’I@@
TE,
truc@@
U,
ow@@
graph@@
VISI@@
euses.
dirigeants
services,
dys@@
arch@@
180@@
Risque
amortissements
3x@@
séances
dé.
remorqu@@
défic@@
sonorisation
Raccordement
TIQUES
tours
recti@@
.-
boucles
LON@@
cuves
BÉ@@
PROVISOIRE
articul@@
TM
INSTALLATION
Echelle
INS
env@@
laboratoires
statuts
licence
journalier
cole
Néanmoins,
aluminium,
Étude
agr@@
Consult@@
Mod@@
insp@@
incl@@
app@@
fenêtre
sant@@
D’une
Nouakchot@@
8).
Nom@@
horaires
èvement
entu@@
l’extrémité
yr@@
tés,
750
Enregistr@@
(60)
ps@@
tem@@
domici@@
héberg@@
entrepreneur
élément@@
bition
signes
signalisations
Dem@@
douanière
voyageurs
opérationnelles
ffice
administration,
intens@@
fr¨¦quence
utilisent
thermom@@
GES@@
hique
potentielle
diffici@@
Multi@@
boutons
bilans
privée
relier
raccorder
constatations
CLIENT.
manuten@@
transporter
réglage,
standardis@@
PMH
réutilisation
dons
pourra,
incombe
(un
dispar@@
autorou@@
aya
ceaux
accord,
miner@@
entretien.
cocontractant
traitement,
escalier
accès.
attributions
l’information
socio-économique
adéquation
ologies
gab@@
biens,
patching
homm@@
défectueux
Publi@@
GO
CEP@@
Indice
libell@@
changer
¡@@
d’améliorer
estimations
colonn@@
ecture
collectées
choc@@
nom,
phase,
Proposition
Ressources
ompte
ELU
DOU@@
potentiellement
Peinture
filet@@
piquage
2,00
C2-@@
dégager
7.2
ał@@
SSA@@
énergie.
accompagnés
locaux,
chemin@@
l'efficacité
habill@@
loi,
Sa@@
ettes,
alph@@
entraînement
paramètre
servira
Dom@@
jaune
médecin
écl@@
sonde
cobal@@
był@@
lay@@
décidé
distinct@@
aph@@
sique
fiscales
d'activité
….
by@@
estre
CLIENT,
lot@@
convenir
GARANTIES
ecte
local,
mark@@
ball@@
concernés.
Dimen@@
Droits
envisage
déchets,
Evaluation
consist@@
dépot@@
d'ouverture
l’eau,
débrouss@@
-P@@
étanches
lui-@@
Contrôle.
ISATION
As@@
ci-aprè@@
sonores
jeune
l'existence
exhaustive
gross@@
théoriques
ressor@@
rar@@
souterrain
ancer
date,
dul@@
Servi@@
exces@@
engage
ajustements
conceptu@@
l)
38.@@
aval;
D_@@
entreprendre
aillé
red@@
magasin
ZONE
003
from
30/@@
Précis@@
stratégiques
nécessitent
20/@@
blin@@
°,
enregistrés
pressi@@
SPS
l’érosion
suivante :
Econom@@
eus@@
départements
disposées
résiduelle
YR@@
fondation,
Hors
articl@@
hér@@
installation.
répét@@
purge
TN@@
GENER@@
mobilité
natures
REC@@
Libreville
puisque
spécifications.
Bénéficiaire
décharges
élever
l’intention
séparé
prélevés
inser@@
atives.
iers,
125@@
commandés
lou@@
rémunèrent
vallée
Mauritanie
état,
l’aire
exigibles
vérins
accrochage
alimentations
(45)
Faire
k,
rin@@
lame
ORA@@
mersion
anodis@@
l’altern@@
L'étude
Répartition
permanents
Pa
superficielles
section,
ANTI@@
dim
l’inspection
conteneur
mines
pratiquement
63@@
supports,
diversi@@
hai@@
eau)
l'ac@@
°)
p.@@
subi@@
cadrement
tern@@
mécaniques,
clairage
bancs
Expérience
l’approvisionnement
Lac
indirects
indispensable
ante-@@
ors@@
carottes
souscription
l'importance
LS
frein
2001
optimale
exempts
tri
(Z@@
tive.
5.2.@@
vin@@
¨¦
participant
Pren@@
journalière
bitum@@
d’oeuvre.
esprit
Renforc@@
wil@@
jet@@
alinéa
rées,
lames
Risques
l’estimation
94
Ouvrage@@
CER@@
réparer
relevant
excédant
planchers
propres,
estimées
85@@
œuv@@
GA
endra
humidi@@
cahiers
distinguer
Acier
brage
IR
vernis
mandat
baies
ait,
géographique
décel@@
devenir
triphasé
Candidat@@
réponses
alé@@
aider
jar@@
d’exploitation.
pers@@
investissement
cautions
digit@@
fondations.
2010,
rivi@@
ton@@
application.
reté
bross@@
CONTRACTANTE
mot
cuisine
automati@@
Norm@@
11.
contradictoire
suffisants
grains
Université
orm@@
irrévoc@@
ic
moyenn@@
avions
tuyauteries,
fabricants
devis@@
Suivi
reç@@
d’ensemble
témoin
couch@@
transportés
ologie,
récepteur
différenci@@
doit@@
1990
ariat
noti@@
matique
usine.
asses
général.
Maîtrise
ISE
authenti@@
sif@@
89
soumet
mentation
turbine,
commercialisation
-Z@@
ALU@@
provisoire,
signalétique
spécialisés
tensité
pansion
Dinars
tassements
sous-traitants,
payées
d’entre
LOCA@@
année,
architecte
Sor@@
Gen@@
refl@@
l'Offre
adéquats
sépa@@
VE@@
cis@@
2,5@@
32-@@
d’organisation
quête
exécute
jardins
abou@@
Fais@@
tom@@
tampon
Ouver@@
batt@@
prohib@@
obligatoires
del'@@
d’activité
isolants
Tri@@
d'investissement
découp@@
payée
circulation.
77
élarg@@
matrice
itement
coulée
surveiller
ATIONS
Études
alim@@
élas@@
utilisation.
Fa@@
réseaux,
électriques.
compenser
pre@@
options
combl@@
oper@@
pylônes.
maintenus
Adresse
(W@@
lubrification
brise-lames
Public@@
gor@@
emprunt
l'Administration
probabilité
apporte
abri
(199@@
portance
diagramme
ambiance
AG@@
engagés
ANCES
admises
causé
individuelle
ancienne
exceptionn@@
7%
fam@@
régalage
secours,
qual@@
eme
LIGNE
suppl@@
CHAN@@
ultérieur@@
compactés
réfrigér@@
construite
prouver
essentielles
normale,
communiqués
acier.
jo@@
prolongée
suffisance
injection
arêtes
3.6
d’échantillons
ENVIRONN@@
exception
asph@@
/A@@
expert
Gl@@
applicables.
annexé
istance
élevés
l’intensité
volonté
terme,
catégori@@
xy@@
intérêt@@
301
collabor@@
conna@@
meilleur
PME
Arrêté
discré@@
mondiale
flex@@
VOIR
proven@@
électromécan@@
homolog@@
ver,
nou@@
AEP
l'acier
comporteront
prévu.
intégrées
énumérés
3.0.@@
celui@@
dépassent
clapets
essais@@
able)
maison
complet,
satell@@
sécurité@@
apr@@
pie@@
pneumati@@
oign@@
102
inscr@@
entreprises.
matériel.
puri@@
imputables
Route
PERFORMANCE
afficher
ailles
pend@@
im
kN@@
urbanisme
servomot@@
travaillant
recommandées
accueillir
adéquate
durs
ó
justifiée
0,30
l'ONU
examiné
espacés
décrire
compris,
découl@@
(e)
l’Ass@@
finis
avi@@
missionn@@
échéance
MVA
Nouv@@
cant@@
représentation
peaux
nez
vouss@@
l’arrivée
Impacts
Merci
excès
90%
progressivement
Démolition
jugera
liqui@@
fel@@
gabion
démantèlement
solidar@@
Algérienne
mén@@
__
d’intervention
suivants :
dique
GTB
l'approvisionnement
oh@@
Comman@@
faible,
900@@
cage
omissions
L’exécution
phré@@
montage.
….@@
AA@@
CLI
LOG@@
matri@@
contribuer
soutènement
prosp@@
trappe
centrale,
sole@@
l’État
mission.
min.
assist@@
respectives
angulaires
mobilier
lin@@
à,
appartiendra
96
aver@@
Ach@@
DRO@@
fermée
déca@@
fumée
cles
images
entour@@
Anti@@
Eau
Tuy@@
ain.
l'augmentation
Etu@@
tectonique
ciment.
ures,
four
(c)
grise
optimis@@
doute
couvercle
réfléch@@
interdit.
brins
gré
justificatifs
l’égard
ages@@
CEN@@
**@@
crise
101
environs
bill@@
récapitul@@
divisé
déposée
cautionnement
rétro@@
autoroute
Ajout
conç@@
ines.
support,
française.
rapportant
cle
câble,
encor@@
réservoir@@
moins,
prévu,
éventualité
préh@@
complètes
Ret@@
prévue.
syst@@
nuance
l’intégration
pourquoi
l’environnement.
SOM@@
énonc@@
maçonneries
d’établissement
étriques
MENG
ée;
pâ@@
électricité.
issu@@
attentes
Secrétariat
NK@@
140
enregistrer
acomptes
Ouest.
Frais
prévaloir
ement),
réalisation.
correspon@@
échelons
de;
portuaires
argu@@
ution
l’usine,
gouvern@@
s'y
dilig@@
L'Entreprise
éo@@
atér@@
poulies
SPH@@
simplement
MALT
Longueur
(U)
N.
affir@@
feux
aérienne
Entreprise
té.
livraison.
cibl@@
représentée
dosages
atteign@@
où,
SSE
les)
mut@@
etre
PF@@
affectant
ministre
écan@@
Lég@@
qualitative
end
Fabrication
orig@@
directive
dénomination
ture@@
fissu@@
sommaire
BT,
³
anes
CW@@
14,@@
niveau,
agro@@
confér@@
concessionnaire
menée
TEM@@
rad@@
client.
5000
couvertes
prévisibles
000.@@
omnidirectionnelle
Quel
indélé@@
beso@@
établissement,
m),
rece@@
Coupe
remblayage
énoncées
C_@@
référence,
identité
cité,
habitations
Commune
serrures
trémies
dragu@@
Cellule
leur@@
externe,
retards
répa@@
fournissant
thermique.
Kou@@
prévoira
pourvus
DEN@@
poi@@
manufactu@@
Hydrauli@@
observées
nuisi@@
incluent
celle-ci.
liti@@
mil@@
km,
dée,
MET@@
modul@@
atteste
vitess@@
PON@@
Wor@@
butées
incluse
instruc@@
l'é@@
RN@@
ef
platine
gren@@
C.P.@@
mécaniquement
séparées
transporteur
chaudière
Gui@@
l'ON@@
trames
tré@@
axiale
endro@@
oi.
lieu.
ARI@@
Dak@@
ustr@@
fourre@@
TITRE
marins
embau@@
ulti@@
79
45°
partenari@@
tres@@
elage
kilomètres
Publics.
amiable
76
ont.
Tch@@
supplément
éclaircissements
standard@@
cite
Col@@
sont:
architect@@
chan@@
gardiennage
Objet
97
H/@@
future
compactage,
66@@
veuillez
Vcc
Sim@@
regards
quotidi@@
routes,
CADRE
Ri@@
d’engagement
calcium
ving@@
principe,
étrique
130@@
ère)
plastiques
compati@@
alternative
gravill@@
repris@@
Présence
supporte
Ferrovi@@
métamorph@@
aménagés
maintenue
homog@@
gation
payables
l’ENTREPRENEUR,
enlevés
vulnér@@
sis
actuels
olutions
prévisionnel
GS@@
Environnement@@
filiales
Profils
___
1/200
lumineux
néanmoins
APD
Quantité
Met@@
fr
dimensions,
iture,
bénéficiaires
soudées
restriction
12,
équipement.
Ferlo@@
polluants
allège
onnaires
GEN-RESEAU-ST@@
marquées
maritimes
prélevé
d’h@@
courant,
moins.
déchargement,
évènements
criptions
calc@@
FOURNI@@
110kV
Désignation
perméabilité
sanitaires,
mess@@
caméras
IC.
Exploit@@
domani@@
grés@@
rat@@
ly
journal
profondes
Chine,
ologi@@
attribué
d'analyse
ça
aître
$@@
Sol@@
CHI@@
Coûts
2008,
ii@@
CAMEROON
Sociale
écrites
blind@@
hang@@
Jours
ses@@
od@@
boulonn@@
résoudre
fen@@
EPR@@
province
d'art
ferrugin@@
Quatre
terme.
desser@@
multiples
stagn@@
AIS@@
anticorrosion
sous-station
Tél@@
transfé@@
alti@@
ars
jes@@
d'écoulement
dessus,
contradictoires
21_@@
pil@@
coopération
physique,
augmentée
CABLE
vitrée
achats
nov@@
terre-@@
d’injection
grad@@
GEO@@
traverses
prévoy@@
TERRA@@
traduit
FICATIONS
ande
l’interface
exige
conclure
rédigés
EQUIP@@
exac@@
dénommée
léger
tus
astr@@
BH
pivot
cée,
réalisés,
précédant
d'électricité
culée
poissons
d'abord
ina
gas@@
UR@@
èrement
négociation
ille,
morales
historique
orog@@
Procédures
scellements
06-@@
à-@@
gly@@
Garant
envisagé
U.
rives
bin@@
voyant
lieux,
pétrol@@
STE
ah
correspondant.
variant
regar@@
VI
zone,
condensation
conglomér@@
approuver
fiable
wor@@
taxes,
armoi@@
espè@@
PH
contrôlés
*)
fact@@
lu
envisagée
C.T.@@
livrée
d'incendie
revêtu
pannes
jusqu’@@
nor@@
forment
rythme
libér@@
III-@@
81
inclinaison
normal@@
Conciliateur
commandé
rouill@@
Malbaz@@
d’accès,
diligence
TECHNIQUE
acquérir
(soit
combinés
elle@@
minutes.
sail@@
bit@@
agricul@@
partage
ger@@
entités
graphe
soigné
interne,
équivalents
zone.
ferrovi@@
oued
ification
trict
entraînant
Bul@@
diver@@
2020@@
All@@
Public
-Projet
largeurs
achever
(30@@
PT
l’équipe
vigu@@
incombent
ationnelle
►@@
Ferlo
éments
16A
atement
disposé
graveleuse
ig.@@
esc@@
suivant.
suivante:
supervision.
françaises
rées.
quage
segment
sociale,
1/2
conseillé
absolu@@
épou@@
atri@@
SOCIETE
bascul@@
concernés,
attribuée
Offici@@
embre
naturel.
indirect@@
ext@@
gîtes
connecteur
dirigeant
calep@@
consis@@
commerciaux
solide
onner
exerce
court-circu@@
torsion
téléphone
GENERAL
Fis@@
III.E.@@
Notre
fonctionnent
1,5@@
refroi@@
estimati@@
indemniser
speci@@
31/@@
10/201@@
phot@@
Construc@@
s’effectue
statistique
émises
contin@@
domesti@@
hospitalisation
d’eaux
cien
inci@@
a),
Télé@@
supportés
Perte
garde,
PGES@@
etc)
robage
grè@@
Sectionn@@
Siège
électromagné@@
cabine,
restaur@@
2030
confirmé
enclench@@
assistance
propri@@
météorologiques
Coefficient
l’émission
équivalent@@
ESS@@
(20
ck
comparer
mission,
d’émission
N/m@@
6%
2014,
Est,
exercices
Résultat
frastruc@@
étiquette
CONTRACTUEL@@
aérog@@
(zone
ataires
83
t/m@@
d'injection
240@@
souscrites
ventilateurs
ult@@
l'appel
opérer
……
conver@@
colliers
machines,
rapp@@
PRI@@
teint@@
jeunes
diag@@
cédant
(Article
hautes
Nor@@
L’Ingénieur
th
d'homologation
correct
meubles
juridiques
remplacé
mural
Assurance
pole
restrictions
croisement
vie,
reg@@
CT
compli@@
couverte
peinture.
reconnaît
Perman@@
documents.
BOU@@
horizons
d'inspection
éclairement
vérifiés
maximum.
fraî@@
C).
Respon@@
ORDIN@@
conjoint
aï@@
Roy@@
profondeur.
-5@@
terait
gradu@@
itations
cœur
quisition
lisi@@
soupl@@
organique
médicale
solidaire
agn@@
BET@@
sont@@
cesse
T1
tionnaires
trott@@
Fonc@@
moins-dis@@
L’ACHETEUR
d’onde
tiers.
localisés
Distribu@@
jugée
dministr@@
concurr@@
certifié
l'entreprise.
crimin@@
Cer@@
hes
dense
voiri@@
garder
fourniss@@
s'av@@
(une
propag@@
Proctor
intempéri@@
projeté
chantier@@
mér@@
réelles
réparties
appelée
destruc@@
ine@@
ongl@@
Lag@@
chaud.
enterrés
(FIG.
porcelaine
c.@@
d'équipements
cambri@@
sév@@
identifiant
récupérer
km.
pau@@
vier
d’isol@@
veut
l’ampl@@
-A-D-@@
repé@@
NATIONAL
âtres
agrég@@
instrument@@
ala
pic
météor@@
Dimension
conflits
El
lampe
faction
frapp@@
besoin.
(50
l'effort
ILL@@
inoise
entreti@@
serie
justifie
ocation
Etat,
indre
éclat@@
potabl@@
DETA@@
AST@@
sec.
ement/@@
français.
retrait@@
accès,
coûts,
inoxyd@@
l'ENTREPRENEUR
voit
caisses
maximum@@
ANDE
bacs
Conformité
voyag@@
préparatoires
avant.
Constructeur.
ondes
Ren@@
fatigue
confinement
levées
offerts
quelcon@@
ANI@@
d’avancement
acceptables
agréées
adéquates
ks
membrures
concessionn@@
-les
suspendu@@
fondée
corruption
50,
invité
atmosphériques
Catég@@
limitées
atoire.
¨¦rieur
l'Acte
succès
trop@@
IRE.
clas@@
menées
raisonn@@
SYM@@
géné@@
L’eau
maî@@
d'exper@@
bollards
AND
MARCHE
quali@@
aut
principal,
stor@@
fluidi@@
costage
Gu@@
rag@@
CCTG
ZH@@
versants
coi@@
d'eaux
habitats
décennale
HO@@
BIN@@
arrête
moments
emballages
locaux.
recherche.
EUX
validés
accidentelle
nappes
0)
Él@@
70%
isme,
puration
précè@@
int
grues
intervenants
Pipe
Mali
er-@@
plate-@@
vé@@
autres.
suggestions
campagnes
loge
04.@@
capot
VR@@
forage,
métier
pouvez
onni@@
ating
11,
camér@@
différentielle
aîtr@@
vins
préservation
colati@@
prestations,
d'assainissement
d-@@
ventilation,
pâtur@@
Sub@@
IK@@
explor@@
Ouest,
tourets
l’appareillage
inject@@
(CP@@
l’angle
â
ressource
l'enduit
#@@
résidence
galvanisés
d'entreprises
délégation
minières
garanti
ő
l’efficacité
CONTROLE
engagées
agne
1.2.@@
pes,
bati@@
Fl@@
l'eau,
plann@@
porteront
tifi@@
Ingéni@@
Fas@@
stri@@
iveaux
N'@@
Communi@@
dres
ferroviaires
écrit.
sion:
Boul@@
ingéni@@
3,5
Test
indûment
dépendent
OMS
détecter
DS
ordures
No.@@
ano@@
ette,
poches
monétaire
modifiées
explicitement
poste.
hyd@@
‘’@@
répondra
LAN
Bal@@
l’engagement
réci@@
terie.
Toub@@
certifiés
plus@@
l'extrémité
eur).
s’appu@@
vocation
recens@@
l’élimination
em,
turation
pH
excédentaires
ministère
mauvais
apparti@@
intellig@@
opération.
voie.
envisager
l’infrastructure
SYSTEME
coulées
oteur
accro@@
l’Achet@@
der.
magnétique
étages
importations
miniers
sym@@
apparaissent
blanches
9.3
logistiques
construites
goulot@@
Ethernet
tam@@
intérieur.
design@@
9.2.@@
employeur
pyr@@
échapp@@
subissent
Renseign@@
omètres
............@@
débroussaill@@
mi
métho@@
forts
créée
éd@@
VENDEUR
granulométri@@
d'Ar@@
menac@@
caractères
Men@@
Recommandations
issance
délab@@
SOUS-TRAI@@
Journal
existence
que:
exportations
maill@@
quincaillerie
parcelle
visuel
limités
matel@@
orn@@
Concep@@
tracés
l'environnement.
GENERALE
attendre
TAIRES
Effort
prix@@
l’entreprise,
foi
essenti@@
l'At@@
Bru@@
Manu@@
plaf@@
cendi@@
fusible
nerv@@
PROJET@@
Institut
accompagner
échel@@
littérature
connecter
l'équipe
(10
A1
cong@@
géré
tributaire
communauté
touches
réact@@
d’Activités
suré@@
fournir,
adopte
bananiers,
__@@
potentielles
intégrant
03.@@
MES
C),
cours.
EC
écou@@
licenciement
quera
TERMIN@@
03@@
1x@@
étap@@
frique
ainte
approbation,
ETS
pir@@
cuivre,
mettent
adjudicataire
redev@@
d’Ouvrage,
exempt
mique
locale,
hydrologique
ert
organigramme
privées
participe
sismiques
30.
20)
n’existe
d'études
illet
posera
®
efficacement
imposés
essentiels
Ref@@
appropriés.
formés
existantes,
ption
turbo@@
offrant
Arti@@
conformités
inflamm@@
ur
occasion
carrières,
dos
enregistrements
reconnus
dée.
positionné
paratonn@@
explicit@@
chlorure
l’est
VII.1.@@
4.3.@@
(8)
bre,
atkoz@@
organiques
distribution.
élé
loy@@
OUVER@@
l'opérateur
prononcer
coutu@@
gratuitement
OP
français@@
tenues
agi@@
Fax
imposée
l’atelier
pose.
immeubles
.......@@
31@@
médical@@
assor@@
d’atteindre
fluor@@
ens.
PLANS
scar@@
permett@@
Av@@
pauv@@
Fin
haut.
mesurés
restauration
amp@@
isolement
intercal@@
(comme
engageons
liber@@
Ç@@
dy@@
igne
inhér@@
orifi@@
savoir@@
joint,
NIGELEC
stations-@@
entrepreneur,
déposer
Cour@@
visuelle
lis@@
numérotation
contraign@@
é-
chari@@
ministéri@@
urbaine
0,20
tribun@@
AGE
potassi@@
profonde
jouer
ant:
ERTMS
L’expression
Endu@@
park@@
curs@@
serrure
270@@
1-1
pip@@
encaiss@@
oi,
accessoires.
(02/16)
légale
GO@@
Soumission
che@@
SEE@@
ALES
èl@@
dispers@@
étudié
rangée
affin@@
d’entreprises
8.2
emploi,
d’écoulement
confectionn@@
Util@@
axial
indispensables
Emission
mono@@
(100
01-@@
systém@@
asci@@
d’investigations
culturel
Vitesse
Situation
vera
bâtiment@@
memb@@
élec@@
atti@@
onor@@
alternatif
géométriques
émettre
enfou@@
alternatives
décri@@
22.@@
alier
desservi@@
personnel.
Cham@@
mensu@@
ématique
embase
Ajouter
TY@@
Limite
fonctionnalités
ISSI@@
S_@@
verser
alisations
faible.
0.5
médicaux
réalité
l¡¯@@
oulou@@
l’arri@@
problè@@
ectes
l'arrivée
itaire,
épreuv@@
posent
couv@@
ennes.
ha@@
án@@
die
Majeure
multi-@@
Noti@@
dégrilleur
d'hygiène
comprim@@
livrées
crit
apparent
d’abord
affouillement
LIN2_1.00@@
experts
apportés
amortiss@@
of@@
pédagog@@
urgence,
ach
refuse
civil@@
42@@
citernes
CHIN@@
Scénario
Performance
l’entrepreneur.
réservée
deviennent
forme.
bleu
(19@@
prélimin@@
On@@
procès
latérite
L'installation
suivants.
précédente
ités@@
accordé
exi@@
préparé
bouche
conducteurs,
formulées
transmet
C.C.T.P.
épaississeur
- @@
process
complir
d’arbres
cultu@@
Dispositifs
SUPER@@
Administration
consenti@@
(x)
L'ENTREPRENEUR
équivalentes
étou@@
modifiés
issement,
élimination
’’@@
mangan@@
uns
Approbation
émetteurs
sélectionner
post-@@
d’engag@@
Cas@@
contiennent
remises
nécessiter
Bri@@
consommations
ef.
infection
Kolwez@@
ETU@@
interrompu@@
licen@@
adoption
BN@@
industrie
livraisons
ète
terres@@
fs,
tab@@
ls
Défaut
créance
dégage
révisi@@
/4@@
passifs
énerg@@
Œ@@
laiton
jam@@
précises
articulation
partag@@
Hydro@@
garantis
dessins,
amorçage
reçus
enseign@@
droit@@
foncière
pot
sty@@
galerie,
Arm@@
Dimensionnement
naturellement
susmentionn@@
l’étendue
c)@@
compromettre
Legrand
engins,
cuis@@
Dj@@
globalement
-Le
Ce@@
actualisé
forfait
Réuni@@
Hygi@@
signées
souscr@@
CIR@@
d'intervention
rigides
culaire
mauritani@@
anger
l’AUTORITE
aval@@
déduction
entiel
tion).
d'activités
plus-value
bilité,
vign@@
J'@@
transi@@
cachet@@
VII
f)
durées
embou@@
d'ensemble
Haut@@
pylônes,
semelle
Cell@@
LV@@
304
transitoires
conditions.
ultéri@@
stru@@
cloison
02.@@
stric@@
d’aucune
correspondante.
e)@@
Règlements
versée
glissière
aussi@@
intéressés
CLI@@
réclamer
Particip@@
IV.@@
rab@@
sélectionnés
financières,
gre@@
totaux
l’objectif
suspendu
atifs.
s’étend
débouch@@
recouvert
ACT@@
recrutement
horm@@
menuiserie
-le
étiquettes
épo@@
elle-même
préparés
réactions
employés.
opr@@
partenaire
trottoirs
l’indication
spécifiques,
intr@@
ultérieure
repliement
internationaux
tière
exact@@
MITE
06.@@
L'exécution
dos@@
observe
Cherchell.
substantielle
gan@@
5034@@
permanentes
angul@@
d’acquisition
probables
cél@@
médec@@
fondations,
èges
EPC
chaux
remblais,
s’av@@
spécialisé
Châ@@
responsabilité,
paration
barr@@
fax
consci@@
100,
distribution,
bet@@
2015.
l’interprétation
aison,
éré,
clo@@
provient
faut@@
flexible
imputable
situation,
toutefois,
scénari@@
l'exclusion
plateformes
CIMC-TianDa
total,
aptes
cteurs,
meg@@
Aci@@
ALISATION
quatre-@@
Nigéri@@
échauffement
accessoire
ing.
Internationale
verr@@
motivé
courbure
RESUL@@
OBJ@@
79@@
recette
DAO
105
enter
absorbée
Possi@@
utilité
trent@@
étri@@
enclenchement
division
borni@@
compétentes
amortisseurs
DESCRIP@@
aération
aign@@
enjeux
tre)
(<@@
désir@@
reliée
—@@
Chanti@@
℃
positifs
adresser
Lignes
valablement
énergé@@
istique
éité
L’ENTREPRENEUR,
aiement
MÉ@@
quettes
couloirs
alimentant
plats
stériles
concertation
amph@@
navigation
démarches
d’hygiène
gên@@
personnes.
Quant
l’occupation
W)
(liste
tâche
Consommation
fer,
listés
réputées
résines
maro@@
5x@@
Client.
rigour@@
l’acte
plan.
brassage
Niger,
SP
calorifu@@
récent@@
présentes,
73
automatique,
pots
2011,
vaut
tam
immobilier
récapitulatif
inconvéni@@
kA
á
MT,
COFF@@
accélérer
SECURITE
Interface
èg@@
boite
č@@
l'espace
bain
mariti@@
ST.
bouchage
Panneaux
thermost@@
pales
elle)
coude,
2500
instantan@@
25%
fût
prévus,
faî@@
cessionn@@
l’unité,
glu@@
entraînera
sivité
inscrite
MER@@
gouvernement@@
texture
82
SUL@@
Fu@@
Té
légère
qu'aux
AIRES
pérenn@@
Provisoire
Is@@
dépôt,
artisanale
ements)
remédi@@
-A-@@
issi@@
tram@@
Collec@@
MAL@@
qué,
produites
énergie,
Etat.
faculté
sion)
pre
périmètres
ramen@@
satisfont
employés,
j,
pyro@@
Grav@@
adjacentes
ETAT
Pot@@
décap@@
param@@
zi@@
portes,
bénéfic@@
rent@@
crat@@
fermes
indicatif,
exon@@
quar@@
50.
hauss@@
ensemb@@
eur”
obtient
développés
offre@@
pertinents
justice
(nombre
économique.
gestion,
simpl@@
éclai@@
d’actions
baiss@@
Montage
possé@@
envoyé
teaux
socio-économiques
dimensionnées
l’eau.
réinstallation
ille.
ant;
alte
oï@@
000.
barrage,
87
parcelles
Réserv@@
X-@@
CNEP@@
consulter
Management
bouchons
accotements
FL
angu@@
ate,
fonctionnalité
progression
TS@@
annexe.
irradi@@
carg@@
comprom@@
éligibles
bon@@
recueillir
masse,
parallè@@
Utilisation
acle
stationn@@
Fixation
prolon@@
PLAKA
l'usage
mentionner
comptables
existent
ide,
ologique,
mois@@
d’installer
dissipation
Maxim@@
oti@@
CHANTIER
sinon
occupe
132@@
bruit,
souples
auto
Internet
joint.
celui-ci,
théorie
majeurs
entreprise.
clusion
régionaux
nationalité
figures
00-@@
Réf.
AI@@
opinion
Dispositif
htt@@
Bel@@
ce:
humain
lorsqu'il
d’utilité
bons
marches
5-
l’assemblage
échafaudages
ences.
décrivant
définitiv@@
Tipa@@
paléo@@
olér@@
silt@@
ingénieur
VRD
plinthe
projections
papi@@
ANTE
://@@
1999
Habillage
renfort
pôle
GC
humaine
épand@@
d'Œuvre,
pur
lique
preneur
Ouverture
respectent
Tu@@
l’
(Q@@
boucl@@
produit,
plages
imperfections
orisation
D’après
écé@@
TRANSPORT
apparentes
crochet
remblai,
véhicules.
angement
participé
Mali@@
cisaill@@
Publics,
ES)
souha@@
longtemps
(qui
ans)
d'établissement
avertisseur
mètr@@
Réglement@@
exerc@@
CTA
paiement,
prescription
induit
Ess@@
rétabli@@
plex@@
modern@@
l’élément
Cameroun@@
confon@@
ENTREPRENEUR.
disparition
FIN@@
Dr@@
DMS
fluvi@@
arriver
terti@@
substrat@@
L'utilisation
neutr@@
eil
tile.
feu.
tunn@@
EVP
EPI
èment
élé@@
mom@@
racines
élargissement
contrepartie
hygr@@
TH
bes@@
revendication
tubu@@
incendi@@
pliage
porte-conteneurs
/D@@
échauff@@
primes
poignée
er).
/BT
élin@@
drap@@
ertie
fla@@
agréée
remplacée
2010.
basées
P.A.@@
notamment@@
pleins
ajuster
delà
Cim@@
-A@@
blanc@@
signi@@
pap@@
manœuvr@@
engendr@@
ession
Tun@@
proportionn@@
retés
spécification.
20x@@
vitesse,
doux
gains
régularité
Pétroli@@
Analy@@
ety
explique
formuler
récupé@@
aines.
vérifiée
CENTR@@
invent@@
Avis
Sin@@
excessive
incidences
ascens@@
res;
ques;
équilib@@
indépendants
précipitation
intervient
s'él@@
d’hui@@
an)
mobiliser
U.@@
Sécur@@
celles-@@
établissant
omis@@
coupu@@
désormais
intérieur@@
aminer
publics.
répertori@@
tte
interro@@
d'actions
Fac@@
méti@@
Yang@@
380@@
Transports
substance
cie
l’intervention
originaux
manchon
Devis
1992
entretiens
SES
Fabric@@
bai@@
INT
rejeter
____
procur@@
issu
CIM–@@
caractérise
aussitôt
(J@@
ban
Charg@@
Ge@@
TE.
stator
d’arrivée
Fe@@
ł
sélectionné
définitions
d’activités
TITULA@@
aisément
resteront
structure,
Kat@@
tend@@
confiance
Kay@@
s’appliqu@@
DIREC@@
once
souti@@
fois,
agence
lai@@
d'h@@
Sous-traitants
exactement
retenu,
haut-par@@
CEDE@@
d’aliment@@
,00
H,
tissu
poussoir
d'Administration
ASI
renseigné
ations;
(8@@
techniquement
enfonc@@
avaient
Avoir
promouvoir
oil
opératoires
superficiel
influenc@@
MINI@@
latrine,
consistent
Maî@@
privil@@
chasse
subven@@
normal,
Parten@@
d'emprunt
NU@@
chimiques,
profes@@
é:
NE@@
réaliser.
pointes
profon@@
vol
cens@@
correspondantes.
shor@@
moyenne.
utilisé.
pipel@@
facturation
d’identifier
superficielle
citerne
quarante-cinq
périphérique
I'@@
GROU@@
l’Opérateur
Environnementale
Équipement
horizontalement
mesure.
MATERIAUX
abritant
origine.
édit@@
ci-dessu@@
incident
structure.
circonst@@
EPR
2:@@
31/12/@@
mensuelles
Hist@@
(7@@
lé
ouvert,
ENTS
d’
l'art
utile,
consommat@@
Mondi@@
¨¦ri@@
étudiés
actitude
Haute
uranium
ANS
crist@@
LLA@@
Etablissement
AUTO@@
AUTRES
d'I@@
distingue
survenant
W,
GECA@@
OFFRES
613@@
»),
5),
EMS
chaud,
………………………………@@
Tranche
actéri@@
quelconque,
pouv@@
relever
erons
ercice
Confidenti@@
décant@@
l'indice
can
horizon
opportunités
ête.
Vend@@
peut-être
tard,
évacuées
progrès
région,
afflu@@
d’Activ@@
pénétrer
HADA
2007,
bouteilles
testés
d’enfants
nettes
Chin@@
113@@
ordonner
dor@@
ogène
2.1.
traversant
exclusive
révisions
cornières
plates-formes
issons
avant-projet
pylône,
quartier
dépar@@
maillage
trappes
d’Ac@@
550
dalot
objet@@
caniv@@
excepté
ance)
règlement,
itudes
faisceaux
l’approche
88
Observ@@
SAN@@
15,
$
accél@@
Énergie
fissuration
réalisera
teurs,
venue
électrodé@@
rembl@@
bas,
gau@@
ERES
cadre,
incit@@
(12)
déverrouillage
DT
constituera
ces)
accue@@
courantes
reçues
d'un@@
réceptions
kilo@@
l’horizon
favorables
Bes@@
robinet@@
d’accidents
concerné.
produit.
idi@@
opérations,
MENTATION
TAIRE
puits,
paires
prorata
externe.
Faso
STRUCTU@@
ted
banques
soleil
batardeau
g/m@@
requête
trempé
BF
d’usage
clenchement
TAT
assainissement,
ró@@
mit@@
Compt@@
l'enregistrement
h/@@
l’indemn@@
gliss@@
700@@
ZOU@@
exigi@@
permis@@
sur-@@
purg@@
FRA@@
généraux,
clôtures
a).
signifi@@
interf@@
entrée,
art.
apportée
émetteur
argiles
C.C.T.@@
discordance
obtention
hydraulique,
sulfurique
économies
cocoti@@
-Les
curage
9).
agressivité
millim@@
aîn@@
Pil@@
acompte
as.
chinois
104
diamè@@
contourn@@
ence)
TION,
acousti@@
lesdites
n'importe
aie
Date@@
Q.
devises
ce-@@
MOA
Inform@@
que).
pile
RUM
SIGN@@
laissé
strict
saisons
Méthodes
Europe
suivra
EES
migration
recourir
l'alinéa
Nota
30,
deurs
Compos@@
cohé@@
assiette
végétales
O-@@
avocati@@
FORM@@
laissant
dépassera
ouvre
las
prévus.
achèvement,
Régime
d’achat
conse@@
rocher
l'industrie
(………………$)
L0@@
réac@@
pneus
Hz.
extrême
tarifs
engagée
feutr@@
Entrepris@@
électrification
DISPOSI@@
démontables
sujets
cotisations
prestataires
prélèv@@
bretelles
intérêts,
cer
ruban
Hz,
observée
GESTION
reconnaissances
ories
confis@@
corps,
désignées
prennent
2013,
divisi@@
éné@@
carri@@
Certaines
cable
ants)
Francs
l’assistance
massage
tives.
zin@@
Cadre
Trac@@
ément,
respectées.
crétac@@
conservés
nucléaires
Coordination
géométrique
alumin@@
Courants
contrôlées
empris@@
Soubré
l’Est
palmiers,
III.
bén@@
euve
ématiques
2016.
l’assurance
itaillement
délég@@
bâtiments.
branches
aiguilles
2016,
20m
réaliser,
appelés
désordres
TÉRI@@
professionnel
France@@
iles
réalisation,
%.@@
Civil
LIVRABLE
boitier
couss@@
d'enregistrement
ock@@
Signature
perf@@
lectu@@
renforcé
soulign@@
guer@@
raisonnable,
Équ@@
Hypothèse
latéraux
concer@@
agglomérations
imposé
d'acquisition
verticalement
l’aspect
brill@@
Ther@@
gle
Site.
lan@@
time
attachés
littor@@
chevau@@
producteur
périodiquement
0,3
Coffret
rouleaux
L'analyse
cible
oxydation
familles
électriquement
équiper
au-dessous
Soumissionnaire.
TY
chantiers,
Celle-ci
refou@@
Accès
324-@@
Haut
quatrième
bustes
homolo@@
Actions
my@@
vitré
empor@@
doivent@@
pieu@@
Opérations
remarques
crédits
accéder
simples
aqui@@
repér@@
Délégu@@
gis@@
abat@@
l’exclusion
II,
Entrepren@@
tures.
localisées
l'avance
législatives
cheminements
l’expérience
d'établir
siège,
1994
CB@@
étalonnage
Câbles
informés
sonor@@
rappel
verra
données.
aggrav@@
mensuellement
ech@@
feu@@
fondation.
expédition
rendues
année.
istres
siph@@
scellés
affecte
durc@@
Diamètre
économiques,
modification.
opérationnel
devr@@
occurrence
caden@@
Zin@@
bouchon
distinctes
particulières,
pera
localisé
cides
énergétiques
Fil@@
entretois@@
Bas@@
téléphonie
construction@@
logn
lubrifiants
wat@@
dureté
tables
accè@@
stabilis@@
promoteur
LOGI@@
managéri@@
reconnue
5.4
case
marqué
récente
tournantes
assureurs
ètres
etc...)
conseils
hautement
discontinu@@
V.B.@@
exprimé
surveillance,
formulée
suffi@@
communication.
arrêts
4.6
volets
photo
répand@@
d’ouvrage,
HM
hauteur,
oo@@
2020,
éléments,
Contrôle,
AFNOR
proté@@
l'interface
l'émission
assortie
toilet@@
configurations
sectori@@
télév@@
olé@@
poinçonn@@
infrastruc@@
alogues
valables
assain@@
serviront
2017,
achèv@@
éris@@
fruits
pompi@@
projet;
drain
materi@@
polyester
filet
z,
fermées
mastic
(PA@@
réunion,
flasque
l'arrière
jal@@
Union
qualifiée
cornière
murs,
alité.
hall
financière,
financé
d’O@@
j.
(entre
outill@@
approvisionnement,
étaire
0x@@
d’isolateurs
récépiss@@
lar@@
wszyst@@
l’extraction
zz@@
apporté
causer
80x@@
aux-@@
H2@@
ailettes
partiels
longueur,
état.
ÉES
idé@@
phase.
traçabilité
retomb@@
contractante@@
ationdes@@
solaires
aménagé
assurés
bis@@
Fréqu@@
évaluation,
référentiel
bâti@@
ISES
entou@@
ellements
Concession
emboîtement
l’habitacle,
l'arrêté
Terrains
Premier
nettoyage,
productions
notamment:
adjuvants
itable
admise
fixe,
40.@@
minérale
tuy@@
observé
prestations.
déclarées
emboî@@
télécommunications
inet
ficateur
sécuriser
d’environnement
envisage@@
social.
++@@
secours.
oiement
ire.
TON@@
revendi@@
aménagée
arbre
kN
Guinée.
ître
entrepreneurs,
Pon@@
historiques
voyage
utilisés,
lait
eure@@
L’alimentation
vote
tribution
siques
7.2.@@
m³
71.@@
mort
EQ@@
coussin
Puis@@
Annex@@
approuvés.
Â@@
TIV@@
dissement
tre-@@
BASE
parcell@@
Alger
s’avère
Africa@@
ates,
rencontrées
Pal@@
dédouan@@
rouges
introduit
structurelles
MB@@
SB@@
plui@@
carrés
consécutifs
(sur
résilié
age-@@
charni@@
es"
imparti@@
G-@@
d'ouvrage,
débour@@
dissolution
métallurg@@
feuillure
inclura
um.
hectar@@
listées
d’indemn@@
kaol@@
unifilaires
flore
décoffrage
N)
37.@@
l’appui
32.@@
Conciliation
passibles
del
remplacées
APPLI@@
élag@@
tés.
divi@@
mondial
ouvrage,
concentrations
Mai
vagy
lavabo
98-@@
sortie,
CE.
hol@@
PR
toitures
élection
UFR
barri@@
existant.
collectivité
reconstruction
11,@@
fers
Cycle
perturber
l’art.
préconisations
financés
(N
GPL
d'espèces
recevra
Garou@@
matriculation
huile.
to-@@
administratifs
PONT
) :
tez
Ab@@
maximum,
Biens
Ins@@
RECH@@
différends
Ann@@
terminer
laissés
produits.
La@@
recueil
ll¡¯@@
caractéristiques,
naissance
creus@@
rapport.
SCADA@@
intégralité
poin@@
rack
Séqu@@
Paramètres
présentes.
FINANCI@@
régulières
régionales
témoins
Mani@@
renseigner
ARE
confirmée
hebdomad@@
inter-@@
unique,
européen
France.
robé
0,4
informera
différenti@@
permettrait
épar@@
traitant
longitudinales
incluses
We@@
05.@@
prolite
mel@@
dB@@
finition,
alimentée
Palé@@
thoschiste
ite@@
Univers@@
it-@@
excédent@@
l’initiative
démission
86
gabar@@
déploiement
d’exécuter
officiel
1.1.@@
d'argile
Economique
l’Environnement
L’aménagement
Département
fusi@@
liquéfaction
commut@@
notification,
nav@@
wer
diodes
alvé@@
L'Assemblée
atteintes
paragraph@@
Prem@@
........................@@
L’impact
coût@@
déclarant
eth@@
réd@@
feu,
RAPPORT
TV@@
oles
peint@@
dévers
distin@@
aval,
inspec@@
autob@@
l'adresse
pas.
bobine
centralisée
dalots
récipients
règlements,
convenues
pert
ile
és:
B3
profondeur,
tramway
1,0
Territ@@
flor@@
Postes
Attributaire
étrie
d’oeuv@@
iv)
rebois@@
convertiss@@
d’emprun@@
dessus.
ction.
C.S.@@
superstructure
circulant
RJ45
l’Entrepris@@
16,
ANCH@@
soulèvement
Équip@@
endr@@
Création
arrêt.
permis,
provisoires,
intention
absolue
prospec@@
bouches
aband@@
CONDI@@
gonfl@@
mém@@
canton
This
devez
Métho@@
Bak@@
TABLE@@
réseaux.
décenn@@
ranch@@
Rev@@
appels
plex
tiendr@@
dia@@
unifil@@
Altern@@
tribu@@
allons
tons
Effectu@@
l'En@@
dorm@@
conseill@@
l’utilisateur
libellé
l’intérêt
èque
délimitation
d'arbres
retour@@
entam@@
KM
laiss@@
suffisante.
prendre,
OFF@@
lubrifi@@
z-@@
(132
000/@@
/05@@
Classi@@
l’indice
croquis
transferts
générées
illes,
combusti@@
MESU@@
Nature
rendue
ESTIMA@@
précédentes
d’expiration
position.
couvertures
Pers@@
MPa
auscultation
Port@@
miques
1A
16/@@
ologiques,
ineer@@
baux@@
Rési@@
L’évaluation
remontées
Dévelop@@
l'environnement,
est:
hypo@@
daN
souterrains
1）@@
mm/@@
ajouté
question.
serre
40%
Dél@@
pluie,
deviendra
dex@@
TT
othérap@@
cuir
Véri@@
relevées
inventoriées
pourr@@
IO@@
bars.
verrou@@
automatique.
décantation
approprié.
millimètres
euvre
emplac@@
l’enceinte
rétr@@
fici@@
recoup@@
ADMINISTRA@@
équivalence
hauts
type.
scientifique
gares
sécurisation
360@@
sites,
consultations
contre,
adap@@
ik@@
front
passag@@
Access@@
ów@@
m3.
ménagement
Cherchell@@
essentielle
bré
tôt
d’opération
projetés
prenantes
Soumissionn@@
ack
métré
réservoi@@
PERFORM@@
FONCTIONN@@
l’avant
IS)
DI-@@
sodi@@
polygon@@
lauré@@
enquête
nationale,
passes
EU
pros@@
réfrig@@
majeure,
intellectuelle
é.@@
auss@@
additionnels
2)@@
CTEUR
Est-ce
basculement
corrosion,
sera,
Grenoble
immeuble
Circu@@
COBA@@
géométri@@
MODIFICATION
protocoles
tunnel
échantillonn@@
requise.
micro
con
progressive
suites
ceau
évaporation
tablier.
l'élimination
spécifique.
classique
DV@@
EXERCICE
fournitu@@
fûts
Pompe
existants.
prototy@@
lois@@
manifeste
l'In@@
sécuritaire
gants
aluminium.
cribl@@
volont@@
INDUSTRI@@
géologie
l’ouest
Coton@@
quasi-@@
substrat
ements@@
n,
céd@@
Fiches
2.01.@@
faciès
reau
anga
prototype
aboutir
finitions
napp@@
biologiques
définitive,
jusqu’aux
Retenue
bac
L’équipement
saisir
QUALITE
test,
WC
déchet
exceptionnellement
gru@@
Rév@@
publicité
cartographie
ed@@
Grand
exclu
l’intervalle
TERIEUR
exact
15.
confront@@
sortir
ennale
restruc@@
Kw@@
PAQ
retraitement
interdite.
irrégularités
ménages
facilités
pelli@@
nt
représentées
60%
ARM@@
ELEC
Quel@@
1,1
représentant.
ballast
géophysi@@
PROV@@
désenfumage
ayage
ILS
concernées.
hydroxyde
NB
remplies
Malgré
Québ@@
P1
longitudinaux
ignor@@
nulle
concurren@@
é),
moder@@
jugement
verts
HD@@
6.5
12.
tim@@
dolomie
rectification
22-@@
compte-@@
lution
BS@@
CC-M-0@@
préval@@
prescr@@
cylindre
ll’@@
ë@@
porteuse
marges
gradins
implanter
Pol@@
aéron@@
attirée
isage
facilit@@
Cô@@
soudé
Té@@
écoulements
territoires
dommag@@
parafou@@
atténuation
cons
1,2
provin@@
testé
linéaire,
BOR@@
Wil@@
d'Œuvre.
Maroc
documentaire
d'opération
infraction
dialogue
Travée
l'Entrepreneuri@@
ones
donneront
portail
activité.
Lam@@
hydroélectriques
Rapports
galerie.
alerte
tu
pa
fice
exécutés,
brouill@@
Travers
divul@@
congol@@
CPA
n°1
ata
presser
bagu@@
d’augmenter
process@@
e:@@
décro@@
tres)
l'heure
Société,
Cab@@
vêtements
matur@@
exemples
catho@@
Région
d'aucune
partielles
Opérateur
affiche
varier
extraire
granulométrique
sanctionn@@
gs
château
convenable
Tribun@@
oc
ération.
invo@@
agréments
minutes,
es :
déclarée
hauteur.
exe
sous-sol,
inter
(CE@@
poteaux,
ségrég@@
propylène
lisses
d'intégration
Augment@@
certifiée
navires,
universitaire
d’Ach@@
ot,
diamètre,
fournisseurs,
ACCROPODE@@
Centrale,
rondelles
Tambacoun@@
Agadi@@
he
vente,
additifs
tirants
coulés
abattement
d’I@@
Sé@@
l’ossature
SIV
Avant@@
change@@
influencer
déduire
lures
sivement
Mb@@
procéder,
d’humidité
pièces,
CRE@@
ce)
prévoir.
Mars
érie
choses
figur@@
solidairement
Fini@@
l’arrosage
requises.
interdite
d’installations
jointes
régulation,
redresseur
pant@@
Relev@@
rechercher
Au-delà
ologique.
silo@@
veloppe
phosphat@@
km)
platines
subjec@@
subordonnée
différentes,
C.P.T.P.
Remise
aum@@
revêtues
fouilles,
auteur
corrél@@
89@@
semblent
G/@@
Condi@@
Marrak@@
LOGIE
tiré
copi@@
Communauté
SPEC@@
suivant:
FU@@
(valeur
moż@@
coin
excell@@
rural
mètre,
AUT@@
alentours
affaissement
Fondations
ack@@
ise,
BT@@
rigoureusement
montr@@
cordon
1/3
entendre
Bâtiments
versions
succession
gérant
alliages
informations,
côtière
bav@@
cohérente
climat@@
leadership
prévisi@@
Déb@@
mains
L’épaisseur
Los
Minim@@
voile
nantissement
l'installation,
général@@
Mauritani@@
configu@@
membrane
réclamation,
mécaniques.
résultats.
sécher@@
tations
élastomère
similaire.
quitter
tierce
alogue
KGLAV
électro-@@
autrement,
bune
ectri@@
valeur.
conjointe
AMEN@@
quip@@
PLAKASI
Ö@@
consolidation
cide
conséquence.
AGEMENT
UEMO@@
régres@@
matériaux@@
règlement.
Interrupteur
(6@@
Sous-Tra@@
lap@@
ure,
conclus
bid@@
TIFS
hom@@
LAC
PORT
décom@@
l'épreuve
prè@@
sableux
2009.
poten@@
lancer
égr@@
atom@@
Impôt
cristall@@
TEC@@
mutation
Hu@@
sabli@@
BLA@@
tes)
supportant
(24)
traxe
agencement
primer
stockage.
ci.
mois)
jugées
flexibilité
réduits
etc..@@
Reg@@
châ@@
effondr@@
desquels
métall@@
neuv@@
mentionnant
(*)
d’accepter
MTI
lecteur
60-@@
pétrolier
(Plan
215@@
daté
„@@
lits
continent@@
résistants
automobil@@
enrobé
Th@@
pompe,
rectangulaire
Mai@@
freins
l'élaboration
palé@@
opposé
décharg@@
d’intention
Emprun@@
40/@@
citer@@
sableuse
émanant
spatiale
charbon,
NIV@@
terre-pleins
ro
réserves,
elec@@
190
commises
battage
Considérant
Directions
dépoussiérage
adjuvant
JO@@
renvoyé
fourreau
toxiques
évent@@
1.00
ènement
nuire
doctorant
T_@@
commiss@@
_LIN
KGLAV.@@
délais.
national,
cre@@
ensemble.
Étant
fournisseur.
l’orientation
Retrait
sach@@
convoy@@
tendue
liens
MS
CONTRACTAN@@
parallèles
indépendantes
rédigé
euill@@
ESSA@@
ajoutés
n’étant
lumi@@
survenance
dela@@
l’arbre
05-@@
métrie
carbonat@@
d'entreprise
Bloc
proces@@
Mes@@
jaun@@
Conse@@
(CCA@@
exte,
indé@@
Maradi
minaire
quot@@
décomptes
peints
affection
pologie
souscrire
ées;
transformateur.
participations
tion:
Cen@@
Limiter
Méditerr@@
flamme
Quali@@
scol@@
LOU@@
Sh@@
it)
l'ingénieur
l'élément
(198@@
avenants
er:
provisoirement
2/X@@
Sondage
2014.
acu@@
tenance
trodu@@
cachet
ASE
lm-4000K@@
bidj@@
pouvons
cuvette
Prov@@
d’attente
reposant
Politique
exploitations
1-2
-O@@
Association
résu@@
TRAN@@
aménager
boulons,
.:
bis
lantique
Entr@@
l’agent
4464-RAC-XX-REP-@@
aval.
L'Etat
immédi@@
qu'on
certific@@
TIONS,
minute
morti@@
résultats,
l'intensité
rigidité
essieux
produisent
occasionnés
DM
ject@@
pupitre
system
fi
cès
Enti@@
maitr@@
cadu@@
en)
primaires
1300
volati@@
suspendre
pure
Menuis@@
voiture
aillement
pilote
train@@
Exemple
1ère
dan@@
concré@@
réfl@@
faudrait
consignation
sectionneurs
échéancier
futur@@
déré
Cel@@
administratif,
(A)
électroly@@
Respecter
MS@@
périphériques
organisée
Règl@@
rétablissement
Réc@@
collage
senti@@
lourde
adresses
l'identification
évaluations
enœuvre
concernée.
appui,
l'investissement
RIS@@
pertinente
NON
l'examen
mandaté
Stratég@@
débit,
Prendre
fun@@
s'ils
captage
vergure
contest@@
Inspection
négociations
envisagées
assurer,
210
affaibl@@
Banque,
ques:
l’installation,
s'effectue
responsabilité.
microfin@@
ania
appelle
autoriser
ÉE
zy
BLE@@
retenue.
appropriée.
armatures,
orique
durée,
ally
ka@@
concentrés
Bell@@
10m
onyme
principale,
conci@@
opportunité
boîtiers
tailles
way@@
Grille
octroy@@
marg@@
18)
précédemment.
mesures,
accord-@@
plate@@
détourn@@
(*@@
ssion
ercer
rouleau
SORAZ-Zin@@
reté,
carrefour@@
155
empêche
JU@@
）
rejetée
diss@@
Autorités
Civ@@
simplifiée
solv@@
@@
algérienne
dispersion
pieux.
Nord-Ouest
phosph@@
BILITE
Exercice
oth@@
pluies,
onnier
rampes
filets
sch@@
cach@@
Chiff@@
peint
filières
réflect@@
HE@@
incident@@
fal@@
borniers
ji
efficaces
quantitative
(197@@
Traversée
cerner
C.P.T.@@
monter
Cours
indemnisation
asserv@@
surpression
activation
d’emploi
8%
Cotonou
més
ssier
raffin@@
congés
circulaires
Murs
conce@@
émul@@
Plann@@
vitamine
espèce
socio-@@
Courbe
Hum@@
ouvri@@
addition
spectre
i-
diffu@@
DR-C-000@@
CP
re),
coups
tonnes.
emballement
128
préparera
provisoires.
x)
précédent,
Hydrocarbures
nord.
maintenues
ayants
stratég@@
vidéo@@
responsabil@@
RUE
anter@@
sec,
pédance
laboratoire,
adjuv@@
entendent
réchauff@@
Appareils
170
oxygène
coï@@
activités.
aca@@
échantillons,
transit@@
(06)
ayer
compté
gra@@
atoires,
IC,
remplissant
satellite
électromagnétique
socles
serveurs
suspension,
lente
Jap@@
Md@@
archit@@
lut@@
exu@@
Cont@@
Statis@@
DJ@@
114
REALISATION
ouilles
Four@@
Perform@@
Composition
intrusions
nombre,
Joints
comm@@
préoccup@@
Matériau
pédi@@
l’importation
Identifier
kér@@
soufre
l’armature
classé
interdi@@
l’aval
boute@@
Standard
projets.
papay@@
régimes
ponctuelle
ôle
andis@@
Absence
anti-affouillement
Cl
producti@@
atisée
positionnés
87@@
contractant.
l'inspection
adressera
OPG@@
disposant
kPa
délestage
interprété
l'Union
36.@@
airement,
（2）@@
.Ces
North
respectera
mall@@
idée
(m)
buts
local.
conduite,
itaires,
préparatoire
écrous,
assises
l'étendue
inspecter
30x@@
taches
Diag@@
Principe
750@@
INV@@
rassembl@@
argent
up
corridor
Calendrier
inement
Te@@
d'Appel
gâchage
dérogations
amba
mauv@@
VERBAL
l’âge
ballas@@
édictées
existant,
gées
l'amélioration
versements
combiné
BHNS
signification
m3/s
versés
modifiant
Organisme
seul@@
exploitants
d’assistance
lang@@
cylindres
bre.
5.5
interdit@@
onnements
d'enseignement
conduite.
sédimentation
enrich@@
fur@@
mun@@
GAN@@
ité :
prolongé
]@@
actuelles
trajectoire
parasites
futures
ENS
QUANTITATIF
époxy
poul@@
Quels
DEVIS
hosph@@
marquée
Choix
4),
REPRESEN@@
2011.
GUE
(90@@
clignot@@
C.C.T.G.
est-à-dire
polyuréth@@
plasticité
Isolation
roulants
lots,
composent
Kg/m3
pertinentes
de @@
l'attribution
-)
améliorations
chaus@@
environ.
boulonnerie
simple,
justi@@
inoxydable.
ml@@
sac
engagé
complexité
évaluation.
riveraines
Janvier
przy@@
TURES
Appare@@
propre,
that
connue
époque
ere
écrasement
transfer@@
Autom@@
d'engins
supplémentaires,
cabines
✓
lavab@@
embarqués
l’assise
foli@@
en-
versées
salu@@
connues
Identification
voir,
locales,
Électri@@
comptabilisation
hydrocarbu@@
Dot@@
RET
refusé
perpendicul@@
deg@@
arrêtées
musoir
accost@@
kit
mail
parafoudre
(niveau
corrélation
jugés
s’effectuera
commun.
l’installation.
moi@@
GIN@@
géographi@@
érieures
commod@@
oppos@@
traitement.
gî@@
comprenons
croch@@
suivants,
fourniture.
HAZ@@
contractuels.
ISSION
dotée
lati@@
considérations
projetée
drainage,
OUVRAGE.
bâti
MODE@@
Franceville
CITE
ć@@
locu@@
Kinshas@@
turbine.
ology
t-il
étérog@@
terrassement,
échafaud@@
prescri@@
pense
Marchés@@
omni@@
D’un
s'appliqu@@
périodique
D’autres
(100@@
chefs
piration
V_@@
trusion
0,0@@
a/@@
45°@@
est-ce
Nord-Est
dossier.
Prési@@
jeu@@
intitulé
administrations
thermique,
ériques
Fonctionnement
réservation
rond
d’impacts
Marque
kan@@
trouvés
personne,
longues
act
aig@@
récompen@@
main,
alién@@
cine
lis
lisible
unitaire,
viation
HOR@@
Véhi@@
ors,
ssis
20,
voiles
pattes
coter@@
colle
empi@@
inscriptions
L'AC@@
Article.
possibl@@
régis
Onde
demeurera
enterrées
homogénéité
Tolérance
l’exigence
Rob@@
retour,
2V
já@@
lorsqu’ils
Lorsqu’un
contrôleurs
aviser
ci-après:
bénéficie
d’arbitrage
déposés
diz@@
Article,
admissi@@
guides
34-@@
arrive
traction,
2e
déploy@@
PARIS
630
huis@@
équivalente.
palan
000,
que),
chimi@@
l'intégrité
exécutés.
décret@@
traversés
fre@@
bâches
Portes
hydrom@@
GM@@
Alu@@
pharm@@
signalés
graf@@
proportionnelle
adressé
l’acier
Leurs
02-@@
constructeur.
renouv@@
Cinq
dangereuse
métallique,
Chacune
EXI@@
exécution@@
ancrage.
age),
teur.
shi@@
recueilli@@
munici@@
échangeurs
dération
empreinte
contractant@@
53@@
référenc@@
mam@@
développées
nationale.
itairement
segment@@
rir
positionner
sulfate
clause.
Chu@@
d'Ivoire
enregistrée
provoqué
Congo,
nominales
TUR@@
Conakry
sidérurg@@
foi.
redondance
réhabilit@@
mais@@
II.
sous-clause
MENT
donc,
piéz@@
CAPI@@
ancs
étriers
Kg
Euros
ressorti@@
ESSS
Site,
immédiat@@
2007.
installera
50.@@
commutateurs
Dix
répu@@
ées/@@
développement,
découvert
ra,
gravats
opa@@
cateur
ainement
unanim@@
carré@@
hydrologiques
Pay@@
Gran@@
faï@@
prégnation
approb@@
contrevent@@
prévo@@
Jour
redressement
1/1
RAL
eux-@@
intègre
bret@@
s’élève
Points
énum@@
d’interface
l'interprétation
exercée
Gro@@
d'âge
paire
graviers
Tube
géographiques
réper@@
ule
Vo@@
involontaire
remplacés
situer
Même
déblais,
enti
géophysiques
Architect@@
ISSEMENT
silicone
29.@@
ank@@
devait
garde-@@
d’angle
es ;
Financi@@
visiter
fuseau
Teneur
voirie,
Contractant,
d'atténuation
journalières
préserv@@
envoyer
composite
structuraux
distributions
Veill@@
réserve,
mobili@@
Cu,
HTT@@
indirec@@
légi@@
devise
l'appui
compagnies
amen,
carburants
bi
échec
10.1
Proven@@
acceptées
etr@@
cachés
l'enseignement
simuler
insuffisante
ultérieures
fine
Compatibilité
nombr@@
pos
envoyés
formellement
dégradé
moderne
garde.
l’écart
ouvrage)
fermeture.
oue@@
États-@@
OPO@@
réglée
2017.
urgence.
d’influencer
social,
aupar@@
absol@@
Archit@@
aires;
V-@@
distance.
Local
majoration
Kinshasa
religi@@
Changement
FI
revêtu@@
FABRI@@
¡§@@
techniciens
éludés
R,
ceux-ci.
sphères
kérő
monob@@
Prestations
exécutant
SW@@
interprétée
TIN@@
tirer
(exemple
parcour@@
rappelle
RK_
culaires
phil@@
(C.@@
appell@@
Stand@@
contigu@@
permission
défaut.
(Voir
conformité,
CEMAC
déclaré
Bénéfici@@
Commission@@
(i@@
affectent
téléphone,
certifie
qu‘@@
ouest.
lent@@
LLES
suivantes,
publiés
Ses
expire
contrat@@
31/12/201@@
coupures
lar
monocouche
eur),
temporairement
imprévisi@@
Tahou@@
estri@@
sèches
provisoi@@
puisement
(CO@@
Confir@@
t-venant
Arrêt
gir@@
connus
fissure
a:
intempes@@
²)
bronz@@
intég@@
transporté
profond
initiales
roulement.
implantées
Entrepreneurs
’ai
D'après
histoire
transformateur,
pouces
FIX@@
complissement
och@@
conservé
101@@
pect@@
Sénég@@
normes.
fabri@@
versé
(1,@@
rubrique
argileux,
7.1.@@
DELA@@
nes,
Us@@
définitives
réel.
nigéri@@
syndicat
6.2.@@
point,
doctor@@
officiels
obtur@@
filetés
flas@@
solidité
recevront
far@@
trimestri@@
spécificités
entraîné
sédimentaire
ave
descent@@
SCADA/DMS/@@
ligi@@
dang@@
l’AP@@
=0.@@
appui-tête
sectionnement
l’intégralité
accordés
endomm@@
pieux,
1993
exercées
Chape
L’accès
ac.
travaux;
Ur@@
sectionn@@
barrages
disponibles,
renseigner@@
respectées
ás@@
6.4
380
TI
détient
volcaniques
fich@@
Grap@@
survenir
d'acide
libérer
ya
Extraordinaire
scrupul@@
concili@@
directionnelle
prévision
1992-@@
QUEREUR
spécialisée
items
Popul@@
Schém@@
d’œuv@@
Bilan
14.2
soit.
publiée
Différend
TL@@
Mas@@
ussi@@
urbaines
ana
irr@@
other@@
1'@@
réalisations
valoriser
fiscaux
tard.
grandeur
Chenou@@
plaqué
EG@@
Serv@@
convi@@
mir@@
administrateurs
le(s)
héli@@
cry@@
D),
garnissage
MR@@
arou@@
ordonnance
schistes
cérame
zoï@@
a.@@
Swit@@
60.@@
Bloque@@
Aussi,
VI.@@
confère
2D
fondé
particular@@
apte
fermer
03-@@
Mandataire
munité
-30@@
ŒUVRE
hib@@
S'@@
cti@@
OA@@
D’OUVRAGE,
dire@@
Nord,
PROBA@@
onale
Indiquer
le-@@
accidentel
concevoir
bailleur
l’aven@@
l’accomplissement
Provin@@
calibre
Supervision
OM
an-@@
cotés
circuler
PCC
Ir@@
perspectives
bois.
armés
alimentaire
supervision,
96@@
stéri@@
Euro
circonstance
conducteurs.
homogènes
230V
fabriquées
Inf@@
veines
SETRA
cages
aubes
reflè@@
Africaine
PG@@
CONS@@
l'horizon
phosphate
surplus
moment@@
Nigérien
exutoires
stérilisation
proj@@
amar@@
stabiliser
sociales.
Voie
Aperçu
Seules
sar@@
Butane
etc…)
quart
applicable,
Réseaux
ancier
”,
perpendiculairement
Participant
exam@@
oxyd@@
²@@
diagram@@
nn@@
érosion.
couramment
1988
ée).
.P.@@
Couleur
tendu
instru@@
ARA@@
retrouve
groupes,
ETI@@
retenue,
d'accès,
inox@@
coudes
Surveillance
fermé,
proposés.
Configuration
choisies
protérozoï@@
repérés
(40@@
115@@
SERVI@@
Financière
v.@@
ier,
CONTR@@
Mét@@
précédents
satisfaisante.
concessionnaires
chirurg@@
Cahiers
SE)
après-@@
réactifs
-N@@
contributions
tubulaires
prorogation
GÉNÉ@@
charpentes
d'ouvrage.
Co-@@
activé@@
renoncer
entation
expliquer
altérer
TALLI@@
adoptées
rug@@
machine.
existant@@
moules
écrou
ham@@
convocation
d'hui
ISSANCE
aux;
livrais@@
ssions
voies,
MECANIQUE
consistant
l'Entrepre-
Livraison
octro@@
DEUX
jury
membres,
Sch@@
quotidienn@@
L’Entrepren@@
toilette
fourchette
ses,
déj@@
conservées
dépen@@
coffrage.
démolitions
faille
aire).
ome
Sensibiliser
Sikasso
Option
has@@
Décembre
2009,
berges
CRIP@@
XX
quée,
FONDA@@
Guiné@@
VE
07.@@
complexes
marine
Don@@
eni@@
Paragraphe
(d)
Cau@@
rapides
lots.
Agré@@
parten@@
45/@@
grisâtre
+1
Plaques
IU@@
auv@@
territoriales
Chacun
remblai@@
consent@@
4:
démontré
Ceux-ci
testation
carrière,
Nov@@
photographi@@
l’attention
DAP
dimensionner
organisées
aléas
gueur
(plus
pourvue
fret@@
ité;
sulfu@@
............................@@
Représent@@
programme.
l'assistance
by-pass
Boî@@
genre
levage,
lue
flottil@@
prioritaire
dg@@
mul
téléc@@
l’exploit@@
America
palmi@@
zingu@@
220/@@
sous-traitant,
exceptionnelles
transbordement
Art.
avoisin@@
tabliers
granulat
Sikasso@@
atténuer
cér@@
ENE
bruts
façonnage
Guin@@
semestre
d’Oeuvre.
d’infrastructures
carnet
d'E@@
XX-@@
générateurs
ouverte.
Hamd@@
oré@@
ât
monte
l’Emprunteur
choix.
réactive
peuvent,
revêtue
².
Recher@@
signalée
m3,
l’ingénieur
cos@@
portante
Paiement
d’aluminium
iteur
ports,
intrins@@
entiels
concepteur
évaluées
approuve
l’Afrique
cuisine,
monét@@
entrent
trie
Série
introduite
Territoire
défici@@
clients,
ennent
feldspath@@
Comparaison
mémor@@
d’inspection
éduc@@
4464-RAC-XX-@@
directes
adressées
bâtis
opportun@@
IFR@@
destructifs
limin@@
Respect
dessin@@
ft@@
inspection,
noté
divergence
l'appareillage
ville,
ée.@@
endommagement
l’extérieur,
structural
l-@@
erz@@
objet,
marbre,
points.
pratique,
jakieś
silencieux
thé@@
eries,
post
géom@@
mari@@
dition
angulaire
photos
gomme
Pétro@@
méli@@
rinçage
cendie
cuiv@@
déco@@
lag@@
d’Œuv@@
caux
d’assemblage
etage,
rechange,
gon@@
reprend
usinage
d’affichage
ique)
reçoivent
minéralisations
tamp@@
plus.
potable,
tas
passager
d’apport
rechange.
convoyeur
prononcé
vingt-quatre
règlementation
pourtour
gagn@@
séparée
porteuses
machine,
consom@@
entrepreneur.
rier
contestation
ons@@
d’exécutions
contacteurs
précipit@@
erron@@
endu
financer
façage
existante,
Intern@@
rechang@@
inchang@@
Cad@@
indirecte
satu@@
enèse
l’essenti@@
dol@@
piliers
pulvérisation
utilités
habilitée
linéaires
rayonnement
grade
dito
l'initiative
surveillance.
tra-@@
itér@@
remorqueurs
tant@@
périence
vite
technicien
contradictoirement.
à:
dow@@
d'isolation
VIS
lissage
encadr@@
fonctionnements
propres.
suspendus
tonnes/@@
journaliers
gel@@
spati@@
joue
ten
illustre
implicitement
stique
s’entendent
hydraulique.
disciplin@@
vérifiées
domestiques
lèvement
décè@@
on-@@
paramétrage
importer
mouv@@
donn¨¦es
réalisés.
fournissent
possèdent
terrestres
dem
max.
intéressé
élémentaires
fabriquer
préconisées
andi@@
d’arbre
membr@@
touris@@
ÉS
effici@@
honoraires
entielle
d’ailleurs
réforme
spontan@@
maréc@@
est.
gauch@@
poign@@
CONTRO@@
STR@@
kP@@
encl@@
préfabrication
expériences
parle
habituellement
soutèn@@
num@@
intersti@@
ters
rangement
descriptifs
sèche,
Év@@
nommée
moyenne,
Évaluation
individus
voie,
l'érosion
développée
nie@@
illustré
remblais.
mobiliers
d’Assurance
dépann@@
partie.
défavorables
généralement,
récupérées
quarante
l’enveloppe
fractions
implication
Fix@@
posséder
diminué
prolongement
robust@@
échéant@@
ide.
immobilisations
contain@@
sig@@
nettoyés
tors@@
filtrage
rempla@@
sociales,
ties
épi
envoi
irrégularité
oblige
ser
offr@@
impression
moins@@
grandeurs
lomb@@
l’expression
rougeâtre
ficateurs
l’INGENI@@
écoles
instance
d'Exploitation
pilotes
sociaux,
Prés@@
périphéri@@
expression
courri@@
restreint
prévues,
ette@@
inspect@@
itul@@
Num@@
¨¦s
lez
ink@@
tó@@
rière
naturelle,
moyen,
gabon@@
fis
remorque
d’air,
→@@
différents.
cup@@
interrup@@
d)@@
secteur.
élévations
durée.
dit.
oscill@@
l'abri
débois@@
tuaire
justement
intervention.
vrais@@
page.
dures
couche,
parpa@@
écol@@
d‘un
divergences
séricitique
interconnecté
conventionn@@
pêcheurs
virgule
savoir-faire
igh@@
handicap@@
prime
plaine
jardin
secondes.
quartiers
még@@
contras@@
quadr@@
périodiques
TERI@@
restée
envelop@@
mm).
vibrations,
notari@@
gêne
l’ap@@
iront
évid@@
exemplaires,
cuir@@
embarquement
mc/h,
pourvues
dotation
suivantes.
suivant,
pute
respectifs
mélanges
principaux,
tefois
ék@@
d'am@@
sifs,
rappeler
cumulé
，@@
optimal
majeure.
panneaux,
privilégier
localis@@
zones.
nitr@@
infructu@@
nob@@
ons)
existantes.
fini.
unitaires,
ARTIC@@
ret
eux-mêmes
presse-@@
jets
rangées
ête,
donné,
d'exploitation.
nommés
tribunes
l'aspect
volcanique
ka
souder
perdre
l’humidité
déduit
peindre
incendies
organisation,
déléguer
magnét@@
l’apparition
réactivité
fournisseur,
oi
endommagés
rivières
purement
introduction
réqu@@
tirant
l'Ass@@
pièces.
exploités
ternes
fications.
significatif
normalisée
gravel@@
temporisation
procès@@
relâch@@
physico-@@
ers)
mineurs
interruptions
silice
utilisable
l'exig@@
accessoi@@
tivités
cuivre.
ou-
forêts
dépréciation
dallage
supplémentaires.
résumées
n’importe
n’aura
çu
traditionnelles
stades
s'assure
marketing
lire
onnée
cution
victime
d'extrémité
ga
reconnues
sites.
investigation
doc@@
euri@@
Revêt@@
éan@@
TIONN@@
extrac@@
alle
environnement,
ENTREPR@@
vul@@
m³@@
uis@@
muni@@
trang@@
rembour@@
spécific@@
unité,
RESE@@
remor@@
vront
phone
c/@@
conséqu@@
licenci@@
tém@@
PRESTA@@
demeur@@
masti@@
amine
Kg/m@@
atin@@
GÉ@@
persion
Fourn@@
espa@@
ût
AUTORITE
écess@@
plint@@
évèn@@
ao@@
FOURNISS@@
scienti@@
statis@@
discipl@@
sauve@@
《@@
Câ@@
grou@@
FS
cordance
tass@@
énag@@
enqu@@
bilités
complex@@
dimin@@
◇@@
refu@@
entrepos@@
Dur@@
ends
frot@@
gles
manœuv@@
obil@@
Explo@@
curr@@
efflu@@
Esti@@
aisse
contradi@@
fermetu@@
ERCI@@
Dim@@
Princi@@
traver@@
paramè@@
vidé@@
prév@@
ESTI@@
CHETEUR
boulon@@
adj@@
pié@@
acci@@
préci@@
Sous-trait@@
eut
treu@@
CONTRACTU@@
suff@@
clai@@
ETE
cadr@@
Docu@@
secon@@
TAL
êtres
pement
vra
trales
clap@@
pec@@
CRI@@
OUVRAGE,
écri@@
piv@@
déri@@
irrig@@
décen@@
résol@@
incid@@
anç@@
ith@@
propor@@
□@@
doll@@
inflam@@
border@@
tront
QUALI@@
Ta@@
attest@@
contrôle-@@
cat
Non@@
¨@@
rédig@@
ceux@@
#
menuis@@
suj@@
ules
claus@@
----@@
pôt
□
au-@@
rouss@@
Détermin@@
VII.@@
Conak@@
outi@@
égét@@
Régu@@
d’exécu@@
soix@@
Procé@@
gres@@
cend@@
aus@@
HD
obstac@@
tap@@
ôt
capa@@
+/@@
accu@@
ps,
wit@@
aitre
Hau@@
ell
combus@@
caractér@@
ã@@
immobi@@
standar@@
éclairc@@
NÉ@@
™
l’habitac@@
onc@@
Sén@@
lor@@
hui@@
cul
Plu@@
ANNEX@@
60)
coupe-@@
exion
nanti@@
Civi@@
obstant
es-ci
vêt@@
express@@
|@@
taire
ergé@@
érir
≥@@
prê@@
Commun@@
boî@@
calori@@
stéril@@
Transform@@
rep@@
Crit@@
py@@
MATERI@@
élu@@
campagn@@
supers@@
XXXX@@
Opér@@
ismes
caoutchou@@
drait
elon
D:@@
finement
Sec@@
délivr@@
gramme
|
celle-@@
habilit@@
histori@@
optim@@
cède
auli@@
ats-@@
ssement
facult@@
Péri@@
GLA@@
erv@@
bris@@
resp@@
fis@@
céram@@
empê@@
onnai@@
accompa@@
ension
ophysi@@
régal@@
récap@@
navig@@
remet@@
nent
périph@@
Abs@@
obre
concl@@
pagne
volu@@
m-@@
Environn@@
intér@@
avancement
oin
----------------@@
maladi@@
℃@@
clam@@
tecton@@
architectu@@
Sant@@
brass@@
Interr@@
URI@@
s-verb@@
sis@@
-value
écrou@@
peti@@
qua@@
NIG@@
van@@
contex@@
imm@@
forê@@
EMO@@
rouge@@
Identi@@
Poli@@
revê@@
cip@@
dirige@@
calci@@
pétro@@
Sp@@
,,,,,,,,@@
Au-@@
organi@@
TAL@@
rel
attes@@
œu@@
ign
Ω@@
Str@@
nuis@@
conjoint@@
chette
emple
DR-C-@@
ino@@
arrê@@
nam@@
Quanti@@
s’él@@
elle-@@
Décl@@
Livr@@
gardienn@@
CHET@@
Cin@@
l'Entrepren@@
plor@@
enci@@
Vc@@
TECH@@
plati@@
tubul@@
ORT
sédi@@
réser@@
rétabl@@
évol@@
coc@@
chn@@
ime
hylène
futu@@
fissur@@
seg@@
agers
démar@@
berg@@
ock
q
UV@@
dio@@
Librev@@
commu@@
âts
σ@@
géri@@
dégrill@@
NATION@@
》@@
aler@@
cepti@@
INGENI@@
Sy@@
importe
WA)
MODI@@
sement
enseignement
oto
command@@
Ü
Œuv@@
étique
placements
honor@@
Chap@@
dereau
toil@@
culation
environnement.
jections
-à-@@
velop@@
ù@@
passera
Ether@@
CNPIPEL@@
ctu@@
roulements
goul@@
Pom@@
partici@@
victi@@
unité@@
malfaç@@
érog@@
conom@@
Raccor@@
écras@@
patrim@@
tremp@@
Etanch@@
registr@@
atte@@
manag@@
dolom@@
-vous
échafau@@
intitul@@
4464-RA@@
Investisseur
sim@@
adjudi@@
hist@@
dies@@
Alim@@
Sour@@
Récep@@
pneu@@
FICA@@
(Antea_@@
fus@@
Ü@@
pare@@
teries,
garantiss@@
agné@@
ense@@
boll@@
Hy@@
tariat
régim@@
labor@@
Est-@@
mult@@
cyl@@
plom@@
pron@@
ouvrage.
just@@
anom@@
Termin@@
récipi@@
OO@@
arge
phén@@
ń@@
ott@@
eten@@
fic
interrom@@
illis
uti@@
évap@@
^
RJ@@
dépoussiér@@
expi@@
SYST@@
sujé@@
struc@@
DPA@@
bénéfi@@
TRES
candi@@
confec@@
brise-@@
précédem@@
chin@@
traç@@
MEC@@
structions
judi@@
prononc@@
Etabl@@
frastructures
istence
Û@@
volution
hori@@
bust@@
olume
12/201@@
teries
sept@@
Bil@@
moell@@
Mauritan@@
civi@@
iveau
grap@@
vus
embo@@
désen@@
encement
MINIS@@
ENTREPRENEUR@@
Bâ@@
topo@@
choi@@
cost@@
parfait@@
SICO@@
Assemblée
isition
fermet@@
latéri@@
compréh@@
trém@@
appe
Pein@@
Stock@@
homogéné@@
vieill@@
Emprunteur
respon@@
DomR@@
technici@@
atiquement
ë
Institu@@
ui
liqué@@
Temp@@
brique
c'@@
wa
demn@@
âch@@
CHANTI@@
nies
alumini@@
emble
charb@@
batar@@
spection
trepren@@
litt@@
accus@@
c’@@
élastom@@
cessionnaire
FINAN@@
DOCUM@@
cotis@@
urgence
volontaire
ophy@@
lieu@@
paisseur
lead@@
renonc@@
◄@@
INSTA@@
var@@
abouti@@
gène
TULA@@
&D
sanc@@
hyl@@
quincaill@@
adjudicat@@
Indu@@
isten@@
DR-@@
¬@@
patch@@
cription
spont@@
poss@@
tronç@@
dation
ivi@@
diagno@@
aliné@@
esp@@
ceux-@@
³@@
™@@
schiste
carto@@
âce
aucu@@
ZON@@
ester
ds@@
CIM@@
abri@@
nomencl@@
protoc@@
consi@@
missionnaire
Arrê@@
\
omme
Exig@@
Certifi@@
alog@@
ems
MINES
Ï@@
exerci@@
QUANTI@@
D.T.@@
corrup@@
®@@
amè@@
migr@@
ony@@
franç@@
instant@@
promo@@
truction
ticité
Gouvern@@
，
profi@@
(fi@@
tt@@
toy@@
►L'@@
sin
stes
rê@@
bassement
Arch@@
_1.@@
echni@@
Qua@@
Banc@@
pagn@@
▪
avor@@
uss@@
·
Caract@@
ceinte
­
EME
pit@@
obal@@
ct
convéni@@
trap@@
OUVRA@@
lad@@
TRA
lai
Δ@@
difficul@@
ffi@@
ENER@@
turb@@
Nou@@
Net@@
estage
©
restri@@
trois@@
emplo@@
≤@@
alières
boi@@
Tolér@@
princi@@
∅@@
péti@@
pupi@@
flè@@
minist@@
incom@@
Hypothè@@
resse
bail@@
Bur@@
nis
Ş@@
endent
péd@@
Ech@@
l'Entre@@
φ@@
Envir@@
l’habit@@
poni@@
occu@@
ry
anches
clé@@
uro@@
dépréci@@
ament@@
amo@@
onci@@
Provis@@
dessu@@
na@@
ploy@@
POU@@
voirs
subst@@
Rés@@
ettre
ű@@
Cy@@
ival@@
tect@@
Mer@@
poussiér@@
turbation
polog@@
estion
commenc@@
edule
Rémun@@
stand@@
prégn@@
particul@@
pêch@@
station@@
asso@@
Situ@@
patrimo@@
BRI@@
EQU@@
¨¦ch@@
méth@@
ourn@@
appara@@
quad@@
Investi@@
auff@@
PEL@@
uvi@@
jac@@
CC-@@
Effor@@
£@@
repli@@
gâ@@
opin@@
ség@@
démonstr@@
Tamb@@
eci

ctement
Acte
FINI@@
plô@@
et/@@
tens@@
oux
principau@@
►
vrier
appui-@@
lubri@@
nir
MAI@@
expéri@@
VRA@@
lement@@
Ê@@
répert@@
Sc@@
perçu
ENTREPRENEUR
pouli@@
valuation
indivi@@
silicon@@
xe
câ@@
Béné@@
ustre
√@@
Ante@@
curren@@
ycl@@
cern@@
rép@@
¼
STRU@@
intemp@@
4000@@
ERTM@@
éman@@
ffici@@
Sensi@@
ermin@@
º@@
ENTREPRENEUR,
ergie
CAMER@@
moiti@@
cteur.
；
--------@@
fati@@
Kol@@
BHN@@
○@@
ź@@
oble
monocou@@
MECANI@@
Ameri@@
ù
compag@@
désenfum@@
est-à-@@
½
TECHNI@@
uation
SORA@@
silenci@@
DOCU@@
SAR@@
¤@@
ffér@@
INSTALLA@@
Tes@@
RK_@@
aissement
Monsi@@
possè@@
¨º@@
banani@@
eilli@@
nœu@@
armat@@
ante-cinq
dissip@@
dépl@@
longitu@@
Maj@@
aîne
Φ@@
PPORT
initiative
Dezi@@
―
signation
Est@@
～@@
adres@@
Dire@@
ples
REPR@@
by-@@
absor@@
Á@@
Hydr@@
manifes@@
nap@@
ï
agrap@@
emblée
Sensibil@@
tin
ECU@@
pétr@@
PROJ@@
Suiv@@
titution
bun@@
Démo@@
28)
propyl@@
Go@@
quasi@@
Travers@@
∅
oty@@
hérence
robin@@
CONSTRU@@
pass
œuvr@@
QUER@@
où@@
(24@@
PLI@@
Nettoy@@
polyét@@
CAMERO@@
ð
spit@@
Ş
inventori@@
wsz@@
Formul@@
tho@@
meill@@
renonci@@
Conform@@
’est
Pos@@
Ressour@@
docu@@
bron@@
osci@@
elop@@
quoti@@
GNE
suscepti@@
BAL
éci@@
urani@@
iff@@
mété@@
FIG.
argeur
transbor@@
désor@@
soc@@
Ham@@
adi
Extra@@
gment@@
lite
_LIN@@
confl@@
Mê@@
gestions
koz@@
porcel@@
achem@@
améri@@
onnel
‰@@
POSI@@
din
ondu@@
Interrup@@
ánlat@@
EXECU@@
preuv@@
ø
trésor@@
substr@@
géot@@
gê@@
'est
Assu@@
@
hydroxy@@
pendi@@
carre@@
OB@@
dat
échantill@@
enchement
écur@@
！@@
énagement
intel@@
Déclar@@
γ@@
manif@@
exut@@
contac@@
uré@@
Considér@@
notam@@
handi@@
‰
ission
impô@@
alar@@
auscul@@
felds@@
génieur
FOUR@@
f.@@
souf@@
partition
édict@@
investig@@
aleur
Compati@@
lition
Gren@@
avoc@@
Coff@@
ieś
º
anomal@@
péné@@
mc/@@
ril
indispens@@
û
；@@
approvisi@@
“
lanti@@
way
Dév@@
ficac@@
acomp@@
arges
haut-@@
agri@@
Recommand@@
Eur@@
Tot@@
Coeffici@@
TRANSP@@
quis
perspec@@
access@@
α
exter@@
「@@
currence
démant@@
pendicul@@
contrô@@
Ajou@@
oulement
chou@@
Coffr@@
ε@@
∆@@
crim@@
ﬁ@@
Din@@
résou@@
celui-@@
@@
catégor@@
taï@@
juri@@
64-@@
ú@@
épox@@
exhau@@
Ω
TATIF
‎@@
bation
certi@@
Conci@@
décr@@
Burk@@
ris
pulvér@@
Reten@@
SOUS-@@
yst@@
occa@@
Ⅲ@@
amorph@@
ENERG@@
auté
φ
Cot@@
révoc@@
LIVRA@@
Mur@@
ral@@
acous@@
◗
tor
imperf@@
quence
andage
Ë@@
accélé@@
Bâti@@
coupe@@
SCA@@
sionnement
Poi@@
acoun@@
Configur@@
itôt
Fen@@

ű
corre@@
2）@@
hip
magn@@
contradictoir@@
Labor@@
Chen@@
recher@@
16)
Ф
carb@@
DRE
cratique
néan@@
andis
ause
eaucoup
quarti@@
Consomm@@
glomér@@
arith@@
ardeau
Bam@@
Î@@
Caractéris@@
―@@
hier
（
peut-@@
culi@@
CTU@@
。
FONC@@
ä@@
¨¦es
CIMC-@@
GARANTI@@
d’As@@
hérap@@
frica@@
RESEAU@@
ministr@@
−
ø@@
£
hode
glom@@
pérateur
ARTI@@
oix
Compar@@
oivent
CHAPI@@
implicit@@
//@@
interpr@@
pacité
empre@@
Tian@@
ressement
À@@
DEUR
d’enf@@
¡¯@@
œ
d’Oeuv@@
Ress@@
SORAZ@@
scru@@
L’OUVRAGE@@
＝@@
provis@@
ûment
TECTION
tele@@
Néan@@
Ⅰ@@
impac@@
appliquent
abord
ryth@@
MES@@
corré@@
dissi@@
△@@
plates-@@
î
faci@@
asso
consid@@
AUTORI@@
œur
moins-@@
ellectu@@
ins-@@
gur@@
erch@@
précip@@
Ouvrage.
Surveill@@
Ż@@
fr¨¦@@
Mandat@@
fauts
Disjon@@
échap@@
Aus@@
wez@@
¢@@
agraphe
eci@@
−@@
`@@
EXERCI@@
Fabri@@
caract@@
endrier
chaî@@
électrom@@
l'Ingéni@@
tructure
Tabl@@
ú
Cepend@@
TianDa
partement
Maîtr@@
µ
sult@@
Rè@@
savoir-@@
Én@@
lm-@@
hect@@

DIR@@
itre
Sik@@
》
chot@@
@@
[
γ
ACCR@@
σ
Nouak@@
afau@@
baz@@
marchand@@
‘
Journ@@
pho@@
½@@
rom
obst@@
amètre
monoc@@
OUVRAGE@@
dig@@
Scénari@@
≠
LIN2_1.@@
auré@@
ition
KGLA@@
Blo@@
affai@@
≠@@
pror@@
Cert@@
techn@@
écret
horiz@@
Ф@@

avois@@
nér@@
ouvoir
lo
d'Œuv@@
damn@@
entret@@
ondr@@
。@@
prun@@
、@@
Ⅳ@@
uire
engage@@

Sond@@
æ
Aucu@@
Ouvrage,
ŒUV@@
paramé@@
＞@@
érence
SECURI@@
ψ
†@@
rectement
ership
auses
chac@@
ρ@@
llon@@
dienn@@
ignes
sat@@
NOR
Û
Confi@@
⑥@@
précéd@@
˚
,,@@
PIPEL@@
véni@@
Appro@@
INDUSTR@@
agog@@
ô
voltaï@@
-ci
◇
ezi@@
démon@@
trapézoï@@
ª@@
cipl@@
$)
＜@@
►L'unité@@
æ@@
tinér@@
INDU@@
supervisi@@
ç
-ST@@
ûts
Ğ@@
©@@
régularités
@@
inshas@@
intèg@@
ρ
№@@
otes
′@@
érozoï@@
ɸ@@
Ω@@
TianD@@
dor
①@@
@@
fav@@
Marr@@
clign@@
carapa@@
ableau
-Zin@@
Ï
compen@@
parat@@
sieurs
mosph@@
éro
pel
Résult@@
☐
η
Ó@@
prem@@
énér@@
pect
auf
④
Argi@@

remb@@
☞
GENI@@
prit
paragrap@@
désorm@@
ints
xim@@
ophas@@
portun@@
gure
stall@@
eting
traject@@
fras@@
Ⅱ@@
/DM@@
방@@
Ψ@@
Cherch@@
REPRES@@
Ù@@
λ@@
Ǿ
�@@
béné@@
Î
récé@@
Ө
￠@@
ogle
ŕ@@
phénom@@
ΐ@@
ℎ
pothè@@

@@
decin
λ
с@@
ń
@@
pulv@@
quator@@
carbu@@
⑤
@@
ouillement
glissi@@
aurit@@
@@
〇@@
sidér@@
Ω
Ч@@
〜@@
ENTREPREN@@
rovi@@
ò
т@@
ō@@
(Ante@@
л@@
@@
„
도@@
jard@@
RK@@
ascicule
Candi@@
chir@@
cernant
İ@@
İ
제
Ê
표@@
Resp@@
¾@@
64-RA@@
ACCROPO@@
privilég@@
준@@
．@@
FOURN@@
단@@
면@@
파@@
Ⅴ
∆
∑@@
trapé@@
pyl@@
ssin
③@@
☒
SCADA/DM@@
sout@@
anche,
deci@@
Ⅴ@@
hiers
acou@@
MAÎ@@
В@@
С@@
О
amètres
LIN2@@
éditerr@@
e-ci
Å@@
Chac@@
Á
(………………@@
@@
xivi@@
Í@@
‚
˚@@
¾
dule
✔
ê
ϕ@@
refroidis@@
▪@@
Φ
δ
bdomad@@
@@
Ù
Étu@@
ordination
érature
Ý
¥@@
Ś@@
κ
？
θ
récu@@
∙
attén@@
REP-@@
oun
Ⅷ
¢
auth@@
-à-vis
˜@@
π
But@@
ᵞ@@
②
surance
Ⅳ
émun@@
pala@@
ε
GEC@@
△
trième
CLIEN@@

09.00
✆
③
ầ
Þ
Ain@@
maurit@@
souterr@@
≈@@
CONTRACT@@
piss@@
ctor

Ç
⑥
←@@
outchou@@
Ɛ@@
Hydrocarbu@@
υ@@
multan@@
π@@
catég@@
Piè@@
débarr@@
Ⅲ
M-0@@
≈
sérici@@
Secré@@
emple@@
β
