{
  "<s>": 113402,
  "<pad>": 113401,
  "</s>": 113400,
  "<unk>": 113399,
  "的": 113392,
  "，": 79142,
  "。": 58827,
  "和": 31680,
  "在": 24305,
  "）": 20884,
  "（": 20554,
  "、": 19345,
  "：": 14705,
  "-": 14461,
  "或": 11944,
  "进行": 9313,
  "将": 8937,
  "中": 8748,
  "为": 8308,
  "；": 8264,
  "/": 7974,
  "承包商": 7643,
  "应": 7554,
  "是": 7183,
  "与": 7034,
  ".": 6745,
  "所有": 6285,
  "并": 5380,
  "其": 5331,
  "1": 5312,
  "工程": 5297,
  "对": 5078,
  "第": 4990,
  "根据": 4865,
  "规定": 4755,
  "设备": 4672,
  "了": 4666,
  "必须": 4664,
  "年": 4619,
  "上": 4561,
  "以及": 4521,
  "安装": 4411,
  "下": 4373,
  "由": 4238,
  "使用": 4219,
  "2": 4159,
  "不": 4158,
  "施工": 4146,
  "合同": 4133,
  "包括": 4075,
  "以": 4036,
  "情况": 4033,
  "该": 3940,
  "提供": 3901,
  "通过": 3662,
  "要求": 3657,
  "时": 3570,
  "所": 3494,
  "可以": 3443,
  "有": 3419,
  "到": 3401,
  "一个": 3386,
  "文件": 3348,
  "这些": 3341,
  "被": 3309,
  "业主": 3294,
  ")": 3245,
  "如果": 3222,
  "3": 3024,
  "项目": 3017,
  "”": 3016,
  "“": 3016,
  "相关": 3014,
  "混凝土": 2970,
  "…": 2953,
  "月": 2873,
  "任何": 2871,
  "材料": 2865,
  "内": 2832,
  "(": 2768,
  "条": 2705,
  "及": 2623,
  ",": 2611,
  "可": 2606,
  "技术": 2563,
  "部分": 2493,
  "系统": 2483,
  "后": 2482,
  "用于": 2407,
  "公司": 2345,
  "工作": 2323,
  "标准": 2297,
  "个": 2268,
  "需要": 2252,
  "以下": 2245,
  "都": 2171,
  "其他": 2156,
  "4": 2140,
  "可能": 2095,
  "试验": 2084,
  "或者": 2074,
  "区域": 2070,
  "日": 2029,
  "价格": 2013,
  "于": 2012,
  "研究": 2000,
  "之间": 1994,
  "按照": 1984,
  "本": 1978,
  "保护": 1939,
  "条件": 1923,
  "等": 1921,
  "确定": 1919,
  "m": 1915,
  "计划": 1907,
  "连接": 1894,
  "监理": 1890,
  "电缆": 1878,
  "条款": 1868,
  "5": 1858,
  "影响": 1846,
  "从": 1842,
  "控制": 1826,
  "需": 1814,
  "设计": 1802,
  "来": 1782,
  "至": 1748,
  "费用": 1748,
  "对于": 1737,
  "10": 1715,
  "向": 1709,
  "符合": 1689,
  "检查": 1671,
  "运行": 1665,
  "且": 1659,
  "而": 1654,
  "装置": 1653,
  "供应": 1650,
  "也": 1643,
  "考虑": 1638,
  "计算": 1638,
  "信息": 1614,
  "服务": 1586,
  "图": 1580,
  "必要": 1578,
  "保证": 1552,
  "此": 1545,
  "现场": 1509,
  "主要": 1509,
  "结构": 1507,
  "没有": 1489,
  "+": 1465,
  "每个": 1459,
  "则": 1459,
  "安全": 1452,
  "执行": 1448,
  "采用": 1443,
  "管理": 1407,
  "投标人": 1401,
  "确保": 1400,
  "范围": 1397,
  "用": 1396,
  "地": 1395,
  "测试": 1382,
  "方式": 1380,
  "要": 1376,
  "会": 1372,
  "位置": 1371,
  "设施": 1370,
  "说明": 1369,
  "实施": 1365,
  "我们": 1355,
  "6": 1352,
  "支付": 1341,
  "时间": 1340,
  "给": 1336,
  "C": 1325,
  "类型": 1317,
  "产品": 1310,
  "操作": 1310,
  "环境": 1301,
  "测量": 1300,
  "负责": 1299,
  "提交": 1293,
  "至少": 1290,
  "批准": 1281,
  "国家": 1262,
  "完成": 1262,
  "号": 1255,
  "固定": 1255,
  "人员": 1249,
  "处理": 1243,
  "产生": 1238,
  "方法": 1231,
  "=": 1224,
  "特别": 1213,
  "工程师": 1202,
  "不同": 1195,
  "机构": 1185,
  "关于": 1183,
  "道路": 1170,
  "应该": 1169,
  "线路": 1166,
  "尺寸": 1163,
  "这": 1160,
  "超过": 1153,
  "运输": 1153,
  "人": 1149,
  "适用": 1149,
  "以便": 1133,
  "有关": 1122,
  "表": 1120,
  "如": 1119,
  "基础": 1118,
  "获得": 1111,
  "期间": 1105,
  "数量": 1092,
  "报告": 1091,
  "前": 1089,
  "钢筋": 1084,
  "°": 1083,
  "具有": 1077,
  "图纸": 1073,
  "因此": 1071,
  "代表": 1069,
  "最大": 1062,
  "7": 1061,
  "管道": 1058,
  "已": 1058,
  "000": 1056,
  "地区": 1045,
  "通知": 1041,
  "新": 1041,
  "水": 1036,
  "质量": 1035,
  "分析": 1034,
  "特殊": 1030,
  "结果": 1026,
  "A": 1022,
  "包含": 1022,
  "能够": 1021,
  "活动": 1015,
  "20": 1011,
  "性": 1009,
  "表面": 1009,
  "供货": 1008,
  "选择": 1007,
  "并且": 1000,
  "两个": 997,
  "规范": 996,
  "当": 991,
  "公共": 989,
  "日期": 983,
  "米": 979,
  "数据": 978,
  "为了": 974,
  "证明": 970,
  "之前": 968,
  "未": 966,
  "措施": 965,
  "均": 963,
  "如下": 962,
  "程序": 960,
  "过程": 944,
  "生产": 944,
  "上述": 943,
  "不能": 943,
  "金额": 942,
  "12": 941,
  "8": 940,
  "阶段": 939,
  "区": 938,
  "建议": 928,
  "_": 925,
  "还": 924,
  "但": 916,
  "存在": 914,
  "15": 912,
  "方面": 911,
  "附件": 910,
  "评估": 909,
  "30": 903,
  "招标": 902,
  "修改": 898,
  "风险": 892,
  "不得": 889,
  "网络": 889,
  "点": 887,
  "其中": 884,
  "开始": 883,
  "临时": 882,
  "验收": 882,
  "处": 878,
  "位于": 875,
  "带": 869,
  "按": 866,
  "最终": 855,
  "方案": 851,
  "状态": 851,
  "允许": 849,
  "建筑": 843,
  "内部": 841,
  "单位": 839,
  "由于": 834,
  "型": 834,
  "须": 833,
  "作为": 828,
  "投标": 827,
  "企业": 821,
  "层": 820,
  "它": 820,
  "厚度": 819,
  "出现": 816,
  "工地": 814,
  "参考": 813,
  "mm": 811,
  "造成": 807,
  ":": 804,
  "协议": 804,
  "每": 799,
  "已经": 792,
  "经济": 789,
  "及其": 788,
  "配备": 783,
  "水平": 781,
  "电压": 780,
  "问题": 775,
  "天": 773,
  "涉及": 771,
  "限制": 770,
  "一般": 769,
  "提出": 762,
  "–": 762,
  "板": 761,
  "压力": 757,
  "维护": 756,
  "标书": 753,
  "这种": 751,
  "法律": 749,
  "发展": 749,
  "导致": 744,
  "增加": 741,
  "详细": 739,
  "决定": 735,
  "能": 734,
  "满足": 730,
  ";": 726,
  "线": 722,
  "实现": 721,
  "采取": 721,
  "达到": 720,
  "组成": 720,
  "直接": 717,
  "0": 715,
  "期限": 714,
  "正常": 713,
  "接受": 712,
  "50": 711,
  "高度": 709,
  "委员会": 709,
  "一份": 708,
  "地面": 705,
  "是否": 704,
  "值": 704,
  "9": 701,
  "距离": 699,
  "无": 696,
  "同时": 694,
  "之后": 690,
  "就": 689,
  "记录": 686,
  "车辆": 685,
  "内容": 684,
  "其它": 683,
  "客户": 683,
  "成本": 683,
  "定义": 683,
  "承担": 682,
  "》": 682,
  "附属": 682,
  "组织": 681,
  "《": 680,
  "使": 679,
  "现有": 677,
  "调整": 672,
  "温度": 670,
  "总": 670,
  "é": 670,
  "遵守": 669,
  "即": 668,
  "功能": 668,
  "支撑": 667,
  "外": 662,
  "避免": 662,
  "土壤": 662,
  "行政": 660,
  "相应": 659,
  "但是": 656,
  "机械": 656,
  "清单": 645,
  "方": 643,
  "—": 640,
  "长度": 639,
  "显示": 639,
  "各": 637,
  "发生": 636,
  "B": 632,
  "变压器": 630,
  "N": 630,
  "流量": 628,
  "100": 627,
  "站": 626,
  "指定": 626,
  "电力": 626,
  "建筑物": 625,
  "式": 622,
  "各种": 621,
  "一些": 621,
  "金属": 620,
  "设置": 619,
  "3@@": 619,
  "本合同": 616,
  "义务": 614,
  "外部": 612,
  "变化": 611,
  "间": 606,
  "全部": 606,
  "不会": 605,
  "高": 605,
  "高压": 602,
  "？": 602,
  "有效": 601,
  "建立": 601,
  "11": 600,
  "尤其": 597,
  "中心": 597,
  "D": 595,
  "框架": 594,
  "建造": 593,
  "整个": 590,
  "部件": 589,
  "一": 587,
  "应当": 584,
  "形式": 583,
  "土地": 579,
  "场地": 578,
  "P": 576,
  "这个": 575,
  "结束": 573,
  "相同": 573,
  "进入": 573,
  "直径": 571,
  "准备": 570,
  "社会": 570,
  "针对": 569,
  "自动": 568,
  "通道": 567,
  "他": 567,
  "x": 567,
  "分包商": 566,
  "性质": 565,
  "件": 563,
  "T": 560,
  "责任": 560,
  "段": 559,
  "需求": 558,
  "接地": 558,
  "同样": 557,
  "供应商": 557,
  "等级": 557,
  "法国": 553,
  "最小": 552,
  "特性": 550,
  "制定": 550,
  "构成": 549,
  "能力": 547,
  "方向": 545,
  "保持": 542,
  "授权": 542,
  "减少": 541,
  "信号": 541,
  "a": 541,
  "同意": 540,
  "权利": 539,
  "他们": 535,
  "平均": 535,
  "收到": 535,
  "4@@": 527,
  "除非": 527,
  "铺设": 526,
  "25": 522,
  "指示": 517,
  "确认": 517,
  "类": 516,
  "部门": 513,
  "补充": 513,
  "担保": 512,
  "签署": 512,
  "港口": 512,
  "E": 511,
  "良好": 511,
  "明确": 511,
  "开发": 509,
  "注意": 508,
  "水泥": 507,
  "缺陷": 507,
  "里": 507,
  "功率": 506,
  "认为": 502,
  "更": 500,
  "货物": 500,
  "40": 499,
  "沥青": 499,
  "故障": 498,
  "检测": 498,
  "重新": 496,
  "小时": 494,
  "14": 494,
  "出": 493,
  "资料": 489,
  "它们": 489,
  "级": 488,
  "量": 486,
  "目的": 485,
  "模板": 484,
  "建设": 484,
  "60": 484,
  "非": 481,
  "最": 481,
  "性能": 476,
  "工具": 475,
  "申请": 475,
  "编号": 474,
  "地方": 474,
  "特征": 473,
  "*": 472,
  "作用": 472,
  "配件": 471,
  "应力": 470,
  "许可": 470,
  "模式": 470,
  "2@@": 470,
  "5@@": 467,
  "描述": 467,
  "b": 466,
  "制造商": 465,
  "L": 465,
  "m3": 464,
  "约": 463,
  "此外": 463,
  "分配": 462,
  "码头": 461,
  "塔": 461,
  "16": 461,
  "F": 460,
  "当地": 459,
  "A@@": 458,
  "请": 457,
  "您": 457,
  "得到": 457,
  "投资": 455,
  "密封": 454,
  "门": 452,
  "制造": 452,
  "指": 451,
  "交付": 451,
  "P@@": 451,
  "24": 451,
  "因": 451,
  "实际": 451,
  "因为": 450,
  "％": 450,
  "自": 448,
  "所述": 447,
  "验证": 446,
  "垂直": 446,
  "机": 445,
  "T@@": 445,
  "完全": 444,
  "经": 442,
  "银行": 442,
  "法规": 441,
  "作业": 441,
  "发现": 441,
  "B@@": 441,
  "D@@": 440,
  "器": 439,
  "双方": 439,
  "培训": 438,
  "M@@": 437,
  "损失": 437,
  "运营": 437,
  "原因": 437,
  "现行": 435,
  "经过": 434,
  "规则": 434,
  "速度": 434,
  "s": 434,
  "开关": 433,
  "具体": 432,
  "电流": 432,
  "目标": 432,
  "储存": 431,
  "7@@": 431,
  "行为": 431,
  "属于": 428,
  "例如": 428,
  "维修": 428,
  "室": 427,
  "工业": 427,
  "模型": 427,
  "拆除": 427,
  "见": 426,
  "S@@": 425,
  "适当": 425,
  "多": 425,
  "•": 425,
  "强度": 423,
  "6@@": 423,
  "机组": 421,
  "我": 420,
  "付款": 418,
  "损坏": 417,
  "等于": 417,
  "V": 415,
  "带有": 414,
  "整体": 413,
  "移动": 413,
  "持续": 412,
  "防水": 411,
  "成员": 410,
  "地点": 410,
  "参数": 410,
  "表格": 409,
  "完整": 409,
  "排放": 408,
  "排水": 407,
  "S": 406,
  "报价": 406,
  "员工": 405,
  "启动": 405,
  "31": 404,
  "受": 404,
  "实验室": 404,
  "保留": 404,
  "13": 404,
  "递交": 403,
  "面积": 402,
  "参与": 402,
  "技术规范": 401,
  "18": 400,
  "物": 398,
  "电气": 397,
  "宽度": 397,
  "修建": 397,
  "标记": 396,
  "小于": 395,
  "法令": 395,
  "路面": 394,
  "重要": 393,
  "来自": 393,
  "管": 393,
  "深度": 392,
  "荷载": 392,
  "电源": 392,
  "只有": 391,
  "应用": 390,
  "事件": 390,
  "地下": 389,
  "导线": 389,
  "领域": 389,
  "这一": 389,
  "涂层": 388,
  "含": 387,
  "组件": 387,
  "发电机": 386,
  "压实": 386,
  "定位": 385,
  "R": 385,
  "然后": 384,
  "当局": 383,
  "照明": 383,
  "供电": 382,
  "交流": 382,
  "任务": 382,
  "办公室": 382,
  "法": 382,
  "调节": 381,
  "支架": 381,
  "给出": 381,
  "28": 380,
  "意见": 379,
  "标段": 379,
  "主": 379,
  "一部分": 377,
  "者": 377,
  "指出": 377,
  "h": 376,
  "变更": 376,
  "完工": 376,
  "零件": 374,
  "度": 374,
  "²": 374,
  "8@@": 374,
  "能源": 373,
  "相对": 373,
  "附近": 373,
  "额外": 372,
  "会议": 371,
  "低压": 370,
  "21": 370,
  "承诺": 370,
  "交通": 368,
  "棵": 368,
  "除了": 367,
  "焊接": 367,
  "期": 367,
  "F@@": 367,
  "很": 366,
  "足够": 366,
  "工程施工": 366,
  "健康": 366,
  "预计": 366,
  "最后": 365,
  "电网": 365,
  "E@@": 364,
  "清除": 363,
  "国际": 363,
  "N@@": 362,
  "形成": 362,
  "n": 361,
  "通用": 361,
  "书面": 361,
  "停止": 361,
  "布置": 360,
  "开采": 360,
  "构件": 360,
  "大": 360,
  "低": 359,
  "输电": 359,
  "泵": 357,
  "视为": 356,
  "桩": 356,
  "价值": 355,
  "以上": 354,
  "下列": 354,
  "比例": 354,
  "覆盖": 354,
  "好": 353,
  "kV": 353,
  "恢复": 352,
  "9@@": 352,
  "最低": 352,
  "回填": 351,
  "规划": 351,
  "之": 351,
  "负荷": 351,
  "01": 351,
  "起": 350,
  "除": 350,
  "无法": 349,
  "一种": 349,
  "G@@": 349,
  "支持": 348,
  "候选人": 348,
  "更新": 347,
  "接触": 347,
  "大于": 347,
  "居民": 347,
  "再": 347,
  "i": 346,
  "%": 346,
  "配置": 345,
  "名称": 345,
  "防止": 345,
  "连续": 344,
  "空气": 343,
  "引起": 343,
  "欧元": 343,
  "R@@": 343,
  "利用": 342,
  "有权": 342,
  "cm": 342,
  "元件": 342,
  "0@@": 341,
  "接头": 341,
  "低于": 341,
  "负责人": 341,
  "小": 340,
  "出口": 340,
  "假设": 340,
  "岩石": 339,
  "系数": 339,
  "通常": 339,
  "过": 339,
  "一次": 339,
  "道": 338,
  "履行": 338,
  "浇筑": 338,
  "网": 338,
  "放置": 337,
  "非常": 337,
  "共同": 336,
  "17": 336,
  "M": 335,
  "油": 334,
  "检验": 334,
  "修复": 334,
  "底部": 334,
  "绝缘": 333,
  "合格": 333,
  "一@@": 332,
  "体": 331,
  "单元": 330,
  "阀门": 330,
  "较": 330,
  "500": 328,
  "平台": 328,
  "混合": 328,
  "02": 327,
  "t": 327,
  "让": 327,
  "若": 326,
  "墙": 326,
  "某些": 326,
  "45": 326,
  "断路器": 326,
  "c": 326,
  "制作": 325,
  "K@@": 324,
  "条例": 324,
  "海关": 323,
  "L@@": 322,
  "长": 321,
  "I": 321,
  "不是": 321,
  "化": 320,
  "监督": 320,
  "因素": 320,
  "样品": 320,
  "介绍": 319,
  "立方米": 319,
  "涵盖": 319,
  "C@@": 319,
  "U": 318,
  "基本": 317,
  "钻孔": 317,
  "机关": 317,
  "不可": 316,
  "地质": 315,
  "面": 315,
  "一致": 315,
  "类似": 315,
  "空间": 314,
  "监控": 314,
  "200": 314,
  "一切": 313,
  "分": 313,
  "做": 313,
  "套管": 313,
  "商": 312,
  "资格": 312,
  "必需": 312,
  "拥有": 312,
  "频率": 312,
  "防护": 311,
  "d": 311,
  "19": 310,
  "下游": 310,
  "专业": 310,
  "基础设施": 310,
  "吨": 309,
  "22": 309,
  "受到": 308,
  "危险": 308,
  "事故": 307,
  "更换": 306,
  "节": 306,
  "工厂": 306,
  "80": 305,
  "H@@": 304,
  "辅助": 304,
  "1@@": 302,
  "调查": 302,
  "铜": 302,
  "污染": 301,
  "基于": 301,
  "否则": 301,
  "另": 300,
  "无论": 299,
  "变电站": 299,
  "生效": 299,
  "禁止": 298,
  "关系": 297,
  "座椅": 296,
  "所示": 296,
  "2015": 296,
  "表示": 295,
  "财务": 295,
  "次": 295,
  "采石场": 294,
  "台": 294,
  "来源": 294,
  "比": 293,
  "桥": 292,
  "授予": 292,
  "指令": 292,
  "接收": 292,
  "输入": 292,
  "细则": 292,
  "I@@": 291,
  "规格": 290,
  "编制": 290,
  "清洁": 289,
  "经营": 289,
  "玻璃": 288,
  "率": 288,
  "认证": 288,
  "只": 287,
  "合理": 286,
  "重量": 285,
  "单价": 285,
  "子": 284,
  "三个": 284,
  "损害": 284,
  "总额": 284,
  "阿尔及利亚": 284,
  "提到": 283,
  "部": 283,
  "入口": 283,
  "投标书": 283,
  "转让": 282,
  "收集": 282,
  "稳定性": 282,
  "清理": 282,
  "孔": 282,
  "公路": 282,
  "事先": 282,
  "页": 281,
  "配有": 281,
  "组": 280,
  "km": 280,
  "业务": 280,
  "存放": 280,
  "通风": 280,
  "卫生": 279,
  "应为": 279,
  "镀锌": 279,
  "市场": 279,
  "医疗": 278,
  "独立": 278,
  "e": 278,
  "水@@": 278,
  "从而": 278,
  "货币": 278,
  "资源": 277,
  "欧洲": 277,
  "对应": 277,
  "持有人": 276,
  "证书": 276,
  "分布": 276,
  "螺栓": 276,
  "然而": 276,
  "输出": 275,
  "水位": 275,
  "数值": 274,
  "电池": 274,
  "10@@": 274,
  "书": 273,
  "V@@": 273,
  "料": 273,
  "机器": 273,
  "力": 273,
  "审批": 272,
  "第三方": 272,
  "期限内": 272,
  "仅": 271,
  "不@@": 271,
  "】": 271,
  "延长": 271,
  "关闭": 271,
  "kg": 271,
  "中国": 271,
  "权力": 271,
  "保函": 271,
  "了解": 270,
  "经验": 270,
  "传输": 270,
  "财产": 270,
  "西非": 270,
  "【": 269,
  "工作人员": 269,
  "章": 269,
  "沉箱": 269,
  "系列": 269,
  "自然": 268,
  "解决": 268,
  "70": 267,
  "通信": 267,
  "场所": 267,
  "目前": 266,
  "商业": 266,
  "G": 266,
  "资产": 265,
  "拒绝": 265,
  "作出": 265,
  "箱": 265,
  "款": 264,
  "法郎": 264,
  "签订": 264,
  "利益": 264,
  "手册": 263,
  "口": 262,
  "监测": 262,
  "容量": 262,
  "解释": 261,
  "发电机组": 261,
  "告知": 261,
  "副本": 260,
  "体积": 260,
  "继续": 260,
  "站点": 260,
  "EN": 258,
  "附录": 258,
  "骨料": 258,
  "工艺": 257,
  "边缘": 257,
  "须知": 257,
  "中@@": 257,
  "植物": 257,
  "安置": 256,
  "O": 256,
  "\"": 256,
  "全面": 256,
  "U@@": 255,
  "型号": 255,
  "正确": 255,
  "两": 254,
  "那么": 254,
  "组装": 254,
  "保险": 253,
  "厚": 253,
  "钢": 253,
  "结算": 253,
  "声明": 252,
  "专用": 252,
  "地址": 252,
  "单": 252,
  "集装箱": 251,
  "变形": 251,
  "之日起": 251,
  "路": 251,
  "估算": 251,
  "一条": 250,
  "审查": 250,
  "手动": 250,
  "提高": 249,
  "项": 248,
  "股东": 248,
  "含有": 248,
  "多个": 248,
  "03": 246,
  "错误": 246,
  "保证金": 246,
  "循环": 246,
  "时候": 246,
  "正式": 245,
  "开展": 244,
  "特定": 244,
  "纵向": 244,
  "软件": 244,
  "负载": 244,
  "城市": 244,
  "分别": 243,
  "比较": 243,
  "实验": 243,
  "个人": 242,
  "噪音": 242,
  "厂房": 242,
  "90": 242,
  "g": 242,
  "立即": 242,
  "着": 242,
  "签字": 241,
  "模块": 241,
  "协调": 241,
  "原则": 240,
  "开工": 240,
  "杆": 240,
  "轴": 239,
  "上@@": 239,
  "买方": 239,
  "回收": 239,
  "热": 239,
  "自己": 239,
  "合同规定": 238,
  "尽可能": 238,
  "H": 238,
  "程度": 237,
  "填充": 237,
  "政府": 237,
  "23": 237,
  "2016": 237,
  "标志": 237,
  "分钟": 237,
  "300": 236,
  "发包": 236,
  "电路": 236,
  "400": 235,
  "参见": 235,
  "Z@@": 235,
  "最高": 235,
  "块": 234,
  "含量": 234,
  "备用": 234,
  "采购": 234,
  "厘米": 233,
  "处于": 233,
  "占": 233,
  "监管": 233,
  "各个": 233,
  "决议": 232,
  "数": 232,
  "铁路": 232,
  "资质": 232,
  "额定": 232,
  "成分": 231,
  "150": 231,
  "存储": 231,
  "总体": 231,
  "得出": 230,
  "识别": 230,
  "降低": 230,
  "·": 230,
  "CEI": 230,
  "附加": 229,
  "增长": 229,
  "无@@": 229,
  "补偿": 229,
  "2018": 229,
  "X": 229,
  "除外": 228,
  "地形": 228,
  "l": 228,
  "工程量": 228,
  "发出": 227,
  "分类": 227,
  "气体": 227,
  ">": 227,
  "~": 227,
  "轨道": 227,
  "集团": 227,
  "终止": 227,
  "<": 227,
  "价": 227,
  "理论": 226,
  "O@@": 226,
  "防": 226,
  "单独": 226,
  "稳定": 226,
  "长期": 225,
  "行动": 225,
  "取得": 225,
  "周围": 225,
  "赔偿": 225,
  "特点": 224,
  "振动": 224,
  "o": 224,
  "绝缘子": 224,
  "观察": 224,
  "井": 223,
  "挖方": 223,
  "1.5": 223,
  "潜在": 223,
  "隔离": 223,
  "2010": 223,
  "密度": 222,
  "截面": 222,
  "发送": 222,
  "普通": 222,
  "做出": 222,
  "账户": 221,
  "这样": 221,
  "用户": 221,
  "一定": 221,
  "本地": 220,
  "细节": 220,
  "横向": 220,
  "平面图": 220,
  "大@@": 219,
  "诊断": 219,
  "数字": 218,
  "基坑": 218,
  "年度": 218,
  "相": 218,
  "模拟": 218,
  "竣工": 218,
  "未来": 218,
  "物质": 217,
  "毫米": 217,
  "直到": 217,
  "颜色": 216,
  "河": 216,
  "成为": 215,
  "公里": 215,
  "股份": 215,
  "资金": 215,
  "合适": 215,
  "款项": 214,
  "政策": 214,
  "1000": 214,
  "状况": 214,
  "总结": 213,
  "提取": 213,
  "加工": 213,
  "内@@": 213,
  "待": 213,
  "可@@": 212,
  "底座": 212,
  "风": 212,
  "车间": 212,
  "地基": 211,
  "回路": 211,
  "0.@@": 211,
  "严重": 211,
  "上游": 210,
  "车": 210,
  "x@@": 210,
  "收入": 210,
  "只能": 210,
  "石油": 209,
  "船舶": 209,
  "具备": 209,
  "饮用水": 209,
  "干扰": 208,
  "大型": 208,
  "水电站": 208,
  "行业": 208,
  "气候": 208,
  "承受": 208,
  "注明": 208,
  "26": 208,
  "曲线": 208,
  "列出": 207,
  "微型": 207,
  "同一": 207,
  "天然": 207,
  "27": 207,
  "依据": 207,
  "预付款": 207,
  "三": 206,
  "槽": 206,
  "仓库": 206,
  "改变": 206,
  "35": 206,
  "旨在": 206,
  "柱": 205,
  "平面": 205,
  "认可": 205,
  "格式": 205,
  "下@@": 204,
  "不锈钢": 204,
  "指数": 204,
  "当前": 204,
  "之外": 204,
  "进口": 204,
  "如何": 204,
  "快速": 203,
  "排水沟": 203,
  "3.1": 203,
  "单@@": 203,
  "预制": 203,
  "合作": 202,
  "定期": 202,
  "构造物": 202,
  "种植": 201,
  "所用": 201,
  "签约": 201,
  "疏浚": 201,
  "填写": 200,
  "土": 200,
  "2017": 200,
  "c@@": 200,
  "头": 200,
  "接口": 199,
  "锚固": 199,
  "金融机构": 199,
  "角度": 198,
  "供水": 198,
  "另外": 198,
  "调试": 198,
  "油漆": 198,
  "剖面图": 198,
  "构筑物": 198,
  "火灾": 198,
  "修订": 198,
  "推荐": 198,
  "协会": 197,
  "位": 197,
  "同": 197,
  "电站": 197,
  "LIN": 197,
  "加固": 196,
  "顶部": 196,
  "优先": 196,
  "砂浆": 196,
  "2.1": 196,
  "永久": 196,
  "W": 196,
  "液压": 196,
  "多@@": 196,
  "高@@": 196,
  "截止": 195,
  "资本": 195,
  "遵循": 195,
  "中间": 195,
  "65": 195,
  "应由": 195,
  "2000": 195,
  "注册": 194,
  "税": 194,
  "盆地": 194,
  "标高": 194,
  "00": 194,
  "人口": 194,
  "电话": 194,
  "路线": 194,
  "订约": 193,
  "令": 193,
  "树": 193,
  "样本": 193,
  "不足": 193,
  "光纤": 193,
  "大量": 193,
  "法语": 193,
  "相符": 193,
  "下面": 192,
  "树木": 192,
  "32": 192,
  "±": 192,
  "m2": 192,
  "一台": 191,
  "明显": 191,
  "预先": 191,
  "地层": 191,
  "应对": 191,
  "流": 191,
  "仍然": 191,
  "拆卸": 190,
  "斜坡": 190,
  "§": 190,
  "运动": 189,
  "电": 189,
  "29": 189,
  "促进": 189,
  "周期": 189,
  "继电器": 188,
  "把": 188,
  "公式": 188,
  "持有": 188,
  "或@@": 188,
  "提前": 188,
  "场": 187,
  "一层": 187,
  "一旦": 187,
  "一起": 187,
  "W@@": 187,
  "指明": 186,
  "开挖": 186,
  "2014": 186,
  "直至": 186,
  "用途": 186,
  "’": 186,
  "房间": 186,
  "改善": 186,
  "20@@": 185,
  "预留": 185,
  "战略": 185,
  "桥梁": 185,
  "制成": 185,
  "卡": 185,
  "地震": 185,
  "可用": 185,
  "此类": 184,
  "钻探": 184,
  "尼日尔": 184,
  "室内": 184,
  "咨询": 184,
  "后者": 184,
  "另有": 184,
  "示意图": 184,
  "涂料": 184,
  "级别": 183,
  "平衡": 183,
  "无需": 183,
  "以外": 183,
  "成": 183,
  "间接": 183,
  "初步": 183,
  "一方": 183,
  "下降": 183,
  "载荷": 182,
  "接线": 182,
  "破坏": 182,
  "配电": 182,
  "购买": 182,
  "我方": 182,
  "许可证": 181,
  "有效期": 181,
  "装配": 181,
  "填方": 181,
  "33": 181,
  "运营商": 181,
  "支出": 181,
  "费": 180,
  "实体": 180,
  "3.2": 180,
  "2.2": 180,
  "05": 180,
  "争议": 180,
  "来说": 179,
  "勘探": 179,
  "电线": 179,
  "收益": 179,
  "税费": 179,
  "打开": 179,
  "工人": 179,
  "跟踪": 179,
  "参照": 179,
  "每年": 179,
  "土方工程": 179,
  "转移": 178,
  "几个": 178,
  "起重机": 178,
  "p@@": 178,
  "远程": 178,
  "集中": 178,
  "1.3": 178,
  "相比": 178,
  "应@@": 178,
  "元素": 177,
  "说明书": 177,
  "侵蚀": 177,
  "融资": 177,
  "自由": 177,
  "水流": 177,
  "保障": 176,
  "10%": 176,
  "农业": 176,
  "项目经理": 176,
  "公差": 176,
  "4.1": 176,
  "坡度": 176,
  "热@@": 175,
  "你": 175,
  "初始": 175,
  "t@@": 175,
  "传播": 175,
  "外@@": 175,
  "套": 175,
  "端子": 175,
  "有@@": 175,
  "解决方案": 175,
  "传感器": 174,
  "砾石": 174,
  "电阻": 174,
  "主题": 174,
  "发动机": 174,
  "X@@": 174,
  "承包": 174,
  "取决于": 174,
  "一样": 174,
  "清洗": 174,
  "标": 173,
  "s@@": 173,
  "石": 173,
  "14@@": 173,
  "电子": 173,
  "形状": 173,
  "销售": 173,
  "轴承": 173,
  "估计": 173,
  "表现": 173,
  "废物": 173,
  "上部": 173,
  "表明": 173,
  "消耗": 173,
  "...": 172,
  "一项": 172,
  "添加": 172,
  "5%": 172,
  "组合": 172,
  "砂岩": 172,
  "局部": 172,
  "2.5": 171,
  "接缝": 171,
  "植被": 171,
  "这是": 171,
  "剖面": 171,
  "施工方": 171,
  "省": 170,
  "极限": 170,
  "地@@": 170,
  "00@@": 170,
  "间距": 170,
  "加强": 169,
  "m@@": 169,
  "250": 169,
  "通行": 169,
  "撤销": 169,
  "或是": 169,
  "联系": 169,
  "而且": 169,
  "平方米": 169,
  "侧": 169,
  "0.5": 169,
  "电@@": 169,
  "生活": 169,
  "访问": 168,
  "120": 168,
  "反应": 168,
  "组成部分": 168,
  "钢板": 168,
  "安排": 168,
  "提议": 168,
  "份": 168,
  "河流": 168,
  "●": 168,
  "大约": 168,
  "市": 168,
  "供": 168,
  "制度": 168,
  "III": 167,
  "委托": 167,
  "提及": 167,
  "高于": 167,
  "取": 167,
  "预测": 167,
  "石笼": 167,
  "唯一": 167,
  "命令": 167,
  "类别": 167,
  "请求": 167,
  "K": 167,
  "60@@": 167,
  "碎石": 167,
  "2008": 167,
  "³": 167,
  "在于": 167,
  "矿业": 166,
  "仍": 166,
  "才": 166,
  "2020": 166,
  "每次": 166,
  "为此": 166,
  "承包人": 166,
  "获取": 166,
  "仪器": 166,
  "正在": 165,
  "75": 165,
  "美元": 165,
  "名": 165,
  "等等": 165,
  "替换": 165,
  "12@@": 165,
  "构造": 165,
  "发票": 165,
  "版本": 165,
  "使得": 165,
  "梁": 165,
  "章节": 164,
  "分@@": 164,
  "治疗": 164,
  "天线": 164,
  "测定": 164,
  "d@@": 163,
  "！": 163,
  "干燥": 163,
  "达成": 163,
  "压": 163,
  "消防": 162,
  "保护层": 162,
  "1.1": 162,
  "13@@": 162,
  "中断": 162,
  "36": 162,
  "名义": 162,
  "空调": 162,
  "装饰": 161,
  "雨水": 161,
  "品牌": 161,
  "轴线": 161,
  "私人": 160,
  "巴黎": 160,
  "1.2": 160,
  "输送": 160,
  "流动": 160,
  "2011": 160,
  "母线": 160,
  "路段": 160,
  "角": 160,
  "型材": 160,
  "可见": 160,
  "预期": 160,
  "还是": 160,
  "阀": 160,
  "自费": 159,
  "屏幕": 159,
  "桥面": 159,
  "带来": 159,
  "钴": 159,
  "矿石": 159,
  "董事会": 158,
  "卷": 158,
  "3.@@": 158,
  "仲裁": 158,
  "制": 158,
  "双": 158,
  "小@@": 158,
  "装载": 158,
  "同等": 158,
  "物流": 158,
  "才能": 158,
  "r": 158,
  "预防": 158,
  "现象": 157,
  "600": 157,
  "质": 157,
  "2013": 157,
  "卡车": 157,
  "包装": 156,
  "随着": 156,
  "特许权": 156,
  "团队": 156,
  "协商": 156,
  "任命": 156,
  "盘": 156,
  "综合": 156,
  "延期": 156,
  "保存": 156,
  "48": 155,
  "悬挂": 155,
  "到达": 155,
  "步骤": 155,
  "水泵": 155,
  "延伸": 155,
  "拉@@": 155,
  "国内": 155,
  "缝": 155,
  "要素": 154,
  "面板": 154,
  "重大": 154,
  "分包": 154,
  "面层": 154,
  "适合": 154,
  "1.@@": 154,
  "权": 154,
  "2009": 153,
  "06": 153,
  "黏土": 153,
  "b@@": 153,
  "宽": 153,
  "严格": 153,
  "订单": 153,
  "疾病": 153,
  "挖掘": 153,
  "两种": 152,
  "而言": 152,
  "消除": 152,
  "意外": 152,
  "即使": 152,
  "物理": 152,
  "物品": 152,
  "廊道": 152,
  "双@@": 152,
  "将会": 152,
  "切割": 152,
  "扣除": 152,
  "顾问": 151,
  "沉积物": 151,
  "柜": 151,
  "燃料": 151,
  "简单": 151,
  "舱室": 151,
  "红色": 151,
  "对@@": 151,
  "差异": 151,
  "更好": 151,
  "间隔": 150,
  "采矿": 150,
  "探测": 150,
  "转换": 150,
  "白色": 150,
  "室外": 150,
  "申报": 149,
  "投入": 149,
  "顺序": 149,
  "倾斜": 149,
  "2007": 149,
  "种": 149,
  "岩土": 149,
  "代理人": 149,
  "导体": 149,
  "审核": 149,
  "以@@": 149,
  "前提": 149,
  "专家": 149,
  "三@@": 149,
  "形": 149,
  "缔约": 148,
  "矿床": 148,
  "Q": 148,
  "垃圾": 148,
  "预防措施": 148,
  "给予": 148,
  "先生": 148,
  "索赔": 148,
  "在内": 148,
  "抗": 148,
  "ml": 148,
  "波": 148,
  "►": 148,
  "什么": 147,
  "上方": 147,
  "其@@": 147,
  "尽管": 147,
  "处罚": 147,
  "两@@": 147,
  "腐蚀": 147,
  "行": 147,
  "f": 147,
  "座": 146,
  "计": 146,
  "过滤": 146,
  "◄": 146,
  "地板": 146,
  "取样": 146,
  "代码": 146,
  "每@@": 146,
  "准确": 146,
  "关税": 146,
  "'": 145,
  "i@@": 145,
  "加@@": 145,
  "插座": 145,
  "主体": 145,
  "大小": 145,
  "得": 145,
  "边": 145,
  "灯": 144,
  "标识": 144,
  "短路": 144,
  "封闭": 144,
  "波浪": 144,
  "产量": 144,
  "各方": 144,
  "几内亚": 144,
  "履约": 144,
  "百分比": 143,
  "k@@": 143,
  "防火": 143,
  "从属": 143,
  "前@@": 143,
  "木": 143,
  "住房": 143,
  "合同条款": 143,
  "225": 143,
  "大会": 143,
  "PVC": 142,
  "局": 142,
  "用@@": 142,
  "警报": 142,
  "n@@": 142,
  "主管": 142,
  "解除": 142,
  "登记": 142,
  "泄漏": 142,
  "干": 142,
  "统一": 141,
  "均匀": 141,
  "秒": 141,
  "雇员": 141,
  "延迟": 141,
  "希望": 141,
  "最近": 141,
  "账目": 141,
  "动物": 141,
  "液体": 141,
  "相反": 141,
  "100@@": 140,
  "三相": 140,
  "中标人": 140,
  "架": 140,
  "J@@": 140,
  "不可抗力": 139,
  "加蓬": 139,
  "砂": 139,
  "就是": 139,
  "旋转": 139,
  "巴": 139,
  "甚至": 139,
  "×": 139,
  "大楼": 139,
  "e@@": 139,
  "分为": 139,
  "Z": 139,
  "西": 139,
  "岩": 139,
  "第一": 138,
  "论文": 138,
  "紧急": 138,
  "剂": 138,
  "万": 138,
  "04": 138,
  "去": 138,
  "15@@": 138,
  "l@@": 138,
  "背景": 138,
  "37": 138,
  "审计": 138,
  "最新": 138,
  "发布": 138,
  "管线": 138,
  "19@@": 138,
  "取消": 138,
  "55": 137,
  "最佳": 137,
  "天然气": 137,
  "连同": 137,
  "状": 137,
  "g@@": 137,
  "北部": 137,
  "2.@@": 137,
  "螺钉": 137,
  "法定": 136,
  "周边": 136,
  "搬运": 136,
  "更改": 136,
  "4.2": 136,
  "占用": 136,
  "校准": 136,
  "片": 135,
  "p": 135,
  "气": 135,
  "机场": 135,
  "各项": 135,
  "超出": 135,
  "天内": 135,
  "列": 135,
  "冷却": 135,
  "800": 135,
  "理由": 135,
  "自@@": 135,
  "可能性": 134,
  "底": 134,
  "裂缝": 134,
  "器材": 134,
  "按钮": 134,
  "3.5": 134,
  "锁定": 134,
  "各类": 134,
  "方便": 134,
  "电机": 134,
  "塔@@": 134,
  "尔": 133,
  "插入": 133,
  "及时": 133,
  "弯曲": 133,
  "产业": 133,
  "市镇": 133,
  "学": 133,
  "设立": 133,
  "宣布": 133,
  "断裂": 133,
  "充电": 133,
  "开": 133,
  "几何": 133,
  "洪水": 133,
  "检修": 133,
  "整治": 133,
  "平整": 133,
  "协助": 132,
  "钻井": 132,
  "这项": 132,
  "布局": 132,
  "油@@": 132,
  "施加": 132,
  "所以": 132,
  "开启": 132,
  "该项": 132,
  "下方": 132,
  "修正": 132,
  "每种": 132,
  "四@@": 132,
  "支柱": 132,
  "跟": 131,
  "异常": 131,
  "端": 131,
  "50@@": 131,
  "o@@": 131,
  "操作员": 131,
  "海@@": 131,
  "本@@": 131,
  "沙子": 130,
  "违反": 130,
  "专门": 130,
  "开口": 130,
  "18@@": 130,
  "剩余": 130,
  "进度": 130,
  "签名": 130,
  "只要": 129,
  "充分": 129,
  "和@@": 129,
  "干预": 129,
  "管网": 129,
  "乘客": 129,
  "签发": 129,
  "出@@": 129,
  "中央": 129,
  "书面形式": 128,
  "110": 128,
  "r@@": 128,
  "教育": 128,
  "机箱": 128,
  "予以": 128,
  "五": 128,
  "之一": 128,
  "沉积": 128,
  "排": 127,
  "保养": 127,
  "比如": 127,
  "带@@": 127,
  "Q@@": 127,
  "遇到": 127,
  "粘土": 127,
  "&": 127,
  "填料": 127,
  "大部分": 127,
  "红土": 127,
  "约束": 127,
  "Y@@": 127,
  "350": 127,
  "基层": 127,
  "化学": 127,
  "批次": 127,
  "列表": 127,
  "整合": 126,
  "土木工程": 126,
  "用水": 126,
  "终端": 126,
  "5.@@": 126,
  "替代": 126,
  "ii": 126,
  "全@@": 126,
  "人工": 126,
  "标明": 126,
  "立面": 126,
  "有限公司": 126,
  "天花板": 126,
  "交易": 126,
  "南部": 126,
  "001": 126,
  "2012": 126,
  "低@@": 126,
  "鉴于": 126,
  "理解": 125,
  "一套": 125,
  "涡轮机": 125,
  "厂": 125,
  "预": 125,
  "墙壁": 125,
  "时@@": 125,
  "加入": 125,
  "07": 125,
  "斯": 125,
  "下部": 125,
  "断面": 125,
  "压缩": 124,
  "一直": 124,
  "职业": 124,
  "从@@": 124,
  "车道": 124,
  "罚款": 124,
  "缔约方": 124,
  "施工现场": 124,
  "屋顶": 124,
  "颗粒": 124,
  "称为": 123,
  "卡@@": 123,
  "CCTP": 123,
  "还应": 123,
  "最好": 123,
  "架空": 123,
  "的话": 123,
  "相连": 123,
  "弹性": 123,
  "95": 123,
  "冲刷": 123,
  "创建": 123,
  "3.3": 123,
  "标签": 123,
  "34": 122,
  "容器": 122,
  "金": 122,
  "养护": 122,
  "h@@": 122,
  "盒": 122,
  "另一方面": 122,
  "外观": 122,
  "贝宁": 122,
  "路基": 122,
  "创新": 122,
  "MW": 122,
  "钢材": 121,
  "重": 121,
  "日常": 121,
  "装备": 121,
  "出具": 121,
  "指南": 121,
  "统计": 121,
  "加": 121,
  "er@@": 121,
  "港": 120,
  "2006": 120,
  "比@@": 120,
  "偿还": 120,
  "返回": 120,
  "缩写": 120,
  "员": 120,
  "℃": 120,
  "另一方": 120,
  "芯": 120,
  "纳入": 120,
  "扩展": 120,
  "皮肤": 120,
  "使用者": 120,
  "预应力": 120,
  "能量": 120,
  "克": 119,
  "楼梯": 119,
  "小型": 119,
  "联合体": 119,
  "20%": 119,
  "语言": 119,
  "08": 119,
  "拉": 119,
  "水文": 119,
  "总@@": 119,
  "牵引": 119,
  "工期": 119,
  "家庭": 119,
  "指导": 119,
  "堤坝": 119,
  "亿": 119,
  "防波堤": 119,
  "参加": 119,
  "包干": 118,
  "盖": 118,
  "配电盘": 118,
  "布": 118,
  "标的": 118,
  "220": 118,
  "常规": 118,
  "大学": 118,
  "刚果": 118,
  "特@@": 118,
  "国": 118,
  "新@@": 118,
  "布@@": 118,
  "随后": 118,
  "与其": 118,
  "机柜": 118,
  "控制系统": 118,
  "4.@@": 118,
  "ST": 118,
  "CCAP": 118,
  "a@@": 118,
  "误差": 117,
  "卸载": 117,
  "履行合同": 117,
  "鉴定": 117,
  "冲击": 117,
  "入": 117,
  "外壳": 117,
  "会计": 117,
  "借助": 117,
  "划分": 117,
  "过滤器": 117,
  "喀麦隆": 117,
  "贷款": 117,
  "闸门": 117,
  "图表": 117,
  "特": 117,
  "参与者": 116,
  "生物": 116,
  "每天": 116,
  "登机": 116,
  "铝": 116,
  "61": 116,
  "网格": 116,
  "污水": 116,
  "联合": 116,
  "北": 116,
  "颁布": 116,
  "转@@": 116,
  "开@@": 116,
  "f@@": 116,
  "时期": 116,
  "召开": 116,
  "应急": 115,
  "堆放": 115,
  "暂停": 115,
  "呈": 115,
  "维持": 115,
  "缺乏": 115,
  "垫层": 115,
  "2021": 115,
  "备件": 115,
  "A.3": 115,
  "效率": 115,
  "加热": 115,
  "中标": 115,
  "免除": 115,
  "核实": 115,
  "光": 115,
  "术语": 115,
  "门@@": 115,
  "概念": 114,
  "舍尔": 114,
  "重@@": 114,
  "光@@": 114,
  "优化": 114,
  "帮助": 114,
  "比例尺": 114,
  "检查和": 114,
  "一名": 114,
  "锁": 114,
  "手段": 114,
  "链": 114,
  "帧": 114,
  "澄清": 114,
  "税收": 114,
  "IEC": 114,
  "自行": 114,
  "上升": 114,
  "相邻": 114,
  "供给": 113,
  "ISO": 113,
  "天气": 113,
  "保护装置": 113,
  "占地": 113,
  "倍": 113,
  "列车": 113,
  "诉讼": 113,
  "流@@": 113,
  "受让人": 113,
  "所有权": 113,
  "静态": 113,
  "发包方": 113,
  "安全性": 113,
  "后@@": 113,
  "材质": 112,
  "系": 112,
  "流程": 112,
  "半": 112,
  "债权": 112,
  "5.2": 112,
  "38": 112,
  "仔细": 112,
  "法兰": 112,
  "公布": 112,
  "靠近": 112,
  "标称": 112,
  "排除": 112,
  "接近": 112,
  "便": 112,
  "困难": 112,
  "人@@": 112,
  "DN": 112,
  "到期": 112,
  "文化": 111,
  "贵方": 111,
  "56": 111,
  "地下水": 111,
  "25@@": 111,
  "后果": 111,
  "主@@": 111,
  "水利": 111,
  "该@@": 111,
  "关键": 111,
  "42": 111,
  "纠正": 111,
  "租赁": 111,
  "触点": 111,
  "穿过": 111,
  "达": 111,
  "断开": 111,
  "净": 111,
  "结合": 110,
  "还有": 110,
  "船": 110,
  "升": 110,
  "饰面": 110,
  "预算": 110,
  "信封": 110,
  "粘合剂": 110,
  "电线杆": 110,
  "未经": 110,
  "机@@": 110,
  "偏差": 109,
  "每月": 109,
  "深": 109,
  "混合物": 109,
  "成功": 109,
  "持续时间": 109,
  "矿": 109,
  "高程": 109,
  "门窗": 109,
  "两条": 109,
  "证实": 109,
  "防@@": 109,
  "服务器": 109,
  "Y": 109,
  "清楚": 109,
  "十@@": 108,
  "用来": 108,
  "沿": 108,
  "选定": 108,
  "进一步": 108,
  "电能": 108,
  "第二": 108,
  "塑料": 108,
  "废水": 108,
  "第一个": 108,
  "装": 108,
  "超@@": 108,
  "断层": 108,
  "债务": 108,
  "放弃": 108,
  "火山": 108,
  "下文": 108,
  "首先": 107,
  "5.1": 107,
  "压@@": 107,
  "隔板": 107,
  "两侧": 107,
  "流体": 107,
  "非@@": 107,
  "沿着": 107,
  "2019": 107,
  "an@@": 107,
  "机制": 107,
  "东": 107,
  "干@@": 107,
  "矿物": 107,
  "动态": 107,
  "特许": 107,
  "村庄": 107,
  "建筑师": 107,
  "石@@": 107,
  "成@@": 106,
  "发电站": 106,
  "部位": 106,
  "管@@": 106,
  "后续": 106,
  "连接器": 106,
  "非洲": 106,
  "边坡": 106,
  "过渡": 106,
  "夯实": 106,
  "税务": 106,
  "财务报表": 106,
  "2.3": 105,
  "自身": 105,
  "再次": 105,
  "法人": 105,
  "下述": 105,
  "发@@": 105,
  "一家": 105,
  "Hz": 105,
  "半径": 105,
  "矿化": 105,
  "MA@@": 105,
  "测绘": 105,
  "由此": 105,
  "运作": 105,
  "施工图": 105,
  "励磁": 105,
  "3.4": 105,
  "66": 105,
  "编码": 105,
  "进": 105,
  "约定": 105,
  "废料": 104,
  "限度": 104,
  "财政年度": 104,
  "灌木": 104,
  "池": 104,
  "所有者": 104,
  "平@@": 104,
  "出来": 104,
  "44": 104,
  "17@@": 104,
  "区分": 104,
  "住院": 104,
  "铺面": 103,
  "100%": 103,
  "文本": 103,
  "详见": 103,
  "手机": 103,
  "添加剂": 103,
  "工资": 103,
  "总计": 103,
  "集成": 103,
  "上面": 103,
  "水渠": 103,
  "人行道": 103,
  "木材": 103,
  "动力": 103,
  "≤": 103,
  "一致性": 103,
  "附上": 103,
  "受益人": 102,
  "司法": 102,
  "落实": 102,
  "效果": 102,
  "西@@": 102,
  "互联": 102,
  "报酬": 102,
  "兼容": 102,
  "覆盖层": 102,
  "v@@": 102,
  "详图": 102,
  "85": 102,
  "简称": 102,
  "精确": 102,
  "照片": 102,
  "为准": 102,
  "加以": 102,
  "y@@": 102,
  "物资": 101,
  "方@@": 101,
  "场址": 101,
  "主席": 101,
  "厕所": 101,
  "保护措施": 101,
  "各@@": 101,
  "近": 101,
  "涂漆": 101,
  "含水层": 101,
  "变质": 101,
  "11@@": 101,
  "砂砾": 101,
  "包": 101,
  "十年": 101,
  "绿色": 101,
  "改造": 101,
  "未@@": 101,
  "IP": 101,
  "唤醒": 101,
  "u@@": 101,
  "法律法规": 101,
  "经理": 101,
  "环": 101,
  "蒸汽": 101,
  "气@@": 101,
  "定": 100,
  "勘察": 100,
  "2002": 100,
  "\\": 100,
  "重建": 100,
  "39": 100,
  "桥墩": 100,
  "开放": 100,
  "......": 100,
  "身份": 100,
  "原始": 100,
  "铝制": 100,
  "下表": 100,
  "吊装": 100,
  "灰色": 100,
  "便于": 100,
  "为@@": 100,
  "基金": 100,
  "距": 99,
  "in@@": 99,
  "激活": 99,
  "应付": 99,
  "交货": 99,
  "卫生间": 99,
  "环境影响": 99,
  "事项": 99,
  "利润": 99,
  "乱石": 99,
  "发电厂": 99,
  "51": 99,
  "本条": 99,
  "54": 99,
  "房屋": 99,
  "数据库": 99,
  "同@@": 99,
  "效应": 99,
  "由@@": 99,
  "提案": 99,
  "..": 99,
  "呈现": 99,
  "之内": 98,
  "东部": 98,
  "规模": 98,
  "差": 98,
  "砖": 98,
  "一年": 98,
  "起草": 98,
  "标准化": 98,
  "CE@@": 98,
  "美国": 98,
  "停车": 98,
  "十": 98,
  "路堤": 98,
  "先前": 98,
  "当@@": 98,
  "文档": 98,
  "营业额": 98,
  "边界": 98,
  "根": 98,
  "SE@@": 97,
  "ar@@": 97,
  "原": 97,
  "液": 97,
  "80@@": 97,
  "原件": 97,
  "动": 97,
  "抗@@": 97,
  "随时": 97,
  "捕捞": 97,
  "y": 97,
  "计算机": 97,
  "利息": 97,
  "强制": 97,
  "不含税": 97,
  "en@@": 97,
  "CO@@": 97,
  "小组": 97,
  "满意": 97,
  "现金": 97,
  "公共汽车": 97,
  "备选": 96,
  "所@@": 96,
  "面@@": 96,
  "逆变器": 96,
  "制动": 96,
  "世界": 96,
  "98": 96,
  "包裹": 96,
  "损耗": 96,
  "海洋": 96,
  "法院": 96,
  "水轮机": 96,
  "仪表": 96,
  "变@@": 96,
  "天@@": 96,
  "分离": 96,
  "上文": 96,
  "粒度": 96,
  "滑动": 96,
  "渗透": 96,
  "桥台": 95,
  "编写": 95,
  "传统": 95,
  "简化": 95,
  "初步设计": 95,
  "交叉": 95,
  "布线": 95,
  "失败": 95,
  "学生": 95,
  "平行": 95,
  "暴露": 95,
  "光滑": 95,
  "4.3": 95,
  "复印件": 95,
  "XX": 95,
  "配": 95,
  "增值税": 95,
  "房": 95,
  "知识": 95,
  "在场": 95,
  "葡萄酒": 95,
  "分开": 95,
  "16@@": 95,
  "建模": 94,
  "事实上": 94,
  "探测器": 94,
  "入@@": 94,
  "翻译": 94,
  "此@@": 94,
  "指标": 94,
  "227": 94,
  "表中": 94,
  "流域": 94,
  "阿@@": 94,
  "沟槽": 94,
  "里面": 94,
  "拟定": 94,
  "桥架": 94,
  "永久性": 94,
  "表@@": 94,
  "潜力": 94,
  "比率": 94,
  "标注": 94,
  "延误": 94,
  "准备金": 94,
  "57": 94,
  "电动": 94,
  "基@@": 94,
  "行使": 94,
  "含@@": 94,
  "第一次": 94,
  "几乎": 93,
  "涌浪": 93,
  "70@@": 93,
  "选": 93,
  "西部": 93,
  "用作": 93,
  "峰值": 93,
  "Ø": 93,
  "未能": 93,
  "报警": 93,
  "84": 93,
  "同步": 93,
  "依照": 93,
  "末端": 93,
  "半@@": 93,
  "RAC": 93,
  "设有": 93,
  "排水管": 93,
  "后面": 93,
  "漆": 93,
  "52": 93,
  "竞标": 93,
  "相@@": 93,
  "拌合": 92,
  "合并": 92,
  "1%": 92,
  "2%": 92,
  "十五": 92,
  "条中": 92,
  "电气设备": 92,
  "叶片": 92,
  "矿区": 92,
  "2.4": 92,
  "切断": 92,
  "将要": 92,
  "竞争": 92,
  "较大": 92,
  "砌": 92,
  "品": 92,
  "底板": 92,
  "控制器": 92,
  "牌": 92,
  "修整": 92,
  "铁": 92,
  "危害": 92,
  "跨度": 92,
  "压缩机": 92,
  "CA@@": 92,
  "IN@@": 92,
  "不再": 92,
  "侧面": 92,
  "沿线": 92,
  "剂量": 92,
  "标题": 91,
  "导向": 91,
  "99": 91,
  "更加": 91,
  "总金额": 91,
  "消费": 91,
  "色": 91,
  "4464": 91,
  "本身": 91,
  "四个": 91,
  "搅拌": 91,
  "总价": 91,
  "业": 91,
  "三十": 91,
  "医院": 91,
  "版": 91,
  "拟": 91,
  "前面": 91,
  "保留意见": 91,
  "栅栏": 91,
  "摊铺": 91,
  "受损": 91,
  "财年": 91,
  "发行": 91,
  "交换": 91,
  "土工布": 91,
  "结论": 91,
  "居住": 91,
  "家": 91,
  "环境保护": 90,
  "嵌入": 90,
  "使用寿命": 90,
  "→": 90,
  "接入": 90,
  "寿命": 90,
  "2003": 90,
  "展示": 90,
  "图巴": 90,
  "调节器": 90,
  "商定": 90,
  "很大": 90,
  "砍伐": 90,
  "护栏": 90,
  "放电": 90,
  "有用": 90,
  "000@@": 90,
  "可靠": 90,
  "变": 90,
  "实际上": 90,
  "石块": 90,
  "事实": 90,
  "各自": 90,
  "每台": 90,
  "PSA": 90,
  "短": 90,
  "SCADA": 90,
  "125": 90,
  "酸": 89,
  "大坝": 89,
  "从事": 89,
  "以后": 89,
  "符合要求": 89,
  "重要性": 89,
  "第一@@": 89,
  "现在": 89,
  "联营": 89,
  "巴@@": 89,
  "厨房": 89,
  "盖板": 89,
  "端部": 89,
  "相似": 89,
  "不要": 89,
  "合法": 89,
  "段落": 89,
  "合作伙伴": 89,
  "过去": 89,
  "平均值": 89,
  "楼": 89,
  "kN": 89,
  "沟渠": 88,
  "单一": 88,
  "3%": 88,
  "公@@": 88,
  "塔架": 88,
  "违约": 88,
  "区段": 88,
  "绕组": 88,
  "II": 88,
  "浓度": 88,
  "4.4": 88,
  "坑": 88,
  "平": 88,
  "相当": 88,
  "地图": 88,
  "驾驶员": 88,
  "防冲": 88,
  "保修期": 88,
  "钥匙": 88,
  "正@@": 88,
  "传递": 88,
  "打@@": 88,
  "二": 88,
  "管子": 88,
  "圆形": 88,
  "湿度": 88,
  "风@@": 87,
  "之中": 87,
  "完善": 87,
  "分支": 87,
  "91": 87,
  "本次": 87,
  "成立": 87,
  "50%": 87,
  "代理": 87,
  "路径": 87,
  "交给": 87,
  "基底": 87,
  "额": 87,
  "灯具": 87,
  "钢@@": 87,
  "电厂": 87,
  "一个月": 87,
  "回": 87,
  "CPT": 87,
  "部长": 87,
  "毛里塔尼亚": 87,
  "ou@@": 87,
  "体系": 87,
  "适应": 87,
  "渔业": 87,
  "一点": 87,
  "49": 86,
  "合规": 86,
  "64": 86,
  "所在": 86,
  "露天": 86,
  "波@@": 86,
  "kW": 86,
  "官方": 86,
  "对此": 86,
  "几@@": 86,
  "沙@@": 86,
  "BH@@": 86,
  "突出": 86,
  "展开": 86,
  "马@@": 86,
  "投入使用": 86,
  "59": 86,
  "优势": 86,
  "汽车": 86,
  "接线盒": 86,
  "库": 86,
  "有助于": 86,
  "附有": 86,
  "46": 86,
  "知道": 86,
  "47": 86,
  "挡板": 86,
  "连接件": 86,
  "AP@@": 86,
  "2005": 86,
  "塞内加尔": 86,
  "膨胀": 86,
  "联合国": 86,
  "最初": 86,
  "mm2": 86,
  "设定": 86,
  "置于": 86,
  "股东大会": 86,
  "配比": 86,
  "提升": 86,
  "目录": 86,
  "线@@": 85,
  "有限": 85,
  "附": 85,
  "高速公路": 85,
  "修补": 85,
  "夹": 85,
  "外国": 85,
  "准则": 85,
  "挠度": 85,
  "63": 85,
  "80%": 85,
  "水电": 85,
  "保险丝": 85,
  "重型": 85,
  "砌体": 85,
  "这@@": 85,
  "è": 85,
  "某": 85,
  "公约": 85,
  "基座": 85,
  "调解": 85,
  "森林": 85,
  "住宅": 85,
  "ou": 85,
  "瓷砖": 85,
  "41": 85,
  "有所": 85,
  "v": 85,
  "锚定": 85,
  "不利": 84,
  "之上": 84,
  "壁": 84,
  "一座": 84,
  "二级": 84,
  "机械设备": 84,
  "商品": 84,
  "集体": 84,
  "水力": 84,
  "注": 84,
  "找到": 84,
  "中有": 84,
  "43": 84,
  "el@@": 84,
  "信贷": 84,
  "生": 84,
  "患者": 84,
  "碳氢化合物": 84,
  "尽快": 84,
  "品位": 84,
  "开标": 84,
  "研发": 84,
  "SO@@": 84,
  "装卸": 84,
  "水箱": 84,
  "似乎": 84,
  "新建": 84,
  "相当于": 84,
  "清算": 84,
  "接": 83,
  "引入": 83,
  "切换": 83,
  "敏感": 83,
  "顶": 83,
  "科": 83,
  "财政": 83,
  "那些": 83,
  "栏杆": 83,
  "使用费": 83,
  "160": 83,
  "以下内容": 83,
  "回@@": 83,
  "浸出": 83,
  "DE@@": 83,
  "蓄水池": 83,
  "考察": 83,
  "可靠性": 83,
  "30@@": 83,
  "看到": 83,
  "土方": 83,
  "u": 83,
  "节点": 82,
  "翻修": 82,
  "PA@@": 82,
  "强": 82,
  "干净": 82,
  "讨论": 82,
  "200@@": 82,
  "基": 82,
  "脚": 82,
  "争端": 82,
  "黑色": 82,
  "手续": 82,
  "地块": 82,
  "垫": 82,
  "第二@@": 82,
  "吊顶": 82,
  "人数": 82,
  "DN@@": 82,
  "CC": 82,
  "姓名": 82,
  "一系列": 82,
  "职责": 82,
  "40@@": 82,
  "支承": 82,
  "通知书": 82,
  "草案": 82,
  "创造": 82,
  "妨碍": 82,
  "许多": 82,
  "起来": 82,
  "6.@@": 82,
  "CNPIPELINE": 82,
  "原@@": 82,
  "公众": 81,
  "课程": 81,
  "过载": 81,
  "砌块": 81,
  "62": 81,
  "角@@": 81,
  "09": 81,
  "收@@": 81,
  "走廊": 81,
  "容纳": 81,
  "一方面": 81,
  "无论是": 81,
  "数据表": 81,
  "定@@": 81,
  "层@@": 81,
  "视频": 81,
  "不动产": 81,
  "螺母": 81,
  "装@@": 81,
  "可行性研究": 81,
  "中等": 81,
  "证券": 81,
  "排@@": 81,
  "位移": 81,
  "副": 81,
  "容易": 81,
  "紧固": 81,
  "液化": 81,
  "石材": 81,
  "免费": 81,
  "规章": 81,
  "SA@@": 81,
  "双层": 81,
  "说": 80,
  "领土": 80,
  "具": 80,
  "这里": 80,
  "公开": 80,
  "轮": 80,
  "条@@": 80,
  "始终": 80,
  "如@@": 80,
  "94": 80,
  "器械": 80,
  "地带": 80,
  "社区": 80,
  "船只": 80,
  "通讯": 80,
  "可用性": 80,
  "释放": 80,
  "底层": 80,
  "锅炉": 80,
  "进展": 80,
  "观测": 80,
  "安@@": 80,
  "RA@@": 80,
  "线圈": 80,
  "所在国": 80,
  "次数": 80,
  "1.4": 80,
  "≥": 80,
  "车@@": 79,
  "全球": 79,
  "办事处": 79,
  "停车场": 79,
  "石英": 79,
  "理事会": 79,
  "马里": 79,
  "al@@": 79,
  "源": 79,
  "左右": 79,
  "何种": 79,
  "出售": 79,
  "灰尘": 79,
  "两台": 79,
  "千伏": 79,
  "预定": 79,
  "应立即": 79,
  "IP@@": 79,
  "沟": 79,
  "长@@": 79,
  "木@@": 79,
  "掉": 79,
  "控制室": 79,
  "自动化": 79,
  "连续性": 79,
  "古": 79,
  "尔@@": 79,
  "金融": 79,
  "日@@": 79,
  "学校": 79,
  "生态": 79,
  "沙勒": 78,
  "限定": 78,
  "板材": 78,
  "COBAC": 78,
  "沉降": 78,
  "无效": 78,
  "30%": 78,
  "质保": 78,
  "障碍": 78,
  "螺纹": 78,
  "处置": 78,
  "7.@@": 78,
  "该国": 78,
  "护坡": 78,
  "像": 78,
  "EN@@": 78,
  "RK": 78,
  "缴纳": 78,
  "公共服务": 78,
  "删除": 78,
  "供应品": 78,
  "敷设": 78,
  "碎屑": 78,
  "群": 78,
  "南@@": 78,
  "正面": 78,
  "实时": 78,
  "间隙": 78,
  "多余": 78,
  "纤维": 78,
  "出于": 78,
  "动@@": 78,
  "自然人": 78,
  "手@@": 78,
  "抛石": 78,
  "认购": 78,
  "交@@": 77,
  "24@@": 77,
  "打算": 77,
  "图像": 77,
  "以来": 77,
  "1.00": 77,
  "撤回": 77,
  "耐@@": 77,
  "离开": 77,
  "逐渐": 77,
  "花岗岩": 77,
  "数@@": 77,
  "分散": 77,
  "工@@": 77,
  "罩": 77,
  "k": 77,
  "吗": 77,
  "汇率": 77,
  "2004": 77,
  "am@@": 77,
  "住": 77,
  "圆@@": 77,
  "经销商": 77,
  "时间表": 77,
  "景观": 77,
  "TC": 77,
  "驾驶": 77,
  "恰当": 77,
  "右侧": 77,
  "涂": 77,
  "库存": 77,
  "氧化": 77,
  "勘测": 77,
  "APD": 77,
  "管沟": 77,
  "纪要": 77,
  "网@@": 77,
  "71": 77,
  "焊缝": 76,
  "飞机": 76,
  "符合标准": 76,
  "素": 76,
  "起@@": 76,
  "体@@": 76,
  "跨": 76,
  "货运": 76,
  "密封件": 76,
  "名单": 76,
  "74": 76,
  "重复": 76,
  "泥土": 76,
  "深@@": 76,
  "风力": 76,
  "南": 76,
  "线性": 76,
  "趋势": 76,
  "合成": 76,
  "53": 76,
  "邮编": 76,
  "界面": 76,
  "二@@": 76,
  "阶": 76,
  "保密": 76,
  "作": 75,
  "阈值": 75,
  "代替": 75,
  "水平面": 75,
  "对比": 75,
  "NF": 75,
  "上诉": 75,
  "质量保证": 75,
  "冲突": 75,
  "商@@": 75,
  ".@@": 75,
  "水池": 75,
  "工": 75,
  "点@@": 75,
  "有效性": 75,
  "连接线": 75,
  "轻微": 75,
  "年@@": 75,
  "一半": 75,
  "屏蔽": 75,
  "除@@": 75,
  "操纵": 75,
  "图@@": 75,
  "人类": 75,
  "37@@": 75,
  "95%": 75,
  "广告": 75,
  "IS": 75,
  "组@@": 75,
  "典型": 75,
  "配合": 75,
  "利@@": 74,
  "记入": 74,
  "绩效": 74,
  "折叠": 74,
  "扭矩": 74,
  "详细信息": 74,
  "推@@": 74,
  "情景": 74,
  "海水": 74,
  "IC": 74,
  "过度": 74,
  "报价单": 74,
  "铺": 74,
  "网站": 74,
  "以前": 74,
  "垫圈": 74,
  "1m": 74,
  "日志": 74,
  "法@@": 74,
  "对象": 74,
  "历史": 74,
  "视图": 74,
  "雇主": 74,
  "沙": 74,
  "储罐": 74,
  "生产商": 74,
  "原理": 74,
  "相互": 74,
  "遵照": 74,
  "500@@": 74,
  "德": 74,
  "视": 74,
  "15%": 74,
  "回复": 74,
  "€": 74,
  "6%": 74,
  "墙面": 74,
  "工作日": 74,
  "LA@@": 73,
  "运送": 73,
  "明确指出": 73,
  "配送": 73,
  "物@@": 73,
  "进@@": 73,
  "修理": 73,
  "延米": 73,
  "传真": 73,
  "落差": 73,
  "公顷": 73,
  "围栏": 73,
  "劳动": 73,
  "折扣": 73,
  "团体": 73,
  "目的地": 73,
  "明确规定": 73,
  "受@@": 73,
  "注入": 73,
  "0.2": 73,
  "非银行": 73,
  "介于": 73,
  "任意": 73,
  "丢失": 73,
  "取代": 73,
  "外币": 73,
  "姆": 73,
  "颁发": 73,
  "水泥砂浆": 73,
  "J": 73,
  "去除": 73,
  "预@@": 73,
  "dB": 73,
  "制冷": 73,
  "铁塔": 73,
  "二次": 73,
  "67": 73,
  "69": 72,
  "绘制": 72,
  "限于": 72,
  "附带": 72,
  "5.5": 72,
  "套筒": 72,
  "更正": 72,
  "享有": 72,
  "地表水": 72,
  "界限": 72,
  "键": 72,
  "们": 72,
  "棒": 72,
  "直线": 72,
  "性@@": 72,
  "亚@@": 72,
  "承认": 72,
  "行驶": 72,
  "废弃物": 72,
  "摘要": 72,
  "体现": 72,
  "策略": 72,
  "水资源": 72,
  "串": 72,
  "44@@": 72,
  "土@@": 72,
  "合规性": 72,
  "最少": 72,
  "非洲法郎": 72,
  "最大值": 72,
  "免受": 72,
  "kVA": 72,
  "三通": 72,
  "浅": 72,
  "侵入": 72,
  "会@@": 72,
  "可拆卸": 72,
  "章程": 72,
  "CE": 72,
  "TE@@": 72,
  "防腐": 72,
  "分解": 72,
  "容积": 72,
  "破碎": 72,
  "劳动力": 71,
  "死亡": 71,
  "恶劣": 71,
  "罐": 71,
  "钢结构": 71,
  "有利于": 71,
  "滑轮": 71,
  "测": 71,
  "层面": 71,
  "27@@": 71,
  "积极": 71,
  "之@@": 71,
  "北@@": 71,
  "袋": 71,
  "PK": 71,
  "指@@": 71,
  "运转": 71,
  "安": 71,
  "关联": 71,
  "利": 71,
  "料场": 71,
  "案例": 71,
  "科@@": 71,
  "耦合": 71,
  "实行": 71,
  "指示器": 71,
  "调@@": 71,
  "爆破": 71,
  "涂抹": 71,
  "结@@": 71,
  "81": 71,
  "也就是说": 71,
  "33@@": 71,
  "税款": 71,
  "1.7": 71,
  "隔间": 71,
  "出线": 71,
  "放@@": 71,
  "切@@": 71,
  "用量": 71,
  "多种": 71,
  "明细表": 71,
  "测@@": 71,
  "预估": 71,
  "8.@@": 71,
  "■": 70,
  "技能": 70,
  "4.5": 70,
  "冷": 70,
  "极端": 70,
  "LE@@": 70,
  "声音": 70,
  "铁@@": 70,
  "壁板": 70,
  "伤害": 70,
  "有利": 70,
  "万@@": 70,
  "紧固件": 70,
  "机架": 70,
  "圈": 70,
  "700": 70,
  "胶": 70,
  "出席": 70,
  "列举": 70,
  "布基纳法索": 70,
  "来看": 70,
  "生@@": 70,
  "w@@": 70,
  "提@@": 70,
  "掌握": 70,
  "演变": 70,
  "CC@@": 70,
  "签约人": 70,
  "92": 70,
  "放线": 70,
  "全": 70,
  "光伏": 70,
  "放在": 70,
  "必要措施": 70,
  "极": 69,
  "申请人": 69,
  "精度": 69,
  "an": 69,
  "证明文件": 69,
  "要么": 69,
  "瓦": 69,
  "90@@": 69,
  "阐述": 69,
  "3D": 69,
  "TA": 69,
  "9.@@": 69,
  "黄色": 69,
  "润滑油": 69,
  "断电": 69,
  "行程": 69,
  "改道": 69,
  "膜": 69,
  "脚手架": 69,
  "沟通": 69,
  "遗漏": 69,
  "运": 69,
  "缓解": 69,
  "发": 69,
  "六@@": 69,
  "合@@": 69,
  "摩洛哥": 69,
  "工况": 69,
  "判决": 69,
  "联盟": 69,
  "而@@": 69,
  "卖方": 69,
  "砌筑": 69,
  "征用": 69,
  "贸易": 69,
  "过@@": 69,
  "保修": 69,
  "002": 69,
  "股票": 68,
  "ol@@": 68,
  "上限": 68,
  "两次": 68,
  "28@@": 68,
  "脱@@": 68,
  "横断面": 68,
  "管理人员": 68,
  "反应堆": 68,
  "年间": 68,
  "油罐": 68,
  "种类": 68,
  "CP@@": 68,
  "易@@": 68,
  "正": 68,
  "2x@@": 68,
  "水量": 68,
  "细": 68,
  "轴@@": 68,
  "LED": 68,
  "仪": 68,
  "铸铁": 68,
  "全国": 68,
  "潮湿": 68,
  "on": 68,
  "计量": 68,
  "ab@@": 68,
  "缺少": 68,
  "PGES": 68,
  "供货商": 68,
  "7.1": 68,
  "6.3": 67,
  "树脂": 67,
  "泊位": 67,
  "爆炸": 67,
  "计数": 67,
  "采集": 67,
  "Kg": 67,
  "环形": 67,
  "葡萄": 67,
  "并@@": 67,
  "互连": 67,
  "实@@": 67,
  "等待": 67,
  "多样性": 67,
  "意义": 67,
  "共": 67,
  "收购": 67,
  "意味着": 67,
  "农村": 67,
  "真实": 67,
  "96": 67,
  "NFP": 67,
  "认股权证": 67,
  "惯例": 67,
  "工序": 67,
  "极@@": 67,
  "OPM": 67,
  "红@@": 67,
  "白@@": 67,
  "消息": 67,
  "用以": 67,
  "橡胶": 67,
  "吸收": 67,
  "隔热": 67,
  "大众": 67,
  "轴向": 67,
  "刚果民主共和国": 67,
  "算": 67,
  "C2": 67,
  "欧盟": 66,
  "泵站": 66,
  "契约": 66,
  "on@@": 66,
  "总量": 66,
  "变得": 66,
  "证据": 66,
  "标@@": 66,
  "亚": 66,
  "旧": 66,
  "制@@": 66,
  "指示灯": 66,
  "7.2": 66,
  "DR": 66,
  "管路": 66,
  "用品": 66,
  "不论": 66,
  "一位": 66,
  "储备": 66,
  "收取": 66,
  "优质": 66,
  "手工": 66,
  "输电线": 66,
  "在@@": 66,
  "少": 66,
  "学院": 66,
  "序列": 66,
  "决策": 66,
  "抹灰": 66,
  "反映": 66,
  "轮廓": 66,
  "返还": 66,
  "2001": 66,
  "海岸": 66,
  "RE@@": 66,
  "既": 66,
  "柴油": 66,
  "墙体": 66,
  "子公司": 66,
  "控制台": 66,
  "运@@": 66,
  "董事": 65,
  "出资": 65,
  "股": 65,
  "180": 65,
  "塞@@": 65,
  "接@@": 65,
  "BS": 65,
  "科学": 65,
  "册": 65,
  "详情": 65,
  "她": 65,
  "76": 65,
  "58": 65,
  "总部": 65,
  "集": 65,
  "优惠": 65,
  "提醒": 65,
  "撤离": 65,
  "72": 65,
  "一般来说": 65,
  "68": 65,
  "雨季": 65,
  "溢流": 65,
  "格@@": 65,
  "成果": 65,
  "秘书长": 65,
  "出入": 65,
  "排出": 65,
  "整流器": 65,
  "伸缩缝": 65,
  "转": 65,
  "公告": 65,
  "负债": 64,
  "一根": 64,
  "排列": 64,
  "刚性": 64,
  "山": 64,
  "公斤": 64,
  "基准": 64,
  "还要": 64,
  "汇总": 64,
  "五@@": 64,
  "CO": 64,
  "环@@": 64,
  "积水": 64,
  "路肩": 64,
  "min": 64,
  "障碍物": 64,
  "or@@": 64,
  "科技": 64,
  "ME@@": 64,
  "iii": 64,
  "剥离": 64,
  "海滩": 64,
  "解雇": 64,
  "路@@": 64,
  "空": 64,
  "楼板": 64,
  "嵌入式": 64,
  "400@@": 64,
  "1.50": 64,
  "引导": 64,
  "靠背": 64,
  "形@@": 64,
  "PE": 64,
  "本章": 64,
  "如此": 64,
  "负债表": 64,
  "发电": 64,
  "人们": 64,
  "档案": 64,
  "1990": 64,
  "虽然": 64,
  "挂号信": 64,
  "建筑材料": 63,
  "中应": 63,
  "降雨": 63,
  "聚乙烯": 63,
  "集@@": 63,
  "就业": 63,
  "高级": 63,
  "先": 63,
  "1992": 63,
  "页岩": 63,
  "选用": 63,
  "改进": 63,
  "--": 63,
  "紧@@": 63,
  "试块": 63,
  "石膏": 63,
  "管理局": 63,
  "国外": 63,
  "日历": 63,
  "贝@@": 63,
  "强制性": 63,
  "1999": 63,
  "预审": 63,
  "陶瓷": 63,
  "年代": 63,
  "DPAO": 63,
  "领导": 63,
  "浇注": 63,
  "痕迹": 63,
  "储量": 63,
  "CS": 63,
  "退化": 63,
  "行@@": 63,
  "完整性": 63,
  "标桩": 63,
  "个@@": 63,
  "隔墙": 63,
  "及@@": 63,
  "球": 63,
  "5mm": 63,
  "re@@": 63,
  "钢管": 62,
  "直@@": 62,
  "看": 62,
  "第三章": 62,
  "50mm": 62,
  "土建工程": 62,
  "月份": 62,
  "经常": 62,
  "9.3": 62,
  "阻碍": 62,
  "沿海": 62,
  "设": 62,
  "坚硬": 62,
  "传送": 62,
  "值@@": 62,
  "装有": 62,
  "实践": 62,
  "车站": 62,
  "古@@": 62,
  "四": 62,
  "灰浆": 62,
  "生成": 62,
  "台阶": 62,
  "安全@@": 62,
  "限位": 62,
  "卸货": 62,
  "]": 62,
  "AR@@": 62,
  "又": 62,
  "做好": 62,
  "屋面": 62,
  "概述": 62,
  "空@@": 62,
  "尚未": 62,
  "450": 62,
  "水井": 62,
  "流通": 62,
  "严格遵守": 62,
  "定量": 62,
  "隔音": 62,
  "免税": 62,
  "一侧": 62,
  "年份": 62,
  "人力": 62,
  "迅速": 62,
  "触发": 62,
  "Antea": 62,
  "评标": 61,
  "er": 61,
  "控制板": 61,
  "ir@@": 61,
  "引用": 61,
  "更@@": 61,
  "海上": 61,
  "5.3": 61,
  "粉": 61,
  "直流": 61,
  "z@@": 61,
  "头@@": 61,
  "运用": 61,
  "冗余": 61,
  "支座": 61,
  "家具": 61,
  "料@@": 61,
  "城市规划": 61,
  "贡献": 61,
  "有时": 61,
  "粗@@": 61,
  "学@@": 61,
  "洛@@": 61,
  "完美": 61,
  "偏@@": 61,
  "发放": 61,
  "第纳尔": 61,
  "KV": 61,
  "自主": 61,
  "科特迪瓦": 61,
  "放": 61,
  "期@@": 61,
  "公寓": 61,
  "物种": 61,
  "太阳能": 61,
  "0.4": 61,
  "通": 61,
  "洞": 61,
  "穿孔": 61,
  "围墙": 61,
  "详尽": 61,
  "水质": 61,
  "立柱": 60,
  "密封性": 60,
  "证": 60,
  "daN": 60,
  "TP": 60,
  "巨大": 60,
  "磨损": 60,
  "底@@": 60,
  "响应": 60,
  "东@@": 60,
  "第三": 60,
  "最迟": 60,
  "83": 60,
  "变电所": 60,
  "中压": 60,
  "尼@@": 60,
  "二氧化碳": 60,
  "PE@@": 60,
  "可行性": 60,
  "最小值": 60,
  "空隙": 60,
  "排空": 60,
  "动员": 60,
  "征地": 60,
  "GE@@": 60,
  "想": 60,
  "移除": 60,
  "面上": 60,
  "凹槽": 60,
  "判断": 60,
  "收缩": 60,
  "有害": 60,
  "不管": 60,
  "截至": 60,
  "z": 60,
  "堵塞": 60,
  "一段": 60,
  "0.1": 60,
  "25%": 60,
  "窗": 60,
  "建成": 60,
  "医生": 60,
  "盘点": 59,
  "il@@": 59,
  "机会": 59,
  "驱动": 59,
  "搅拌站": 59,
  "0.3": 59,
  "销": 59,
  "料斗": 59,
  "150@@": 59,
  "皮@@": 59,
  "大门": 59,
  "DTU": 59,
  "受益": 59,
  "操控": 59,
  "函": 59,
  "共同体": 59,
  "护套": 59,
  "称": 59,
  "力@@": 59,
  "德@@": 59,
  "格栅": 59,
  "CF": 59,
  "见图": 59,
  "营业": 59,
  "细胞": 59,
  "六": 59,
  "期内": 59,
  "顺利": 59,
  "文献": 59,
  "T1": 59,
  "遭受": 59,
  "支@@": 59,
  "ch@@": 59,
  "离": 59,
  "病@@": 59,
  "屏障": 59,
  "商标": 59,
  "横梁": 59,
  "控制柜": 59,
  "东北": 59,
  "区@@": 59,
  "变量": 59,
  "电信": 59,
  "会议纪要": 59,
  "限值": 59,
  "盐": 59,
  "书面通知": 59,
  "托架": 59,
  "复杂": 59,
  "反对": 59,
  "浇水": 59,
  "七": 59,
  "格": 59,
  "匹配": 58,
  "暂时": 58,
  "应有": 58,
  "砂@@": 58,
  "计数器": 58,
  "注释": 58,
  "洗涤": 58,
  "文@@": 58,
  "不变": 58,
  "褶皱": 58,
  "分段": 58,
  "定性": 58,
  "心": 58,
  "噪声": 58,
  "合计": 58,
  "涡轮": 58,
  "1500": 58,
  "雷": 58,
  "充电器": 58,
  "电阻率": 58,
  "承担费用": 58,
  "负": 58,
  "头部": 58,
  "商务": 58,
  "安全系数": 58,
  "交替": 58,
  "SI@@": 58,
  "变动": 58,
  "万吨": 58,
  "属性": 58,
  "明@@": 58,
  "可变": 58,
  "清晰": 58,
  "试样": 58,
  "花@@": 58,
  "制备": 58,
  "关注": 58,
  "横截面": 58,
  "同一个": 58,
  "矿层": 58,
  "7.3": 58,
  "失@@": 58,
  "净化": 58,
  "余额": 58,
  "香蕉": 58,
  "32@@": 58,
  "节@@": 58,
  "岁": 58,
  "坐标": 58,
  "前后": 58,
  "1.6": 58,
  "NE@@": 58,
  "行人": 58,
  "垫块": 58,
  "矛盾": 58,
  "2m": 58,
  "微@@": 57,
  "单个": 57,
  "粉尘": 57,
  "5.4": 57,
  "原则上": 57,
  "调解人": 57,
  "下图": 57,
  "现行标准": 57,
  "疏散": 57,
  "计入": 57,
  "MA": 57,
  "重点": 57,
  "淤泥": 57,
  "舱": 57,
  "迁移": 57,
  "泡沫": 57,
  "仅仅": 57,
  "j@@": 57,
  "年龄": 57,
  "78": 57,
  "边沟": 57,
  "此项": 57,
  "职能": 57,
  "少量": 57,
  "86": 57,
  "绝对": 57,
  "山@@": 57,
  "灌浆": 57,
  "4.6": 57,
  "排气": 57,
  "Ferlo": 57,
  "ST@@": 57,
  "所在地": 57,
  "1994": 57,
  "此处": 57,
  "征收": 57,
  "加压": 57,
  "抵抗": 57,
  "肌肤": 57,
  "@": 57,
  "分隔": 57,
  "宣传": 57,
  "为止": 57,
  "第二个": 57,
  "最多": 57,
  "阅读": 57,
  "固定装置": 57,
  "海浪": 56,
  "体育场": 56,
  "端口": 56,
  "锚": 56,
  "球形": 56,
  "阻力": 56,
  "3mm": 56,
  "渠道": 56,
  "无线电": 56,
  "强调": 56,
  "坝": 56,
  "3.0": 56,
  "尽量": 56,
  "下层": 56,
  "沉淀": 56,
  "手": 56,
  "毛@@": 56,
  "量@@": 56,
  "抽样": 56,
  "用电": 56,
  "重力": 56,
  "却": 56,
  "经@@": 56,
  "6.5": 56,
  "水深": 56,
  "矩形": 56,
  "PR@@": 56,
  "有机": 56,
  "ag@@": 56,
  "城市化": 56,
  "条文": 56,
  "医疗机构": 56,
  "CH@@": 56,
  "震动": 56,
  "两端": 56,
  "at@@": 56,
  "淋浴": 56,
  "转动": 56,
  "合": 56,
  "互感器": 56,
  "中止": 56,
  "溶液": 56,
  "MPa": 56,
  "6.2": 56,
  "斯@@": 56,
  "解锁": 56,
  "筋": 56,
  "纳": 56,
  "尼亚": 56,
  "远": 56,
  "恒定": 56,
  "润滑": 56,
  "只是": 56,
  "共和国": 56,
  "为期": 56,
  "显著": 56,
  "加载": 55,
  "承包方": 55,
  "１": 55,
  "大气": 55,
  "出院": 55,
  "35@@": 55,
  "塞": 55,
  "煤炭": 55,
  "3.6": 55,
  "博@@": 55,
  "0.50": 55,
  "很多": 55,
  "77": 55,
  "不适": 55,
  "DA@@": 55,
  "河@@": 55,
  "实心": 55,
  "传@@": 55,
  "离@@": 55,
  "燃烧": 55,
  "冲洗": 55,
  "起重": 55,
  "迪@@": 55,
  "冲@@": 55,
  "会议室": 55,
  "篇": 55,
  "拉伸": 55,
  "因@@": 55,
  "相位": 55,
  "至@@": 55,
  "88": 55,
  "73": 55,
  "行动计划": 55,
  "GPS": 55,
  "接触器": 55,
  "某个": 55,
  "千克": 55,
  "前端": 55,
  "承诺书": 55,
  "护舷": 55,
  "U1000": 55,
  "»": 55,
  "电缆线": 55,
  "反射": 55,
  "尊重": 55,
  "IV": 55,
  "明细": 55,
  "一组": 55,
  "排水系统": 55,
  "1998": 55,
  "每日": 55,
  "OPGW": 55,
  "PA": 55,
  "病": 55,
  "包@@": 55,
  "费尔洛": 55,
  "LO@@": 55,
  "气动": 55,
  "雇佣": 55,
  "铝@@": 55,
  "享受": 55,
  "权限": 55,
  "真空": 54,
  "DE": 54,
  "透明": 54,
  "师": 54,
  "大理石": 54,
  "随附": 54,
  "石料": 54,
  "PK@@": 54,
  "于@@": 54,
  "ur@@": 54,
  "DMS": 54,
  "露头": 54,
  "调动": 54,
  "锌": 54,
  "出发": 54,
  "外墙": 54,
  "螺丝": 54,
  "境内": 54,
  "1200": 54,
  "0.00": 54,
  "队": 54,
  "增压": 54,
  "文": 54,
  "松散": 54,
  "600@@": 54,
  "di@@": 54,
  "蓝色": 54,
  "后方": 54,
  "逻辑": 54,
  "打印": 54,
  "换@@": 54,
  "矿山": 54,
  "累计": 54,
  "之下": 54,
  "研究所": 54,
  "BA@@": 54,
  "朝向": 54,
  "纳@@": 54,
  "地表": 54,
  "机油": 54,
  "报表": 54,
  "BT": 54,
  "职位": 54,
  "丰富": 54,
  "太@@": 54,
  "大多数": 54,
  "张力": 54,
  "污染物": 54,
  "制订": 54,
  "等效": 54,
  "5m": 54,
  "瓦@@": 54,
  "砌面": 54,
  "es": 53,
  "连@@": 53,
  "见表": 53,
  "mg": 53,
  "部署": 53,
  "开发@@": 53,
  "信": 53,
  "据": 53,
  "洒水": 53,
  "座位": 53,
  "信函": 53,
  "阿": 53,
  "核查": 53,
  "矿@@": 53,
  "千@@": 53,
  "磷酸盐": 53,
  "原材料": 53,
  "津贴": 53,
  "承载": 53,
  "301": 53,
  "粗": 53,
  "并未": 53,
  "数额": 53,
  "雇用": 53,
  "经营者": 53,
  "湖": 53,
  "日后": 53,
  "岛": 53,
  "加上": 53,
  "堆": 53,
  "马": 53,
  "框": 53,
  "1997": 53,
  "HT": 53,
  "而定": 53,
  "导管": 53,
  "ac@@": 53,
  "增@@": 53,
  "反馈": 53,
  "900": 53,
  "闭合": 53,
  "扰动": 53,
  "通@@": 53,
  "不当": 53,
  "棕榈树": 53,
  "9.2": 53,
  "2030": 53,
  "老化": 53,
  "脉冲": 53,
  "安放": 53,
  "水管": 53,
  "主管部门": 53,
  "处@@": 53,
  "承载力": 53,
  "NFC": 53,
  "是从": 53,
  "反@@": 53,
  "意识": 53,
  "按@@": 53,
  "软管": 53,
  "鱼": 53,
  "补贴": 53,
  "BE@@": 52,
  "散装": 52,
  "小写": 52,
  "不断": 52,
  "火@@": 52,
  "事宜": 52,
  "油箱": 52,
  "往": 52,
  "板@@": 52,
  "93": 52,
  "浇铸": 52,
  "130": 52,
  "AEP": 52,
  "定子": 52,
  "μ": 52,
  "网路": 52,
  "电极": 52,
  "足以": 52,
  "索": 52,
  "需@@": 52,
  "大写": 52,
  "亏损": 52,
  "闭锁": 52,
  "水库": 52,
  "监视": 52,
  "高峰": 52,
  "一块": 52,
  "查看": 52,
  "简@@": 52,
  "TA@@": 52,
  "光学": 52,
  "走": 52,
  "细@@": 52,
  "少于": 52,
  "当然": 52,
  "82": 52,
  "含水量": 52,
  "创业": 52,
  "钻石": 52,
  "收费": 52,
  "护理": 52,
  "碎片": 52,
  "向@@": 52,
  "滑@@": 52,
  "协定": 52,
  "安全措施": 52,
  "径流": 52,
  "管理者": 52,
  "化@@": 52,
  "地理": 52,
  "龙星": 52,
  "稀释": 52,
  "报": 52,
  "口@@": 52,
  "披露": 52,
  "管辖": 52,
  "床": 52,
  "一天": 52,
  "尾矿": 52,
  "增值": 52,
  "墙上": 52,
  "$": 52,
  "防水层": 52,
  "重现": 52,
  "配方": 52,
  "卧室": 52,
  "土工": 52,
  "河床": 52,
  "感应": 52,
  "RO@@": 52,
  "寒武纪": 52,
  "迪": 52,
  "栏": 51,
  "97": 51,
  "随": 51,
  "方可": 51,
  "搭接": 51,
  "束": 51,
  "常@@": 51,
  "台基": 51,
  "6.1": 51,
  "132": 51,
  "ON@@": 51,
  "固体": 51,
  "地线": 51,
  "消失": 51,
  "国际标准": 51,
  "入口处": 51,
  "«": 51,
  "反": 51,
  "8.2": 51,
  "子@@": 51,
  "石板": 51,
  "载": 51,
  "1.0": 51,
  "管理系统": 51,
  "旱季": 51,
  "当事人": 51,
  "1.8": 51,
  "费率": 51,
  "参观": 51,
  "无论如何": 51,
  "中部": 51,
  "不应": 51,
  "度@@": 51,
  "300@@": 51,
  "较@@": 51,
  "101": 51,
  "相连接": 51,
  "一级": 51,
  "轮@@": 51,
  "作用力": 51,
  "储@@": 51,
  "投资者": 51,
  "等@@": 51,
  "第一阶段": 51,
  "薄膜": 51,
  "硬件": 51,
  "D.@@": 51,
  "8%": 51,
  "债券": 51,
  "单线": 51,
  "不仅": 51,
  "进场": 51,
  "分项": 51,
  "应是": 51,
  "张": 51,
  "1993": 51,
  "扩大": 51,
  "超": 51,
  "墙@@": 51,
  "微米": 51,
  "主体工程": 51,
  "紧急情况": 51,
  "凭证": 51,
  "ad@@": 51,
  "PC": 51,
  "送": 51,
  "7%": 51,
  "建": 51,
  "清@@": 51,
  "援助": 51,
  "氧化物": 51,
  "封@@": 51,
  "收据": 51,
  "置": 51,
  "走向": 50,
  "线缆": 50,
  "CV": 50,
  "日至": 50,
  "轨迹": 50,
  "第三@@": 50,
  "钢铁": 50,
  "表土": 50,
  "成品": 50,
  "10m": 50,
  "取水口": 50,
  "淹没": 50,
  "产权": 50,
  "米@@": 50,
  "填@@": 50,
  "5000": 50,
  "维生素": 50,
  "2022": 50,
  "色@@": 50,
  "交": 50,
  "解除合同": 50,
  "确切": 50,
  "水道": 50,
  "P1": 50,
  "河道": 50,
  "修@@": 50,
  "3m": 50,
  "地位": 50,
  "岗位": 50,
  "转运": 50,
  "转子": 50,
  "友好": 50,
  "格勒诺布尔": 50,
  "心@@": 50,
  "压缩空气": 50,
  "儿童": 50,
  "抽取": 50,
  "DomRaider": 50,
  "技术人员": 50,
  "横@@": 50,
  "税率": 50,
  "BH": 50,
  "om@@": 50,
  "所得": 50,
  "拱": 50,
  "HA@@": 50,
  "硬度": 50,
  "孔洞": 50,
  "容许": 50,
  "夜间": 50,
  "89": 50,
  "120@@": 50,
  "名字": 50,
  "中非": 50,
  "跨越": 49,
  "2.00": 49,
  "90%": 49,
  "满": 49,
  "AR": 49,
  "伏": 49,
  "备注": 49,
  "感": 49,
  "科托努": 49,
  "基地": 49,
  "拟议": 49,
  "摩擦": 49,
  "智能": 49,
  "50m": 49,
  "拉格": 49,
  "喷嘴": 49,
  "护面": 49,
  "台@@": 49,
  "140": 49,
  "岩心": 49,
  "EPR": 49,
  "符号": 49,
  "it@@": 49,
  "电力公司": 49,
  "天数": 49,
  "防腐蚀": 49,
  "纸": 49,
  "根@@": 49,
  "失效": 49,
  "": 49,
  "应用程序": 49,
  "第四章": 49,
  "卫星": 49,
  "季度": 49,
  "AC": 49,
  "降雨量": 49,
  "跳闸": 49,
  "石灰岩": 49,
  "本人": 49,
  "矿产": 49,
  "岩@@": 49,
  "改革": 49,
  "得以": 49,
  "通往": 49,
  "情形": 49,
  "土层": 49,
  "导@@": 49,
  "管理@@": 49,
  "20cm": 49,
  "圣@@": 49,
  "份额": 48,
  "赋予": 48,
  "法典": 48,
  "已知": 48,
  "IS@@": 48,
  "√": 48,
  "周": 48,
  "en": 48,
  "26@@": 48,
  "补救": 48,
  "盖@@": 48,
  "河岸": 48,
  "花": 48,
  "日起": 48,
  "救援": 48,
  "强@@": 48,
  "检视": 48,
  "开具": 48,
  "两年": 48,
  "折旧": 48,
  "复苏": 48,
  "辆": 48,
  "is": 48,
  "FCFA": 48,
  "公交车": 48,
  "减小": 48,
  "互联网": 48,
  "那里": 48,
  "转型": 48,
  "块体": 48,
  "深入": 48,
  "SA": 48,
  "CA": 48,
  "维@@": 48,
  "聚@@": 48,
  "网络@@": 48,
  "招聘": 48,
  "住所": 48,
  "鱼类": 48,
  "梯形": 48,
  "谨慎": 48,
  "氢": 48,
  "蓄水": 48,
  "视作": 48,
  "时应": 48,
  "链条": 48,
  "施工进度": 48,
  "技术@@": 48,
  "评定": 48,
  "并非": 48,
  "中性点": 48,
  "工作站": 48,
  "消毒": 48,
  "关@@": 48,
  "柱@@": 48,
  "9.1": 48,
  "RI@@": 48,
  "论证": 48,
  "铀": 48,
  "严禁": 48,
  "骨架": 48,
  "属": 48,
  "剪切": 48,
  "分流": 47,
  "面对": 47,
  "国@@": 47,
  "现@@": 47,
  "j": 47,
  "al": 47,
  "保@@": 47,
  "µ": 47,
  "根据上述": 47,
  "接待": 47,
  "TE": 47,
  "介入": 47,
  "产@@": 47,
  "减去": 47,
  "BP": 47,
  "信号灯": 47,
  "一处": 47,
  "AN@@": 47,
  "对称": 47,
  "汇水": 47,
  "堤": 47,
  "信标": 47,
  "动机": 47,
  "强化": 47,
  "配套": 47,
  "拖车": 47,
  "陆地": 47,
  "市政": 47,
  "水源": 47,
  "护@@": 47,
  "中未": 47,
  "起点": 47,
  "活动区": 47,
  "环保": 47,
  "铜@@": 47,
  "其余": 47,
  "努力": 47,
  "皮": 47,
  "先@@": 47,
  "孔@@": 47,
  "黑@@": 47,
  "抗压强度": 47,
  "库房": 47,
  "碳": 47,
  "精细": 47,
  "注@@": 47,
  "雷@@": 47,
  "速": 47,
  "书@@": 47,
  "房@@": 47,
  "护岸": 47,
  "伴随": 47,
  "航道": 47,
  "高压线": 47,
  "ib@@": 47,
  "编@@": 47,
  "季节": 47,
  "成员国": 47,
  "2025": 47,
  "英国": 47,
  "竞争力": 46,
  "MO@@": 46,
  "资助": 46,
  "领导人": 46,
  "投资方": 46,
  "须要": 46,
  "指示牌": 46,
  "司机": 46,
  "八@@": 46,
  "薄": 46,
  "码": 46,
  "窗框": 46,
  "粘@@": 46,
  "预见": 46,
  "来@@": 46,
  "CLI": 46,
  "身体": 46,
  "核心": 46,
  "将@@": 46,
  "抵押": 46,
  "75@@": 46,
  "MI@@": 46,
  "堆场": 46,
  "20m": 46,
  "扶手": 46,
  "短期": 46,
  "加油站": 46,
  "电表": 46,
  "理想": 46,
  "已@@": 46,
  "79": 46,
  "遥控": 46,
  "发送给": 46,
  "双重": 46,
  "官员": 46,
  "得@@": 46,
  "kWh": 46,
  "航空": 46,
  "硬": 46,
  "石膏板": 46,
  "风机": 46,
  "磁@@": 46,
  "102": 46,
  "差额": 46,
  "货@@": 46,
  "担任": 46,
  "磨@@": 46,
  "可行": 46,
  "倾斜度": 46,
  "岩层": 46,
  "胶@@": 46,
  "水下": 46,
  "苏@@": 46,
  "制品": 46,
  "复@@": 46,
  "易于": 45,
  "摊销": 45,
  "载@@": 45,
  "硬质": 45,
  "燃气": 45,
  "围绕": 45,
  "改@@": 45,
  "损伤": 45,
  "而是": 45,
  "例外": 45,
  "借款人": 45,
  "若干": 45,
  "缺失": 45,
  "ak@@": 45,
  "布置图": 45,
  "克@@": 45,
  "法庭": 45,
  "吸入": 45,
  "铅": 45,
  "零@@": 45,
  "作物": 45,
  "坚固": 45,
  "kA": 45,
  "林@@": 45,
  "公有": 45,
  "预制板": 45,
  "大厅": 45,
  "直流电": 45,
  "期满": 45,
  "时限": 45,
  "CN@@": 45,
  "吊@@": 45,
  "落": 45,
  "弱": 45,
  "CP": 45,
  "SE": 45,
  "粘合": 45,
  "美@@": 45,
  "N年": 45,
  "利伯维尔": 45,
  "发给": 45,
  "语": 45,
  "铝合金": 45,
  "之日": 45,
  ".1": 45,
  "奥@@": 45,
  "七@@": 45,
  "开支": 45,
  "碎": 45,
  "那": 45,
  "场景": 45,
  "所有人": 45,
  "负面影响": 45,
  "导": 45,
  "视觉": 45,
  "后部": 45,
  "编程": 45,
  "到@@": 45,
  "240": 45,
  "五个": 45,
  "系泊": 45,
  "风速": 45,
  "减轻": 45,
  "一笔": 45,
  "票": 45,
  "寻找": 45,
  "光缆": 45,
  "动作": 45,
  "有毒": 45,
  "选@@": 44,
  "松@@": 44,
  "配@@": 44,
  "芒果树": 44,
  "堆石": 44,
  "DR@@": 44,
  "快": 44,
  "003": 44,
  "规律": 44,
  "核@@": 44,
  "CD": 44,
  "承重": 44,
  "热水": 44,
  "型@@": 44,
  "软": 44,
  "联网": 44,
  "配电柜": 44,
  "强烈": 44,
  "需在": 44,
  "治理": 44,
  "大区": 44,
  "付": 44,
  "接线柱": 44,
  "小心": 44,
  "金@@": 44,
  "锁闭": 44,
  "整@@": 44,
  "集装箱船": 44,
  "卷筒": 44,
  "冷却器": 44,
  "读取": 44,
  "毛": 44,
  "分离器": 44,
  "❖": 44,
  "TS": 44,
  "砂质": 44,
  "国际@@": 44,
  "建筑商": 44,
  "断@@": 44,
  "重视": 44,
  "订购": 44,
  "角钢": 44,
  "人士": 44,
  "Km": 44,
  "存@@": 44,
  "写": 44,
  "87": 44,
  "收回": 44,
  "垂直于": 44,
  "加速度": 44,
  "哪些": 44,
  "服务@@": 44,
  "默认": 44,
  "夹具": 44,
  "交通@@": 44,
  "鼓励": 44,
  "班@@": 44,
  "照明设备": 44,
  "显@@": 44,
  "假": 44,
  "以免": 44,
  "水坝": 44,
  "轮胎": 44,
  "教师": 44,
  "安全带": 44,
  "纵剖面": 44,
  "世纪": 44,
  "巴马科": 44,
  "金属结构": 44,
  "自有": 44,
  "完": 44,
  "流量计": 44,
  "电气化": 44,
  "灭火器": 44,
  "订立": 44,
  "机房": 44,
  "公职人员": 44,
  "泥灰岩": 44,
  "CL@@": 43,
  "而成": 43,
  "Pa": 43,
  "远离": 43,
  "两层": 43,
  "即可": 43,
  "分歧": 43,
  "表达": 43,
  "进出": 43,
  "日内": 43,
  "排污": 43,
  "步": 43,
  "入侵": 43,
  "不良": 43,
  "C1": 43,
  "模量": 43,
  "单相": 43,
  "劳动法": 43,
  "谈判": 43,
  "com": 43,
  "扣": 43,
  "RO2V": 43,
  "环境温度": 43,
  "盈利": 43,
  "地球": 43,
  "多次": 43,
  "支流": 43,
  "BO@@": 43,
  "疏忽": 43,
  "精@@": 43,
  "亮": 43,
  "交通量": 43,
  "全套": 43,
  "产": 43,
  "散": 43,
  "按下": 43,
  "打桩": 43,
  "推动": 43,
  "利率": 43,
  "文字": 43,
  "面临": 43,
  "ra@@": 43,
  "左侧": 43,
  "远@@": 43,
  "白垩纪": 43,
  "生产总值": 43,
  "好@@": 43,
  "村": 43,
  "致力于": 43,
  "一下": 43,
  "采取措施": 43,
  "类@@": 43,
  "皮革": 43,
  "环路": 43,
  "卷扬机": 43,
  "很少": 43,
  "公报": 43,
  "商店": 43,
  "弯头": 43,
  "邀请": 43,
  "称重": 43,
  "零": 43,
  "线束": 43,
  "雷电": 43,
  "拧紧": 43,
  "第二阶段": 43,
  "以此": 43,
  "水生": 43,
  "PM@@": 43,
  "控制面板": 43,
  "旅客": 43,
  "硬化": 43,
  "方针": 43,
  "列入": 43,
  "运输量": 43,
  "船柱": 42,
  "MVA": 42,
  "地下室": 42,
  "成型": 42,
  "保管": 42,
  "机械@@": 42,
  "砾岩": 42,
  "伺服": 42,
  "et@@": 42,
  "搅拌机": 42,
  "英寸": 42,
  "物体": 42,
  "有些": 42,
  "图形": 42,
  "id@@": 42,
  "广泛": 42,
  "TR": 42,
  "ESSS": 42,
  "保险公司": 42,
  "忽略": 42,
  "隐藏": 42,
  "现存": 42,
  "溢出": 42,
  "职": 42,
  "硫酸": 42,
  "PEHD": 42,
  "10.@@": 42,
  "插@@": 42,
  "PV": 42,
  "萨@@": 42,
  "斜@@": 42,
  "差动": 42,
  "代@@": 42,
  "扇": 42,
  "巴士": 42,
  "带电": 42,
  "TEU": 42,
  "用地": 42,
  "回执": 42,
  "导电": 42,
  "本国": 42,
  "挡土墙": 42,
  "海": 42,
  "北堤": 42,
  "重组": 42,
  "商业@@": 42,
  "烟雾": 42,
  "收": 42,
  "水中": 42,
  "楼层": 42,
  "政治": 42,
  "挑战": 42,
  "灌溉": 42,
  "送@@": 42,
  "HSE": 42,
  "声": 42,
  "弥补": 42,
  "通报": 42,
  "适用性": 42,
  "复原": 42,
  "12.@@": 42,
  "落@@": 42,
  "西北": 42,
  "内向": 42,
  "加权": 42,
  "www": 42,
  "共享": 42,
  "梁@@": 42,
  "令人满意": 42,
  "调度": 42,
  "化粪池": 42,
  "主任": 42,
  "这份": 42,
  "桥式起重": 42,
  "破产": 42,
  "矿脉": 42,
  "此次": 42,
  "科纳克里": 42,
  "房地产": 42,
  "中性": 42,
  "字": 42,
  "积@@": 42,
  ".......": 42,
  "整理": 42,
  "成套": 41,
  "变压": 41,
  "引@@": 41,
  "结": 41,
  "0000": 41,
  "1000@@": 41,
  "电位": 41,
  "控": 41,
  "细分": 41,
  "烟@@": 41,
  "减@@": 41,
  "批复": 41,
  "护": 41,
  "最长": 41,
  "模具": 41,
  "这方面": 41,
  "09.00": 41,
  "焊": 41,
  "累积": 41,
  "每平方米": 41,
  "清漆": 41,
  "地中海": 41,
  "直": 41,
  "整修": 41,
  "摄像机": 41,
  "喷射": 41,
  "甲方": 41,
  "倒": 41,
  "选项": 41,
  "喷漆": 41,
  "0.8": 41,
  "牲畜": 41,
  "kPa": 41,
  "毁坏": 41,
  "质@@": 41,
  "冷@@": 41,
  "专利": 41,
  "挂钩": 41,
  "支撑物": 41,
  "生命": 41,
  "合伙人": 41,
  "re": 41,
  "认定": 41,
  "里@@": 41,
  "政府部门": 41,
  "越": 41,
  "桶": 41,
  "坠落": 41,
  "避雷器": 41,
  "一间": 41,
  "瓶": 41,
  "酒店": 41,
  "感觉": 41,
  "RS": 41,
  "瑕疵": 41,
  "饰": 41,
  "5cm": 41,
  "化学品": 41,
  "火": 41,
  "街道": 41,
  "防护堤": 41,
  "全权负责": 41,
  "0.20": 41,
  "首@@": 41,
  "消@@": 41,
  "相等": 41,
  "吸@@": 41,
  "民@@": 41,
  "人群": 41,
  "停@@": 41,
  "平原": 41,
  "VI": 41,
  "40%": 41,
  "TO@@": 41,
  "表层": 41,
  "字@@": 41,
  "请参阅": 41,
  "阐明": 41,
  "9%": 41,
  "被@@": 41,
  "近@@": 41,
  "草": 41,
  "金沙萨": 41,
  "井@@": 41,
  "围堰": 41,
  "最迟在": 41,
  "RWA": 41,
  "联合会": 41,
  "柔性": 41,
  "投@@": 41,
  "整套": 41,
  "公认": 41,
  "合约": 41,
  "核": 41,
  "所属": 41,
  "密@@": 41,
  "5.6": 41,
  "CI@@": 41,
  "800@@": 41,
  "im@@": 41,
  "认识": 41,
  "DC": 41,
  "常用": 40,
  "VI@@": 40,
  "增长率": 40,
  "1995": 40,
  "保证书": 40,
  "型式": 40,
  "CF@@": 40,
  "配电网": 40,
  "倒@@": 40,
  "软@@": 40,
  "为什么": 40,
  "3000": 40,
  "木质": 40,
  "联@@": 40,
  "米处": 40,
  "250@@": 40,
  "承@@": 40,
  "草@@": 40,
  "粘结": 40,
  "停机": 40,
  "发生变化": 40,
  "造@@": 40,
  "惩罚": 40,
  "搬迁": 40,
  "在建": 40,
  "林": 40,
  "草图": 40,
  "导轨": 40,
  "加速": 40,
  "纯": 40,
  "薪酬": 40,
  "此时": 40,
  "交由": 40,
  "答复": 40,
  "总局": 40,
  "CI": 40,
  "面向": 40,
  "来源于": 40,
  "参与方": 40,
  "年内": 40,
  "自我": 40,
  "边@@": 40,
  "破裂": 40,
  "引发": 40,
  "陈述": 40,
  "构建": 40,
  "采@@": 40,
  "正如": 40,
  "出示": 40,
  "油脂": 40,
  "授权代表": 40,
  "并用": 40,
  "转换器": 40,
  "测得": 40,
  "代表性": 40,
  "价格表": 40,
  "钩": 40,
  "自动装置": 40,
  "伤": 40,
  "五年": 40,
  "贝": 40,
  "钻": 40,
  "栅": 40,
  "石头": 40,
  "窗户": 40,
  "建筑工地": 40,
  "卫生设施": 40,
  "泵送": 40,
  "警示": 40,
  "0.6": 40,
  "报关": 40,
  "城": 40,
  "1988": 40,
  "申诉": 40,
  "铺@@": 40,
  "供@@": 40,
  "缓冲": 40,
  "取@@": 40,
  "计划表": 40,
  "L.@@": 40,
  "如同": 40,
  "车载": 40,
  "委托人": 40,
  "审议": 40,
  "推力": 40,
  "DI@@": 40,
  "喷@@": 40,
  "名@@": 40,
  "自动开关": 40,
  "AC@@": 40,
  "下水道": 40,
  "箱涵": 40,
  "事务": 40,
  "平坦": 39,
  "断": 39,
  "热处理": 39,
  "敏感性": 39,
  "初级": 39,
  "着手": 39,
  "粉刷": 39,
  "税法": 39,
  "14.2": 39,
  "轻@@": 39,
  "接地系统": 39,
  "透@@": 39,
  "液@@": 39,
  "不确定性": 39,
  "恢复原状": 39,
  "街": 39,
  "Al@@": 39,
  "源自": 39,
  "壁@@": 39,
  "DG@@": 39,
  "建设项目": 39,
  "难以": 39,
  "波动": 39,
  "简要": 39,
  "次要": 39,
  "RE": 39,
  "散@@": 39,
  "工会": 39,
  "财务状况": 39,
  "壳": 39,
  "易": 39,
  "水沟": 39,
  "省@@": 39,
  "30cm": 39,
  "印@@": 39,
  "学习": 39,
  "规程": 39,
  "初期": 39,
  "将来": 39,
  "远距离": 39,
  "延@@": 39,
  "卷@@": 39,
  "弹簧": 39,
  "4%": 39,
  "营地": 39,
  "腐殖土": 39,
  "15.@@": 39,
  "邮件": 39,
  "尼": 39,
  "列@@": 39,
  "工程验收": 39,
  "便携式": 39,
  "青铜": 39,
  "程": 39,
  "手套": 39,
  "空心": 39,
  "高处": 39,
  "滚动": 39,
  "努瓦克肖特": 39,
  "不用": 39,
  "分部": 39,
  "亿@@": 39,
  "坡": 39,
  "灭火": 39,
  "刀": 39,
  "兼容性": 39,
  "相结合": 39,
  "挖掘机": 39,
  "0.30": 39,
  "纸质": 39,
  "裁决": 39,
  "划定": 39,
  "电脑": 39,
  "依靠": 39,
  "退还": 39,
  "原有": 39,
  "扩建": 39,
  "微": 39,
  "下表中": 39,
  "止回阀": 39,
  "尾矿库": 39,
  "磷酸": 39,
  "至于": 39,
  "柱子": 39,
  "储备金": 39,
  "恩@@": 39,
  "60%": 39,
  "关": 39,
  "104": 39,
  "低压配电": 39,
  "清偿": 39,
  "意": 39,
  "浴室": 39,
  "业绩": 39,
  "索@@": 39,
  "陆@@": 39,
  "230": 39,
  "查询": 39,
  "期望": 39,
  "任": 39,
  "椰子树": 39,
  "经历": 39,
  "el": 39,
  "氯化物": 39,
  "库@@": 39,
  "是因为": 39,
  "产能": 39,
  "ig@@": 39,
  "耐久性": 39,
  "会议记录": 39,
  "清扫": 39,
  "厅": 39,
  "硬@@": 39,
  "地球物理": 38,
  "量化": 38,
  "幼儿园": 38,
  "润滑脂": 38,
  "吉": 38,
  "委员": 38,
  "界": 38,
  "记": 38,
  "钢制": 38,
  "桩基": 38,
  "脉": 38,
  "电力供应": 38,
  "碰撞": 38,
  "异@@": 38,
  "取出": 38,
  "70%": 38,
  "ic@@": 38,
  "能@@": 38,
  "三种": 38,
  "阿尔及尔": 38,
  "内径": 38,
  "传达": 38,
  "总和": 38,
  "改良": 38,
  "航@@": 38,
  "工程进度": 38,
  "意愿": 38,
  "知识产权": 38,
  "推广": 38,
  "批": 38,
  "保护区": 38,
  "该生": 38,
  "石灰": 38,
  "终点": 38,
  "参考资料": 38,
  "B2": 38,
  "底漆": 38,
  "推迟": 38,
  "力矩": 38,
  "港区": 38,
  "扬声器": 38,
  "备忘录": 38,
  "弯管": 38,
  "2050": 38,
  "华刚": 38,
  "每位": 38,
  "探头": 38,
  "压路机": 38,
  "浸泡": 38,
  "SP": 38,
  "在此期间": 38,
  "外汇": 38,
  "刺激": 38,
  "达@@": 38,
  "签订合同": 38,
  "砖石": 38,
  "KA@@": 38,
  "PMH": 38,
  "完好": 38,
  "裂纹": 38,
  "办公": 38,
  "现代化": 38,
  "CEMAC": 38,
  "纠纷": 38,
  "MT": 38,
  "避雷针": 38,
  "物料": 38,
  "试验报告": 38,
  "货": 38,
  "温度计": 38,
  "承担责任": 38,
  "萃取": 38,
  "es@@": 38,
  "乌@@": 38,
  "一批": 38,
  "提": 38,
  "工作日内": 38,
  "充足": 38,
  "FA@@": 38,
  "担保人": 38,
  "符合规范": 38,
  "1983": 38,
  "750": 38,
  "每条": 38,
  "声@@": 38,
  "1A": 38,
  "条约": 38,
  "致@@": 38,
  "出让": 38,
  "除此之外": 38,
  "吉@@": 38,
  "教学": 38,
  "伺服电机": 38,
  "定向": 38,
  "高温": 38,
  "采样": 38,
  "董事长": 38,
  "is@@": 38,
  "调": 38,
  "以供": 38,
  "凹@@": 37,
  "沿岸": 37,
  "□": 37,
  "TI@@": 37,
  "显示器": 37,
  "LEM": 37,
  "fr": 37,
  "保险单": 37,
  "计@@": 37,
  "升级": 37,
  "次级": 37,
  "年底": 37,
  "词": 37,
  "签证": 37,
  "清": 37,
  "DIN": 37,
  "三年": 37,
  "西南": 37,
  "路缘": 37,
  "9.5": 37,
  "跨@@": 37,
  "便利": 37,
  "热镀锌": 37,
  "东西": 37,
  "连接点": 37,
  "ang@@": 37,
  "产品@@": 37,
  "档": 37,
  "产物": 37,
  "碱": 37,
  "白云岩": 37,
  "储气罐": 37,
  "短@@": 37,
  "et": 37,
  "®": 37,
  "取土": 37,
  "一张": 37,
  "看@@": 37,
  "墩": 37,
  "KVA": 37,
  "浮@@": 37,
  "蚀": 37,
  "假定": 37,
  "探伤": 37,
  "读数": 37,
  "二十八": 37,
  "相一致": 37,
  "30m": 37,
  "材": 37,
  "含义": 37,
  "特权": 37,
  "发射": 37,
  "议定书": 37,
  "班": 37,
  "谷歌": 37,
  "紧密": 37,
  "立@@": 37,
  "CIM": 37,
  "不间断": 37,
  "原产地": 37,
  "CBR": 37,
  "埃@@": 37,
  "泥": 37,
  "水塔": 37,
  "勒@@": 37,
  "寻求": 37,
  "在线": 37,
  "持久": 37,
  "管控": 37,
  "NF@@": 37,
  "人力资源": 37,
  "不够": 37,
  "SS": 37,
  "总线": 37,
  "所得税": 37,
  "29@@": 37,
  "字样": 37,
  "0.80": 37,
  "1996": 37,
  "mA": 37,
  "盖章": 37,
  "不过": 37,
  "金属@@": 37,
  "MENG": 37,
  "设计师": 37,
  "通电": 37,
  "新鲜空气": 37,
  "EPC": 37,
  "筛选": 37,
  "级配": 37,
  "职务": 37,
  "废石": 37,
  "试运行": 37,
  "生长": 37,
  "归": 37,
  "OMS": 37,
  "英语": 37,
  "耗@@": 37,
  "办法": 37,
  "投产": 37,
  "高岭土": 37,
  "铭牌": 37,
  "借款": 37,
  "奇": 37,
  "波尔多": 37,
  "饱和": 37,
  "凸@@": 36,
  "压接": 36,
  "铠装": 36,
  "尽量减少": 36,
  "按规定": 36,
  "2.0": 36,
  "扩散": 36,
  "真正": 36,
  "拖@@": 36,
  "介质": 36,
  "OU@@": 36,
  "立方体": 36,
  "明": 36,
  "大规模": 36,
  "2.8": 36,
  "取水": 36,
  "风扇": 36,
  "总经理": 36,
  "酸@@": 36,
  "龙门架": 36,
  "托@@": 36,
  "丧失": 36,
  "前期": 36,
  "钙": 36,
  "GECA": 36,
  "发射器": 36,
  "Sikasso": 36,
  "桥涵": 36,
  "挖@@": 36,
  "图中": 36,
  "熔@@": 36,
  "人为": 36,
  "....": 36,
  "尼日尔河": 36,
  "拒收": 36,
  "锯@@": 36,
  "无关": 36,
  "顶端": 36,
  "电动泵": 36,
  "泄露": 36,
  "食品": 36,
  "通告": 36,
  "秘书": 36,
  "逐步": 36,
  "院": 36,
  "打磨": 36,
  "拆模": 36,
  "书写": 36,
  "标准@@": 36,
  "事@@": 36,
  "左": 36,
  "仅限于": 36,
  "分区": 36,
  "千斤顶": 36,
  "B3": 36,
  "好处": 36,
  "废@@": 36,
  "举行": 36,
  "勒": 36,
  "维": 36,
  "消耗量": 36,
  "in": 36,
  "7.5": 36,
  "临界": 36,
  "号@@": 36,
  "斜": 36,
  "评价": 36,
  "蓄电池": 36,
  "站台": 36,
  "评审": 36,
  "Bo@@": 36,
  "索引": 36,
  "经济@@": 36,
  "电子@@": 36,
  "越来越": 36,
  "其所": 36,
  "挖": 36,
  "备": 36,
  "花费": 36,
  "T2": 36,
  "承建商": 36,
  "文凭": 36,
  "标牌": 36,
  "几年": 36,
  "梅@@": 36,
  "挤压": 36,
  "PR": 36,
  "抛光": 36,
  "立": 36,
  "1991": 36,
  "一词": 36,
  "AE@@": 36,
  "输送机": 36,
  "阳极": 36,
  "警告": 36,
  "首次": 36,
  "区间": 36,
  "主动": 36,
  "方形": 36,
  "入账": 36,
  "工种": 36,
  "采纳": 36,
  "几种": 36,
  "现代": 36,
  "穿越": 36,
  "总是": 36,
  "电子邮件": 36,
  "威胁": 36,
  "空气质量": 36,
  "理": 36,
  "靠": 36,
  "降水": 36,
  "路标": 36,
  "GTB": 36,
  "衰减": 36,
  "埃": 36,
  "所列": 36,
  "生态系统": 35,
  "一体化": 35,
  "疲劳": 35,
  "零配件": 35,
  "TGBT": 35,
  "前述": 35,
  "第二次": 35,
  "部@@": 35,
  "硅": 35,
  "管理层": 35,
  "水网": 35,
  "扳手": 35,
  "射@@": 35,
  "倾倒": 35,
  "灰@@": 35,
  "之日算": 35,
  "以太网": 35,
  "预设": 35,
  "镇": 35,
  "通向": 35,
  "教@@": 35,
  "概括": 35,
  "首选": 35,
  "丁坝": 35,
  "商业法": 35,
  "家@@": 35,
  "GEN": 35,
  "计算方法": 35,
  "our@@": 35,
  "滑槽": 35,
  "税@@": 35,
  "罗@@": 35,
  "现": 35,
  "Maradi": 35,
  "科研": 35,
  "架构": 35,
  "纸@@": 35,
  "电容": 35,
  "信@@": 35,
  "对齐": 35,
  "ERTMS": 35,
  "专@@": 35,
  "宗教": 35,
  "他人": 35,
  "耐受": 35,
  "全向": 35,
  "22@@": 35,
  "w": 35,
  "进程": 35,
  "长石": 35,
  "残余": 35,
  "任何一方": 35,
  "浓密": 35,
  "oun@@": 35,
  "赔偿金": 35,
  "对接": 35,
  "香@@": 35,
  "阻止": 35,
  "最@@": 35,
  "或非": 35,
  "留下": 35,
  "黄铜": 35,
  "激励": 35,
  "实": 35,
  "运输系统": 35,
  "爬": 35,
  "建设工程": 35,
  "RA": 35,
  "妇女": 35,
  "暴雨": 35,
  "存": 35,
  "住宿": 35,
  "分册": 35,
  "参阅": 35,
  "龙门": 35,
  "160@@": 35,
  "内置": 35,
  "字母": 35,
  "叶@@": 35,
  "精神": 35,
  "复合": 35,
  "可调": 35,
  "抽@@": 35,
  "浆": 35,
  "升高": 35,
  "试件": 35,
  "门扇": 35,
  "帽梁": 35,
  "盘@@": 35,
  "一次性": 35,
  "模@@": 35,
  "48@@": 35,
  "型钢": 35,
  "授标": 35,
  "BA": 35,
  "闸": 35,
  "HPC": 35,
  "群@@": 35,
  "招标书": 35,
  "果树": 35,
  "建议书": 35,
  "清污": 35,
  "热量": 35,
  "跑道": 35,
  "千": 35,
  "下达": 35,
  "整平": 35,
  "完毕": 35,
  "前往": 35,
  "豁免": 35,
  "残渣": 35,
  "秘书处": 35,
  "天后": 35,
  "取料": 35,
  "已有": 35,
  "借助于": 35,
  "聚氯乙烯": 35,
  "20mm": 35,
  "署": 35,
  "容重": 35,
  "堆积": 35,
  "62@@": 35,
  "探@@": 35,
  "海拔": 35,
  "临近": 35,
  "六个月": 35,
  "FR": 35,
  "原油": 34,
  "分级": 34,
  "DA": 34,
  "色调": 34,
  "桥@@": 34,
  "总数": 34,
  "te@@": 34,
  "中期": 34,
  "空载": 34,
  "构架": 34,
  "无权": 34,
  "锰": 34,
  "插头": 34,
  "NG@@": 34,
  "建@@": 34,
  "沿@@": 34,
  "105": 34,
  "围@@": 34,
  "da": 34,
  "100mm": 34,
  "系@@": 34,
  "感染": 34,
  "R.@@": 34,
  "合金": 34,
  "下来": 34,
  "几内亚共和国": 34,
  "查阅": 34,
  "链路": 34,
  "图上": 34,
  "年限": 34,
  "每周": 34,
  "系统地": 34,
  "普@@": 34,
  "艺术": 34,
  "托": 34,
  "没": 34,
  "餐厅": 34,
  "联锁": 34,
  "彩色": 34,
  "堤岸": 34,
  "参@@": 34,
  "LI@@": 34,
  "港池": 34,
  "子系统": 34,
  "发货": 34,
  "ï": 34,
  "任何人": 34,
  "价@@": 34,
  "如图": 34,
  "MHz": 34,
  "次@@": 34,
  "建筑工程": 34,
  "尼日利亚": 34,
  "突然": 34,
  "传送带": 34,
  "分组": 34,
  "固@@": 34,
  "58@@": 34,
  "自然环境": 34,
  "特殊要求": 34,
  "常见": 34,
  "估价": 34,
  "汇@@": 34,
  "注意事项": 34,
  "概算书": 34,
  "红": 34,
  "遗产": 34,
  "苏": 34,
  "女性": 34,
  "示例": 34,
  "允差": 34,
  "呈现出": 34,
  "内外": 34,
  "屏": 34,
  "找": 34,
  "应从": 34,
  "8.3": 34,
  "果": 34,
  "第三节": 34,
  "树@@": 34,
  "创立": 34,
  "卡片": 34,
  "打印机": 34,
  "精矿": 34,
  "筛分": 34,
  "填": 34,
  "长时间": 34,
  "坡道": 34,
  "用水量": 34,
  "10cm": 34,
  "定线": 34,
  "来讲": 34,
  "AG@@": 34,
  "木制": 34,
  "到位": 34,
  "不符": 34,
  "轨": 34,
  "样": 34,
  "致": 34,
  "管理体系": 34,
  "电量": 33,
  "电动机": 33,
  "织物": 33,
  "床@@": 33,
  "10mm": 33,
  "进出口": 33,
  "写明": 33,
  "叶": 33,
  "折@@": 33,
  "报@@": 33,
  "支管": 33,
  "Mpa": 33,
  "大街": 33,
  "山谷": 33,
  "分成": 33,
  "途径": 33,
  "16A": 33,
  "沟@@": 33,
  "大道": 33,
  "CR": 33,
  "办理": 33,
  "降@@": 33,
  "REP": 33,
  "A1": 33,
  "记名": 33,
  "高达": 33,
  "台上": 33,
  "落水管": 33,
  "国家@@": 33,
  "松": 33,
  "CS@@": 33,
  "约@@": 33,
  "1x@@": 33,
  "圆": 33,
  "辐射": 33,
  "粗糙": 33,
  "三角形": 33,
  "会计年度": 33,
  "油田": 33,
  "外露": 33,
  "计划书": 33,
  "立法": 33,
  "不规则": 33,
  "源头": 33,
  "药@@": 33,
  "召集": 33,
  "决定性": 33,
  "PS": 33,
  "5.00": 33,
  "早": 33,
  "侧@@": 33,
  "实用": 33,
  "110@@": 33,
  "中集": 33,
  "危机": 33,
  "宣读": 33,
  "lo@@": 33,
  "生产能力": 33,
  "排泄": 33,
  "脚@@": 33,
  "采料": 33,
  "商应": 33,
  "停": 33,
  ".2": 33,
  "确立": 33,
  "连接处": 33,
  "制裁": 33,
  "水龙头": 33,
  "模": 33,
  "支线": 33,
  "卢@@": 33,
  "电器": 33,
  "空气调节": 33,
  "ES": 33,
  "故意": 33,
  "粘结剂": 33,
  "转向": 33,
  "三层": 33,
  "行李": 33,
  "4.8": 33,
  "USD": 33,
  "出口处": 33,
  "分层": 33,
  "印刷": 33,
  "百@@": 33,
  "初@@": 33,
  "尾": 33,
  "单层": 33,
  "菲@@": 33,
  "浇灌": 33,
  "2500": 33,
  "博士生": 33,
  "伸缩": 33,
  "APS": 33,
  "具体情况": 33,
  "16.@@": 33,
  "总之": 33,
  "矿场": 33,
  "抗拉强度": 33,
  "我国": 33,
  "今天": 33,
  "1980": 33,
  "普罗旺斯": 33,
  "尺": 33,
  "烧@@": 33,
  "分割": 33,
  "工程设计": 33,
  "基岩": 33,
  "本保函": 33,
  "品质": 33,
  "余量": 33,
  "架设": 33,
  "TM": 33,
  "违背": 33,
  "ti@@": 33,
  "呢": 33,
  "岩性": 33,
  "试@@": 33,
  "比利时": 33,
  "刷": 33,
  "47@@": 33,
  "ms": 33,
  "不到": 33,
  "EL@@": 33,
  "协议书": 33,
  "车厢": 33,
  "1.20": 32,
  "区别": 32,
  "当天": 32,
  "分摊": 32,
  "做法": 32,
  "中新世": 32,
  "bar": 32,
  "66@@": 32,
  "PG@@": 32,
  "交付给": 32,
  "这部分": 32,
  "冶金": 32,
  "迹象": 32,
  "2.6": 32,
  "箍": 32,
  "数据@@": 32,
  "观点": 32,
  "二十": 32,
  "报送": 32,
  "二十@@": 32,
  "sh@@": 32,
  "火车": 32,
  "KGLAV": 32,
  "布雷": 32,
  "命名": 32,
  "ht": 32,
  "计算结果": 32,
  "双向": 32,
  "每隔": 32,
  "既有": 32,
  "紫外线": 32,
  "降": 32,
  "天达": 32,
  "SP@@": 32,
  "过失": 32,
  "固定资产": 32,
  "顶@@": 32,
  "除尘": 32,
  "糖": 32,
  "套@@": 32,
  "农@@": 32,
  ".3": 32,
  "批注": 32,
  "布设": 32,
  "缓慢": 32,
  "露台": 32,
  "追@@": 32,
  "神经": 32,
  "沉@@": 32,
  "潮汐": 32,
  "以内": 32,
  "现值": 32,
  "004": 32,
  "评论": 32,
  "铜线": 32,
  "恩": 32,
  "溶剂": 32,
  "血@@": 32,
  "突尼斯": 32,
  "2D": 32,
  "RJ45": 32,
  "树根": 32,
  "315": 32,
  "地段": 32,
  "吊杆": 32,
  "土坑": 32,
  "臂": 32,
  "绝缘体": 32,
  "缆线": 32,
  "起吊": 32,
  "TY": 32,
  "CR@@": 32,
  "考生": 32,
  "冲积": 32,
  "自愿": 32,
  "河谷": 32,
  "赤铁矿": 32,
  "彻底": 32,
  "8.1": 32,
  "1982": 32,
  "居民区": 32,
  "渗透性": 32,
  "若@@": 32,
  "132kV": 32,
  "钻@@": 32,
  "pH": 32,
  "丁烷": 32,
  "社会保障": 32,
  "粘贴": 32,
  "哪": 32,
  "旁路": 32,
  "裸": 32,
  "考古": 32,
  "GR@@": 32,
  "习惯": 32,
  "as@@": 32,
  "背面": 32,
  "甲@@": 32,
  "q@@": 32,
  "八": 32,
  "达喀尔": 32,
  "米长": 32,
  "邻近": 32,
  "把手": 32,
  "14.@@": 32,
  "除去": 32,
  "10000": 32,
  "回波": 32,
  "幅度": 32,
  "废弃": 32,
  "降级": 32,
  "试验段": 32,
  "节中": 32,
  "病人": 32,
  "65@@": 32,
  "借@@": 32,
  "刮@@": 32,
  "会计师": 32,
  "福利": 32,
  "端@@": 32,
  "限制性": 32,
  "总图": 32,
  "复制": 32,
  "形态": 32,
  "尽": 32,
  "发起人": 32,
  "养殖": 32,
  "移": 32,
  "右": 32,
  "耐": 32,
  "废": 32,
  "诸如": 32,
  "数字化": 32,
  "畜牧业": 32,
  "媒体": 32,
  "增强": 32,
  "ar": 32,
  "Cu": 32,
  "出版": 32,
  "可视": 32,
  "PI": 32,
  "占据": 32,
  "前景": 32,
  "支配": 32,
  "线条": 31,
  "DO@@": 31,
  "越@@": 31,
  "急@@": 31,
  "随@@": 31,
  "数据中心": 31,
  "礼@@": 31,
  "有功": 31,
  "检测器": 31,
  "起诉": 31,
  "PAQ": 31,
  "虚拟": 31,
  "现状": 31,
  "时代": 31,
  "夫妻": 31,
  "差距": 31,
  "密实": 31,
  "em@@": 31,
  "撞击": 31,
  "味": 31,
  "冷凝": 31,
  "知晓": 31,
  "按延米": 31,
  "第二章": 31,
  "不得不": 31,
  "旁": 31,
  "转化": 31,
  "供料": 31,
  "原型": 31,
  "道岔": 31,
  "埋入": 31,
  "我行": 31,
  "1986": 31,
  "圈梁": 31,
  "抵达": 31,
  "惯性": 31,
  "电视": 31,
  "________________@@": 31,
  "云母": 31,
  "引": 31,
  "无损": 31,
  "起始": 31,
  "周@@": 31,
  "位@@": 31,
  "工程项目": 31,
  "燃油": 31,
  "AS@@": 31,
  "270": 31,
  "4x@@": 31,
  "翻@@": 31,
  "Di@@": 31,
  "细粒": 31,
  "九@@": 31,
  "0.60": 31,
  "归还": 31,
  "现浇": 31,
  "页码": 31,
  "开发商": 31,
  "方砖": 31,
  "金属管": 31,
  "酬金": 31,
  "GWh": 31,
  "CM@@": 31,
  "图片": 31,
  "停工": 31,
  "号码": 31,
  "馈线": 31,
  "扣押": 31,
  "另@@": 31,
  "生产者": 31,
  "CR1": 31,
  "五金件": 31,
  "道@@": 31,
  "超速": 31,
  "给@@": 31,
  "走@@": 31,
  "提示": 31,
  "提起": 31,
  "FO": 31,
  "很小": 31,
  "留@@": 31,
  "太": 31,
  "设计标准": 31,
  "解": 31,
  "独@@": 31,
  "100m": 31,
  "路上": 31,
  "海岸线": 31,
  "场@@": 31,
  "齿轮": 31,
  "1.00@@": 31,
  "MP": 31,
  "数目": 31,
  "防治": 31,
  "六十": 31,
  "拆@@": 31,
  "绿化": 31,
  "谷": 31,
  "尝试": 31,
  "防火墙": 31,
  "境界": 31,
  "静@@": 31,
  "SORAZ": 31,
  "抽水": 31,
  "阻抗": 31,
  "单中": 31,
  "碾压": 31,
  "莱@@": 31,
  "可达": 31,
  "SI": 31,
  "区内": 31,
  "拉杆": 31,
  "灰": 31,
  "200mm": 31,
  "第三纪": 31,
  "210": 31,
  "母公司": 31,
  "果@@": 31,
  "凹陷": 31,
  "摂": 31,
  "KM": 31,
  "BE": 31,
  "亿年": 31,
  "租金": 31,
  "信道": 31,
  "采场": 31,
  "十分": 31,
  "阿特拉斯": 31,
  "设定值": 31,
  "平滑": 31,
  "在外": 31,
  "熔": 31,
  "终@@": 31,
  "缩小": 31,
  "滤@@": 31,
  "尽管如此": 31,
  "一览表": 31,
  "AT": 31,
  "公证": 31,
  "例": 31,
  "筒": 31,
  "当时": 31,
  "碳氢": 31,
  "消费者": 31,
  "调研": 31,
  "黄金": 31,
  "大声": 30,
  "有限责任": 30,
  "以防": 30,
  "设计院": 30,
  "涂@@": 30,
  "破损": 30,
  "英@@": 30,
  "P2": 30,
  "新鲜": 30,
  "加高": 30,
  "公共卫生": 30,
  "前方": 30,
  "干式": 30,
  "7.4": 30,
  "异物": 30,
  "月度": 30,
  "回流": 30,
  "灯@@": 30,
  "耗材": 30,
  "安全装置": 30,
  "编辑": 30,
  "穆@@": 30,
  "闭@@": 30,
  "114": 30,
  "与@@": 30,
  "变革": 30,
  "堆@@": 30,
  "接管": 30,
  "价格调整": 30,
  "分发": 30,
  "末": 30,
  "配电器": 30,
  "PN@@": 30,
  "获@@": 30,
  "co@@": 30,
  "想要": 30,
  "浅@@": 30,
  "母@@": 30,
  "混合@@": 30,
  "票据": 30,
  "生产线": 30,
  "突@@": 30,
  "起到": 30,
  "后处理": 30,
  "营销": 30,
  "管件": 30,
  "高等教育": 30,
  "品种": 30,
  "DI": 30,
  "移@@": 30,
  "ond@@": 30,
  "发挥": 30,
  "看出": 30,
  "移交": 30,
  "普遍": 30,
  "热带": 30,
  "63@@": 30,
  "按摩": 30,
  "高压电": 30,
  "投保": 30,
  "岩相": 30,
  "再@@": 30,
  "165": 30,
  "规@@": 30,
  "交换机": 30,
  "降水量": 30,
  "限": 30,
  "卫生@@": 30,
  "230V": 30,
  "远近": 30,
  "授权书": 30,
  "400V": 30,
  "19.@@": 30,
  "出版物": 30,
  "自动控制": 30,
  "检@@": 30,
  "十二": 30,
  "迪兹瓦": 30,
  "锚@@": 30,
  "莫@@": 30,
  "框图": 30,
  "伸长": 30,
  "补助": 30,
  "阶@@": 30,
  "差@@": 30,
  "RESEAU": 30,
  "失去": 30,
  "乐@@": 30,
  "维尔": 30,
  "以下几点": 30,
  "录": 30,
  "符合规定": 30,
  "表单": 30,
  "中小企业": 30,
  "军@@": 30,
  "这笔": 30,
  "扣留": 30,
  "报销": 30,
  "联接": 30,
  "弃": 30,
  "预防性": 30,
  "多功能": 30,
  "岩浆": 30,
  "自重": 30,
  "反光": 30,
  "S1": 30,
  "发运": 30,
  "本文": 30,
  "粉末": 30,
  "信件": 30,
  "FI@@": 30,
  "锤": 30,
  "ES@@": 30,
  "对方": 30,
  "埋": 30,
  "百分之十": 30,
  "犯": 30,
  "给定": 30,
  "电磁": 30,
  "栋": 30,
  "交换器": 30,
  "横剖面": 30,
  "海平面": 30,
  "20.@@": 30,
  "惰性": 30,
  "201": 30,
  "机动": 30,
  "乱": 30,
  "点击": 30,
  "链接": 30,
  "即@@": 30,
  "防锈": 30,
  "左岸": 30,
  "4mm": 30,
  "可追溯": 30,
  "垫@@": 30,
  "硫酸盐": 30,
  "利益冲突": 30,
  "测试程序": 30,
  "吹": 30,
  "振幅": 30,
  "阿尔@@": 30,
  "衡量": 30,
  "筛@@": 30,
  "贮存": 29,
  "工段": 29,
  "送风": 29,
  "减速": 29,
  "服务提供商": 29,
  "轻松": 29,
  "雷达": 29,
  "演@@": 29,
  "负担": 29,
  "权@@": 29,
  "浮动": 29,
  "岩块": 29,
  "PL": 29,
  "升@@": 29,
  "抗震": 29,
  "外面": 29,
  "氯丁橡胶": 29,
  "筛": 29,
  "同类": 29,
  "#": 29,
  "日本": 29,
  "飞@@": 29,
  "ASI": 29,
  "GUICE": 29,
  "淡化": 29,
  "行走": 29,
  "1985": 29,
  "蜗壳": 29,
  "曲线图": 29,
  "所谓": 29,
  "PIV": 29,
  "溢洪道": 29,
  "单向": 29,
  "启用": 29,
  "必不可少": 29,
  "10.3": 29,
  "106": 29,
  "罗": 29,
  "组建": 29,
  "封": 29,
  "转变": 29,
  "出水口": 29,
  "右岸": 29,
  "纳税": 29,
  "换流器": 29,
  "LC": 29,
  "中将": 29,
  "管理员": 29,
  "寄送": 29,
  "金矿": 29,
  "石油气": 29,
  "我@@": 29,
  "标准规定": 29,
  "旅游": 29,
  "脆弱": 29,
  "观": 29,
  "蒸发": 29,
  "电缆沟": 29,
  "杜": 29,
  "进水": 29,
  "大西洋": 29,
  "环境@@": 29,
  "流动性": 29,
  "测验": 29,
  "周围环境": 29,
  "基部": 29,
  "基本上": 29,
  "工学": 29,
  "万元": 29,
  "厂内": 29,
  "梯": 29,
  "富含": 29,
  "画": 29,
  "媒介": 29,
  "雨量": 29,
  "污@@": 29,
  "硫": 29,
  "签@@": 29,
  "互相": 29,
  "le@@": 29,
  "电梯": 29,
  "入院": 29,
  "拖船": 29,
  "保险费": 29,
  "航站楼": 29,
  "oul@@": 29,
  "盖子": 29,
  "3.00": 29,
  "放入": 29,
  "佩戴": 29,
  "卢": 29,
  "系统@@": 29,
  "身": 29,
  "停车位": 29,
  "乘以": 29,
  "240@@": 29,
  "贯穿": 29,
  "模架": 29,
  "缝隙": 29,
  "注射": 29,
  "排放量": 29,
  "39@@": 29,
  "2mm": 29,
  "艾滋病": 29,
  "盆": 29,
  "不受": 29,
  "气候变化": 29,
  "退": 29,
  "主管机关": 29,
  "闪@@": 29,
  "功能性": 29,
  "细账": 29,
  "窗底": 29,
  "速率": 29,
  "网上": 29,
  "活跃": 29,
  "M1": 29,
  "26.@@": 29,
  "必要性": 29,
  "记@@": 29,
  "频繁": 29,
  "岩群": 29,
  "电源插座": 29,
  "NGC": 29,
  "校正": 29,
  "国籍": 29,
  "社会@@": 29,
  "接合": 29,
  "弗朗斯维尔": 29,
  "岩组": 29,
  "支票": 29,
  "回归": 29,
  "VII": 29,
  "家电": 29,
  "氧气": 28,
  "观@@": 28,
  "10.1": 28,
  "酸性": 28,
  "额定功率": 28,
  "活": 28,
  "拾": 28,
  "批@@": 28,
  "324": 28,
  "磋商": 28,
  "4.00": 28,
  "安全设备": 28,
  "品@@": 28,
  "孔隙": 28,
  "共有": 28,
  "耕地": 28,
  "8.4": 28,
  "园区": 28,
  "NO@@": 28,
  "候选": 28,
  "预埋": 28,
  "0.15": 28,
  "解@@": 28,
  "评分": 28,
  "贫@@": 28,
  "5.0": 28,
  "工业@@": 28,
  "工业化": 28,
  "国道": 28,
  "固结": 28,
  "接下来": 28,
  "章中": 28,
  "额定电流": 28,
  "紧": 28,
  "SIV": 28,
  "源于": 28,
  "尽@@": 28,
  "犯罪": 28,
  "F1": 28,
  "多少": 28,
  "整": 28,
  "即便": 28,
  "SD@@": 28,
  "Zinder": 28,
  "工作台": 28,
  "目视": 28,
  "高质量": 28,
  "完工后": 28,
  "动产": 28,
  "急性": 28,
  "补@@": 28,
  "加快": 28,
  "录@@": 28,
  "9.4": 28,
  "平板": 28,
  "夹@@": 28,
  "凝固": 28,
  "平均@@": 28,
  "调查结果": 28,
  "AFNOR": 28,
  "PS@@": 28,
  "聚酯": 28,
  "存货": 28,
  "13.@@": 28,
  "继承人": 28,
  "滚轮": 28,
  "魁北克": 28,
  "拉力": 28,
  "汇报": 28,
  "职员": 28,
  "补救措施": 28,
  "编织": 28,
  "任一": 28,
  "iv": 28,
  "基本@@": 28,
  "镍": 28,
  "倾@@": 28,
  "德国": 28,
  "详细描述": 28,
  "PM": 28,
  "二十四": 28,
  "结构@@": 28,
  "应以": 28,
  "怎样": 28,
  "锥形": 28,
  "ro@@": 28,
  "ia": 28,
  "驱动器": 28,
  "节目": 28,
  "号箱": 28,
  "进度表": 28,
  "模拟器": 28,
  "电容器": 28,
  "摄氏度": 28,
  "石棉": 28,
  "两份": 28,
  "再生能源": 28,
  "电箱": 28,
  "AF@@": 28,
  "优@@": 28,
  "分数": 28,
  "门框": 28,
  "成熟": 28,
  "湿": 28,
  "涂敷": 28,
  "电子设备": 28,
  "助理": 28,
  "管材": 28,
  "连接起来": 28,
  "今后": 28,
  "实物": 28,
  "路灯": 28,
  "每层": 28,
  "木工": 28,
  "时才": 28,
  "地貌": 28,
  "莱": 28,
  "收费站": 28,
  "康@@": 28,
  "LU@@": 28,
  "身@@": 28,
  "或多或少": 28,
  "日于": 28,
  "地上": 28,
  "管状": 28,
  "呼叫": 28,
  "探索": 28,
  "疗程": 28,
  "夹层": 28,
  "议@@": 28,
  "遮@@": 28,
  "涵洞": 28,
  "45@@": 28,
  "EC": 28,
  "申报单": 28,
  "态": 28,
  "踢脚板": 28,
  "证明书": 28,
  "留空": 28,
  "充@@": 28,
  "注册号": 28,
  "304": 28,
  "停靠": 28,
  "q": 28,
  "牵引力": 28,
  "凸起": 28,
  "水域": 28,
  "转账": 28,
  "腐蚀性": 28,
  "km2": 28,
  "目": 28,
  "Ch@@": 28,
  "外加剂": 28,
  "ss@@": 28,
  "我司": 28,
  "标出": 28,
  "晚": 28,
  "泄水": 28,
  "窗口": 28,
  "背@@": 28,
  "In@@": 28,
  "制动器": 28,
  "窗玻璃": 28,
  "常": 28,
  "门槛": 28,
  "间@@": 27,
  "统计数据": 27,
  "花园": 27,
  "精加工": 27,
  "概率": 27,
  "or": 27,
  "切": 27,
  "传动": 27,
  "VII.1": 27,
  "土质": 27,
  "湖泊": 27,
  "钠": 27,
  "2.50": 27,
  "mc": 27,
  "Malbaza": 27,
  "ni": 27,
  "中为": 27,
  "发明": 27,
  "黑": 27,
  "ELU": 27,
  "ER@@": 27,
  "8m": 27,
  "总体规划": 27,
  "达成协议": 27,
  "页面": 27,
  "贴": 27,
  "入境": 27,
  "定期检查": 27,
  "0.0@@": 27,
  "湿润": 27,
  "奇@@": 27,
  "灵活性": 27,
  "海底": 27,
  "方应": 27,
  "早期": 27,
  "B1": 27,
  "170": 27,
  "非法": 27,
  "套件": 27,
  "球@@": 27,
  "铜矿": 27,
  "萨": 27,
  "15m": 27,
  "端的": 27,
  "清表": 27,
  "生产@@": 27,
  "碱性": 27,
  "36@@": 27,
  "宽@@": 27,
  "促使": 27,
  "脱碳": 27,
  "照明灯": 27,
  "平整度": 27,
  "ZH": 27,
  "测试报告": 27,
  "人民": 27,
  "情@@": 27,
  "RN@@": 27,
  "PH@@": 27,
  "会计核算": 27,
  "ce": 27,
  "总共": 27,
  "骨@@": 27,
  "互@@": 27,
  "炎": 27,
  "概况": 27,
  "缘": 27,
  "文化遗产": 27,
  "蒂@@": 27,
  "第六节": 27,
  "右@@": 27,
  "泵@@": 27,
  "日前": 27,
  "需提交": 27,
  "4.7": 27,
  "力学": 27,
  "ine": 27,
  "你们": 27,
  "事": 27,
  "14.1": 27,
  "箭头": 27,
  "美观": 27,
  "股权": 27,
  "退出": 27,
  "25mm": 27,
  "测试台": 27,
  "径": 27,
  "准确性": 27,
  "率为": 27,
  "预备": 27,
  "反向": 27,
  "箱@@": 27,
  "舒适": 27,
  "缝@@": 27,
  "15cm": 27,
  "月底": 27,
  "续": 27,
  "12.2": 27,
  "口头": 27,
  "E1": 27,
  "Vcc": 27,
  "225kV": 27,
  "铁矿": 27,
  "棕色": 27,
  "oc@@": 27,
  "当量": 27,
  "NA": 27,
  "千瓦时": 27,
  "莫": 27,
  "空中": 27,
  "铰链": 27,
  "深层": 27,
  "斜面": 27,
  "理@@": 27,
  "输@@": 27,
  "铝土矿": 27,
  "聚集": 27,
  "设想": 27,
  "3x@@": 27,
  "2.01": 27,
  "进水口": 27,
  "别@@": 27,
  "完@@": 27,
  "卡尔": 27,
  "泥浆": 27,
  "滚筒": 27,
  "气管": 27,
  "症": 27,
  "钢化玻璃": 27,
  "焚烧": 27,
  "冲压": 27,
  "虫": 27,
  "盐@@": 27,
  "四周": 27,
  "MS": 27,
  "药物": 27,
  "6.4": 27,
  "2A": 27,
  "201@@": 27,
  "建筑@@": 27,
  "注册资本": 27,
  "放大": 27,
  "转速": 27,
  "浸入": 27,
  "对话": 27,
  "320": 27,
  "洗@@": 27,
  "12.1": 27,
  "15.2": 27,
  "风格": 27,
  "锁具": 27,
  "阿贾": 27,
  "千米": 27,
  "顶板": 27,
  "对外": 27,
  "1400": 27,
  "现实": 27,
  "回收率": 27,
  "哈拉": 27,
  "110kV": 27,
  "EDF": 27,
  "轻型": 27,
  "AL@@": 27,
  "汇集": 27,
  "隔开": 27,
  "0.7": 26,
  "节约": 26,
  "阻塞": 26,
  "硫化": 26,
  "自由@@": 26,
  "仅供参考": 26,
  "星@@": 26,
  "滚@@": 26,
  "50341": 26,
  "3.7": 26,
  "决@@": 26,
  "33kV": 26,
  "高强度": 26,
  "减": 26,
  "没收": 26,
  "眼": 26,
  "流向": 26,
  "GC": 26,
  "失误": 26,
  "接机": 26,
  "径向": 26,
  "可编程": 26,
  "打": 26,
  "环氧树脂": 26,
  "商议": 26,
  "净@@": 26,
  "危险废物": 26,
  "烟": 26,
  "瑞士": 26,
  "稠度": 26,
  "携带": 26,
  "ik@@": 26,
  "OP@@": 26,
  "厚@@": 26,
  "过境": 26,
  "相匹配": 26,
  "可视化": 26,
  "架空线": 26,
  "开裂": 26,
  "阿加迪尔": 26,
  "定为": 26,
  "修": 26,
  "严@@": 26,
  "总长度": 26,
  "开关设备": 26,
  "厂区": 26,
  "－": 26,
  "信息系统": 26,
  "总面积": 26,
  "大纲": 26,
  "预处理": 26,
  "肩": 26,
  "涂刷": 26,
  "皮带": 26,
  "手术": 26,
  "as": 26,
  "角色": 26,
  "团": 26,
  "64@@": 26,
  "破坏性": 26,
  "排水口": 26,
  "瞬时": 26,
  "承租人": 26,
  "上层": 26,
  "尚": 26,
  "欧": 26,
  "海事": 26,
  "写入": 26,
  "费@@": 26,
  "执行机构": 26,
  "生物@@": 26,
  "炉": 26,
  "测量点": 26,
  "还原": 26,
  "耳@@": 26,
  "梯子": 26,
  "频段": 26,
  "塞内加尔河": 26,
  "技术标准": 26,
  "伯@@": 26,
  "充满": 26,
  "eu@@": 26,
  "管委会": 26,
  "略": 26,
  "医学": 26,
  "隔@@": 26,
  "锁@@": 26,
  "平方公里": 26,
  "满足要求": 26,
  "嵌合": 26,
  "隧道": 26,
  "证@@": 26,
  "高架桥": 26,
  "中继": 26,
  "诺": 26,
  "多年": 26,
  "示@@": 26,
  "机器人": 26,
  "单极": 26,
  "活门": 26,
  "有轨电车": 26,
  "效力": 26,
  "险": 26,
  "初": 26,
  "SETRA": 26,
  "百分之@@": 26,
  "全额": 26,
  "伸长率": 26,
  "店": 26,
  "推进": 26,
  "放射性": 26,
  "手柄": 26,
  "缩短": 26,
  "旁边": 26,
  "相关性": 26,
  "渣": 26,
  "鼓风机": 26,
  "债务人": 26,
  "排名": 26,
  "分卷": 26,
  "VA": 26,
  "超高": 26,
  "衣": 26,
  "减缓": 26,
  "元": 26,
  "链@@": 26,
  "1B": 26,
  "分配器": 26,
  "浸透": 26,
  "四十五": 26,
  "届满": 26,
  "预制件": 26,
  "无线": 26,
  "SM@@": 26,
  "自检": 26,
  "服": 26,
  "民法": 26,
  "听@@": 26,
  "实质性": 26,
  "铺路": 26,
  "境": 26,
  "过错": 26,
  "挑檐": 26,
  "亲自": 26,
  "协同": 26,
  "镁": 26,
  "氢@@": 26,
  "免@@": 26,
  "206": 26,
  "可乐": 26,
  "重复使用": 26,
  "留出": 26,
  "测试@@": 26,
  "该类": 26,
  "法官": 26,
  "火焰": 26,
  "工程质量": 26,
  "发起": 26,
  "绢": 26,
  "PI@@": 26,
  "随机": 26,
  "酒@@": 26,
  "压力计": 26,
  "遗址": 26,
  "合理性": 26,
  "™": 26,
  "缩减": 26,
  "女士": 26,
  "灌注": 26,
  "高效": 26,
  "钢丝": 26,
  "C30": 26,
  "年均": 26,
  "试图": 26,
  "保温": 26,
  "愿意": 26,
  "2.7": 26,
  "垫片": 26,
  "lm": 26,
  "凝@@": 26,
  "脱离": 26,
  "焊@@": 26,
  "信息@@": 26,
  "使@@": 26,
  "第一层": 26,
  "起伏": 26,
  "电镀": 26,
  "营@@": 26,
  "沙勒港": 26,
  "17.3": 26,
  "载体": 26,
  "看见": 26,
  "奖项": 26,
  "填土": 26,
  "人身": 26,
  "借方": 26,
  "st@@": 26,
  "很难": 26,
  "A3": 26,
  "石砌": 26,
  "残@@": 26,
  "渗漏": 26,
  "IV@@": 26,
  "拌和": 26,
  "装货": 26,
  "基准面": 26,
  "绕行": 26,
  "做到": 26,
  "查@@": 26,
  "绝缘材料": 26,
  "依@@": 26,
  "卫@@": 26,
  "碳酸盐": 26,
  "P3": 25,
  "接收器": 25,
  "绿@@": 25,
  "OCM": 25,
  "难": 25,
  "指挥": 25,
  "变成": 25,
  "杆@@": 25,
  "时刻": 25,
  "IE@@": 25,
  "扫描": 25,
  "沙丘": 25,
  "隐蔽": 25,
  "停放": 25,
  "曲@@": 25,
  "喷涂": 25,
  "富@@": 25,
  "施@@": 25,
  "原位": 25,
  "TT": 25,
  "公平": 25,
  "av@@": 25,
  "整改": 25,
  "修筑": 25,
  "药": 25,
  "if@@": 25,
  "卸": 25,
  "Mb@@": 25,
  "过高": 25,
  "行政部门": 25,
  "05@@": 25,
  "领@@": 25,
  "个数": 25,
  "380": 25,
  "赤字": 25,
  "兰": 25,
  "示范": 25,
  "DAP": 25,
  "145": 25,
  "汇总表": 25,
  "FF": 25,
  "项目管理": 25,
  "合同法": 25,
  "ma@@": 25,
  "一同": 25,
  "提请": 25,
  "TR@@": 25,
  "外形": 25,
  "战争": 25,
  "CTA": 25,
  "需求量": 25,
  "前者": 25,
  "Taouey": 25,
  "装修": 25,
  "胶合板": 25,
  "洛杉矶": 25,
  "6m": 25,
  "征税": 25,
  "参保": 25,
  "推断": 25,
  "牵头": 25,
  "通风口": 25,
  "自然@@": 25,
  "火车站": 25,
  "ot@@": 25,
  "PF": 25,
  "白": 25,
  "50Hz": 25,
  "投票": 25,
  "损益": 25,
  "112": 25,
  "例子": 25,
  "投影": 25,
  "阿比让": 25,
  "ba@@": 25,
  "账": 25,
  "街区": 25,
  "恶化": 25,
  "运输@@": 25,
  "约束力": 25,
  "截": 25,
  "箱子": 25,
  "界定": 25,
  "独家": 25,
  "温室": 25,
  "水槽": 25,
  "向下": 25,
  "下载": 25,
  "笔录": 25,
  "连": 25,
  "il": 25,
  "限速": 25,
  "630": 25,
  "原理图": 25,
  "DDPN": 25,
  "融合": 25,
  "拦污栅": 25,
  "送达": 25,
  "连带责任": 25,
  "应能": 25,
  "盒子": 25,
  "360": 25,
  "8000": 25,
  "Guiers": 25,
  "广场": 25,
  "归@@": 25,
  "HTA": 25,
  "议程": 25,
  "非政府": 25,
  "进路": 25,
  "覆盖物": 25,
  "封堵": 25,
  "公共交通": 25,
  "层状": 25,
  "SN@@": 25,
  "洛": 25,
  "18.@@": 25,
  "螺旋": 25,
  "SC@@": 25,
  "潮": 25,
  "防尘": 25,
  "大大": 25,
  "照@@": 25,
  "1200@@": 25,
  "孩子": 25,
  "木桩": 25,
  "KW": 25,
  "鳄": 25,
  "考试": 25,
  "梨树": 25,
  "雨@@": 25,
  "静力学": 25,
  "轻": 25,
  "中所": 25,
  "保险@@": 25,
  "展@@": 25,
  "乳@@": 25,
  "107": 25,
  "防滑": 25,
  "cm2": 25,
  "止": 25,
  "六个": 25,
  "油气": 25,
  "登记册": 25,
  "高原": 25,
  "兹": 25,
  "重叠": 25,
  "体育": 25,
  "要@@": 25,
  "11.1": 25,
  "那@@": 25,
  "盘柜": 25,
  "监察": 25,
  "调用": 25,
  "N1": 25,
  "在下文": 25,
  "仟": 25,
  "聚丙烯": 25,
  "不必": 25,
  "玻璃纤维": 25,
  "龙头": 25,
  "眼睛": 25,
  "流程图": 25,
  "其他人": 25,
  "持": 25,
  "损害赔偿": 25,
  "园": 25,
  "12.3": 25,
  "耐火": 25,
  "尘": 25,
  "哈@@": 25,
  "二极管": 25,
  "塑性": 25,
  "la@@": 25,
  "动力学": 25,
  "危险性": 25,
  "钳": 25,
  "交叉口": 25,
  "土建": 25,
  "附加费": 25,
  "ER": 25,
  "废油": 25,
  "1600": 25,
  "区块": 25,
  "协调员": 25,
  "频": 25,
  "对本": 25,
  "行车": 25,
  "相关联": 25,
  "序": 25,
  "易燃": 25,
  "船@@": 25,
  "CTC": 25,
  "验收报告": 25,
  "保持一致": 25,
  "17.@@": 25,
  "GA": 25,
  "触电": 25,
  "办": 25,
  "三级": 25,
  "泥@@": 25,
  "扫": 24,
  "大陆": 24,
  "停留": 24,
  "毒性": 24,
  "工程建设": 24,
  "Nm": 24,
  "闪烁": 24,
  "劳动者": 24,
  "蔬菜": 24,
  "白天": 24,
  "延米数": 24,
  "外科": 24,
  "洪@@": 24,
  "人机界面": 24,
  "船队": 24,
  "急救": 24,
  "担保金": 24,
  "IF@@": 24,
  "____": 24,
  "居": 24,
  "齐全": 24,
  "S2": 24,
  "发光": 24,
  "整齐": 24,
  "知名": 24,
  "V2": 24,
  "A型": 24,
  "吸引": 24,
  "鉴别": 24,
  "缩@@": 24,
  "货币联盟": 24,
  "工作@@": 24,
  "黏@@": 24,
  "组分": 24,
  "局@@": 24,
  "GU@@": 24,
  "官": 24,
  "曼@@": 24,
  "冷凝水": 24,
  "205": 24,
  "4.0": 24,
  "矿体": 24,
  "纯@@": 24,
  "以使": 24,
  "查": 24,
  "中小型": 24,
  "那样": 24,
  "艾克斯": 24,
  "脱模": 24,
  "算术": 24,
  "棱": 24,
  "并入": 24,
  "us": 24,
  "残留": 24,
  "污泥": 24,
  "勾缝": 24,
  "福@@": 24,
  "依然": 24,
  "执照": 24,
  "判定": 24,
  "ub@@": 24,
  "薄板": 24,
  "蛋白": 24,
  "有机物": 24,
  "隔断": 24,
  "血": 24,
  "抽屉": 24,
  "21.@@": 24,
  "额度": 24,
  "分拣": 24,
  "‐": 24,
  "追加": 24,
  "曾": 24,
  "帐": 24,
  "运营者": 24,
  "API": 24,
  "以南": 24,
  "施工人员": 24,
  "日程安排": 24,
  "器@@": 24,
  "瀑布": 24,
  "无条件": 24,
  "视察": 24,
  "西班牙": 24,
  "所选": 24,
  "栖息地": 24,
  "意向书": 24,
  "风向": 24,
  "细致": 24,
  "立交桥": 24,
  "祈祷": 24,
  "GP": 24,
  "溶解": 24,
  "后期": 24,
  "税金": 24,
  "备份": 24,
  "吊车": 24,
  "外侧": 24,
  "穿透": 24,
  "第一章": 24,
  "MALT": 24,
  "值为": 24,
  "所说": 24,
  "附着": 24,
  "矿产资源": 24,
  "发出通知": 24,
  "迹": 24,
  "清算人": 24,
  "埃尔": 24,
  "辞职": 24,
  "水利工程": 24,
  "25.@@": 24,
  "应使": 24,
  "白云石": 24,
  "静止": 24,
  "收件人": 24,
  "泛@@": 24,
  "感@@": 24,
  "配筋": 24,
  "域": 24,
  "无偿": 24,
  "返工": 24,
  "挡": 24,
  "DCS": 24,
  "资": 24,
  "公共财产": 24,
  "喷淋": 24,
  "到期日": 24,
  "移动式": 24,
  "简易": 24,
  "撤@@": 24,
  "平等": 24,
  "波高": 24,
  "PH": 24,
  "阿方": 24,
  "温升": 24,
  "核电": 24,
  "精确度": 24,
  "回顾": 24,
  "防晒": 24,
  "保持良好": 24,
  "附着力": 24,
  "人体": 24,
  "百": 24,
  "销钉": 24,
  "一式": 24,
  "毗邻": 24,
  "多样化": 24,
  "短时间": 24,
  "薄@@": 24,
  "进步": 24,
  "6mm": 24,
  "Ra": 24,
  "磨耗": 24,
  "标线": 24,
  "玻璃@@": 24,
  "创@@": 24,
  "金属门": 24,
  "各国": 24,
  "OH@@": 24,
  "商法": 24,
  "损": 24,
  "S3": 24,
  "偶然": 24,
  "回应": 24,
  "ong@@": 24,
  "航行": 24,
  "163": 24,
  "牢固": 24,
  "穿": 24,
  "地球化学": 24,
  "0.10": 24,
  "私@@": 24,
  "103": 24,
  "竞争性": 24,
  "抑制": 24,
  "不足以": 24,
  "城镇": 24,
  "年轻": 24,
  "粘性": 24,
  "4000K": 24,
  "21@@": 24,
  "CEM": 24,
  "确实": 24,
  "金属件": 24,
  "某一": 24,
  "笔": 24,
  "临建": 24,
  "舒适性": 24,
  "艘": 24,
  "海床": 24,
  "寄": 24,
  "缺席": 24,
  "容@@": 24,
  "劳@@": 24,
  "星期@@": 24,
  "转发": 24,
  "CM": 24,
  "堤头": 24,
  "减值": 24,
  "MIN@@": 24,
  "中央银行": 24,
  "清运": 24,
  "拱@@": 24,
  "日光": 24,
  "消防栓": 24,
  "过筛": 24,
  "接线板": 24,
  "交通系统": 24,
  "展现": 24,
  "博物馆": 24,
  "选择性": 24,
  "百年": 24,
  "开放式": 24,
  "资@@": 24,
  "尖轨": 24,
  "寄@@": 24,
  "磨光": 24,
  "乡村": 24,
  "logn": 24,
  "合格证": 24,
  "风化": 24,
  "RP": 24,
  "均@@": 24,
  "相关者": 24,
  "生产力": 24,
  "DAO": 24,
  "换": 24,
  "居@@": 24,
  "操作系统": 23,
  "气缸": 23,
  "棱@@": 23,
  "业@@": 23,
  "仲裁员": 23,
  "丰@@": 23,
  "自然资源": 23,
  "ing": 23,
  "针": 23,
  "at": 23,
  "托盘": 23,
  "US": 23,
  "方位": 23,
  "第四@@": 23,
  "激@@": 23,
  "西北部": 23,
  "负@@": 23,
  "散货": 23,
  "过电压": 23,
  "晶": 23,
  "桌@@": 23,
  "DM": 23,
  "消极": 23,
  "80mm": 23,
  "B21": 23,
  "划@@": 23,
  "阻@@": 23,
  "Œ": 23,
  "IT": 23,
  "月@@": 23,
  "ing@@": 23,
  "吉耶尔": 23,
  "挡块": 23,
  "集团公司": 23,
  "11kV": 23,
  "300mm": 23,
  "反之亦然": 23,
  "拉斯": 23,
  "方将": 23,
  "呈@@": 23,
  "瓶@@": 23,
  "占有": 23,
  "购@@": 23,
  "经由": 23,
  "收集器": 23,
  "SAE": 23,
  "出去": 23,
  "归档": 23,
  "ha": 23,
  "客@@": 23,
  "[": 23,
  "土地@@": 23,
  "主管机构": 23,
  "D1": 23,
  "7.6": 23,
  "厂@@": 23,
  "充气": 23,
  "|": 23,
  "消防@@": 23,
  "杂质": 23,
  "多项": 23,
  "纵@@": 23,
  "1984": 23,
  "热力": 23,
  "菌": 23,
  "无用": 23,
  "所附": 23,
  "mb@@": 23,
  "马拉喀什": 23,
  "站@@": 23,
  "卡帕": 23,
  "14.4": 23,
  "ONEE": 23,
  "涂覆": 23,
  "任@@": 23,
  "水头": 23,
  "滤": 23,
  "科卢": 23,
  "4000": 23,
  "居民点": 23,
  "上表": 23,
  "科学@@": 23,
  "规章制度": 23,
  "模块化": 23,
  "处理@@": 23,
  "缘石": 23,
  "小计": 23,
  "DD@@": 23,
  "第@@": 23,
  "石子": 23,
  "行事": 23,
  "69@@": 23,
  "电磁兼容": 23,
  "CAN": 23,
  "中以": 23,
  "输送到": 23,
  "NS": 23,
  "盈亏": 23,
  "视@@": 23,
  "市场@@": 23,
  "约束条件": 23,
  "Ro@@": 23,
  "装运": 23,
  "补偿金": 23,
  "制热": 23,
  "香料": 23,
  "PP": 23,
  "违法": 23,
  "ra": 23,
  "CO2": 23,
  "两倍": 23,
  "重新@@": 23,
  "初始状态": 23,
  "TS@@": 23,
  "质量检查": 23,
  "承保人": 23,
  "下限": 23,
  "世界银行": 23,
  "众多": 23,
  "相交": 23,
  "息": 23,
  "扩@@": 23,
  "LA": 23,
  "捕获": 23,
  "十字路口": 23,
  "番木瓜": 23,
  "～": 23,
  "夹紧": 23,
  "Ma": 23,
  "公园": 23,
  "广@@": 23,
  "周长": 23,
  "lux": 23,
  "百叶窗": 23,
  "RC": 23,
  "双方同意": 23,
  "藏": 23,
  "超级": 23,
  "火山岩": 23,
  "就业机会": 23,
  "芯@@": 23,
  "阳光": 23,
  "赛": 23,
  "跌落": 23,
  "音@@": 23,
  "诺@@": 23,
  "am": 23,
  "发表": 23,
  "88@@": 23,
  "加拿大": 23,
  "固定点": 23,
  "移位": 23,
  "OHADA": 23,
  "斑": 23,
  "运费": 23,
  "慢性": 23,
  "门上": 23,
  "剥@@": 23,
  "罐@@": 23,
  "两根": 23,
  "求@@": 23,
  "硫化物": 23,
  "ACCROPODE": 23,
  "Mar@@": 23,
  "作者": 23,
  "畜牧": 23,
  "稳固": 23,
  "0.25": 23,
  "处以": 23,
  "质疑": 23,
  "ch": 23,
  "粉砂": 23,
  "纪律": 23,
  "飞行": 23,
  "形象": 23,
  "驻": 23,
  "Kou@@": 23,
  "BI@@": 23,
  "Ou@@": 23,
  "振捣": 23,
  "横跨": 23,
  "不便": 23,
  "固定式": 23,
  "多路": 23,
  "间断": 23,
  "雷击": 23,
  "++": 23,
  "悬@@": 23,
  "锡": 23,
  "更为": 23,
  "兑换": 23,
  "制约": 23,
  "控@@": 23,
  "磨": 23,
  "配线架": 23,
  "放样": 23,
  "一楼": 23,
  "G1": 23,
  "PN": 23,
  "镜": 23,
  "配电室": 23,
  "T3": 23,
  "水面": 23,
  "高峰期": 23,
  "玄武岩": 23,
  "绑扎": 23,
  "σ": 23,
  "很@@": 23,
  "机位": 23,
  "连通": 23,
  "认@@": 23,
  "电力系统": 23,
  "金属杆": 23,
  "考@@": 23,
  "螺@@": 23,
  "原片": 23,
  "脱": 23,
  "缺点": 23,
  "1300": 23,
  "三分之一": 23,
  "上下": 23,
  "ec@@": 23,
  "RAM": 23,
  "排放物": 23,
  "至关重要": 23,
  "断路": 23,
  "快@@": 23,
  "197": 23,
  "百万": 23,
  "事务所": 23,
  "当日": 23,
  "爱尔兰": 22,
  "季": 22,
  "递标": 22,
  "Yangadou": 22,
  "民事": 22,
  "浓缩": 22,
  "农田": 22,
  "延时": 22,
  "债权人": 22,
  "时要": 22,
  "堤防": 22,
  "磁性": 22,
  "中要": 22,
  "简历": 22,
  "写@@": 22,
  "项下": 22,
  "AP": 22,
  "水硬性": 22,
  "PT": 22,
  "Th@@": 22,
  "造山运动": 22,
  "弃@@": 22,
  "SF6": 22,
  "管理机构": 22,
  "ad": 22,
  "走线": 22,
  "外径": 22,
  "插": 22,
  "超压": 22,
  "比值": 22,
  "满意度": 22,
  "1979": 22,
  "奖金": 22,
  "山脉": 22,
  "较为": 22,
  "技术支持": 22,
  "全体": 22,
  "外围": 22,
  "时长": 22,
  "数字@@": 22,
  "流速": 22,
  "水泥厂": 22,
  "附注": 22,
  "购": 22,
  "架@@": 22,
  "晶@@": 22,
  "具体@@": 22,
  "时为": 22,
  "计算@@": 22,
  "张紧": 22,
  "处理厂": 22,
  "£": 22,
  "罕见": 22,
  "MTI": 22,
  "主持": 22,
  "128": 22,
  "斑点": 22,
  "产品质量": 22,
  "121": 22,
  "租约": 22,
  "埋@@": 22,
  "校@@": 22,
  "账款": 22,
  "保守": 22,
  "550": 22,
  "误@@": 22,
  "侧边": 22,
  "耐磨": 22,
  "伸展": 22,
  "喷水": 22,
  "59@@": 22,
  "邮箱": 22,
  "自治": 22,
  "农民": 22,
  "公司章程": 22,
  "户外": 22,
  "水准": 22,
  "共@@": 22,
  "优点": 22,
  "一页": 22,
  "清空": 22,
  "含铁": 22,
  "信号系统": 22,
  "DRT": 22,
  "黄": 22,
  "暂@@": 22,
  "程序@@": 22,
  "脑@@": 22,
  "不可避免": 22,
  "洋流": 22,
  "意向": 22,
  "温": 22,
  "C3": 22,
  "5.9": 22,
  "显示屏": 22,
  "附在": 22,
  "限@@": 22,
  "截@@": 22,
  "承运人": 22,
  "155": 22,
  "G2": 22,
  "头靠": 22,
  "漏": 22,
  "原矿": 22,
  "腰部": 22,
  "保单": 22,
  "容": 22,
  "CSTB": 22,
  "稳@@": 22,
  "标箱": 22,
  "氯": 22,
  "邮寄": 22,
  "公司总部": 22,
  "多哥": 22,
  "仿": 22,
  "免于": 22,
  "一遇": 22,
  "溶@@": 22,
  "总的来说": 22,
  "捕鱼": 22,
  "密码": 22,
  "摩@@": 22,
  "控制中心": 22,
  "电动@@": 22,
  "16mm": 22,
  "od@@": 22,
  "情": 22,
  "高品位": 22,
  "烟囱": 22,
  "市@@": 22,
  "专属": 22,
  "续航": 22,
  "大概": 22,
  "交叉路口": 22,
  "可持续性": 22,
  "风险管理": 22,
  "意@@": 22,
  "征得": 22,
  "一周": 22,
  "高速": 22,
  "因子": 22,
  "焦@@": 22,
  "丝": 22,
  "放行": 22,
  "改为": 22,
  "---": 22,
  "书中": 22,
  "标有": 22,
  "国有企业": 22,
  "衔接": 22,
  "40mm": 22,
  "速@@": 22,
  "it": 22,
  "P4": 22,
  "缺口": 22,
  "机电": 22,
  "密集": 22,
  "鲁@@": 22,
  "混乱": 22,
  "供应@@": 22,
  "艾@@": 22,
  "设计图": 22,
  "1973": 22,
  "欧@@": 22,
  "EI@@": 22,
  "剪力": 22,
  "警@@": 22,
  "待@@": 22,
  "研究@@": 22,
  "底盘": 22,
  "护墙": 22,
  "时间段": 22,
  "A2": 22,
  "佛@@": 22,
  "时所": 22,
  "阶地": 22,
  "片状": 22,
  "就@@": 22,
  "如今": 22,
  "131": 22,
  "拨@@": 22,
  "贯入": 22,
  "金属网": 22,
  "依赖": 22,
  "地下通道": 22,
  "CD@@": 22,
  "液位": 22,
  "详述": 22,
  "ARE": 22,
  "以往": 22,
  "UPS": 22,
  "偏离": 22,
  "St@@": 22,
  "开度": 22,
  "乍得": 22,
  "黄@@": 22,
  "升降": 22,
  "无菌": 22,
  "积": 22,
  "Excel": 22,
  "蛋白质": 22,
  "全新": 22,
  "露出": 22,
  "北京": 22,
  "委托书": 22,
  "北美": 22,
  "分期": 22,
  "通风机": 22,
  "氧化钴": 22,
  "高地": 22,
  "热浸": 22,
  "每份": 22,
  "塑料@@": 22,
  "固有": 22,
  "别的": 22,
  "准@@": 22,
  "Po@@": 22,
  "衬垫": 22,
  "储蓄": 22,
  "38@@": 22,
  "一米": 22,
  "UM": 22,
  "硅@@": 22,
  "开门": 22,
  "1mm": 22,
  "晶体": 22,
  ".-": 22,
  "一般性": 22,
  "钱": 22,
  "129": 22,
  "称@@": 22,
  "奖@@": 22,
  "层级": 22,
  "个体": 22,
  "原料": 22,
  "冻结": 22,
  "1981": 22,
  "煤@@": 22,
  "氧化@@": 22,
  "交流电": 22,
  "HI@@": 22,
  "贵": 22,
  "缴": 22,
  "买@@": 22,
  "代": 22,
  "先进": 22,
  "路缘石": 22,
  "粒@@": 22,
  "峡谷": 22,
  "发育": 22,
  "产科": 22,
  "拼接": 22,
  "氧": 22,
  "纪@@": 22,
  "17.1": 22,
  "坦@@": 22,
  "投诉": 22,
  "紧凑": 22,
  "梯度": 22,
  "三角洲": 22,
  "ri@@": 22,
  "电力@@": 22,
  "NIGELEC": 22,
  "初始化": 22,
  "运输工具": 22,
  "无须": 22,
  "车轮": 22,
  "翼": 22,
  "每项": 22,
  "光线": 22,
  "能耗": 22,
  "行政@@": 22,
  "代理商": 21,
  "期为": 21,
  "回报": 21,
  "木板": 21,
  "喷洒": 21,
  "满@@": 21,
  "简介": 21,
  "当中": 21,
  "34@@": 21,
  "触摸屏": 21,
  "肌肉": 21,
  "Bou@@": 21,
  "CIP": 21,
  "从中": 21,
  "大致": 21,
  "顾客": 21,
  "消防安全": 21,
  "0.9": 21,
  "范畴": 21,
  "挖泥船": 21,
  "政令": 21,
  "不予": 21,
  "相符合": 21,
  "RAL": 21,
  "旧@@": 21,
  "有源": 21,
  "衰耗": 21,
  "裸露": 21,
  "每根": 21,
  "雅温得": 21,
  "游@@": 21,
  "占地面积": 21,
  "填入": 21,
  "保": 21,
  "相对湿度": 21,
  "户": 21,
  "141": 21,
  "废除": 21,
  "岸": 21,
  "曲率": 21,
  "泄@@": 21,
  "静水压力": 21,
  "食堂": 21,
  "讲": 21,
  "静力": 21,
  "动物群": 21,
  "80x@@": 21,
  "8.5": 21,
  "泛": 21,
  "连线": 21,
  "个人@@": 21,
  "听": 21,
  "职工": 21,
  "大都会": 21,
  "发电量": 21,
  "划": 21,
  "CW": 21,
  "铰接": 21,
  "ro": 21,
  "LC@@": 21,
  "船坞": 21,
  "24.2": 21,
  "垃圾场": 21,
  "横穿": 21,
  "登记@@": 21,
  "轧制": 21,
  "体制": 21,
  "废气": 21,
  "嵌@@": 21,
  "偏移": 21,
  "贸易@@": 21,
  "元古代": 21,
  "à": 21,
  "岩系": 21,
  "顶棚": 21,
  "排烟": 21,
  "截面图": 21,
  "美": 21,
  "植入": 21,
  "２": 21,
  "潜@@": 21,
  "6.6": 21,
  "深处": 21,
  "持有者": 21,
  "可怕": 21,
  "拟用": 21,
  "混@@": 21,
  "冷水": 21,
  "标识牌": 21,
  "翻新": 21,
  "EXP": 21,
  "LL@@": 21,
  "作@@": 21,
  "GF@@": 21,
  "EX@@": 21,
  "研磨": 21,
  "控制@@": 21,
  "交叉点": 21,
  "内侧": 21,
  "RT": 21,
  "财政@@": 21,
  "CCTG": 21,
  "赋税": 21,
  "3cm": 21,
  "矩阵": 21,
  "PCC": 21,
  "语音": 21,
  "张@@": 21,
  "职@@": 21,
  "LV@@": 21,
  "遗迹": 21,
  "650": 21,
  "竞赛": 21,
  "医疗保险": 21,
  "AN": 21,
  "摄像头": 21,
  "凸台": 21,
  "硕士": 21,
  "车队": 21,
  "为主": 21,
  "综述": 21,
  "黄铁矿": 21,
  "管理处": 21,
  "去@@": 21,
  "橙色": 21,
  "履行义务": 21,
  "WA@@": 21,
  "财富": 21,
  "补助金": 21,
  "主张": 21,
  "对待": 21,
  "罚金": 21,
  "干旱": 21,
  "购置": 21,
  "出租方": 21,
  "隐患": 21,
  "2.10": 21,
  "采取任何": 21,
  "柑橘": 21,
  "职权": 21,
  "退@@": 21,
  "续@@": 21,
  "地役权": 21,
  "限额": 21,
  "ari": 21,
  "Tambacounda": 21,
  "渗入": 21,
  "拱石": 21,
  "RIA": 21,
  "分期付款": 21,
  "内在": 21,
  "复杂性": 21,
  "很快": 21,
  "变为": 21,
  "先决条件": 21,
  "违法行为": 21,
  "超声波": 21,
  "马达": 21,
  "包围": 21,
  "冲积层": 21,
  "005": 21,
  "权益": 21,
  "吸引力": 21,
  "参考文献": 21,
  "CPA": 21,
  "设在": 21,
  "引水": 21,
  "看台": 21,
  "流动资金": 21,
  "助@@": 21,
  "肥料": 21,
  "公共事业": 21,
  "毒@@": 21,
  "骨": 21,
  "依次": 21,
  "排入": 21,
  "室@@": 21,
  "暗@@": 21,
  "痕": 21,
  "纹理": 21,
  "务": 21,
  "磨矿": 21,
  "有所不同": 21,
  "脱水": 21,
  "多名": 21,
  "公共设施": 21,
  "SPT": 21,
  "笼": 21,
  "资源量": 21,
  "冷却水": 21,
  "ala": 21,
  "理念": 21,
  "油位": 21,
  "逐@@": 21,
  "广义": 21,
  "客观": 21,
  "给与": 21,
  "生于": 21,
  "5x@@": 21,
  "IFRS": 21,
  "喷砂": 21,
  "2cm": 21,
  "湿@@": 21,
  "基因": 21,
  "CPI": 21,
  "这次": 21,
  "忽略不计": 21,
  "五十": 21,
  "有待": 21,
  "首府": 21,
  "丁@@": 21,
  "丙烷": 21,
  "等值": 21,
  "第六@@": 21,
  "DT": 21,
  "车库": 21,
  "维修中心": 21,
  "自行决定": 21,
  "隐@@": 21,
  "UN@@": 21,
  "325": 21,
  "回答": 21,
  "升压": 21,
  "容差": 21,
  "滑": 21,
  "内壁": 21,
  "节省": 21,
  "肯定": 21,
  "选矿": 21,
  "qu@@": 21,
  "滑坡": 21,
  "尖": 21,
  "抗腐蚀": 21,
  "风门": 21,
  "细菌": 21,
  "呼吸": 21,
  "Deziwa": 21,
  "1971": 21,
  "ill@@": 21,
  "刻": 21,
  "乙方": 21,
  "预选": 21,
  "每组": 21,
  "寻址": 21,
  "账号": 21,
  "尿@@": 21,
  "错": 21,
  "三角": 21,
  "鱼@@": 21,
  "差别": 21,
  "驾驶室": 21,
  "乳浊液": 21,
  "衬@@": 21,
  "YR@@": 21,
  "到场": 21,
  "排水工程": 21,
  "残留物": 21,
  "DF": 21,
  "仅@@": 21,
  "贴@@": 21,
  "差值": 21,
  "姆@@": 21,
  "kHz": 21,
  "住@@": 21,
  "露天矿": 21,
  "倾向": 21,
  "瞬态": 21,
  "静": 21,
  "存档": 21,
  "0%": 21,
  "偶尔": 21,
  "访谈": 21,
  "滑移": 21,
  "休息": 21,
  "DRL0@@": 21,
  "核电站": 20,
  "游客": 20,
  "送给": 20,
  "扎": 20,
  "隆": 20,
  "砖@@": 20,
  "等同于": 20,
  "CRT": 20,
  "滑车": 20,
  "ME": 20,
  "600mm": 20,
  "景@@": 20,
  "函数": 20,
  "壳体": 20,
  "海洋环境": 20,
  "思考": 20,
  "待定": 20,
  "1b": 20,
  "水工": 20,
  "养": 20,
  "117": 20,
  "会员": 20,
  "耶": 20,
  "柜台": 20,
  "准": 20,
  "安保": 20,
  "即将": 20,
  "卖": 20,
  "微生物": 20,
  "取自": 20,
  "丢弃": 20,
  "售": 20,
  "再生": 20,
  "柔软": 20,
  "解决办法": 20,
  "122": 20,
  "0.75": 20,
  "记录@@": 20,
  "绘图": 20,
  "防雷": 20,
  "房间内": 20,
  "AL": 20,
  "固定设备": 20,
  "窗@@": 20,
  "片石": 20,
  "本国货币": 20,
  "电积": 20,
  "帽": 20,
  "188": 20,
  "就此": 20,
  "500mm": 20,
  "氧@@": 20,
  "保护环境": 20,
  "SD": 20,
  "恒温器": 20,
  "原来": 20,
  "缓@@": 20,
  "多方": 20,
  "适应性": 20,
  "万一": 20,
  "辐照": 20,
  "牛": 20,
  "葫芦": 20,
  "银": 20,
  "基材": 20,
  "渗透率": 20,
  "电力设备": 20,
  "表面积": 20,
  "各层": 20,
  "调速器": 20,
  "坍塌": 20,
  "使用权": 20,
  "燃@@": 20,
  "正本": 20,
  "报关单": 20,
  "杜@@": 20,
  "浸没": 20,
  "专有": 20,
  "202": 20,
  "网眼": 20,
  "道路交通": 20,
  "棚": 20,
  "距@@": 20,
  "EIES": 20,
  "夏季": 20,
  "居住区": 20,
  "20x@@": 20,
  "优先权": 20,
  "借用": 20,
  "桁架": 20,
  "修剪": 20,
  "NI@@": 20,
  "水文地质": 20,
  "串@@": 20,
  "页数": 20,
  "老": 20,
  "回到": 20,
  "议会": 20,
  "差旅费": 20,
  "冰@@": 20,
  "方法论": 20,
  "副@@": 20,
  "承梁": 20,
  "le": 20,
  "DM@@": 20,
  "催告": 20,
  "碳@@": 20,
  "主线": 20,
  "沙滩": 20,
  "蒂": 20,
  "址": 20,
  "图案": 20,
  "UE": 20,
  "计算机@@": 20,
  "E3": 20,
  "固": 20,
  "但须": 20,
  "磁": 20,
  "回填土": 20,
  "60mm": 20,
  "DG": 20,
  "信号机": 20,
  "泊船": 20,
  "儿": 20,
  "升降机": 20,
  "层间": 20,
  "大面积": 20,
  "院@@": 20,
  "DL": 20,
  "纹": 20,
  "Ps": 20,
  "7.8": 20,
  "控制站": 20,
  "实地": 20,
  "白云质": 20,
  "承租方": 20,
  "若有": 20,
  "渔民": 20,
  "百分之三十": 20,
  "一致意见": 20,
  "服从": 20,
  "IM@@": 20,
  "500m": 20,
  "3500": 20,
  "能源@@": 20,
  "一章": 20,
  "CPS": 20,
  "追索": 20,
  "后应": 20,
  "地理位置": 20,
  "鸟类": 20,
  "终点站": 20,
  "蓝@@": 20,
  "增资": 20,
  "1977": 20,
  "化石": 20,
  "乙@@": 20,
  "普": 20,
  "粘": 20,
  "沼泽": 20,
  "撒": 20,
  "十四": 20,
  "工频": 20,
  "TI": 20,
  "监@@": 20,
  "时段": 20,
  "电路板": 20,
  "轮子": 20,
  "10.5": 20,
  "分辨率": 20,
  "地形图": 20,
  "柱体": 20,
  "账单": 20,
  "原产": 20,
  "算@@": 20,
  "请@@": 20,
  "造": 20,
  "坚持": 20,
  "分支机构": 20,
  "哈姆丹": 20,
  "30mm": 20,
  "转换开关": 20,
  "负面": 20,
  "油泵": 20,
  "停泊": 20,
  "608@@": 20,
  "侵@@": 20,
  "铝窗": 20,
  "215@@": 20,
  "招标人": 20,
  "49@@": 20,
  "偏好": 20,
  "等候": 20,
  "稳定剂": 20,
  "氏@@": 20,
  "族": 20,
  "谷@@": 20,
  "旋@@": 20,
  "二楼": 20,
  "糖@@": 20,
  "编": 20,
  "铺砌": 20,
  "Ta@@": 20,
  "旅行": 20,
  "举措": 20,
  "幅": 20,
  "退休": 20,
  "ssi": 20,
  "加深": 20,
  "油库": 20,
  "om": 20,
  "质押": 20,
  "杨加": 20,
  "产出": 20,
  "化合物": 20,
  "屑": 20,
  "蔓延": 20,
  "A4": 20,
  "最为": 20,
  "BC": 20,
  "暴@@": 20,
  "1.9": 20,
  "350kg": 20,
  "PL@@": 20,
  "松动": 20,
  "浸渍": 20,
  "环境监测": 20,
  "枢轴": 20,
  "垂@@": 20,
  "统包": 20,
  "联合国教科文组织": 20,
  "开立": 20,
  "覆层": 20,
  "损益表": 20,
  "◇": 20,
  "项目部": 20,
  "100x@@": 20,
  "财务@@": 20,
  "配电箱": 20,
  "水泥浆": 20,
  "拒": 20,
  "铝板": 20,
  "An@@": 20,
  "往@@": 20,
  "20kV": 20,
  "对面": 20,
  "否决": 20,
  "B.01": 20,
  "球体": 20,
  "估值": 20,
  "1978": 20,
  "1972": 20,
  "RI": 20,
  "效益": 20,
  "应变": 20,
  "减排": 20,
  "STS": 20,
  "征求": 20,
  "助": 20,
  "略@@": 20,
  "适@@": 20,
  "凸出": 20,
  "警报器": 20,
  "气象站": 20,
  "φ": 20,
  "11.2": 20,
  "高架": 20,
  "goua": 20,
  "Nd@@": 20,
  "余@@": 20,
  "想法": 20,
  "压强": 20,
  "伊@@": 20,
  "板块": 20,
  "雨": 20,
  "难@@": 20,
  "ah@@": 20,
  "试": 20,
  "da@@": 20,
  "刚@@": 20,
  "悬浮": 20,
  "诊": 20,
  "ya": 20,
  "浸滤": 20,
  "II@@": 20,
  "买": 20,
  "水分": 20,
  "帕": 20,
  "谐波": 20,
  "氧化铝": 20,
  "板上": 20,
  "电工": 20,
  "以延米": 20,
  "车身": 20,
  "按键": 20,
  "卢阿拉": 20,
  "路桥": 20,
  "地质图": 20,
  "张贴": 20,
  "售后服务": 20,
  "吸气": 20,
  "计价": 20,
  "图纸文件": 20,
  "配制": 20,
  "亿美元": 20,
  "普通法": 20,
  "浇": 20,
  "述": 20,
  "190": 20,
  "引进": 19,
  "自动@@": 19,
  "相机": 19,
  "楔子": 19,
  "拖拉机": 19,
  "值得": 19,
  "RF": 19,
  "功能@@": 19,
  "灭菌": 19,
  "铸造": 19,
  "三次": 19,
  "器具": 19,
  "炉@@": 19,
  "弯": 19,
  "KN": 19,
  "气囊": 19,
  "扭曲": 19,
  "LCPC": 19,
  "衣室": 19,
  "13.2": 19,
  "M3": 19,
  "故": 19,
  "每股": 19,
  "审@@": 19,
  "期权": 19,
  "2000@@": 19,
  "杂@@": 19,
  "BF": 19,
  "常务董事": 19,
  "1.25": 19,
  "服务商": 19,
  "竖@@": 19,
  "WI": 19,
  "轮式": 19,
  "显然": 19,
  "11.3": 19,
  "公民": 19,
  "结晶": 19,
  "GE": 19,
  "星期": 19,
  "质量标准": 19,
  "96@@": 19,
  "依赖于": 19,
  "CH": 19,
  "框@@": 19,
  "此种": 19,
  "收益率": 19,
  "灭": 19,
  "更衣室": 19,
  "坐@@": 19,
  "奖励": 19,
  "瓦砾": 19,
  "更大": 19,
  "ex@@": 19,
  "扩张": 19,
  "低碳": 19,
  "码@@": 19,
  "令@@": 19,
  "销售@@": 19,
  "3.9": 19,
  "银行@@": 19,
  "67@@": 19,
  "存储器": 19,
  "聚氨酯": 19,
  "禁令": 19,
  "商将": 19,
  "147": 19,
  "出行": 19,
  "人均": 19,
  "错@@": 19,
  "拍摄": 19,
  "3332": 19,
  "发射机": 19,
  "高密度": 19,
  "任期": 19,
  "弧": 19,
  "破@@": 19,
  "质检": 19,
  "征@@": 19,
  "概览": 19,
  "退回": 19,
  "扩音器": 19,
  "印章": 19,
  "渔@@": 19,
  "FS": 19,
  "Ba@@": 19,
  "ma": 19,
  "!": 19,
  "2046": 19,
  "两座": 19,
  "特征值": 19,
  "食用": 19,
  "责任人": 19,
  "操作@@": 19,
  "遵守合同": 19,
  "家园": 19,
  "新型": 19,
  "围垦地": 19,
  "信息技术": 19,
  "ppm": 19,
  "杠杆": 19,
  "音响系统": 19,
  "FC": 19,
  "湖@@": 19,
  "12.5": 19,
  "湖水": 19,
  "虚线": 19,
  "声学": 19,
  "有人": 19,
  "大厦": 19,
  "胶合": 19,
  "门扉": 19,
  "一道": 19,
  "TD@@": 19,
  "韧性": 19,
  "杂志": 19,
  "核对": 19,
  "评": 19,
  "缔结": 19,
  "最高@@": 19,
  "打击": 19,
  "妥善": 19,
  "针@@": 19,
  "操作过程": 19,
  "EP": 19,
  "235": 19,
  "氨@@": 19,
  "第一年": 19,
  "保护性": 19,
  "规": 19,
  "CEE": 19,
  "24V": 19,
  "现金流量": 19,
  "12%": 19,
  "望": 19,
  "离职": 19,
  "总重量": 19,
  "累@@": 19,
  "立刻": 19,
  "搜索": 19,
  "天文": 19,
  "求": 19,
  "麦克风": 19,
  "腕臂": 19,
  "淡@@": 19,
  "假@@": 19,
  "水土流失": 19,
  "拟建": 19,
  "接地线": 19,
  "启@@": 19,
  "制剂": 19,
  "租@@": 19,
  "隶属于": 19,
  "19.1": 19,
  "线棒": 19,
  "PLC": 19,
  "通则": 19,
  "改动": 19,
  "每一": 19,
  "银行担保": 19,
  "最晚": 19,
  "MI": 19,
  "状@@": 19,
  "lu@@": 19,
  "EV@@": 19,
  "每米": 19,
  "¡": 19,
  "海运": 19,
  "函@@": 19,
  "轴上": 19,
  "220V": 19,
  "人孔": 19,
  "邦": 19,
  "级@@": 19,
  "与否": 19,
  "所在区域": 19,
  "施工期": 19,
  "水体": 19,
  "零部件": 19,
  "液态": 19,
  "遗@@": 19,
  "兼顾": 19,
  "MM2": 19,
  "移民": 19,
  "掩埋": 19,
  "卸料": 19,
  "纵断面": 19,
  "CEI@@": 19,
  "这类": 19,
  "工作量": 19,
  "熟悉": 19,
  "公司员工": 19,
  "束缚": 19,
  "20.2": 19,
  "ide": 19,
  "共用": 19,
  "................@@": 19,
  "反复": 19,
  "尖端": 19,
  "TC@@": 19,
  "避雷": 19,
  "拍卖": 19,
  "加剧": 19,
  "读": 19,
  "全年": 19,
  "着@@": 19,
  "É": 19,
  "00mm": 19,
  "其他费用": 19,
  "适宜": 19,
  "耐用": 19,
  "细化": 19,
  "污垢": 19,
  "堤@@": 19,
  "股线": 19,
  "de": 19,
  "指派": 19,
  "字节": 19,
  "季节性": 19,
  "砌@@": 19,
  "总长": 19,
  "感受": 19,
  "籍": 19,
  "农作物": 19,
  "离子": 19,
  "持久性": 19,
  "拌": 19,
  "1.30": 19,
  "合伙": 19,
  "AA@@": 19,
  "样式": 19,
  "浅黄": 19,
  "操作方法": 19,
  "清关": 19,
  "P18": 19,
  "当月": 19,
  "酚": 19,
  "深化": 19,
  "宿舍": 19,
  "娜": 19,
  "下沉": 19,
  "控股": 19,
  "置@@": 19,
  "计划外": 19,
  "PO@@": 19,
  "手续费": 19,
  "思@@": 19,
  "割@@": 19,
  "归因于": 19,
  "末期": 19,
  "总则": 19,
  "密闭": 19,
  "谷物": 19,
  "蜡染": 19,
  "工业区": 19,
  "USB": 19,
  "筒仓": 19,
  "α": 19,
  "学年": 19,
  "欺诈": 19,
  "刚度": 19,
  "Ab@@": 19,
  "箱式": 19,
  "欧洲@@": 19,
  "封装": 19,
  "31.5": 19,
  "表列出": 19,
  "责": 19,
  "宁夏": 19,
  "有效期限": 19,
  "相互作用": 19,
  "14.3": 19,
  "横座": 19,
  "mZH": 19,
  "地势": 19,
  "轮椅": 19,
  "砾": 19,
  "16.2": 19,
  "养@@": 19,
  "版@@": 19,
  "FD21": 19,
  "会计@@": 19,
  "验@@": 19,
  "根本": 19,
  "参股": 19,
  "寄给": 19,
  "记忆": 19,
  "家族": 19,
  "磁路": 19,
  "伤@@": 19,
  "加水": 19,
  "板件": 19,
  "烧": 19,
  "填充物": 19,
  "止@@": 19,
  "隔栅": 19,
  "13.1": 19,
  "4m": 19,
  "ON": 19,
  "保持@@": 19,
  "食物": 19,
  "核准": 19,
  "凝结": 19,
  "帕@@": 19,
  "控制箱": 19,
  "1957": 18,
  "ff@@": 18,
  "斗": 18,
  "采": 18,
  "足": 18,
  "数据传输": 18,
  "罗格朗": 18,
  "历": 18,
  "凝灰岩": 18,
  "净值": 18,
  "再循环": 18,
  "功能测试": 18,
  "理事": 18,
  "牧场": 18,
  "1970": 18,
  "坐垫": 18,
  "AI@@": 18,
  "佣金": 18,
  "不仅仅": 18,
  "净额": 18,
  "簿": 18,
  "ZOU": 18,
  "偏转": 18,
  "7e": 18,
  "地产": 18,
  "幕墙": 18,
  "赠与": 18,
  "污水排放": 18,
  "通信@@": 18,
  "凯@@": 18,
  "轨枕": 18,
  "一端": 18,
  "上涨": 18,
  "粉@@": 18,
  "绕": 18,
  "RM": 18,
  "流动资产": 18,
  "面前": 18,
  "认真": 18,
  "10.2": 18,
  "来水量": 18,
  "ph@@": 18,
  "陆": 18,
  "116": 18,
  "BU@@": 18,
  "侧板": 18,
  "跟进": 18,
  "2.09": 18,
  "审": 18,
  "城@@": 18,
  "0x@@": 18,
  "一经": 18,
  "共计": 18,
  "CDE": 18,
  "TRA@@": 18,
  "层位": 18,
  "8mm": 18,
  "污染源": 18,
  "兆": 18,
  "ap@@": 18,
  "GB": 18,
  "1cm": 18,
  "ISO@@": 18,
  "减震器": 18,
  "掉落": 18,
  "无源": 18,
  "胶带": 18,
  "估量": 18,
  "应涂": 18,
  "0b@@": 18,
  "Dj@@": 18,
  "HD": 18,
  "核反应堆": 18,
  "热能": 18,
  "进口商": 18,
  "IST": 18,
  "配偶": 18,
  "150mm": 18,
  "某种": 18,
  "Tahoua": 18,
  "条所": 18,
  "食": 18,
  "613@@": 18,
  "伍": 18,
  "报废": 18,
  "轻易": 18,
  "主机": 18,
  "un@@": 18,
  "245": 18,
  "雅": 18,
  "110KV": 18,
  "飞逸": 18,
  "纪": 18,
  "肉": 18,
  "困@@": 18,
  "使用@@": 18,
  "Ar@@": 18,
  "湿法": 18,
  "各省": 18,
  "鸡棚": 18,
  "SH@@": 18,
  "6.00": 18,
  "17.5": 18,
  "含沙": 18,
  "侵犯": 18,
  "工商": 18,
  "防御": 18,
  "铆钉": 18,
  "顾问公司": 18,
  "第四节": 18,
  "P.@@": 18,
  "GW@@": 18,
  "坑@@": 18,
  "洁净": 18,
  "XXX": 18,
  "气味": 18,
  "PDF": 18,
  "铁件": 18,
  "受控": 18,
  "伙伴关系": 18,
  "停电": 18,
  "粉煤灰": 18,
  "供水管": 18,
  "协@@": 18,
  "后勤": 18,
  "钢质": 18,
  "种@@": 18,
  "牙科": 18,
  "癌症": 18,
  "残疾": 18,
  "修正案": 18,
  "大幅": 18,
  "1a": 18,
  "镀@@": 18,
  "输电网": 18,
  "摘录": 18,
  "低碳钢": 18,
  "南方": 18,
  "复合体": 18,
  "笔直": 18,
  "毛刺": 18,
  "✓": 18,
  "群体": 18,
  "压顶": 18,
  "下属": 18,
  "133": 18,
  "维修@@": 18,
  "还须": 18,
  "难度": 18,
  "第二层": 18,
  "休眠状态": 18,
  "省级": 18,
  "脉石": 18,
  "OA": 18,
  "异议": 18,
  "个别": 18,
  "眼镜": 18,
  "轻质": 18,
  "老@@": 18,
  "破碎机": 18,
  "年末": 18,
  "交叉处": 18,
  "阻燃": 18,
  "访问控制": 18,
  "爱科森": 18,
  "两套": 18,
  "信号@@": 18,
  "卢瓦尔河": 18,
  "偶@@": 18,
  "农产品": 18,
  "始@@": 18,
  "提纲": 18,
  "两名": 18,
  "渐@@": 18,
  "雾": 18,
  "脊@@": 18,
  "温室效应": 18,
  "台地": 18,
  "RDC": 18,
  "操作者": 18,
  "Fe@@": 18,
  "FE@@": 18,
  "足@@": 18,
  "塑@@": 18,
  "财物": 18,
  "原水": 18,
  "90kV": 18,
  "刻@@": 18,
  "I.@@": 18,
  "20.00": 18,
  "TD0@@": 18,
  "信用证": 18,
  "真@@": 18,
  "ASTM": 18,
  "TOR": 18,
  "褐铁矿": 18,
  "缴@@": 18,
  "粒": 18,
  "卵石": 18,
  "插图": 18,
  "低电压": 18,
  "平方毫米": 18,
  "面部": 18,
  "聘用": 18,
  "楝树": 18,
  "浸@@": 18,
  "还款": 18,
  "上报": 18,
  "碎@@": 18,
  "但@@": 18,
  "设计@@": 18,
  "抵消": 18,
  "氢气": 18,
  "民众": 18,
  "分量": 18,
  "采矿场": 18,
  "__": 18,
  "造林": 18,
  "节能": 18,
  "体育馆": 18,
  "资源管理": 18,
  "试剂": 18,
  "告@@": 18,
  "乍得湖": 18,
  "刷@@": 18,
  "汇兑": 18,
  "IAS": 18,
  "点火": 18,
  "气象": 18,
  "2P": 18,
  "扁平": 18,
  "杂物": 18,
  "中性线": 18,
  "体内": 18,
  "甘@@": 18,
  "兼@@": 18,
  "平稳": 18,
  "iv@@": 18,
  "细长": 18,
  "大块": 18,
  "消耗品": 18,
  "and@@": 18,
  "95@@": 18,
  "MD@@": 18,
  "NFA": 18,
  "觉@@": 18,
  "公路局": 18,
  "委派": 18,
  "有着": 18,
  "散热器": 18,
  "此后": 18,
  "13mm": 18,
  "导流": 18,
  "首都": 18,
  "冲": 18,
  "圣": 18,
  "仓储": 18,
  "产地": 18,
  "日程表": 18,
  "最新版": 18,
  "比重": 18,
  "VA@@": 18,
  "评@@": 18,
  "入场": 18,
  "边境": 18,
  "整洁": 18,
  "油温": 18,
  "录入": 18,
  "谁": 18,
  "和平": 18,
  "附加值": 18,
  "___": 18,
  "护板": 18,
  "FORUM": 18,
  "即时": 18,
  "私有": 18,
  "350@@": 18,
  "涓": 18,
  "ent@@": 18,
  "遭到": 18,
  ".4": 18,
  "推土机": 18,
  "20000": 18,
  "CMEMS": 18,
  "中转": 18,
  "留在": 18,
  "超载": 18,
  "玻璃窗": 18,
  "对数": 18,
  "吹@@": 18,
  "54@@": 18,
  "冷却系统": 18,
  "175": 18,
  "吨位": 18,
  "知": 18,
  "租用": 18,
  "图示": 18,
  "球墨铸铁": 18,
  "稀@@": 18,
  "保函@@": 18,
  "合作@@": 18,
  "润滑剂": 18,
  "管道工程": 18,
  "风暴": 18,
  "时钟": 18,
  "Un": 18,
  "延": 18,
  "AS": 18,
  "渗水": 18,
  "椅子": 18,
  "MO": 18,
  "认知": 18,
  "LIN@@": 18,
  "曝露": 18,
  "平地": 18,
  "30kV": 18,
  "密封条": 18,
  "适用法律": 18,
  "遮盖": 18,
  "结构性": 18,
  "SO": 18,
  "减速器": 18,
  "管涵": 18,
  "气温": 18,
  "相适应": 18,
  "耗": 18,
  "切面": 18,
  "射": 18,
  "中途": 18,
  "股本": 18,
  "1967": 18,
  "过多": 18,
  "防护装置": 18,
  "乙烯": 18,
  "压载": 18,
  "125@@": 18,
  "储存区": 18,
  "密封胶": 18,
  "键盘": 18,
  "没@@": 18,
  "分阶段": 18,
  "1960": 18,
  "85%": 18,
  "配以": 18,
  "Man@@": 18,
  "电视@@": 18,
  "压碎": 18,
  "齐": 18,
  "服装": 18,
  "签收": 18,
  "LAN": 18,
  "IEEE": 18,
  "305": 18,
  "圆柱形": 18,
  "过期": 18,
  "管辖权": 18,
  "000m": 18,
  "滞后": 18,
  "FL": 18,
  "em": 18,
  "忽视": 18,
  "203": 18,
  "讯": 18,
  "本款": 18,
  "态度": 17,
  "E2": 17,
  "单方面": 17,
  "只@@": 17,
  "邮@@": 17,
  "环氧": 17,
  "对照": 17,
  "两项": 17,
  "填缝": 17,
  "新生儿": 17,
  "海洋@@": 17,
  "oo@@": 17,
  "定律": 17,
  "尘@@": 17,
  "2.9": 17,
  "屋": 17,
  "包装@@": 17,
  "地下水位": 17,
  "行政区域": 17,
  "接着": 17,
  "克斯": 17,
  "NOLOGIE": 17,
  "棱边": 17,
  "联络": 17,
  "细小": 17,
  "朝@@": 17,
  "º": 17,
  "违规行为": 17,
  "清点": 17,
  "酒": 17,
  "死": 17,
  "显": 17,
  "煤": 17,
  "死@@": 17,
  "跟@@": 17,
  "316": 17,
  "抑@@": 17,
  "玻璃门": 17,
  "布约": 17,
  "概算": 17,
  "设备@@": 17,
  "ML": 17,
  "废水处理": 17,
  "公称": 17,
  "条形": 17,
  "照": 17,
  "车门": 17,
  "标示": 17,
  "弗@@": 17,
  "执": 17,
  "已于": 17,
  "人口@@": 17,
  "TV": 17,
  "搜集": 17,
  "牌号": 17,
  "靠@@": 17,
  "耐力": 17,
  "函中": 17,
  "环境部": 17,
  "面罩": 17,
  "42@@": 17,
  "结构图": 17,
  "降压": 17,
  "通风管": 17,
  "索要": 17,
  "洼地": 17,
  "50cm": 17,
  "叶状": 17,
  "方在": 17,
  "派@@": 17,
  "立方": 17,
  "危及": 17,
  "燃": 17,
  "ED@@": 17,
  "种子": 17,
  "TF": 17,
  "铜管": 17,
  "锥@@": 17,
  "界@@": 17,
  "检查员": 17,
  "严重@@": 17,
  "欠": 17,
  "非正式": 17,
  "不少": 17,
  "冬季": 17,
  "棉花": 17,
  "TU": 17,
  "分贝": 17,
  "感知": 17,
  "渠": 17,
  "1987": 17,
  "锡石": 17,
  "Ng@@": 17,
  "杜阿拉": 17,
  "T8@@": 17,
  "周期性": 17,
  "活@@": 17,
  "7500@@": 17,
  "操作程序": 17,
  "HR": 17,
  "搭@@": 17,
  "神@@": 17,
  "9001": 17,
  "力度": 17,
  "经费": 17,
  "询问": 17,
  "第十@@": 17,
  "总成本": 17,
  "E4": 17,
  "压紧": 17,
  "尾@@": 17,
  "盒@@": 17,
  "教育@@": 17,
  "公证人": 17,
  "疑问": 17,
  "外海": 17,
  "实地考察": 17,
  "监管局": 17,
  "113": 17,
  "挑选": 17,
  "电气系统": 17,
  "存款": 17,
  "埋地": 17,
  "加大": 17,
  "垃圾@@": 17,
  "115@@": 17,
  "解散": 17,
  "控制权": 17,
  "本项": 17,
  "热交换器": 17,
  "BCR": 17,
  "绞@@": 17,
  "TN": 17,
  "里昂": 17,
  "创办": 17,
  "PT@@": 17,
  "70mm": 17,
  "毛石": 17,
  "Le@@": 17,
  "BUMIFOM": 17,
  "社": 17,
  "港口区": 17,
  "示": 17,
  "到来": 17,
  "坚@@": 17,
  "息@@": 17,
  "摊铺机": 17,
  "流入": 17,
  "解释性": 17,
  "th@@": 17,
  "看起来": 17,
  "后置": 17,
  "选取": 17,
  "篱笆": 17,
  "否": 17,
  "仓@@": 17,
  "混": 17,
  "漏@@": 17,
  "ama": 17,
  "混凝土块": 17,
  "执行器": 17,
  "镶嵌": 17,
  "题": 17,
  "休@@": 17,
  "绝@@": 17,
  "12m": 17,
  "汽油": 17,
  "排水量": 17,
  "劳动@@": 17,
  "停机位": 17,
  "照度": 17,
  "弧@@": 17,
  "浸": 17,
  "车轴": 17,
  "马赛": 17,
  "NKT": 17,
  "EPI": 17,
  "186": 17,
  "砟": 17,
  "共识": 17,
  "术": 17,
  "左@@": 17,
  "岩腐": 17,
  "培训@@": 17,
  "备@@": 17,
  "该值": 17,
  "700@@": 17,
  "短缺": 17,
  "保值": 17,
  "某@@": 17,
  "中介": 17,
  "228": 17,
  "区域性": 17,
  "横": 17,
  "析": 17,
  "TOMAWAC": 17,
  "账面": 17,
  "普通股": 17,
  "特例": 17,
  "栽种": 17,
  "GO@@": 17,
  "音": 17,
  "高出": 17,
  "切口": 17,
  "Grafcet": 17,
  "石灰石": 17,
  "柜@@": 17,
  "冷冻": 17,
  "槽口": 17,
  "SCDP": 17,
  "安全气囊": 17,
  "op@@": 17,
  "金属板": 17,
  "ROM": 17,
  "文章": 17,
  "7.7": 17,
  "锥体": 17,
  "拔除": 17,
  "FDM": 17,
  "铜精矿": 17,
  "单人": 17,
  "接地装置": 17,
  "绿地": 17,
  "Bellah": 17,
  "活塞": 17,
  "经营@@": 17,
  "钢绞线": 17,
  "阻尼器": 17,
  "不易": 17,
  "226": 17,
  "兆瓦": 17,
  "对立": 17,
  "ougou": 17,
  "记录仪": 17,
  "答辩": 17,
  "袋子": 17,
  "脱落": 17,
  "79@@": 17,
  "覆": 17,
  "提出异议": 17,
  "征用土地": 17,
  "出台": 17,
  "往往": 17,
  "扣@@": 17,
  "运河": 17,
  "仪表板": 17,
  "考量": 17,
  "公允": 17,
  "牙@@": 17,
  "东南": 17,
  "原生": 17,
  "堵@@": 17,
  "kv": 17,
  "比为": 17,
  "孤立": 17,
  "山丘": 17,
  "禁@@": 17,
  "股份公司": 17,
  "NA@@": 17,
  "30.1": 17,
  "CRF": 17,
  "两者": 17,
  "世界@@": 17,
  "加油": 17,
  "貌": 17,
  "希@@": 17,
  "越浪": 17,
  "引水渠": 17,
  "拱形": 17,
  "抽出": 17,
  "州": 17,
  "330": 17,
  "秒钟": 17,
  "213": 17,
  "灾害": 17,
  "防火阀": 17,
  "CAD": 17,
  "舱口": 17,
  "意大利": 17,
  "检查井": 17,
  "必@@": 17,
  "花生": 17,
  "GR": 17,
  "表述": 17,
  "温@@": 17,
  "两组": 17,
  "准许": 17,
  "省份": 17,
  "im": 17,
  "法定代表": 17,
  "盲@@": 17,
  "角落": 17,
  "拼@@": 17,
  "115": 17,
  "减弱": 17,
  "混淆": 17,
  "奥": 17,
  "电力电缆": 17,
  "能见度": 17,
  "裁判": 17,
  "IG@@": 17,
  "me": 17,
  "均衡": 17,
  "复": 17,
  "https": 17,
  "然": 17,
  "可操作性": 17,
  "中心线": 17,
  "SIDA": 17,
  "加热器": 17,
  "应收": 17,
  "停用": 17,
  "303": 17,
  "覆@@": 17,
  "症状": 17,
  "of@@": 17,
  "监测@@": 17,
  "过于": 17,
  "桥隧": 17,
  "au@@": 17,
  "饮水": 17,
  "海关总署": 17,
  "引出": 17,
  "排水@@": 17,
  "观众台": 17,
  "富": 17,
  "用料": 17,
  "华@@": 17,
  "巴塔": 17,
  "腐败": 17,
  "连接@@": 17,
  "泄": 17,
  "还@@": 17,
  "pa": 17,
  "交错": 17,
  "热点": 17,
  "研@@": 17,
  "坎": 17,
  "战": 17,
  "海外": 17,
  "液压@@": 17,
  "特有": 17,
  "复核": 17,
  "钾": 17,
  "灯泡": 17,
  "继承": 17,
  "经济学": 17,
  "矿浆": 17,
  "图幅": 17,
  "古老": 17,
  "崩塌": 17,
  "股东权益": 17,
  "专业知识": 17,
  "技术设备": 17,
  "总成": 17,
  "胀": 17,
  "镀铬": 17,
  "剥夺": 17,
  "铅@@": 17,
  "总理": 17,
  "执行@@": 17,
  "策划": 17,
  "付@@": 17,
  "钚": 17,
  "厂址": 17,
  "选中": 17,
  "堡": 17,
  "并于": 17,
  "1968": 17,
  "外来": 17,
  "着色": 17,
  "爪": 17,
  "划线": 17,
  "折现": 17,
  "夫": 17,
  "亦": 17,
  "转弯": 17,
  "问": 17,
  "隆起": 17,
  "互换": 17,
  "负有": 17,
  "式@@": 17,
  "公开招标": 17,
  "MIN": 17,
  "实例": 16,
  "收款": 16,
  "植物@@": 16,
  "第四": 16,
  "弹性体": 16,
  "斑@@": 16,
  "机械化": 16,
  "椅": 16,
  "四分之一": 16,
  "选址": 16,
  "三份": 16,
  "完全符合": 16,
  "热带气候": 16,
  "铲@@": 16,
  "能源需求": 16,
  "接通": 16,
  "密封@@": 16,
  "盈余": 16,
  "沉淀池": 16,
  "按钮开关": 16,
  "候@@": 16,
  "土地权": 16,
  "mx@@": 16,
  "NO": 16,
  "流出": 16,
  "3000@@": 16,
  "医@@": 16,
  "插销": 16,
  "阶梯": 16,
  "网道": 16,
  "一边": 16,
  "吊架": 16,
  "运输设备": 16,
  "野生动物": 16,
  "草签": 16,
  "垂直@@": 16,
  "率@@": 16,
  "等同": 16,
  "22.2": 16,
  "清水": 16,
  "2023": 16,
  "如为": 16,
  "汇流排": 16,
  "ier": 16,
  "款@@": 16,
  "独立性": 16,
  "扫@@": 16,
  "预埋件": 16,
  "坑洞": 16,
  "万美元": 16,
  "选出": 16,
  "涂上": 16,
  "东北部": 16,
  "线或": 16,
  "环状": 16,
  "浓": 16,
  "辉@@": 16,
  "可控": 16,
  "削": 16,
  "金融@@": 16,
  "遮窗": 16,
  "集线器": 16,
  "设@@": 16,
  "直立": 16,
  "财政部": 16,
  "油罐车": 16,
  "既定": 16,
  "载重量": 16,
  "领航员": 16,
  "漆@@": 16,
  "三条": 16,
  "是非": 16,
  "饮料": 16,
  "DVD": 16,
  "化学@@": 16,
  "杰@@": 16,
  "问卷": 16,
  "源@@": 16,
  "焊工": 16,
  "us@@": 16,
  "规律性": 16,
  "技术性": 16,
  "参考系": 16,
  "洗衣房": 16,
  "接入点": 16,
  "68@@": 16,
  "复位": 16,
  "哥@@": 16,
  "三台": 16,
  "词语": 16,
  "基桩": 16,
  "剥落": 16,
  "SR": 16,
  "用户界面": 16,
  "人员培训": 16,
  "ka": 16,
  "残片": 16,
  "软件@@": 16,
  "这条": 16,
  "网关": 16,
  "防范": 16,
  "LI": 16,
  "顿": 16,
  "AB": 16,
  "归入": 16,
  "短暂": 16,
  "蓄@@": 16,
  "３": 16,
  "婴儿": 16,
  "气泡": 16,
  "柴油机": 16,
  "RS@@": 16,
  "付费": 16,
  "中线": 16,
  "初次": 16,
  "CN": 16,
  "垫板": 16,
  "三楼": 16,
  "吊索": 16,
  "签": 16,
  "神经@@": 16,
  "Sal@@": 16,
  "水力发电": 16,
  "%.": 16,
  "对抗": 16,
  "应可": 16,
  "新世": 16,
  "圆柱": 16,
  "必然": 16,
  "吸": 16,
  "蠕变": 16,
  "参看": 16,
  "燃煤": 16,
  "节奏": 16,
  "便@@": 16,
  "CCS": 16,
  "0.5%": 16,
  "电抗": 16,
  "金融工具": 16,
  "它会": 16,
  "农业@@": 16,
  "55@@": 16,
  "裁定": 16,
  "合格证书": 16,
  "提亚": 16,
  "维斯": 16,
  "播@@": 16,
  "国民": 16,
  "分红": 16,
  "S6": 16,
  "装入": 16,
  "卸@@": 16,
  "ε": 16,
  "并联": 16,
  "15kV": 16,
  "亲@@": 16,
  "案件": 16,
  "舷": 16,
  "浴@@": 16,
  "工作面": 16,
  "他@@": 16,
  "扬@@": 16,
  "第二种": 16,
  "绝": 16,
  "案": 16,
  "捕@@": 16,
  ".6": 16,
  "培养": 16,
  "其次": 16,
  "边界条件": 16,
  "职业@@": 16,
  "减价": 16,
  "送到": 16,
  "抵御": 16,
  "币种": 16,
  "1964": 16,
  "17.2": 16,
  "疏漏": 16,
  "044": 16,
  "层上": 16,
  "抬起": 16,
  "起升": 16,
  "01.@@": 16,
  "地壳": 16,
  "预装": 16,
  "备品备件": 16,
  "27.@@": 16,
  "超额": 16,
  "货船": 16,
  "压器": 16,
  "减免": 16,
  "新增": 16,
  "上级": 16,
  "结果表明": 16,
  "10A": 16,
  "叠@@": 16,
  "水平线": 16,
  "........................@@": 16,
  "核能": 16,
  "处在": 16,
  "RT@@": 16,
  "CAB": 16,
  "更高": 16,
  "克拉通": 16,
  "供电系统": 16,
  "刻度": 16,
  "6000": 16,
  "痛": 16,
  "住宅区": 16,
  "1989": 16,
  "建筑施工": 16,
  "TB": 16,
  "oug@@": 16,
  "断口": 16,
  "仪表盘": 16,
  "丁": 16,
  "装机容量": 16,
  "111": 16,
  "巾": 16,
  "招@@": 16,
  "乳": 16,
  "商会": 16,
  "119": 16,
  "BBA": 16,
  "CT": 16,
  "裂谷": 16,
  "歧视": 16,
  "悬臂": 16,
  "氮": 16,
  "厂家": 16,
  "能源部": 16,
  "避免出现": 16,
  "疏松": 16,
  "消力池": 16,
  "HT@@": 16,
  "FOB": 16,
  "齿@@": 16,
  "xx": 16,
  "岩体": 16,
  "OM@@": 16,
  "高等": 16,
  "1.10": 16,
  "179": 16,
  "受理": 16,
  "藏@@": 16,
  "逐层": 16,
  "引桥": 16,
  "一类": 16,
  "乙酸": 16,
  "描述性": 16,
  "佰@@": 16,
  "刷子": 16,
  "未知": 16,
  "以东": 16,
  "股@@": 16,
  "不可@@": 16,
  "醇": 16,
  "CG": 16,
  "地下管道": 16,
  "多孔": 16,
  "千瓦": 16,
  "确@@": 16,
  "戈": 16,
  "对准": 16,
  "Bak@@": 16,
  "开设": 16,
  "260": 16,
  "非洲开发银行": 16,
  "ga": 16,
  "融入": 16,
  "岸壁": 16,
  "Q350": 16,
  "放牧": 16,
  "外加": 16,
  "保护@@": 16,
  "察": 16,
  "浪涌": 16,
  "音响": 16,
  "牧民": 16,
  "精炼": 16,
  "审计师": 16,
  "Kr@@": 16,
  "环节": 16,
  "塞子": 16,
  "烤": 16,
  "领导者": 16,
  "401": 16,
  "FAT": 16,
  "包络": 16,
  "弦": 16,
  "计算器": 16,
  "不合理": 16,
  "喜欢": 16,
  "B型": 16,
  "增加@@": 16,
  "各级": 16,
  "nm": 16,
  "钢铁工业": 16,
  "正当": 16,
  "4.9": 16,
  "伊": 16,
  "海边": 16,
  "酿造": 16,
  "代表团": 16,
  "铝质": 16,
  "卡箍": 16,
  "重估": 16,
  "IT@@": 16,
  "章鱼": 16,
  "one": 16,
  "矫正": 16,
  "提帕萨": 16,
  "2.5%": 16,
  "SBR": 16,
  "座垫": 16,
  "优先级": 16,
  "最大化": 16,
  "拆迁": 16,
  "下行": 16,
  "夹子": 16,
  "可燃": 16,
  "多层": 16,
  "75%": 16,
  "视野": 16,
  "看管": 16,
  "生育": 16,
  "迟于": 16,
  "干线": 16,
  "画@@": 16,
  "舒适度": 16,
  "仲裁庭": 16,
  "兴@@": 16,
  "异常情况": 16,
  "RD": 16,
  "铜质": 16,
  "GL@@": 16,
  "多于": 16,
  "试点": 16,
  "男性": 16,
  "曲": 16,
  "一步": 16,
  "占@@": 16,
  "栅@@": 16,
  "民事责任": 16,
  "倍@@": 16,
  "羊": 16,
  "宣告": 16,
  "煤气": 16,
  "TG": 16,
  "意思": 16,
  "第二段": 16,
  "便利性": 16,
  "冷凝器": 16,
  "HTB": 16,
  "RCLIN2": 16,
  "事情": 16,
  "担心": 16,
  "3.8": 16,
  "HRS": 16,
  "©": 16,
  "净水": 16,
  "GRS@@": 16,
  "控制点": 16,
  "令人@@": 16,
  "乘": 16,
  "其应": 16,
  "巩固": 16,
  "水流量": 16,
  "出租": 16,
  "射频": 16,
  "可供": 16,
  "涵管": 16,
  "预制构件": 16,
  "专员": 16,
  "播放": 16,
  "相线": 16,
  "成本@@": 16,
  "铁路运输": 16,
  "结构设计": 16,
  "水合": 16,
  "人应": 16,
  "挖除": 16,
  "虚假": 16,
  "○": 16,
  "擦@@": 16,
  "号线": 16,
  "提出申请": 16,
  "两边": 16,
  "1976": 16,
  "作品": 16,
  "冷热水": 16,
  "十月": 16,
  "沿途": 16,
  "害": 16,
  "园@@": 16,
  "Ki@@": 16,
  "语@@": 16,
  "起动": 16,
  "Lou@@": 16,
  "控制阀": 16,
  "沿海地区": 16,
  "铸铁管": 16,
  "陪同": 16,
  "脉@@": 16,
  "杀": 16,
  "黑钢": 16,
  "原文": 16,
  "C45": 16,
  "得出结论": 16,
  "清真寺": 16,
  "电台": 16,
  "技术参数": 16,
  "国有": 16,
  "每当": 16,
  "前进": 16,
  "HA": 16,
  "C4": 15,
  "梯@@": 15,
  "AM@@": 15,
  "R1": 15,
  "洪": 15,
  "后来": 15,
  "马上": 15,
  "第一天": 15,
  "掩@@": 15,
  "盥洗": 15,
  "光源": 15,
  "正是": 15,
  "连带": 15,
  "哪@@": 15,
  "7m": 15,
  "笔译": 15,
  "1500@@": 15,
  "amba": 15,
  "成正比": 15,
  "警察": 15,
  "百万年": 15,
  "漏水": 15,
  "钢梁": 15,
  "古生代": 15,
  "工务": 15,
  "国际商会": 15,
  "矮墙": 15,
  "加强筋": 15,
  "给水": 15,
  "144": 15,
  "KO@@": 15,
  "诚信": 15,
  "几次": 15,
  "237": 15,
  "拟@@": 15,
  "巴西": 15,
  "co": 15,
  "硫@@": 15,
  "ara": 15,
  "测深": 15,
  "付款条件": 15,
  "0.70": 15,
  "的@@": 15,
  "检查@@": 15,
  "路线图": 15,
  "RO": 15,
  "经济效益": 15,
  "桩@@": 15,
  "诚@@": 15,
  "每吨": 15,
  "衬底": 15,
  "节能器": 15,
  "水温": 15,
  "压力表": 15,
  "1X@@": 15,
  "下均": 15,
  "": 15,
  "九": 15,
  "卫生设备": 15,
  "餐饮": 15,
  "掩体": 15,
  "展览": 15,
  "52@@": 15,
  "LR": 15,
  "222": 15,
  "CPC": 15,
  "ab": 15,
  "氨酸": 15,
  "换气": 15,
  "吸尘器": 15,
  "540": 15,
  "SNEL": 15,
  "尖@@": 15,
  "EDG": 15,
  "拖延": 15,
  "挑@@": 15,
  "和解": 15,
  "1.5%": 15,
  "活性": 15,
  "算起": 15,
  "原本": 15,
  "服务处": 15,
  "300m": 15,
  "练习": 15,
  "陡坡": 15,
  "无缝管": 15,
  "盘管": 15,
  "安山岩": 15,
  "CU@@": 15,
  "客厅": 15,
  "病毒": 15,
  "看来": 15,
  "一期": 15,
  "股息": 15,
  "反射@@": 15,
  "符合条件": 15,
  "瘤": 15,
  "GO": 15,
  "脂@@": 15,
  "八个": 15,
  "RTU": 15,
  "Ni@@": 15,
  "协调@@": 15,
  "运距": 15,
  "关键@@": 15,
  "音乐": 15,
  "观察@@": 15,
  "阿尔卑斯": 15,
  "裹力": 15,
  "区域@@": 15,
  "核算": 15,
  "上海": 15,
  "方程": 15,
  "需要的话": 15,
  "衍生": 15,
  "修订版": 15,
  "中频": 15,
  "眼@@": 15,
  "40x@@": 15,
  "CB@@": 15,
  "铲": 15,
  "基数": 15,
  "层序": 15,
  "出水": 15,
  "商讨": 15,
  "安装@@": 15,
  "配量": 15,
  "空调机": 15,
  "申@@": 15,
  "运维": 15,
  "物理化学": 15,
  "国际贸易": 15,
  "捆扎": 15,
  "项@@": 15,
  "震@@": 15,
  "音频": 15,
  "有色": 15,
  "球状": 15,
  "严重性": 15,
  "Ω": 15,
  "配置文件": 15,
  "为例": 15,
  "登记簿": 15,
  "最优": 15,
  "固定@@": 15,
  "公私": 15,
  "千美元": 15,
  "万立方米": 15,
  "证件": 15,
  "粉质": 15,
  "病症": 15,
  "单位成本": 15,
  "义": 15,
  "搬@@": 15,
  "译者": 15,
  "管理费用": 15,
  "推": 15,
  "提名": 15,
  "补给": 15,
  "镀锡": 15,
  "侧向": 15,
  "镜子": 15,
  "淡水": 15,
  "法律效力": 15,
  "½": 15,
  "锡卡索": 15,
  "不可分割": 15,
  "＝": 15,
  "指挥官": 15,
  "射线": 15,
  "能否": 15,
  "焦": 15,
  "投运": 15,
  "邦@@": 15,
  "侵占": 15,
  "见@@": 15,
  "较长": 15,
  "其能": 15,
  "延续": 15,
  "休闲": 15,
  "本协定": 15,
  "AU@@": 15,
  "片麻岩": 15,
  "DD": 15,
  "田": 15,
  "储存罐": 15,
  "420": 15,
  "池@@": 15,
  "灵敏度": 15,
  "ps": 15,
  "30x@@": 15,
  "盐水": 15,
  "螺旋桨": 15,
  "旅游业": 15,
  "丝@@": 15,
  "SG@@": 15,
  "PU": 15,
  "_________": 15,
  "622@@": 15,
  "通风孔": 15,
  "径流系数": 15,
  "水栓": 15,
  "交货单": 15,
  "运输成本": 15,
  "调节阀": 15,
  "总统": 15,
  "7.50": 15,
  "石英岩": 15,
  "带回": 15,
  "晚上": 15,
  "领": 15,
  "卫": 15,
  "合同期": 15,
  "侧壁": 15,
  "保管人": 15,
  "其为": 15,
  "密": 15,
  "蝶阀": 15,
  "殑": 15,
  "23@@": 15,
  "coef": 15,
  "货币@@": 15,
  "薄片": 15,
  "镄": 15,
  "共同@@": 15,
  "甲板": 15,
  "预付": 15,
  "象": 15,
  "三轴": 15,
  "上应": 15,
  "进线": 15,
  "帐户": 15,
  "元@@": 15,
  "城区": 15,
  "粗糙度": 15,
  "ok@@": 15,
  "逾期": 15,
  "顺利进行": 15,
  "弹@@": 15,
  "疏水": 15,
  "ien@@": 15,
  "3A": 15,
  "sp@@": 15,
  "改正": 15,
  "喷雾机": 15,
  "oc": 15,
  "ess@@": 15,
  "缺@@": 15,
  "逃@@": 15,
  "朝": 15,
  "验": 15,
  "久": 15,
  "过量": 15,
  "时需": 15,
  "效": 15,
  "2a": 15,
  "AISI": 15,
  "终端设备": 15,
  "磁场": 15,
  "纸张": 15,
  "对审": 15,
  "玛": 15,
  "20.5": 15,
  "儿童@@": 15,
  "基金会": 15,
  "脑": 15,
  "第一种": 15,
  "统": 15,
  "北纬": 15,
  "捆绑": 15,
  "百分之五": 15,
  "桑德拉": 15,
  "渐进": 15,
  "业务@@": 15,
  "填补": 15,
  "ey": 15,
  "108": 15,
  "频道": 15,
  "异": 15,
  "污水处理": 15,
  "日到": 15,
  "留有": 15,
  "汽轮机": 15,
  "分公司": 15,
  "意见书": 15,
  "公路网": 15,
  "聚苯乙烯": 15,
  "界标": 15,
  "玛@@": 15,
  "竞标者": 15,
  "额@@": 15,
  "喷发": 15,
  "..........................": 15,
  "三极": 15,
  "持续性": 15,
  "有趣": 15,
  "哥": 15,
  "SC": 15,
  "00011": 15,
  "财政部长": 15,
  "承载能力": 15,
  "举@@": 15,
  "拨": 15,
  "挡@@": 15,
  "影@@": 15,
  "无功功率": 15,
  "穿@@": 15,
  "CNEPE": 15,
  "电子版": 15,
  "流水": 15,
  "HO@@": 15,
  "表征": 15,
  "立管": 15,
  "药品": 15,
  "座@@": 15,
  "内墙": 15,
  "支": 15,
  "扬": 15,
  "撰写": 15,
  "商法典": 15,
  "透明度": 15,
  "样板": 15,
  "设计阶段": 15,
  "Mo@@": 15,
  "治": 15,
  "西南部": 15,
  "EE": 15,
  "采取行动": 15,
  "时效": 15,
  "航空@@": 15,
  "仓": 15,
  "推测": 15,
  "回转": 15,
  "寄存": 15,
  "255": 15,
  "SF@@": 15,
  "公正": 15,
  "免征": 15,
  "8.00": 15,
  "填筑": 15,
  "杨@@": 15,
  "道路网": 15,
  "龙骨": 15,
  "ep@@": 15,
  "每批": 15,
  "No": 15,
  "Sotuba": 15,
  "功率因数": 15,
  "DDS": 15,
  "塑": 15,
  "0.40": 15,
  "重新安装": 15,
  "罗马": 15,
  "一体": 15,
  "涨@@": 15,
  "虹吸管": 15,
  "发动": 15,
  "减压": 15,
  "多边形": 15,
  "空白": 15,
  "........": 15,
  "威@@": 15,
  "捐赠": 15,
  "客车": 15,
  "__________": 15,
  "前部": 15,
  "第七@@": 15,
  "ard@@": 15,
  "法律@@": 15,
  "要点": 15,
  "04@@": 15,
  "1965": 15,
  "含金": 15,
  "法则": 15,
  "相互@@": 15,
  "FMVSS": 15,
  "得益于": 15,
  "65%": 15,
  "效@@": 15,
  "迁徙": 15,
  "III.@@": 15,
  "抽水泵": 15,
  "森@@": 15,
  "138": 15,
  "森": 15,
  "频谱": 15,
  "MM": 15,
  "沉积层": 15,
  "In": 15,
  "收尾": 15,
  "留": 15,
  "分享": 15,
  "用具": 15,
  "消烟": 15,
  "埃克斯": 15,
  "新中压": 15,
  "SEN": 15,
  "微动": 15,
  "联": 15,
  "清查": 15,
  "275": 15,
  "Ph@@": 15,
  "应用@@": 15,
  "往返": 15,
  "NOK": 15,
  "均匀分布": 15,
  "HS": 15,
  "非洲@@": 15,
  "博士": 15,
  "抗议": 15,
  "年级": 15,
  "旅行@@": 15,
  "电荷": 15,
  "施工工艺": 15,
  "心理": 15,
  "006": 15,
  "57@@": 15,
  "酬劳": 15,
  "牧区": 15,
  "保险合同": 15,
  "效用": 15,
  "整条": 15,
  "畅通": 15,
  "最低标准": 15,
  "救@@": 15,
  "铋": 15,
  "Tch@@": 15,
  "选举": 15,
  "刚": 15,
  "淋@@": 15,
  "增": 15,
  "势": 15,
  "点状": 15,
  "沙质": 15,
  "涵": 15,
  "何时": 15,
  "毫无保留": 15,
  "123": 15,
  "霜": 15,
  "决": 15,
  "年前": 15,
  "扶@@": 15,
  "GCB": 15,
  "平均温度": 15,
  "温度传感器": 15,
  "劳动合同": 15,
  "这会": 15,
  "梅": 15,
  "初稿": 15,
  "230@@": 14,
  "测向": 14,
  "出入口": 14,
  "段时间": 14,
  "0.90": 14,
  "外部环境": 14,
  "氮气": 14,
  "砂石": 14,
  "暂定": 14,
  "会见": 14,
  "电子邮箱": 14,
  "检查站": 14,
  "武器": 14,
  "3X@@": 14,
  "兴趣": 14,
  "予": 14,
  "衍生物": 14,
  "试管": 14,
  "沃@@": 14,
  "寒冷": 14,
  "ND": 14,
  "附图": 14,
  "尺@@": 14,
  "廊": 14,
  "个点": 14,
  "少数": 14,
  "慢": 14,
  "1954": 14,
  "营养": 14,
  "近似": 14,
  "砂子": 14,
  "列为": 14,
  "处所": 14,
  "鉴定书": 14,
  "DS": 14,
  "美学": 14,
  "航海": 14,
  "呼吸道": 14,
  "触@@": 14,
  "扁钢": 14,
  "每处": 14,
  "意图": 14,
  "汽@@": 14,
  "钳@@": 14,
  "总产量": 14,
  "篷布": 14,
  "欠款": 14,
  "壁面": 14,
  "固化": 14,
  "会审": 14,
  "每延米": 14,
  "运至": 14,
  "用户@@": 14,
  "消费税": 14,
  "人工@@": 14,
  "FTP": 14,
  "植@@": 14,
  "铁质": 14,
  "NE": 14,
  "沙砾": 14,
  "不带": 14,
  "量规": 14,
  "罐中": 14,
  "优胜者": 14,
  "刀@@": 14,
  "防护罩": 14,
  "防腐@@": 14,
  "圆屋顶": 14,
  "薪": 14,
  "本表": 14,
  "承": 14,
  "229": 14,
  "市政府": 14,
  "纵梁": 14,
  "VIH": 14,
  "退场": 14,
  "余": 14,
  "返@@": 14,
  "第一批": 14,
  "交通运输": 14,
  "感到": 14,
  "DJ@@": 14,
  "MV@@": 14,
  "标度": 14,
  "清晰可见": 14,
  "楼@@": 14,
  "触及": 14,
  "NT": 14,
  "GF": 14,
  "公共@@": 14,
  "CFA": 14,
  "该表": 14,
  "0.0": 14,
  "穆": 14,
  "Ah": 14,
  "六月": 14,
  "25m": 14,
  "No@@": 14,
  "沿海地带": 14,
  "亿吨": 14,
  "绝缘层": 14,
  "次序": 14,
  "驱": 14,
  "定期维护": 14,
  "尼亚美": 14,
  "色彩": 14,
  "研讨会": 14,
  "pdf": 14,
  "该地": 14,
  "生命周期": 14,
  "85@@": 14,
  "非正常": 14,
  "支护": 14,
  "集合": 14,
  "603@@": 14,
  "交通工具": 14,
  "两类": 14,
  "温和": 14,
  "耐受性": 14,
  "辅@@": 14,
  "11.9": 14,
  "路障": 14,
  "HE@@": 14,
  "还会": 14,
  "P505": 14,
  "令人": 14,
  "Mat@@": 14,
  "波长": 14,
  "蒸发器": 14,
  "驻@@": 14,
  "OH": 14,
  "远景": 14,
  "2100": 14,
  "断面图": 14,
  "齿": 14,
  "空气冷却": 14,
  "训练": 14,
  "阻": 14,
  "锻造": 14,
  "床上": 14,
  "数个": 14,
  "兰@@": 14,
  "函件": 14,
  "EF": 14,
  "遮蔽": 14,
  "EM@@": 14,
  "损毁": 14,
  "低温": 14,
  "牛@@": 14,
  "SAS": 14,
  "财@@": 14,
  "屠宰": 14,
  "dougou": 14,
  "大豆": 14,
  "出现@@": 14,
  "菜@@": 14,
  "装车": 14,
  "标识符": 14,
  "劳工": 14,
  "因而": 14,
  "钢制成": 14,
  "60x@@": 14,
  "池塘": 14,
  "浪@@": 14,
  "过后": 14,
  "钩@@": 14,
  "序号": 14,
  "自然灾害": 14,
  "葡氏": 14,
  "播": 14,
  "青@@": 14,
  "近期": 14,
  "架上": 14,
  "柔@@": 14,
  "维拉": 14,
  "流器": 14,
  "专用@@": 14,
  "020": 14,
  "光电": 14,
  "缺水": 14,
  "服务质量": 14,
  "灵活": 14,
  "可达性": 14,
  "ANSI": 14,
  "传": 14,
  "第三产业": 14,
  "由该": 14,
  "zi": 14,
  "过大": 14,
  "独特": 14,
  "Im@@": 14,
  "水线": 14,
  "强制执行": 14,
  "笼@@": 14,
  "012": 14,
  "BOD": 14,
  "十五天": 14,
  "油压": 14,
  "dwg": 14,
  "安全阀": 14,
  "盛装": 14,
  "127": 14,
  "水压": 14,
  "词汇": 14,
  "象@@": 14,
  "变形缝": 14,
  "GS@@": 14,
  "007": 14,
  "因数": 14,
  "担忧": 14,
  "岩芯": 14,
  "tt@@": 14,
  "计费": 14,
  "开关柜": 14,
  "谈": 14,
  "Δ": 14,
  "回水": 14,
  "IL": 14,
  "bars": 14,
  "B4": 14,
  "机密信息": 14,
  "DT@@": 14,
  "排气管": 14,
  "点上": 14,
  "订货": 14,
  "na": 14,
  "抵@@": 14,
  "从未": 14,
  "限制器": 14,
  "祖@@": 14,
  "金伯利": 14,
  "工程部": 14,
  "贬值": 14,
  "斜槽": 14,
  "导航": 14,
  "迷你": 14,
  "191": 14,
  "庭": 14,
  "制冷剂": 14,
  "ane": 14,
  "强大": 14,
  "红线": 14,
  "变型": 14,
  "据@@": 14,
  "掺入": 14,
  "奥兰": 14,
  "主导地位": 14,
  "外力": 14,
  "60cm": 14,
  "工作岗位": 14,
  "削弱": 14,
  "目测": 14,
  "不利于": 14,
  "AF": 14,
  "169": 14,
  "PD": 14,
  "油料": 14,
  "志@@": 14,
  "挂": 14,
  "土块": 14,
  "烃": 14,
  "跨河": 14,
  "进口@@": 14,
  "预热": 14,
  "微粒": 14,
  "胚胎": 14,
  "楣": 14,
  "发电所": 14,
  "电动阀": 14,
  "匿名": 14,
  "org": 14,
  "浴": 14,
  "堑": 14,
  "其余部分": 14,
  "梯级": 14,
  "隐性": 14,
  "酶": 14,
  "罢工": 14,
  "实验@@": 14,
  "设计者": 14,
  "围垦": 14,
  "金钱": 14,
  "R4@@": 14,
  "60529": 14,
  "农业用地": 14,
  "水封": 14,
  "什么样": 14,
  "测高": 14,
  "浅层": 14,
  "借土场": 14,
  "机车车辆": 14,
  "贫": 14,
  "16%": 14,
  "热膨胀": 14,
  "Bar@@": 14,
  "粘附": 14,
  "寄出": 14,
  "501": 14,
  "货物运输": 14,
  "保安": 14,
  "摄入": 14,
  "截断": 14,
  "遭遇": 14,
  "三通阀": 14,
  "特殊性": 14,
  "销@@": 14,
  "需向": 14,
  "行进": 14,
  "聘请": 14,
  "56@@": 14,
  "乘积": 14,
  "环箍": 14,
  "早@@": 14,
  "社群": 14,
  "火山口": 14,
  "保证期": 14,
  "eb@@": 14,
  "主站": 14,
  "0.000": 14,
  "MB": 14,
  "生物膜": 14,
  "滚压": 14,
  "桑加语": 14,
  "计酬": 14,
  "恢复@@": 14,
  "电话@@": 14,
  "北侧": 14,
  "GRDF": 14,
  "15x@@": 14,
  "半自动": 14,
  "递延": 14,
  "内未": 14,
  "表皮": 14,
  "ie": 14,
  "20.3": 14,
  "士@@": 14,
  "23.1": 14,
  "抗压": 14,
  "15000": 14,
  "机械性能": 14,
  "FX@@": 14,
  "CIE": 14,
  "ne": 14,
  "公用": 14,
  "人才": 14,
  "阀@@": 14,
  "拿@@": 14,
  "锁紧": 14,
  "鲁": 14,
  "脏": 14,
  "土壤改良": 14,
  "_____": 14,
  "餐@@": 14,
  "不必要": 14,
  "ens@@": 14,
  "计算错误": 14,
  "频@@": 14,
  "弯@@": 14,
  "15.1": 14,
  "142": 14,
  "高低": 14,
  "扬尘": 14,
  "DP": 14,
  "排放系统": 14,
  "学会": 14,
  "样@@": 14,
  "搭建": 14,
  "LS": 14,
  "DB": 14,
  "153": 14,
  "海西": 14,
  "抛@@": 14,
  "Plaxis": 14,
  "地说": 14,
  "养老金": 14,
  "钢轨": 14,
  "公示": 14,
  "桑@@": 14,
  "开孔": 14,
  "澶": 14,
  "双工": 14,
  "桩头": 14,
  "": 14,
  "粉刺": 14,
  "顺@@": 14,
  "锥": 14,
  "生产厂家": 14,
  "派": 14,
  "主梁": 14,
  "愿景": 14,
  "x2.@@": 14,
  "可塑性": 14,
  "调制": 14,
  "推出": 14,
  "鍦": 14,
  "拓宽": 14,
  "鼓@@": 14,
  "和谐": 14,
  "启动器": 14,
  "杂": 14,
  "Pro@@": 14,
  "008": 14,
  "韦@@": 14,
  "文件@@": 14,
  "投递": 14,
  "产区": 14,
  "半透明": 14,
  "阿尔泽": 14,
  "沉陷": 14,
  "搪瓷": 14,
  "固定价格": 14,
  "所遇": 14,
  "各种类型": 14,
  "考官": 14,
  "振@@": 14,
  "复数": 14,
  "800mm": 14,
  "暴风雨": 14,
  "Kati": 14,
  "Bloque": 14,
  "oh@@": 14,
  "增量": 14,
  "洗": 14,
  "构": 14,
  "低温干燥": 14,
  "UE@@": 14,
  "此价": 14,
  "ay@@": 14,
  "Bat@@": 14,
  "ina": 14,
  "贴现": 14,
  "板子": 14,
  "发送到": 14,
  "口径": 14,
  "韦齐": 14,
  "变频器": 14,
  "肿瘤": 14,
  "越过": 14,
  "借": 14,
  "普及": 14,
  "㎡": 14,
  "褐色": 14,
  "论@@": 14,
  "伟晶岩": 14,
  "澳大利亚": 14,
  "灌装": 14,
  "渗@@": 14,
  "发行人": 14,
  "陶@@": 14,
  "探讨": 14,
  "355": 14,
  "地质学": 14,
  "256": 14,
  "连杆": 14,
  "CTP": 14,
  "登": 14,
  "G3": 14,
  "48V": 14,
  "CCA": 14,
  "立式": 14,
  "征": 14,
  "RG@@": 14,
  "覆盖@@": 14,
  "工作者": 14,
  "EQ@@": 14,
  "一分钟": 14,
  "西非国家": 14,
  "NM": 14,
  "供需平衡": 14,
  "管理费": 14,
  "如上所述": 14,
  "履带式": 14,
  "下以": 14,
  "第一段": 14,
  "感兴趣": 14,
  "卢卢尼": 14,
  "Absent": 14,
  "申请单": 14,
  "隆潘": 14,
  "洲": 14,
  "刨": 14,
  "库拉": 14,
  "递": 14,
  "中非国家": 14,
  "吃水": 14,
  "折": 14,
  "紧邻": 14,
  "3.10": 14,
  "解冻": 13,
  "1974": 13,
  "卫生条件": 13,
  "洞@@": 13,
  "伪造": 13,
  "工作组": 13,
  "加班": 13,
  "追踪": 13,
  "总体@@": 13,
  "124": 13,
  "止动": 13,
  "杂草": 13,
  "彼此": 13,
  "追溯": 13,
  "考察团": 13,
  "二十一": 13,
  "71.@@": 13,
  "上下游": 13,
  "芳@@": 13,
  "801": 13,
  "11.5": 13,
  "变质岩": 13,
  "607@@": 13,
  "土壤@@": 13,
  "合作社": 13,
  "播种": 13,
  "Cl": 13,
  "检": 13,
  "铁轨": 13,
  "DWA": 13,
  "更长": 13,
  "捐税": 13,
  "SWL0@@": 13,
  "受限制": 13,
  "相似性": 13,
  "秩序": 13,
  "临床": 13,
  "衣@@": 13,
  "uc@@": 13,
  "上市": 13,
  "标准图": 13,
  "闪长岩": 13,
  "铺放": 13,
  "填满": 13,
  "哪个": 13,
  "Chenoua": 13,
  "印": 13,
  "PRC": 13,
  "综合@@": 13,
  "境外": 13,
  "积聚": 13,
  "关节": 13,
  "富集": 13,
  "化工集团": 13,
  "栏@@": 13,
  "瞬间": 13,
  "伦@@": 13,
  "备案": 13,
  "符合@@": 13,
  "矫直": 13,
  "自北": 13,
  "退火": 13,
  "试验台": 13,
  "允诺": 13,
  "样机": 13,
  "行动不便": 13,
  "九十@@": 13,
  "总干事": 13,
  "管罩": 13,
  "临时性": 13,
  "疏@@": 13,
  "223": 13,
  "一氧化碳": 13,
  "联合国@@": 13,
  "ri": 13,
  "168": 13,
  "天时": 13,
  "通车": 13,
  "泥沙": 13,
  "沙漠": 13,
  "灾难": 13,
  "主导": 13,
  "IP电话": 13,
  "灰质": 13,
  "甄选": 13,
  "沿路": 13,
  "壁灯": 13,
  "物理学": 13,
  "采掘": 13,
  "海湾": 13,
  "婚@@": 13,
  "GI@@": 13,
  "重心": 13,
  "重合": 13,
  "ug@@": 13,
  "MSM": 13,
  "价目表": 13,
  "假期": 13,
  "努": 13,
  "狭窄": 13,
  "切除术": 13,
  "华": 13,
  "技术员": 13,
  "嵌缝": 13,
  "下部结构": 13,
  "著作": 13,
  "热器": 13,
  "SLS": 13,
  "杜古": 13,
  "江@@": 13,
  "同位素": 13,
  "10.4": 13,
  "问卷调查": 13,
  "转入": 13,
  "_______": 13,
  "标志牌": 13,
  "DWT": 13,
  "挖泥": 13,
  "教室": 13,
  "倾卸": 13,
  "机壳": 13,
  "ix": 13,
  "结果显示": 13,
  "弯道": 13,
  "全权": 13,
  "施行": 13,
  "报警器": 13,
  "某项": 13,
  "开垦": 13,
  "光泽": 13,
  "溢@@": 13,
  "SH": 13,
  "公法": 13,
  "就位": 13,
  "Per@@": 13,
  "304L": 13,
  "被动": 13,
  "并发症": 13,
  "低点": 13,
  "167": 13,
  "016": 13,
  "弱@@": 13,
  "三叠纪": 13,
  "5.8": 13,
  "阴@@": 13,
  "MU@@": 13,
  "务必": 13,
  "29.1": 13,
  "充分@@": 13,
  "引线": 13,
  "130@@": 13,
  "电力部门": 13,
  "PLAXIS": 13,
  "HDPE": 13,
  "加重": 13,
  "大样图": 13,
  "商业中心": 13,
  "勘查": 13,
  "山羊": 13,
  "Beaufort": 13,
  "运单": 13,
  "适于": 13,
  "企业家": 13,
  "最多为": 13,
  "开工日期": 13,
  "消防用水": 13,
  "MOX": 13,
  "TF@@": 13,
  "09@@": 13,
  "社保": 13,
  "贫困": 13,
  "第四纪": 13,
  "规避": 13,
  "EC@@": 13,
  "基建": 13,
  "获准": 13,
  "原地": 13,
  "6.7": 13,
  "分泌": 13,
  "伤口": 13,
  "欧姆": 13,
  "退还给": 13,
  "泥坑": 13,
  "爆发": 13,
  "博韦": 13,
  "托管": 13,
  "奥果韦": 13,
  "重大事故": 13,
  "末尾": 13,
  "肌@@": 13,
  "市政@@": 13,
  "救助": 13,
  "阴极铜": 13,
  "带到": 13,
  "绞接": 13,
  "势@@": 13,
  "域名": 13,
  "中心站": 13,
  "聚合": 13,
  "送货": 13,
  "ac": 13,
  "资历": 13,
  "屋@@": 13,
  "地质学家": 13,
  "下费尔洛": 13,
  "二期": 13,
  "oula@@": 13,
  "身份@@": 13,
  "应付款": 13,
  "审理": 13,
  "砂料": 13,
  "东侧": 13,
  "电势": 13,
  "分析@@": 13,
  "日程": 13,
  "气压": 13,
  "上以": 13,
  "丙烯": 13,
  "og@@": 13,
  "zi@@": 13,
  "4FG": 13,
  "交通管理": 13,
  "令后": 13,
  "免": 13,
  "----@@": 13,
  "激光": 13,
  "麻@@": 13,
  "加盖": 13,
  "闩": 13,
  "蒙彼利埃": 13,
  "171": 13,
  "勤": 13,
  "磨削": 13,
  "流明": 13,
  "瓦加杜古": 13,
  "什": 13,
  "网络连接": 13,
  "税务局": 13,
  "驾驶舱": 13,
  "接到": 13,
  "截止阀": 13,
  "加纳": 13,
  "ec": 13,
  "Hs": 13,
  "宏@@": 13,
  "城市@@": 13,
  "IA": 13,
  "构@@": 13,
  "竖直": 13,
  "GEA": 13,
  "BS@@": 13,
  "EE@@": 13,
  "采矿@@": 13,
  "B6": 13,
  "渔船": 13,
  "ard": 13,
  "石油@@": 13,
  "两块": 13,
  "乳液": 13,
  "轧钢": 13,
  "CHIDI": 13,
  "Ma@@": 13,
  "符合国际": 13,
  "网址": 13,
  "产业@@": 13,
  "io": 13,
  "集中式": 13,
  "一月": 13,
  "平直": 13,
  "巴郎度": 13,
  "沉淀物": 13,
  "银@@": 13,
  "辅助@@": 13,
  "ien": 13,
  "临": 13,
  "折算": 13,
  "机遇": 13,
  "导槽": 13,
  "基台": 13,
  "纺织品": 13,
  "联系方式": 13,
  "谱": 13,
  "那个": 13,
  "长远": 13,
  "负责管理": 13,
  "需注意": 13,
  "告诉": 13,
  "呼@@": 13,
  "见下文": 13,
  "专项": 13,
  "滑块": 13,
  "ir": 13,
  "γ": 13,
  "33.@@": 13,
  "催化剂": 13,
  "期待": 13,
  "发送至": 13,
  "路边": 13,
  "绕@@": 13,
  "双面": 13,
  "指控": 13,
  "60m": 13,
  "排土场": 13,
  "H3": 13,
  "H1": 13,
  "土机": 13,
  "脊": 13,
  "440": 13,
  "砖块": 13,
  "持@@": 13,
  "F3": 13,
  "范本": 13,
  "ERA": 13,
  "学历": 13,
  "400Hz": 13,
  "企图": 13,
  "接收机": 13,
  "140@@": 13,
  "204": 13,
  "750@@": 13,
  "净资产": 13,
  "民航": 13,
  "占有者": 13,
  "让@@": 13,
  "译": 13,
  "随意": 13,
  "充当": 13,
  "时差": 13,
  "干道": 13,
  "软袋": 13,
  "牵引车": 13,
  "背": 13,
  "XC2": 13,
  "闸@@": 13,
  "北方": 13,
  "各点": 13,
  "313": 13,
  "性病": 13,
  "UR": 13,
  "尾水": 13,
  "道德": 13,
  "私立": 13,
  "储": 13,
  "饲料": 13,
  "陷@@": 13,
  "也许": 13,
  "水泥砖": 13,
  "0.05": 13,
  "直角": 13,
  "铜制": 13,
  "摇@@": 13,
  "空运": 13,
  "网线": 13,
  "入库": 13,
  "F0": 13,
  "耐用性": 13,
  "密封圈": 13,
  "850": 13,
  "气象@@": 13,
  "圆柱体": 13,
  "一整套": 13,
  "态@@": 13,
  "yah": 13,
  "13.4": 13,
  "判@@": 13,
  "投票权": 13,
  "FIN": 13,
  "光谱": 13,
  "234": 13,
  "降价": 13,
  "抽气": 13,
  "东面": 13,
  "外控": 13,
  "该层": 13,
  "裕度": 13,
  "危险品": 13,
  "经受": 13,
  "浅红": 13,
  "文中": 13,
  "于本": 13,
  "性别": 13,
  "Kolokani": 13,
  "KOU@@": 13,
  "承建方": 13,
  "获": 13,
  "更具": 13,
  "利润@@": 13,
  "中东部": 13,
  "进气": 13,
  "分局": 13,
  "山坡": 13,
  "替": 13,
  "星": 13,
  "乌": 13,
  "铬": 13,
  "工伤事故": 13,
  "提供@@": 13,
  "M2": 13,
  "PC@@": 13,
  "la": 13,
  "储存@@": 13,
  "拉线": 13,
  "裂": 13,
  "声波": 13,
  "存储@@": 13,
  "滑动式": 13,
  "日内瓦": 13,
  "mn": 13,
  "6.50": 13,
  "分散@@": 13,
  "异径管": 13,
  "航": 13,
  "底坎": 13,
  "ati@@": 13,
  "天窗": 13,
  "短期内": 13,
  "022": 13,
  "头盔": 13,
  "外出": 13,
  "规划@@": 13,
  "腐": 13,
  "炭": 13,
  "投资银行": 13,
  "拱架": 13,
  "ana": 13,
  "280": 13,
  "推移": 13,
  "树立": 13,
  "栈桥": 13,
  "接触式": 13,
  "Φ": 13,
  "始新世": 13,
  "缠绕": 13,
  "pro@@": 13,
  "增益": 13,
  "摄影": 13,
  "丹吉尔": 13,
  "树桩": 13,
  "卡萨布兰卡": 13,
  "塔尔": 13,
  "特投": 13,
  "闸阀": 13,
  "沙丁鱼": 13,
  "步@@": 13,
  ".....": 13,
  "Am@@": 13,
  "冰水": 13,
  "MD": 13,
  "43@@": 13,
  "葡萄糖": 13,
  "冷却塔": 13,
  "5.10": 13,
  "槽@@": 13,
  "撤除": 13,
  "流失": 13,
  "海关@@": 13,
  "缆": 13,
  "质保金": 13,
  "烧烤": 13,
  "促@@": 13,
  "ue": 13,
  "沙地": 13,
  "资金来源": 13,
  "LE": 13,
  "生境": 13,
  "配料": 13,
  "kW@@": 13,
  "每升": 13,
  "总表": 13,
  "名为": 13,
  "fc@@": 13,
  "薄弱": 13,
  "25.3": 13,
  "附表": 13,
  "话": 13,
  "tr@@": 13,
  "易碎": 13,
  "45%": 13,
  "公路@@": 13,
  "COMI@@": 13,
  "损失赔偿": 13,
  "空气@@": 13,
  "美罗迪特": 13,
  "子条": 13,
  "M4": 13,
  "近年来": 13,
  "部际": 13,
  "便宜": 13,
  "人物": 13,
  "4.50": 13,
  "Ban@@": 13,
  "FU@@": 13,
  "宝": 13,
  "Kol@@": 13,
  "加拉": 13,
  "委任": 13,
  "阿达马瓦": 13,
  "稍微": 13,
  "洗瓶": 13,
  "触发器": 13,
  "教": 13,
  "一百@@": 13,
  "ca": 13,
  "职权范围": 13,
  "下水": 13,
  "扰乱": 13,
  "火山@@": 13,
  "半年": 13,
  "接触面": 13,
  "Tam@@": 13,
  "牵拉": 13,
  "嘴": 13,
  "后侧": 13,
  "筹@@": 13,
  "16.3": 13,
  "滤网": 13,
  "喷雾": 13,
  "调车": 13,
  "女@@": 13,
  "朗": 13,
  "朗读": 13,
  "汇编": 13,
  "罗索": 13,
  "蒸": 13,
  "滴@@": 13,
  "门禁": 13,
  "13.5": 13,
  "佳@@": 13,
  "术@@": 13,
  "湾": 13,
  "朗@@": 13,
  "缓": 13,
  "BID": 13,
  "绿": 13,
  "134": 13,
  "铁路线": 13,
  "裁@@": 13,
  "PO": 13,
  "逆转": 13,
  "轮胎式": 13,
  "每块": 13,
  "RAINBIRD": 13,
  "宗旨": 13,
  "球阀": 13,
  "最小化": 13,
  "自来水": 13,
  "漏斗": 13,
  "风撑": 13,
  "挂车": 13,
  "510": 13,
  "浮选": 13,
  "另行规定": 13,
  "受力": 13,
  "撕裂": 13,
  "SPEC": 13,
  "餐": 13,
  "四种": 13,
  "FI": 13,
  "PE660": 13,
  "发生器": 13,
  "螺杆": 13,
  "和表": 13,
  "功@@": 13,
  "归类": 13,
  "水利@@": 13,
  "探测系统": 13,
  "里程": 13,
  "Np": 13,
  "壹@@": 13,
  "柄": 13,
  "弹": 13,
  "打造": 13,
  "串联": 13,
  "LCD": 13,
  "附于": 13,
  "ISONGO": 13,
  "当事": 13,
  "S4": 13,
  "外界": 13,
  "进料": 13,
  "98%": 13,
  "法定@@": 12,
  "确保安全": 12,
  "PFA": 12,
  "吨@@": 12,
  "多级": 12,
  "ESSH": 12,
  "底土": 12,
  "新线路": 12,
  "机动车辆": 12,
  "美洲": 12,
  "捐@@": 12,
  "ba": 12,
  "焦点": 12,
  "但应": 12,
  "SOMELEC": 12,
  "凉@@": 12,
  "公平@@": 12,
  "工程地质": 12,
  "剪应力": 12,
  "DAS": 12,
  "252": 12,
  "住户": 12,
  "二氧化硅": 12,
  "票@@": 12,
  "冶炼": 12,
  "肺@@": 12,
  "238": 12,
  "2040": 12,
  "TEF": 12,
  "变速": 12,
  "信托": 12,
  "装订": 12,
  "形势": 12,
  "维修服务": 12,
  "控制电路": 12,
  "IEG": 12,
  "op": 12,
  "偿@@": 12,
  "诊所": 12,
  "空闲": 12,
  "绳": 12,
  "ZA": 12,
  "些": 12,
  "ob@@": 12,
  "16.1": 12,
  "Kayes": 12,
  "辨认": 12,
  "紧张": 12,
  "上行": 12,
  "块@@": 12,
  "捣@@": 12,
  "1961": 12,
  "叉": 12,
  "镇流器": 12,
  "霍@@": 12,
  "饰@@": 12,
  "GTC": 12,
  "辞@@": 12,
  "创新型": 12,
  "内陆": 12,
  "粉状": 12,
  "血管": 12,
  "AM": 12,
  "离心泵": 12,
  "22.5": 12,
  "C16": 12,
  "定价": 12,
  "SEC": 12,
  "博士论文": 12,
  "翻转": 12,
  "黄土": 12,
  "侵害": 12,
  "ol": 12,
  "覆盖范围": 12,
  "系指": 12,
  "呈报": 12,
  "相容": 12,
  "物件": 12,
  "ont@@": 12,
  "配重": 12,
  "地质@@": 12,
  "阳@@": 12,
  "清洁度": 12,
  "过剩": 12,
  "Mad@@": 12,
  "袋装": 12,
  "信誉": 12,
  "嵌": 12,
  "+@@": 12,
  "读卡器": 12,
  "木门": 12,
  "始于": 12,
  "铁丝": 12,
  "斜角": 12,
  "浅色": 12,
  "电抗器": 12,
  "VIP": 12,
  "机车": 12,
  "中继器": 12,
  "侵蚀性": 12,
  "离析": 12,
  "钢索": 12,
  "水果": 12,
  "探矿": 12,
  "绳索": 12,
  "毛利": 12,
  "不予考虑": 12,
  "超负荷": 12,
  "火力发电厂": 12,
  "保密性": 12,
  "采收率": 12,
  "con@@": 12,
  "不透水": 12,
  "一节": 12,
  "结尾": 12,
  "过压": 12,
  "铁丝网": 12,
  "sso": 12,
  "论坛": 12,
  "△": 12,
  "TPC": 12,
  "真": 12,
  "树篱": 12,
  "努@@": 12,
  "立面图": 12,
  "社会保险": 12,
  "靠泊": 12,
  "箱内": 12,
  "贝尔": 12,
  "粒子": 12,
  "监督@@": 12,
  "干燥@@": 12,
  "无限期": 12,
  "GSM": 12,
  "进来": 12,
  "词@@": 12,
  "布鲁塞尔": 12,
  "办公@@": 12,
  "派遣": 12,
  "下发": 12,
  "BSI": 12,
  "预充电": 12,
  "电流@@": 12,
  "附@@": 12,
  "动器": 12,
  "工程@@": 12,
  "2200": 12,
  "敬意": 12,
  "Q2": 12,
  "ING": 12,
  "C8583": 12,
  "hou@@": 12,
  "向外": 12,
  "配水": 12,
  "凭@@": 12,
  "合作者": 12,
  "付给": 12,
  "X射线": 12,
  "NT@@": 12,
  "测量法": 12,
  "age": 12,
  "坡@@": 12,
  "WA": 12,
  "小数点": 12,
  "KM@@": 12,
  "读者": 12,
  "离心@@": 12,
  "愿望": 12,
  "奇美": 12,
  "闪岩": 12,
  "高差": 12,
  "控股公司": 12,
  "分裂": 12,
  "钻机": 12,
  "OR": 12,
  "肺": 12,
  "应收款": 12,
  "单轨": 12,
  "................................................................@@": 12,
  "探针": 12,
  "加州": 12,
  "0.35": 12,
  "管上": 12,
  "铁道": 12,
  "斜率": 12,
  "访": 12,
  "民法典": 12,
  "视频会议": 12,
  "一百": 12,
  "塔上": 12,
  "壁画": 12,
  "条令": 12,
  "角砾岩": 12,
  "堆存": 12,
  "轨@@": 12,
  "协作": 12,
  "后排": 12,
  "碳钢": 12,
  "校验": 12,
  "中毒": 12,
  "消极影响": 12,
  "结清": 12,
  "公交系统": 12,
  "脱盐": 12,
  "MWe": 12,
  "146": 12,
  "尽早": 12,
  "隆@@": 12,
  "扣款": 12,
  "水准测量": 12,
  "肉眼": 12,
  "04.@@": 12,
  "Ri@@": 12,
  "断裂强度": 12,
  "体重": 12,
  "EET": 12,
  "明确要求": 12,
  "管套": 12,
  "碳酸@@": 12,
  "第五": 12,
  "平衡@@": 12,
  "11.@@": 12,
  "时向": 12,
  "1000V": 12,
  "系统性": 12,
  "RV@@": 12,
  "604@@": 12,
  "专业人士": 12,
  "工艺流程": 12,
  "接触@@": 12,
  "XX@@": 12,
  "317": 12,
  "赫兹": 12,
  "四台": 12,
  "法文": 12,
  "千伏安": 12,
  "1.4@@": 12,
  "学家": 12,
  "泽": 12,
  "遥测": 12,
  "缆@@": 12,
  "oss@@": 12,
  "科目": 12,
  "交易@@": 12,
  "浸润": 12,
  "两家": 12,
  "公共部门": 12,
  "异性": 12,
  "5.11": 12,
  "污": 12,
  "百分之八十": 12,
  "电池板": 12,
  "亭": 12,
  "chatn": 12,
  "硅质": 12,
  "送往": 12,
  "推杠": 12,
  "ip@@": 12,
  "amb@@": 12,
  "出租人": 12,
  "每分钟": 12,
  "屋架": 12,
  "图形@@": 12,
  "想@@": 12,
  "微机": 12,
  "衬": 12,
  "百分之二十五": 12,
  "明确@@": 12,
  "OF": 12,
  "出厂": 12,
  "ell@@": 12,
  "克服": 12,
  "用语": 12,
  "垢": 12,
  "虑": 12,
  "合营": 12,
  "熔流": 12,
  "切断阀": 12,
  "伐木": 12,
  "翻": 12,
  "牛奶": 12,
  "161kV": 12,
  "07.@@": 12,
  "聚": 12,
  "测试方法": 12,
  "评委会": 12,
  "这块": 12,
  "成矿": 12,
  "502": 12,
  "瑞士法郎": 12,
  "板桩": 12,
  "高频": 12,
  "体检": 12,
  "嵌套": 12,
  "差分": 12,
  "2.40": 12,
  "14m": 12,
  "正好": 12,
  "电话线": 12,
  "截短": 12,
  "工程学": 12,
  "麦@@": 12,
  "科技@@": 12,
  "漫@@": 12,
  "棒@@": 12,
  "5.7": 12,
  "戈@@": 12,
  "镀": 12,
  "发散": 12,
  "灯杆": 12,
  "反射器": 12,
  "肥": 12,
  "排水管道": 12,
  "扩散器": 12,
  "休息室": 12,
  "睡眠": 12,
  "财产损失": 12,
  "3b": 12,
  "税收制度": 12,
  "扰": 12,
  "ter@@": 12,
  "黄铜矿": 12,
  "送交": 12,
  "开票": 12,
  "粮食": 12,
  "提留款": 12,
  "侵权": 12,
  "计时": 12,
  "底槛": 12,
  "竹@@": 12,
  "满载": 12,
  "矩": 12,
  "Boffa": 12,
  "路由器": 12,
  "百分之二十": 12,
  "世@@": 12,
  "150m": 12,
  "TER@@": 12,
  "DU@@": 12,
  "des": 12,
  "酌情": 12,
  "石场": 12,
  "锡@@": 12,
  "受限": 12,
  "伴生": 12,
  "安达": 12,
  "检查报告": 12,
  "总监": 12,
  "4km": 12,
  "579": 12,
  "塌落": 12,
  "凿@@": 12,
  "铝型材": 12,
  "值应": 12,
  "最高点": 12,
  "泽@@": 12,
  "三维": 12,
  "换句话说": 12,
  "团结": 12,
  "内嵌": 12,
  "落水": 12,
  "R3": 12,
  "C20": 12,
  "CRI": 12,
  "龙@@": 12,
  "几": 12,
  "故障率": 12,
  "PER": 12,
  "本质": 12,
  "钉": 12,
  "专业@@": 12,
  "云": 12,
  "消防系统": 12,
  "砾@@": 12,
  "LL": 12,
  "布拉柴维尔": 12,
  "审计报告": 12,
  "发展局": 12,
  "不佳": 12,
  "圈@@": 12,
  "一段时间": 12,
  "受害者": 12,
  "CCP": 12,
  "患@@": 12,
  "挠曲": 12,
  "热电": 12,
  "Si@@": 12,
  "空间@@": 12,
  "右旋": 12,
  "FA": 12,
  "连贯": 12,
  "富液": 12,
  "Balandougou": 12,
  "CCECC": 12,
  "蒸发量": 12,
  "放松": 12,
  "后代": 12,
  "掘@@": 12,
  "氟@@": 12,
  "织@@": 12,
  "P6": 12,
  "飞": 12,
  "Bl@@": 12,
  "学科": 12,
  "转角": 12,
  "保费": 12,
  "1.0@@": 12,
  "驳回": 12,
  "军事": 12,
  "图解": 12,
  "BD": 12,
  "香烟": 12,
  "厂商": 12,
  "铸@@": 12,
  "斯法克斯": 12,
  "阔": 12,
  "疏通": 12,
  "15KV": 12,
  "稀有": 12,
  "岩棉": 12,
  "陆上": 12,
  "SHAEMS": 12,
  "天津": 12,
  "辩": 12,
  "39.2": 12,
  "熔断器": 12,
  "出料": 12,
  "标尺": 12,
  "时会": 12,
  "许": 12,
  "引流": 12,
  "腿": 12,
  "让蒂尔港": 12,
  "暖": 12,
  "抓斗": 12,
  "营养@@": 12,
  "锅炉房": 12,
  "‰": 12,
  "久@@": 12,
  "宣@@": 12,
  "立体图": 12,
  "非常@@": 12,
  "混合器": 12,
  "实质": 12,
  "lodit": 12,
  "弹性模量": 12,
  "兼并": 12,
  "西南@@": 12,
  "US@@": 12,
  "以西": 12,
  "平米": 12,
  "利亚": 12,
  "埋藏": 12,
  "潮流": 12,
  "............": 12,
  "安全法": 12,
  "根部": 12,
  "日止": 12,
  "螺旋@@": 12,
  "国库": 12,
  "耳": 12,
  "英尺": 12,
  "后文": 12,
  "鲜@@": 12,
  "山脊": 12,
  "电力工程": 12,
  "装机": 12,
  "OA@@": 12,
  "滑行": 12,
  "1959": 12,
  "PVLIN2": 12,
  "玩@@": 12,
  "刚果共和国": 12,
  "网状": 12,
  "项目@@": 12,
  "多数": 12,
  "齐平": 12,
  "经验丰富": 12,
  "职业病": 12,
  "多边": 12,
  "187": 12,
  "迄今为止": 12,
  "0.12": 12,
  "口罩": 12,
  "灌@@": 12,
  "1002": 12,
  "酯": 12,
  "贮@@": 12,
  "CV@@": 12,
  "4P": 12,
  "保温材料": 12,
  "Pr@@": 12,
  "包面": 12,
  "手工业": 12,
  "拾@@": 12,
  "总管": 12,
  "由本": 12,
  "介@@": 12,
  "＋": 12,
  "H61": 12,
  "击@@": 12,
  "描@@": 12,
  "有害物质": 12,
  "焚@@": 12,
  "1800": 12,
  "GM@@": 12,
  "染@@": 12,
  "科罗": 12,
  "最早": 12,
  "st": 12,
  "0.08": 12,
  "腹泻": 12,
  "司": 12,
  "中列明": 12,
  "作废": 12,
  "omb@@": 12,
  "峰": 12,
  "线上": 12,
  "员@@": 12,
  "凡": 12,
  "受到限制": 12,
  "总需求": 12,
  "查明": 12,
  "木头": 12,
  "活期": 12,
  "ed@@": 12,
  "宫": 12,
  "器件": 12,
  "主人": 12,
  "署长": 12,
  "农业区": 12,
  "投资@@": 12,
  "EV": 12,
  "锚栓": 12,
  "示意": 12,
  "UMAC": 12,
  "水泥板": 12,
  "说@@": 12,
  "碳水化合物": 12,
  "每张": 12,
  "不定期": 12,
  "登记号": 12,
  "Loulouni": 12,
  "D2": 12,
  "多条": 12,
  "3.50": 12,
  "家庭成员": 12,
  "最低温度": 12,
  ".00": 12,
  "杂货": 12,
  "天桥": 12,
  "第一条": 12,
  "施救": 12,
  "脚部": 12,
  "层系": 12,
  "整排": 12,
  "大海": 12,
  "20x9cm": 12,
  "专家组": 12,
  "母": 12,
  "MET": 12,
  "隧洞": 12,
  "PRV": 12,
  "电弧": 12,
  "流经": 12,
  "18.1": 12,
  "撑@@": 12,
  "25.1": 12,
  "ELS": 12,
  "Sandar": 12,
  "CMSI": 12,
  "UV": 12,
  "9.7": 12,
  "火花": 12,
  "变频": 12,
  "程@@": 12,
  "含水": 12,
  "专区": 12,
  "筑@@": 12,
  "风压": 12,
  "建筑构造": 12,
  "尊@@": 12,
  "后退": 12,
  "380V": 12,
  "单数": 12,
  "扇@@": 12,
  "预算表": 12,
  "力量": 12,
  "鼻@@": 12,
  "GCT": 12,
  "除尘器": 12,
  "摩擦角": 12,
  "ance": 12,
  "生产成本": 12,
  "锚杆": 12,
  "橱柜": 12,
  "同期": 12,
  "长方形": 12,
  "浆@@": 12,
  "钥": 12,
  "Se@@": 12,
  "同心": 12,
  "一人": 12,
  "垂直面": 12,
  "电导率": 12,
  "武@@": 12,
  "max": 12,
  "出口商": 12,
  "前应": 12,
  "FERLO": 12,
  "充分考虑": 12,
  "维度": 12,
  "绞丝": 12,
  "天龄": 12,
  "头枕": 12,
  "模态": 12,
  "烘@@": 12,
  "EST": 12,
  "户@@": 12,
  "尾水渠": 12,
  "重整": 12,
  "li@@": 12,
  "自定义": 12,
  "质化": 12,
  "适用范围": 12,
  "标中": 12,
  "驳船": 12,
  "最低@@": 12,
  "履行职责": 12,
  "伴有": 12,
  "波纹": 12,
  "狩猎": 12,
  "BPS": 12,
  "Kh@@": 12,
  "隔热层": 12,
  "ALI@@": 12,
  "履@@": 12,
  "植物检疫": 12,
  "跨境": 12,
  "口井": 12,
  "PREFERLO": 12,
  "磁铁矿": 12,
  "从业": 12,
  "CMT@@": 12,
  "通风管道": 12,
  "刷洗": 12,
  "下令": 12,
  "新兴": 12,
  "0.01": 12,
  "幼@@": 12,
  "TRC": 12,
  "SG": 12,
  "得知": 12,
  "辖区": 12,
  "联邦": 12,
  "边上": 12,
  "究": 12,
  "本土": 12,
  "酒精": 12,
  "塌陷": 12,
  "弱电": 12,
  "振捣器": 12,
  "00m": 12,
  "QU@@": 12,
  "卢加": 12,
  "判处": 12,
  "PRO@@": 12,
  "El": 12,
  "Louga": 12,
  "插入式": 12,
  "135": 12,
  "细木工": 11,
  "Bel@@": 11,
  "裂变": 11,
  "护照": 11,
  "砂土": 11,
  "炎热": 11,
  "oro": 11,
  "10.6": 11,
  "倒塌": 11,
  "195": 11,
  "0.85": 11,
  "常设": 11,
  "稿": 11,
  "相互连接": 11,
  "ach@@": 11,
  "抗扰性": 11,
  "储水": 11,
  "225KV": 11,
  "158": 11,
  "应向": 11,
  "LCTP": 11,
  "筛子": 11,
  "过热": 11,
  "心脏@@": 11,
  "BOU@@": 11,
  "扎@@": 11,
  "跟随": 11,
  "遵@@": 11,
  "案@@": 11,
  "商业活动": 11,
  "皇家": 11,
  "仅能": 11,
  "市区": 11,
  "记账": 11,
  "布满": 11,
  "林业": 11,
  "挂锁": 11,
  "209": 11,
  "找平": 11,
  "夜": 11,
  "年来": 11,
  "炼厂": 11,
  "微小": 11,
  "片岩": 11,
  "对系统": 11,
  "守": 11,
  "长距离": 11,
  "1km": 11,
  "过渡@@": 11,
  "ant@@": 11,
  "ey@@": 11,
  "HP": 11,
  "雪@@": 11,
  "dBA": 11,
  "表达@@": 11,
  "可选项": 11,
  "土石": 11,
  "拒@@": 11,
  "Imfout": 11,
  "悬浮物": 11,
  "驱烟": 11,
  "剪@@": 11,
  "围": 11,
  "出境": 11,
  "切割@@": 11,
  "技术培训": 11,
  "ALDES": 11,
  "窄": 11,
  "船上": 11,
  "小梁": 11,
  "Kw": 11,
  "黑角": 11,
  "kw": 11,
  "为本": 11,
  "班组": 11,
  "0KRS@@": 11,
  "最远": 11,
  "时隙": 11,
  "字形": 11,
  "采访": 11,
  "毡": 11,
  "胶合剂": 11,
  "起源": 11,
  "6.9": 11,
  "接头处": 11,
  "坎@@": 11,
  "长为": 11,
  "访客": 11,
  "手持": 11,
  "工作温度": 11,
  "平均气温": 11,
  "偏心": 11,
  "B500@@": 11,
  "温差": 11,
  "Ber@@": 11,
  "线图": 11,
  "板式": 11,
  "Q400": 11,
  "管接头": 11,
  "命": 11,
  "缺": 11,
  "中学": 11,
  "10.0": 11,
  "成因": 11,
  "百分@@": 11,
  "估计值": 11,
  "分析仪": 11,
  "振动器": 11,
  "减损": 11,
  "两位": 11,
  "准备@@": 11,
  "第一步": 11,
  "教堂": 11,
  "时起": 11,
  "消费量": 11,
  "ran@@": 11,
  "多样": 11,
  "压板": 11,
  "决策者": 11,
  "25cm": 11,
  "矮@@": 11,
  "紫色": 11,
  "动脉": 11,
  "汇流": 11,
  "锚泊": 11,
  "收线": 11,
  "执行程序": 11,
  "各个方面": 11,
  "优先选择": 11,
  "婚姻": 11,
  "里程碑": 11,
  "无形资产": 11,
  "套期": 11,
  "14.00": 11,
  "06@@": 11,
  "窝": 11,
  "局限性": 11,
  "口腔": 11,
  "8.6": 11,
  "矿物油": 11,
  "中心@@": 11,
  "选厂": 11,
  "1958": 11,
  "售出": 11,
  "第七": 11,
  "气孔": 11,
  "___________": 11,
  "BAEL": 11,
  "驱@@": 11,
  "车速": 11,
  "重装": 11,
  "196": 11,
  "电解@@": 11,
  "摩托车": 11,
  "周边地区": 11,
  "94@@": 11,
  "所处": 11,
  "辆车": 11,
  "理学": 11,
  "油性": 11,
  "SO2": 11,
  "x10": 11,
  "V1": 11,
  "性传播": 11,
  "世": 11,
  "畅": 11,
  "电柜": 11,
  "加价": 11,
  "税前": 11,
  "依法": 11,
  "提单": 11,
  "切割机": 11,
  "言@@": 11,
  "BN@@": 11,
  "尼日尔共和国": 11,
  "民": 11,
  "IA@@": 11,
  "F2": 11,
  "强迫": 11,
  "配电装置": 11,
  "STD": 11,
  "本地化": 11,
  "扁@@": 11,
  "XA1": 11,
  "XS2": 11,
  "毫@@": 11,
  "涌@@": 11,
  "512": 11,
  "必要条件": 11,
  "空压机": 11,
  "机密": 11,
  "修缮": 11,
  "亮度": 11,
  "艺术@@": 11,
  "诚挚": 11,
  "上述情况": 11,
  "疗法": 11,
  "PV@@": 11,
  "谱@@": 11,
  "网络设备": 11,
  "硅酸盐": 11,
  "操作手册": 11,
  "该笔": 11,
  "史": 11,
  "1955": 11,
  "四极": 11,
  "拆毁": 11,
  "大写字母": 11,
  "之处": 11,
  "官报": 11,
  "ins@@": 11,
  "踢脚线": 11,
  "缸": 11,
  "杀虫剂": 11,
  "设计方案": 11,
  "陆域": 11,
  "30000": 11,
  "SEEG": 11,
  "河口": 11,
  "薪资": 11,
  "凝": 11,
  "节能@@": 11,
  "收获": 11,
  "营业执照": 11,
  "包层": 11,
  "循环泵": 11,
  "192": 11,
  "事前": 11,
  "定居": 11,
  "甲": 11,
  "票务": 11,
  "40m": 11,
  "模型试验": 11,
  "118": 11,
  "泥质": 11,
  "罩面": 11,
  "经济性": 11,
  "35%": 11,
  "退款": 11,
  "第五章": 11,
  "赛肤润": 11,
  "工作进展": 11,
  "丝网": 11,
  "途": 11,
  "需对": 11,
  "聚合物": 11,
  "重启": 11,
  "失灵": 11,
  "结核": 11,
  "VIII": 11,
  "递减": 11,
  "吊": 11,
  "吸盘": 11,
  "第一级": 11,
  "柜内": 11,
  "rad@@": 11,
  "信用": 11,
  "转轮": 11,
  "发作": 11,
  "登@@": 11,
  "NGG": 11,
  "无误": 11,
  "枢纽": 11,
  "旅@@": 11,
  "一致同意": 11,
  "野@@": 11,
  "读@@": 11,
  "eau": 11,
  "继@@": 11,
  "end@@": 11,
  "调解员": 11,
  "悬垂": 11,
  "矿井": 11,
  "阳性": 11,
  "200m": 11,
  "破": 11,
  "颈": 11,
  "缆绳": 11,
  "近海": 11,
  "设备设计": 11,
  "3C": 11,
  "掺@@": 11,
  "论述": 11,
  "金旺": 11,
  "堂": 11,
  "分接": 11,
  "副产品": 11,
  "ISE": 11,
  "os@@": 11,
  "________": 11,
  "1104JS": 11,
  "孔雀石": 11,
  "EU": 11,
  "值得注意": 11,
  "国立": 11,
  "220kV": 11,
  "赤@@": 11,
  "方解石": 11,
  "迫": 11,
  "勾@@": 11,
  "有益": 11,
  "乐": 11,
  "含税": 11,
  "金属丝": 11,
  "细沙": 11,
  "UOX": 11,
  "规定值": 11,
  "群系": 11,
  "使用率": 11,
  "小麦": 11,
  "变送器": 11,
  "3P": 11,
  "浮标": 11,
  "化疗": 11,
  "1103JA": 11,
  "拐@@": 11,
  "有无": 11,
  "悬架": 11,
  "总体而言": 11,
  "15.00": 11,
  "摧毁": 11,
  "摆动": 11,
  "结转": 11,
  "ink@@": 11,
  "国土": 11,
  "极性": 11,
  "铜板": 11,
  "承担风险": 11,
  "理性": 11,
  "KA": 11,
  "击穿": 11,
  "ville": 11,
  "Pl@@": 11,
  "触": 11,
  "endj@@": 11,
  "伙伴": 11,
  "一时期": 11,
  "每侧": 11,
  "通用@@": 11,
  "许@@": 11,
  "字体": 11,
  "新纪": 11,
  "下滑": 11,
  "08@@": 11,
  "CNEPEGT0@@": 11,
  "昂": 11,
  "沉": 11,
  "催@@": 11,
  "亡": 11,
  "等待时间": 11,
  "外层": 11,
  "联运": 11,
  "oo": 11,
  "降低@@": 11,
  "不可或缺": 11,
  "照射": 11,
  "这么": 11,
  "锻@@": 11,
  "运往": 11,
  "慈@@": 11,
  "门锁": 11,
  "za": 11,
  "螺帽": 11,
  "容忍": 11,
  "桑托阶": 11,
  "雕刻": 11,
  "ite": 11,
  "拥@@": 11,
  "熟@@": 11,
  "诲": 11,
  "磁粉": 11,
  "阅": 11,
  "VAC": 11,
  "PAS": 11,
  "叶雷亚": 11,
  "部级": 11,
  "剂@@": 11,
  "客户@@": 11,
  "内所": 11,
  "出口@@": 11,
  "轧@@": 11,
  "Gu@@": 11,
  "侧翼": 11,
  "um@@": 11,
  "所知": 11,
  "Av@@": 11,
  "TRI": 11,
  "有序": 11,
  "水路": 11,
  "电信@@": 11,
  "捕": 11,
  "浸水": 11,
  "露": 11,
  "无色": 11,
  "发展@@": 11,
  "东北方向": 11,
  "注资": 11,
  "居住地": 11,
  "拱顶": 11,
  "7000": 11,
  "Z3": 11,
  "浸式": 11,
  "双线": 11,
  "受伤": 11,
  "选矿厂": 11,
  "公用事业": 11,
  "段@@": 11,
  "年初": 11,
  "奖": 11,
  "十五@@": 11,
  "转油": 11,
  "本金": 11,
  "层中": 11,
  "．": 11,
  "天门冬": 11,
  "乙酰": 11,
  "‘": 11,
  "订": 11,
  "南北": 11,
  "SY@@": 11,
  "节假日": 11,
  "防洪": 11,
  "503": 11,
  "139": 11,
  "九月": 11,
  "520": 11,
  "GEC": 11,
  "需用": 11,
  "欢迎": 11,
  "置换": 11,
  "吸水": 11,
  "不同于": 11,
  "用到": 11,
  "换算": 11,
  "32.1": 11,
  "302": 11,
  "腰线": 11,
  "爆": 11,
  "______________": 11,
  "帽@@": 11,
  "线塔": 11,
  "612@@": 11,
  "逆流": 11,
  "绿泥石": 11,
  "医疗@@": 11,
  "损@@": 11,
  "兼": 11,
  "学术": 11,
  "除以": 11,
  "80cm": 11,
  "牧业": 11,
  "详@@": 11,
  "交通流量": 11,
  "非常低": 11,
  "该区": 11,
  "180@@": 11,
  "缩": 11,
  "out@@": 11,
  "栅网": 11,
  "境@@": 11,
  "刨@@": 11,
  "NB": 11,
  "绞车": 11,
  "国际电工委员会": 11,
  "两处": 11,
  "序@@": 11,
  "污染@@": 11,
  "78@@": 11,
  "防水工程": 11,
  "283": 11,
  "ef@@": 11,
  "高握": 11,
  "ga@@": 11,
  "开凿": 11,
  "um": 11,
  "擅自": 11,
  "如需": 11,
  "片理": 11,
  "2.13": 11,
  "7.5%": 11,
  "KGLAV.@@": 11,
  "慢速": 11,
  "yn@@": 11,
  "日照": 11,
  "应答器": 11,
  "港@@": 11,
  "遇@@": 11,
  "云@@": 11,
  "EG@@": 11,
  "蒙@@": 11,
  "上下文": 11,
  "真菌": 11,
  "合成树脂": 11,
  "楔@@": 11,
  "叉@@": 11,
  "21.2": 11,
  "26.1": 11,
  "MOD": 11,
  "勘@@": 11,
  "跃": 11,
  "滑行道": 11,
  "分之一": 11,
  "6A": 11,
  "高水平": 11,
  "SB@@": 11,
  "届": 11,
  "互补": 11,
  "控制程序": 11,
  "内燃机": 11,
  "体验": 11,
  "悬空": 11,
  "cc": 11,
  "1250": 11,
  "商业发票": 11,
  "透层": 11,
  "繁@@": 11,
  "出生日期": 11,
  "女": 11,
  "第九@@": 11,
  "电缆头": 11,
  "总公司": 11,
  "技师": 11,
  "6.0": 11,
  "PRE@@": 11,
  "钉@@": 11,
  "略微": 11,
  "拿": 11,
  "服务水平": 11,
  "斯伐": 11,
  "拱墩": 11,
  "零星": 11,
  "民族": 11,
  "SU@@": 11,
  "序列号": 11,
  "1966": 11,
  "本函": 11,
  "UIC": 11,
  "销毁": 11,
  "遥@@": 11,
  "智@@": 11,
  "比尼": 11,
  "VLAN": 11,
  "潜水": 11,
  "自主权": 11,
  "休眠": 11,
  "恶@@": 11,
  "气象条件": 11,
  "Sd@@": 11,
  "极化": 11,
  "经济委员会": 11,
  "MAX": 11,
  "诉@@": 11,
  "0.02": 11,
  "3G": 11,
  "410": 11,
  "丈量": 11,
  "她们": 11,
  "Th": 11,
  "Bag@@": 11,
  "血液": 11,
  "枪": 11,
  "摩擦系数": 11,
  "线型": 11,
  "阀值": 11,
  "制造业": 11,
  "NFB": 11,
  "加密": 11,
  "颗粒状": 11,
  "耦": 11,
  "每十年": 11,
  "erv@@": 11,
  "泥岩": 11,
  "起居室": 11,
  "墨水": 11,
  "艇": 11,
  "1100": 11,
  "降至": 11,
  "价项": 11,
  "C25": 11,
  "串通": 11,
  "芯线": 11,
  "伍@@": 11,
  "安全帽": 11,
  "关键性": 11,
  "厂用": 11,
  "绞": 11,
  "推定": 11,
  "订户": 11,
  "TRA": 11,
  "CDC@@": 11,
  "P5": 11,
  "靴": 11,
  "挖出": 11,
  "拔@@": 11,
  "Ag@@": 11,
  "铝门窗": 11,
  "DQE": 11,
  "CIFRE": 11,
  "气流": 11,
  "46@@": 11,
  "游泳池": 11,
  "重新启动": 11,
  "种植园": 11,
  "旋": 11,
  "建设者": 11,
  "发热": 11,
  "ul@@": 11,
  "新股": 11,
  "电池组": 11,
  "400x@@": 11,
  "折射": 11,
  "石堆": 11,
  "灰烬": 11,
  "科研@@": 11,
  "STE": 11,
  "群落": 11,
  "控制措施": 11,
  "离心": 11,
  "密封垫": 11,
  "复工": 11,
  "历史记录": 11,
  "批量": 11,
  "SSI": 11,
  "角板": 11,
  "花瓶": 11,
  "正方形": 11,
  "坦": 11,
  "核岛": 11,
  "倾": 11,
  "此项工作": 11,
  "331": 11,
  "钢筋混凝": 11,
  "土墙": 11,
  "2035": 11,
  "申明": 11,
  "920": 11,
  "000FCFA": 11,
  "儿@@": 11,
  "水坑": 11,
  "Interim": 11,
  "平衡杆": 11,
  "小节": 11,
  "Gb": 11,
  "淘汰": 11,
  "地理坐标": 11,
  "177": 11,
  "叠加": 11,
  "六角": 11,
  "男女": 11,
  "480": 11,
  "接纳": 11,
  "mmHg": 11,
  "苗@@": 11,
  "生态环境": 11,
  "烤炉": 11,
  "前排": 11,
  "ASME": 11,
  "忠@@": 11,
  "片@@": 11,
  "冻@@": 11,
  "做成": 11,
  "MT@@": 11,
  "机台": 11,
  "Lu@@": 11,
  "待机": 11,
  "杠": 11,
  "而来": 11,
  "增压泵": 11,
  "来到": 11,
  "坏": 11,
  "后遗症": 11,
  "悬崖": 11,
  "合乎": 11,
  "1550nm": 11,
  "本节": 11,
  "酮": 11,
  "挡泥板": 11,
  "AO": 11,
  "西侧": 11,
  "争@@": 11,
  "丘陵": 11,
  "人权": 11,
  "GEO": 11,
  "233": 11,
  "四舍五入": 11,
  "os": 11,
  "定位系统": 11,
  "条目": 11,
  "粒状": 11,
  "麻": 11,
  "禁用": 11,
  "........@@": 11,
  "停滞": 11,
  "确": 11,
  "防水@@": 11,
  "延展": 11,
  "镶@@": 11,
  "知@@": 11,
  "夜晚": 11,
  "民事@@": 11,
  "机动车": 11,
  "队@@": 11,
  "单扇": 11,
  "调配": 11,
  "首要": 11,
  "踏步": 11,
  "月末": 11,
  "外装": 11,
  "技@@": 11,
  "II.@@": 11,
  "峰@@": 11,
  "景": 11,
  "代理@@": 11,
  "SEE": 11,
  "硫酸钙": 11,
  "生产量": 11,
  "既@@": 11,
  "医药": 11,
  "同轴": 11,
  "PADSEM": 11,
  "通讯@@": 11,
  "冷却@@": 11,
  "14%": 11,
  "红外线": 11,
  "面值": 11,
  "微白": 11,
  "环绕": 11,
  "勃艮第": 11,
  "葡萄园": 11,
  "倾角": 11,
  "试压": 11,
  "we": 11,
  "商业登记": 11,
  "火警": 11,
  "中轴": 11,
  "显得": 11,
  "散布": 11,
  "村镇": 11,
  "倍数": 11,
  "埃夫里": 11,
  "红利": 11,
  "五彩": 11,
  "度为": 11,
  "作业@@": 11,
  "向前": 11,
  "村@@": 11,
  "食@@": 11,
  "TCo": 11,
  "青年": 11,
  "管制": 11,
  "健@@": 11,
  "一式两份": 11,
  "今": 11,
  "韩国": 11,
  "自卸": 11,
  "土石方": 11,
  "愿": 11,
  "021": 11,
  "VRD": 11,
  "25.2": 11,
  "加湿": 11,
  "脚下": 11,
  "另一端": 11,
  "回避": 11,
  "活动@@": 11,
  "工具@@": 11,
  "氏": 11,
  "财务报告": 11,
  "1000m": 11,
  "li": 11,
  "翼墙": 11,
  "合同价": 11,
  "工业生产": 11,
  "净重": 11,
  "Kwatebala": 11,
  "枯水期": 11,
  "ET@@": 10,
  "工匠": 10,
  "BUS": 10,
  "前款": 10,
  "RN1": 10,
  "NC": 10,
  "至今": 10,
  "采取相应": 10,
  "保障@@": 10,
  "请勿": 10,
  "油槽": 10,
  "津德尔": 10,
  "火山灰": 10,
  "并列": 10,
  "N360": 10,
  "看法": 10,
  "格子": 10,
  "每座": 10,
  "毛里塔尼亚伊斯兰共和国": 10,
  "感应@@": 10,
  "益": 10,
  "创造力": 10,
  "TELEMAC": 10,
  "带状": 10,
  "柜中": 10,
  "电磁场": 10,
  "MOA": 10,
  "11.4": 10,
  "贴现率": 10,
  "穿戴": 10,
  "ID": 10,
  "热液": 10,
  "韦索": 10,
  "室温": 10,
  "增压器": 10,
  "IP55": 10,
  "夯": 10,
  "渔获量": 10,
  "62271": 10,
  "母亲": 10,
  "42.1": 10,
  "GS": 10,
  "海滨": 10,
  "赔偿@@": 10,
  "9.00": 10,
  "柜子": 10,
  "粗砂": 10,
  "PAR": 10,
  "防污": 10,
  "小道": 10,
  "部委": 10,
  "岗": 10,
  "连接区": 10,
  "巧克力": 10,
  "OZGUN": 10,
  "电力行业": 10,
  "NEP": 10,
  "圆圈": 10,
  "金融业务": 10,
  "板门": 10,
  "跨线": 10,
  "井中": 10,
  "S355": 10,
  "放大器": 10,
  "751": 10,
  "out": 10,
  "IMD": 10,
  "上用": 10,
  "善@@": 10,
  "牢固地": 10,
  "________________________________@@": 10,
  "抄报": 10,
  "墓地": 10,
  "pt@@": 10,
  "现阶段": 10,
  "推行": 10,
  "水泥@@": 10,
  "消防设备": 10,
  "市场份额": 10,
  "EQ": 10,
  "条纹": 10,
  "空心砖": 10,
  "不太": 10,
  "热收缩": 10,
  "瓦尔": 10,
  "氯@@": 10,
  "矿渣": 10,
  "恒@@": 10,
  "百万@@": 10,
  "责令": 10,
  "密集型": 10,
  "闪电": 10,
  "LAB@@": 10,
  "商在": 10,
  "ind@@": 10,
  "SM": 10,
  "物业": 10,
  "最差": 10,
  "静电": 10,
  "退休金": 10,
  "逃避": 10,
  "59.1": 10,
  "菜单": 10,
  "制图": 10,
  "29.@@": 10,
  "50lm": 10,
  "RL": 10,
  "拆": 10,
  "建筑设计": 10,
  "生物物理": 10,
  "数字模型": 10,
  "HM": 10,
  "对讲机": 10,
  "培@@": 10,
  "攀爬": 10,
  "持股": 10,
  "层压": 10,
  "0000@@": 10,
  "会费": 10,
  "另行": 10,
  "桩子": 10,
  "铝材": 10,
  "成就": 10,
  "11%": 10,
  "P19": 10,
  "下应": 10,
  "138@@": 10,
  "杆件": 10,
  "2.15": 10,
  "笔记": 10,
  "待遇": 10,
  "EXE": 10,
  "REX": 10,
  "弧形": 10,
  "永华": 10,
  "报道": 10,
  "Kadiolo": 10,
  "块状": 10,
  "瑞典": 10,
  "720": 10,
  "纯净": 10,
  "稽核": 10,
  "顺时针": 10,
  "临@@": 10,
  "泥水": 10,
  "平屋顶": 10,
  "分界": 10,
  "精": 10,
  "RH": 10,
  "tr": 10,
  "Ù": 10,
  "清晰@@": 10,
  "坏@@": 10,
  "24.1": 10,
  "1963": 10,
  "件@@": 10,
  "ongo": 10,
  "牌子": 10,
  "细目": 10,
  "单纯": 10,
  "可信": 10,
  "金属材料": 10,
  "R02V": 10,
  "门机": 10,
  "复合材料": 10,
  "痤疮": 10,
  "木薯": 10,
  "堵": 10,
  "Rc": 10,
  "99.@@": 10,
  "族@@": 10,
  "33.1": 10,
  "................................................................................................@@": 10,
  "eur": 10,
  "辛@@": 10,
  "例外情况": 10,
  "课@@": 10,
  "质地": 10,
  "挡雨板": 10,
  "轮廓线": 10,
  "游戏": 10,
  "间隔时间": 10,
  "查验": 10,
  "净利润": 10,
  "镜@@": 10,
  "传动装置": 10,
  "充分利用": 10,
  "牢": 10,
  "海侧": 10,
  "常设机构": 10,
  "复印": 10,
  "泵机": 10,
  "密切@@": 10,
  "附加文件": 10,
  "现金流": 10,
  "医": 10,
  "950": 10,
  "卢森堡": 10,
  "开路": 10,
  "IP65": 10,
  "VC": 10,
  "洗手间": 10,
  "格尔": 10,
  "衣物": 10,
  "早上": 10,
  "年产量": 10,
  "HAB01": 10,
  "DMFV": 10,
  "TNT": 10,
  "截止日": 10,
  "提帕萨省": 10,
  "高层": 10,
  "力器": 10,
  "8cm": 10,
  "敏": 10,
  "大桥": 10,
  "带式": 10,
  "坑井": 10,
  "一件": 10,
  "而言之": 10,
  "测量员": 10,
  "檐沟": 10,
  "23%": 10,
  "电话号码": 10,
  "收发器": 10,
  "法兰@@": 10,
  "发生意外": 10,
  "划痕": 10,
  "叫": 10,
  "行车道": 10,
  "T4": 10,
  "11801": 10,
  "数据处理": 10,
  "强有力": 10,
  "60383": 10,
  "沟状": 10,
  "大气污染": 10,
  "239": 10,
  "志": 10,
  "存疑": 10,
  "总价值": 10,
  "极低": 10,
  "地质年代": 10,
  "河段": 10,
  "PARVIS": 10,
  "二零一": 10,
  "319": 10,
  "碰": 10,
  "Ar": 10,
  "资本化": 10,
  "遇": 10,
  "复审": 10,
  "阿克茹": 10,
  "五十@@": 10,
  "5mm2": 10,
  "滚装船": 10,
  "ass@@": 10,
  "耗电": 10,
  "地域": 10,
  "承包合同": 10,
  "封闭式": 10,
  "1962": 10,
  "XI": 10,
  "气候@@": 10,
  "FNR": 10,
  "脏@@": 10,
  "九十": 10,
  "109": 10,
  "ian": 10,
  "标准值": 10,
  "处理器": 10,
  "上来": 10,
  "喷丸": 10,
  "爱": 10,
  "泻湖": 10,
  "交通部": 10,
  "截取": 10,
  "无限": 10,
  "空调设备": 10,
  "裸铜": 10,
  "摊@@": 10,
  "水力发电站": 10,
  "黏性": 10,
  "42.5": 10,
  "................................@@": 10,
  "SDP": 10,
  "逐个": 10,
  "高清": 10,
  "Par@@": 10,
  "SW@@": 10,
  "供水量": 10,
  "测量@@": 10,
  "宜": 10,
  "32.2": 10,
  "变化@@": 10,
  "锰矿": 10,
  "ort": 10,
  "优惠政策": 10,
  "晒黑": 10,
  "涂鸦": 10,
  "km@@": 10,
  "极值": 10,
  "99@@": 10,
  "L.225": 10,
  "立场": 10,
  "冲蚀": 10,
  "经典": 10,
  "一代": 10,
  "阵@@": 10,
  "予以考虑": 10,
  "氧化铁": 10,
  "O2": 10,
  "60076": 10,
  "量级": 10,
  "答案": 10,
  "衣服": 10,
  "TCu": 10,
  "人口密度": 10,
  "生活@@": 10,
  "第三次": 10,
  "ASCu": 10,
  "多媒体": 10,
  "EPDM": 10,
  "支撑@@": 10,
  "接点": 10,
  "聚光灯": 10,
  "208": 10,
  "米色": 10,
  "劣化": 10,
  "水罐": 10,
  "囊": 10,
  "齐@@": 10,
  "慢@@": 10,
  "UEMOA": 10,
  "欠@@": 10,
  "目@@": 10,
  "佳": 10,
  "钟": 10,
  "149": 10,
  "供参考": 10,
  "缩回": 10,
  "半成品": 10,
  "无功": 10,
  "统@@": 10,
  "封闭@@": 10,
  "贷方": 10,
  "蓝": 10,
  "▪": 10,
  "销售额": 10,
  "寄生": 10,
  "或应": 10,
  "候选者": 10,
  "卫生部": 10,
  "烧结": 10,
  "待处理": 10,
  "散热": 10,
  "KI@@": 10,
  "ㄤ": 10,
  "鐢": 10,
  "有线": 10,
  "elle": 10,
  "肆@@": 10,
  "客": 10,
  "IER": 10,
  "CAR@@": 10,
  "领取": 10,
  "宝@@": 10,
  "力求": 10,
  "之初": 10,
  "研究院": 10,
  "巴黎@@": 10,
  "击": 10,
  "SYMBIOZ": 10,
  "20.1": 10,
  "际": 10,
  "224": 10,
  "斑岩": 10,
  "一个@@": 10,
  "ONE": 10,
  "mm@@": 10,
  "熔岩": 10,
  "下线": 10,
  "芯片": 10,
  "赞同": 10,
  "平行六面": 10,
  "查封": 10,
  "We@@": 10,
  "一面": 10,
  "通气": 10,
  "1969": 10,
  "报纸": 10,
  "锋利": 10,
  "阿斯": 10,
  "移植": 10,
  "站立": 10,
  "水密": 10,
  "寸": 10,
  "地向": 10,
  "IC@@": 10,
  "豪@@": 10,
  "隔离@@": 10,
  "包体": 10,
  "x1": 10,
  "开槽": 10,
  "挖土": 10,
  "装箱单": 10,
  "西迪": 10,
  "晚期": 10,
  "kt": 10,
  "肩@@": 10,
  "度计": 10,
  "询": 10,
  "种群": 10,
  "平交道": 10,
  "钾@@": 10,
  "阻尼": 10,
  "灰岩": 10,
  "主干道": 10,
  "15mm": 10,
  "敏感度": 10,
  "共振": 10,
  "具@@": 10,
  "湿气": 10,
  "指在": 10,
  "人造": 10,
  "刺@@": 10,
  "压降": 10,
  "BEEEI": 10,
  "固体废物": 10,
  "WIFI": 10,
  "上漆": 10,
  "树枝": 10,
  "电杆": 10,
  "卖@@": 10,
  "熟知": 10,
  "模子": 10,
  "专利权": 10,
  "马桶": 10,
  "歇@@": 10,
  "销子": 10,
  "栓@@": 10,
  "历史数据": 10,
  "下才": 10,
  "随动": 10,
  "瀷": 10,
  "磷@@": 10,
  "一对": 10,
  "cl": 10,
  "34.1": 10,
  "拦挡": 10,
  "506": 10,
  "书面@@": 10,
  "通路": 10,
  "148": 10,
  "CMT": 10,
  "M0": 10,
  "闪": 10,
  "检验@@": 10,
  "幻灯片": 10,
  "晕": 10,
  "裂@@": 10,
  "DN600": 10,
  "增至": 10,
  "足球": 10,
  "乏": 10,
  "输水": 10,
  "机票": 10,
  "CCI": 10,
  "旋转@@": 10,
  "Aut@@": 10,
  "各地": 10,
  "乐观": 10,
  "计量器": 10,
  "王@@": 10,
  "内应": 10,
  "胎@@": 10,
  "FeE@@": 10,
  "反作用力": 10,
  "草坪": 10,
  "金属支架": 10,
  "复发": 10,
  "冲孔": 10,
  "本来": 10,
  "淤塞": 10,
  "大雨": 10,
  "观念": 10,
  "全长": 10,
  "UL@@": 10,
  "归咎于": 10,
  "积累": 10,
  "仔细检查": 10,
  "221": 10,
  "刀片": 10,
  "1951": 10,
  "有机玻璃": 10,
  "德拉": 10,
  "据此": 10,
  "鉴": 10,
  "歧管": 10,
  "涉@@": 10,
  "经营权": 10,
  "合资企业": 10,
  "南侧": 10,
  "浓@@": 10,
  "183": 10,
  "Bol": 10,
  "ann": 10,
  "申请材料": 10,
  "SV": 10,
  "搅@@": 10,
  "关键点": 10,
  "机盒": 10,
  "记得": 10,
  "冻": 10,
  "虹吸": 10,
  "二者": 10,
  "警示牌": 10,
  "自西": 10,
  "妇": 10,
  "风口": 10,
  "安装操作": 10,
  "实线": 10,
  "边饰": 10,
  "54.6": 10,
  "避@@": 10,
  "价格上涨": 10,
  "向东": 10,
  "或用": 10,
  "Ö": 10,
  "中所列": 10,
  "用表": 10,
  "乡@@": 10,
  "炼": 10,
  "雾化": 10,
  "局域网": 10,
  "运输费": 10,
  "视线": 10,
  "家禽": 10,
  "TG@@": 10,
  "618@@": 10,
  "带薪休假": 10,
  "较弱": 10,
  "犯有": 10,
  "相间": 10,
  "开通": 10,
  "管理程序": 10,
  "讲@@": 10,
  "110%": 10,
  "KGLAV.62@@": 10,
  "很长": 10,
  "一个点": 10,
  "带宽": 10,
  "向西": 10,
  "其实": 10,
  "单次": 10,
  "佛": 10,
  "本法": 10,
  "川铁": 10,
  "DN100": 10,
  "Mou@@": 10,
  "凯": 10,
  "品牌效应": 10,
  "APA": 10,
  "隔热材料": 10,
  ".000": 10,
  "900@@": 10,
  "标准文件": 10,
  "CACSBA": 10,
  "生水": 10,
  "硅石": 10,
  "橱窗": 10,
  "整流": 10,
  "硝酸盐": 10,
  "SF": 10,
  "不高": 10,
  "阐释": 10,
  "桑": 10,
  "基点": 10,
  "248": 10,
  "氨": 10,
  "12mm": 10,
  "东南部": 10,
  "外表": 10,
  "开端": 10,
  "两米": 10,
  "定位器": 10,
  "香": 10,
  "Ble": 10,
  "模糊": 10,
  "洁@@": 10,
  "滞留": 10,
  "流行病": 10,
  "办公楼": 10,
  "1.40": 10,
  "CPTP": 10,
  "son": 10,
  "贡@@": 10,
  "压缩性": 10,
  "点中": 10,
  "伴": 10,
  "目前为止": 10,
  "伦": 10,
  "标语": 10,
  "采取有效": 10,
  "1.11": 10,
  "政局": 10,
  "相互影响": 10,
  "蜂@@": 10,
  "运载": 10,
  "570": 10,
  "伏安": 10,
  "荧光灯": 10,
  "避开": 10,
  "制造厂": 10,
  "水平@@": 10,
  "世界卫生组织": 10,
  "西亚": 10,
  "洒@@": 10,
  "蚀@@": 10,
  "栽培": 10,
  "劳务": 10,
  "竭@@": 10,
  "our": 10,
  "多式": 10,
  "预备@@": 10,
  "C10": 10,
  "015": 10,
  "六份": 10,
  "当事方": 10,
  "对水": 10,
  "车辆通行": 10,
  "在上文": 10,
  "搜@@": 10,
  "511": 10,
  "五百": 10,
  "CG@@": 10,
  "nia": 10,
  "环境法": 10,
  "轴封": 10,
  "SOMIDEZ": 10,
  "Gol@@": 10,
  "绍@@": 10,
  "主控": 10,
  "126": 10,
  "XC4": 10,
  "运出": 10,
  "恒温": 10,
  "L.162": 10,
  "0.3@@": 10,
  "金融资产": 10,
  "岛状": 10,
  "耕种": 10,
  "海域": 10,
  "综合体": 10,
  "醇酸树脂": 10,
  "防雨": 10,
  "TH": 10,
  "化剂": 10,
  "文书": 10,
  "拔出": 10,
  "aya": 10,
  "To": 10,
  "玉米": 10,
  "寺": 10,
  "龙": 10,
  "承诺函": 10,
  "往来": 10,
  "燃烧@@": 10,
  "细心": 10,
  "历@@": 10,
  "轧": 10,
  "高速路": 10,
  "复滑车": 10,
  "谢@@": 10,
  "13%": 10,
  "被迫": 10,
  "Tp": 10,
  "挥发性": 10,
  "空洞": 10,
  "东经": 10,
  "1700": 10,
  "21.1": 10,
  "装满": 10,
  "绝缘油": 10,
  "桅杆": 10,
  "该站": 10,
  "必备": 10,
  "每家": 10,
  "ation": 10,
  "详细资料": 10,
  "监视系统": 10,
  "戴": 10,
  "系统故障": 10,
  "I.2": 10,
  "ts": 10,
  "竖向": 10,
  "交互": 10,
  "交通安全": 10,
  "碎料": 10,
  "宾": 10,
  "复兴": 10,
  "下陷": 10,
  "VII@@": 10,
  "除本": 10,
  "af@@": 10,
  "致密": 10,
  "金属环": 10,
  "阴影": 10,
  "片段": 10,
  "IH": 10,
  "前提条件": 10,
  "日益": 10,
  "安全鞋": 10,
  "腹板": 10,
  "机密性": 10,
  "巴哈": 10,
  "世行": 10,
  "ber@@": 10,
  "建筑面积": 10,
  "消火栓": 10,
  "凸缘": 10,
  "18.2": 10,
  "硫化铜": 10,
  "治@@": 10,
  "滥用": 10,
  "中轴线": 10,
  "波段": 10,
  "辨识": 10,
  "肋": 10,
  "地下资源": 10,
  "文案": 10,
  "广播": 10,
  "内有": 10,
  "广播@@": 10,
  "生产率": 10,
  "田地": 10,
  "ette": 10,
  "备有": 10,
  "闭": 10,
  "10025": 10,
  "撤场": 10,
  "以为": 10,
  "仿@@": 10,
  "拨款": 10,
  "内外部": 10,
  "槽内": 10,
  "流纹岩": 10,
  "假日": 10,
  "SYMBOL@@": 10,
  "内控": 10,
  "矿堆": 10,
  "夹杂": 10,
  "邮政": 10,
  "务@@": 10,
  "罪": 10,
  "墨西哥": 10,
  "270@@": 10,
  "途中": 10,
  "无线@@": 10,
  "氮氧化物": 10,
  "aw@@": 10,
  "膏": 10,
  "61000": 10,
  "建设期": 10,
  "Hl": 10,
  "铜价": 10,
  "磁极": 10,
  "补充协议": 10,
  "采购@@": 10,
  "当其": 10,
  "yd@@": 10,
  "毁": 10,
  "伊斯兰": 10,
  "经过培训": 10,
  "对角线": 10,
  "保留@@": 10,
  "182": 10,
  "ani": 10,
  "相信": 10,
  "254": 10,
  "刊登": 10,
  "拐角": 10,
  "BET": 10,
  "拖轮": 10,
  "个人所得税": 10,
  "抗力": 10,
  "惊@@": 10,
  "SMD": 10,
  "顺畅": 10,
  "预料": 10,
  "排干": 10,
  "606@@": 10,
  "旁@@": 10,
  "牌@@": 10,
  "挖坑": 10,
  "图例": 10,
  "重置": 10,
  "传染病": 10,
  "IK@@": 10,
  "温度@@": 10,
  "家用": 10,
  "步伐": 10,
  "变换": 10,
  "喜@@": 10,
  "大梁": 10,
  "过路费": 10,
  "这座": 10,
  "合力": 10,
  "宪章": 10,
  "松开": 10,
  "电磁阀": 10,
  "透露": 10,
  "模数": 10,
  "耐压": 10,
  "干性": 10,
  "法案": 10,
  "8.8": 10,
  "树林": 10,
  "鼻子": 10,
  "加鲁": 10,
  "公交": 10,
  "185": 10,
  "拌@@": 10,
  "滤水器": 10,
  "辩护": 10,
  "卫生法": 10,
  "040": 10,
  "滴": 10,
  "处有": 10,
  "地面@@": 10,
  "199@@": 10,
  "指导方针": 10,
  "创业者": 10,
  "方框": 10,
  "而应": 10,
  "05448@@": 10,
  "公证@@": 10,
  "抵抗力": 10,
  "出资人": 10,
  "抬高": 10,
  "束@@": 10,
  "多点": 10,
  "QR": 10,
  "掉@@": 10,
  "二进制": 10,
  "117@@": 10,
  "广告@@": 10,
  "战@@": 10,
  "斯特@@": 10,
  "沸@@": 10,
  "178": 10,
  "翻松": 10,
  "永@@": 10,
  "Ca@@": 10,
  "ign@@": 10,
  "胸@@": 10,
  "多重": 10,
  "晒": 10,
  "泡": 10,
  "说服力": 10,
  "穿墙": 10,
  "陈@@": 10,
  "反转": 10,
  "SPB": 10,
  "会话": 10,
  "加宽": 10,
  "行政法院": 10,
  "te": 10,
  "抹": 10,
  "曼": 10,
  "福": 10,
  "IP54": 10,
  "高血压": 10,
  "士": 10,
  "线槽": 10,
  "都市": 10,
  "iss@@": 10,
  "机和": 10,
  "坝顶": 10,
  "120x@@": 10,
  "炎症": 10,
  "惯性@@": 10,
  "PID": 10,
  "灌溉渠": 10,
  "上岸": 10,
  "重大@@": 10,
  "人文": 10,
  "警卫": 10,
  "车位": 10,
  "逆向": 10,
  "桌子": 10,
  "侧重于": 10,
  "法国巴黎": 10,
  "农耕": 10,
  "铸": 10,
  "仅为": 10,
  "勒克斯": 10,
  "提倡": 10,
  "椎@@": 10,
  "PMR": 10,
  "30KV": 10,
  "撒哈拉": 10,
  "08.@@": 10,
  "触摸": 10,
  "档位": 10,
  "太阳辐射": 10,
  "丹@@": 10,
  "一是": 10,
  "BR": 10,
  "专业培训": 10,
  "挠性": 10,
  "衰@@": 10,
  "Sa@@": 10,
  "N2": 10,
  "抹@@": 10,
  "草原": 10,
  "进行谈判": 10,
  "循环水": 10,
  "各为": 10,
  "扭转": 10,
  "咨询服务": 10,
  "潮位": 10,
  "保证@@": 10,
  "排至": 10,
  "Bu@@": 10,
  "受阻": 10,
  "X8": 10,
  "西堤": 10,
  "待建": 10,
  "232": 10,
  "发挥作用": 10,
  "32.5": 10,
  "gouv": 10,
  "RCCM": 10,
  "殖": 10,
  "Gh@@": 10,
  "掌": 10,
  "中上层": 10,
  "缓冲器": 10,
  "pi": 10,
  "曾经": 10,
  "扮演": 9,
  "焦耳": 9,
  "在此之后": 9,
  "此前": 9,
  "筹备": 9,
  "BN4": 9,
  "土壤层": 9,
  "一并": 9,
  "电场": 9,
  "172": 9,
  "CIF": 9,
  "沉积@@": 9,
  "工业园": 9,
  "多台": 9,
  "声频": 9,
  "13.3": 9,
  "建筑图": 9,
  "操作性": 9,
  "all": 9,
  "浊": 9,
  "BTP": 9,
  "教学@@": 9,
  "尤为重要": 9,
  "75mm": 9,
  "x2@@": 9,
  "铣削": 9,
  "非传统": 9,
  "不论是": 9,
  "R2V": 9,
  "Cr@@": 9,
  "4.11": 9,
  "隐含": 9,
  "精确性": 9,
  "德语": 9,
  "蜡": 9,
  "岩石层": 9,
  "网中": 9,
  "900mm": 9,
  "ECO@@": 9,
  "吸收@@": 9,
  "工件": 9,
  "id": 9,
  "0m": 9,
  "局限于": 9,
  "垛": 9,
  "进口关税": 9,
  "色素": 9,
  "测点": 9,
  "顾@@": 9,
  "小学": 9,
  "Ra@@": 9,
  "巢": 9,
  "卡拉": 9,
  "频率响应": 9,
  "韦": 9,
  "征集": 9,
  "龟裂": 9,
  "虚@@": 9,
  "染色": 9,
  "胡@@": 9,
  "柴鲁": 9,
  "本地@@": 9,
  "500kg": 9,
  "Dh@@": 9,
  "工艺技术": 9,
  "C250": 9,
  "此表": 9,
  "序言": 9,
  "三天": 9,
  "声称": 9,
  "该处": 9,
  "夏@@": 9,
  "Á": 9,
  "ille": 9,
  "电解": 9,
  "涵@@": 9,
  "kw@@": 9,
  "开发阶段": 9,
  "Ks": 9,
  "上半年": 9,
  "放疗": 9,
  "ZE": 9,
  "拥挤": 9,
  "谋": 9,
  "纤维板": 9,
  "铸件": 9,
  "杰": 9,
  "需为": 9,
  "质量部": 9,
  "薄钢": 9,
  "乘@@": 9,
  "滤层": 9,
  "盥洗室": 9,
  "详细情况": 9,
  "圬": 9,
  "海堤": 9,
  "可回收": 9,
  "声誉": 9,
  "灭@@": 9,
  "需由": 9,
  "无线电通信": 9,
  "为证": 9,
  "场外": 9,
  "lex@@": 9,
  "阿拉达": 9,
  "柠檬酸": 9,
  "MAP": 9,
  "橡木": 9,
  "顶层": 9,
  "首": 9,
  "TSA": 9,
  "水上": 9,
  "优于": 9,
  "如上": 9,
  "必需品": 9,
  "灌木丛": 9,
  "抬升": 9,
  "农药": 9,
  "东堤": 9,
  "中刚": 9,
  "MB@@": 9,
  "雅@@": 9,
  "焊接@@": 9,
  "存入": 9,
  "尽力": 9,
  "合资": 9,
  "肥皂": 9,
  "市内": 9,
  "客户端": 9,
  "诺曼": 9,
  "流化": 9,
  "偿付": 9,
  "阿拉伯": 9,
  "工业园区": 9,
  "机上": 9,
  "自行@@": 9,
  "伯": 9,
  "250kg": 9,
  "侏罗纪": 9,
  "一场": 9,
  "伽马": 9,
  "Q1": 9,
  "见证": 9,
  "创作": 9,
  "TL@@": 9,
  "珠@@": 9,
  "波哥": 9,
  "布拉": 9,
  "柏油": 9,
  "馆": 9,
  "单级": 9,
  "休假": 9,
  "高点": 9,
  "保护套": 9,
  "绫": 9,
  "19mm": 9,
  "PU@@": 9,
  "杯": 9,
  "律师": 9,
  "第七章": 9,
  "不合格品": 9,
  "服用": 9,
  "存有": 9,
  "fn": 9,
  "应予以": 9,
  "脱脂": 9,
  "安培": 9,
  "倒入": 9,
  "远处": 9,
  "领导力": 9,
  "墨@@": 9,
  "撤出": 9,
  "井下": 9,
  "办公桌": 9,
  "ve": 9,
  "NV": 9,
  "最重": 9,
  "盗窃": 9,
  "MOE": 9,
  "趋@@": 9,
  "残骸": 9,
  "oum": 9,
  "燃料@@": 9,
  "旗": 9,
  "大修": 9,
  "合成@@": 9,
  "AOC": 9,
  "电感": 9,
  "机能": 9,
  "动态@@": 9,
  "成形": 9,
  "1090": 9,
  "钽铁矿": 9,
  "右边": 9,
  "先导": 9,
  "丽": 9,
  "纯粹": 9,
  "低处": 9,
  "联系@@": 9,
  "55%": 9,
  "字段": 9,
  "消音器": 9,
  "素质": 9,
  "书信": 9,
  "径@@": 9,
  "畸变": 9,
  "担保书": 9,
  "36.1": 9,
  "ji": 9,
  "输气管": 9,
  "五金": 9,
  "TON@@": 9,
  "40cm": 9,
  "储油": 9,
  "动性": 9,
  "整体式": 9,
  "B2@@": 9,
  "RP@@": 9,
  "富比": 9,
  "Volta": 9,
  "艾滋病毒": 9,
  "歪@@": 9,
  "勤@@": 9,
  "法兰西岛": 9,
  "恐@@": 9,
  "DaN": 9,
  "尖锐": 9,
  "是否是": 9,
  "N45": 9,
  "幕": 9,
  "IEC@@": 9,
  "导叶": 9,
  "铁皮": 9,
  "CFBT": 9,
  "励@@": 9,
  "誉": 9,
  "TD": 9,
  "芒@@": 9,
  "荧光": 9,
  "burn": 9,
  "1001": 9,
  "184": 9,
  "内存": 9,
  "向上": 9,
  "供应量": 9,
  "商船": 9,
  "优秀": 9,
  "PTN": 9,
  "eg@@": 9,
  "闸口": 9,
  "如表": 9,
  "扣件": 9,
  "340": 9,
  "SMTD": 9,
  "由经": 9,
  "ORSTOM": 9,
  "可选": 9,
  "之类": 9,
  "大家": 9,
  "几何学": 9,
  "孔隙率": 9,
  "苗": 9,
  "耶@@": 9,
  "一流": 9,
  "障": 9,
  "精算": 9,
  "锈@@": 9,
  "and": 9,
  "故@@": 9,
  "凿孔": 9,
  "CaO": 9,
  "勒芒": 9,
  "步行": 9,
  "恩古": 9,
  "营运": 9,
  "矿权": 9,
  "斯基克达": 9,
  "COSIDER": 9,
  "音机": 9,
  "人行": 9,
  "加劲": 9,
  "分散性": 9,
  "绿化带": 9,
  "重大过失": 9,
  "干涉": 9,
  "地质局": 9,
  "准入": 9,
  "5X@@": 9,
  "佩@@": 9,
  "最具": 9,
  "私营": 9,
  "For@@": 9,
  "跳@@": 9,
  "供热": 9,
  "可可": 9,
  "细微": 9,
  "TVA": 9,
  "缝合": 9,
  "杆上": 9,
  "三组": 9,
  "Legrand": 9,
  "AB@@": 9,
  "账@@": 9,
  "日为": 9,
  "纸板": 9,
  "上午": 9,
  "目标@@": 9,
  "抗性": 9,
  "栓": 9,
  "母岩": 9,
  "巷道": 9,
  "获益": 9,
  "KKO11@@": 9,
  "0.95": 9,
  "调查@@": 9,
  "主权": 9,
  "紫红色": 9,
  "你@@": 9,
  "VDI": 9,
  "1953": 9,
  "长期@@": 9,
  "剩下": 9,
  "波束": 9,
  "ps@@": 9,
  "热风": 9,
  "干燥机": 9,
  "娱乐": 9,
  "迫@@": 9,
  "257": 9,
  "板桥": 9,
  "固体废弃物": 9,
  "迟@@": 9,
  "晚于": 9,
  "UTM": 9,
  "第二天": 9,
  "凡是": 9,
  "反应@@": 9,
  "宏观经济": 9,
  "沟道": 9,
  "投": 9,
  "付清": 9,
  "总流量": 9,
  "条至": 9,
  "中间层": 9,
  "浸前": 9,
  "分担": 9,
  "总行": 9,
  "状物": 9,
  "SONELGAZ": 9,
  "东边": 9,
  "水力资源": 9,
  "土堆": 9,
  "轻便": 9,
  "剪力墙": 9,
  "木结构": 9,
  "带上": 9,
  "马德里": 9,
  "浮石": 9,
  "门限": 9,
  "MF": 9,
  "系统对": 9,
  "农": 9,
  "稍后": 9,
  "武": 9,
  "鞋": 9,
  "临界点": 9,
  "太阳": 9,
  "取芯": 9,
  "卸妆@@": 9,
  "net": 9,
  "PE96@@": 9,
  "": 9,
  "比特率": 9,
  "挂@@": 9,
  "1950": 9,
  "10kV": 9,
  "影像": 9,
  "黑云母": 9,
  "its": 9,
  "所作": 9,
  "422": 9,
  "黏合剂": 9,
  "调度@@": 9,
  "注册@@": 9,
  "弄@@": 9,
  "216": 9,
  "馈电": 9,
  "尽可能减少": 9,
  "∅": 9,
  "储集层": 9,
  "圆锥": 9,
  "高性能": 9,
  "28.1": 9,
  "VDE": 9,
  "两周": 9,
  "公有制": 9,
  "逆@@": 9,
  "预扣": 9,
  "不平": 9,
  "aceae": 9,
  "县": 9,
  "365": 9,
  "GEV": 9,
  "所供": 9,
  "找坡": 9,
  "仍@@": 9,
  "毕业@@": 9,
  "表上": 9,
  "微调": 9,
  "塔利": 9,
  "呼": 9,
  "体力": 9,
  "陈旧": 9,
  "长久": 9,
  "持续@@": 9,
  "溶": 9,
  "昆巴": 9,
  "近地": 9,
  "典": 9,
  "B9": 9,
  "工作室": 9,
  "概要": 9,
  "鼠@@": 9,
  "装船": 9,
  "以北": 9,
  "公共行政": 9,
  "基脚": 9,
  "露天@@": 9,
  "过梁": 9,
  "发电场": 9,
  "Cu@@": 9,
  "上将": 9,
  "LT": 9,
  "89@@": 9,
  "转弯处": 9,
  "kar@@": 9,
  "篡改": 9,
  "反渗透": 9,
  "12.4": 9,
  "冶": 9,
  "San@@": 9,
  "探明": 9,
  "醒@@": 9,
  "BEM": 9,
  "灯笼": 9,
  "164": 9,
  "硬木": 9,
  "生物学": 9,
  "称之为": 9,
  "通货膨胀": 9,
  "K3": 9,
  "捷": 9,
  "中型": 9,
  "哺乳动物": 9,
  "灵@@": 9,
  "分系统": 9,
  "停车@@": 9,
  "ISOFIX": 9,
  "绪": 9,
  "项目区": 9,
  "Bc": 9,
  "ov": 9,
  "电压表": 9,
  "在实践中": 9,
  "操纵杆": 9,
  "出口量": 9,
  "阴极": 9,
  "归于": 9,
  "纸箱": 9,
  "节日": 9,
  "马尔@@": 9,
  "选择器": 9,
  "学分": 9,
  "邻国": 9,
  "莱科尼": 9,
  "倡议": 9,
  "补充@@": 9,
  "CMA": 9,
  "集水": 9,
  "1V": 9,
  "小时数": 9,
  "细料": 9,
  "BL@@": 9,
  "AQ": 9,
  "千万": 9,
  "自由选择": 9,
  "录像": 9,
  "近似值": 9,
  "地理@@": 9,
  "Mayombe": 9,
  "NFPA": 9,
  "Euro@@": 9,
  "愉@@": 9,
  "预订": 9,
  "关系@@": 9,
  "里希特": 9,
  "UPEC": 9,
  "麦斯特": 9,
  "灌溉@@": 9,
  "卡米": 9,
  "宽容": 9,
  "塑料管": 9,
  "气窗": 9,
  "洛美": 9,
  "完全@@": 9,
  "合理要求": 9,
  "暂时性": 9,
  "019": 9,
  "MN": 9,
  "层次": 9,
  "事业": 9,
  "糕点": 9,
  "三大": 9,
  "政": 9,
  "刮": 9,
  "最坏": 9,
  "重晶石": 9,
  "粪水": 9,
  "薪金": 9,
  "佰": 9,
  "曝@@": 9,
  "转盘": 9,
  "两点": 9,
  "周内": 9,
  "充电@@": 9,
  "按计划": 9,
  "硅化": 9,
  "往来账户": 9,
  "资金@@": 9,
  "VO@@": 9,
  "溢价": 9,
  "冒@@": 9,
  "按时": 9,
  "讲述": 9,
  "年增长率": 9,
  "学期": 9,
  "Block": 9,
  "溺水": 9,
  "泰@@": 9,
  "登记处": 9,
  "有水": 9,
  "销售点": 9,
  "航线": 9,
  "绝缘@@": 9,
  "30mA": 9,
  "擦": 9,
  "象征": 9,
  "防撞": 9,
  "Ω": 9,
  "新生": 9,
  "se": 9,
  "TDR": 9,
  "ant": 9,
  "坝基": 9,
  "贸": 9,
  "中所@@": 9,
  "这层": 9,
  "CTF": 9,
  "一片": 9,
  "018": 9,
  "oulou": 9,
  "Wifi": 9,
  "oa": 9,
  "同一天": 9,
  "II.1": 9,
  "电刷": 9,
  "CPS@@": 9,
  "贰": 9,
  "卷轴": 9,
  "生态@@": 9,
  "洗手盆": 9,
  "水器": 9,
  "ila": 9,
  "粉碎": 9,
  "见本": 9,
  "________________": 9,
  "罩壳": 9,
  "矿物纤维": 9,
  "悬吊": 9,
  "RU@@": 9,
  "M1@@": 9,
  "一辆": 9,
  "须@@": 9,
  "回报率": 9,
  "BAD": 9,
  "残疾人": 9,
  "湖区": 9,
  "常驻": 9,
  "加拿大人": 9,
  "up@@": 9,
  "1.03": 9,
  "艺": 9,
  "明文规定": 9,
  "电偶": 9,
  "水性": 9,
  "位点": 9,
  "人民币": 9,
  "村长": 9,
  "调整@@": 9,
  "植": 9,
  "DO": 9,
  "波形": 9,
  "填埋场": 9,
  "玖@@": 9,
  "禁": 9,
  "646.00": 9,
  "奶@@": 9,
  "放缓": 9,
  "正规": 9,
  "ent": 9,
  "坡面": 9,
  "转台": 9,
  "浅棕": 9,
  "诸多": 9,
  "Bir@@": 9,
  "市长": 9,
  "株": 9,
  "发酵": 9,
  "封盖": 9,
  "矿点": 9,
  "补偿@@": 9,
  "管理工作": 9,
  "PGESC": 9,
  "筛查": 9,
  "电子元件": 9,
  "知悉": 9,
  "减低": 9,
  "计算机设备": 9,
  "几项": 9,
  "橄榄@@": 9,
  "空地": 9,
  "10.00": 9,
  "识别码": 9,
  "EU@@": 9,
  "车上": 9,
  "代表@@": 9,
  "CSPH": 9,
  "供暖": 9,
  "刑事": 9,
  "传输线": 9,
  "守则": 9,
  "土壤条件": 9,
  "ene": 9,
  "有所增加": 9,
  "Lingu": 9,
  "050": 9,
  "陶乌德尼": 9,
  "漂@@": 9,
  "取回": 9,
  "限期": 9,
  "昂贵": 9,
  "无害": 9,
  "R2": 9,
  "40km": 9,
  "革@@": 9,
  "参考@@": 9,
  "喷头": 9,
  "主义": 9,
  "3.15": 9,
  "水表": 9,
  "光灯": 9,
  "替代品": 9,
  "原价": 9,
  "空转": 9,
  "隔离器": 9,
  "别": 9,
  "邻@@": 9,
  "资审": 9,
  "Lek@@": 9,
  "桑加": 9,
  "题@@": 9,
  "太阳@@": 9,
  "参考点": 9,
  "系统管理": 9,
  "记载": 9,
  "膨胀@@": 9,
  "气机": 9,
  "彩@@": 9,
  "器官": 9,
  "孕@@": 9,
  "UI": 9,
  "海拔高度": 9,
  "Mbane": 9,
  "贝努埃": 9,
  "买卖": 9,
  "630@@": 9,
  "63A": 9,
  "印度": 9,
  "全面@@": 9,
  "胸卡": 9,
  "高为": 9,
  "4cm": 9,
  "TP@@": 9,
  "CKY3@@": 9,
  "辩@@": 9,
  "式化": 9,
  "深入研究": 9,
  "每面": 9,
  "鹅卵石": 9,
  "波纹管": 9,
  "生产日期": 9,
  "布朗": 9,
  "涂装": 9,
  "横档": 9,
  ".5": 9,
  "削减": 9,
  "洁": 9,
  "铁路网": 9,
  "KNX": 9,
  "卓越": 9,
  "ECE": 9,
  "影响力": 9,
  "公路运输": 9,
  "I.3": 9,
  "拓扑": 9,
  "图画": 9,
  "va": 9,
  "1.60": 9,
  "稍": 9,
  "土堤": 9,
  "重油": 9,
  "BCDT": 9,
  "分子": 9,
  "巨型": 9,
  "不错": 9,
  "加长": 9,
  "种草": 9,
  "易性": 9,
  "粗碎": 9,
  "排风扇": 9,
  "记住": 9,
  "孵化园": 9,
  "煤矿": 9,
  "国营": 9,
  "火炬": 9,
  "盆@@": 9,
  "滗": 9,
  "中方": 9,
  "相近": 9,
  "现场@@": 9,
  "取消资格": 9,
  "oto": 9,
  "遗": 9,
  "接待@@": 9,
  "虾": 9,
  "UT@@": 9,
  "坍落度": 9,
  "CFO": 9,
  "重铺": 9,
  "AU": 9,
  "生物降解": 9,
  "CTE": 9,
  "接触点": 9,
  "租": 9,
  "线网": 9,
  "毫无疑问": 9,
  "代号": 9,
  "标杆": 9,
  "TTI": 9,
  "营": 9,
  "壤": 9,
  "进气口": 9,
  "22.1": 9,
  "五月": 9,
  "年数": 9,
  "贵@@": 9,
  "故事": 9,
  "开户": 9,
  "开销": 9,
  "冰箱": 9,
  "米左右": 9,
  "就业@@": 9,
  "文件格式": 9,
  "重申": 9,
  "掘": 9,
  "813.@@": 9,
  "王国": 9,
  "田@@": 9,
  "隔室": 9,
  "无人": 9,
  "TSHIKAPA": 9,
  "M12": 9,
  "肾@@": 9,
  "6.8": 9,
  "BRGM": 9,
  "拓展": 9,
  "檐": 9,
  "X1": 9,
  "第五节": 9,
  "OE@@": 9,
  "CPH04045": 9,
  "改编": 9,
  "纠@@": 9,
  "IG": 9,
  "癌": 9,
  "一排": 9,
  "医务@@": 9,
  "156": 9,
  "两条@@": 9,
  "SBEE": 9,
  "电气工程": 9,
  "http": 9,
  "巨@@": 9,
  "巴省": 9,
  "丹": 9,
  "公共利益": 9,
  "氧化锌": 9,
  "浅水区": 9,
  "拔": 9,
  "eu": 9,
  "高技能": 9,
  "况@@": 9,
  "客运": 9,
  "NGA": 9,
  "1X": 9,
  "15.5": 9,
  "分批": 9,
  "牵@@": 9,
  "义@@": 9,
  "公司地址": 9,
  "ah": 9,
  "5A": 9,
  "旺": 9,
  "压机": 9,
  "察@@": 9,
  "服务区": 9,
  "反作用": 9,
  "大程度": 9,
  "151": 9,
  "91.@@": 9,
  "〜": 9,
  "内以": 9,
  "存储容量": 9,
  "违规": 9,
  "AO@@": 9,
  "240000": 9,
  "像是": 9,
  "套房": 9,
  "中华人民共和国": 9,
  "ICS": 9,
  "PD@@": 9,
  "地方@@": 9,
  "拜": 9,
  "193": 9,
  "棍": 9,
  "红外": 9,
  "0578": 9,
  "去世": 9,
  "堤脚": 9,
  "略有": 9,
  "墩@@": 9,
  "赞成": 9,
  "电源线": 9,
  "OLAC": 9,
  "CGFO": 9,
  "敏感@@": 9,
  "anga": 9,
  "SYFA04": 9,
  "tion": 9,
  "0.06": 9,
  "遗留": 9,
  "管理制度": 9,
  "处理程序": 9,
  "有价证券": 9,
  "第一份": 9,
  "经济模型": 9,
  "312": 9,
  "长达": 9,
  "3.13": 9,
  "庭院": 9,
  "旅程": 9,
  "衣帽间": 9,
  "中标者": 9,
  "价格@@": 9,
  "3DMP100@@": 9,
  "PPP": 9,
  "生活区": 9,
  "何@@": 9,
  "场内": 9,
  "35mm": 9,
  "商品@@": 9,
  "仪@@": 9,
  "敏@@": 9,
  "渣@@": 9,
  "营业@@": 9,
  "活力": 9,
  "1.000": 9,
  "Kat@@": 9,
  "分销商": 9,
  "授@@": 9,
  "所在@@": 9,
  "全责": 9,
  "荡": 9,
  "Dah@@": 9,
  "380@@": 9,
  "萨赫勒": 9,
  "癫痫": 9,
  "Co": 9,
  "水层": 9,
  "栗色": 9,
  "战略@@": 9,
  "等量": 9,
  "地为": 9,
  "至经": 9,
  "11O1TB": 9,
  "12cm": 9,
  "软化": 9,
  "降噪": 9,
  "工艺@@": 9,
  "变电器": 9,
  "活载": 9,
  "制造者": 9,
  "板坯": 9,
  "压制": 9,
  "输送@@": 9,
  "寄生虫": 9,
  "ouak@@": 9,
  "载重": 9,
  "腻子": 9,
  "继": 9,
  "ek@@": 9,
  "Og@@": 9,
  "或许": 9,
  "寄存器": 9,
  "年轻人": 9,
  "放射": 9,
  "病率": 9,
  "透明@@": 9,
  "30x30": 9,
  "蓄水库": 9,
  "参观者": 9,
  "电磁@@": 9,
  "肋@@": 9,
  "漂移": 9,
  "纺@@": 9,
  "科莫": 9,
  "EL": 9,
  "PCB": 9,
  "支索": 9,
  "纺织": 9,
  "芯体": 9,
  "ines": 9,
  "表示@@": 9,
  "MR@@": 9,
  "箱体": 9,
  "WN": 9,
  "短时": 9,
  "ed": 9,
  "斗@@": 9,
  "ZF@@": 9,
  "旅游@@": 9,
  "400kg": 9,
  "培养基": 9,
  "所指": 9,
  "利于": 9,
  "选修": 9,
  "Cha@@": 9,
  "SV@@": 9,
  "找平层": 9,
  "总费用": 9,
  "土壤调查": 9,
  "Qu@@": 9,
  "乱@@": 9,
  "天前": 9,
  "陆路": 9,
  "过来": 9,
  "购物中心": 9,
  "氦气": 9,
  "上色": 9,
  "定制": 9,
  "伏@@": 9,
  "测量方法": 9,
  "建筑用": 9,
  "转换成": 9,
  "可压缩": 9,
  "借口": 9,
  "抗渗": 9,
  "钝化": 9,
  "羊@@": 9,
  "19.5": 9,
  "泳池": 9,
  "汽车@@": 9,
  "过敏": 9,
  "闭塞": 9,
  "特此": 9,
  "堆肥": 9,
  "剩余价值": 9,
  "M10": 9,
  "列明": 9,
  "72@@": 9,
  "Mal@@": 9,
  "MTBF": 9,
  "觉": 9,
  "装载机": 9,
  "TAT": 9,
  "除草": 9,
  "另一家": 9,
  "署名": 9,
  "柜门": 9,
  "地盾": 9,
  "口译": 9,
  "祝@@": 8,
  "剪切力": 8,
  "劣势": 8,
  "矿棉": 8,
  "回声": 8,
  "收货": 8,
  "舷@@": 8,
  "角形": 8,
  "集约化": 8,
  "公务员": 8,
  "极度": 8,
  "搅拌器": 8,
  "132@@": 8,
  "二段": 8,
  "优良": 8,
  "esse": 8,
  "固态": 8,
  "权威@@": 8,
  "外籍": 8,
  "oum@@": 8,
  "第八@@": 8,
  "具体条件": 8,
  "雪": 8,
  "活化": 8,
  "La@@": 8,
  "日常@@": 8,
  "阻挡": 8,
  "左边": 8,
  "AAAC": 8,
  "箱中": 8,
  "添加物": 8,
  "专利@@": 8,
  "串上": 8,
  "嘴@@": 8,
  "概念@@": 8,
  "威": 8,
  "槽体": 8,
  "按吨": 8,
  "公共场所": 8,
  "十八": 8,
  "12a": 8,
  "穿行": 8,
  "正当理由": 8,
  "42U": 8,
  "上个月": 8,
  "驾驶@@": 8,
  "当有": 8,
  "铵": 8,
  "去掉": 8,
  "浪": 8,
  "背斜": 8,
  "创": 8,
  "韦齐市": 8,
  "外包": 8,
  "第二级": 8,
  "马斯": 8,
  "微弱": 8,
  "揭示": 8,
  "漏油": 8,
  "寻": 8,
  "1.05": 8,
  "CEA": 8,
  "互锁": 8,
  "火力发电": 8,
  "ora": 8,
  "国际公约": 8,
  "用之来": 8,
  "意外@@": 8,
  "社员": 8,
  "本季度": 8,
  "发展中国家": 8,
  "遇阻": 8,
  "挡墙": 8,
  "好像": 8,
  "上次": 8,
  "集水管": 8,
  "所欠": 8,
  "渔业资源": 8,
  "铺层": 8,
  "搜刮": 8,
  "夹板": 8,
  "Gazaoua": 8,
  "违@@": 8,
  "轮机": 8,
  "诊治": 8,
  "解体": 8,
  "两张": 8,
  "库区": 8,
  "泵房": 8,
  "立体@@": 8,
  "毛面": 8,
  "Mw@@": 8,
  "租客": 8,
  "rah@@": 8,
  "这样一来": 8,
  "CVS": 8,
  "多模": 8,
  "背包": 8,
  "Inwi": 8,
  "薄层": 8,
  "研究者": 8,
  "137": 8,
  "双极": 8,
  "插槽": 8,
  "评估所": 8,
  "希": 8,
  "244": 8,
  "转交": 8,
  "邀": 8,
  "任何理由": 8,
  "水污染": 8,
  "特色": 8,
  "佩尔": 8,
  "敌@@": 8,
  "C50": 8,
  "奥陶纪": 8,
  "字符": 8,
  "1377": 8,
  "工资单": 8,
  "路程": 8,
  "钽": 8,
  "Z5@@": 8,
  "另加": 8,
  "投影仪": 8,
  "探索性": 8,
  "BACnet": 8,
  "变流器": 8,
  "公共政策": 8,
  "Taoud": 8,
  "各端": 8,
  "97%": 8,
  "309": 8,
  "氟": 8,
  "两相": 8,
  "多种@@": 8,
  "凝剂": 8,
  "ULCS": 8,
  "恐怖主义": 8,
  "双绞线": 8,
  "伊拉": 8,
  "储存量": 8,
  "泽戈瓦": 8,
  "5.15": 8,
  "防范措施": 8,
  "巴河": 8,
  "路口": 8,
  "岔道": 8,
  "只会": 8,
  "Artem@@": 8,
  "平均数": 8,
  "硝酸": 8,
  "口袋": 8,
  "中空": 8,
  "碾@@": 8,
  "传统@@": 8,
  "Del@@": 8,
  "Sang@@": 8,
  "食品@@": 8,
  "时须": 8,
  "渍": 8,
  "发表意见": 8,
  "共同商定": 8,
  "五金@@": 8,
  "生存": 8,
  "刺果": 8,
  "mbar": 8,
  "pr@@": 8,
  "各项@@": 8,
  "市政工程": 8,
  "便携": 8,
  "一阶": 8,
  "时有": 8,
  "怎么": 8,
  "纽@@": 8,
  "560": 8,
  "端头": 8,
  "美元@@": 8,
  "试用": 8,
  "番荔枝": 8,
  "角点": 8,
  "发言": 8,
  "运行状况": 8,
  "1.15": 8,
  "订阅": 8,
  "努瓦迪布": 8,
  "葡式": 8,
  "藻类": 8,
  "分销": 8,
  "赠": 8,
  "尔赛": 8,
  "18m": 8,
  "航空运输": 8,
  "豆@@": 8,
  "aoua": 8,
  "1101@@": 8,
  "自信": 8,
  "oma": 8,
  "单体": 8,
  "深海": 8,
  "贷": 8,
  "当下": 8,
  "保险人": 8,
  "电筒": 8,
  "重修": 8,
  "ONAN": 8,
  "管中": 8,
  "净收入": 8,
  "Gb@@": 8,
  "最合适": 8,
  "开阔": 8,
  "该省": 8,
  "U1000RO2V": 8,
  "利润率": 8,
  "主轴": 8,
  "投资商": 8,
  "----": 8,
  "析@@": 8,
  "泌@@": 8,
  "der": 8,
  "览": 8,
  "私有财产": 8,
  "熄灭": 8,
  "移走": 8,
  "菠萝": 8,
  "可接受性": 8,
  "人口普查": 8,
  "风景": 8,
  "rat@@": 8,
  "穴": 8,
  "济": 8,
  "潮@@": 8,
  "行为准则": 8,
  "EG": 8,
  "深刻": 8,
  "死者": 8,
  "任何@@": 8,
  "百分之四十": 8,
  "材@@": 8,
  "不良影响": 8,
  "不含": 8,
  "密切相关": 8,
  "导入": 8,
  "本应": 8,
  "繁忙": 8,
  "金属线": 8,
  "丛": 8,
  "aa": 8,
  "支路": 8,
  "分流器": 8,
  "打扫": 8,
  "Sou@@": 8,
  "４": 8,
  "拥堵": 8,
  "纲": 8,
  "病变": 8,
  "截水墙": 8,
  "疼痛": 8,
  "强制@@": 8,
  "水利部": 8,
  "企": 8,
  "代人": 8,
  "水应": 8,
  "石坝": 8,
  "神经病": 8,
  "石墨": 8,
  "AIXPRESS": 8,
  "640": 8,
  "５": 8,
  "夹持": 8,
  "余地": 8,
  "俄罗斯": 8,
  "份@@": 8,
  "配额": 8,
  "梨": 8,
  "吸烟": 8,
  "乳化剂": 8,
  "倒角": 8,
  "旺@@": 8,
  "苏联": 8,
  "En@@": 8,
  "且@@": 8,
  "席位": 8,
  "吊钩": 8,
  "销售商": 8,
  "...........": 8,
  "PG": 8,
  "申请表": 8,
  "益处": 8,
  "华柱": 8,
  "406": 8,
  "下跌": 8,
  "护堤": 8,
  "T15S": 8,
  "VU@@": 8,
  "公司@@": 8,
  "暖气": 8,
  "歧义": 8,
  "1h": 8,
  "198": 8,
  "个人财产": 8,
  "登录": 8,
  "急救@@": 8,
  "质性": 8,
  "振": 8,
  "传染性": 8,
  "接待处": 8,
  "解读": 8,
  "升温": 8,
  "狭@@": 8,
  "料层": 8,
  "19.2": 8,
  "良好@@": 8,
  "干燥塔": 8,
  "帮": 8,
  "生锈": 8,
  "责任保险": 8,
  "Dolisie": 8,
  "锈迹": 8,
  "出力": 8,
  "德尔": 8,
  "80m": 8,
  "著名": 8,
  "税额": 8,
  "成岩": 8,
  "存量": 8,
  "帝": 8,
  "工作服": 8,
  "oula": 8,
  "盛@@": 8,
  "Z4@@": 8,
  "互助": 8,
  "整体@@": 8,
  "垃圾箱": 8,
  "型板": 8,
  "产权@@": 8,
  "同轴电缆": 8,
  "红斑": 8,
  "7.9": 8,
  "FD@@": 8,
  "即付": 8,
  "次生": 8,
  "HMI": 8,
  "298": 8,
  "官@@": 8,
  "消能": 8,
  "点处": 8,
  "干扰@@": 8,
  "CAL": 8,
  "撞": 8,
  "使该": 8,
  "2.05": 8,
  "勬": 8,
  "保全": 8,
  "柔": 8,
  "PMP": 8,
  "停止使用": 8,
  "难以@@": 8,
  "诱@@": 8,
  "基体": 8,
  "蛋糕": 8,
  "局面": 8,
  "蛇@@": 8,
  "审计员": 8,
  "糟糕": 8,
  "绞线": 8,
  "雄@@": 8,
  "22.@@": 8,
  "刹车": 8,
  "动植物": 8,
  "潜水泵": 8,
  "百分点": 8,
  "不能@@": 8,
  "业者": 8,
  "双倍": 8,
  "404": 8,
  "归属": 8,
  "13.00": 8,
  "联结": 8,
  "换向": 8,
  "B304": 8,
  "专用工具": 8,
  "急": 8,
  "直接@@": 8,
  "止水带": 8,
  "崇高": 8,
  "卡环": 8,
  "敲@@": 8,
  "电平": 8,
  "摄@@": 8,
  "转炉": 8,
  "喷注": 8,
  "KM2": 8,
  "274": 8,
  "腰": 8,
  ".-.": 8,
  "标号": 8,
  "害@@": 8,
  "松土": 8,
  "裂痕": 8,
  "23.@@": 8,
  "机电设备": 8,
  "N3": 8,
  "各向异性": 8,
  "方根": 8,
  "导出": 8,
  "正门": 8,
  "A.4": 8,
  "危险@@": 8,
  "电晕": 8,
  "CPU": 8,
  "Mus@@": 8,
  "SiO2": 8,
  "统计表": 8,
  "知识@@": 8,
  "银行业": 8,
  "看作": 8,
  "等时线": 8,
  "306": 8,
  "清洁@@": 8,
  "充": 8,
  "净化@@": 8,
  "钻头": 8,
  "GA@@": 8,
  "滋扰": 8,
  "附加税": 8,
  "麦": 8,
  "搁板": 8,
  "客运量": 8,
  "航运": 8,
  "内机": 8,
  "aul@@": 8,
  "岩床": 8,
  "锂": 8,
  "棕": 8,
  "背部": 8,
  "物理@@": 8,
  "开式": 8,
  "乌吉亚": 8,
  "参考值": 8,
  "50000": 8,
  "补偿性": 8,
  "HZ": 8,
  "符@@": 8,
  "签定": 8,
  "土场": 8,
  "劣质": 8,
  "SDH": 8,
  "200x@@": 8,
  "此基础": 8,
  "DMOV": 8,
  "MECS": 8,
  "穹@@": 8,
  "施工@@": 8,
  "SID": 8,
  "淤积": 8,
  "galv": 8,
  "返": 8,
  "借贷": 8,
  "精致": 8,
  "危@@": 8,
  "错误@@": 8,
  "BOOT": 8,
  "富拉": 8,
  "贷@@": 8,
  "款式": 8,
  "每秒": 8,
  "该方": 8,
  "核武器": 8,
  "新拌": 8,
  "不相容": 8,
  "浆料": 8,
  "数据管理": 8,
  "抵扣": 8,
  "结构钢": 8,
  "奥氏体": 8,
  "企业@@": 8,
  "CEF": 8,
  "P8": 8,
  "更快": 8,
  "吃力": 8,
  "次测试": 8,
  "出自": 8,
  "窖": 8,
  "抗剪": 8,
  "季@@": 8,
  "正向": 8,
  "出产": 8,
  "拉美": 8,
  "预见@@": 8,
  "操作台": 8,
  "小齿轮": 8,
  "VDC": 8,
  "零售": 8,
  "154": 8,
  "裂口": 8,
  "重频": 8,
  "优先股": 8,
  "运输部": 8,
  "棉@@": 8,
  "周末": 8,
  "最有": 8,
  "非暴力": 8,
  "玻璃珠": 8,
  "水生植物": 8,
  "法国@@": 8,
  "抵制": 8,
  "POS": 8,
  "汁": 8,
  "面应": 8,
  "液压油": 8,
  "MS@@": 8,
  "定时": 8,
  "首个": 8,
  "拆掉": 8,
  "开来": 8,
  "各种@@": 8,
  "壳@@": 8,
  "Enabel": 8,
  "检查程序": 8,
  "推导": 8,
  "酒庄": 8,
  "101@@": 8,
  "NR": 8,
  "崩@@": 8,
  "岛@@": 8,
  "荒@@": 8,
  "GIE": 8,
  "24.@@": 8,
  "38.@@": 8,
  "基础件": 8,
  "ja": 8,
  "cptp": 8,
  "上时": 8,
  "陡峭": 8,
  "叁": 8,
  "##@@": 8,
  "爱@@": 8,
  "防错": 8,
  "030": 8,
  "腺": 8,
  "无异议": 8,
  "四十八": 8,
  "表决权": 8,
  "亲": 8,
  "三分之二": 8,
  "H2": 8,
  "NES": 8,
  "入射波": 8,
  "45m": 8,
  "防潮": 8,
  "伐@@": 8,
  "管理机制": 8,
  "DDM": 8,
  "况": 8,
  "替代@@": 8,
  "牙": 8,
  "71.8@@": 8,
  "酸洗": 8,
  "交汇处": 8,
  "50x@@": 8,
  "索取": 8,
  "电子签名": 8,
  "车行道": 8,
  "滚珠": 8,
  "热效应": 8,
  "60.@@": 8,
  "子件": 8,
  "388": 8,
  "取得联系": 8,
  "渐": 8,
  "金具": 8,
  "FT": 8,
  "Sh@@": 8,
  "3B": 8,
  "担@@": 8,
  "载波": 8,
  "2.06": 8,
  "HC": 8,
  "内部@@": 8,
  "遣@@": 8,
  "to": 8,
  "下次": 8,
  "压水堆": 8,
  "程序设计": 8,
  "保险费用": 8,
  "各处": 8,
  "EN54": 8,
  "届@@": 8,
  "问@@": 8,
  "合法@@": 8,
  "第三个": 8,
  "和子": 8,
  "有毒气体": 8,
  "电传": 8,
  "最快": 8,
  "阻断": 8,
  "脆弱性": 8,
  "过时": 8,
  "集中管理": 8,
  "561": 8,
  "PN16": 8,
  "三十@@": 8,
  "Satom": 8,
  "经理层": 8,
  "煅烧": 8,
  "放到": 8,
  "550@@": 8,
  "𨱒": 8,
  "填埋": 8,
  "ACI": 8,
  "流体动力": 8,
  "276": 8,
  "边形": 8,
  "测量仪": 8,
  "迭代": 8,
  "昆虫": 8,
  "葡萄牙": 8,
  "并会": 8,
  "穿线": 8,
  "Lusas": 8,
  "≠": 8,
  "PN10": 8,
  "DDPO": 8,
  "aux": 8,
  "用油": 8,
  "屏蔽线": 8,
  "A0": 8,
  "ø": 8,
  "剧@@": 8,
  "99%": 8,
  "矿藏": 8,
  "动工": 8,
  "Armaflex": 8,
  "队伍": 8,
  "PC125A": 8,
  "导师": 8,
  "房屋建筑": 8,
  "粗面岩": 8,
  "075": 8,
  "极点": 8,
  "相距": 8,
  "摇臂": 8,
  "年产": 8,
  "声明书": 8,
  "变差": 8,
  "与非": 8,
  "主教": 8,
  "见面": 8,
  "贝雷帽": 8,
  "XG": 8,
  "外部@@": 8,
  "葡萄@@": 8,
  "适度": 8,
  "明白": 8,
  "树干": 8,
  "MAT": 8,
  "Sogea": 8,
  "微不足道": 8,
  "33%": 8,
  "ERP": 8,
  "洋": 8,
  "簬": 8,
  "ARH": 8,
  "BATSHAMBA": 8,
  "06.@@": 8,
  "空气污染": 8,
  "ASHRAE": 8,
  "Or@@": 8,
  "475": 8,
  "压力壳": 8,
  "库尔": 8,
  "村民": 8,
  "烹饪": 8,
  "化妆品": 8,
  "油层": 8,
  "ot": 8,
  "珐琅": 8,
  "FEM": 8,
  "桥机": 8,
  "ong": 8,
  "通量": 8,
  "152": 8,
  "长廊": 8,
  "柏@@": 8,
  "全局": 8,
  "低估": 8,
  "BX": 8,
  "2X@@": 8,
  "质检员": 8,
  "54.@@": 8,
  "顶点": 8,
  "赫@@": 8,
  "追求": 8,
  "清洗@@": 8,
  "南面": 8,
  "获取信息": 8,
  "经理部": 8,
  "合同@@": 8,
  "箱梁": 8,
  "MAC@@": 8,
  "青": 8,
  "精选": 8,
  "洪峰": 8,
  "疲@@": 8,
  "罗迪特": 8,
  "交流电源": 8,
  "..................": 8,
  "疟疾": 8,
  "宾@@": 8,
  "该软件": 8,
  "截面积": 8,
  "张拉": 8,
  "运公司": 8,
  "Lodit": 8,
  "驶@@": 8,
  "行为@@": 8,
  "开放@@": 8,
  "房建": 8,
  "售票机": 8,
  "800m": 8,
  "铺板": 8,
  "211": 8,
  "防锈漆": 8,
  "校长": 8,
  "吸收塔": 8,
  "漂浮": 8,
  "进而": 8,
  "简图": 8,
  "编列": 8,
  "14.7": 8,
  "且经": 8,
  "网页": 8,
  "线管": 8,
  "扁": 8,
  "三根": 8,
  "层数": 8,
  "居住@@": 8,
  "多极": 8,
  "雾@@": 8,
  "蜂窝": 8,
  "UTE": 8,
  "浊度": 8,
  "谈@@": 8,
  "将分": 8,
  "可疑": 8,
  "造价": 8,
  "200000": 8,
  "办公设备": 8,
  "陶": 8,
  "马永贝": 8,
  "专门@@": 8,
  "4A": 8,
  "并行": 8,
  "储备@@": 8,
  "始": 8,
  "迁@@": 8,
  "下午": 8,
  "坪": 8,
  "单据": 8,
  "律@@": 8,
  "od": 8,
  "果实": 8,
  "DER": 8,
  "eur@@": 8,
  "预付费": 8,
  "中度": 8,
  "乌拉": 8,
  "乘坐": 8,
  "耕@@": 8,
  "T6": 8,
  "回执单": 8,
  "98@@": 8,
  "祷告": 8,
  "建点": 8,
  "漏电": 8,
  "集料": 8,
  "隶属": 8,
  "hm": 8,
  "dane": 8,
  "绳@@": 8,
  "离线": 8,
  "严密": 8,
  "Bouk@@": 8,
  "选拔": 8,
  "阿拉伯@@": 8,
  "bo": 8,
  "屏@@": 8,
  "无疑": 8,
  "自流": 8,
  "2B": 8,
  "拉丝": 8,
  "芽": 8,
  "点将": 8,
  "DX": 8,
  "中是": 8,
  "切除": 8,
  "加丹加": 8,
  "计划@@": 8,
  "十天": 8,
  "怎@@": 8,
  "钙质": 8,
  "十字": 8,
  "APA@@": 8,
  "总体目标": 8,
  "207": 8,
  "洗浴": 8,
  "地下工程": 8,
  "139@@": 8,
  "构筑": 8,
  "脂肪酸": 8,
  "241": 8,
  "削@@": 8,
  "肥@@": 8,
  "该图": 8,
  "kV@@": 8,
  "碱@@": 8,
  "掌@@": 8,
  "速度限制": 8,
  "计算公式": 8,
  "圆桌会议": 8,
  "14mm": 8,
  "著@@": 8,
  "PICF": 8,
  "共生": 8,
  "大洋": 8,
  "偏": 8,
  "BV": 8,
  "53@@": 8,
  "研磨机": 8,
  "回升": 8,
  "席": 8,
  "Wor@@": 8,
  "330kV": 8,
  "Hamdallaye": 8,
  "栖@@": 8,
  "这两项": 8,
  "购买@@": 8,
  "大会决议": 8,
  "IO": 8,
  "炼@@": 8,
  "AD": 8,
  "12.00": 8,
  "售价": 8,
  "性能@@": 8,
  "再现": 8,
  "贴面": 8,
  "妆": 8,
  "防火门": 8,
  "单模": 8,
  "墨西拿": 8,
  "直方图": 8,
  "ique": 8,
  "323": 8,
  "方程式": 8,
  "宇@@": 8,
  "改": 8,
  "工程款": 8,
  "手写": 8,
  "incoterms": 8,
  "毫无": 8,
  "开关@@": 8,
  "三名": 8,
  "硫酸@@": 8,
  "执@@": 8,
  "填石": 8,
  "繁殖": 8,
  "开辟": 8,
  "走势": 8,
  "14001": 8,
  "浪费": 8,
  "湿地": 8,
  "低速": 8,
  "GT": 8,
  "窗扇": 8,
  "多处": 8,
  "枯竭": 8,
  "革新": 8,
  "终端@@": 8,
  "怀疑": 8,
  "安全壳": 8,
  "46.3": 8,
  "化工@@": 8,
  "RGS": 8,
  "伐": 8,
  "感谢": 8,
  "宪@@": 8,
  "记录下来": 8,
  "折旧费": 8,
  "犯下": 8,
  "降解": 8,
  "轻度": 8,
  "620": 8,
  "国有@@": 8,
  "萝@@": 8,
  "价值观": 8,
  "习@@": 8,
  "BAE@@": 8,
  "同事": 8,
  "215": 8,
  "水文@@": 8,
  "真实性": 8,
  "ost@@": 8,
  "供水系统": 8,
  "十二个": 8,
  "教授": 8,
  "增长@@": 8,
  "外罩": 8,
  "电气控制": 8,
  "Char": 8,
  "今年": 8,
  "公立": 8,
  "点动": 8,
  "356": 8,
  "面漆": 8,
  "通风设备": 8,
  "中间人": 8,
  "96.@@": 8,
  "推理": 8,
  "芬@@": 8,
  "皆": 8,
  "分析表明": 8,
  "相遇": 8,
  "I.5": 8,
  "敷": 8,
  "两面": 8,
  "忘记": 8,
  "用电量": 8,
  "报刊": 8,
  "尼龙": 8,
  "计量@@": 8,
  "变种": 8,
  "因果关系": 8,
  "Mt": 8,
  "第一版": 8,
  "还给": 8,
  "0.55": 8,
  "模版": 8,
  "CSPS": 8,
  "功效": 8,
  "挥@@": 8,
  "NFC@@": 8,
  "本手册": 8,
  "盘式": 8,
  "四面": 8,
  "地秤": 8,
  "凿": 8,
  "Bas@@": 8,
  "赛@@": 8,
  "报批": 8,
  "粘连": 8,
  "稳定@@": 8,
  "空蚀": 8,
  "七个": 8,
  "快充": 8,
  "边线": 8,
  "尽量避免": 8,
  "UP": 8,
  "氯化钠": 8,
  "味@@": 8,
  "ds": 8,
  "藏室": 8,
  "布尔": 8,
  "方位角": 8,
  "代表人": 8,
  "六年": 8,
  "古代": 8,
  "监督机构": 8,
  "凭借": 8,
  "补": 8,
  "供其": 8,
  "400mm": 8,
  "未婚": 8,
  "分力": 8,
  "x2": 8,
  "L2": 8,
  "防护@@": 8,
  "援@@": 8,
  "向北": 8,
  "养殖场": 8,
  "涨水": 8,
  "允许@@": 8,
  "显示@@": 8,
  "_____________": 8,
  "ry": 8,
  "螺": 8,
  "数据分析": 8,
  "远远": 8,
  "珠": 8,
  "算法": 8,
  "ist@@": 8,
  "生命@@": 8,
  "555": 8,
  "盐度": 8,
  "Ф": 8,
  "界区": 8,
  "osso": 8,
  "攻击": 8,
  "IPS": 8,
  "GM": 8,
  "契@@": 8,
  "分配@@": 8,
  "某人": 8,
  "Gradex": 8,
  "合页": 8,
  "Z4": 8,
  "做@@": 8,
  "坝@@": 8,
  "负有责任": 8,
  "250KVA": 8,
  "用手": 8,
  "we@@": 8,
  "注水": 8,
  "ut@@": 8,
  "零点": 8,
  "吉姆": 8,
  "平衡点": 8,
  "顺利完成": 8,
  "318": 8,
  "推论": 8,
  "益@@": 8,
  "虹@@": 8,
  "铲斗": 8,
  "S.4": 8,
  "IX": 8,
  "维护费用": 8,
  "322": 8,
  "注浆": 8,
  "XXXX@@": 8,
  "过长": 8,
  "找出": 8,
  "LComb@@": 8,
  "货运量": 8,
  "延性": 8,
  "Response": 8,
  "Na@@": 8,
  "chard": 8,
  "拦@@": 8,
  "体育部": 8,
  "kb@@": 8,
  "耙@@": 8,
  "热缩": 8,
  "卢本巴希": 8,
  "刑事@@": 8,
  "2T": 8,
  "竞业禁止": 8,
  "来往": 8,
  "R18": 8,
  "九个": 8,
  "赎回": 8,
  "物理层": 8,
  "净手": 8,
  "7.0": 8,
  "自主性": 8,
  "导热": 8,
  "舰队": 8,
  "滴水": 8,
  "船长": 8,
  "24.3": 8,
  "que": 8,
  "四楼": 8,
  "32mm": 8,
  "碎屑岩": 8,
  "附属物": 8,
  "审慎": 8,
  "75m": 8,
  "疑@@": 8,
  "满负荷": 8,
  "1234": 8,
  "装卸@@": 8,
  "合法性": 8,
  "注意力": 8,
  "联系人": 8,
  "天然@@": 8,
  "自其": 8,
  "Tifrihine": 8,
  "伐根": 8,
  "诉讼@@": 8,
  "管道泵": 8,
  "此保函": 8,
  "交通管制": 8,
  "80000": 8,
  "并排": 8,
  "oui": 8,
  "井内": 8,
  "阳台": 8,
  "增幅": 8,
  "期末": 8,
  "腐烂": 8,
  "自然景观": 8,
  "IP地址": 8,
  "茂密": 8,
  "申请@@": 8,
  "十字@@": 8,
  "购入": 8,
  "检波器": 8,
  "307": 8,
  "背后": 8,
  "未指定": 8,
  "161": 8,
  "两步": 8,
  "审定": 8,
  "分布图": 8,
  "地沟": 8,
  "壹": 8,
  "位数": 8,
  "多方面": 8,
  "秘密": 8,
  "ABP": 8,
  "浦@@": 8,
  "64%": 8,
  "有点": 8,
  "高风险": 8,
  "信息化": 8,
  "浅黄色": 8,
  "小路": 8,
  "主合同": 8,
  "投放": 8,
  "试验室": 8,
  "oux": 8,
[...]
