{
  "<s>": 130832,
  "<pad>": 130831,
  "</s>": 130830,
  "<unk>": 130829,
  "de": 130822,
  "la": 54938,
  "et": 52742,
  "des": 47931,
  "les": 41111,
  "à": 38723,
  "le": 34787,
  "du": 31568,
  "en": 28615,
  "pour": 17162,
  "par": 17050,
  "dans": 14594,
  "ou": 14366,
  "au": 13959,
  "est": 12296,
  ":": 11619,
  "sur": 11306,
  "une": 10136,
  "un": 10136,
  "Les": 9826,
  "(@@": 9623,
  "que": 9077,
  "Le": 8471,
  "aux": 8382,
  "être": 8285,
  "sont": 7694,
  "-": 7106,
  "avec": 6530,
  ";": 6425,
  "qui": 6173,
  "La": 6156,
  "d’@@": 6008,
  "d'@@": 5209,
  "l’@@": 5138,
  "ne": 5131,
  "sera": 4781,
  "l'@@": 4776,
  "a": 4694,
  "pas": 4622,
  "doit": 4456,
  "seront": 4427,
  "ce": 4011,
  ",": 3754,
  ".": 3632,
  "é": 3253,
  "cas": 3196,
  "-@@": 3161,
  "se": 3150,
  "1": 3114,
  "Maître": 3081,
  "er": 3078,
  "plus": 3056,
  "2": 2991,
  "mise": 2976,
  "travaux": 2861,
  ")": 2861,
  "il": 2837,
  "és": 2778,
  "ces": 2770,
  "tous": 2729,
  "entre": 2727,
  "ée": 2706,
  "doivent": 2660,
  "e,": 2649,
  "toutes": 2562,
  "y": 2538,
  "ées": 2518,
  "été": 2439,
  "d’un": 2397,
  "Il": 2378,
  "son": 2357,
  "3": 2318,
  "devra": 2233,
  "tout": 2213,
  "ses": 2181,
  "e.": 2180,
  "d’une": 2113,
  "leur": 2107,
  "cette": 2059,
  "deux": 2058,
  "A": 2053,
  "DE": 2029,
  "ainsi": 2023,
  "m": 2017,
  "chaque": 2014,
  "prix": 2007,
  "ant": 1990,
  "En": 1979,
  "es,": 1969,
  "type": 1963,
  "M@@": 1960,
  "T@@": 1948,
  "S@@": 1931,
  "sous": 1901,
  "peut": 1885,
  "toute": 1882,
  "B@@": 1878,
  "re@@": 1871,
  "s@@": 1811,
  "système": 1805,
  "sans": 1795,
  "ent": 1785,
  "d'un": 1785,
  "présent": 1782,
  "comme": 1769,
  "C@@": 1768,
  "niveau": 1750,
  "in@@": 1750,
  "soit": 1748,
  "/@@": 1744,
  "«": 1738,
  "A@@": 1738,
  "conformément": 1730,
  "P@@": 1707,
  "si": 1692,
  "béton": 1683,
  "dé@@": 1682,
  "non": 1681,
  "L’@@": 1670,
  "ont": 1659,
  "conditions": 1655,
  "4": 1651,
  "après": 1621,
  "compris": 1600,
  "contrôle": 1592,
  "D@@": 1586,
  "charge": 1568,
  "selon": 1561,
  "partie": 1543,
  "l’Entrepreneur": 1543,
  "Dans": 1542,
  "es.": 1539,
  "Pour": 1539,
  "e": 1529,
  "avant": 1527,
  "projet": 1526,
  "compte": 1521,
  "sa": 1491,
  "autres": 1490,
  "e@@": 1486,
  "t@@": 1476,
  ").": 1465,
  "protection": 1450,
  "F@@": 1448,
  "age": 1443,
  "L@@": 1428,
  "3@@": 1423,
  "équipements": 1417,
  "matériaux": 1409,
  "d'une": 1403,
  "on": 1401,
  "dont": 1388,
  "»": 1387,
  "L'@@": 1385,
  "5": 1381,
  "moins": 1372,
  "d@@": 1365,
  "ation": 1358,
  "zone": 1357,
  "Ce": 1354,
  "N@@": 1354,
  "E@@": 1343,
  "R@@": 1336,
  "nécessaires": 1322,
  "s,": 1320,
  "m@@": 1288,
  "devront": 1284,
  "),": 1278,
  "essais": 1276,
  "n@@": 1273,
  "place": 1272,
  ".@@": 1269,
  "i@@": 1265,
  "l@@": 1261,
  "4@@": 1253,
  "G@@": 1243,
  "2@@": 1233,
  "6": 1230,
  "dispositions": 1229,
  "es": 1225,
  "10": 1224,
  "s": 1211,
  "b@@": 1209,
  "K@@": 1200,
  "fait": 1185,
  "c@@": 1183,
  "même": 1182,
  "1@@": 1178,
  "é,": 1176,
  "construction": 1169,
  "t": 1168,
  "plan": 1151,
  "plans": 1148,
  "rapport": 1147,
  "date": 1143,
  "5@@": 1142,
  "ement": 1130,
  "ouvrages": 1127,
  "où": 1125,
  "œuvre": 1120,
  "pendant": 1117,
  "service": 1117,
  "–": 1116,
  "H@@": 1116,
  "6@@": 1111,
  "réseau": 1110,
  "Un": 1110,
  "s.": 1108,
  "r@@": 1108,
  "suivant": 1102,
  "Ces": 1095,
  "ré@@": 1089,
  "O@@": 1089,
  "éléments": 1081,
  "V@@": 1078,
  "réalisation": 1069,
  "sécurité": 1068,
  "ation,": 1062,
  "g@@": 1060,
  "o@@": 1055,
  "afin": 1048,
  "faire": 1048,
  "Si": 1038,
  "i": 1036,
  "/": 1025,
  "base": 1022,
  "Une": 1014,
  "également": 1012,
  "documents": 1008,
  "mm": 1008,
  "qualité": 1003,
  "é@@": 1001,
  "I@@": 1000,
  "données": 997,
  "eur": 994,
  "Cette": 993,
  "ations": 990,
  "droit": 982,
  "elle": 980,
  "é.": 979,
  "20": 978,
  "mesures": 976,
  "p@@": 960,
  "peuvent": 959,
  "al@@": 956,
  "k@@": 952,
  "%": 952,
  "cours": 951,
  "techniques": 949,
  "o": 946,
  "er,": 943,
  "leurs": 942,
  "jours": 941,
  "age,": 940,
  "contre": 936,
  "en@@": 935,
  "=": 933,
  "000": 926,
  "h@@": 920,
  "pose": 918,
  "demande": 917,
  "ET": 916,
  "produits": 915,
  "site": 914,
  "autre": 913,
  "ement,": 907,
  "fourniture": 906,
  "a@@": 905,
  "frais": 905,
  "7@@": 904,
  "7": 893,
  "transport": 892,
  "tension": 890,
  "montant": 883,
  "cadre": 882,
  "réception": 881,
  "lors": 881,
  "ligne": 872,
  "8": 872,
  "délai": 868,
  "ti@@": 867,
  "al": 867,
  "l'Entrepreneur": 865,
  "pièces": 864,
  "0@@": 860,
  "fonction": 859,
  "era": 857,
  ",@@": 853,
  "valeur": 849,
  "notamment": 847,
  "f@@": 842,
  "mesure": 841,
  "8@@": 836,
  "eaux": 836,
  "is@@": 833,
  "fonctionnement": 833,
  "zones": 831,
  "ar@@": 828,
  "ation.": 827,
  "er@@": 827,
  "és,": 826,
  "ements": 823,
  "période": 821,
  "aussi": 819,
  "ch@@": 816,
  "avoir": 814,
  "durée": 812,
  "mais": 812,
  "travail": 811,
  "\"@@": 807,
  "es@@": 806,
  "an@@": 805,
  "di@@": 800,
  "nombre": 799,
  "présente": 798,
  "ée,": 798,
  "installations": 797,
  "point": 797,
  "marché": 786,
  "surface": 784,
  "garantie": 783,
  "able": 778,
  "50": 770,
  "manière": 770,
  "production": 766,
  "te": 763,
  "titre": 763,
  "DES": 763,
  "L’Entrepreneur": 761,
  "x": 759,
  "or@@": 757,
  "e)": 754,
  "30": 754,
  "nécessaire": 753,
  "ée.": 753,
  "9@@": 752,
  "caractéristiques": 751,
  "pourra": 749,
  "ons": 749,
  "et@@": 748,
  "partir": 748,
  "forme": 747,
  "câbles": 746,
  "ement.": 746,
  "terre": 745,
  "vers": 742,
  "és.": 740,
  "fin": 740,
  "it@@": 737,
  "temps": 734,
  "normes": 733,
  "sol": 733,
  "1.@@": 730,
  "couche": 729,
  "gestion": 728,
  "commande": 718,
  ":@@": 718,
  "chantier": 717,
  "résultats": 717,
  "trois": 716,
  "façon": 716,
  "mis": 716,
  "20@@": 712,
  "15": 710,
  "matériel": 708,
  "2.@@": 707,
  "Figure": 706,
  "lieu": 701,
  "10@@": 700,
  "v@@": 699,
  "Marché": 699,
  "S": 697,
  "parties": 696,
  "câble": 695,
  "E": 695,
  "elles": 695,
  "de@@": 694,
  "suivantes": 693,
  "y@@": 689,
  "ex@@": 688,
  "U@@": 688,
  "qu@@": 684,
  "aires": 683,
  "fournir": 681,
  "C": 679,
  "tableau": 676,
  "0,@@": 674,
  "3.@@": 674,
  "ac@@": 673,
  "électrique": 671,
  "u@@": 671,
  "eurs": 671,
  "ants": 667,
  "eau": 666,
  "z@@": 662,
  "et/ou": 662,
  "technique": 660,
  "aire": 659,
  "d’eau": 658,
  "T": 658,
  "ages": 657,
  "Tous": 656,
  "on@@": 655,
  "maître": 650,
  "exigences": 649,
  "position": 648,
  "EN": 646,
  "ées,": 644,
  "qu’il": 644,
  "différents": 644,
  "@@": 643,
  "bonne": 643,
  "bien": 643,
  "Des": 643,
  "personnel": 642,
  "+": 640,
  "im@@": 639,
  "s’@@": 636,
  "permettre": 636,
  "ag@@": 636,
  "el@@": 634,
  "ées.": 628,
  "tes": 626,
  "sujétions": 625,
  "x@@": 623,
  "prendre": 622,
  "co@@": 622,
  "D": 619,
  "Tableau": 617,
  "ant@@": 617,
  "prise": 617,
  "at@@": 615,
  "age.": 615,
  "charges": 613,
  "pression": 613,
  "ale": 613,
  "9": 612,
  "nous": 609,
  "4.@@": 609,
  "services": 607,
  "capacité": 607,
  "ables": 605,
  "tenu": 602,
  "ou@@": 601,
  "informations": 600,
  "nature": 598,
  "as@@": 596,
  "minimum": 592,
  "vi@@": 591,
  "phase": 590,
  "l’exécution": 589,
  "section": 588,
  "J@@": 587,
  "assurer": 585,
  "200@@": 585,
  "l’Ouvrage": 584,
  "hauteur": 583,
  "points": 582,
  "état": 581,
  "mois": 578,
  "cm": 577,
  "opérations": 576,
  "ni": 575,
  "tant": 575,
  "très": 574,
  "suivants": 574,
  "ayant": 574,
  "conception": 572,
  "norme": 571,
  "cet": 569,
  "con@@": 568,
  "100": 567,
  "lui": 566,
  "s'@@": 564,
  "tr@@": 564,
  "d": 563,
  "I": 561,
  "poste": 557,
  "par@@": 556,
  "ite": 555,
  "er.": 554,
  "5.@@": 554,
  "w@@": 553,
  "B": 553,
  "résistance": 553,
  "am@@": 553,
  "calcul": 550,
  "que,": 550,
  "•": 550,
  "développement": 547,
  "mètre": 544,
  "étant": 543,
  "courant": 543,
  "14@@": 543,
  "per@@": 543,
  "P": 541,
  "R": 541,
  "moyen": 541,
  "st@@": 540,
  "j@@": 539,
  "acier": 538,
  "plusieurs": 537,
  "groupe": 536,
  "Fourniture": 536,
  "li@@": 535,
  "jour": 535,
  "sur@@": 534,
  "W@@": 534,
  "F/P": 534,
  "puissance": 534,
  "contrat": 533,
  "réserve": 532,
  "ol@@": 532,
  "De": 530,
  "n’est": 530,
  "permettant": 528,
  "aura": 527,
  "+@@": 527,
  "température": 526,
  "Z@@": 526,
  "long": 526,
  "vue": 525,
  "Au": 524,
  "traitement": 524,
  "comprend": 524,
  "ér@@": 523,
  "F": 521,
  "ri@@": 521,
  "ante": 519,
  "taux": 519,
  "IN@@": 518,
  "au@@": 516,
  "fois": 515,
  "a,": 515,
  "risques": 513,
  "kV": 513,
  "l": 512,
  "ci@@": 512,
  "_@@": 511,
  "spécifications": 511,
  "12@@": 510,
  "L": 510,
  "ts": 509,
  "el": 508,
  "lorsque": 508,
  "donc": 508,
  "\"": 506,
  "disposition": 504,
  "tion,": 504,
  "?": 503,
  "re,": 500,
  "c": 500,
  "longueur": 498,
  "aire,": 498,
  "stockage": 497,
  "concernant": 495,
  "moyens": 495,
  "mettre": 495,
  "limite": 494,
  "conformité": 494,
  "l’ensemble": 494,
  "bi@@": 492,
  "ateur": 492,
  "eur,": 492,
  "supérieure": 489,
  "25": 489,
  "règles": 489,
  "faut": 488,
  "Article": 488,
  "ité": 488,
  "conforme": 486,
  "aucun": 486,
  "référence": 486,
  "ent@@": 485,
  "droits": 485,
  "pré@@": 485,
  "40": 483,
  "12": 482,
  "ant,": 481,
  "soumis": 481,
  "re": 480,
  "M": 479,
  "dis@@": 479,
  "dispositif": 479,
  "études": 478,
  "ie": 478,
  "systèmes": 477,
  "L'Entrepreneur": 476,
  "13@@": 475,
  "pays": 474,
  "l'exécution": 474,
  "ab@@": 474,
  "du@@": 474,
  "dossier": 473,
  "ans": 473,
  "V": 473,
  "utilisés": 472,
  "00@@": 472,
  "distribution": 471,
  "ét@@": 471,
  "Toutes": 469,
  "r": 468,
  "u": 466,
  "valeurs": 466,
  "eux": 466,
  "Ils": 466,
  "activités": 464,
  "fi@@": 464,
  "voie": 464,
  "depuis": 464,
  "60": 464,
  "joints": 463,
  "ap@@": 462,
  "paiement": 460,
  "50@@": 459,
  "prises": 458,
  "è@@": 458,
  "si@@": 457,
  "1,": 455,
  "celles": 454,
  "travaux,": 453,
  "aire.": 453,
  "l’article": 452,
  "ait": 451,
  "permet": 451,
  "électriques": 451,
  "0": 450,
  "part": 450,
  "total": 448,
  "LA": 448,
  "prévues": 446,
  "montage": 446,
  "présence": 446,
  "mode": 445,
  "an": 445,
  "liste": 444,
  "celle": 444,
  "personne": 444,
  "n": 443,
  "raccordement": 443,
  "réaliser": 443,
  "document": 442,
  "donner": 442,
  "différentes": 442,
  "lignes": 442,
  "locaux": 441,
  "CA@@": 440,
  "In@@": 440,
  "modèle": 440,
  "ad@@": 440,
  "moyenne": 440,
  "vigueur": 440,
  "ils": 439,
  "s)": 439,
  "prescriptions": 439,
  "DU": 439,
  "Con@@": 439,
  "offre": 437,
  "réseaux": 436,
  "1.": 436,
  "prévu": 436,
  "produit": 435,
  "l’Autorité": 434,
  "Société": 434,
  "em@@": 434,
  "remise": 434,
  "15@@": 433,
  "fin@@": 433,
  "inter@@": 432,
  "60@@": 431,
  "ES": 431,
  "ance": 431,
  "Elle": 430,
  "distance": 430,
  "me": 430,
  "d'eau": 430,
  "choix": 429,
  "procédure": 428,
  "personnes": 428,
  "maximum": 428,
  "d’exécution": 428,
  "matière": 428,
  "tu@@": 427,
  "pouvoir": 426,
  "ales": 425,
  "É@@": 424,
  "Projet": 424,
  "haute": 424,
  "qu'il": 423,
  "prestations": 421,
  "société": 421,
  "X@@": 420,
  "programme": 420,
  "centrale": 420,
  "RE@@": 417,
  ")@@": 417,
  "sou@@": 417,
  "ques": 416,
  "ni@@": 415,
  "LE": 415,
  "oc@@": 415,
  "2,": 414,
  "ceux": 412,
  "00": 412,
  "om@@": 411,
  "sauf": 410,
  "30@@": 410,
  "circulation": 409,
  "tri@@": 408,
  "16@@": 407,
  "dépôt": 407,
  "possible": 406,
  "terrain": 406,
  "conformes": 405,
  "port": 405,
  "général": 405,
  "première": 405,
  "N": 404,
  "responsable": 404,
  "ers": 403,
  "2.": 402,
  "vitesse": 402,
  "obligations": 402,
  "MA@@": 402,
  "débit": 402,
  "modification": 402,
  "in": 401,
  "route": 401,
  "Y@@": 401,
  "entreprises": 400,
  "diamètre": 399,
  "appareils": 399,
  "TI@@": 399,
  "aucune": 398,
  "op@@": 398,
  "application": 397,
  "vous": 397,
  "concerne": 397,
  "actions": 396,
  "AN@@": 395,
  "AR@@": 395,
  "des@@": 395,
  "e-@@": 394,
  "tels": 394,
  "le@@": 394,
  "accord": 393,
  "support": 392,
  "etc.": 392,
  "matériels": 392,
  "pa@@": 391,
  "fabrication": 391,
  "contractante": 390,
  "inférieure": 390,
  "1,@@": 390,
  "éviter": 390,
  "19@@": 389,
  "lot": 389,
  "0.@@": 389,
  "ique": 388,
  "ence": 388,
  "Par": 388,
  "16": 387,
  "aires,": 387,
  "eurs,": 385,
  "re.": 385,
  "Chaque": 384,
  "11": 384,
  "com@@": 384,
  "volume": 384,
  "eur.": 384,
  "Section": 384,
  "the": 383,
  "sortie": 383,
  "structure": 383,
  "maximale": 382,
  "201@@": 381,
  "responsabilité": 381,
  "directement": 380,
  "voies": 380,
  "ère": 380,
  "cas,": 380,
  "us@@": 378,
  "(1@@": 377,
  "salle": 376,
  "il@@": 376,
  "prévus": 376,
  "SI@@": 376,
  "l’objet": 375,
  "relatives": 375,
  "réalisés": 375,
  "car@@": 375,
  "pris": 375,
  "défaut": 375,
  "Q@@": 374,
  "sous-@@": 374,
  "Contractant": 374,
  "On": 374,
  "tel": 374,
  "l’ouvrage": 373,
  "h": 372,
  "d'exécution": 372,
  "suite": 372,
  "paragraphe": 371,
  "travaux.": 371,
  "n’@@": 370,
  "tion.": 370,
  "n'est": 370,
  "ation@@": 369,
  "te@@": 368,
  "hors": 367,
  "O": 367,
  "niveaux": 367,
  "al,": 366,
  "av@@": 366,
  "alors": 365,
  "Dé@@": 365,
  "eur@@": 364,
  "ciment": 364,
  "méthode": 363,
  "ro@@": 362,
  "1-@@": 362,
  "soient": 362,
  "ine": 361,
  "risque": 361,
  "EN@@": 361,
  "ères": 360,
  "coûts": 359,
  "ver@@": 359,
  "travers": 359,
  "pl@@": 359,
  "tions": 359,
  "TE": 359,
  "18@@": 358,
  "Travaux": 358,
  "celui": 358,
  "ser@@": 358,
  "local": 358,
  "égale": 358,
  "t,": 357,
  "ités": 357,
  "n°": 356,
  "situation": 355,
  "ec@@": 354,
  "6.@@": 354,
  "telle": 354,
  "supérieur": 354,
  "ations,": 354,
  "ant.": 354,
  "25@@": 353,
  "17@@": 353,
  "100@@": 353,
  "coût": 352,
  "totale": 352,
  "cr@@": 352,
  "Partie": 351,
  "dispositifs": 351,
  "besoins": 351,
  "gaz": 351,
  "largeur": 350,
  "l'ouvrage": 350,
  "armé": 350,
  "ON@@": 350,
  "compter": 349,
  "is": 349,
  "poids": 349,
  "Soumissionnaire": 348,
  "(P@@": 348,
  "exécution": 348,
  "es)": 348,
  "of": 348,
  "nouveau": 346,
  "réalisé": 346,
  "conduite": 346,
  "formation": 346,
  "euse": 346,
  "ot@@": 346,
  "porte": 345,
  "14": 345,
  "a.": 345,
  "moment": 344,
  "port@@": 344,
  "m.": 344,
  "sites": 343,
  "fera": 343,
  "pro@@": 342,
  "PA@@": 342,
  "ents": 342,
  "vie": 341,
  "jusqu'à": 341,
  "jusqu’à": 340,
  "bâtiment": 340,
  "sens": 339,
  "su@@": 339,
  "cu@@": 339,
  "gr@@": 338,
  "80": 338,
  "1/@@": 338,
  "dimensions": 338,
  "Après": 337,
  "types": 337,
  "public": 337,
  "premier": 336,
  "l'ensemble": 336,
  "24": 336,
  "Lorsque": 335,
  "500": 335,
  "véhicules": 335,
  "us": 335,
  "ants,": 334,
  "maintenance": 334,
  "ob@@": 334,
  "marchés": 334,
  "passage": 334,
  "ER@@": 333,
  "corps": 333,
  "min@@": 333,
  "l’eau": 333,
  "d’ex@@": 333,
  "critères": 333,
  "199@@": 332,
  "g": 332,
  "rés": 332,
  "al.": 332,
  "groupes": 332,
  "secteur": 332,
  "limites": 331,
  "revêtement": 331,
  "ale,": 331,
  "7.@@": 330,
  "contact": 329,
  "Sur": 329,
  "».": 328,
  "offres": 327,
  "surfaces": 327,
  "joint": 327,
  "effectués": 327,
  "fixation": 326,
  "Plan": 326,
  "3.": 326,
  "ité,": 326,
  "que.": 324,
  "Code": 324,
  "Ex@@": 323,
  "res,": 323,
  "res.": 322,
  "et,": 322,
  "profil": 322,
  "trans@@": 320,
  "l’Ingénieur": 320,
  "station": 320,
  "ers,": 320,
  "iss@@": 320,
  "ent,": 319,
  "panneaux": 319,
  "cuivre": 319,
  "suivi": 319,
  "certains": 319,
  "ai@@": 319,
  "profondeur": 319,
  "all@@": 318,
  "termes": 318,
  "vérifier": 318,
  "correspondant": 318,
  "eu@@": 318,
  "laquelle": 317,
  "côté": 317,
  "déchets": 317,
  "U": 317,
  "13": 317,
  "d’œuvre": 316,
  "CO@@": 316,
  "présenter": 315,
  "antes": 315,
  "bon": 315,
  "=@@": 315,
  "(": 314,
  "recherche": 314,
  "durant": 314,
  "aux,": 313,
  "sols": 313,
  "utilisé": 312,
  "TION": 312,
  "rée": 312,
  "gu@@": 312,
  "eront": 312,
  "IS@@": 312,
  "e;": 311,
  "onn@@": 311,
  "40@@": 311,
  "structures": 311,
  "classe": 310,
  "l’offre": 310,
  "postes": 310,
  "Re@@": 310,
  "at": 309,
  "chapitre": 309,
  "respect": 309,
  "n°@@": 309,
  "ateurs": 308,
  "fond": 308,
  "vent": 308,
  "couches": 308,
  "d’autres": 308,
  "'@@": 308,
  "cinq": 307,
  "ites": 307,
  "X": 307,
  "CI@@": 307,
  "minimale": 307,
  "22@@": 307,
  "Contrat": 306,
  "TA@@": 306,
  "n'@@": 305,
  "ements,": 305,
  "domaine": 304,
  "ARTICLE": 304,
  "générale": 304,
  "quantité": 304,
  "ue": 303,
  "respecter": 303,
  "SA@@": 303,
  "devant": 303,
  "particulier": 302,
  "installation": 302,
  "retour": 302,
  "inférieur": 302,
  "pourront": 301,
  "4-@@": 300,
  "and": 300,
  "Marché,": 300,
  "ement@@": 299,
  "portant": 299,
  "tenir": 299,
  "H": 299,
  "cl@@": 299,
  "cent": 299,
  "els": 298,
  "vérification": 298,
  "soumissionnaire": 298,
  "G": 298,
  "br@@": 298,
  "f": 298,
  "procédures": 298,
  "supports": 298,
  "Pro@@": 297,
  "prévue": 297,
  "préalable": 296,
  "mètres": 296,
  "res@@": 296,
  "aires.": 295,
  "EC@@": 295,
  "ten@@": 295,
  "ances": 295,
  "ter": 295,
  "effet": 295,
  "(1)": 295,
  "définies": 295,
  "transformateur": 295,
  "notification": 295,
  "ss@@": 295,
  "éventuellement": 295,
  "tique": 295,
  "contrôles": 295,
  "ez": 294,
  "m,": 294,
  "res": 294,
  "po@@": 293,
  "ques,": 293,
  "votre": 293,
  "9.@@": 293,
  "p": 293,
  "nom": 292,
  "ment": 292,
  "accessoires": 291,
  "réglage": 291,
  "environ": 290,
  "1)": 290,
  "objet": 290,
  "début": 290,
  "(C@@": 288,
  "fil@@": 288,
  "mes": 288,
  "chacun": 287,
  "l'article": 287,
  "bassin": 287,
  "CP@@": 287,
  "faible": 286,
  "écrit": 286,
  "DA@@": 286,
  "règlement": 286,
  "essai": 286,
  "tion@@": 286,
  "cela": 286,
  "dernier": 285,
  "délais": 285,
  "dès": 285,
  "marchandises": 285,
  "raison": 285,
  "ale.": 285,
  "mar@@": 285,
  "18": 284,
  "représentant": 284,
  "80@@": 284,
  "el,": 283,
  "2)": 283,
  "L’ENTREPRENEUR": 282,
  "réglementation": 282,
  "ell@@": 282,
  "PR@@": 282,
  "cré@@": 282,
  "liés": 282,
  "l’entreprise": 282,
  "masse": 282,
  "mo@@": 281,
  "Nous": 281,
  "propres": 281,
  "conducteurs": 281,
  "alis@@": 280,
  "for@@": 280,
  "lu@@": 280,
  "d’exploitation": 279,
  "consommation": 279,
  "bar@@": 279,
  "ages,": 278,
  "(voir": 278,
  "lieux": 278,
  "Ch@@": 278,
  "D'@@": 278,
  "Tout": 277,
  "décision": 277,
  "siège": 277,
  "grande": 277,
  "peinture": 277,
  "ES@@": 276,
  "DI@@": 276,
  "direction": 276,
  "N°": 276,
  "mi@@": 276,
  "pi@@": 275,
  "24@@": 275,
  "quantités": 275,
  "isation": 275,
  "connexion": 275,
  "pouvant": 274,
  "l’in@@": 274,
  "LI@@": 274,
  "effets": 274,
  "accès": 274,
  "3-@@": 273,
  "détails": 273,
  "ter@@": 273,
  "signalisation": 273,
  "2,@@": 272,
  "2-@@": 272,
  "fournis": 272,
  "indications": 272,
  "DE@@": 272,
  "projets": 272,
  "ir@@": 272,
  "Contrôle": 272,
  "code": 271,
  "réalisée": 271,
  "form@@": 271,
  "ci-après": 271,
  "cour@@": 270,
  "28": 270,
  "composants": 270,
  "exécutés": 269,
  "chaussée": 269,
  "circuit": 269,
  "double": 269,
  "ing": 269,
  "ca@@": 269,
  "projet.": 268,
  "terme": 268,
  "man@@": 268,
  "Dossier": 267,
  "métallique": 267,
  "vis@@": 267,
  "t.": 267,
  "LA@@": 267,
  "étude": 266,
  "31": 266,
  "CH@@": 266,
  "Constructeur": 266,
  "perte": 266,
  "lo@@": 266,
  "CEI": 266,
  "métalliques": 266,
  "19": 265,
  "calculs": 265,
  "tiques": 264,
  "d'ex@@": 264,
  "rel@@": 263,
  "font": 262,
  "heures": 262,
  "3,": 262,
  "propriété": 261,
  "RA@@": 261,
  "paramètres": 261,
  "km": 261,
  "EX@@": 260,
  "telles": 260,
  "d’ouvrage": 260,
  "70": 260,
  "17": 260,
  "certaines": 259,
  "on,": 259,
  "région": 259,
  "ère,": 259,
  "modalités": 259,
  "communication": 258,
  "200": 258,
  "(2)": 258,
  "MAITRE": 258,
  "ég@@": 258,
  "relatifs": 258,
  "°C": 257,
  "suit": 257,
  "o-@@": 257,
  "rer": 257,
  "Marché.": 257,
  "8.@@": 256,
  ");": 256,
  "ance,": 256,
  "ill@@": 256,
  "surveillance": 255,
  "centre": 255,
  "peu": 255,
  "pompe": 255,
  "l’A@@": 255,
  "tion": 255,
  "able.": 254,
  "d’in@@": 254,
  "matériau": 254,
  "principaux": 254,
  "complète": 254,
  "principal": 254,
  "as": 254,
  "serait": 254,
  "ensemble": 254,
  "processus": 253,
  "dou@@": 253,
  "livraison": 253,
  "dix": 253,
  "face": 253,
  "e).": 253,
  "ette": 252,
  "it": 252,
  "ques.": 252,
  "puis": 252,
  "alisation": 252,
  "CON@@": 252,
  "automatique": 252,
  "prévoir": 251,
  "auprès": 251,
  "te,": 251,
  "En@@": 251,
  "tenue": 251,
  "ci-dessus": 251,
  "laboratoire": 250,
  "démarrage": 250,
  "(S@@": 250,
  "contraintes": 249,
  "procéder": 249,
  "l'eau": 249,
  "reste": 249,
  "Toute": 249,
  "échantillons": 249,
  "articles": 249,
  "its": 248,
  "seul": 248,
  "déjà": 248,
  "ressources": 248,
  "épaisseur": 248,
  "teneur": 248,
  "bou@@": 248,
  "ente": 247,
  "ci-dessous": 247,
  "applicables": 247,
  "vertu": 247,
  "proximité": 246,
  "fréquence": 246,
  "voir": 246,
  "aval": 246,
  "ité.": 246,
  "import@@": 245,
  "relative": 245,
  "rées": 245,
  "réalisées": 245,
  "fondation": 245,
  "TS": 245,
  "elle,": 245,
  "ations.": 245,
  "anti@@": 244,
  "auront": 244,
  "ir": 244,
  "quatre": 244,
  "%)": 244,
  "à@@": 244,
  "tiers": 244,
  "(ou": 244,
  "équipé": 244,
  "établi": 244,
  "limit@@": 244,
  "ess@@": 244,
  "but": 244,
  "LES": 244,
  "biens": 243,
  "fournitures": 243,
  "th@@": 243,
  "l'Ouvrage": 243,
  "années": 243,
  "OU@@": 243,
  "’@@": 242,
  "effectué": 242,
  "économique": 242,
  "bois": 242,
  "liées": 242,
  "cou@@": 242,
  "effectuer": 241,
  "ales,": 241,
  "a)": 240,
  "iques": 240,
  "pr@@": 240,
  "D’@@": 240,
  "ellement": 240,
  "end@@": 240,
  "un@@": 240,
  "était": 240,
  "sable": 240,
  "mises": 239,
  "dommages": 239,
  "d’Ouvrage": 239,
  "én@@": 239,
  "bâtiments": 239,
  "(B@@": 239,
  "ang@@": 239,
  "échéant,": 239,
  "fonds": 239,
  "utiliser": 238,
  "PI@@": 238,
  "stabilité": 238,
  "établissements": 238,
  "21": 237,
  "phases": 237,
  "tions,": 237,
  "b": 236,
  "nouvelle": 236,
  "»,": 236,
  "Système": 236,
  "mêmes": 235,
  "Cahier": 235,
  "Elles": 235,
  "source": 235,
  "nouveaux": 235,
  "préparation": 234,
  "Mise": 234,
  "l'ex@@": 234,
  "l'objet": 234,
  "faisant": 234,
  "Ré@@": 234,
  "série": 234,
  "22": 234,
  "santé": 234,
  "conducteur": 234,
  "fondations": 234,
  "possibilité": 233,
  "té": 233,
  "ain@@": 233,
  "impacts": 233,
  "abilité": 233,
  "À": 232,
  "tif": 232,
  "ens": 232,
  "égal": 232,
  "changement": 232,
  "ce,": 232,
  "…": 232,
  "pour@@": 232,
  "indiqué": 232,
  "Avant": 232,
  "rémunère": 231,
  "fins": 231,
  "ordre": 231,
  "s’il": 231,
  "cal@@": 231,
  "able,": 231,
  "bas@@": 231,
  "ent.": 231,
  "MO@@": 231,
  "OR@@": 231,
  "donné": 230,
  "cul@@": 230,
  "couleur": 230,
  "liaison": 230,
  "300": 230,
  "AC@@": 230,
  "matières": 230,
  "fourniture,": 229,
  "EMENT": 229,
  "um": 229,
  "3)": 229,
  "hydro@@": 229,
  "haut": 228,
  "eurs.": 228,
  "sub@@": 227,
  "loi": 227,
  "barres": 227,
  "ati@@": 227,
  "l’Entrepreneur,": 227,
  "figure": 227,
  "résultant": 227,
  "se@@": 227,
  "encore": 226,
  "permis": 226,
  "ise": 226,
  "is,": 226,
  "erie": 226,
  "ble": 225,
  "ass@@": 225,
  "la@@": 225,
  "C.": 225,
  "nettoyage": 225,
  "bl@@": 225,
  "méthodes": 225,
  "exemple": 225,
  "BA@@": 224,
  "oi@@": 224,
  "Prix": 224,
  "efforts": 224,
  "Annexe": 224,
  "marche": 224,
  "ER": 224,
  "cause": 224,
  "%.": 224,
  "garantir": 224,
  "de,": 223,
  "d’appel": 223,
  "ais": 223,
  "(T@@": 223,
  "ines": 223,
  "pont": 222,
  "condition": 222,
  "principales": 222,
  "modifications": 222,
  "retenue": 222,
  "abl@@": 222,
  "bu@@": 222,
  "action": 222,
  "complet": 222,
  "aient": 221,
  "garde": 221,
  "particulières": 221,
  "N°@@": 221,
  "publics": 221,
  "°": 221,
  "ais@@": 221,
  "membres": 220,
  "bureau": 220,
  "toujours": 220,
  "(en": 220,
  "ur@@": 219,
  "gar@@": 219,
  "vanne": 219,
  "millions": 219,
  "d’accès": 219,
  "VI@@": 219,
  "n’a": 219,
  "AP@@": 219,
  "provisoire": 219,
  "détail": 219,
  "tenant": 218,
  "mer": 218,
  "ma@@": 218,
  "l’installation": 218,
  "dimensionnement": 218,
  "90": 218,
  "/0@@": 218,
  "drainage": 217,
  "tre": 217,
  "mécanique": 217,
  "s-@@": 217,
  "engins": 217,
  "5-@@": 217,
  "projet,": 217,
  "PRO@@": 216,
  "obtenir": 216,
  "basse": 216,
  "ure": 216,
  "l’ex@@": 216,
  "interne": 216,
  "emb@@": 216,
  "issement": 215,
  "transformateurs": 215,
  "définis": 215,
  "400": 215,
  "so@@": 215,
  "to": 215,
  "note": 214,
  "régime": 214,
  "e:": 214,
  "clause": 214,
  "col@@": 214,
  "utilis@@": 214,
  "d’offres": 214,
  "équipement": 214,
  "*@@": 214,
  "TE@@": 214,
  "requis": 214,
  "dépenses": 214,
  "marché.": 213,
  "exécuter": 213,
  "etc.)": 213,
  "3,@@": 213,
  "générales": 213,
  "taxes": 213,
  "(M@@": 213,
  "solution": 213,
  "chantier,": 212,
  "EL@@": 212,
  "talus": 212,
  "principe": 212,
  "divers": 212,
  "anti-@@": 212,
  "marché,": 211,
  "sions": 211,
  "A,": 211,
  "numéro": 211,
  "MI@@": 210,
  "rou@@": 210,
  "profils": 210,
  "enne": 210,
  "der@@": 210,
  "70@@": 210,
  "faite": 210,
  "les@@": 210,
  "au-dessus": 210,
  "utilisant": 210,
  "Installations": 209,
  "éri@@": 209,
  "transmission": 209,
  "fr@@": 209,
  "45": 209,
  "GE": 209,
  "(s)": 209,
  "remplacement": 209,
  "défauts": 209,
  "k": 209,
  "fication": 209,
  "ats": 208,
  "signature": 208,
  "défini": 208,
  "pièce": 207,
  "tard": 207,
  "propre": 207,
  "pu@@": 207,
  "portes": 207,
  "appar@@": 207,
  "termin@@": 207,
  "procédé": 207,
  "compactage": 207,
  "l’Entrepreneur.": 207,
  "do@@": 206,
  "chargé": 206,
  "sion,": 206,
  "extérieur": 206,
  "copie": 206,
  "jeu": 206,
  "nominale": 206,
  "ins@@": 206,
  "él@@": 206,
  "dés@@": 205,
  "entreprise": 205,
  "por@@": 205,
  "immédiatement": 205,
  "pylônes": 205,
  "publique": 204,
  "«@@": 204,
  "bétons": 204,
  "ants.": 204,
  "installés": 204,
  "pou@@": 204,
  "pourrait": 204,
  "pente": 204,
  "our@@": 204,
  "blocs": 204,
  "reprise": 203,
  "ère.": 203,
  "hi@@": 203,
  "000@@": 203,
  "§": 203,
  "proposition": 203,
  "pied": 203,
  "armatures": 202,
  "unités": 202,
  "catégorie": 202,
  "fournira": 202,
  "élément": 202,
  "és@@": 202,
  "garanties": 202,
  "relatif": 202,
  "désigne": 202,
  "mur": 202,
  "présentation": 202,
  "résultat": 202,
  "satisfaire": 202,
  "198@@": 201,
  "matériaux,": 201,
  "che": 201,
  "indiquées": 201,
  "simple": 201,
  ">": 201,
  "EM@@": 201,
  "remblais": 201,
  "CE": 201,
  "*": 201,
  "l’aide": 201,
  "val@@": 200,
  "CE@@": 200,
  "SE@@": 200,
  "4.": 200,
  "tête": 200,
  "charg@@": 200,
  "tive": 200,
  "ance.": 200,
  "fourni": 200,
  "Clause": 200,
  "l’état": 200,
  "RI@@": 200,
  "tés": 199,
  "analyse": 199,
  "AL@@": 199,
  "linéaire": 199,
  "titulaire": 198,
  "A.": 198,
  "Di@@": 198,
  "alité": 198,
  "suivante": 198,
  "atif": 198,
  "l'in@@": 198,
  "répondre": 198,
  "og@@": 198,
  "W": 197,
  "pylône": 196,
  "elles,": 196,
  "tracé": 196,
  "(à": 196,
  "¨¦@@": 196,
  "dues": 196,
  "portée": 196,
  "5,": 196,
  "notre": 196,
  "&": 196,
  "déterminer": 196,
  "ém@@": 196,
  "ème": 196,
  "fonctionnant": 195,
  "déplacement": 195,
  "ban@@": 195,
  "réservoir": 195,
  "fonctions": 195,
  "mm.": 195,
  "Nord": 195,
  "(D@@": 195,
  "FI@@": 195,
  "E,": 195,
  "situé": 195,
  "mortier": 195,
  "d’alimentation": 195,
  "génér@@": 194,
  "Maitre": 194,
  "d'autres": 194,
  "véhicule": 194,
  "150": 194,
  "enti@@": 194,
  "constitué": 194,
  "ers.": 194,
  "6-@@": 194,
  "rupture": 194,
  "to@@": 194,
  "déclaration": 194,
  "Parties": 194,
  "effet,": 193,
  "sé@@": 193,
  "figurant": 193,
  "ach@@": 193,
  "avis": 193,
  "bo@@": 193,
  "ce@@": 193,
  "principalement": 192,
  "demander": 192,
  "fixé": 192,
  "qu’@@": 192,
  "page": 192,
  "01": 192,
  "circuits": 192,
  "mon@@": 192,
  "bas": 191,
  "coll@@": 191,
  "el.": 191,
  "tableaux": 191,
  "ville": 191,
  "comprenant": 191,
  "d,": 191,
  "l’exploitation": 191,
  "aux.": 191,
  "aire@@": 191,
  "IS": 191,
  "s;": 191,
  "(A@@": 191,
  "eu": 190,
  "sion": 190,
  "suspension": 190,
  "tives": 190,
  "dernière": 190,
  "age@@": 190,
  "ures": 190,
  "vis": 190,
  "Par@@": 190,
  "effectuée": 190,
  "isé": 190,
  "vari@@": 190,
  "tra@@": 190,
  "besoin": 190,
  "cé@@": 190,
  "lequel": 190,
  "centr@@": 190,
  "ative": 189,
  "réalis@@": 189,
  "performance": 189,
  "fl@@": 189,
  "chacune": 189,
  "Com@@": 189,
  "mission": 189,
  "réduction": 189,
  "pompes": 189,
  "isol@@": 189,
  "puits": 189,
  "TR@@": 189,
  "donne": 189,
  "amont": 188,
  "quelle": 188,
  "terres": 188,
  "o,": 188,
  "uni@@": 188,
  "décrit": 188,
  "transfert": 188,
  "ets": 188,
  "35@@": 188,
  "C,": 188,
  "Toutefois,": 188,
  "l’Ingénieur.": 188,
  "murs": 188,
  "á@@": 187,
  "pieux": 187,
  "ches": 187,
  "sections": 187,
  "conven@@": 187,
  "ul@@": 187,
  "ences": 187,
  "éc@@": 187,
  "s).": 187,
  "régulation": 186,
  "aluminium": 186,
  "main": 186,
  "signé": 186,
  "dus": 186,
  "5.": 186,
  "intérieur": 186,
  "coefficient": 186,
  "Titulaire": 186,
  "ante,": 186,
  "int@@": 186,
  "spécifiques": 186,
  "US@@": 186,
  "plus,": 185,
  "10.@@": 185,
  "quelconque": 185,
  "ettes": 185,
  "Spécifications": 185,
  "bande": 185,
  "SO@@": 185,
  "ères,": 185,
  "L’OUVRAGE": 185,
  "eux,": 185,
  "id@@": 185,
  "due": 184,
  "norm@@": 184,
  "celui-ci": 184,
  "thermique": 184,
  "ge": 184,
  "présent@@": 184,
  "force": 184,
  "75": 184,
  "important": 184,
  "donnée": 184,
  "spécifique": 184,
  "bornes": 184,
  "indiquant": 183,
  "fixées": 183,
  "elle.": 183,
  "utilisées": 183,
  "unité": 183,
  "employés": 183,
  "S,": 183,
  "it,": 183,
  "vr@@": 183,
  "soumissionnaires": 183,
  "destinés": 183,
  "fournisseur": 183,
  "inclus": 183,
  "iser": 182,
  "milieu": 182,
  "réserves": 182,
  "groupement": 182,
  "loc@@": 182,
  "l’environnement": 182,
  "POUR": 182,
  "moteur": 182,
  "Co@@": 182,
  "Ac@@": 182,
  "nouvelles": 182,
  "d'in@@": 182,
  "11@@": 181,
  "l’Article": 181,
  "capital": 181,
  "vol@@": 181,
  "chute": 181,
  "!": 181,
  "ed": 181,
  "annexe": 181,
  "ins": 180,
  "az@@": 180,
  "gl@@": 180,
  "mm²": 180,
  "fer@@": 180,
  "Commission": 180,
  "trafic": 180,
  "définie": 180,
  "soumettre": 180,
  "mm,": 180,
  "pon@@": 180,
  "décembre": 180,
  "sommes": 179,
  "iv@@": 179,
  "composition": 179,
  "ist@@": 179,
  "seule": 179,
  "GE@@": 179,
  "détection": 179,
  "autour": 179,
  "dûment": 179,
  "ven@@": 179,
  "dé": 179,
  "provenant": 178,
  "mécaniques": 178,
  "instructions": 178,
  "soumission": 178,
  "dat@@": 178,
  "ues": 178,
  "utilisée": 178,
  "TIONS": 178,
  "secours": 178,
  "l'A@@": 177,
  "%,": 177,
  "euses": 177,
  "â@@": 177,
  "description": 177,
  "remis": 177,
  "tube": 177,
  "4,": 177,
  "Ar@@": 177,
  "HT": 177,
  "hydraulique": 177,
  "ables,": 177,
  "tubes": 177,
  "que@@": 177,
  "or": 176,
  "250": 176,
  "sorte": 176,
  "NO@@": 176,
  "« @@": 176,
  "Sauf": 176,
  "bord": 176,
  "ra": 176,
  "pass@@": 176,
  "3/@@": 176,
  "près": 176,
  "QUE": 175,
  "ci": 175,
  "Pl@@": 175,
  "d.": 175,
  "ST@@": 175,
  "RE": 175,
  "“@@": 175,
  "ON": 175,
  "terminé": 175,
  "d’en@@": 175,
  "notes": 175,
  "PO@@": 175,
  "26@@": 175,
  "deuxième": 174,
  "répartition": 174,
  "approbation": 174,
  "départ": 174,
  "ci-dessus,": 174,
  "mor@@": 174,
  "quant": 174,
  "certificat": 174,
  "contenant": 174,
  "réduire": 174,
  "23": 174,
  "relais": 174,
  "quelques": 174,
  "CONSTRUCTEUR": 174,
  "w": 174,
  "ê@@": 173,
  "Lors": 173,
  "augmentation": 173,
  "tre@@": 172,
  "tionn@@": 172,
  "préciser": 172,
  "11.@@": 172,
  "els,": 172,
  "sup@@": 172,
  "LE@@": 172,
  "susceptibles": 172,
  "2.1": 172,
  "trop": 172,
  "ence,": 171,
  "gé@@": 171,
  "ite,": 171,
  "Qu@@": 171,
  "autoris@@": 171,
  "Essais": 171,
  "35": 171,
  "der": 171,
  "l’étude": 171,
  "Conseil": 171,
  "ren@@": 171,
  "dispose": 171,
  "IP@@": 171,
  "Ministère": 170,
  "continu@@": 170,
  "correspond": 170,
  "visite": 170,
  "dée": 170,
  "l'installation": 170,
  "ales.": 170,
  "SP@@": 170,
  "mé@@": 170,
  "e),": 170,
  "C.@@": 170,
  "chargement": 169,
  "est@@": 169,
  "dr@@": 169,
  "fu@@": 169,
  "pertes": 169,
  "installé": 169,
  "ph@@": 169,
  "module": 169,
  "90@@": 169,
  "trous": 169,
  "5%": 169,
  "os@@": 169,
  "A.@@": 168,
  "seulement": 168,
  "outre,": 168,
  "Chef": 168,
  "Im@@": 168,
  "d'accès": 168,
  "AS@@": 168,
  "no@@": 168,
  "multi@@": 168,
  "d'exploitation": 168,
  "l’intérieur": 168,
  "e.@@": 167,
  "lettre": 167,
  "non-@@": 167,
  "ct@@": 167,
  "b)": 167,
  "terrains": 167,
  "●": 167,
  "équivalent": 167,
  "parois": 167,
  "aine": 167,
  "contr@@": 167,
  "test": 167,
  "usine": 166,
  "dernières": 166,
  "(3)": 166,
  "sign@@": 166,
  "quai": 166,
  "proposé": 166,
  "présentes": 166,
  "six": 166,
  "car": 166,
  "inform@@": 166,
  "construction,": 166,
  "permettra": 166,
  "République": 166,
  "dosé": 166,
  "principale": 166,
  "comptes": 166,
  "activ@@": 166,
  "ables.": 166,
  "nu@@": 166,
  "ie,": 165,
  "existe": 165,
  "Afin": 165,
  "définitive": 165,
  "retard": 165,
  "14.@@": 165,
  "populations": 165,
  "Pré@@": 165,
  "indiqués": 165,
  "TU@@": 165,
  "kg": 165,
  "Inter@@": 165,
  "seraient": 165,
  "ET@@": 164,
  "considéré": 164,
  "panneau": 164,
  "via": 164,
  "27@@": 164,
  "l'état": 164,
  "autant": 164,
  "Banque": 164,
  "recommandations": 164,
  "FA@@": 164,
  "états": 164,
  "qu’ils": 164,
  "parfaitement.": 164,
  "men@@": 164,
  "(y": 164,
  "An@@": 164,
  "z": 164,
  "avons": 164,
  "va": 163,
  "cahier": 163,
  "pourraient": 163,
  "limiter": 163,
  "nes": 163,
  "33@@": 163,
  "ç@@": 163,
  "candidat": 162,
  "BI@@": 162,
  "atteindre": 162,
  "équipés": 162,
  "AU": 162,
  "création": 162,
  "ques@@": 162,
  "équipements,": 162,
  "d'ouvrage": 162,
  "mu@@": 162,
  "autorisation": 162,
  "outils": 162,
  "définir": 162,
  "...": 162,
  "préalablement": 162,
  "s’agit": 162,
  "connaissance": 161,
  "400@@": 161,
  "faciliter": 161,
  "S.": 161,
  "recevoir": 161,
  "remblai": 161,
  "l'aide": 161,
  "applicable": 161,
  "spécification": 161,
  "initi@@": 161,
  "vannes": 161,
  "plaques": 161,
  "somme": 161,
  "T,": 161,
  "uniquement": 161,
  "écr@@": 161,
  "is.": 161,
  "es;": 161,
  "auxiliaires": 160,
  "cité": 160,
  "totalité": 160,
  "rapports": 160,
  "renseignements": 160,
  "potable": 160,
  "Aucune": 160,
  "télé@@": 160,
  "Mar@@": 160,
  "Selon": 160,
  "opér@@": 160,
  "e/@@": 160,
  "Al@@": 159,
  "chantier.": 159,
  "règlements": 159,
  "social": 159,
  "(R@@": 159,
  "Construction": 159,
  "fermeture": 159,
  "finition": 159,
  "supplémentaires": 159,
  "détermin@@": 159,
  "feu": 159,
  "routes": 159,
  "6,@@": 158,
  "courants": 158,
  "CU@@": 158,
  "fiche": 158,
  "l’approbation": 158,
  "définition": 158,
  "atives": 158,
  "éventuels": 158,
  "3.1.@@": 158,
  "l’usine": 158,
  "activité": 158,
  "ons,": 158,
  "payer": 158,
  "contraire": 158,
  "it.": 158,
  "recours": 157,
  "entr@@": 157,
  "(0@@": 157,
  "pe": 157,
  "altern@@": 157,
  "quelque": 157,
  "1000": 157,
  "Au@@": 157,
  "BT": 157,
  "ensuite": 157,
  "proposer": 157,
  "carrières": 157,
  "P.@@": 157,
  "um@@": 157,
  "65": 157,
  "rédu@@": 157,
  "CT@@": 156,
  "dés": 156,
  "utilisation": 156,
  "cin@@": 156,
  "l’entrepreneur": 156,
  "ay@@": 156,
  "coupe": 156,
  "Deux": 156,
  "particulièrement": 156,
  "requises": 156,
  "pli@@": 156,
  "caractère": 156,
  "s'il": 156,
  "propos@@": 156,
  "exploitation": 156,
  "4)": 156,
  "Y": 156,
  "fil": 156,
  "décret": 156,
  "Rapport": 155,
  "entes": 155,
  "comprennent": 155,
  "généralement": 155,
  "cit@@": 155,
  "performances": 155,
  "fixée": 155,
  "bles": 155,
  "II": 155,
  "CR@@": 155,
  "révision": 155,
  "cation": 155,
  ".,": 155,
  "can@@": 155,
  "fac@@": 155,
  "réparation": 155,
  "schéma": 155,
  "ction": 155,
  "K": 154,
  "-0@@": 154,
  "décompte": 154,
  "1er": 154,
  "établis": 154,
  "industri@@": 154,
  "qu'ils": 154,
  "TO@@": 154,
  "ventilation": 154,
  "Techniques": 154,
  "conduites": 154,
  "):": 154,
  "savoir": 154,
  "pal@@": 154,
  "ité@@": 154,
  "tres": 154,
  "fabricant": 153,
  "2018": 153,
  "forte": 153,
  "détaillée": 153,
  "02": 153,
  "sondages": 153,
  "fixe": 153,
  "site,": 153,
  "plein": 153,
  "<": 153,
  "C)": 153,
  "supervision": 153,
  "raisons": 153,
  "fixés": 152,
  "ements.": 152,
  "Mission": 152,
  "navires": 152,
  "PE@@": 152,
  "suffisamment": 152,
  "naturel": 152,
  "cote": 152,
  "Protection": 152,
  "5)": 152,
  "obligatoirement": 152,
  "TES": 152,
  "tes,": 151,
  "i,": 151,
  "ing@@": 151,
  "fournies": 151,
  "marque": 151,
  "lesquels": 151,
  "roch@@": 151,
  "pe@@": 151,
  "constituée": 151,
  "fix@@": 151,
  "post@@": 151,
  "ologie": 151,
  "tou@@": 151,
  "population": 151,
  "maintenir": 151,
  "ain": 151,
  "validité": 151,
  "Ou@@": 151,
  "26": 151,
  "rechange": 151,
  "Service": 151,
  "Béton": 151,
  "28@@": 151,
  "Marchés": 150,
  "tonnes": 150,
  "normal": 150,
  "provisoires": 150,
  "500@@": 150,
  "transport,": 150,
  "ak@@": 150,
  "indication": 150,
  "personn@@": 150,
  "disjoncteur": 150,
  "ation)": 150,
  "ci-dessus.": 150,
  "représent@@": 150,
  "diverses": 150,
  "12.@@": 150,
  "formes": 150,
  "plan@@": 150,
  "financiers": 150,
  "habit@@": 150,
  "ateurs,": 149,
  "janvier": 149,
  "plaque": 149,
  "complémentaires": 149,
  "situés": 149,
  "quement": 149,
  "financement": 149,
  "vigueur.": 149,
  "entièrement": 149,
  "install@@": 149,
  "espaces": 149,
  "ouvrage": 149,
  "présentant": 149,
  "tions.": 149,
  "dur@@": 149,
  "croissance": 149,
  "question": 148,
  "importante": 148,
  "exploit@@": 148,
  "ô@@": 148,
  "fonctionn@@": 148,
  "and@@": 148,
  "sous@@": 148,
  "bétonnage": 148,
  "cor@@": 148,
  "ille": 148,
  "porter": 148,
  "coffrages": 148,
  "m)": 148,
  "aill@@": 148,
  "Conditions": 148,
  "197@@": 148,
  "libre": 148,
  "Cet": 148,
  "eau@@": 148,
  "traction": 148,
  "digue": 148,
  "aux@@": 148,
  "effectu@@": 148,
  "montants": 147,
  "trente": 147,
  "2015": 147,
  "3.1": 147,
  "sol@@": 147,
  "fon@@": 147,
  "NF@@": 147,
  "teur": 147,
  "atten@@": 147,
  "matéri@@": 147,
  "DU@@": 147,
  "poteaux": 147,
  "sein": 147,
  "Clauses": 147,
  "29@@": 147,
  "qu’elle": 146,
  "rés@@": 146,
  "oire": 146,
  "membre": 146,
  "année": 146,
  "France": 146,
  "€": 146,
  "assure": 146,
  "voi@@": 146,
  "ment@@": 146,
  "…)": 146,
  "Date": 146,
  "située": 146,
  "constitue": 146,
  "m3": 146,
  "remplissage": 146,
  "éventuelles": 146,
  "résiliation": 145,
  "grav@@": 145,
  "densité": 145,
  "cro@@": 145,
  "Directeur": 145,
  "EV@@": 145,
  "seuil": 145,
  "ont@@": 145,
  "juin": 145,
  "'": 145,
  "bri@@": 145,
  "ante.": 145,
  "ru@@": 145,
  "tor@@": 145,
  "dépôts": 145,
  "sécurité,": 145,
  "29": 145,
  "tests": 145,
  "sous-traitants": 145,
  "sociétés": 144,
  "es).": 144,
  "mm@@": 144,
  "IR@@": 144,
  "s:": 144,
  "ts,": 144,
  "aff@@": 144,
  "Groupe": 144,
  "dées": 144,
  "ies": 144,
  "bruit": 144,
  "formations": 144,
  "QU@@": 144,
  "ouver@@": 144,
  "AUX": 143,
  "aqu@@": 143,
  "incendie": 143,
  "défaillance": 143,
  "maintien": 143,
  "compression": 143,
  "atifs": 143,
  "ères.": 143,
  "l’ENTREPRENEUR": 143,
  "précis@@": 143,
  "tin@@": 143,
  "ds": 143,
  "d’ac@@": 143,
  "objectifs": 143,
  "ard": 143,
  "a-@@": 143,
  "Est": 143,
  "configuration": 143,
  "l'intérieur": 142,
  "cas@@": 142,
  "permettent": 142,
  "ATION": 142,
  "actu@@": 142,
  "l’utilisation": 142,
  "dent": 142,
  "E-@@": 142,
  "pres@@": 142,
  "Zone": 142,
  "nationale": 142,
  "poly@@": 142,
  "d’air": 142,
  "l’équipement": 142,
  "not@@": 142,
  "pos@@": 142,
  "existant": 142,
  "te.": 142,
  "unitaire": 142,
  "on.": 142,
  "bureaux": 142,
  "d’être": 142,
  "Li@@": 141,
  "/201@@": 141,
  "AU@@": 141,
  "coupure": 141,
  "l'Entrepreneur.": 141,
  "bitume": 141,
  "cube": 141,
  "pol@@": 141,
  "vingt": 141,
  "locales": 141,
  "350": 141,
  "33": 141,
  "outre": 141,
  "d'Ouvrage": 141,
  "préjudice": 141,
  "l’autre": 140,
  "unique": 140,
  "faites": 140,
  "s/@@": 140,
  "l’en@@": 140,
  "oir": 140,
  "boulons": 140,
  "2.2": 140,
  "44@@": 140,
  "GR@@": 140,
  "relation": 140,
  "acteurs": 140,
  "pleine": 140,
  "béton,": 140,
  "détermination": 140,
  "bat@@": 140,
  "agents": 140,
  "ennes": 140,
  "DR@@": 140,
  "éch@@": 140,
  "conten@@": 140,
  "limitée": 140,
  "fier": 140,
  "qu’une": 140,
  "lots": 140,
  "°@@": 140,
  "ouvr@@": 140,
  "lég@@": 139,
  "angle": 139,
  "radi@@": 139,
  "couverture": 139,
  "dehors": 139,
  "béton.": 139,
  "ou,": 139,
  "2/@@": 139,
  "autorités": 139,
  "exclu@@": 139,
  "conserv@@": 139,
  "houle": 139,
  "elles.": 139,
  "tolérances": 139,
  "infrastructures": 139,
  "roches": 139,
  "erreur": 138,
  "32": 138,
  "indiquer": 138,
  "grands": 138,
  "évaluation": 138,
  "présenté": 138,
  "canalisations": 138,
  "l’ordre": 138,
  "article": 138,
  "formule": 138,
  "ME": 138,
  "potentiel": 138,
  "év@@": 138,
  "flux": 138,
  "protéger": 138,
  "At@@": 138,
  "eri@@": 138,
  "log@@": 138,
  "6,": 138,
  "surtout": 138,
  "OP@@": 138,
  "LO@@": 138,
  "poser": 137,
  "aciers": 137,
  "prendra": 137,
  "ens@@": 137,
  "Direction": 137,
  "constituant": 137,
  "installer": 137,
  "mine": 137,
  "ces@@": 137,
  "génie": 137,
  "sources": 137,
  "fouilles": 137,
  "Bordereau": 137,
  "fils": 137,
  "ate": 137,
  "politique": 137,
  ",5": 137,
  "s’applique": 137,
  "q@@": 137,
  "bles,": 137,
  "arr@@": 137,
  "continue": 136,
  "obtenu": 136,
  "alement": 136,
  "air": 136,
  "Type": 136,
  "économiques": 136,
  "autorisé": 136,
  "indique": 136,
  "8,": 136,
  "l'Entrepreneur,": 136,
  "d'œuvre": 136,
  "ne@@": 136,
  "dant": 136,
  "Câble": 136,
  "qu'@@": 136,
  "supplémentaire": 136,
  "6.": 135,
  "lit": 135,
  "ar": 135,
  "plage": 135,
  "associ@@": 135,
  "2.1.@@": 135,
  "PL@@": 135,
  "compt@@": 135,
  "feront": 135,
  "vagues": 135,
  "posé": 135,
  "pan@@": 135,
  "indiquée": 135,
  "eux.": 135,
  "distribu@@": 135,
  "os": 135,
  "donn@@": 135,
  "lesquelles": 135,
  "bus": 135,
  "PVC": 135,
  "acte": 135,
  "SS@@": 134,
  "bouton": 134,
  "tient": 134,
  "demeure": 134,
  "Contrat.": 134,
  "facteur": 134,
  "part,": 134,
  "ig@@": 134,
  "Programme": 134,
  "gros": 134,
  "locale": 134,
  "nappe": 134,
  "mieux": 134,
  "clairement": 134,
  "d’im@@": 134,
  "carte": 133,
  "précision": 133,
  "re)": 133,
  "conseil": 133,
  "site.": 133,
  "mini@@": 133,
  "transmis": 133,
  "ce.": 133,
  "champ": 133,
  "transformation": 133,
  "commun": 133,
  "appel": 133,
  "manutention": 133,
  "tronçon": 133,
  "juillet": 133,
  "ME@@": 133,
  "ouvrages,": 133,
  "Z": 133,
  "%@@": 133,
  "candidats": 133,
  "27": 133,
  "8.": 132,
  "act@@": 132,
  "CLIENT": 132,
  "vente": 132,
  "de.": 132,
  "cobalt": 132,
  "quand": 132,
  "conform@@": 132,
  "isés": 132,
  "atteint": 132,
  "usées": 132,
  "Nombre": 132,
  "pollution": 132,
  "anc@@": 132,
  "armoires": 132,
  "600": 132,
  "occup@@": 132,
  "Vérifier": 132,
  "emplacements": 132,
  "incluant": 132,
  "d'essais": 131,
  "éventuelle": 131,
  "convient": 131,
  "cs": 131,
  "enn@@": 131,
  "intérêts": 131,
  "précise": 131,
  "physique": 131,
  "T.": 131,
  "vibr@@": 131,
  "5/@@": 131,
  "300@@": 131,
  "attribu@@": 131,
  "tique,": 131,
  "assurée": 131,
  "environnement@@": 130,
  "dosage": 130,
  "Réseau": 130,
  "tre,": 130,
  "existants": 130,
  "quer": 130,
  "TER@@": 130,
  "civil": 130,
  "spécifi@@": 130,
  "présentés": 130,
  "ju@@": 130,
  "dépasser": 130,
  "MP@@": 130,
  "entre@@": 130,
  "temporaire": 130,
  "ique,": 130,
  "aliser": 130,
  "ents.": 130,
  "cer@@": 130,
  "mont@@": 130,
  "pes": 130,
  "comportant": 130,
  "techniques,": 130,
  "ouverture": 130,
  "forage": 130,
  "grand": 129,
  "DN": 129,
  "établir": 129,
  "l'établissement": 129,
  "sion@@": 129,
  "quel": 129,
  "déblais": 129,
  "erait": 129,
  "médi@@": 129,
  "extérieure": 129,
  "prévoit": 129,
  "câblage": 129,
  "usage": 129,
  "canal": 129,
  "met@@": 129,
  "03": 129,
  "c’est": 129,
  "réserv@@": 129,
  "n'a": 129,
  "considérée": 129,
  "ités,": 129,
  "graphique": 129,
  "t-@@": 129,
  "d’énergie": 128,
  "schémas": 128,
  "conformer": 128,
  "qualification": 128,
  "tot@@": 128,
  "hydrauliques": 128,
  "Mo@@": 128,
  "ateur,": 128,
  "localisation": 128,
  "assez": 128,
  "revêtements": 128,
  "vérifications": 128,
  "adi@@": 128,
  "ann@@": 128,
  "l'environnement": 128,
  "comprise": 128,
  "rem@@": 128,
  "lib@@": 128,
  "capacités": 128,
  "roul@@": 127,
  "l'entrepreneur": 127,
  "til@@": 127,
  "Cependant,": 127,
  "essentiellement": 127,
  "constructions": 127,
  "St@@": 127,
  "BO@@": 127,
  "s’engage": 127,
  "approuvés": 127,
  "isant": 127,
  "comporte": 127,
  "facteurs": 127,
  "ladite": 127,
  "20.@@": 127,
  "parfaitement": 127,
  "corrosion": 127,
  "mat@@": 127,
  "FCFA": 127,
  "march@@": 127,
  "rejet": 127,
  "oni@@": 127,
  "tabl@@": 127,
  "soins": 127,
  "Technique": 127,
  "C’est": 127,
  "GA@@": 126,
  "l’un": 126,
  "convention": 126,
  "d’A@@": 126,
  "Documents": 126,
  "s'applique": 126,
  "clauses": 126,
  "suffisante": 126,
  "décrites": 126,
  "défini@@": 126,
  "l'entreprise": 126,
  "mobil@@": 126,
  "actionn@@": 126,
  "chantiers": 126,
  "posés": 126,
  "del@@": 126,
  "galerie": 126,
  "annexes": 126,
  "sal@@": 126,
  "fibres": 126,
  "caissons": 126,
  "apporter": 126,
  "puisse": 126,
  "fuite": 125,
  "réunion": 125,
  "trait@@": 125,
  "Montant": 125,
  "composé": 125,
  "rev@@": 125,
  "effectuées": 125,
  "j": 125,
  "fabrication,": 125,
  "protections": 125,
  "contrat.": 125,
  "profilés": 125,
  "l'Ingénieur": 125,
  "3.2": 125,
  "d’essai": 125,
  "manque": 125,
  "met": 125,
  "iter": 125,
  "antes,": 125,
  "cteurs": 125,
  "carrière": 125,
  "Hz": 125,
  "missions": 125,
  "déchargement": 125,
  "échantillon": 125,
  "120": 125,
  "dessus": 125,
  "-1": 125,
  "l'application": 125,
  "tôle": 125,
  "tolérance": 125,
  "ori@@": 124,
  "l'en@@": 124,
  "pré-@@": 124,
  "issant": 124,
  "fond@@": 124,
  "câbl@@": 124,
  "coup@@": 124,
  "dimension": 124,
  "extrémités": 124,
  "ł@@": 124,
  "Ap@@": 124,
  "taille": 124,
  "nie": 124,
  "d’Oeuvre": 124,
  "large": 124,
  "représente": 124,
  "mati@@": 124,
  "S.@@": 124,
  "Candidat": 124,
  "accident@@": 124,
  "respectivement": 124,
  "isée": 124,
  "granulats": 124,
  "tera": 124,
  "d’Œuvre": 124,
  "pourcentage": 124,
  "comman@@": 123,
  "ho@@": 123,
  "ari@@": 123,
  "600@@": 123,
  "issent": 123,
  "bilité": 123,
  "esse": 123,
  "ance@@": 123,
  "spécifiés": 123,
  "toutefois": 123,
  "stations": 123,
  "saison": 123,
  "mélange": 123,
  "Pendant": 123,
  "ents,": 123,
  "turbine": 123,
  "gaz@@": 123,
  "cat@@": 123,
  "Générale": 123,
  "fibre": 123,
  "stipulations": 123,
  "signifie": 123,
  "aut@@": 123,
  "95": 123,
  "document@@": 123,
  "ologique": 123,
  "ailleurs,": 123,
  "hypothèses": 123,
  "...)": 123,
  "d’essais": 123,
  "documentation": 123,
  "analyses": 123,
  "gn@@": 123,
  "Dis@@": 122,
  "T)": 122,
  "souvent": 122,
  "régl@@": 122,
  "direc@@": 122,
  "in,": 122,
  "conn@@": 122,
  "standard": 122,
  "générale,": 122,
  "remettre": 122,
  "ci-dessous.": 122,
  "oul@@": 122,
  "l’analyse": 122,
  "public@@": 122,
  "continu": 122,
  "verticale": 122,
  "bal@@": 122,
  "4,@@": 122,
  "ail@@": 122,
  "ajust@@": 122,
  "prend": 122,
  "plateforme": 122,
  "d’entrée": 122,
  "consiste": 122,
  "soumises": 122,
  "aliment@@": 122,
  "bles.": 122,
  "nécessaire,": 122,
  "déterminée": 122,
  "C-@@": 122,
  "els.": 122,
  "modes": 122,
  "prévention": 122,
  "Tension": 122,
  "construire": 122,
  "23@@": 121,
  "oun@@": 121,
  "nomin@@": 121,
  "nos": 121,
  "agré@@": 121,
  "fer": 121,
  "retenu": 121,
  "éventu@@": 121,
  "stock@@": 121,
  "ier": 121,
  "Centrale": 121,
  "pressions": 121,
  "coffret": 121,
  "constitu@@": 121,
  "montre": 121,
  "débits": 121,
  "dû": 121,
  "contexte": 121,
  "mentionnées": 121,
  "faits": 121,
  "qu’un": 121,
  "associés": 121,
  "le,": 121,
  "–@@": 121,
  "quinze": 121,
  "manœuvre": 121,
  "lié": 121,
  "spéci@@": 121,
  "opérateurs": 121,
  "travail,": 120,
  "l’autorité": 120,
  "positions": 120,
  "globale": 120,
  "800": 120,
  "contacts": 120,
  "assu@@": 120,
  "err@@": 120,
  "ire": 120,
  "organis@@": 120,
  "disponibilité": 120,
  "8-@@": 120,
  "susceptible": 120,
  "externe": 120,
  "sujet": 120,
  "EP@@": 120,
  "parc": 120,
  "commandes": 119,
  "objectif": 119,
  "ev@@": 119,
  "Client": 119,
  "EE": 119,
  "possible,": 119,
  "filtr@@": 119,
  "sh@@": 119,
  "HA@@": 119,
  "financière": 119,
  "Sous": 119,
  "ali@@": 119,
  "rejet@@": 119,
  "Aucun": 119,
  "inf@@": 119,
  "liaisons": 119,
  "fournit": 119,
  "logiciel": 119,
  "élev@@": 119,
  "flu@@": 119,
  "dimensionn@@": 119,
  "aires@@": 119,
  "ances,": 119,
  "compét@@": 119,
  "(par": 119,
  "plans,": 119,
  "procès-verbal": 118,
  "sanitaires": 118,
  "conteneurs": 118,
  "1.1": 118,
  "lim@@": 118,
  "trouve": 118,
  "(10)": 118,
  "précautions": 118,
  "roche": 118,
  "réponse": 118,
  "d’évaluation": 118,
  "sif": 118,
  "problèmes": 118,
  "proposés": 118,
  "”": 118,
  "prix,": 118,
  "investissements": 118,
  "verre": 118,
  "tique.": 118,
  "ty@@": 118,
  "48": 118,
  "grâce": 118,
  "ateur.": 118,
  "sondage": 118,
  "alités": 118,
  "pren@@": 118,
  "rapide": 118,
  "Ad@@": 118,
  "150@@": 118,
  "agréé": 118,
  "électrique,": 117,
  "SU@@": 117,
  "ge@@": 117,
  "des,": 117,
  "disponibles": 117,
  "programmes": 117,
  "me,": 117,
  "(N@@": 117,
  "Lot": 117,
  "55": 117,
  "approuvé": 117,
  "NA@@": 117,
  "produire": 117,
  "dit": 117,
  "Ainsi,": 117,
  "obligation": 117,
  "for": 117,
  "Su@@": 117,
  "Centre": 117,
  "contenu": 117,
  "itu@@": 117,
  "l’énergie": 117,
  "remboursement": 117,
  "P.": 117,
  "ans,": 117,
  "CF@@": 116,
  "HT@@": 116,
  "Voir": 116,
  "Règlement": 116,
  "global": 116,
  "différence": 116,
  "pratiques": 116,
  "l'ordre": 116,
  "fou@@": 116,
  "commerce": 116,
  "7-@@": 116,
  "coul@@": 116,
  "be": 116,
  "dragage": 116,
  "ins,": 116,
  "gisement": 116,
  "conception,": 116,
  "textes": 116,
  "l’une": 116,
  "1,5": 116,
  "vis-à-vis": 116,
  "CM@@": 116,
  "Garantie": 116,
  "110@@": 116,
  "l’entrée": 116,
  "cellules": 116,
  "tiv@@": 116,
  "S)": 116,
  "exécution.": 116,
  "l'agrément": 115,
  "tempor@@": 115,
  "grandes": 115,
  "précisé": 115,
  "statique": 115,
  "dem@@": 115,
  "225": 115,
  "Contrat,": 115,
  "décisions": 115,
  "annex@@": 115,
  "7)": 115,
  "propositions": 115,
  "d’au": 115,
  "pêche": 115,
  "étudi@@": 115,
  "visés": 115,
  "ect@@": 115,
  "je": 115,
  "plafond": 115,
  "équ@@": 115,
  "informer": 115,
  "d’huile": 115,
  "utile": 115,
  "m2": 115,
  "requise": 114,
  "arrêté": 114,
  "registre": 114,
  "ouvert": 114,
  "organes": 114,
  "appliquer": 114,
  "E.": 114,
  "sol,": 114,
  "étrang@@": 114,
  "indu@@": 114,
  "Gestion": 114,
  "l'Etat": 114,
  "neu@@": 114,
  "±": 114,
  "contrat,": 114,
  "emplacement": 114,
  "15.@@": 114,
  "at,": 114,
  "str@@": 114,
  "concern@@": 114,
  "ret@@": 114,
  "tablier": 114,
  "volumes": 114,
  "version": 114,
  "A)": 114,
  "d‘@@": 114,
  "6)": 114,
  "cycle": 113,
  "écrite": 113,
  "manu@@": 113,
  "s’assurer": 113,
  "derniers": 113,
  "fréqu@@": 113,
  "chaînes": 113,
  "service,": 113,
  "celle-ci": 113,
  "eng@@": 113,
  "environnement": 113,
  "RES@@": 113,
  "modifier": 113,
  "anci@@": 113,
  "mesurée": 113,
  "camions": 113,
  "ble,": 113,
  "cli@@": 113,
  "l’air": 113,
  "mention": 113,
  "heure": 113,
  "ris@@": 113,
  "bassins": 113,
  "deman@@": 113,
  "eaux,": 112,
  "bil@@": 112,
  "paiements": 112,
  "ement)": 112,
  "analys@@": 112,
  "•@@": 112,
  "D.": 112,
  "commun@@": 112,
  "produ@@": 112,
  "plate-forme": 112,
  "montage,": 112,
  "tur@@": 112,
  "manuel": 112,
  "détaillé": 112,
  "exemplaires": 112,
  "comp@@": 112,
  "Ouest": 112,
  "attention": 112,
  "placés": 112,
  "retrait": 112,
  "équipée": 112,
  "compact@@": 112,
  "conséquences": 112,
  "l’alimentation": 112,
  "ente,": 112,
  "L.": 112,
  "out@@": 112,
  "CS": 112,
  "propose": 111,
  "machine": 111,
  "roulement": 111,
  "financières": 111,
  ".Le": 111,
  "sécurité.": 111,
  "œuvre,": 111,
  "national": 111,
  "rôle": 111,
  "végét@@": 111,
  "Po@@": 111,
  "refroidissement": 111,
  "ï@@": 111,
  "5,@@": 111,
  "mentionné": 111,
  "existantes": 111,
  "tal@@": 111,
  "36": 111,
  "suffisant": 111,
  "parti@@": 111,
  "planning": 111,
  "dessins": 111,
  "provenance": 111,
  "variante": 111,
  "isées": 111,
  "qué": 111,
  "me.": 111,
  "chaîne": 111,
  "variation": 111,
  "enrochements": 111,
  "4/@@": 111,
  "paroi": 111,
  "épreuves": 110,
  "dalle": 110,
  "présentées": 110,
  "établissement": 110,
  "fonte": 110,
  "D,": 110,
  "calculé": 110,
  "levage": 110,
  "l'utilisation": 110,
  "l'approbation": 110,
  "décharge": 110,
  "format": 110,
  "inclure": 110,
  "portées": 110,
  "unitaires": 110,
  "endroits": 110,
  "critère": 110,
  "reçu": 110,
  "cav@@": 110,
  "1).": 110,
  "les,": 110,
  "impact": 110,
  "Services": 110,
  "indiqu@@": 110,
  "chauff@@": 110,
  "batterie": 110,
  "LIN": 110,
  "électronique": 110,
  "EL": 110,
  "observations": 110,
  "l'exploitation": 110,
  "soumise": 109,
  "oss@@": 109,
  "supérieures": 109,
  "galvanisé": 109,
  "cap@@": 109,
  "contre@@": 109,
  "tour": 109,
  "ici": 109,
  "essais,": 109,
  "2016": 109,
  "transform@@": 109,
  "regard": 109,
  "références": 109,
  "Contr@@": 109,
  "table": 109,
  "l'étude": 109,
  "au-delà": 109,
  "ération": 109,
  "posi@@": 109,
  "rejets": 109,
  "terre,": 109,
  "récupération": 109,
  "traversées": 109,
  "r,": 109,
  "né@@": 109,
  "etc@@": 109,
  "î@@": 109,
  "mes,": 109,
  "d’Appel": 109,
  "support@@": 109,
  "05": 109,
  "tier": 109,
  "rémunération": 109,
  "ani@@": 109,
  "oeuvre": 108,
  "client": 108,
  "vide": 108,
  "consult@@": 108,
  "final": 108,
  "continuité": 108,
  "d’environ": 108,
  "minerai": 108,
  "jeux": 108,
  "signal": 108,
  "enduit": 108,
  "faç@@": 108,
  "devrait": 108,
  "l’habitacle": 108,
  "her@@": 108,
  "situations": 108,
  "l'une": 108,
  "sse": 108,
  "réel": 108,
  "eau.": 108,
  "contrats": 108,
  "ong@@": 108,
  "ceux-ci": 108,
  "clients": 108,
  "constru@@": 108,
  ".Les": 108,
  "‐": 108,
  "évaluer": 108,
  "énergie": 108,
  "l’accès": 108,
  "tensions": 108,
  "l'exercice": 108,
  "ateur@@": 108,
  "l’unité": 108,
  "législation": 108,
  "arri@@": 108,
  "2000": 108,
  "Site": 108,
  "décrits": 108,
  "7,@@": 108,
  "étaient": 108,
  "réglementaires": 108,
  "oirs": 107,
  "9,": 107,
  "opération": 107,
  "l’Ouvrage.": 107,
  "poutres": 107,
  "financi@@": 107,
  "196@@": 107,
  "Général": 107,
  "espace": 107,
  "TOTAL": 107,
  "ine,": 107,
  "fo@@": 107,
  "tionnel": 107,
  "IV@@": 107,
  "naturelle": 107,
  "frais,": 107,
  "Essai": 107,
  "théorique": 107,
  "incorpor@@": 107,
  "charge,": 107,
  "contrôle,": 107,
  "ax@@": 107,
  "atique": 107,
  "es-@@": 107,
  "façade": 107,
  "l’application": 107,
  "ponts": 107,
  "axes": 107,
  "mars": 107,
  "degré": 107,
  "le.": 107,
  "in.": 107,
  "D.@@": 107,
  "relativement": 107,
  "compos@@": 107,
  "niv@@": 106,
  "collec@@": 106,
  "actuelle": 106,
  "e @@": 106,
  "accidents": 106,
  "cô@@": 106,
  "(3@@": 106,
  "sp@@": 106,
  "administratives": 106,
  "att@@": 106,
  "passation": 106,
  "carré": 106,
  "—": 106,
  "aurait": 106,
  "visi@@": 106,
  "sion.": 106,
  "lors@@": 106,
  "tâches": 106,
  "EU@@": 106,
  "concernés": 106,
  "ll@@": 106,
  "ond@@": 106,
  "correspondante": 106,
  "particuli@@": 106,
  "6/@@": 106,
  "propriétés": 106,
  "ef@@": 106,
  "addi@@": 106,
  "Sécurité": 106,
  "(30)": 106,
  "centrales": 105,
  "P,": 105,
  "Loi": 105,
  "similaire": 105,
  "04": 105,
  "utiles": 105,
  "auquel": 105,
  "considérés": 105,
  "L'entrepreneur": 105,
  "(F@@": 105,
  "nord": 105,
  "organisme": 105,
  "bre": 105,
  "chemins": 105,
  "ISO": 105,
  "2020": 105,
  "environnementale": 105,
  "terminal": 105,
  "0,5": 105,
  "Cl@@": 105,
  "contrôler": 105,
  "Comme": 105,
  "(I@@": 105,
  "l’évaluation": 105,
  "alt@@": 105,
  "minér@@": 105,
  "D)": 105,
  "calculée": 105,
  "lois": 105,
  "d’exécution.": 105,
  "Plans": 105,
  "couvrir": 105,
  "an,": 105,
  "sud": 105,
  "instruction": 105,
  "annuel": 105,
  "const@@": 104,
  "TEN@@": 104,
  "che,": 104,
  "émissions": 104,
  "internes": 104,
  "DO@@": 104,
  "age)": 104,
  "particulière": 104,
  "LU@@": 104,
  "coffrage": 104,
  "eau,": 104,
  "d'alimentation": 104,
  "ages.": 104,
  "bru@@": 104,
  "disponible": 104,
  "45@@": 104,
  "pierre": 104,
  "III.@@": 104,
  "4.1": 104,
  "dom@@": 104,
  "ve": 104,
  "intérieure": 104,
  "Per@@": 104,
  "éré@@": 104,
  "fixes": 104,
  "petits": 104,
  "cad@@": 104,
  "cependant": 104,
  "rap@@": 103,
  "Convention": 103,
  "entendu": 103,
  "identifi@@": 103,
  "arm@@": 103,
  "s'engage": 103,
  "Bu@@": 103,
  "superficie": 103,
  "s),": 103,
  "em": 103,
  "spécifiées": 103,
  "sept": 103,
  "lutte": 103,
  "21@@": 103,
  "accor@@": 103,
  "l’axe": 103,
  "primaire": 103,
  "MIN@@": 103,
  "chang@@": 103,
  "oph@@": 103,
  "faces": 103,
  "scénario": 103,
  "qui,": 103,
  "évacu@@": 103,
  "9.": 103,
  "orient@@": 103,
  "fourni@@": 103,
  "édi@@": 103,
  "l’Ouvrage,": 103,
  "projet@@": 103,
  "solutions": 103,
  "ram@@": 103,
  "pointe": 103,
  "peut,": 103,
  "influence": 103,
  "améliorer": 103,
  "7.": 103,
  "muni": 103,
  "L.@@": 103,
  "avantages": 103,
  "qu'un": 103,
  "importants": 103,
  "principes": 103,
  "accept@@": 103,
  "comportement": 103,
  "d’autre": 103,
  "‘@@": 103,
  "Représentant": 103,
  "observ@@": 103,
  "bandes": 102,
  "fiches": 102,
  "tifs": 102,
  "calcul@@": 102,
  "ép@@": 102,
  "démontage": 102,
  "graphi@@": 102,
  "tent": 102,
  "Tr@@": 102,
  "arrêt": 102,
  "que)": 102,
  "d’ar@@": 102,
  "protégés": 102,
  "ajou@@": 102,
  "périmètre": 102,
  "démolition": 102,
  "v": 102,
  "eux@@": 102,
  "spécifié": 102,
  "monnaie": 102,
  "secondaire": 102,
  "hy@@": 102,
  "ecteur": 102,
  "sorties": 102,
  "optique": 102,
  "aménagements": 102,
  "Vi@@": 102,
  "soumissionn@@": 102,
  "exécuté": 102,
  "granul@@": 102,
  "lev@@": 102,
  "autorisations": 102,
  "l’exercice": 102,
  "……@@": 102,
  "lement": 102,
  "l’aménagement": 102,
  "constituer": 102,
  "B,": 102,
  "compren@@": 102,
  "mentionnés": 102,
  "mas@@": 102,
  "règle": 102,
  "déci@@": 102,
  "coordination": 102,
  "plancher": 102,
  "chemin": 102,
  "Niger": 102,
  "(2@@": 102,
  "profit": 102,
  "teurs": 102,
  "asse": 102,
  "7,": 101,
  "L’ensemble": 101,
  "prom@@": 101,
  "constitués": 101,
  "d’œuvre,": 101,
  "conservation": 101,
  "pu": 101,
  "applic@@": 101,
  "estimation": 101,
  "ai": 101,
  "T.@@": 101,
  "explo@@": 101,
  "d’œuvre.": 101,
  "din@@": 101,
  "…@@": 101,
  "stratégie": 101,
  "ez@@": 101,
  "E)": 101,
  "chimiques": 101,
  "réservoirs": 101,
  "Cela": 101,
  "supporter": 101,
  "tes.": 101,
  "batteries": 101,
  "douane": 101,
  "4.2": 101,
  "cri@@": 101,
  "ter,": 101,
  "acc@@": 101,
  "PAR@@": 101,
  "conçu": 101,
  "antes.": 101,
  "(15)": 101,
  "destination": 101,
  "définitif": 101,
  "38@@": 101,
  "Sou@@": 101,
  "signaux": 101,
  "aspects": 101,
  "origin@@": 101,
  "place,": 101,
  "cher": 100,
  "avril": 100,
  "\".": 100,
  "Réalisation": 100,
  "contrainte": 100,
  "(m@@": 100,
  "c)": 100,
  "clôture": 100,
  "17.@@": 100,
  "cuve": 100,
  "jusqu'au": 100,
  "erg@@": 100,
  "Nationale": 100,
  "objets": 100,
  "péri@@": 100,
  "isolation": 100,
  "R.@@": 100,
  "internation@@": 100,
  "ambi@@": 100,
  "fournisseurs": 100,
  "RO@@": 100,
  "rési@@": 100,
  "ture,": 100,
  "crédit": 100,
  "d'épaisseur": 100,
  "assurant": 100,
  "110": 100,
  "ini@@": 100,
  "catégories": 100,
  "sables": 100,
  "ans.": 100,
  "appliquée": 100,
  "l'autre": 100,
  "1.2": 100,
  "sais@@": 100,
  "thèse": 100,
  "demandé": 100,
  "(pour": 100,
  "pla@@": 100,
  "an.": 100,
  "PROJET": 99,
  "dossiers": 99,
  "sabl@@": 99,
  "qu’en": 99,
  "organismes": 99,
  "réhabilitation": 99,
  "2017": 99,
  "（@@": 99,
  "SUR": 99,
  "contrôl@@": 99,
  "sol.": 99,
  "tis@@": 99,
  "8)": 99,
  "jusqu’au": 99,
  "résister": 99,
  "fur": 99,
  "microfinance": 99,
  "contractuelles": 99,
  "qu'une": 99,
  "demande,": 99,
  "l’établissement": 99,
  "2,5": 99,
  "pompage": 99,
  "press@@": 99,
  "condu@@": 99,
  "information": 99,
  "constructeur": 99,
  "l‘@@": 99,
  "températures": 99,
  "disposer": 98,
  "actifs": 98,
  "o.": 98,
  "pluvi@@": 98,
  "semi-@@": 98,
  "tivité": 98,
  "r.": 98,
  "nominal": 98,
  "recouvrement": 98,
  "Produits": 98,
  "jonction": 98,
  "tuyau": 98,
  "concentration": 98,
  "éro@@": 98,
  "colonnes": 98,
  "bordereau": 98,
  "Qualité": 98,
  "terre.": 98,
  "contractu@@": 98,
  "modules": 98,
  "régulièrement": 98,
  "interven@@": 98,
  "tif@@": 98,
  "consultation": 98,
  "proche": 98,
  "B.": 98,
  "hum@@": 98,
  "vu": 98,
  "d’utilisation": 98,
  "L’entreprise": 98,
  "transition": 98,
  "intervention": 98,
  "alimentation": 98,
  "chaud": 98,
  "sous-traitant": 98,
  "reconnaissance": 98,
  "beaucoup": 98,
  "industrielle": 98,
  "caisson": 98,
  "chron@@": 97,
  "BU@@": 97,
  "larg@@": 97,
  "publi@@": 97,
  "finale": 97,
  "géotechniques": 97,
  "nécessaire.": 97,
  "suivantes:": 97,
  "participation": 97,
  "û@@": 97,
  "compens@@": 97,
  "dates": 97,
  "normalement": 97,
  "3.3": 97,
  "one": 97,
  "rouge": 97,
  "group@@": 97,
  "en,": 97,
  "associé": 97,
  "environnementales": 97,
  "actes": 97,
  "its,": 97,
  "liant": 97,
  "compar@@": 97,
  "fau@@": 97,
  "intéress@@": 97,
  "EUR": 97,
  "Fournisseur": 97,
  "territoire": 97,
  "compl@@": 97,
  "ED@@": 97,
  "sem@@": 97,
  "DN@@": 97,
  "situées": 97,
  "justifier": 97,
  "horizontale": 97,
  "préven@@": 97,
  "constitution": 97,
  "calage": 97,
  "minutes": 97,
  "déterminé": 97,
  "perman@@": 97,
  "(G@@": 97,
  "(le": 97,
  "priv@@": 97,
  "sz@@": 97,
  "colonne": 97,
  "veiller": 97,
  "variable": 97,
  "d'im@@": 96,
  "assembl@@": 96,
  "réglement@@": 96,
  "préférence": 96,
  "rayon": 96,
  "d'ancrage": 96,
  "Niveau": 96,
  "ique.": 96,
  "l’exception": 96,
  "RECEPTION": 96,
  "maçonnerie": 96,
  "Règles": 96,
  "Publics": 96,
  "tuyaux": 96,
  "changements": 96,
  "cm.": 96,
  "grille": 96,
  "ze": 96,
  "IL@@": 96,
  "plac@@": 96,
  "ż@@": 96,
  "codes": 96,
  "isme": 96,
  "af@@": 96,
  "ira": 96,
  "pén@@": 96,
  "acceptation": 96,
  "pratique": 96,
  "auxquelles": 96,
  "centres": 96,
  "amen@@": 96,
  "bor@@": 96,
  "pul@@": 96,
  "vers@@": 96,
  "emprunts": 96,
  "na": 96,
  "‐@@": 96,
  "itaire": 96,
  "dit@@": 96,
  "/m@@": 96,
  "tranchée": 96,
  "forages": 95,
  "tir@@": 95,
  "tre.": 95,
  "passe": 95,
  "IE": 95,
  "ports": 95,
  "candidat@@": 95,
  "l’entretien": 95,
  "pri@@": 95,
  "ons.": 95,
  "œuvre.": 95,
  "ence@@": 95,
  "déformation": 95,
  "AL": 95,
  "commune": 95,
  "char@@": 95,
  "ane": 95,
  "protection,": 95,
  "qu'elle": 95,
  "comporter": 95,
  "communi@@": 95,
  "éré": 95,
  "l’ouverture": 95,
  "sti@@": 95,
  "Min@@": 95,
  "tranch@@": 95,
  "m/@@": 95,
  "suc@@": 95,
  "chef": 95,
  "195@@": 95,
  "Transport": 95,
  "MW": 95,
  "liée": 95,
  "fic@@": 95,
  "visu@@": 95,
  "pollu@@": 95,
  "d’électricité": 95,
  "technologie": 95,
  "lavage": 95,
  "dommage": 95,
  "0/@@": 95,
  "che.": 95,
  "événement": 95,
  "verrouillage": 95,
  "Un@@": 95,
  "Installation": 95,
  "automatiquement": 95,
  "arbres": 95,
  "organisation": 95,
  "\",": 95,
  "produc@@": 95,
  "soigneusement": 95,
  "drain@@": 95,
  "alisé": 95,
  "détaill@@": 95,
  "at.": 95,
  "axe": 95,
  "créer": 95,
  "jou@@": 95,
  "reti@@": 95,
  "donnés": 95,
  "échelle": 95,
  "massif": 95,
  "ę@@": 95,
  "37@@": 95,
  "passages": 94,
  "sociales": 94,
  "CCTP": 94,
  "éventuel": 94,
  "minerais": 94,
  "retar@@": 94,
  "administr@@": 94,
  "langue": 94,
  "Exécution": 94,
  "d’assurer": 94,
  "gauche": 94,
  "ouest": 94,
  "évolution": 94,
  "èrent": 94,
  "grès": 94,
  "charge.": 94,
  "n’y": 94,
  "cam@@": 94,
  "Chine": 94,
  "V.": 94,
  "ion@@": 94,
  "l'ar@@": 94,
  "vidange": 94,
  "l’Ingénieur,": 94,
  "étape": 94,
  "consomm@@": 94,
  "visées": 94,
  "major@@": 94,
  "l'équipement": 94,
  "portuaire": 94,
  "quée": 94,
  "apport": 94,
  "payé": 94,
  "d'air": 94,
  "cal": 94,
  "offre,": 94,
  "machines": 94,
  "comité": 94,
  "étanchéité": 94,
  "personnels": 94,
  "ais,": 94,
  "sécur@@": 94,
  "ff@@": 94,
  "Données": 94,
  "atelier": 94,
  "Lors@@": 94,
  "ir,": 94,
  "visé": 94,
  "Comité": 93,
  "majeure": 93,
  "restent": 93,
  "ouvrages.": 93,
  "fouille": 93,
  "fossés": 93,
  "chargée": 93,
  "désigné": 93,
  "événements": 93,
  "approche": 93,
  "éprouvettes": 93,
  "soumettra": 93,
  "sec": 93,
  "T-@@": 93,
  "lieu,": 93,
  "fication,": 93,
  "déplac@@": 93,
  ".)": 93,
  "armoire": 93,
  "normale": 93,
  "travail.": 93,
  "septembre": 93,
  "d'essai": 93,
  "sous-trait@@": 93,
  "tension,": 93,
  "tuyauteries": 93,
  "conçus": 93,
  "u,": 93,
  "ées@@": 93,
  "me@@": 93,
  "util@@": 93,
  "rencontr@@": 93,
  "ces,": 93,
  "vent@@": 93,
  "empêcher": 93,
  "dér@@": 93,
  "compensation": 93,
  "micro@@": 92,
  "hydr@@": 92,
  "respectant": 92,
  "etc.,": 92,
  "(ii)": 92,
  "admissible": 92,
  "L’entrepreneur": 92,
  "numérique": 92,
  "interdit": 92,
  "f.": 92,
  "d’application": 92,
  "25.@@": 92,
  "dynamique": 92,
  "liquid@@": 92,
  "Por@@": 92,
  "salles": 92,
  "l’emprise": 92,
  "preuve": 92,
  "Génér@@": 92,
  "d’entretien": 92,
  "l’achèvement": 92,
  "matériel,": 92,
  "février": 92,
  "i-@@": 92,
  "légèrement": 92,
  "bloc": 92,
  "(i)": 92,
  "navire": 92,
  "destin@@": 92,
  "nation@@": 92,
  "da@@": 92,
  "CCAP": 92,
  "s'agit": 92,
  "Pose": 92,
  "sèche": 92,
  "dessous": 92,
  "Vérification": 92,
  "compatible": 92,
  "CC@@": 92,
  "001": 92,
  "directe": 92,
  "propriétaire": 92,
  "employ@@": 92,
  "assur@@": 92,
  "développer": 92,
  "re-@@": 92,
  "passer": 92,
  "demandes": 92,
  "sous-sol": 92,
  "Lu@@": 92,
  "itation": 91,
  "Note": 91,
  "tuyauterie": 91,
  "pistes": 91,
  "siv@@": 91,
  "destiné": 91,
  "vo@@": 91,
  "nom@@": 91,
  "GU@@": 91,
  "illes": 91,
  "contact@@": 91,
  "angles": 91,
  "ture": 91,
  "traité": 91,
  "différ@@": 91,
  "serrage": 91,
  "prélèvement": 91,
  "détaillées": 91,
  "tôles": 91,
  "75@@": 91,
  "donnant": 91,
  "engagement": 91,
  "courbes": 91,
  "Bureau": 91,
  "prenant": 91,
  "former": 91,
  "d’arrêt": 91,
  "37": 91,
  "riv@@": 91,
  "Trans@@": 91,
  "8/@@": 91,
  "possède": 91,
  "même,": 91,
  "dégradation": 91,
  "s’est": 91,
  "(5)": 91,
  "fascicule": 91,
  "gal@@": 91,
  "considération": 91,
  "évolu@@": 91,
  "jours,": 91,
  "sélection": 91,
  "\\-@@": 91,
  "réduit": 91,
  "d'utilisation": 91,
  "No@@": 91,
  "fixation,": 91,
  "Q": 90,
  "inférieures": 90,
  "sociaux": 90,
  "clé": 90,
  "ges": 90,
  "mobilisation": 90,
  "Ceci": 90,
  "227": 90,
  "l’im@@": 90,
  "atu@@": 90,
  "d’Offres": 90,
  "dépasse": 90,
  "vertical@@": 90,
  "particulier,": 90,
  "gou@@": 90,
  "dangereux": 90,
  "évit@@": 90,
  "mal@@": 90,
  "Pri@@": 90,
  "B)": 90,
  "reprises": 90,
  "d'assurer": 90,
  "option": 90,
  "pai@@": 90,
  "nécessité": 90,
  "agent": 90,
  "Etude": 90,
  "es),": 90,
  "problème": 90,
  "aménag@@": 90,
  "iques,": 90,
  "(V@@": 90,
  "120@@": 90,
  "IP": 90,
  "PLA@@": 90,
  "A-@@": 90,
  "d'au": 90,
  "barrage": 90,
  "exécu@@": 90,
  "ène,": 90,
  "atteinte": 90,
  "maximal": 90,
  "ellement,": 89,
  "causés": 89,
  "Cu@@": 89,
  "m3/@@": 89,
  "ont,": 89,
  "BA": 89,
  "2.2.@@": 89,
  "Conformément": 89,
  "ments": 89,
  "Port": 89,
  "trac@@": 89,
  "situ@@": 89,
  "questions": 89,
  "enregistr@@": 89,
  "délib@@": 89,
  "huit": 89,
  "variantes": 89,
  "aines": 89,
  "déroul@@": 89,
  "lign@@": 89,
  "renforcement": 89,
  "opti@@": 89,
  "bancaire": 89,
  "suivre": 89,
  "l’av@@": 89,
  "d'être": 89,
  "relations": 89,
  "géologique": 89,
  "importantes": 89,
  "M.": 89,
  "ide": 89,
  "pénalités": 89,
  "comprendra": 89,
  "guide": 89,
  "◄": 89,
  "d´@@": 89,
  "EMENTS": 89,
  "arrière": 89,
  "9-@@": 89,
  "transport@@": 89,
  "agissant": 89,
  "d'environ": 89,
  "échéant": 89,
  "entraîner": 89,
  "droite": 89,
  "tenus": 89,
  "kV@@": 89,
  "Chapitre": 89,
  "alisée": 89,
  "sociale": 89,
  "expressément": 89,
  "commande,": 89,
  "ep@@": 89,
  "décrite": 89,
  "préliminaire": 89,
  "en.": 89,
  "électriques,": 89,
  "cartes": 89,
  "iques.": 89,
  "climatiques": 89,
  "aci@@": 89,
  "soudure": 89,
  "l'épaisseur": 88,
  "entrée": 88,
  "38": 88,
  "tiers,": 88,
  "piqu@@": 88,
  "représentants": 88,
  "d'ar@@": 88,
  "physiques": 88,
  "B.@@": 88,
  "méthodologie": 88,
  "ers@@": 88,
  "omètre": 88,
  "ie@@": 88,
  "ée@@": 88,
  "câbles,": 88,
  "wi@@": 88,
  "10%": 88,
  "autorité": 88,
  "traversée": 88,
  "central": 88,
  "toiture": 88,
  "chlor@@": 88,
  "Sud": 88,
  "our": 88,
  "MAÎTRE": 88,
  "oblig@@": 88,
  "instruments": 88,
  "constituent": 88,
  "minimales": 88,
  "rapport@@": 88,
  "Pi@@": 88,
  "révis@@": 88,
  "USD": 88,
  "amb@@": 88,
  "<@@": 88,
  "19.@@": 88,
  "facilement": 88,
  "vigueur,": 88,
  "raccords": 88,
  "’": 88,
  "DD@@": 88,
  "effectivement": 88,
  "culture": 88,
  "prim@@": 88,
  "Equipements": 88,
  "Ma@@": 88,
  "Réception": 88,
  "mouvements": 88,
  "entrer": 88,
  "doit,": 88,
  "Liste": 88,
  "V,": 87,
  "Ag@@": 87,
  "industriel": 87,
  "n’ont": 87,
  "cellule": 87,
  "strictement": 87,
  "travailleurs": 87,
  "étanche": 87,
  "ager": 87,
  "ré.": 87,
  "limitation": 87,
  "tifs,": 87,
  "ie.": 87,
  "peau": 87,
  "Em@@": 87,
  "E.@@": 87,
  "intérêt": 87,
  "modèles": 87,
  "Caractéristiques": 87,
  "limité": 87,
  "duc@@": 87,
  "Dét@@": 87,
  "périodes": 87,
  "commencer": 87,
  "LOT": 87,
  "connaître": 87,
  "es:": 87,
  "marquage": 87,
  "cent@@": 87,
  "acteur": 87,
  "établie": 87,
  "direct": 87,
  "onnement": 87,
  "appliqué": 87,
  "oli@@": 87,
  "nécessaires.": 87,
  "mouvement": 87,
  "ches,": 87,
  "220": 87,
  "ère@@": 87,
  "procédés": 87,
  "ci-après.": 87,
  "précédent@@": 87,
  "joint@@": 87,
  "erre": 87,
  "l'air": 87,
  "TATION": 87,
  "lam@@": 87,
  "déclar@@": 87,
  "pluie": 86,
  "lixiviation": 86,
  "dz@@": 86,
  "repères": 86,
  "mai": 86,
  "rien": 86,
  "exécutées": 86,
  "désign@@": 86,
  "présentent": 86,
  "installées": 86,
  "relevé": 86,
  "arrêt@@": 86,
  "modifié": 86,
  "appareil": 86,
  "longueurs": 86,
  "vapeur": 86,
  "dél@@": 86,
  "sec@@": 86,
  "valid@@": 86,
  "eur)": 86,
  "destinées": 86,
  "douan@@": 86,
  "treillis": 86,
  "lav@@": 86,
  "Pres@@": 86,
  "2).": 86,
  "ré": 86,
  "neuf": 86,
  "qu’elles": 86,
  "OM@@": 86,
  "yl@@": 86,
  "chiffre": 86,
  "épa@@": 86,
  "démarr@@": 86,
  "é)": 86,
  "EI@@": 86,
  "stade": 86,
  "Président": 86,
  "Fi@@": 86,
  "érer": 86,
  "Pr@@": 86,
  "lier": 86,
  "journ@@": 86,
  "verrouill@@": 86,
  "ates": 86,
  "ble.": 86,
  "maxim@@": 86,
  "chez": 86,
  "caiss@@": 86,
  "ence.": 86,
  "recommandé": 85,
  "rac@@": 85,
  "déclenchement": 85,
  "distances": 85,
  "conduit": 85,
  "capit@@": 85,
  "comprendre": 85,
  "modifi@@": 85,
  "III": 85,
  "sin@@": 85,
  "réclamation": 85,
  "acqu@@": 85,
  "validation": 85,
  "az": 85,
  "placé": 85,
  "maîtrise": 85,
  "indices": 85,
  "programm@@": 85,
  "installée": 85,
  "organe": 85,
  "2.3": 85,
  "parements": 85,
  "cont@@": 85,
  "-R@@": 85,
  "présents": 85,
  "contenir": 85,
  "point@@": 85,
  "CES": 85,
  "politiques": 85,
  "électri@@": 85,
  "ément": 85,
  "troisième": 85,
  "technique,": 85,
  "neutre": 85,
  "●@@": 85,
  "l’accord": 85,
  "ite.": 85,
  "eaux.": 85,
  "voy@@": 85,
  "bitumineux": 85,
  "cteur": 85,
  "Avec": 85,
  "No": 85,
  "auto@@": 85,
  "Et@@": 85,
  "13.@@": 85,
  "amenée": 85,
  "étapes": 85,
  "garantit": 85,
  "remplac@@": 85,
  "garanti@@": 85,
  "munis": 85,
  "fié": 85,
  "montés": 85,
  "l’on": 84,
  "etc.).": 84,
  "élabor@@": 84,
  "euse,": 84,
  "court-circuit": 84,
  "impli@@": 84,
  "Km": 84,
  "pay@@": 84,
  "ections": 84,
  "PER@@": 84,
  "ré,": 84,
  "difficultés": 84,
  "fournie": 84,
  "National": 84,
  "lig@@": 84,
  "nécess@@": 84,
  "présentée": 84,
  "ion": 84,
  "haut@@": 84,
  "Vu": 84,
  "________________@@": 84,
  "barre": 84,
  "rotation": 84,
  "ci-@@": 84,
  "poutre": 84,
  "certificats": 84,
  "pes@@": 84,
  "sédiments": 84,
  "ST": 84,
  "chauffage": 84,
  "long@@": 84,
  "Uni@@": 84,
  "régions": 84,
  "place.": 84,
  "organ@@": 84,
  "fourreaux": 84,
  "argil@@": 84,
  "protocole": 84,
  "IM@@": 84,
  "faux": 84,
  "rapidement": 84,
  "IS.": 84,
  "utilise": 84,
  "assemblage": 84,
  "tradu@@": 84,
  "correspondants": 84,
  "intégré": 84,
  "détaillés": 84,
  "permanent": 84,
  "er)": 84,
  "secteurs": 84,
  "remplir": 84,
  "trouver": 84,
  "passerelle": 84,
  "personnel,": 83,
  "concass@@": 83,
  "traités": 83,
  "FCF@@": 83,
  "rig@@": 83,
  "texte": 83,
  "ch": 83,
  "justifi@@": 83,
  "départ@@": 83,
  "identifiés": 83,
  "proposées": 83,
  "BLE": 83,
  "ANT": 83,
  "..": 83,
  "Prescriptions": 83,
  "atoires": 83,
  "D’OUVRAGE": 83,
  "d’étanchéité": 83,
  "h.": 83,
  "EAU": 83,
  "fications": 83,
  "armature": 83,
  "considérer": 83,
  "celles-ci": 83,
  "etc.@@": 83,
  "N.@@": 83,
  "d’inter@@": 83,
  "rég@@": 83,
  "estimée": 83,
  "dro@@": 83,
  "hydroélectrique": 83,
  "net": 83,
  "responsabilités": 83,
  "gran@@": 83,
  "posée": 83,
  "payés": 83,
  "syn@@": 83,
  "bass@@": 83,
  "avait": 83,
  "plastique": 83,
  "graphiques": 83,
  "puissent": 83,
  "dalles": 83,
  "augment@@": 83,
  "·@@": 83,
  "）@@": 83,
  "atis@@": 83,
  "diagnostic": 83,
  "x,": 82,
  "non@@": 82,
  "octobre": 82,
  "tionnelle": 82,
  "fortement": 82,
  "ad": 82,
  "effort": 82,
  "insuffis@@": 82,
  "PRESTATIONS": 82,
  "créances": 82,
  "assurera": 82,
  "VO@@": 82,
  "concernées": 82,
  "entité": 82,
  "commerci@@": 82,
  "forfaitaire": 82,
  "partielle": 82,
  "couple": 82,
  "2009": 82,
  "oy@@": 82,
  "prestation": 82,
  "crit@@": 82,
  "fs": 82,
  "motif": 82,
  "prévenir": 82,
  "annuelle": 82,
  "baisse": 82,
  "adapt@@": 82,
  "mer@@": 82,
  "cot@@": 82,
  "are": 82,
  "actuellement": 82,
  "ś@@": 82,
  "intermédiaire": 82,
  "premiers": 82,
  "be@@": 82,
  "l’absence": 82,
  "posées": 82,
  "essais.": 82,
  "mettra": 82,
  "vois@@": 82,
  "d’épaisseur": 82,
  "seconde": 82,
  "coupes": 82,
  "encastr@@": 82,
  "choisir": 82,
  "48@@": 82,
  "sacs": 82,
  "confirmer": 82,
  "bour@@": 82,
  "cz@@": 82,
  "service.": 82,
  "sor@@": 82,
  "titres": 82,
  "indice": 82,
  "2000@@": 82,
  "main@@": 82,
  "Gr@@": 82,
  "généraux": 82,
  "bus@@": 82,
  "standards": 82,
  "attestation": 82,
  "’’": 82,
  "kg/m3": 82,
  "espèces": 82,
  "VER@@": 82,
  "ber@@": 81,
  "Spécification": 81,
  "entes.": 81,
  "plat@@": 81,
  "qu’à": 81,
  "indemnité": 81,
  "ciel": 81,
  "communes": 81,
  "fort": 81,
  "premières": 81,
  "sifs": 81,
  "64@@": 81,
  "certain": 81,
  "considér@@": 81,
  "parallèle": 81,
  "lat@@": 81,
  "ici@@": 81,
  "imprim@@": 81,
  "16.@@": 81,
  "assi@@": 81,
  "...@@": 81,
  "ection": 81,
  "visible": 81,
  "constat@@": 81,
  "compa@@": 81,
  "Décret": 81,
  "iste": 81,
  "verticaux": 81,
  "l’extérieur": 81,
  "condens@@": 81,
  "papier": 81,
  "affich@@": 81,
  "clés": 81,
  "test@@": 81,
  "canaux": 81,
  "tour@@": 81,
  "correspond@@": 81,
  "horizont@@": 81,
  "Du": 81,
  "extérieurs": 81,
  "05@@": 81,
  "stationnement": 81,
  "Formulaires": 81,
  "existante": 81,
  "implant@@": 81,
  "confi@@": 81,
  "fait@@": 81,
  "situ": 81,
  "tel@@": 81,
  "chiff@@": 81,
  "diffusion": 81,
  "plant@@": 81,
  "dudit": 81,
  "représentent": 81,
  "ah@@": 81,
  "l'Autorité": 81,
  "ml": 81,
  "alisées": 81,
  "direct@@": 81,
  "déformations": 80,
  "serv@@": 80,
  "aven@@": 80,
  "°C.": 80,
  "ités.": 80,
  "(4)": 80,
  "100%": 80,
  "glob@@": 80,
  "respec@@": 80,
  "circonstances": 80,
  "simul@@": 80,
  "FOR@@": 80,
  "semble": 80,
  "franch@@": 80,
  "appliqu@@": 80,
  "sû@@": 80,
  "SE": 80,
  "assurance": 80,
  "temps,": 80,
  "pétroli@@": 80,
  "bénéfice": 80,
  "impôts": 80,
  "raccordements": 80,
  "canalisation": 80,
  "Leur": 80,
  "habitants": 80,
  "garantie,": 80,
  "entretien": 80,
  "obtenus": 80,
  "MARS": 80,
  "atoire": 80,
  "kW@@": 80,
  "Le@@": 80,
  "soit,": 80,
  "ans@@": 80,
  "issues": 80,
  "contribu@@": 80,
  "Bor@@": 80,
  "CFA": 80,
  "parts": 80,
  "résult@@": 80,
  "roulant": 80,
  "d’éviter": 80,
  "milliards": 80,
  "extérieures": 80,
  "caractéris@@": 80,
  "36@@": 80,
  "défaut,": 80,
  "ins.": 80,
  "spécifiée": 80,
  "TRAVAUX": 80,
  "meu@@": 80,
  "particip@@": 80,
  "dynam@@": 80,
  "satisfaction": 80,
  "chambres": 80,
  "For@@": 80,
  "tron@@": 80,
  "commencement": 80,
  "général,": 80,
  "petites": 80,
  "ó@@": 80,
  "conséquence": 80,
  "ci-": 80,
  "connect@@": 80,
  "d'arrêt": 80,
  "2x@@": 80,
  "caution": 79,
  "descente": 79,
  "Revêtement": 79,
  "production,": 79,
  "compteur": 79,
  "fonc@@": 79,
  "Comp@@": 79,
  "grave": 79,
  "d’ouvrages": 79,
  "permanente": 79,
  "auraient": 79,
  "faisabilité": 79,
  "indic@@": 79,
  "qualité,": 79,
  "tif,": 79,
  "nature,": 79,
  "similaires": 79,
  "class@@": 79,
  "24.@@": 79,
  ";@@": 79,
  "illages": 79,
  "précisées": 79,
  "SI": 79,
  "appliquées": 79,
  "absence": 79,
  "l'extérieur": 79,
  "QUES": 79,
  "urb@@": 79,
  "appu@@": 79,
  "ail": 79,
  "2010": 79,
  "régler": 79,
  "dét@@": 79,
  "élimin@@": 79,
  "Can@@": 79,
  "renouvellement": 79,
  "Es@@": 79,
  "mm2": 79,
  "vill@@": 79,
  "expérience": 79,
  "mesuré": 79,
  "»)": 79,
  "tac@@": 79,
  "vitesses": 79,
  "l'Article": 79,
  "marge": 79,
  "TP": 79,
  "Et": 79,
  "PRES@@": 79,
  "portique": 79,
  "ventil@@": 79,
  "renouvel@@": 79,
  "vérifi@@": 79,
  "identi@@": 79,
  "Or@@": 79,
  "adapté": 79,
  "s.@@": 79,
  "anti": 79,
  "respect@@": 79,
  "ets,": 79,
  "res)": 79,
  "Soumissionnaires": 79,
  "hor@@": 79,
  "contre-@@": 79,
  "interface": 79,
  "venant": 79,
  "anim@@": 79,
  "d'étanchéité": 79,
  "l'un": 79,
  "comptable": 79,
  "réuni@@": 79,
  "érique": 79,
  "réveil": 79,
  "07@@": 79,
  "signal@@": 79,
  "seu@@": 78,
  "eure.": 78,
  "i.": 78,
  "contract@@": 78,
  "ensi@@": 78,
  "directives": 78,
  "ajustement": 78,
  "second": 78,
  "étage": 78,
  "angl@@": 78,
  "dilatation": 78,
  "PS": 78,
  "notifier": 78,
  "PAR": 78,
  "Mais": 78,
  "prior@@": 78,
  "cess@@": 78,
  "TITULAIRE": 78,
  "Ca@@": 78,
  "iers": 78,
  "proposée": 78,
  "fonctionner": 78,
  "visibles": 78,
  "Certificat": 78,
  "isation,": 78,
  "mobile": 78,
  "calendrier": 78,
  "chambre": 78,
  "réf@@": 78,
  "Sous-clause": 78,
  "ativ@@": 78,
  "Cor@@": 78,
  "caractéristique": 78,
  "Ne": 78,
  "Critères": 78,
  "emprun@@": 78,
  "d'autre": 78,
  "pé@@": 78,
  "routi@@": 78,
  "bilan": 78,
  "issus": 78,
  "1000@@": 78,
  "initial": 78,
  "résolution": 78,
  "caniveaux": 78,
  "(U@@": 78,
  "té@@": 78,
  "cale": 78,
  "évaluée": 78,
  "massi@@": 78,
  "disposi@@": 78,
  "avanc@@": 78,
  "antenne": 78,
  "alignement": 78,
  "équipées": 78,
  "diam@@": 78,
  "aille": 78,
  "cur@@": 78,
  "engag@@": 78,
  "aspect": 78,
  "Ban@@": 78,
  "moteurs": 78,
  "développ@@": 78,
  "tion)": 78,
  "CC": 78,
  "écar@@": 78,
  "chaleur": 78,
  "pages": 78,
  "(1": 78,
  "exemple,": 78,
  "(de": 78,
  "1.3": 78,
  "liquide": 78,
  "rendre": 78,
  "C.D:09.00": 78,
  "pression,": 77,
  "fosse": 77,
  "pann@@": 77,
  "(et": 77,
  "maximales": 77,
  "élevée": 77,
  "dera": 77,
  "■": 77,
  "l’ouvrage.": 77,
  "ds,": 77,
  ").@@": 77,
  "Bou@@": 77,
  "ablement": 77,
  "simulation": 77,
  "excéder": 77,
  "re;": 77,
  "MW@@": 77,
  "ts.": 77,
  "m²": 77,
  "nécessaires,": 77,
  "endroit": 77,
  "tation": 77,
  "ouv@@": 77,
  "tiques,": 77,
  "repris": 77,
  "appartient": 77,
  "appropri@@": 77,
  "change": 77,
  "localités": 77,
  "directeur": 77,
  "d’oeuvre": 77,
  "qualités": 77,
  "dévers@@": 77,
  "écran": 77,
  "trice": 77,
  "PV": 77,
  "ailleurs": 77,
  "contrôle.": 77,
  "pouss@@": 77,
  "examen": 77,
  "meilleure": 77,
  "rendement": 77,
  "l'axe": 77,
  "POR@@": 77,
  "prati@@": 77,
  "gaines": 77,
  "A/@@": 77,
  "Projet,": 77,
  "plupart": 77,
  "cop@@": 77,
  "rive": 77,
  "alternateur": 77,
  "MT": 77,
  "1:": 77,
  "alement,": 77,
  "paragraphes": 77,
  "S-@@": 77,
  "caus@@": 77,
  "plans.": 77,
  "c,": 77,
  "l'accord": 77,
  "pouvoirs": 77,
  "simil@@": 77,
  "juge": 77,
  "al)": 77,
  "air@@": 77,
  "excep@@": 77,
  "bac@@": 77,
  "référ@@": 77,
  "électricité": 77,
  "l’année": 77,
  ">@@": 77,
  "rembours@@": 77,
  "c'est": 77,
  "D-@@": 77,
  "PARTIE": 76,
  "sollicitations": 76,
  "Des@@": 76,
  "l’appel": 76,
  "(au": 76,
  "qualifi@@": 76,
  "y,": 76,
  "Form@@": 76,
  "magné@@": 76,
  "rémun@@": 76,
  "tonn@@": 76,
  "CAR@@": 76,
  "(avec": 76,
  "il,": 76,
  "copies": 76,
  "Algéri@@": 76,
  "l’essai": 76,
  "minière": 76,
  "bénéfici@@": 76,
  "défectu@@": 76,
  "inten@@": 76,
  "salariés": 76,
  "villages": 76,
  "42": 76,
  "technologies": 76,
  "Dès": 76,
  "l'essai": 76,
  "RÉ@@": 76,
  "opérationn@@": 76,
  "courbe": 76,
  "publiques": 76,
  "fri@@": 76,
  "banque": 76,
  "exig@@": 76,
  "?@@": 76,
  "plas@@": 76,
  "supérieurs": 76,
  "dégag@@": 76,
  "co-@@": 76,
  "Ouvrages": 76,
  "filtre": 76,
  "trouv@@": 76,
  "rester": 76,
  "l'offre": 76,
  "superfici@@": 76,
  "sy@@": 76,
  "rend@@": 76,
  "requ@@": 76,
  "moitié": 76,
  "porté": 76,
  "considérées": 76,
  "go@@": 76,
  "\\_@@": 76,
  "PH@@": 76,
  "d'A@@": 76,
  "approprié": 76,
  "(a)": 76,
  "passant": 76,
  "oires": 76,
  "minimal": 76,
  "eusement": 75,
  "800@@": 75,
  "yer": 75,
  "intervenir": 75,
  "jamais": 75,
  "servant": 75,
  "initiale": 75,
  "devis": 75,
  "quées": 75,
  "dire": 75,
  "possibles": 75,
  "aér@@": 75,
  "160": 75,
  "Am@@": 75,
  "3).": 75,
  "tiss@@": 75,
  "alisés": 75,
  "h,": 75,
  "tourn@@": 75,
  "l'alimentation": 75,
  "pris@@": 75,
  "9)": 75,
  "suivants:": 75,
  "économ@@": 75,
  "2014": 75,
  "puis@@": 75,
  "propreté": 75,
  "faibles": 75,
  "bul@@": 75,
  "trame": 75,
  "f,": 75,
  "exist@@": 75,
  "ą": 75,
  "qu'elles": 75,
  "65@@": 75,
  "(ci-après": 75,
  "compétences": 75,
  "conserver": 75,
  "P)": 75,
  "efficace": 75,
  "IRE": 75,
  "déplacements": 75,
  "61": 75,
  "d'éviter": 75,
  "TEUR": 75,
  "cule": 75,
  "ase": 75,
  "accompagn@@": 75,
  "rocheux": 75,
  "contraire,": 75,
  "9,@@": 75,
  "arti@@": 75,
  "institu@@": 75,
  "1-": 75,
  "accepté": 75,
  "second@@": 75,
  "Nom": 75,
  "il.": 75,
  "définit": 75,
  "possible.": 75,
  "de)": 75,
  "nécessite": 75,
  "active": 75,
  "appropriés": 75,
  "correctement": 75,
  "TRA@@": 75,
  "protec@@": 75,
  "financier": 75,
  "≤": 75,
  "125": 75,
  "ène": 75,
  "..@@": 75,
  "parmi": 75,
  "ateurs.": 75,
  "électrique.": 75,
  "IS,": 75,
  "erie,": 75,
  "bétonn@@": 74,
  "l’Acheteur": 74,
  "géotechnique": 74,
  "ale@@": 74,
  "aison": 74,
  "té,": 74,
  "adaptée": 74,
  "composant": 74,
  "tres,": 74,
  "l'exception": 74,
  "2.5": 74,
  "démont@@": 74,
  "protégées": 74,
  "mot@@": 74,
  "p.": 74,
  "l'Ouvrage.": 74,
  "érés": 74,
  "aire)": 74,
  "filtration": 74,
  "offres,": 74,
  "l’agrément": 74,
  "ois@@": 74,
  "possibilités": 74,
  "ferm@@": 74,
  "refus": 74,
  "délai,": 74,
  "quantitatif": 74,
  "Mon@@": 74,
  "nettoy@@": 74,
  "aise": 74,
  "Analyse": 74,
  "boucle": 74,
  "optiques": 74,
  "trou@@": 74,
  "cali@@": 74,
  "√": 74,
  "accident": 74,
  "Détail": 74,
  "observation": 74,
  "remédier": 74,
  "exécution,": 74,
  "CCAG.": 74,
  "rails": 74,
  "cotes": 74,
  "Localisation": 74,
  "d'énergie": 74,
  "ry@@": 74,
  "CCAP,": 74,
  "déclench@@": 74,
  "l'analyse": 74,
  "Puissance": 74,
  "l’effet": 74,
  "l’O@@": 74,
  "OU": 74,
  "appuis": 74,
  "relevés": 74,
  "concentr@@": 74,
  "département": 74,
  "couver@@": 74,
  "estimé": 74,
  "privé": 74,
  "transversale": 74,
  "eff@@": 74,
  "annul@@": 74,
  "l’électricité": 74,
  "De@@": 74,
  "noter": 74,
  "dall@@": 74,
  "adjac@@": 74,
  "s'assurer": 74,
  "prélèvements": 74,
  "g/@@": 74,
  "propriét@@": 74,
  "danger": 74,
  "diminution": 74,
  "terrassements": 74,
  "contraires": 74,
  "cep@@": 74,
  "imposées": 74,
  "mois,": 74,
  "assurances": 74,
  "d’Off@@": 74,
  "explic@@": 74,
  "motifs": 73,
  "apparaître": 73,
  "fournitures,": 73,
  "adop@@": 73,
  "foudre": 73,
  "corpor@@": 73,
  "mesurer": 73,
  "Val@@": 73,
  "Vue": 73,
  "tirage": 73,
  "régulateur": 73,
  "des.": 73,
  "formulaire": 73,
  "complémentaire": 73,
  "sive": 73,
  "inspections": 73,
  "logistique": 73,
  "séri@@": 73,
  "réputé": 73,
  "siè@@": 73,
  "coordonnées": 73,
  "endu@@": 73,
  "ment,": 73,
  "pertin@@": 73,
  "scellement": 73,
  "ba@@": 73,
  "basé": 73,
  "disjoncteurs": 73,
  "basée": 73,
  "l’organisation": 73,
  "eure,": 73,
  "ière": 73,
  "durable": 73,
  "dépend": 73,
  "résistances": 73,
  "juridique": 73,
  "l´@@": 73,
  "\\@@": 73,
  "qu'à": 73,
  "PE": 73,
  "itaires": 73,
  "10-@@": 73,
  "tronçons": 73,
  "isse": 73,
  "huile": 73,
  "dite": 73,
  "composée": 73,
  "bout": 73,
  "choisi": 73,
  "ple@@": 73,
  "Résultats": 73,
  "attach@@": 73,
  "mètres.": 73,
  "34": 73,
  "Lo@@": 73,
  "d’aménagement": 73,
  "résist@@": 73,
  "référer": 73,
  "automatis@@": 73,
  "l’emplacement": 73,
  "m³/@@": 73,
  "Etudes": 73,
  "phas@@": 73,
  "inv@@": 73,
  "bases": 72,
  "trouvent": 72,
  "parfaite": 72,
  "détérior@@": 72,
  "dépend@@": 72,
  "hou@@": 72,
  "gérer": 72,
  "amélioration": 72,
  "ision": 72,
  "traiter": 72,
  "europé@@": 72,
  "capteurs": 72,
  "Car@@": 72,
  "ente.": 72,
  "excav@@": 72,
  "Sont": 72,
  "CNPIPELINE": 72,
  "moyennes": 72,
  "ard@@": 72,
  "classes": 72,
  "affér@@": 72,
  "concerné": 72,
  "ANCE": 72,
  "fabriqués": 72,
  "onde": 72,
  "quelles": 72,
  "ordin@@": 72,
  "conduits": 72,
  "Spéci@@": 72,
  "c.": 72,
  "Matériaux": 72,
  "recherch@@": 72,
  "devient": 72,
  "PU@@": 72,
  "usin@@": 72,
  "erci@@": 72,
  "parfait": 72,
  "NE": 72,
  "SH@@": 72,
  "ler": 72,
  "Compte": 72,
  "évacuation": 72,
  "approuv@@": 72,
  "provo@@": 72,
  "international": 72,
  "l'annexe": 72,
  "Bo@@": 72,
  "nég@@": 72,
  "d’acier": 72,
  "évidence": 72,
  "placement": 72,
  "succes@@": 72,
  "G.@@": 72,
  "retenus": 72,
  "....@@": 72,
  "potentiels": 72,
  "intégr@@": 72,
  "d’affaires": 72,
  "illage": 72,
  "we@@": 72,
  "COMP@@": 72,
  "ajouter": 72,
  "Concessionnaire": 72,
  "l’annexe": 72,
  "d’utiliser": 72,
  "(H@@": 72,
  "ferroviaire": 72,
  "vas@@": 72,
  "d'origine": 72,
  "l’Etat": 72,
  "individu@@": 72,
  "entrées": 72,
  "profil@@": 72,
  "d’ancrage": 72,
  "tes@@": 72,
  "kil@@": 72,
  "souhait@@": 72,
  "Norme": 72,
  "recommandée": 71,
  "3-": 71,
  "dre,": 71,
  "vir@@": 71,
  "pentes": 71,
  "financ@@": 71,
  "érée": 71,
  "satis@@": 71,
  "isi@@": 71,
  "t)": 71,
  "Fin@@": 71,
  "tranchées": 71,
  "bag@@": 71,
  "sanitaire": 71,
  "conditionn@@": 71,
  "PM@@": 71,
  "F,": 71,
  "sk@@": 71,
  "feuille": 71,
  "horizontal": 71,
  "favor@@": 71,
  "d’ouverture": 71,
  "algéri@@": 71,
  "poursuite": 71,
  "ressort": 71,
  "connexions": 71,
  "engager": 71,
  "ESSAIS": 71,
  "planches": 71,
  "tées": 71,
  "Autres": 71,
  "DES@@": 71,
  "consign@@": 71,
  "scell@@": 71,
  "(02)": 71,
  "age;": 71,
  "comparaison": 71,
  "longue": 71,
  "maladies": 71,
  "abor@@": 71,
  "d'acier": 71,
  "petite": 71,
  "déf@@": 71,
  "am": 71,
  "seuls": 71,
  "précon@@": 71,
  "engagements": 71,
  "contient": 71,
  "net@@": 71,
  "rév@@": 71,
  "ès": 71,
  "démarche": 71,
  "dém@@": 71,
  "ma": 71,
  "environnementaux": 71,
  "l’Entreprise": 71,
  "poussi@@": 71,
  "MAR@@": 71,
  "ats,": 71,
  "EUR@@": 71,
  "choc": 71,
  "Liaison": 71,
  "concurrence": 71,
  "montée": 71,
  "identifier": 71,
  "juste": 71,
  "identique": 71,
  "piste": 71,
  "Modèle": 71,
  "justification": 71,
  "carbon@@": 71,
  "séparation": 70,
  "l'entrée": 70,
  "lecture": 70,
  "pieds": 70,
  "mécanisme": 70,
  "Poste": 70,
  "l'entretien": 70,
  "ecteurs": 70,
  "visant": 70,
  "al.,": 70,
  "tak@@": 70,
  "revenus": 70,
  "correspondent": 70,
  "idité": 70,
  "BR@@": 70,
  "its.": 70,
  "brut": 70,
  "sismique": 70,
  "masses": 70,
  "Description": 70,
  "Gé@@": 70,
  "construit": 70,
  "coupl@@": 70,
  "domin@@": 70,
  "gravier": 70,
  "commission": 70,
  "CO": 70,
  "II@@": 70,
  "as,": 70,
  "travaill@@": 70,
  "Guinée": 70,
  "réaction": 70,
  "tage": 70,
  "passé": 70,
  "CHE": 70,
  "scénarios": 70,
  "mélang@@": 70,
  "effective": 70,
  "d’origine": 70,
  "plantation": 70,
  "strati@@": 70,
  "variations": 70,
  "parement": 70,
  "accompagnée": 70,
  "arrêter": 70,
  "Profil": 70,
  "Mi@@": 70,
  "climatis@@": 70,
  "considé@@": 70,
  "(b)": 70,
  "impôt": 70,
  "compéti@@": 70,
  "indemn@@": 70,
  "vann@@": 70,
  "est,": 70,
  "n'ont": 70,
  "aigu@@": 70,
  "communications": 70,
  "mou@@": 70,
  "ges@@": 70,
  "investiss@@": 70,
  "audi@@": 70,
  "AC": 70,
  "stabil@@": 70,
  "EMEN@@": 70,
  "Ø": 70,
  "cen@@": 70,
  "Log@@": 70,
  "endre": 70,
  "d’en": 70,
  "…………………………………………@@": 70,
  "per": 70,
  "(E@@": 70,
  "56": 70,
  "comptabil@@": 70,
  "ONN@@": 70,
  "Techni@@": 69,
  "maçonn@@": 69,
  "RES": 69,
  "structur@@": 69,
  "alarme": 69,
  "mod@@": 69,
  "sulf@@": 69,
  "salarié": 69,
  "calendaires": 69,
  "transmettre": 69,
  "Dou@@": 69,
  "Enfin,": 69,
  "socle": 69,
  "gne": 69,
  "SA": 69,
  "spéciaux": 69,
  "MT@@": 69,
  "inoxydable": 69,
  "2021": 69,
  "tif.": 69,
  "3.4": 69,
  "som@@": 69,
  "l'usine": 69,
  "Etat": 69,
  "auxquels": 69,
  "restant": 69,
  "achet@@": 69,
  "signer": 69,
  "HTA": 69,
  "spécial": 69,
  "El@@": 69,
  "46": 69,
  "44": 69,
  "visée": 69,
  "min": 69,
  "lation": 69,
  "positionnement": 69,
  "attente": 69,
  "assise": 69,
  "circulaire": 69,
  "jour,": 69,
  "passagers": 69,
  "4.1.@@": 69,
  "(c@@": 69,
  "voirie": 69,
  "érant": 69,
  "Période": 69,
  "ions": 69,
  "L’OUVRAGE,": 69,
  "indicateurs": 69,
  "représenter": 69,
  "désignation": 69,
  "nucléaire": 69,
  "équipe": 69,
  "annu@@": 69,
  "transports": 69,
  "pénétration": 69,
  "DTU": 69,
  "cm,": 69,
  "jour@@": 69,
  "circul@@": 69,
  "d'inter@@": 69,
  "inclu@@": 69,
  "ancrage": 69,
  "entraîn@@": 69,
  "amélior@@": 69,
  "DM@@": 69,
  "SON@@": 69,
  "soudures": 68,
  "&@@": 68,
  "issements": 68,
  "équi@@": 68,
  "l’ac@@": 68,
  "teneurs": 68,
  "DA": 68,
  "cales": 68,
  "émission": 68,
  "l’Annexe": 68,
  "l'ouvrage.": 68,
  "résulte": 68,
  "court": 68,
  "téléphon@@": 68,
  "décapage": 68,
  "conséquent,": 68,
  "700": 68,
  "embl@@": 68,
  "rendu": 68,
  "établies": 68,
  "permanence": 68,
  "participer": 68,
  "vibrations": 68,
  "es.@@": 68,
  "PV@@": 68,
  "l’expiration": 68,
  "08": 68,
  "2-": 68,
  "Fiche": 68,
  "2012": 68,
  "fixer": 68,
  "supéri@@": 68,
  "poursuivre": 68,
  "intervenant": 68,
  "DP": 68,
  "affi@@": 68,
  "composantes": 68,
  "portera": 68,
  "nivellement": 68,
  "satisfais@@": 68,
  "message": 68,
  "résidu@@": 68,
  "d'Œuvre": 68,
  "construction.": 68,
  "ites,": 68,
  "effectif": 68,
  "parcours": 68,
  "admis": 68,
  "routier": 68,
  "d’extraction": 68,
  "lien": 68,
  "sépar@@": 68,
  "l'ouvrage,": 68,
  "assuré": 68,
  "vap@@": 68,
  "train": 68,
  "impu@@": 68,
  "original": 68,
  "radio@@": 68,
  "entes,": 68,
  "normes,": 68,
  "terrassement": 68,
  "rich@@": 68,
  "l'Ouvrage,": 68,
  "couvre": 68,
  "préfér@@": 68,
  "livrés": 68,
  "CS@@": 68,
  "servir": 68,
  "approvisionn@@": 68,
  "NFP": 68,
  "encour@@": 68,
  "viol@@": 68,
  "travers@@": 67,
  "constituants": 67,
  "répar@@": 67,
  "IRES": 67,
  "L'ensemble": 67,
  "variables": 67,
  "désignés": 67,
  "kg/m@@": 67,
  "§@@": 67,
  "sus@@": 67,
  "terrass@@": 67,
  "classification": 67,
  "Pas": 67,
  "Consultant": 67,
  "repérage": 67,
  "ième": 67,
  "ade": 67,
  "cités": 67,
  "connex@@": 67,
  "harmon@@": 67,
  "voi": 67,
  "Formulaire": 67,
  "impôts,": 67,
  "marques": 67,
  "prof@@": 67,
  "mille": 67,
  "industrielles": 67,
  "quantit@@": 67,
  "pierres": 67,
  "DC@@": 67,
  "ation;": 67,
  "l’impact": 67,
  "suivent": 67,
  "épaiss@@": 67,
  "UN@@": 67,
  "Contrô@@": 67,
  "visa": 67,
  "MM@@": 67,
  "C'est": 67,
  "allant": 67,
  "rot@@": 67,
  "nu": 67,
  "adaptés": 67,
  "réunions": 67,
  "plu@@": 67,
  "................................................................@@": 67,
  "tiendra": 67,
  "implantation": 67,
  "extrémité": 67,
  "appropriées": 67,
  "rempli@@": 67,
  "ü@@": 67,
  "tée": 67,
  "pér@@": 67,
  "tranche": 67,
  "compte.": 67,
  "INTER@@": 67,
  "galvan@@": 67,
  "TIF": 67,
  "géologiques": 67,
  "fixations": 67,
  "fère": 67,
  "soumis@@": 67,
  "l’autorisation": 67,
  "ő@@": 67,
  "Off@@": 67,
  "latér@@": 67,
  "d)": 67,
  "d’eau,": 67,
  "color@@": 67,
  "Ten@@": 67,
  "biais": 67,
  "FO@@": 67,
  "vision": 67,
  "réseau,": 67,
  "demandés": 67,
  "tures": 67,
  "levée": 67,
  "agrément": 67,
  "agricoles": 67,
  "èn@@": 67,
  "architecture": 67,
  "Volume": 67,
  "affecter": 67,
  "aéro@@": 66,
  "vos": 66,
  "équivalente": 66,
  "l’épaisseur": 66,
  "TH@@": 66,
  "The": 66,
  "milli@@": 66,
  "grilles": 66,
  "fication.": 66,
  "d’Ouvrage.": 66,
  "êt@@": 66,
  "coffrets": 66,
  "es/@@": 66,
  "ouverte": 66,
  "ti": 66,
  "prépar@@": 66,
  "8,@@": 66,
  "achev@@": 66,
  "cass@@": 66,
  "AD@@": 66,
  "française": 66,
  "actif": 66,
  "Chambre": 66,
  "ordres": 66,
  "débit@@": 66,
  "Cré@@": 66,
  "LAN@@": 66,
  "kg@@": 66,
  "précisant": 66,
  "TURE": 66,
  "surface,": 66,
  "débl@@": 66,
  "part@@": 66,
  "gaine": 66,
  "séparément": 66,
  "Développement": 66,
  "chimique": 66,
  "géni@@": 66,
  "DG@@": 66,
  "nécessitant": 66,
  "dériv@@": 66,
  "côtés": 66,
  "blo@@": 66,
  "restitution": 66,
  "SS": 66,
  "complètement": 66,
  "courte": 66,
  "ledit": 66,
  "itinéraire": 66,
  "végétation": 66,
  "ations@@": 66,
  "environnemental": 66,
  "capable": 66,
  "charbon": 66,
  "interrupteur": 66,
  "obtenue": 66,
  "KV": 66,
  "effec@@": 66,
  "prononcée": 66,
  "issage": 66,
  "métrique": 66,
  "super@@": 66,
  "cm@@": 66,
  "exécut@@": 66,
  "M-@@": 66,
  "hospit@@": 66,
  "fissures": 66,
  "énergétique": 66,
  "études,": 66,
  "notifi@@": 66,
  "emploi": 66,
  "Lim@@": 66,
  "cycles": 66,
  "jug@@": 66,
  "éclairage": 65,
  "ensembles": 65,
  "inspection": 65,
  "éli@@": 65,
  "Mesure": 65,
  "UNI@@": 65,
  "trices": 65,
  "mes.": 65,
  "minim@@": 65,
  "ue,": 65,
  "équilibre": 65,
  "stock": 65,
  "jours.": 65,
  "acquit@@": 65,
  "Si@@": 65,
  "2008": 65,
  "mécan@@": 65,
  "È@@": 65,
  "complets": 65,
  "domm@@": 65,
  "fichier": 65,
  "comptage": 65,
  "A.3.1.@@": 65,
  "cure": 65,
  "eill@@": 65,
  "l’huile": 65,
  "ter.": 65,
  "motor@@": 65,
  "forc@@": 65,
  "sions,": 65,
  "Euro@@": 65,
  "région@@": 65,
  "équip@@": 65,
  "fuites": 65,
  "manipul@@": 65,
  "zon@@": 65,
  "électro@@": 65,
  "Gab@@": 65,
  "fonctionnement.": 65,
  "Exigences": 65,
  "intern@@": 65,
  "chargement,": 65,
  "itant": 65,
  "d’avoir": 65,
  "Aux": 65,
  "d’obtenir": 65,
  "conséquence,": 65,
  "importance": 65,
  "oct@@": 65,
  "clô@@": 65,
  "tionnels": 65,
  "COMM@@": 65,
  "hypothèse": 65,
  "commerciale": 65,
  "cub@@": 65,
  "responsables": 65,
  "réelle": 65,
  "acceptable": 65,
  "campagne": 65,
  "ES,": 65,
  "salari@@": 65,
  "enc@@": 65,
  "multipli@@": 65,
  "I.@@": 65,
  "d'avoir": 65,
  "conjointement": 65,
  "≥": 65,
  "euros": 65,
  "Particulières": 65,
  "ruissellement": 65,
  "08@@": 65,
  "d’offres,": 65,
  "ative,": 65,
  "débris": 65,
  "déroulage": 65,
  "techni@@": 65,
  "réguli@@": 65,
  "ométriques": 65,
  "monde": 65,
  "réparations": 65,
  "pein@@": 65,
  "déterminées": 65,
  "i)": 65,
  "çant": 65,
  "´@@": 65,
  "signific@@": 65,
  "manœuvres": 65,
  "gri@@": 65,
  "km@@": 65,
  "perform@@": 65,
  "véri@@": 65,
  "bordure": 65,
  "sédiment@@": 65,
  "Gabon": 65,
  "entrant": 65,
  "réfection": 65,
  "là": 65,
  "attestant": 65,
  "STA@@": 65,
  "pas,": 65,
  "2006": 65,
  "taxe": 65,
  "adress@@": 65,
  "F.": 65,
  "ha": 65,
  "pas@@": 65,
  "destinée": 64,
  "compléter": 64,
  "ENT": 64,
  "novation": 64,
  "accessibles": 64,
  "derni@@": 64,
  "L,": 64,
  "Pass@@": 64,
  "CCAG": 64,
  "dits": 64,
  "faute": 64,
  "recouvr@@": 64,
  "l’activité": 64,
  "47@@": 64,
  "épaisseurs": 64,
  "ois": 64,
  "laisser": 64,
  "diff@@": 64,
  "douanes": 64,
  "coefficients": 64,
  "couronnement": 64,
  "BS": 64,
  "GP@@": 64,
  "hydrauli@@": 64,
  "ol": 64,
  "crue": 64,
  "bruits": 64,
  "cumul@@": 64,
  "utilisateurs": 64,
  "août": 64,
  "intégrante": 64,
  "inclut": 64,
  "G.": 64,
  "appropriée": 64,
  "retenues": 64,
  "déclarations": 64,
  "ancrages": 64,
  "actuel": 64,
  "ELLE": 64,
  "thermiques": 64,
  "tiges": 64,
  "terminaux": 64,
  "itude": 64,
  "GI@@": 64,
  "inox": 64,
  "anch@@": 64,
  "adaptation": 64,
  "AT@@": 64,
  "er;": 64,
  "minimiser": 64,
  "diminu@@": 64,
  "flèche": 64,
  "obtenues": 64,
  "estimatif": 64,
  "corrig@@": 64,
  "export@@": 64,
  "vient": 64,
  "ctions": 64,
  "d'éclairage": 64,
  "06": 64,
  "contractante,": 64,
  "NI@@": 64,
  "liv@@": 64,
  "désignée": 64,
  "ERE": 64,
  "augmenter": 64,
  "renforc@@": 64,
  "aiss@@": 64,
  "LIN@@": 64,
  "gabions": 64,
  "soud@@": 64,
  "procé@@": 64,
  "classement": 64,
  "d’installation": 64,
  "III,": 64,
  "interventions": 64,
  "aéri@@": 64,
  "pati@@": 64,
  "cadres": 64,
  "palier": 64,
  "valable": 64,
  "délivré": 64,
  "l'O@@": 64,
  "réputés": 64,
  "esclave": 64,
  "relev@@": 64,
  "lettres": 63,
  "camion@@": 63,
  "nette": 63,
  "éliminer": 63,
  "d'ac@@": 63,
  "quais": 63,
  "mag@@": 63,
  "potenti@@": 63,
  "faveur": 63,
  "çage": 63,
  "radier": 63,
  "estime": 63,
  "signe": 63,
  "sujétions.": 63,
  "brides": 63,
  "-20@@": 63,
  "proch@@": 63,
  "remplacer": 63,
  "port.": 63,
  "facture": 63,
  "ligne.": 63,
  "matériels,": 63,
  "vibration": 63,
  "Sans": 63,
  "dess@@": 63,
  "temp@@": 63,
  "Ev@@": 63,
  "examin@@": 63,
  "d'étude": 63,
  "adhérence": 63,
  "épi@@": 63,
  "distinc@@": 63,
  "plafond@@": 63,
  "végétale": 63,
  "côte": 63,
  "intégration": 63,
  "notice": 63,
  "esti@@": 63,
  "IC": 63,
  "filtres": 63,
  "ui@@": 63,
  "ther@@": 63,
  "portation": 63,
  "avant@@": 63,
  "ze@@": 63,
  "off@@": 63,
  "poussières": 63,
  "simultan@@": 63,
  "coor@@": 63,
  "identification": 63,
  "patrimoine": 63,
  "constituées": 63,
  "aménagement": 63,
  "blanc": 63,
  "stockage,": 63,
  "ais.": 63,
  "apports": 63,
  "étal@@": 63,
  "français": 63,
  "séjour": 63,
  "d’implantation": 63,
  "arrage": 63,
  "protég@@": 63,
  "vant": 63,
  "associées": 63,
  "droits,": 63,
  "entraîne": 63,
  "66": 63,
  "000)": 63,
  "rivière": 63,
  "Document": 63,
  "extension": 63,
  "3.2.@@": 63,
  "avance": 63,
  "ai.": 63,
  "mentionnée": 63,
  "d’isolement": 63,
  "démoli@@": 63,
  "vitr@@": 63,
  "sommet": 63,
  "établ@@": 63,
  "9/@@": 63,
  "structu@@": 63,
  "(si": 63,
  "corro@@": 63,
  "ole": 63,
  "FF@@": 63,
  "2007": 63,
  "arg@@": 62,
  "PC": 62,
  "grammes": 62,
  "": 62,
  "manuels": 62,
  "suivant@@": 62,
  "ART.@@": 62,
  "95@@": 62,
  "solid@@": 62,
  "BSA": 62,
  "réception.": 62,
  "joindre": 62,
  "vertical": 62,
  "combinaison": 62,
  "l'ouverture": 62,
  "soutien": 62,
  "Sous-@@": 62,
  "bres": 62,
  "39": 62,
  "commen@@": 62,
  "détail@@": 62,
  "exclusivement": 62,
  "noy@@": 62,
  "extra@@": 62,
  "incendie,": 62,
  "raccord": 62,
  "bét@@": 62,
  "Secrétaire": 62,
  "Résistance": 62,
  "signée": 62,
  "AM@@": 62,
  "(7)": 62,
  "mis@@": 62,
  "tradi@@": 62,
  "obten@@": 62,
  "l'appareil": 62,
  "x.": 62,
  "discu@@": 62,
  "Mesures": 62,
  "forme,": 62,
  "ues,": 62,
  "sociét@@": 62,
  "plutôt": 62,
  "NOR@@": 62,
  "assemblages": 62,
  "êtes": 62,
  "cy@@": 62,
  "conclu@@": 62,
  "Equipement": 62,
  "permettront": 62,
  "égou@@": 62,
  "jetée": 62,
  "rigide": 62,
  "ant)": 62,
  "bords": 62,
  "professionn@@": 62,
  "espacement": 62,
  "ométrie": 62,
  "tro@@": 62,
  "contractant": 62,
  "trou": 62,
  "compatibles": 62,
  "perfor@@": 62,
  "tent@@": 62,
  "priorité": 62,
  "dirig@@": 62,
  "offre.": 62,
  "garantie.": 62,
  "49": 62,
  "seuils": 62,
  "climat": 62,
  "chape": 62,
  "influ@@": 62,
  "ssi@@": 62,
  "sélec@@": 62,
  "cession": 62,
  "formulaires": 62,
  "adopter": 62,
  "TRI@@": 62,
  "u.": 62,
  "titude": 62,
  "plis": 62,
  "Fr@@": 62,
  "ISS@@": 62,
  "Int@@": 62,
  "quels": 62,
  "adaptées": 62,
  "ec": 62,
  "Page": 62,
  "cisaillement": 62,
  "reli@@": 61,
  "isolateurs": 61,
  "feuill@@": 61,
  "Non": 61,
  "autres,": 61,
  "IT": 61,
  "í@@": 61,
  "fleuve": 61,
  ".Il": 61,
  "Affouillement": 61,
  "construc@@": 61,
  "confirm@@": 61,
  "Porte": 61,
  "demandé@@": 61,
  "concernent": 61,
  "rail": 61,
  "roug@@": 61,
  "41": 61,
  "……………………@@": 61,
  "sièges": 61,
  "abr@@": 61,
  "l’opération": 61,
  "：@@": 61,
  "élévation": 61,
  "écart": 61,
  "adéqu@@": 61,
  "→": 61,
  "récep@@": 61,
  "ciment@@": 61,
  "rue": 61,
  "ci,": 61,
  "Offres": 61,
  "age/@@": 61,
  "85": 61,
  "prés@@": 61,
  "liation": 61,
  "absorb@@": 61,
  "occupation": 61,
  "autonomie": 61,
  "GES": 61,
  "UE": 61,
  "banc": 61,
  "Calcul": 61,
  "audit": 61,
  "extr@@": 61,
  "métal": 61,
  "hydrocarbures": 61,
  "étu@@": 61,
  "Charges": 61,
  "ress@@": 61,
  "autorisée": 61,
  "mener": 61,
  "alimenter": 61,
  "regroup@@": 61,
  "minéralisation": 61,
  "Bénin": 61,
  "habil@@": 61,
  "tile": 61,
  "enveloppe": 61,
  "ordinaires": 61,
  "au,": 61,
  "verticales": 61,
  "secondaires": 61,
  "complexe": 61,
  "derrière": 61,
  "préparer": 61,
  "résistant": 61,
  "boîte": 61,
  "aériennes": 61,
  "ace": 61,
  "Grou@@": 61,
  "PK": 61,
  "………………@@": 61,
  "extérieur.": 61,
  "FOURNISSEUR": 61,
  "ANNEXE": 61,
  "5.1": 61,
  "l'im@@": 61,
  "TRE": 61,
  "raccord@@": 61,
  "exiger": 61,
  "établira": 61,
  "CN@@": 61,
  "réseau.": 61,
  "de-@@": 61,
  "F.@@": 61,
  "récol@@": 61,
  "offici@@": 61,
  "Structure": 61,
  "longitudinale": 61,
  "protégé": 61,
  "liers": 61,
  "grue": 61,
  "urg@@": 61,
  "arrivée": 61,
  "l'année": 61,
  "54": 60,
  "voire": 60,
  "affectés": 60,
  "État": 60,
  "porteur": 60,
  "consoles": 60,
  "on)": 60,
  "chau@@": 60,
  "calculés": 60,
  "2015,": 60,
  "consoli@@": 60,
  "fait,": 60,
  "PLAN": 60,
  "affleur@@": 60,
  "plafonds": 60,
  "pays@@": 60,
  "ordinaire": 60,
  "offres.": 60,
  "l'énergie": 60,
  "b.": 60,
  "COU@@": 60,
  "consentement": 60,
  "G)": 60,
  "DOCUMENTS": 60,
  "prévisions": 60,
  "gisements": 60,
  "58@@": 60,
  "faisceau": 60,
  "informatique": 60,
  "ains": 60,
  "07": 60,
  "18.@@": 60,
  "5.2": 60,
  "3.3.@@": 60,
  "ête": 60,
  "d'entretien": 60,
  "TYPE": 60,
  "exigence": 60,
  "mal": 60,
  "galvanis@@": 60,
  "TC@@": 60,
  "couvrant": 60,
  "d'administration": 60,
  "sph@@": 60,
  "cavation": 60,
  "signaler": 60,
  "endommag@@": 60,
  "ding": 60,
  "rè@@": 60,
  "émis": 60,
  "250@@": 60,
  "levé": 60,
  "appui": 60,
  "suivantes :": 60,
  "l’attribution": 60,
  "châssis": 60,
  "l’adresse": 60,
  "local@@": 60,
  "glissement": 60,
  "mandat@@": 60,
  "tendance": 60,
  "d’occupation": 60,
  "d’état": 60,
  "constatation": 60,
  "dent@@": 60,
  "nombreux": 60,
  "poussière": 60,
  "interfaces": 60,
  "dre": 60,
  "Contractante": 60,
  "ALI@@": 60,
  "électricité,": 60,
  "RS@@": 60,
  "prot@@": 60,
  "compteurs": 60,
  "levés": 60,
  "stockés": 60,
  "lumin@@": 60,
  "uv@@": 60,
  "placées": 60,
  "d’impact": 60,
  "d'obtenir": 60,
  "éloign@@": 60,
  "(03)": 60,
  "ondul@@": 60,
  "judici@@": 60,
  "RU@@": 60,
  "RDC": 60,
  "auxili@@": 60,
  "travaux@@": 60,
  "(2": 60,
  "ind@@": 60,
  "dégâts": 60,
  "notamment,": 60,
  "piè@@": 60,
  "teinte": 60,
  "da": 60,
  "fais@@": 60,
  "mm)": 60,
  "osité": 60,
  "liqu@@": 60,
  "SER@@": 60,
  "naturel@@": 59,
  "d'entrée": 59,
  "impos@@": 59,
  "carreaux": 59,
  "26.@@": 59,
  "prolongation": 59,
  "consigne": 59,
  "maj@@": 59,
  "séries": 59,
  "cultures": 59,
  "M)": 59,
  "chim@@": 59,
  "ajout": 59,
  "qui@@": 59,
  "granulométrie": 59,
  "gare": 59,
  "d’évacuation": 59,
  "Centr@@": 59,
  "se,": 59,
  "collecte": 59,
  "prix.": 59,
  "tandis": 59,
  "(01)": 59,
  "nationales": 59,
  "R.": 59,
  "clari@@": 59,
  "hu@@": 59,
  "précontrainte": 59,
  "d'application": 59,
  "ines,": 59,
  "dam@@": 59,
  "mus@@": 59,
  "couleurs": 59,
  "lie": 59,
  "totalement": 59,
  "MISE": 59,
  "ouvertures": 59,
  "commutation": 59,
  "internationales": 59,
  "d'en@@": 59,
  "environn@@": 59,
  "CCAP.": 59,
  "CHA@@": 59,
  "convenu": 59,
  "Rég@@": 59,
  "ours": 59,
  "froid": 59,
  "Install@@": 59,
  "négoci@@": 59,
  "versant": 59,
  "Touba": 59,
  "Bien": 59,
  "principal@@": 59,
  "tension.": 59,
  "qualifications": 59,
  "introdu@@": 59,
  "constatées": 59,
  "ères@@": 59,
  "S’il": 59,
  "ONS": 59,
  "base,": 59,
  "cell@@": 59,
  "hauteurs": 59,
  "adhé@@": 59,
  "tar@@": 59,
  "sci@@": 59,
  "soudage": 59,
  "gue": 59,
  "pist@@": 59,
  "mauvaise": 59,
  "nouv@@": 59,
  "réception,": 59,
  "l'accès": 59,
  "programmation": 59,
  "transmises": 59,
  "pétrole": 59,
  "épreuve": 59,
  "élevé": 59,
  "recharge": 59,
  "collecteur": 59,
  "graiss@@": 59,
  "VA@@": 59,
  "d'exécution.": 59,
  "32@@": 59,
  "identiques": 59,
  "don@@": 59,
  "ELECTRI@@": 59,
  "correction": 59,
  "l’issue": 59,
  "Cam@@": 59,
  "Bat@@": 59,
  "ferraillage": 59,
  "ront": 59,
  "grill@@": 59,
  "ques)": 59,
  "ron@@": 59,
  "spéciales": 59,
  "l’Acte": 59,
  "dra": 59,
  "faill@@": 59,
  "complément@@": 59,
  "publication": 59,
  "formul@@": 59,
  "formalités": 59,
  "ak": 59,
  "détect@@": 59,
  "mécanismes": 59,
  "sul@@": 59,
  "COR@@": 59,
  "design": 58,
  "accords": 58,
  "complè@@": 58,
  "écoul@@": 58,
  "ing,": 58,
  "huiles": 58,
  "FR@@": 58,
  "èr@@": 58,
  "tari@@": 58,
  "interruption": 58,
  "crues": 58,
  "accep@@": 58,
  "Industri@@": 58,
  "appartenant": 58,
  "litige": 58,
  "(notamment": 58,
  "fabricant.": 58,
  "IN": 58,
  "MEN@@": 58,
  "SN@@": 58,
  "envisag@@": 58,
  "Electricité": 58,
  "extern@@": 58,
  "procédera": 58,
  "ture.": 58,
  "Valeur": 58,
  "exécutée": 58,
  "raisonnablement": 58,
  "tures,": 58,
  "Commande": 58,
  "55@@": 58,
  "Génie": 58,
  "OPGW": 58,
  "étude,": 58,
  "notifié": 58,
  "orientation": 58,
  "quement,": 58,
  "l'implantation": 58,
  "eté": 58,
  "management": 58,
  "topographiques": 58,
  "39@@": 58,
  "néglig@@": 58,
  "2%": 58,
  "forces": 58,
  "d'ét@@": 58,
  "cuv@@": 58,
  "auxiliaire": 58,
  "d’étude": 58,
  "étro@@": 58,
  "CL@@": 58,
  "ra@@": 58,
  "ve@@": 58,
  "déch@@": 58,
  "manipulation": 58,
  ".La": 58,
  "Veuillez": 58,
  "apport@@": 58,
  "Man@@": 58,
  "lui-même": 58,
  "secour@@": 58,
  "citation": 58,
  "entrepreneurs": 58,
  "indemnités": 58,
  "F)": 58,
  "chanti@@": 58,
  "extérieur,": 58,
  "galvanisation": 58,
  "Mettre": 58,
  "polaire": 58,
  "10/@@": 58,
  "consac@@": 58,
  "50%": 58,
  "CCT@@": 58,
  "sus": 58,
  "l’avis": 58,
  "34@@": 58,
  "valorisation": 58,
  "assignée": 58,
  "Phase": 58,
  "h)": 58,
  "(cf.": 58,
  "ą@@": 58,
  "Ro@@": 58,
  "dre.": 58,
  "s :": 58,
  "n'y": 58,
  "bénéfices": 58,
  "Ouvrage": 58,
  "acier,": 58,
  "63": 58,
  "Fourniture,": 58,
  "erreurs": 58,
  "professionnelle": 58,
  "répondant": 58,
  "exécutif": 58,
  "liss@@": 58,
  "sug@@": 58,
  "intégrer": 58,
  "réceptionn@@": 58,
  "qu’après": 58,
  "kV,": 58,
  "20%": 58,
  "62": 58,
  "-K@@": 58,
  "się": 58,
  "enveloppes": 57,
  "inage": 57,
  "places": 57,
  "Normes": 57,
  "âme": 57,
  "eant": 57,
  "×@@": 57,
  "alluvi@@": 57,
  "BH@@": 57,
  "GN@@": 57,
  "pur@@": 57,
  "parfois": 57,
  "comment": 57,
  "d’off@@": 57,
  "proportion": 57,
  "mainten@@": 57,
  "viendra": 57,
  "correspondantes": 57,
  "longitudinal": 57,
  "mét@@": 57,
  "47": 57,
  "68@@": 57,
  "rapid@@": 57,
  "cher@@": 57,
  "mur@@": 57,
  "devraient": 57,
  "réduite": 57,
  "et.": 57,
  "définitifs": 57,
  "sses": 57,
  "(4@@": 57,
  "conclu": 57,
  "ERIE": 57,
  "F-@@": 57,
  "fonctionnement,": 57,
  "Instructions": 57,
  "l’ar@@": 57,
  "d'huile": 57,
  "Coût": 57,
  "prescrites": 57,
  "FER@@": 57,
  "défin@@": 57,
  "terrain,": 57,
  "déliv@@": 57,
  "mois.": 57,
  "emp@@": 57,
  "ciment,": 57,
  "gamme": 57,
  "filière": 57,
  "versement": 57,
  "1.5": 57,
  "fication@@": 57,
  "Cocontractant": 57,
  "faudra": 57,
  "valider": 57,
  "ta": 57,
  "Ob@@": 57,
  "internationale": 57,
  "Si,": 57,
  "remblaiement": 57,
  "conventions": 57,
  "importation": 57,
  "d'évacuation": 57,
  "(la": 57,
  "réglementaire": 57,
  "èv@@": 57,
  "Conven@@": 57,
  "jest": 57,
  "petit": 57,
  "obligatoire": 57,
  "Super@@": 57,
  "géométrie": 57,
  "habitu@@": 57,
  "trait": 57,
  "Condu@@": 57,
  "déroulement": 57,
  "fraction": 57,
  "soci@@": 57,
  "±@@": 57,
  "RIC": 57,
  "restitu@@": 57,
  "ge,": 57,
  "Hauteur": 57,
  "agricol@@": 57,
  "revêt@@": 57,
  "étendue": 57,
  "en-@@": 57,
  "dist@@": 57,
  "l’entreprise.": 57,
  "film": 57,
  "suivi@@": 57,
  "conduire": 57,
  "centi@@": 57,
  "boul@@": 57,
  "liquides": 57,
  "déversement": 57,
  "d'information": 57,
  "contractuel": 57,
  "d’équipements": 57,
  "bres,": 57,
  "V)": 57,
  "redevances": 57,
  "fiabilité": 57,
  "vit@@": 57,
  "indiquera": 57,
  "qués": 57,
  "Contract@@": 57,
  "danger@@": 57,
  "soudu@@": 57,
  "mandataire": 57,
  "TVA": 56,
  "fortes": 56,
  "échang@@": 56,
  "statut": 56,
  "traitées": 56,
  "¨¤": 56,
  "Suivant": 56,
  "meuble": 56,
  "accompagné": 56,
  "chiffres": 56,
  "climatisation": 56,
  "décis@@": 56,
  "extéri@@": 56,
  "PSA": 56,
  "Conception": 56,
  "recyclage": 56,
  "dénommé": 56,
  "évacuer": 56,
  "répon@@": 56,
  "d'appel": 56,
  "déviation": 56,
  "tionnement": 56,
  "déc@@": 56,
  "clav@@": 56,
  "synthèse": 56,
  "occasionn@@": 56,
  "pen@@": 56,
  "raisonnable": 56,
  "mémoire": 56,
  "omm@@": 56,
  "association": 56,
  "d'installation": 56,
  "Tou@@": 56,
  "11-@@": 56,
  "reprendre": 56,
  "front@@": 56,
  "déb@@": 56,
  "accumul@@": 56,
  "éti@@": 56,
  "police": 56,
  "opérateur": 56,
  "enne,": 56,
  "technique.": 56,
  "vant@@": 56,
  "ène.": 56,
  "qu'en": 56,
  "Droit": 56,
  "suffis@@": 56,
  "Côte": 56,
  "installations,": 56,
  "Ouvr@@": 56,
  "étanch@@": 56,
  "externes": 56,
  "Depuis": 56,
  "régulière": 56,
  "DANS": 56,
  "dépassant": 56,
  "omè@@": 56,
  "rattach@@": 56,
  "partenariat": 56,
  "l’importance": 56,
  "U1000": 56,
  "établit": 56,
  "O.": 56,
  "L’A@@": 56,
  "SION": 56,
  "dépassement": 56,
  "carbone": 56,
  "jec@@": 56,
  "l/@@": 56,
  "envers": 56,
  "chap@@": 56,
  "G,": 56,
  "cham@@": 56,
  "prospection": 56,
  "renforcer": 56,
  "EQUIPEMENTS": 56,
  "l'organe": 56,
  "ampl@@": 56,
  "élaboration": 56,
  "że": 56,
  "surcharge": 56,
  "maintenance,": 56,
  "(O@@": 56,
  "frein@@": 56,
  "courante": 56,
  "COBAC": 56,
  "repose": 56,
  "INE": 56,
  "promotion": 56,
  "accessible": 56,
  "rang": 56,
  "CCAG,": 56,
  "dit,": 56,
  "coulage": 56,
  "planification": 56,
  "décor@@": 56,
  "extraction": 56,
  "techniques.": 56,
  "partie,": 56,
  "Prise": 56,
  "extrêmes": 56,
  "particules": 56,
  "us,": 56,
  "plat": 56,
  "duction": 56,
  "NG@@": 56,
  "lage": 56,
  "argile": 56,
  "chaude": 56,
  "mation": 56,
  "DEM@@": 56,
  "Protocole": 56,
  "EURS": 56,
  "équipement,": 56,
  "réparti@@": 56,
  "clos": 55,
  "doubl@@": 55,
  "mes@@": 55,
  "dangers": 55,
  "Déc@@": 55,
  "2013": 55,
  "retourn@@": 55,
  "emball@@": 55,
  "écrans": 55,
  "L’analyse": 55,
  "Ni@@": 55,
  "chet@@": 55,
  "équival@@": 55,
  "BE": 55,
  "ion.": 55,
  "lever": 55,
  "Pays": 55,
  "juridi@@": 55,
  "bes": 55,
  "conv@@": 55,
  "carot@@": 55,
  "drag@@": 55,
  "d’appui": 55,
  "poteau": 55,
  "blement": 55,
  "causes": 55,
  "électrogène": 55,
  "anée": 55,
  "dépass@@": 55,
  "Offre": 55,
  "bail": 55,
  "inée": 55,
  "ING": 55,
  "Procédure": 55,
  "chois@@": 55,
  "Jus@@": 55,
  "TION@@": 55,
  "refoulement": 55,
  "Pièce": 55,
  "09@@": 55,
  "Modi@@": 55,
  "atures": 55,
  "vér@@": 55,
  "tement": 55,
  "couvr@@": 55,
  "délégu@@": 55,
  "ms": 55,
  "certaine": 55,
  "Cherchell": 55,
  "sensibles": 55,
  "condi@@": 55,
  "l'évacuation": 55,
  "eure": 55,
  "semelles": 55,
  "novembre": 55,
  "renseign@@": 55,
  "diffus@@": 55,
  "Schéma": 55,
  "Ensemble": 55,
  "solu@@": 55,
  "modélisation": 55,
  "lour@@": 55,
  "COM@@": 55,
  "jour.": 55,
  "uniforme": 55,
  "livr@@": 55,
  "lot.": 55,
  "anorm@@": 55,
  "ISO@@": 55,
  "escal@@": 55,
  "raccordement,": 55,
  "impossible": 55,
  "numéri@@": 55,
  "vise": 55,
  "l'emprise": 55,
  "chenal": 55,
  "TA": 55,
  "mesu@@": 55,
  "by": 55,
  "sc@@": 55,
  "002": 55,
  "67": 55,
  "communaut@@": 55,
  "domaines": 55,
  "recycl@@": 55,
  "écu@@": 55,
  "comprises": 55,
  "propagation": 55,
  "refus@@": 55,
  "air,": 55,
  "préalables": 55,
  "montrent": 55,
  "civil,": 55,
  "rect@@": 55,
  "Conn@@": 55,
  "Santé": 55,
  "acoustique": 55,
  "b)@@": 55,
  "ench@@": 55,
  "habillage": 55,
  "noyau": 55,
  "Déclaration": 55,
  "coté": 55,
  "vides": 55,
  "ga@@": 55,
  "diversité": 55,
  "compatibilité": 55,
  "Régulation": 55,
  "provoquer": 55,
  "és)": 55,
  "rée.": 55,
  "lab@@": 55,
  "droit,": 55,
  "FOURNITURE": 55,
  "enduits": 55,
  "TAN@@": 55,
  "expli@@": 55,
  "OC@@": 55,
  "soumission.": 55,
  "l'échelle": 55,
  "iture": 55,
  "Pou@@": 55,
  "alo@@": 55,
  "Sal@@": 55,
  "porte-@@": 55,
  "rail@@": 55,
  "production.": 55,
  "entreten@@": 55,
  "Rel@@": 55,
  "course": 55,
  "distingu@@": 55,
  "retenir": 55,
  "ateli@@": 55,
  "longu@@": 54,
  "conçue": 54,
  "10.": 54,
  "érieur": 54,
  "fusion": 54,
  "Fon@@": 54,
  "Ministre": 54,
  "gestionnaire": 54,
  "CCTP.": 54,
  "l'origine": 54,
  "futur": 54,
  "d’incendie": 54,
  "intervalles": 54,
  "recherches": 54,
  "appro@@": 54,
  "d'utiliser": 54,
  "systématiquement": 54,
  "c’est-à-dire": 54,
  "viss@@": 54,
  "demande.": 54,
  "intérieures": 54,
  "liquidation": 54,
  "propriétaires": 54,
  "d’éclairage": 54,
  "morale": 54,
  "Surface": 54,
  "rés,": 54,
  "nivel@@": 54,
  "Accord": 54,
  "dence": 54,
  "fa@@": 54,
  "Electri@@": 54,
  "Débit": 54,
  "particuliers": 54,
  "d’analyse": 54,
  "agglom@@": 54,
  "►Le": 54,
  "Evolution": 54,
  "l'opération": 54,
  "ationn@@": 54,
  "OUR@@": 54,
  "Se": 54,
  "l'on": 54,
  "tiques.": 54,
  "80%": 54,
  "précédemment": 54,
  "l’arrière": 54,
  "3.4.@@": 54,
  "concentré": 54,
  "itinér@@": 54,
  "mentionn@@": 54,
  "solli@@": 54,
  "flot@@": 54,
  "Chantier": 54,
  "emment": 54,
  "sensibilisation": 54,
  "Cou@@": 54,
  "bride": 54,
  "sives": 54,
  "alarmes": 54,
  "charger": 54,
  "Do@@": 54,
  "pieu": 54,
  "l’usage": 54,
  "si,": 54,
  "l’armoire": 54,
  "illustr@@": 54,
  "vitrage": 54,
  "PN@@": 54,
  "circu@@": 54,
  "SITE": 54,
  "dage": 54,
  "isations": 54,
  "go": 54,
  "architectur@@": 54,
  "4).": 54,
  "commande.": 54,
  "complét@@": 54,
  "l’inter@@": 54,
  "PGES": 54,
  "ens,": 54,
  "popul@@": 54,
  "ck@@": 54,
  "réellement": 54,
  "soign@@": 54,
  "l’ouvrage,": 54,
  "paliers": 54,
  "cau@@": 54,
  "d’Œuvre.": 54,
  "nul@@": 54,
  "semaines": 54,
  "ologiques": 54,
  "chal@@": 54,
  "vont": 54,
  "pluies": 54,
  "éb@@": 54,
  "trains": 54,
  "public,": 54,
  "comportent": 54,
  "lumière": 54,
  "tis": 54,
  "rang@@": 54,
  "produite": 54,
  "Production": 54,
  "déform@@": 54,
  "interprét@@": 54,
  "appel@@": 54,
  "contamin@@": 54,
  "rec@@": 54,
  "bordures": 54,
  "Son": 54,
  "pom@@": 54,
  "(les": 54,
  "AV@@": 54,
  "liné@@": 54,
  "ta@@": 54,
  "desdits": 54,
  "difficile": 54,
  "…).": 54,
  "avantage": 54,
  "pétroliers": 54,
  "ciments": 54,
  "contrôleur": 54,
  "pens@@": 54,
  "Sup@@": 53,
  "minier": 53,
  "composante": 53,
  "abil@@": 53,
  "alarm@@": 53,
  "pluviales": 53,
  "Titre": 53,
  "destruction": 53,
  "(L@@": 53,
  "visit@@": 53,
  "l'unité": 53,
  "3D": 53,
  "Modification": 53,
  "fossé": 53,
  "exempl@@": 53,
  "det@@": 53,
  "autobus": 53,
  "sond@@": 53,
  "engend@@": 53,
  "PP@@": 53,
  "prolong@@": 53,
  "exemp@@": 53,
  "ci-dessou@@": 53,
  "tex@@": 53,
  "ern@@": 53,
  "alimenté": 53,
  "préal@@": 53,
  "prêt": 53,
  "accumulation": 53,
  "comprimé": 53,
  "descriptif": 53,
  "prob@@": 53,
  "port,": 53,
  "contenues": 53,
  "350@@": 53,
  "lisse": 53,
  "s,@@": 53,
  "Sénégal": 53,
  "ceci": 53,
  "D/@@": 53,
  "Monsieur": 53,
  "prescrit@@": 53,
  "agir": 53,
  "pilot@@": 53,
  "DÉ@@": 53,
  "fiscale": 53,
  "Classe": 53,
  "serveur": 53,
  "kVA": 53,
  "omb@@": 53,
  "ś": 53,
  "prépa@@": 53,
  "Responsable": 53,
  "69@@": 53,
  "traitants": 53,
  "naturelles": 53,
  "Entre": 53,
  "comport@@": 53,
  "usu@@": 53,
  "iquement": 53,
  "actionnaires": 53,
  "afférents": 53,
  "conduct@@": 53,
  "entretien,": 53,
  "publique,": 53,
  "connaiss@@": 53,
  "…………@@": 53,
  "houles": 53,
  "puiss@@": 53,
  "main-@@": 53,
  "disponi@@": 53,
  "subi": 53,
  "maxi": 53,
  "manuelle": 53,
  "gén@@": 53,
  "N/@@": 53,
  "sélectionn@@": 53,
  "uniform@@": 53,
  "LLE": 53,
  "fili@@": 53,
  "Je": 53,
  "itinéraires": 53,
  "boîtier": 53,
  "AVEC": 53,
  "vues": 53,
  "contractuels": 53,
  "distributeur": 53,
  "________@@": 53,
  "robinet": 53,
  "d'offres": 53,
  "d'implantation": 53,
  "descentes": 53,
  "crête": 53,
  "compris@@": 53,
  "cause,": 53,
  "ERS": 53,
  "situe": 53,
  "cations": 53,
  "barrières": 53,
  "lon@@": 53,
  "tien": 53,
  "pier@@": 53,
  "satisfait": 53,
  "sensiblement": 53,
  "Nations": 53,
  "constat": 53,
  "kg/@@": 53,
  "disposés": 53,
  "21-@@": 53,
  "d’assurance": 53,
  "factures": 53,
  "pag@@": 53,
  "Caisse": 53,
  "frastructure": 53,
  "gues": 53,
  "Pression": 53,
  "Sa": 53,
  "ataire": 53,
  "l'emploi": 53,
  "ances.": 53,
  "établi@@": 53,
  "ci-après,": 53,
  "tub@@": 53,
  "décomposition": 53,
  "dot@@": 53,
  "l’obligation": 53,
  "champs": 53,
  "affichage": 53,
  "grillage": 53,
  "r¨¦@@": 53,
  "route,": 53,
  "prouv@@": 52,
  "rest@@": 52,
  "2002": 52,
  "attestations": 52,
  "ards": 52,
  "dérogation": 52,
  "aine,": 52,
  "appelé": 52,
  "EST": 52,
  "ć": 52,
  "traduction": 52,
  "Réf@@": 52,
  "ée)": 52,
  "doi@@": 52,
  "chaussée,": 52,
  "d'évaluation": 52,
  "employé": 52,
  "vidéo": 52,
  "IV,": 52,
  "mul@@": 52,
  "graisse": 52,
  "mobiles": 52,
  "industriels": 52,
  "(dans": 52,
  "éni@@": 52,
  "monté": 52,
  "horizontaux": 52,
  "découlant": 52,
  "obstacle": 52,
  "habilitation": 52,
  "TGBT": 52,
  "Total": 52,
  "engin": 52,
  "Op@@": 52,
  "Soci@@": 52,
  "abords": 52,
  "Installations,": 52,
  "froi@@": 52,
  "portu@@": 52,
  "l'achèvement": 52,
  "crire": 52,
  "confection": 52,
  "donnera": 52,
  "obstacles": 52,
  "Dimensions": 52,
  "espac@@": 52,
  "humid@@": 52,
  "stati@@": 52,
  "d’offre": 52,
  "ain,": 52,
  "Indi@@": 52,
  "450": 52,
  "artifici@@": 52,
  "chev@@": 52,
  "3.5": 52,
  "adhér@@": 52,
  "teur@@": 52,
  "condamn@@": 52,
  "kWh": 52,
  "l’implantation": 52,
  "propageant": 52,
  "Activités": 52,
  "sav@@": 52,
  "correct@@": 52,
  "e(s)": 52,
  "tropi@@": 52,
  "fermé@@": 52,
  "l’intermédiaire": 52,
  "C/@@": 52,
  "ple": 52,
  "rur@@": 52,
  "ros@@": 52,
  "conces@@": 52,
  "public.": 52,
  "moul@@": 52,
  "ativement": 52,
  "ES.": 52,
  "Autorisation": 52,
  "atif.": 52,
  "IL": 52,
  "Administr@@": 52,
  "enregistrement": 52,
  "soin": 52,
  "SOU@@": 52,
  "2019": 52,
  "Rec@@": 52,
  "Autor@@": 52,
  "sols,": 52,
  "varie": 52,
  "fini": 52,
  "constitutifs": 52,
  "maladie": 52,
  "augmenté": 52,
  "chutes": 52,
  "équipements.": 52,
  "ouvriers": 52,
  "l’origine": 52,
  "HY@@": 52,
  "rés.": 52,
  "TD@@": 52,
  "emplois": 52,
  "Energie": 52,
  "pin@@": 52,
  "te)": 52,
  "chement": 52,
  "inférieurs": 52,
  "latérale": 52,
  "seules": 52,
  "bure@@": 52,
  "bois,": 52,
  "commentaires": 52,
  "den@@": 52,
  "suppression": 52,
  "composés": 52,
  "faune": 52,
  "gi@@": 52,
  "10)": 52,
  "bénéficier": 52,
  "m;": 52,
  "souterraines": 52,
  "hau@@": 52,
  "52": 52,
  "décou@@": 52,
  "cohér@@": 52,
  "lourds": 52,
  "travée": 52,
  "ventilateur": 52,
  "GEN@@": 52,
  "us.": 52,
  "console": 52,
  "isent": 52,
  "Point": 52,
  "10,@@": 52,
  "statiques": 51,
  "toit": 51,
  "animaux": 51,
  "statu@@": 51,
  "valide": 51,
  "caoutchouc": 51,
  "élém@@": 51,
  "talu@@": 51,
  "atiques": 51,
  "accordée": 51,
  "recomman@@": 51,
  "MAN@@": 51,
  "arché@@": 51,
  "recettes": 51,
  "défenses": 51,
  "Sur@@": 51,
  "automate": 51,
  "cho@@": 51,
  "structurel@@": 51,
  "spec@@": 51,
  "naturels": 51,
  "Syn@@": 51,
  "Algérie": 51,
  "d’établir": 51,
  "Rou@@": 51,
  "l’obtention": 51,
  "implanté": 51,
  "besoin,": 51,
  "chu@@": 51,
  "J": 51,
  "inclin@@": 51,
  "remar@@": 51,
  "dési@@": 51,
  "aw@@": 51,
  "modu@@": 51,
  "6).": 51,
  "boîtes": 51,
  "PARTIES": 51,
  "he@@": 51,
  "univers@@": 51,
  "aî@@": 51,
  "au.": 51,
  "navi@@": 51,
  "passerelles": 51,
  "CF": 51,
  "minimum.": 51,
  "réclam@@": 51,
  "sil@@": 51,
  "ode": 51,
  "l'Assemblée": 51,
  "dis": 51,
  "Congo": 51,
  "lèv@@": 51,
  "-B@@": 51,
  "charpente": 51,
  "immerg@@": 51,
  "Exper@@": 51,
  "l’offre.": 51,
  "calculées": 51,
  "ploration": 51,
  "vrac": 51,
  "d’emprunt": 51,
  "kW": 51,
  "d’offres.": 51,
  "pose,": 51,
  "clu@@": 51,
  "isolant": 51,
  "humidité": 51,
  "!@@": 51,
  "litres": 51,
  "l'Entreprise": 51,
  "type,": 51,
  "DC": 51,
  "empl@@": 51,
  "nationaux": 51,
  "délivrance": 51,
  "peu@@": 51,
  "O,": 51,
  "certifi@@": 51,
  "43": 51,
  "données,": 51,
  "B/@@": 51,
  "l,": 51,
  "roue": 51,
  "usag@@": 51,
  "concession": 51,
  "émet@@": 51,
  "d'état": 51,
  "GT@@": 51,
  "préavis": 51,
  "équipes": 51,
  "gravité": 51,
  "appuy@@": 51,
  "partiellement": 51,
  "dispos@@": 51,
  "qualité.": 51,
  "souple": 51,
  "SOCI@@": 51,
  "couvert": 51,
  "×": 51,
  "usine,": 51,
  "euses,": 51,
  "quent": 51,
  "Projet.": 51,
  "justifications": 51,
  "dépô@@": 51,
  "cailloux": 51,
  "distance,": 51,
  "admis@@": 51,
  "troduction": 51,
  "placer": 51,
  "Plus": 51,
  "1,50": 51,
  "modè@@": 51,
  "st": 51,
  "corni@@": 51,
  "vention": 51,
  "Délégué": 51,
  "(6)": 51,
  "graphie": 51,
  "atta@@": 51,
  "l'Ingénieur.": 51,
  "MA": 51,
  "indi@@": 51,
  "achat": 51,
  "procédu@@": 51,
  "calcul,": 51,
  "annuels": 51,
  "largement": 51,
  "Associ@@": 51,
  "euse.": 51,
  "reten@@": 51,
  "Lou@@": 51,
  "Ass@@": 51,
  "ative.": 51,
  "consignes": 51,
  "a)@@": 51,
  "DIS@@": 51,
  "ous@@": 51,
  "gro@@": 51,
  "camion": 51,
  "compétence": 51,
  "Dém@@": 51,
  "bâche": 51,
  "l’action": 51,
  "fractu@@": 51,
  "Alimentation": 51,
  "abilité,": 50,
  "(K@@": 50,
  "tru@@": 50,
  "Mont@@": 50,
  "bio@@": 50,
  "Organisation": 50,
  "flexion": 50,
  "É": 50,
  "village": 50,
  "autorisés": 50,
  "Jo@@": 50,
  "utilisera": 50,
  "apa@@": 50,
  "dev@@": 50,
  "chaussées": 50,
  "Fascicule": 50,
  "pression.": 50,
  "matériaux.": 50,
  "érées": 50,
  "RATP": 50,
  "rectifi@@": 50,
  "coulé": 50,
  "assujet@@": 50,
  "solaire": 50,
  "professionnelles": 50,
  "indépend@@": 50,
  "moy@@": 50,
  "bli@@": 50,
  "vert@@": 50,
  "H.@@": 50,
  "pays.": 50,
  "blanch@@": 50,
  "démontrer": 50,
  "DRA@@": 50,
  "Rem@@": 50,
  "horaire": 50,
  "aspir@@": 50,
  "résili@@": 50,
  "FORMA@@": 50,
  "d'urgence": 50,
  "volum@@": 50,
  "l'emplacement": 50,
  "arité": 50,
  "provisi@@": 50,
  "massifs": 50,
  "Fait": 50,
  "pis@@": 50,
  "Méthode": 50,
  "compte,": 50,
  "piles": 50,
  "P-@@": 50,
  "culturel@@": 50,
  "tige": 50,
  "ogramme": 50,
  "document,": 50,
  "d'en": 50,
  "approxim@@": 50,
  "l’élaboration": 50,
  "ę": 50,
  "d'eau,": 50,
  "position,": 50,
  "International": 50,
  "trouvant": 50,
  "cabinet": 50,
  "définitivement": 50,
  "guid@@": 50,
  "différend": 50,
  "²": 50,
  "tol@@": 50,
  "gence": 50,
  "LONGSTAR": 50,
  "fiscal@@": 50,
  "unit@@": 50,
  "servi": 50,
  "entière": 50,
  "NFC": 50,
  "soumission,": 50,
  "achèvement": 50,
  "l’avancement": 50,
  "IEC": 50,
  "égales": 50,
  "axi@@": 50,
  "ets.": 50,
  "è": 50,
  "chargés": 50,
  "ferr@@": 50,
  "Mode": 50,
  "Burkina": 50,
  "présentera": 50,
  "foresti@@": 50,
  "commutateur": 50,
  "fourn@@": 50,
  "céder": 50,
  "micr@@": 50,
  "atrice": 50,
  "ateliers": 50,
  "èle": 50,
  "conclusion": 50,
  "te-@@": 50,
  "bro@@": 50,
  "coff@@": 50,
  "exemplaire": 50,
  "pondér@@": 50,
  "Prévoir": 50,
  "tifs.": 50,
  "aujourd’hui": 50,
  "principa@@": 50,
  "max": 50,
  "Unité": 50,
  "divers@@": 50,
  "relié": 50,
  "personnes,": 50,
  "omp@@": 50,
  "e-": 50,
  "apparaît": 50,
  "acceptée": 50,
  "2011": 50,
  "lampes": 50,
  "Force": 50,
  "maitre": 50,
  "EP": 50,
  "sit@@": 50,
  "sures": 50,
  "graveleux": 50,
  "pays,": 50,
  "l’espace": 50,
  "autonome": 50,
  "occupants": 50,
  "57": 50,
  "AF@@": 50,
  "re:": 50,
  "d'Ouvrage.": 50,
  "rage": 49,
  "alliage": 49,
  "6.1": 49,
  "tribunal": 49,
  "échange": 49,
  "écrit,": 49,
  "systè@@": 49,
  "titudes": 49,
  "forfait@@": 49,
  "fai@@": 49,
  "délivrée": 49,
  "itures": 49,
  "contrôlé": 49,
  "connu": 49,
  "faire,": 49,
  "recevant": 49,
  "entend": 49,
  "l’économie": 49,
  "Laboratoire": 49,
  "ne,": 49,
  "INSTALLATIONS": 49,
  "ces.": 49,
  "98@@": 49,
  "X,": 49,
  "sonore": 49,
  "L’étude": 49,
  "cellul@@": 49,
  "MATERIELS": 49,
  "": 49,
  "conversion": 49,
  "considère": 49,
  "spécifiquement": 49,
  "enlever": 49,
  "décl@@": 49,
  "Ingénieur": 49,
  "dex": 49,
  "01.@@": 49,
  "Ju@@": 49,
  "traitements": 49,
  "munie": 49,
  "qualit@@": 49,
  "um,": 49,
  "routière": 49,
  "centrale.": 49,
  "d’ouvrage.": 49,
  "descrip@@": 49,
  "ises": 49,
  "fonctionnelle": 49,
  "douani@@": 49,
  "entrepren@@": 49,
  "monnaies": 49,
  "oll@@": 49,
  "Durée": 49,
  "ingu@@": 49,
  "véhicul@@": 49,
  "tionnelles": 49,
  "bloc@@": 49,
  "pinces": 49,
  "l'autorité": 49,
  "l’Offre": 49,
  "prévu@@": 49,
  "re).": 49,
  "étudier": 49,
  "Marché@@": 49,
  "complété": 49,
  "bâtiment,": 49,
  "99@@": 49,
  "assister": 49,
  "der,": 49,
  "inte": 49,
  "l'aménagement": 49,
  "DEC@@": 49,
  "invers@@": 49,
  "rabais": 49,
  "soixante": 49,
  "exigé": 49,
  "LC@@": 49,
  "[@@": 49,
  "dans@@": 49,
  "exercice": 49,
  "aines,": 49,
  "marin": 49,
  "analyser": 49,
  "Ville": 49,
  "meilleurs": 49,
  "l’avance": 49,
  "bathy@@": 49,
  "intempéries": 49,
  "aéroport": 49,
  "spir@@": 49,
  "diction": 49,
  "modifiée": 49,
  "enlev@@": 49,
  "Eng@@": 49,
  "normales": 49,
  "citer": 49,
  "mesur@@": 49,
  "RO2V": 49,
  "poli@@": 49,
  "admission": 49,
  "olog@@": 49,
  "cè@@": 49,
  "régionale": 49,
  "teront": 49,
  "d’après": 49,
  "64": 49,
  "TÉ": 49,
  "d’information": 49,
  "hausse": 49,
  "d’urgence": 49,
  "détermine": 49,
  "orang@@": 49,
  "fondament@@": 49,
  "branch@@": 49,
  "approuvée": 49,
  "quette": 49,
  "alisation,": 49,
  "ENTRE": 49,
  "CONTRAT": 49,
  "a-": 49,
  "électron@@": 49,
  "préfabriqués": 49,
  "Celui-ci": 49,
  "confirmation": 49,
  "concassage": 49,
  "charges.": 49,
  "stipulé": 49,
  "favoriser": 49,
  "buses": 49,
  "majorité": 49,
  "d'œuvre,": 49,
  "onnage": 49,
  "deur": 49,
  "hydrat@@": 49,
  "frag@@": 49,
  "plomb@@": 49,
  "chi@@": 49,
  "d’équipement": 49,
  "Franç@@": 49,
  "revue": 49,
  "l’éclairage": 49,
  "OUVRAGES": 49,
  "l'activité": 49,
  "mettant": 49,
  "oire,": 49,
  "projection": 49,
  "compétente": 49,
  "agréés": 49,
  "eures": 49,
  "~@@": 49,
  "sûreté": 49,
  "Maintenance": 49,
  "turbin@@": 49,
  "ine.": 49,
  "rentabilité": 49,
  "DPAO,": 49,
  "motiv@@": 49,
  "représenté": 49,
  "Paris": 49,
  "rée,": 49,
  "l'égard": 49,
  "délégué": 49,
  "Vari@@": 49,
  "oeuv@@": 48,
  "séquence": 48,
  "munies": 48,
  "SSI@@": 48,
  "lamin@@": 48,
  "mini": 48,
  "porteurs": 48,
  "BETON": 48,
  "scellement,": 48,
  "refroidiss@@": 48,
  "chocs": 48,
  "Soit": 48,
  "outillages": 48,
  "autom@@": 48,
  "connecté": 48,
  "sondes": 48,
  "L’Autorité": 48,
  "d’ét@@": 48,
  "d'ouvrages": 48,
  "de:": 48,
  "évalu@@": 48,
  "nuisances": 48,
  "CONSTRUCTION": 48,
  "V/@@": 48,
  "exigées": 48,
  "ht": 48,
  "vices": 48,
  "intégrés": 48,
  "tention": 48,
  "touch@@": 48,
  "S’@@": 48,
  "ai,": 48,
  "non-conformité": 48,
  "Chem@@": 48,
  "préfabriqu@@": 48,
  "tise": 48,
  "sep@@": 48,
  "tion;": 48,
  "Zones": 48,
  "exploiter": 48,
  "accepte": 48,
  "lt@@": 48,
  "l’organisme": 48,
  "commerciales": 48,
  "ci-dessous,": 48,
  "jugé": 48,
  "00m": 48,
  "amin@@": 48,
  "perturb@@": 48,
  "disposent": 48,
  "appliquant": 48,
  "Les@@": 48,
  "consécu@@": 48,
  "viennent": 48,
  "ouvrir": 48,
  "d’études": 48,
  "l’essentiel": 48,
  "mani@@": 48,
  "circulation,": 48,
  "malax@@": 48,
  "conf@@": 48,
  "ORI@@": 48,
  "prétendre": 48,
  "flott@@": 48,
  "m3/h": 48,
  "■@@": 48,
  "phon@@": 48,
  "véhicule,": 48,
  "eaux@@": 48,
  "différences": 48,
  "collectivités": 48,
  "outillage": 48,
  "transvers@@": 48,
  "CHAR@@": 48,
  "creux": 48,
  "actualisation": 48,
  "zinc": 48,
  "dérivation": 48,
  "marché@@": 48,
  "résilier": 48,
  "Groupement": 48,
  "identifié": 48,
  "d’atténuation": 48,
  "efficac@@": 48,
  "aisons": 48,
  "onne": 48,
  "Autorité": 48,
  "futurs": 48,
  "kö@@": 48,
  "Trois": 48,
  "4-": 48,
  "Lettre": 48,
  "hém@@": 48,
  "BE@@": 48,
  "conditionnement": 48,
  "appareillage": 48,
  "rampe": 48,
  "société,": 48,
  "UN": 48,
  "tapis": 48,
  "produits,": 48,
  "d'é@@": 48,
  "utilisateur": 48,
  "l'huile": 48,
  "ii)": 48,
  "précédent": 48,
  "extrait": 48,
  "véhicule.": 48,
  "susp@@": 48,
  "tive,": 48,
  "%).": 48,
  "perc@@": 48,
  "essai,": 48,
  "CONTRA@@": 48,
  "Ti@@": 48,
  "TOU@@": 48,
  "anneau": 48,
  "lac@@": 48,
  "Aménagement": 48,
  "semaine": 48,
  "°C,": 48,
  "réacteurs": 48,
  "ek@@": 48,
  "volcan@@": 48,
  "européenne": 48,
  "suivie": 48,
  "ment.": 48,
  "assimil@@": 48,
  "rémunère,": 48,
  "Entre@@": 48,
  "ox@@": 48,
  "d’achèvement": 48,
  "sour@@": 48,
  ") ;": 48,
  "armé,": 48,
  "décide": 48,
  "nouvel": 48,
  "capitaux": 48,
  "détru@@": 48,
  "Couche": 48,
  "GL@@": 48,
  "Ø@@": 48,
  "74": 48,
  "publique.": 48,
  "femmes": 48,
  "bonnes": 48,
  "perturbation": 48,
  "Outre": 48,
  "embar@@": 48,
  "cinquante": 48,
  "30%": 48,
  "modél@@": 48,
  "glissières": 48,
  "Ligne": 48,
  "Température": 48,
  "demandée": 48,
  "UM": 48,
  "ray@@": 48,
  "suiv@@": 48,
  "nord-@@": 48,
  "remettra": 48,
  "ALE": 48,
  "manutention,": 48,
  "ouvrables": 48,
  "@@@": 48,
  "observer": 47,
  "façades": 47,
  "M.@@": 47,
  "ign@@": 47,
  "réfrigération": 47,
  "l’échelle": 47,
  "objec@@": 47,
  "cons@@": 47,
  "confidenti@@": 47,
  "pré": 47,
  "géotextile": 47,
  "1:@@": 47,
  "égal@@": 47,
  "gou": 47,
  "inst@@": 47,
  "intérieurs": 47,
  "Particuli@@": 47,
  "affaire": 47,
  "noir": 47,
  "logiciels": 47,
  "TANTS": 47,
  "XI@@": 47,
  "fois@@": 47,
  "son@@": 47,
  "NF": 47,
  "MU@@": 47,
  "tester": 47,
  "but@@": 47,
  "contractante.": 47,
  "nombreuses": 47,
  "rav@@": 47,
  "(05)": 47,
  "cas.": 47,
  "53": 47,
  "trésorerie": 47,
  "REV@@": 47,
  "directs": 47,
  "Ã©@@": 47,
  "garn@@": 47,
  "arrach@@": 47,
  "ut@@": 47,
  "exer@@": 47,
  "transpar@@": 47,
  "adapter": 47,
  "trim@@": 47,
  "centri@@": 47,
  "ko@@": 47,
  "0+@@": 47,
  "Seu@@": 47,
  "ili@@": 47,
  "Concernant": 47,
  "isseur": 47,
  "GARANTIE": 47,
  "d'identification": 47,
  "président": 47,
  "clapet": 47,
  "profondeurs": 47,
  "butée": 47,
  "requi@@": 47,
  "âge": 47,
  "négatifs": 47,
  "pru@@": 47,
  "Systèmes": 47,
  "supplément@@": 47,
  "ajoutée": 47,
  "Ainsi": 47,
  "anche": 47,
  "d'œuvre.": 47,
  "bordereaux": 47,
  "contrôlée": 47,
  "Commerce": 47,
  "carburant": 47,
  "remont@@": 47,
  "perç@@": 47,
  "ue.": 47,
  "approvisionnement": 47,
  "l'écoulement": 47,
  "affectées": 47,
  "tions@@": 47,
  "hôpit@@": 47,
  "Générales": 47,
  "vent,": 47,
  "dites": 47,
  "armatu@@": 47,
  "traite": 47,
  "converti@@": 47,
  "amor@@": 47,
  "l’heure": 47,
  "frau@@": 47,
  "78@@": 47,
  "communic@@": 47,
  "usages": 47,
  "atique,": 47,
  "statistiques": 47,
  "Ter@@": 47,
  "cycl@@": 47,
  "Matéri@@": 47,
  "l’évolution": 47,
  "signés": 47,
  "machin@@": 47,
  "exprim@@": 47,
  "isolés": 47,
  "simpli@@": 47,
  "d’éléments": 47,
  "GRA@@": 47,
  "vingt-@@": 47,
  "mère": 47,
  "pali@@": 47,
  "indicateur": 47,
  "PC@@": 47,
  "facile": 47,
  "d'isolement": 47,
  "livré": 47,
  "traitée": 47,
  "commercial": 47,
  "(200@@": 47,
  "Traitement": 47,
  "possi@@": 47,
  "oit": 47,
  "départs": 47,
  "plani@@": 47,
  "comportera": 47,
  "ELS": 47,
  "schedule": 47,
  "jointe": 47,
  "METRE": 47,
  "l'absence": 47,
  "SM@@": 47,
  "flo@@": 47,
  "commence": 47,
  "inscription": 47,
  "ature": 47,
  "fin,": 47,
  "vesti@@": 47,
  "aléas,": 47,
  "inventaire": 47,
  "►L'unité◄": 47,
  "séqu@@": 47,
  "autre,": 47,
  "ca": 47,
  "accélération": 47,
  "modification,": 47,
  "sanctions": 47,
  "l’arrêt": 47,
  "onduleur": 47,
  "1500": 47,
  "l'avis": 46,
  "180": 46,
  "2),": 46,
  "pince": 46,
  "spéciale": 46,
  "dollars": 46,
  "mensuel": 46,
  "Trav@@": 46,
  "moyennant": 46,
  "Argile": 46,
  "tiles": 46,
  "bétonnage.": 46,
  "es,@@": 46,
  "l’alinéa": 46,
  "document.": 46,
  "titu@@": 46,
  "Appli@@": 46,
  "dépos@@": 46,
  "ressortir": 46,
  "déclare": 46,
  "pent@@": 46,
  "répond": 46,
  "accusé": 46,
  "calculer": 46,
  "Main@@": 46,
  "respir@@": 46,
  "27.@@": 46,
  "classi@@": 46,
  "amen": 46,
  "identifiées": 46,
  "PT@@": 46,
  "électr@@": 46,
  "µ@@": 46,
  "brute": 46,
  "redond@@": 46,
  "défavor@@": 46,
  "verbal": 46,
  "02@@": 46,
  "pénalité": 46,
  "l’évacuation": 46,
  "prévisionn@@": 46,
  "signataire": 46,
  "d'action": 46,
  "long,": 46,
  "acide": 46,
  "SD@@": 46,
  "publics,": 46,
  "innov@@": 46,
  "barrière": 46,
  "aou@@": 46,
  "TRAI@@": 46,
  "(AP@@": 46,
  "issement.": 46,
  "pac@@": 46,
  "68": 46,
  "contradictoirement": 46,
  "allongement": 46,
  "brev@@": 46,
  "périodi@@": 46,
  "onnées": 46,
  "AIRE": 46,
  "peine": 46,
  "appréci@@": 46,
  "qualifiés": 46,
  "^@@": 46,
  "ire,": 46,
  "(+@@": 46,
  "1%": 46,
  "enfants": 46,
  "possession": 46,
  "trage": 46,
  "terrain.": 46,
  "ETA@@": 46,
  "échelles": 46,
  "fum@@": 46,
  "ves": 46,
  "spécialis@@": 46,
  "aur@@": 46,
  "briques": 46,
  "géotechni@@": 46,
  "non-respect": 46,
  "WA@@": 46,
  "59@@": 46,
  "terrasse": 46,
  "%),": 46,
  "actives": 46,
  "chage": 46,
  "l’Investisseur": 46,
  "physi@@": 46,
  "tionnaire": 46,
  "administratif": 46,
  "approuvées": 46,
  "consistance": 46,
  "urbain": 46,
  "mass@@": 46,
  "thermo@@": 46,
  "pleinement": 46,
  "ction,": 46,
  "caill@@": 46,
  "disposera": 46,
  "gér@@": 46,
  "1+@@": 46,
  "stipulées": 46,
  "oir@@": 46,
  "in-@@": 46,
  "terne": 46,
  "assemblée": 46,
  "combin@@": 46,
  "souhaite": 46,
  "plâtre": 46,
  "Moy@@": 46,
  "...).": 46,
  "immobil@@": 46,
  "qu'après": 46,
  "déten@@": 46,
  "ences,": 46,
  "+/-": 46,
  "plate": 46,
  "réels": 46,
  "ey@@": 46,
  "tuyau@@": 46,
  "cm)": 46,
  "dévi@@": 46,
  "correc@@": 46,
  "tionner": 46,
  "raccordés": 46,
  "service@@": 46,
  "Se@@": 46,
  "location": 46,
  "kV.": 46,
  "l'obtention": 46,
  "autorisées": 46,
  "acceptabl@@": 46,
  "d’am@@": 46,
  "contamination": 46,
  "Nonobstant": 46,
  "ion,": 46,
  "iner@@": 46,
  "Capacité": 46,
  "with": 46,
  "d’exécution,": 46,
  "....": 46,
  "reaux": 46,
  "Information": 46,
  "esthé@@": 46,
  "investigations": 46,
  "cabine": 46,
  "Ver@@": 46,
  "modi@@": 46,
  "quartz": 46,
  "do": 46,
  "clin@@": 46,
  "certification": 46,
  "rend": 46,
  "premi@@": 46,
  "ation:": 46,
  "excl@@": 46,
  "traverse": 46,
  "Contractant.": 45,
  "UL@@": 45,
  "analy@@": 45,
  "amend@@": 45,
  "guidage": 45,
  "ez-vous": 45,
  "qualifié": 45,
  "tir": 45,
  "gram@@": 45,
  "intermédi@@": 45,
  "SEM@@": 45,
  "hal@@": 45,
  "four@@": 45,
  "régul@@": 45,
  "ement;": 45,
  "tolér@@": 45,
  "électroniques": 45,
  "réglé": 45,
  "inféri@@": 45,
  "Compl@@": 45,
  "aprè@@": 45,
  "numérot@@": 45,
  "ouill@@": 45,
  "omission": 45,
  "aide": 45,
  "èmes": 45,
  "LL@@": 45,
  "vice": 45,
  "rencontre": 45,
  "examiner": 45,
  "Titul@@": 45,
  "dépose": 45,
  "figurer": 45,
  "rouille": 45,
  "individuel": 45,
  "»@@": 45,
  "loin": 45,
  "procès-verbaux": 45,
  "N+@@": 45,
  "détérioration": 45,
  "profond@@": 45,
  "parce": 45,
  "bre@@": 45,
  "paras@@": 45,
  "communautés": 45,
  "l’E@@": 45,
  "program@@": 45,
  "suit@@": 45,
  "métri@@": 45,
  "RK_BH": 45,
  "confort": 45,
  "proposera": 45,
  "intensité": 45,
  "Sous-traitant": 45,
  "μ@@": 45,
  "demandées": 45,
  "di": 45,
  "numér@@": 45,
  "entrain@@": 45,
  "phénomènes": 45,
  "d'agrément": 45,
  "relève": 45,
  "subir": 45,
  "pulsion": 45,
  "têtes": 45,
  "etage": 45,
  "initialement": 45,
  "réglementations": 45,
  "sorti@@": 45,
  "❖": 45,
  "L'entreprise": 45,
  "contrain@@": 45,
  "ton": 45,
  "proprement": 45,
  "cle,": 45,
  "préf@@": 45,
  "problématique": 45,
  "airement": 45,
  "exploitation,": 45,
  "Cal@@": 45,
  "cheminement": 45,
  "m/s": 45,
  "extrém@@": 45,
  "Ph@@": 45,
  "agres@@": 45,
  "sanit@@": 45,
  "-00@@": 45,
  "offer@@": 45,
  "d'exécution,": 45,
  "anticip@@": 45,
  "etc.),": 45,
  "SUR@@": 45,
  "minimum,": 45,
  "rique": 45,
  "cloisons": 45,
  "fusibles": 45,
  "Formation": 45,
  "surven@@": 45,
  "g.": 45,
  "opérationnelle": 45,
  "RT@@": 45,
  "agrégats": 45,
  "échantillonnage": 45,
  "coulis": 45,
  "l'Annexe": 45,
  "heures.": 45,
  "CONTRACTANT": 45,
  "4.5": 45,
  "recherche,": 45,
  "72": 45,
  "fem@@": 45,
  "dessou@@": 45,
  "aspiration": 45,
  "pulvéris@@": 45,
  "logements": 45,
  "dress@@": 45,
  "mutu@@": 45,
  "Char@@": 45,
  "50)": 45,
  "BRE": 45,
  "compresseur": 45,
  "connaissances": 45,
  "courrier": 45,
  "HSE": 45,
  "pe,": 45,
  "eraient": 45,
  "système.": 45,
  "image": 45,
  "hé@@": 45,
  "presque": 45,
  "atif,": 45,
  "Personnel": 45,
  "sensibilité": 45,
  "PK@@": 45,
  "ultérieurement": 45,
  "arbi@@": 45,
  "évalué": 45,
  "Bén@@": 45,
  "heur@@": 45,
  "plo@@": 45,
  "poudre": 45,
  "sui@@": 45,
  "requis.": 45,
  "alisation.": 45,
  "marqu@@": 45,
  "radio": 45,
  "frottement": 45,
  "oire.": 45,
  "phénomène": 45,
  "utilisation,": 45,
  "famille": 45,
  "art@@": 45,
  "accessibilité": 45,
  "passi@@": 45,
  "l’alternateur": 45,
  "passer@@": 45,
  "ège": 45,
  "rais@@": 45,
  "01/@@": 45,
  "align@@": 45,
  "ouvertes": 45,
  "admissibles": 45,
  "teri@@": 45,
  "illi@@": 45,
  "SEC@@": 45,
  "schist@@": 45,
  "assemblés": 45,
  "années,": 45,
  "mg/@@": 45,
  "(iii)": 45,
  "sili@@": 45,
  "accroch@@": 45,
  "peintures": 45,
  "travail@@": 45,
  "za": 45,
  "veillera": 45,
  "codage": 45,
  "Gar@@": 45,
  "séch@@": 45,
  "satisfaisant": 45,
  "d’ordre": 44,
  "ö@@": 44,
  "c'est-à-dire": 44,
  "49@@": 44,
  "prorog@@": 44,
  "journée": 44,
  "l'autorisation": 44,
  "51": 44,
  "titulaires": 44,
  "acquis": 44,
  "6.3": 44,
  "Charge": 44,
  "lesdits": 44,
  "élév@@": 44,
  "aillage": 44,
  "S/@@": 44,
  "dement": 44,
  "cours,": 44,
  "théori@@": 44,
  "fouill@@": 44,
  "tran@@": 44,
  "devra,": 44,
  "I’@@": 44,
  "Ordre": 44,
  "Bâtiment": 44,
  "ami@@": 44,
  "défaut@@": 44,
  "entrepris@@": 44,
  "placée": 44,
  "Vous": 44,
  "abattage": 44,
  "rets": 44,
  "d’alarme": 44,
  "éprouv@@": 44,
  "anomalies": 44,
  "alcal@@": 44,
  "découver@@": 44,
  "décarbon@@": 44,
  "salaire": 44,
  "ov@@": 44,
  "sensibil@@": 44,
  "optimiser": 44,
  "Taux": 44,
  "permé@@": 44,
  "0-@@": 44,
  "Plac@@": 44,
  "dispens@@": 44,
  "olu@@": 44,
  "jus@@": 44,
  "favorable": 44,
  "complément": 44,
  "démo@@": 44,
  "deaux": 44,
  "évo@@": 44,
  "ity": 44,
  "usines": 44,
  "wy@@": 44,
  "commerce,": 44,
  "Matériel": 44,
  "l'impact": 44,
  "privilégi@@": 44,
  "d’or@@": 44,
  "VEN@@": 44,
  "couplage": 44,
  "convo@@": 44,
  "ENTREPRISE": 44,
  "pôts": 44,
  "brû@@": 44,
  "l'assemblée": 44,
  "séparé@@": 44,
  "tomb@@": 44,
  "indirectement": 44,
  "saisie": 44,
  "blindage": 44,
  "incidents": 44,
  "atives,": 44,
  "mé": 44,
  "tension@@": 44,
  "pénétr@@": 44,
  "10,": 44,
  "…..@@": 44,
  "logis@@": 44,
  "dégagement": 44,
  "santé,": 44,
  "validé": 44,
  "d'intérêt": 44,
  "PARTI@@": 44,
  "maîtr@@": 44,
  "Manuel": 44,
  "terie": 44,
  "Commiss@@": 44,
  "esses": 44,
  "touche": 44,
  "fluide": 44,
  "84": 44,
  "Module": 44,
  "est-@@": 44,
  "Demande": 44,
  "registres": 44,
  "protection.": 44,
  "adresse": 44,
  "CTION": 44,
  "convenance": 44,
  "procède": 44,
  "ż": 44,
  "stocks": 44,
  "quin@@": 44,
  "batardeaux": 44,
  "maintenance.": 44,
  "(5@@": 44,
  "Carte": 44,
  "intégrée": 44,
  "éché@@": 44,
  "emballage": 44,
  "CG@@": 44,
  "ki@@": 44,
  "judiciaire": 44,
  "57@@": 44,
  "PA": 44,
  "renfor@@": 44,
  "temporaires": 44,
  "jet": 44,
  "institution": 44,
  "minima": 44,
  "bur@@": 44,
  "panne": 44,
  "mesurées": 44,
  "gaz,": 44,
  "notion": 44,
  "économique,": 44,
  "impose": 44,
  "bâtiment.": 44,
  "gâch@@": 44,
  "sure": 44,
  "": 44,
  "combustibles": 44,
  "tinction": 44,
  "l'évaluation": 44,
  "Not@@": 44,
  "V.@@": 44,
  "To@@": 44,
  "ba": 44,
  "calcaire": 44,
  "auri@@": 44,
  "ecter": 44,
  "démonstration": 44,
  "river@@": 44,
  "différente": 44,
  "douche": 44,
  "bitumin@@": 44,
  "déblai": 44,
  "freinage": 44,
  "obstru@@": 44,
  "terrestre": 44,
  "opie": 44,
  "configur@@": 44,
  "envir@@": 44,
  "veille": 44,
  "constitutives": 43,
  "l’augmentation": 43,
  "offrir": 43,
  "l'enlèvement": 43,
  "part.": 43,
  "découverte": 43,
  "traces": 43,
  "Parti@@": 43,
  "d¨¦@@": 43,
  "II.@@": 43,
  "précontrain@@": 43,
  "évacuateur": 43,
  "Quand": 43,
  "e\"": 43,
  "probablement": 43,
  "rond@@": 43,
  "libres": 43,
  "transversal": 43,
  "archiv@@": 43,
  "listes": 43,
  "fixant": 43,
  "me)": 43,
  "mètres,": 43,
  "teau": 43,
  "Vit@@": 43,
  "les.": 43,
  "ément@@": 43,
  "fluides": 43,
  "restera": 43,
  "oxyde": 43,
  "micro-@@": 43,
  "www.@@": 43,
  "06@@": 43,
  "déterminés": 43,
  "manuellement": 43,
  "Produ@@": 43,
  "SERVICE": 43,
  "domicile": 43,
  "TIVE": 43,
  "isolé": 43,
  "s’y": 43,
  "suppose": 43,
  "planch@@": 43,
  "ref@@": 43,
  "failles": 43,
  "élevage": 43,
  "dossi@@": 43,
  "facil@@": 43,
  "rédaction": 43,
  "requis@@": 43,
  "épaisseur,": 43,
  "ènes": 43,
  "instrumentation": 43,
  "horizontales": 43,
  "sert": 43,
  "TÉ@@": 43,
  "thè@@": 43,
  "outil": 43,
  "solde": 43,
  "prési@@": 43,
  "différentiel": 43,
  "_": 43,
  "Accor@@": 43,
  "tamis": 43,
  "s’ils": 43,
  "crois@@": 43,
  "résulter": 43,
  "Res@@": 43,
  "rappelé": 43,
  "adressée": 43,
  "ique@@": 43,
  "route.": 43,
  "TIQUE": 43,
  "cherch@@": 43,
  "sen@@": 43,
  "mol@@": 43,
  "typi@@": 43,
  "s’entend": 43,
  "enlèvement": 43,
  "œ@@": 43,
  "ang": 43,
  "ération,": 43,
  "rati@@": 43,
  "culées": 43,
  "gué": 43,
  "coup": 43,
  "Organ@@": 43,
  "vag@@": 43,
  "alli@@": 43,
  "F/@@": 43,
  "erie.": 43,
  "considérant": 43,
  "chem@@": 43,
  "dévelop@@": 43,
  "tification": 43,
  "Mr": 43,
  "capteur": 43,
  "gain": 43,
  "manchons": 43,
  "logici@@": 43,
  "ir.": 43,
  "reliant": 43,
  "5.1.@@": 43,
  "30.@@": 43,
  "usagers": 43,
  "viendr@@": 43,
  "rain@@": 43,
  "pourvu": 43,
  "blocage": 43,
  "let@@": 43,
  "€@@": 43,
  "appare@@": 43,
  "isson": 43,
  "(v@@": 43,
  "cône": 43,
  "denti@@": 43,
  "échanges": 43,
  "dette": 43,
  "Temps": 43,
  "RAGE": 43,
  "isation.": 43,
  "enrobés": 43,
  "Matériels": 43,
  "qu’au": 43,
  "opération,": 43,
  "enne.": 43,
  "Soumissionnaire,": 43,
  "indépendamment": 43,
  "concernée": 43,
  "organiser": 43,
  "frais.": 43,
  "carott@@": 43,
  "sè@@": 43,
  "infr@@": 43,
  "ING@@": 43,
  "rup@@": 43,
  "HI@@": 43,
  "Région@@": 43,
  "couliss@@": 43,
  "95%": 43,
  "référence.": 43,
  "régional": 43,
  "Principa@@": 43,
  "exploitant": 43,
  "progres@@": 43,
  "report": 43,
  "olo@@": 43,
  "repos": 43,
  "4.3": 43,
  "régie": 43,
  "piét@@": 43,
  "d'impact": 43,
  "chaîn@@": 43,
  "riques": 43,
  "pot@@": 43,
  "KA@@": 43,
  "tie": 43,
  "logique": 43,
  "M,": 43,
  "mesure,": 43,
  "tra": 43,
  "veill@@": 43,
  "respons@@": 43,
  "atmosph@@": 43,
  "remblay@@": 43,
  "lac": 43,
  "visites": 43,
  "l’existence": 43,
  "technologiques": 43,
  "valor@@": 43,
  "compose": 43,
  "ENCE": 43,
  "écarts": 43,
  "concept": 43,
  "appliqués": 43,
  "SC@@": 43,
  "redress@@": 43,
  "température,": 43,
  "noms": 43,
  "mixte": 43,
  "solides": 43,
  "Pour@@": 43,
  "respectiv@@": 43,
  "rendus": 43,
  "patient": 43,
  "vou@@": 43,
  "l’environnement,": 42,
  "ge.": 42,
  "ac": 42,
  "l’appareil": 42,
  "ENTR@@": 42,
  "Voi@@": 42,
  "incidence": 42,
  "rement": 42,
  "BL@@": 42,
  "transmis@@": 42,
  "Informations": 42,
  "km/@@": 42,
  "Sites": 42,
  "ligne,": 42,
  "recommand@@": 42,
  "révél@@": 42,
  "tements": 42,
  "élevées": 42,
  "2.4": 42,
  "additif": 42,
  "je@@": 42,
  "économie": 42,
  "pare-@@": 42,
  "tan@@": 42,
  "esclav@@": 42,
  "altération": 42,
  "satisfaisante": 42,
  "Affi@@": 42,
  "ting": 42,
  "ation-@@": 42,
  "formant": 42,
  "cohérence": 42,
  "ŕ": 42,
  "suit:": 42,
  "fonctionnels": 42,
  "hypothè@@": 42,
  "France,": 42,
  "enter@@": 42,
  "tres.": 42,
  "atif@@": 42,
  "bad@@": 42,
  "pédition": 42,
  "vidang@@": 42,
  "atoi@@": 42,
  "Gouvernement": 42,
  "évi@@": 42,
  "étanchéité,": 42,
  "enrobage": 42,
  "assemblées": 42,
  "So@@": 42,
  "ae": 42,
  "hiérarch@@": 42,
  "l'information": 42,
  "stabilisation": 42,
  "dur": 42,
  "s'appliquent": 42,
  "sous-": 42,
  "expériment@@": 42,
  "A.3.1.7.@@": 42,
  "lixivi@@": 42,
  "précé@@": 42,
  "accueil": 42,
  "Rémunère": 42,
  "débor@@": 42,
  "5).": 42,
  "génération": 42,
  "compac@@": 42,
  "préfabriquées": 42,
  "15-@@": 42,
  "adopté": 42,
  "réuss@@": 42,
  "ex": 42,
  "ous": 42,
  "230": 42,
  "15/@@": 42,
  "teur,": 42,
  "frig@@": 42,
  "villes": 42,
  "reven@@": 42,
  "ings": 42,
  "figurent": 42,
  "collect@@": 42,
  "spécialement": 42,
  "I.": 42,
  "autre.": 42,
  "suspen@@": 42,
  "Recherche": 42,
  "Ô@@": 42,
  "SCADA": 42,
  "étudiants": 42,
  "0,2": 42,
  "Exploitation": 42,
  "Application": 42,
  "électrogènes": 42,
  "¨ºtre": 42,
  "istes": 42,
  "formulation": 42,
  "écartement": 42,
  "Administratives": 42,
  "trafic@@": 42,
  "agitation": 42,
  "n’en": 42,
  "aires)": 42,
  "charges,": 42,
  "fonctionnel": 42,
  "onnes": 42,
  "91": 42,
  "riche": 42,
  "d’Œuvre,": 42,
  "degrés": 42,
  "induits": 42,
  "sont,": 42,
  "séchage": 42,
  "bâtiments,": 42,
  "nuit": 42,
  "O.@@": 42,
  "administrative": 42,
  "enfin": 42,
  "Guide": 42,
  "plan,": 42,
  "précisés": 42,
  "professionnels": 42,
  "auto-@@": 42,
  "humide": 42,
  "escaliers": 42,
  "recu@@": 42,
  "synthétique": 42,
  "topographie": 42,
  "15%": 42,
  "1200": 42,
  "fonctionnelles": 42,
  "qu’on": 42,
  "syndi@@": 42,
  "pav@@": 42,
  "réservations": 42,
  "constatée": 42,
  "frontière": 42,
  "marchandis@@": 42,
  "MONTANT": 42,
  "lit@@": 42,
  "Bi@@": 42,
  "aujour@@": 42,
  "directions": 42,
  "essi@@": 42,
  "onneur": 42,
  "partenaires": 42,
  "banc@@": 42,
  "quel@@": 42,
  "l’hypothèse": 42,
  "2010@@": 42,
  "PEHD": 42,
  "assement": 42,
  "ROU@@": 42,
  "PSA@@": 42,
  "tionne": 42,
  "atifs,": 42,
  "Ma": 42,
  "IA@@": 42,
  "endommager": 42,
  "SOUS": 42,
  "dents": 42,
  "3.5.@@": 42,
  "huil@@": 42,
  "flèches": 42,
  "____________@@": 42,
  "ale)": 42,
  "dépendance": 42,
  "Tra@@": 42,
  "09": 42,
  "mm²@@": 42,
  "confidentialité": 42,
  "Exécu@@": 42,
  "donnent": 42,
  "simulations": 42,
  "augmente": 42,
  "¨¨@@": 42,
  "TC": 42,
  "efficacité": 42,
  "arron@@": 42,
  "excé@@": 42,
  "frac@@": 42,
  "concep@@": 42,
  "és;": 42,
  "dynamiques": 42,
  "onération": 42,
  "citées": 42,
  "WI@@": 42,
  "étranger": 42,
  "diplô@@": 42,
  "excède": 42,
  "Environnement": 42,
  "(10@@": 42,
  "Etats": 42,
  "suite,": 42,
  "qu’aux": 42,
  "lorsqu’il": 42,
  "3%": 42,
  "d’effectuer": 42,
  "l’offre,": 42,
  "budget": 42,
  "définissant": 42,
  "autr@@": 42,
  "Source": 42,
  "informé": 42,
  "séance": 42,
  "ger": 42,
  "eries": 42,
  "alu@@": 42,
  "autrement": 42,
  "):@@": 42,
  "réglés": 42,
  "homologu@@": 42,
  "Cr@@": 42,
  "12-@@": 42,
  "4.4": 42,
  "pô@@": 42,
  "chariot": 42,
  "ellement.": 42,
  "ferme": 42,
  "transit": 42,
  "anneaux": 42,
  "renvoy@@": 42,
  "l'action": 42,
  "d’identification": 42,
  "décider": 42,
  "Equip@@": 42,
  "Syst@@": 42,
  "L’installation": 42,
  "maintenu": 41,
  "digues": 41,
  "revenu": 41,
  "inond@@": 41,
  "couloir": 41,
  "(s@@": 41,
  "PROTECTION": 41,
  "Sign@@": 41,
  "ate@@": 41,
  "piquets": 41,
  "assis@@": 41,
  "calend@@": 41,
  "surcharges": 41,
  "remplis": 41,
  "ètre": 41,
  "construits": 41,
  "résidus": 41,
  "majeur": 41,
  "jon@@": 41,
  "manquement": 41,
  "parties,": 41,
  "analog@@": 41,
  "minimum@@": 41,
  "chrom@@": 41,
  "56@@": 41,
  "(Antea_RWA)": 41,
  "(sans": 41,
  "GC@@": 41,
  "Numéro": 41,
  "GPS": 41,
  "homme": 41,
  "5m": 41,
  "simultanément": 41,
  "1,00": 41,
  "acheminement": 41,
  "contenus": 41,
  "Ét@@": 41,
  "quartz@@": 41,
  "directrices": 41,
  "non,": 41,
  "extérieur@@": 41,
  "livre": 41,
  "accessi@@": 41,
  "(non": 41,
  "issue": 41,
  "exigé@@": 41,
  "conférence": 41,
  "Unies": 41,
  "(28)": 41,
  "mê@@": 41,
  "métaux": 41,
  "foss@@": 41,
  "plateau": 41,
  "interprétation": 41,
  "Distribution": 41,
  "Deziwa": 41,
  "fines": 41,
  "fabrication.": 41,
  "Disjoncteur": 41,
  "débar@@": 41,
  "magas@@": 41,
  "1),": 41,
  "vend@@": 41,
  "piquetage": 41,
  "quit@@": 41,
  "graves": 41,
  "recouver@@": 41,
  "prescrip@@": 41,
  "brun@@": 41,
  "collaboration": 41,
  "Différ@@": 41,
  "expédi@@": 41,
  "Contractu@@": 41,
  "ement).": 41,
  "précisions": 41,
  "exper@@": 41,
  "exprimés": 41,
  "tabli@@": 41,
  "adéquat": 41,
  "législ@@": 41,
  "aises": 41,
  "230@@": 41,
  "terr@@": 41,
  "ites.": 41,
  "paysage": 41,
  "bouch@@": 41,
  "l’U@@": 41,
  "ENERGY": 41,
  "ps": 41,
  "Br@@": 41,
  "résine": 41,
  "ANN@@": 41,
  "vents": 41,
  "dégr@@": 41,
  "intermédiaires": 41,
  "]": 41,
  "d’E@@": 41,
  "connecteurs": 41,
  "sous-jac@@": 41,
  "e ;": 41,
  "ève": 41,
  "fichiers": 41,
  "dégradations": 41,
  "défaillances": 41,
  "réc@@": 41,
  "GW@@": 41,
  "longitudin@@": 41,
  "l'Afrique": 41,
  "triphas@@": 41,
  "fé@@": 41,
  "que;": 41,
  "générateur": 41,
  "Pièces": 41,
  "3:": 41,
  "240": 41,
  "ator@@": 41,
  "d'O@@": 41,
  "Cas": 41,
  "stipulée": 41,
  "Travaux,": 41,
  "prélev@@": 41,
  "l’effort": 41,
  "avertiss@@": 41,
  "é-@@": 41,
  "classés": 41,
  "câbles.": 41,
  "pê@@": 41,
  "lux": 41,
  "chen@@": 41,
  "argileux": 41,
  "71": 41,
  "arrêtés": 41,
  "restre@@": 41,
  "balayage": 41,
  "souff@@": 41,
  "sie": 41,
  "humains": 41,
  "arros@@": 41,
  "climatique": 41,
  "ponctu@@": 41,
  "positionn@@": 41,
  "Fer@@": 41,
  "ot": 41,
  "Du@@": 41,
  "concours": 41,
  "nomenclature": 41,
  "pronon@@": 41,
  "vingt-huit": 41,
  "calculs,": 41,
  "allum@@": 41,
  "Garanti@@": 41,
  "déplacer": 41,
  "exposées": 41,
  "sauv@@": 41,
  "africa@@": 41,
  "50/@@": 41,
  "l'issue": 41,
  "doté": 41,
  "225-@@": 41,
  "légal": 41,
  "moment,": 41,
  "Délai": 41,
  "l'h@@": 41,
  "ité)": 41,
  "s'entend": 41,
  "connectés": 41,
  "Tests": 41,
  "apparition": 41,
  "libération": 41,
  "stratégies": 41,
  "constante": 41,
  "Direc@@": 41,
  "substances": 41,
  "ensemble,": 41,
  "tax@@": 41,
  "effor@@": 41,
  "secondes": 40,
  "telefon@@": 40,
  "correspondre": 40,
  "défaill@@": 40,
  "page,": 40,
  "huile,": 40,
  "affecté": 40,
  "chapitres": 40,
  "dilat@@": 40,
  "entil@@": 40,
  "émerg@@": 40,
  "stipul@@": 40,
  "résistivité": 40,
  "effectue": 40,
  "accompagnement": 40,
  "soutenir": 40,
  "ajánlat@@": 40,
  "d’excitation": 40,
  "CV": 40,
  "digu@@": 40,
  "SY@@": 40,
  "servi@@": 40,
  "Sociét@@": 40,
  "volumique": 40,
  "atteint@@": 40,
  "d'appui": 40,
  "etc": 40,
  "00)": 40,
  "Signalisation": 40,
  "viendront": 40,
  "euv@@": 40,
  "dég@@": 40,
  "d'aluminium": 40,
  "avez": 40,
  "PS@@": 40,
  "l.": 40,
  "l’emploi": 40,
  "arriv@@": 40,
  "attein@@": 40,
  "essentiel": 40,
  "intéressant": 40,
  "FICATION": 40,
  "ménag@@": 40,
  "Base": 40,
  "proviennent": 40,
  "LED": 40,
  "mix@@": 40,
  "phasage": 40,
  "Lon@@": 40,
  "--@@": 40,
  "reconnu": 40,
  "Coll@@": 40,
  "bétonnage,": 40,
  "profilé": 40,
  "comment@@": 40,
  "associée": 40,
  "effectuera": 40,
  "allong@@": 40,
  "gouvernement": 40,
  "cylind@@": 40,
  "représentés": 40,
  "l’examen": 40,
  "installations.": 40,
  "plantations": 40,
  "couverts": 40,
  "prêts": 40,
  "diagnosti@@": 40,
  "constater": 40,
  "fluctu@@": 40,
  "confir@@": 40,
  "Salle": 40,
  "clim@@": 40,
  "ides": 40,
  "l'économie": 40,
  "cercle": 40,
  "érosion": 40,
  "intru@@": 40,
  "Digue": 40,
  "”@@": 40,
  "CCTP,": 40,
  "onom@@": 40,
  "étanché@@": 40,
  "rayons": 40,
  "d’attribution": 40,
  "CAN@@": 40,
  "schém@@": 40,
  "qu'au": 40,
  "Station": 40,
  "l’Appel": 40,
  "4x@@": 40,
  "technolog@@": 40,
  "géolog@@": 40,
  "Seuls": 40,
  "documents,": 40,
  "fique": 40,
  "carapace": 40,
  "justifiant": 40,
  "Parties.": 40,
  "meilleures": 40,
  "l'intermédiaire": 40,
  "payable": 40,
  "iso@@": 40,
  "offres@@": 40,
  "habilité": 40,
  "anc": 40,
  "ei@@": 40,
  "logement": 40,
  "dés,": 40,
  "0,": 40,
  "-T@@": 40,
  "métalli@@": 40,
  "exercer": 40,
  "édition": 40,
  "rie": 40,
  "Bamak@@": 40,
  "»).": 40,
  "co": 40,
  "Comment": 40,
  "communiquer": 40,
  "l'éclairage": 40,
  "connec@@": 40,
  "croiss@@": 40,
  "souffl@@": 40,
  "critique": 40,
  "ERI@@": 40,
  "ost@@": 40,
  "ELEC@@": 40,
  "(selon": 40,
  "entreposage": 40,
  "procès-verb@@": 40,
  "forfaitaires": 40,
  "quatorze": 40,
  "âtre,": 40,
  "d'emploi": 40,
  "path@@": 40,
  "Isol@@": 40,
  "g)": 40,
  "rempl@@": 40,
  "repli": 40,
  "l’incendie": 40,
  "sect@@": 40,
  "surfac@@": 40,
  "abra@@": 40,
  "s’ag@@": 40,
  "abond@@": 40,
  "Plusieurs": 40,
  "dé,": 40,
  "estim@@": 40,
  "fas@@": 40,
  "2ème": 40,
  "s ;": 40,
  "d’intérêt": 40,
  "évalués": 40,
  "pôles": 40,
  "BLES": 40,
  "fonci@@": 40,
  "(hors": 40,
  "affectation": 40,
  "Fournitures": 40,
  "ELLES": 40,
  "synthé@@": 40,
  "transférer": 40,
  "CCA@@": 40,
  "avant,": 40,
  "créé": 40,
  "enquêtes": 40,
  "d'isolateurs": 40,
  "aine.": 40,
  "vali@@": 40,
  "écoulement": 40,
  "fiée": 40,
  "groupe,": 40,
  "numéros": 40,
  "l’investissement": 40,
  "correcte": 40,
  "latéral": 40,
  "N,": 40,
  "oxy@@": 40,
  "Projet@@": 40,
  "travailler": 40,
  "effluents": 40,
  "bras": 40,
  "habitation": 39,
  "GUI@@": 39,
  "FD@@": 39,
  "prêt@@": 39,
  "séparés": 39,
  "Loc@@": 39,
  "mè@@": 39,
  "L’OUVRAGE.": 39,
  "hommes": 39,
  "mon": 39,
  "caractérisée": 39,
  "férence": 39,
  "Europé@@": 39,
  "CONSTRUCT@@": 39,
  "existants,": 39,
  "applique": 39,
  "parking": 39,
  "Entrepreneur": 39,
  "d'après": 39,
  "cules": 39,
  "boues": 39,
  "lé@@": 39,
  "implantés": 39,
  "réflexion": 39,
  "ja": 39,
  "air.": 39,
  "L/@@": 39,
  "latéritique": 39,
  "méthod@@": 39,
  "contradiction": 39,
  "portés": 39,
  "compresseurs": 39,
  "critiques": 39,
  "érations": 39,
  "partiel": 39,
  "Ty@@": 39,
  "fermé": 39,
  "ip@@": 39,
  "proxim@@": 39,
  "Dispositions": 39,
  "températu@@": 39,
  "reporter": 39,
  "GEMENT": 39,
  "administrateur": 39,
  "fabriqu@@": 39,
  "répandage": 39,
  "OPM": 39,
  "frais@@": 39,
  "LIS@@": 39,
  "essay@@": 39,
  "Impact": 39,
  "d'effectuer": 39,
  "d’approvisionnement": 39,
  "Hab@@": 39,
  "d’é@@": 39,
  "bles@@": 39,
  "dégrad@@": 39,
  "l'Ingénieur,": 39,
  "coffrage,": 39,
  "posant": 39,
  "emploi@@": 39,
  "trace": 39,
  "DPAO": 39,
  "OUV@@": 39,
  "s’ét@@": 39,
  "Certains": 39,
  "résultent": 39,
  "cru@@": 39,
  "31.@@": 39,
  "reliés": 39,
  "Préparation": 39,
  "ducation": 39,
  "bronze": 39,
  "era,": 39,
  "implique": 39,
  "factu@@": 39,
  "individuellement": 39,
  "quoi": 39,
  "résumé": 39,
  "euro@@": 39,
  "justific@@": 39,
  "ORD@@": 39,
  "cord@@": 39,
  "exacte": 39,
  "âtre": 39,
  "communs": 39,
  "7/@@": 39,
  "extraction,": 39,
  "système,": 39,
  "mondi@@": 39,
  "SF@@": 39,
  "l'expiration": 39,
  "immobili@@": 39,
  "sible": 39,
  "provisions": 39,
  "cir@@": 39,
  "apparente": 39,
  "Bét@@": 39,
  "soudés": 39,
  "légales": 39,
  "sac@@": 39,
  "arithmé@@": 39,
  "54@@": 39,
  "civile": 39,
  "REM@@": 39,
  "éligi@@": 39,
  "attachements": 39,
  "ails": 39,
  "alimentés": 39,
  "indépendant": 39,
  "durabilité": 39,
  "t/@@": 39,
  "turbines": 39,
  "vall@@": 39,
  "€.": 39,
  "ception": 39,
  "ats.": 39,
  "Nig@@": 39,
  "chacun@@": 39,
  "vitrages": 39,
  "régulier": 39,
  "l’exploitant": 39,
  "VI,": 39,
  "notifiera": 39,
  "2004": 39,
  "urban@@": 39,
  "Année": 39,
  "ennes,": 39,
  "O)": 39,
  "verti@@": 39,
  "francs": 39,
  "04@@": 39,
  "retirer": 39,
  "ouvrant": 39,
  "zéro": 39,
  "dressé": 39,
  "Présentation": 39,
  "conduc@@": 39,
  "appréciation": 39,
  "lanc@@": 39,
  "enregistré": 39,
  "manch@@": 39,
  "utilisés.": 39,
  "0,50": 39,
  "s'est": 39,
  "entreprise,": 39,
  "agement": 39,
  "étiqu@@": 39,
  "latr@@": 39,
  "empêch@@": 39,
  "vieillissement": 39,
  "américa@@": 39,
  "équipement@@": 39,
  "autor@@": 39,
  "Constru@@": 39,
  "résis@@": 39,
  "conclusions": 39,
  "Démocratique": 39,
  "entreprises,": 39,
  "constaté": 39,
  "tiques@@": 39,
  "L)": 39,
  "abilisation": 39,
  "gère": 39,
  "relance": 39,
  "jusqu'@@": 39,
  "out": 39,
  "lait@@": 39,
  "territori@@": 39,
  "0,00": 39,
  "SECTION": 39,
  "emprises": 39,
  "parti": 39,
  "respecte": 39,
  "BP": 39,
  "dangereuses": 39,
  "réalise": 39,
  "Distance": 39,
  "rom@@": 39,
  "kN/m@@": 39,
  "extraits": 39,
  "acquisition": 39,
  "connexes": 39,
  "tivement": 39,
  "èse": 39,
  "HU@@": 39,
  "hab@@": 39,
  "istr@@": 39,
  "agricole": 39,
  "procè@@": 39,
  "cera": 39,
  "précisée": 39,
  "métriques": 39,
  "21.@@": 39,
  "risques,": 39,
  "dédi@@": 39,
  "IV": 39,
  "tox@@": 39,
  "ains,": 39,
  "laire": 39,
  "recev@@": 39,
  "amortissement": 39,
  "jak@@": 39,
  "ku@@": 39,
  "atiques,": 39,
  "mensuels": 39,
  "opératoire": 39,
  "ote": 39,
  "achemin@@": 39,
  "Cap@@": 39,
  "XX@@": 39,
  "client@@": 39,
  "EUR.": 39,
  "annuelles": 39,
  "mètre.": 39,
  "CPT": 39,
  "reconn@@": 39,
  "ceinture": 39,
  "rétention": 38,
  "mousse": 38,
  "pont@@": 38,
  "Hz@@": 38,
  "Concili@@": 38,
  "investi@@": 38,
  "SPECI@@": 38,
  "treuil": 38,
  "classées": 38,
  "claire": 38,
  "minu@@": 38,
  "supprim@@": 38,
  "répartis": 38,
  "Ser@@": 38,
  "lith@@": 38,
  "PIB": 38,
  "tonne": 38,
  "dédu@@": 38,
  "sembl@@": 38,
  "démontr@@": 38,
  "iné@@": 38,
  "salaires": 38,
  "fret": 38,
  "~": 38,
  "Appu@@": 38,
  "çonn@@": 38,
  "répondent": 38,
  "dimen@@": 38,
  "fini@@": 38,
  "choisis": 38,
  "robinets": 38,
  "fonctionne": 38,
  "Fabricant": 38,
  "March@@": 38,
  "plomb": 38,
  "atténu@@": 38,
  "(article": 38,
  "Courant": 38,
  "Prot@@": 38,
  "age).": 38,
  "ées)": 38,
  "feuilles": 38,
  "Sud-@@": 38,
  "spor@@": 38,
  "coupe-feu": 38,
  "dens@@": 38,
  "mortiers": 38,
  "oxydes": 38,
  "luminaire": 38,
  "permet@@": 38,
  "privés": 38,
  "extrê@@": 38,
  "69": 38,
  "intérieur,": 38,
  "(sauf": 38,
  "contractante @@": 38,
  "born@@": 38,
  "................................@@": 38,
  "isolées": 38,
  "artisan@@": 38,
  "précis": 38,
  "exten@@": 38,
  "Défini@@": 38,
  "puissance,": 38,
  "équili@@": 38,
  "é;": 38,
  "160@@": 38,
  "hygiène": 38,
  "érences": 38,
  "dessin": 38,
  "recru@@": 38,
  "Articles": 38,
  "e,@@": 38,
  "b.@@": 38,
  "fiées": 38,
  "DomRaider": 38,
  "annonc@@": 38,
  "vois": 38,
  "_LIN_@@": 38,
  "PUBLI@@": 38,
  "topographi@@": 38,
  "amment": 38,
  "88@@": 38,
  "monnai@@": 38,
  "roues": 38,
  "ia": 38,
  "Cu": 38,
  "ocène": 38,
  "équivalent.": 38,
  "bois@@": 38,
  "2005": 38,
  "nécessairement": 38,
  "Aff@@": 38,
  "dix@@": 38,
  "d’informations": 38,
  "conception.": 38,
  "douze": 38,
  "Mat@@": 38,
  "routiers": 38,
  "attribution": 38,
  "l’identification": 38,
  "demi-@@": 38,
  "fabric@@": 38,
  "Bancaire": 38,
  "CA": 38,
  "l’acceptation": 38,
  "l’art": 38,
  "librement": 38,
  "Durant": 38,
  "08.@@": 38,
  "fères": 38,
  "RELA@@": 38,
  "séquences": 38,
  "estimés": 38,
  "travées": 38,
  "quement.": 38,
  "file": 38,
  "installe": 38,
  "(cf.@@": 38,
  "ancr@@": 38,
  "d’av@@": 38,
  "BLI@@": 38,
  "limon@@": 38,
  "visualisation": 38,
  "essai.": 38,
  "sionn@@": 38,
  "justificatives": 38,
  "................@@": 38,
  "Terr@@": 38,
  "assainissement": 38,
  "Appel": 38,
  "622@@": 38,
  "attribuer": 38,
  "d.@@": 38,
  "thermi@@": 38,
  "approfon@@": 38,
  "celui-ci.": 38,
  "contractuelle": 38,
  "télécommunication": 38,
  "branchement": 38,
  "désigner": 38,
  "ratio": 38,
  "substitution": 38,
  "envoy@@": 38,
  "applications": 38,
  "élastique": 38,
  "dégra@@": 38,
  "l’Administration": 38,
  "prescrits": 38,
  "manifest@@": 38,
  "continues": 38,
  "sous-traitance": 38,
  "montées": 38,
  "PRIX": 38,
  "incendie.": 38,
  "dure": 38,
  "presse": 38,
  "enroulements": 38,
  "entrepôt": 38,
  "sens@@": 38,
  "précisera": 38,
  "réclamations": 38,
  "ement:": 38,
  "encourus": 38,
  "bureaux,": 38,
  "subs@@": 38,
  "@@": 38,
  "usure": 38,
  "aît": 38,
  "épandage": 38,
  "débroch@@": 38,
  "HP@@": 38,
  "médical": 38,
  "perturbations": 38,
  "avenant": 38,
  "générer": 38,
  "Terminal": 38,
  "circulations": 38,
  "4.2.@@": 38,
  "deven@@": 38,
  "stratégique": 38,
  "proposi@@": 38,
  "Cong@@": 38,
  "pomp@@": 38,
  "ordinateur": 38,
  "78": 38,
  "évitant": 38,
  "s'ét@@": 38,
  "métr@@": 38,
  "hydrogène": 38,
  "reliées": 38,
  "être@@": 38,
  "carrel@@": 38,
  "mangui@@": 38,
  "requis,": 38,
  "baie": 38,
  "Poids": 38,
  "eur-@@": 38,
  "intes": 38,
  "remontée": 38,
  "Support": 38,
  "tion/@@": 38,
  "galeries": 38,
  "ossature": 38,
  "sollicitation": 38,
  "diamètres": 38,
  "orie": 38,
  "énergies": 38,
  "Coffrage": 38,
  "serr@@": 38,
  "propriation": 38,
  "règlement@@": 38,
  "montrant": 38,
  "impermé@@": 38,
  "licences": 38,
  "duquel": 38,
  "surveill@@": 38,
  "délivrer": 38,
  "2:": 38,
  "indiquent": 38,
  "io@@": 38,
  "Vis@@": 37,
  "up@@": 37,
  "adu@@": 37,
  "précisément": 37,
  "laine": 37,
  "loi.": 37,
  "(«": 37,
  "positive": 37,
  "perspective": 37,
  "L’objectif": 37,
  "développé": 37,
  "R+@@": 37,
  "l'inter@@": 37,
  "hour@@": 37,
  "constatés": 37,
  "pote@@": 37,
  "gabarit": 37,
  "aj@@": 37,
  "litiges": 37,
  "intégralement": 37,
  "(cas": 37,
  "terrain@@": 37,
  "(ml)": 37,
  "ragré@@": 37,
  "¨¦chec": 37,
  "all": 37,
  "souterraine": 37,
  "appareillages": 37,
  "piétons": 37,
  "max@@": 37,
  "propr@@": 37,
  "onnés": 37,
  "Mou@@": 37,
  "ade,": 37,
  "TRAV@@": 37,
  "59": 37,
  "d'eau.": 37,
  "d’isolation": 37,
  "5.3": 37,
  "inscrit": 37,
  "portiques": 37,
  "communication,": 37,
  "diverg@@": 37,
  "rs": 37,
  "menuiseries": 37,
  "ib@@": 37,
  "raccor@@": 37,
  "join@@": 37,
  "aptitude": 37,
  "fabriqué": 37,
  "entier": 37,
  "d'ordre": 37,
  "médicam@@": 37,
  "transport.": 37,
  "refuser": 37,
  "préfabriqué": 37,
  "détecteur": 37,
  "m).": 37,
  "nomination": 37,
  "d'assurance": 37,
  "trav@@": 37,
  "pastor@@": 37,
  "lic@@": 37,
  "bout@@": 37,
  "l’opérateur": 37,
  "avec@@": 37,
  "dérog@@": 37,
  "TP@@": 37,
  "détach@@": 37,
  "prét@@": 37,
  "néglige@@": 37,
  "colis": 37,
  "moellons": 37,
  "transversales": 37,
  "messages": 37,
  "égard": 37,
  "R&D": 37,
  "intervalle": 37,
  "provision": 37,
  "protégée": 37,
  "probable": 37,
  "ors": 37,
  "substitu@@": 37,
  "7.1": 37,
  "coffr@@": 37,
  "béton@@": 37,
  "no": 37,
  "chaudi@@": 37,
  "indicatif": 37,
  "aly@@": 37,
  "milieux": 37,
  "Mad@@": 37,
  "tô@@": 37,
  "impérativement": 37,
  "courb@@": 37,
  "TANT": 37,
  "Program@@": 37,
  "Google": 37,
  "apprécier": 37,
  "diminuer": 37,
  "branche": 37,
  "MV@@": 37,
  "utiliser,": 37,
  "stable": 37,
  "Cul@@": 37,
  "rencontrés": 37,
  "Ka@@": 37,
  "voisinage": 37,
  "énumérées": 37,
  "Fenêtre": 37,
  "ade.": 37,
  "convenablement": 37,
  "alu": 37,
  "apportées": 37,
  "perpendiculaire": 37,
  "KVA": 37,
  "Réaliser": 37,
  "Estimation": 37,
  "pilotage": 37,
  "18-@@": 37,
  "informe": 37,
  "rotor": 37,
  "débu@@": 37,
  "Détermination": 37,
  "marqués": 37,
  "publié": 37,
  "US": 37,
  "stipulation": 37,
  "wag@@": 37,
  "TM@@": 37,
  "12/@@": 37,
  "autonom@@": 37,
  "réglable": 37,
  "tél@@": 37,
  "Elec@@": 37,
  "ases": 37,
  "provisoire.": 37,
  "FON@@": 37,
  "130": 37,
  "4464-RAC-@@": 37,
  "(20@@": 37,
  "précipitations": 37,
  "suffisantes": 37,
  "entrav@@": 37,
  "adoptée": 37,
  "peinture,": 37,
  "d’investissement": 37,
  "28.@@": 37,
  "Epaisseur": 37,
  "0,1": 37,
  "fosses": 37,
  "continuer": 37,
  "wa@@": 37,
  "dB": 37,
  "qualification,": 37,
  "taill@@": 37,
  "CEM@@": 37,
  "pério@@": 37,
  "significative": 37,
  "soli@@": 37,
  "conséquent": 37,
  "CO2": 37,
  "compétent": 37,
  "définitive.": 37,
  "des)": 37,
  "Entrée": 37,
  "CV@@": 37,
  "gé": 37,
  "chauss@@": 37,
  "d'extraction": 37,
  "d'aménagement": 37,
  "aller": 37,
  "nomm@@": 37,
  "période,": 37,
  "III@@": 37,
  "balises": 37,
  "chinois@@": 37,
  ".000": 37,
  "avant-@@": 37,
  "blanche": 37,
  "clois@@": 37,
  "exploitation.": 37,
  "parvenir": 37,
  "bobines": 37,
  "humaines": 37,
  "25.": 37,
  "l’étanchéité": 37,
  "captures": 37,
  "formules": 37,
  "supervis@@": 37,
  "tassement": 37,
  "onduleurs": 37,
  "groupement,": 37,
  "d'accrochage": 37,
  "D.T.U.": 37,
  "revêtus": 37,
  "tissage": 37,
  "natu@@": 37,
  "exposé": 37,
  "desserte": 37,
  "l'évolution": 37,
  "chargées": 37,
  "ly@@": 37,
  "Fourniss@@": 37,
  "bâ@@": 37,
  "sujétion": 37,
  "limitant": 37,
  "monophas@@": 37,
  "bétons,": 37,
  "forfaitairement": 37,
  "l'étanchéité": 37,
  "utilisables": 37,
  "ométri@@": 37,
  "anomalie": 37,
  "disjon@@": 37,
  "fragments": 37,
  "photo@@": 37,
  "agrée": 37,
  "dec@@": 36,
  "base.": 36,
  "ressour@@": 36,
  "engagent": 36,
  "Electrique": 36,
  "L'épaisseur": 36,
  "E/@@": 36,
  "gris@@": 36,
  "intéri@@": 36,
  "desc@@": 36,
  "géotex@@": 36,
  "...),": 36,
  "gradi@@": 36,
  "évènement": 36,
  "flam@@": 36,
  "contacteur": 36,
  "cinqu@@": 36,
  "cteur,": 36,
  "abatt@@": 36,
  "qualification.": 36,
  "synoptique": 36,
  "dolomi@@": 36,
  "explosion": 36,
  "l’Entrepren@@": 36,
  "irrigation": 36,
  "sanction": 36,
  "art.@@": 36,
  "soufflage": 36,
  "2022": 36,
  "signalisation,": 36,
  "value": 36,
  "abs@@": 36,
  "PLO@@": 36,
  "émis@@": 36,
  "intellectu@@": 36,
  "ambiante": 36,
  "Parmi": 36,
  "Pont": 36,
  "s’appliquent": 36,
  "riverains": 36,
  "encastré": 36,
  "CHAPITRE": 36,
  "incer@@": 36,
  "élaborer": 36,
  "phy@@": 36,
  "balis@@": 36,
  "L’Entreprise": 36,
  "érieure": 36,
  "notifiée": 36,
  "COUR@@": 36,
  "0000": 36,
  "PEN@@": 36,
  "redevance": 36,
  "titre,": 36,
  "43@@": 36,
  "transitoire": 36,
  "portent": 36,
  "kV)": 36,
  "absorption": 36,
  "informatiques": 36,
  "jaunâtre": 36,
  "contrôle-commande": 36,
  "soi@@": 36,
  "efs": 36,
  "régular@@": 36,
  "ancement": 36,
  "onné": 36,
  "DEFINI@@": 36,
  "accessoires,": 36,
  "procu@@": 36,
  "：": 36,
  "transmise": 36,
  "consommables": 36,
  "câble.": 36,
  "tranches": 36,
  "mécanique,": 36,
  "l'écran": 36,
  "déviations": 36,
  "approvisionnements": 36,
  "endant": 36,
  "compacté": 36,
  "amovi@@": 36,
  "temps.": 36,
  "régu@@": 36,
  "eur:": 36,
  "installation,": 36,
  "épaisseur.": 36,
  "administration": 36,
  "l’acquisition": 36,
  "hô@@": 36,
  "galets": 36,
  "l’organe": 36,
  "crip@@": 36,
  "gout@@": 36,
  "décès": 36,
  "B-@@": 36,
  "km/h": 36,
  "age:": 36,
  "minérales": 36,
  "Masse": 36,
  "oué": 36,
  "ruiss@@": 36,
  "MON@@": 36,
  "stocker": 36,
  "franchissement": 36,
  "l'obligation": 36,
  "supérieur@@": 36,
  "oir,": 36,
  "mer,": 36,
  "fru@@": 36,
  "Investiss@@": 36,
  "bitu@@": 36,
  "accorder": 36,
  "220@@": 36,
  "H.": 36,
  "UNE": 36,
  "adé@@": 36,
  "Membre": 36,
  "affaires": 36,
  "malfaçons": 36,
  "contractuelles.": 36,
  "dent,": 36,
  "bleu@@": 36,
  "enroch@@": 36,
  "constate": 36,
  "sollicit@@": 36,
  "émise": 36,
  "territ@@": 36,
  "Publique": 36,
  "verse": 36,
  "d’administration": 36,
  "boss@@": 36,
  "industries": 36,
  "98": 36,
  "formation,": 36,
  "minéraux": 36,
  "bT": 36,
  "préjudici@@": 36,
  "pp@@": 36,
  "actionnaire": 36,
  "génierie": 36,
  "(25@@": 36,
  "nettement": 36,
  "paraph@@": 36,
  "alité,": 36,
  "F/p": 36,
  "(201@@": 36,
  "comptabilité": 36,
  "accroissement": 36,
  "contribution": 36,
  "choix,": 36,
  "évacués": 36,
  "latérales": 36,
  "DPAO.": 36,
  "synchron@@": 36,
  "capac@@": 36,
  "gy@@": 36,
  "DB": 36,
  "maritime": 36,
  "fir@@": 36,
  "corriger": 36,
  "har@@": 36,
  "provenir": 36,
  "optimisation": 36,
  "enrochement": 36,
  "cein@@": 36,
  "cubes": 36,
  "not": 36,
  "secré@@": 36,
  "Eff@@": 36,
  "employer": 36,
  "QUA@@": 36,
  "poche": 36,
  "Travaux.": 36,
  "(type": 36,
  "manqu@@": 36,
  "46@@": 36,
  "garde-corps": 36,
  "poussée": 36,
  "côtes": 36,
  "l’entité": 36,
  "canalis@@": 36,
  "ex.": 36,
  "Actu@@": 36,
  "revanche,": 36,
  "remet": 36,
  "mi-@@": 36,
  "____@@": 36,
  "automatiques": 36,
  "caractérisé": 36,
  "Photo": 36,
  "ades": 36,
  "conti@@": 36,
  "vin": 36,
  "bel@@": 36,
  "éco@@": 36,
  "Fond@@": 36,
  "langu@@": 36,
  "fiscal": 36,
  "enrob@@": 36,
  "eur;": 36,
  "sensi@@": 36,
  "résul@@": 36,
  "fenêtres": 36,
  "conditions,": 36,
  "accepter": 36,
  "attributaire": 36,
  "ISI@@": 36,
  "CES@@": 36,
  "fréquences": 36,
  "parties.": 36,
  "diesel": 36,
  "paramétr@@": 36,
  "pompes,": 36,
  "l’é@@": 36,
  "successives": 36,
  "faibl@@": 36,
  "géo@@": 36,
  "livrer": 36,
  "coû@@": 36,
  "CE,": 36,
  "éclair@@": 36,
  "d'équipement": 36,
  "impact@@": 36,
  "trémie": 36,
  "Que": 36,
  "d'avancement": 36,
  "bitrage": 36,
  "l’usine.": 36,
  "hygi@@": 36,
  "marchandise": 36,
  "conviennent": 36,
  "preuves": 36,
  "é).": 36,
  "région.": 36,
  "Pe@@": 36,
  "relief": 36,
  "pact@@": 36,
  "ométrique": 36,
  "oirs,": 36,
  "Nord-@@": 36,
  "202@@": 36,
  "trapézoïd@@": 35,
  "consultant": 35,
  "clair": 35,
  "Transformateur": 35,
  "l’administration": 35,
  "chaussée.": 35,
  "Posi@@": 35,
  "localement": 35,
  "CEMENT": 35,
  "estimer": 35,
  "ralenti@@": 35,
  "origine": 35,
  "atique.": 35,
  "○": 35,
  "IMP@@": 35,
  "groupe.": 35,
  "conçues": 35,
  "cab@@": 35,
  "appareil@@": 35,
  "Remar@@": 35,
  "ers;": 35,
  "récup@@": 35,
  "gui@@": 35,
  "sud-@@": 35,
  "exprimée": 35,
  "Taou@@": 35,
  "sphère": 35,
  "-la": 35,
  "dront": 35,
  "avis@@": 35,
  "céré@@": 35,
  "puissances": 35,
  "somm@@": 35,
  "glac@@": 35,
  "inclus@@": 35,
  "session": 35,
  "nécessit@@": 35,
  "broyage": 35,
  "locales.": 35,
  "S'il": 35,
  "verb@@": 35,
  "exigée": 35,
  "bob@@": 35,
  "prest@@": 35,
  "justifié": 35,
  "gravillons": 35,
  "mailles": 35,
  "pylôn@@": 35,
  "TER": 35,
  "d'exécuter": 35,
  "borne": 35,
  "cle.": 35,
  "défense": 35,
  "exhaus@@": 35,
  "lot,": 35,
  "RS": 35,
  "alise": 35,
  "enregistrées": 35,
  "évolutions": 35,
  "toi@@": 35,
  "contractantes": 35,
  "ret.": 35,
  "CLA@@": 35,
  "démarrer": 35,
  "(14)": 35,
  "pylône.": 35,
  "2+@@": 35,
  "pneumatique": 35,
  "transmet@@": 35,
  "d’assainissement": 35,
  "robinetterie": 35,
  "substanti@@": 35,
  "étendu@@": 35,
  "combustible": 35,
  "immédiate": 35,
  "ation).": 35,
  "érieurement": 35,
  "comprendront": 35,
  "raccordé": 35,
  "Bar@@": 35,
  "rénovation": 35,
  "délais,": 35,
  "nœuds": 35,
  "San@@": 35,
  "DIN": 35,
  "Architecte": 35,
  "eau-@@": 35,
  "armé@@": 35,
  "Cli@@": 35,
  "XC@@": 35,
  "sensible": 35,
  "compacité": 35,
  "péage": 35,
  "planche": 35,
  "IX@@": 35,
  "Ba@@": 35,
  "dimensionné": 35,
  "laboratoi@@": 35,
  "collecteurs": 35,
  "étrangers": 35,
  "consol@@": 35,
  "2003": 35,
  "fabricant,": 35,
  "quanti@@": 35,
  "l’écran": 35,
  "éclairage,": 35,
  "caniveau": 35,
  "céramique": 35,
  "topographique": 35,
  "d’action": 35,
  "divulgu@@": 35,
  "transf@@": 35,
  "gratu@@": 35,
  "rempliss@@": 35,
  "buse": 35,
  "ffe": 35,
  "difficulté": 35,
  "élasticité": 35,
  "Cependant": 35,
  "véhicules,": 35,
  "malgré": 35,
  "expresse": 35,
  "fications,": 35,
  "corrosion.": 35,
  "Tableaux": 35,
  "opé@@": 35,
  "prescrit": 35,
  "viv@@": 35,
  "gris": 35,
  "6.2": 35,
  "mensuelle": 35,
  "99": 35,
  "l'Ouest": 35,
  "aque": 35,
  "chapi@@": 35,
  "jau@@": 35,
  "l’extension": 35,
  "san@@": 35,
  "étanchéité.": 35,
  "l’Ingéni@@": 35,
  "l’amélioration": 35,
  "abli@@": 35,
  "Fonds": 35,
  "HTA@@": 35,
  "l'acceptation": 35,
  "(dont": 35,
  "d'exploitation,": 35,
  "biologique": 35,
  "émulsion": 35,
  "règl@@": 35,
  "(fig.": 35,
  "cel@@": 35,
  "obligatoi@@": 35,
  "altitude": 35,
  "........@@": 35,
  "étude.": 35,
  "prévoi@@": 35,
  "stat@@": 35,
  "imposer": 35,
  "civ@@": 35,
  "hyper@@": 35,
  "Cameroun": 35,
  "négatif": 35,
  "DF": 35,
  "01@@": 35,
  "BILI@@": 35,
  "facilité": 35,
  "littoral": 35,
  "évén@@": 35,
  "trouver@@": 35,
  "comparti@@": 35,
  "parall@@": 35,
  "budg@@": 35,
  "BAN@@": 35,
  "amené": 35,
  "EUR,": 35,
  "violation": 35,
  "tiennent": 35,
  "l'avancement": 35,
  "T/@@": 35,
  "mA": 35,
  "l’industrie": 35,
  "contrôle@@": 35,
  "subor@@": 35,
  "trottoir": 35,
  "ko": 35,
  "d'isol@@": 35,
  "1.4": 35,
  "cultiv@@": 35,
  "225@@": 35,
  "vérifié": 35,
  "désaccord": 35,
  "échéant.": 35,
  "TG@@": 35,
  "montré": 35,
  "zy@@": 35,
  "L'objectif": 35,
  "d’expérience": 35,
  "incomb@@": 35,
  "raccordées": 35,
  "sable,": 35,
  "correctives": 35,
  "homologation": 35,
  "ues.": 35,
  "yu@@": 35,
  "para@@": 35,
  "sujétions,": 35,
  "DUI@@": 35,
  "souterrain@@": 35,
  "dal@@": 35,
  "PRE@@": 35,
  "3000": 35,
  "approbation.": 35,
  "ess": 35,
  "l’écoulement": 35,
  "effet.": 35,
  "Pu@@": 35,
  "11/@@": 35,
  "servent": 35,
  "GAR@@": 35,
  "fumées": 35,
  "naturel,": 35,
  "l'arrêt": 35,
  "istre": 35,
  "joints,": 35,
  "(4": 35,
  "plantes": 35,
  "Prom@@": 35,
  "pel@@": 35,
  "las@@": 35,
  "rechargement": 35,
  "(5": 35,
  "rai@@": 35,
  "balisage": 35,
  "affect@@": 35,
  "assurent": 35,
  "Comm@@": 35,
  "spécifications,": 35,
  "jection": 35,
  "list@@": 35,
  "polices": 35,
  "Pla@@": 35,
  "grossi@@": 34,
  "terrasses": 34,
  "juridiction": 34,
  "courir": 34,
  "CST@@": 34,
  "humides": 34,
  "rares": 34,
  "Memb@@": 34,
  "lourd": 34,
  "etc...": 34,
  "souill@@": 34,
  "50m": 34,
  "Utiliser": 34,
  "drains": 34,
  "ampli@@": 34,
  "atmosphère": 34,
  "aban@@": 34,
  "Usine": 34,
  "l'effet": 34,
  "Mal@@": 34,
  "repère": 34,
  "Travail": 34,
  "saurait": 34,
  "correspondance": 34,
  "èvent": 34,
  "alternateurs": 34,
  "DT@@": 34,
  "aérien": 34,
  "Nation@@": 34,
  "reçoit": 34,
  "socio@@": 34,
  "conflit": 34,
  "corri@@": 34,
  "corrections": 34,
  "symbo@@": 34,
  "09.@@": 34,
  "systématique": 34,
  "appli@@": 34,
  "Sci@@": 34,
  "OUVRAGE": 34,
  "vantail": 34,
  "el)": 34,
  "ectu@@": 34,
  "nets": 34,
  "détr@@": 34,
  "secs": 34,
  "déficit": 34,
  "K,": 34,
  "Suite": 34,
  "froide": 34,
  "Passation": 34,
  "supprimer": 34,
  "rendements": 34,
  "Infrastructures": 34,
  "ferraill@@": 34,
  "Définition": 34,
  "emprise": 34,
  "GECA": 34,
  "rappel@@": 34,
  "agriculture": 34,
  "excavations": 34,
  "autorise": 34,
  "singu@@": 34,
  "(0,@@": 34,
  "notices": 34,
  "prestataire": 34,
  "gen@@": 34,
  "ey": 34,
  "insérer": 34,
  "achevés": 34,
  "tract@@": 34,
  "décal@@": 34,
  "alinéas": 34,
  "adou@@": 34,
  "ation),": 34,
  "consommateurs": 34,
  "pourcent@@": 34,
  "préserver": 34,
  "132": 34,
  "ouverts": 34,
  "occupant": 34,
  "famili@@": 34,
  "complétée": 34,
  "D'une": 34,
  "dédié": 34,
  "grani@@": 34,
  "oly@@": 34,
  "numériques": 34,
  "choisie": 34,
  "ions,": 34,
  "Etanchéité": 34,
  "extin@@": 34,
  "nommé": 34,
  "sibles": 34,
  "pat@@": 34,
  "typ@@": 34,
  "douanier": 34,
  "combustion": 34,
  "°.": 34,
  "flexi@@": 34,
  "ociation": 34,
  "surface.": 34,
  "ancrage,": 34,
  "FO": 34,
  "Est.": 34,
  "9.1": 34,
  "mission@@": 34,
  "caisse": 34,
  "sauvegarde": 34,
  "mer.": 34,
  "d’enroch@@": 34,
  "lancement": 34,
  "centimètres": 34,
  "recouverts": 34,
  "com": 34,
  "/01/@@": 34,
  "services.": 34,
  "répan@@": 34,
  "L-@@": 34,
  "hangar@@": 34,
  "sujet@@": 34,
  "vannes,": 34,
  "érieur@@": 34,
  "formé": 34,
  "sions.": 34,
  "catalogue": 34,
  "impér@@": 34,
  "satur@@": 34,
  "doubles": 34,
  "ventes": 34,
  "Nettoyage": 34,
  "l’occasion": 34,
  "combinaisons": 34,
  "2m": 34,
  "jonctions": 34,
  "enf@@": 34,
  "Eléments": 34,
  "venir": 34,
  "luminaires": 34,
  "ant :": 34,
  "compagnie": 34,
  "nuclé@@": 34,
  "internet": 34,
  "e :": 34,
  "préjudi@@": 34,
  "portion": 34,
  "institutions": 34,
  "livraison,": 34,
  "orientations": 34,
  "terie,": 34,
  "s-": 34,
  "contradictoi@@": 34,
  "sectionneur": 34,
  "7).": 34,
  "Eurocode": 34,
  "commencé": 34,
  "individuels": 34,
  "rez": 34,
  "servomoteur": 34,
  "réglages": 34,
  "revient": 34,
  "interrupteurs": 34,
  "dernier.": 34,
  "branchements": 34,
  "végétaux": 34,
  "outil@@": 34,
  "d’accord": 34,
  "étrangère": 34,
  "échangeur": 34,
  "combrement": 34,
  "chargeur": 34,
  "intégrité": 34,
  "métalliques,": 34,
  "malaxage": 34,
  "TECHNIQUES": 34,
  "bar": 34,
  "exposés": 34,
  "d'affaires": 34,
  "ny@@": 34,
  "garantissant": 34,
  "d¡¯@@": 34,
  "ated": 34,
  "illon": 34,
  "58": 34,
  "èlement": 34,
  "IE@@": 34,
  "dédiée": 34,
  "IRE,": 34,
  "deux@@": 34,
  "ej@@": 34,
  "visibilité": 34,
  "BC@@": 34,
  "se.": 34,
  "échantillon@@": 34,
  "Granul@@": 34,
  "l'Accord": 34,
  "monétaires": 34,
  "eurs)": 34,
  "Fournir": 34,
  "raisonnables": 34,
  "lif@@": 34,
  "PI": 34,
  "ancien": 34,
  "d’art": 34,
  "synchronisation": 34,
  "voix": 34,
  "Sable": 34,
  "Référence": 34,
  "titul@@": 34,
  "ordonn@@": 34,
  "nettoyer": 34,
  "pli": 34,
  "Personne": 34,
  "incorporés": 34,
  "communiqué": 34,
  "maintenant": 34,
  "compétents": 34,
  "Candidats": 34,
  "capables": 34,
  "d'informations": 34,
  "Lagdo": 34,
  "technologique": 34,
  "desdites": 34,
  "avis,": 34,
  "proches": 34,
  "ser,": 34,
  "d’activ@@": 34,
  "FR": 34,
  "résum@@": 34,
  "guiné@@": 34,
  "passif": 34,
  "fiés": 34,
  "renonciation": 34,
  "Cir@@": 34,
  "d'Ouvrage,": 34,
  "compartiment": 34,
  "oci@@": 34,
  "accot@@": 34,
  "arrêt,": 34,
  "probl@@": 34,
  "sismi@@": 34,
  "CONTRACTUEL": 34,
  "1m": 34,
  "In": 34,
  "aux)": 34,
  "Vol@@": 34,
  "exigés": 34,
  "commer@@": 34,
  "noir@@": 34,
  "annonce": 34,
  "rosage": 34,
  "SICOMINES": 34,
  "PROVISO@@": 34,
  "voul@@": 34,
  "R)": 34,
  "ISTAN@@": 34,
  "photovoltaï@@": 34,
  "même.": 34,
  "indirectement,": 34,
  "exemple@@": 34,
  "CBR": 34,
  "l’enlèvement": 34,
  "confor@@": 34,
  "demeurent": 34,
  "I,": 34,
  "volet": 34,
  "d'achèvement": 34,
  "d’eau.": 34,
  "formée": 34,
  "correspondants.": 34,
  "TEL@@": 34,
  "proportions": 34,
  "mac@@": 34,
  "retiré": 34,
  "latéritiques": 34,
  "étrangères": 34,
  "(3": 34,
  "soupa@@": 34,
  "PN": 34,
  "imprégn@@": 34,
  "3),": 34,
  "enseignants": 34,
  "reçue": 34,
  "L’utilisation": 34,
  "l'organisation": 34,
  "répéti@@": 33,
  "devoir": 33,
  "tâ@@": 33,
  "armé.": 33,
  "abilité.": 33,
  "électrog@@": 33,
  "Fé@@": 33,
  "acquisi@@": 33,
  "SARL": 33,
  "ame": 33,
  "otechni@@": 33,
  "provoque": 33,
  "bo": 33,
  "EDF": 33,
  "m²@@": 33,
  "dimensionnés": 33,
  "oration": 33,
  "mai@@": 33,
  "nœud": 33,
  "Techn@@": 33,
  "d’enregistrement": 33,
  "carbur@@": 33,
  "durance": 33,
  "arrosage": 33,
  "signatu@@": 33,
  "fuge": 33,
  "mél@@": 33,
  "office": 33,
  "pivot@@": 33,
  "d’Oeuvre,": 33,
  "persist@@": 33,
  "réputée": 33,
  "locale.": 33,
  "ots": 33,
  "…),": 33,
  "prévau@@": 33,
  "écrous": 33,
  "TRANS@@": 33,
  "bénéficiaire": 33,
  "tives,": 33,
  "(20)": 33,
  "BEN@@": 33,
  "Assurer": 33,
  "92": 33,
  "0.": 33,
  "cendres": 33,
  "-2": 33,
  "présu@@": 33,
  "d’exploitation,": 33,
  "figu@@": 33,
  "TS,": 33,
  "cert@@": 33,
  "g,": 33,
  "VA": 33,
  "magasins": 33,
  "instrument": 33,
  "arbitr@@": 33,
  "préliminaires": 33,
  "poste,": 33,
  "(m3)": 33,
  "afférentes": 33,
  "information,": 33,
  "moindre": 33,
  "vert": 33,
  "Ã@@": 33,
  "d'éléments": 33,
  "mots": 33,
  "compress@@": 33,
  "montrer": 33,
  "Stockage": 33,
  "organisations": 33,
  "produit@@": 33,
  "TAGE": 33,
  "affectée": 33,
  "armement": 33,
  "ds.": 33,
  "homogène": 33,
  "ne.": 33,
  "ois,": 33,
  "générés": 33,
  "bancaires": 33,
  "débarrass@@": 33,
  "préc@@": 33,
  "n.": 33,
  "plément@@": 33,
  "polyéthylène": 33,
  "rob@@": 33,
  "Largeur": 33,
  "soubassement": 33,
  "réf.": 33,
  "années.": 33,
  "bars": 33,
  "complétées": 33,
  "EXECUTION": 33,
  "liants": 33,
  "cheteur": 33,
  "DI": 33,
  "fron@@": 33,
  "élaboré": 33,
  "cela,": 33,
  "ULI@@": 33,
  "dettes": 33,
  "heures,": 33,
  "Sain@@": 33,
  "immédiat": 33,
  "différent": 33,
  "ard,": 33,
  "broy@@": 33,
  "agit": 33,
  "notifications": 33,
  "détecteurs": 33,
  "érieurs": 33,
  "échappement": 33,
  "gam@@": 33,
  "indépendante": 33,
  "générale.": 33,
  "900": 33,
  "letin": 33,
  "Parties,": 33,
  "davantage": 33,
  "LATION": 33,
  "ation/@@": 33,
  "tières": 33,
  "États": 33,
  "compréhension": 33,
  "TRO@@": 33,
  "positif": 33,
  "l’I@@": 33,
  "TE,": 33,
  "truc@@": 33,
  "U,": 33,
  "ow@@": 33,
  "graph@@": 33,
  "VISI@@": 33,
  "euses.": 33,
  "dirigeants": 33,
  "services,": 33,
  "dys@@": 33,
  "arch@@": 33,
  "180@@": 33,
  "Risque": 33,
  "amortissements": 33,
  "3x@@": 33,
  "séances": 33,
  "dé.": 33,
  "remorqu@@": 33,
  "défic@@": 33,
  "sonorisation": 33,
  "Raccordement": 33,
  "TIQUES": 33,
  "tours": 33,
  "recti@@": 33,
  ".-": 33,
  "boucles": 33,
  "LON@@": 33,
  "cuves": 33,
  "BÉ@@": 33,
  "PROVISOIRE": 33,
  "articul@@": 33,
  "TM": 33,
  "INSTALLATION": 33,
  "Echelle": 33,
  "INS": 33,
  "env@@": 33,
  "laboratoires": 33,
  "statuts": 33,
  "licence": 33,
  "journalier": 33,
  "cole": 33,
  "Néanmoins,": 33,
  "aluminium,": 33,
  "Étude": 33,
  "agr@@": 33,
  "Consult@@": 33,
  "Mod@@": 33,
  "insp@@": 33,
  "incl@@": 33,
  "app@@": 33,
  "fenêtre": 33,
  "sant@@": 33,
  "D’une": 33,
  "Nouakchot@@": 33,
  "8).": 33,
  "Nom@@": 33,
  "horaires": 33,
  "èvement": 33,
  "entu@@": 33,
  "l’extrémité": 33,
  "yr@@": 33,
  "tés,": 33,
  "750": 33,
  "Enregistr@@": 33,
  "(60)": 33,
  "ps@@": 33,
  "tem@@": 33,
  "domici@@": 33,
  "héberg@@": 33,
  "entrepreneur": 33,
  "élément@@": 33,
  "bition": 33,
  "signes": 33,
  "signalisations": 33,
  "Dem@@": 33,
  "douanière": 33,
  "voyageurs": 33,
  "opérationnelles": 33,
  "ffice": 33,
  "administration,": 33,
  "intens@@": 33,
  "fr¨¦quence": 33,
  "utilisent": 33,
  "thermom@@": 33,
  "GES@@": 33,
  "hique": 33,
  "potentielle": 33,
  "diffici@@": 33,
  "Multi@@": 33,
  "boutons": 33,
  "bilans": 33,
  "privée": 33,
  "relier": 33,
  "raccorder": 33,
  "constatations": 33,
  "CLIENT.": 33,
  "manuten@@": 33,
  "transporter": 33,
  "réglage,": 33,
  "standardis@@": 33,
  "PMH": 33,
  "réutilisation": 33,
  "dons": 33,
  "pourra,": 33,
  "incombe": 33,
  "(un": 33,
  "dispar@@": 33,
  "autorou@@": 33,
  "aya": 33,
  "ceaux": 33,
  "accord,": 33,
  "miner@@": 33,
  "entretien.": 33,
  "cocontractant": 33,
  "traitement,": 33,
  "escalier": 33,
  "accès.": 33,
  "attributions": 33,
  "l’information": 33,
  "socio-économique": 33,
  "adéquation": 33,
  "ologies": 33,
  "gab@@": 33,
  "biens,": 33,
  "patching": 33,
  "homm@@": 33,
  "défectueux": 33,
  "Publi@@": 33,
  "GO": 33,
  "CEP@@": 33,
  "Indice": 33,
  "libell@@": 33,
  "changer": 33,
  "¡@@": 33,
  "d’améliorer": 33,
  "estimations": 33,
  "colonn@@": 33,
  "ecture": 33,
  "collectées": 33,
  "choc@@": 33,
  "nom,": 33,
  "phase,": 33,
  "Proposition": 33,
  "Ressources": 33,
  "ompte": 33,
  "ELU": 33,
  "DOU@@": 33,
  "potentiellement": 33,
  "Peinture": 33,
  "filet@@": 33,
  "piquage": 33,
  "2,00": 33,
  "C2-@@": 33,
  "dégager": 33,
  "7.2": 32,
  "ał@@": 32,
  "SSA@@": 32,
  "énergie.": 32,
  "accompagnés": 32,
  "locaux,": 32,
  "chemin@@": 32,
  "l'efficacité": 32,
  "habill@@": 32,
  "loi,": 32,
  "Sa@@": 32,
  "ettes,": 32,
  "alph@@": 32,
  "entraînement": 32,
  "paramètre": 32,
  "servira": 32,
  "Dom@@": 32,
  "jaune": 32,
  "médecin": 32,
  "écl@@": 32,
  "sonde": 32,
  "cobal@@": 32,
  "był@@": 32,
  "lay@@": 32,
  "décidé": 32,
  "distinct@@": 32,
  "aph@@": 32,
  "sique": 32,
  "fiscales": 32,
  "d'activité": 32,
  "….": 32,
  "by@@": 32,
  "estre": 32,
  "CLIENT,": 32,
  "lot@@": 32,
  "convenir": 32,
  "GARANTIES": 32,
  "ecte": 32,
  "local,": 32,
  "mark@@": 32,
  "ball@@": 32,
  "concernés.": 32,
  "Dimen@@": 32,
  "Droits": 32,
  "envisage": 32,
  "déchets,": 32,
  "Evaluation": 32,
  "consist@@": 32,
  "dépot@@": 32,
  "d'ouverture": 32,
  "l’eau,": 32,
  "débrouss@@": 32,
  "-P@@": 32,
  "étanches": 32,
  "lui-@@": 32,
  "Contrôle.": 32,
  "ISATION": 32,
  "As@@": 32,
  "ci-aprè@@": 32,
  "sonores": 32,
  "jeune": 32,
  "l'existence": 32,
  "exhaustive": 32,
  "gross@@": 32,
  "théoriques": 32,
  "ressor@@": 32,
  "rar@@": 32,
  "souterrain": 32,
  "ancer": 32,
  "date,": 32,
  "dul@@": 32,
  "Servi@@": 32,
  "exces@@": 32,
  "engage": 32,
  "ajustements": 32,
  "conceptu@@": 32,
  "l)": 32,
  "38.@@": 32,
  "aval;": 32,
  "D_@@": 32,
  "entreprendre": 32,
  "aillé": 32,
  "red@@": 32,
  "magasin": 32,
  "ZONE": 32,
  "003": 32,
  "from": 32,
  "30/@@": 32,
  "Précis@@": 32,
  "stratégiques": 32,
  "nécessitent": 32,
  "20/@@": 32,
  "blin@@": 32,
  "°,": 32,
  "enregistrés": 32,
  "pressi@@": 32,
  "SPS": 32,
  "l’érosion": 32,
  "suivante :": 32,
  "Econom@@": 32,
  "eus@@": 32,
  "départements": 32,
  "disposées": 32,
  "résiduelle": 32,
  "YR@@": 32,
  "fondation,": 32,
  "Hors": 32,
  "articl@@": 32,
  "hér@@": 32,
  "installation.": 32,
  "répét@@": 32,
  "purge": 32,
  "TN@@": 32,
  "GENER@@": 32,
  "mobilité": 32,
  "natures": 32,
  "REC@@": 32,
  "Libreville": 32,
  "puisque": 32,
  "spécifications.": 32,
  "Bénéficiaire": 32,
  "décharges": 32,
  "élever": 32,
  "l’intention": 32,
  "séparé": 32,
  "prélevés": 32,
  "inser@@": 32,
  "atives.": 32,
  "iers,": 32,
  "125@@": 32,
  "commandés": 32,
  "lou@@": 32,
  "rémunèrent": 32,
  "vallée": 32,
  "Mauritanie": 32,
  "état,": 32,
  "l’aire": 32,
  "exigibles": 32,
  "vérins": 32,
  "accrochage": 32,
  "alimentations": 32,
  "(45)": 32,
  "Faire": 32,
  "k,": 32,
  "rin@@": 32,
  "lame": 32,
  "ORA@@": 32,
  "mersion": 32,
  "anodis@@": 32,
  "l’altern@@": 32,
  "L'étude": 32,
  "Répartition": 32,
  "permanents": 32,
  "Pa": 32,
  "superficielles": 32,
  "section,": 32,
  "ANTI@@": 32,
  "dim": 32,
  "l’inspection": 32,
  "conteneur": 32,
  "mines": 32,
  "pratiquement": 32,
  "63@@": 32,
  "supports,": 32,
  "diversi@@": 32,
  "hai@@": 32,
  "eau)": 32,
  "l'ac@@": 32,
  "°)": 32,
  "p.@@": 32,
  "subi@@": 32,
  "cadrement": 32,
  "tern@@": 32,
  "mécaniques,": 32,
  "clairage": 32,
  "bancs": 32,
  "Expérience": 32,
  "l’approvisionnement": 32,
  "Lac": 32,
  "indirects": 32,
  "indispensable": 32,
  "ante-@@": 32,
  "ors@@": 32,
  "carottes": 32,
  "souscription": 32,
  "l'importance": 32,
  "LS": 32,
  "frein": 32,
  "2001": 32,
  "optimale": 32,
  "exempts": 32,
  "tri": 32,
  "(Z@@": 32,
  "tive.": 32,
  "5.2.@@": 32,
  "vin@@": 32,
  "¨¦": 32,
  "participant": 32,
  "Pren@@": 32,
  "journalière": 32,
  "bitum@@": 32,
  "d’oeuvre.": 32,
  "esprit": 32,
  "Renforc@@": 32,
  "wil@@": 32,
  "jet@@": 32,
  "alinéa": 32,
  "rées,": 32,
  "lames": 32,
  "Risques": 32,
  "l’estimation": 32,
  "94": 32,
  "Ouvrage@@": 32,
  "CER@@": 32,
  "réparer": 32,
  "relevant": 32,
  "excédant": 32,
  "planchers": 32,
  "propres,": 32,
  "estimées": 32,
  "85@@": 32,
  "œuv@@": 32,
  "GA": 32,
  "endra": 32,
  "humidi@@": 32,
  "cahiers": 32,
  "distinguer": 32,
  "Acier": 32,
  "brage": 32,
  "IR": 32,
  "vernis": 32,
  "mandat": 32,
  "baies": 32,
  "ait,": 32,
  "géographique": 32,
  "décel@@": 32,
  "devenir": 32,
  "triphasé": 32,
  "Candidat@@": 32,
  "réponses": 32,
  "alé@@": 32,
  "aider": 32,
  "jar@@": 32,
  "d’exploitation.": 32,
  "pers@@": 32,
  "investissement": 32,
  "cautions": 32,
  "digit@@": 32,
  "fondations.": 32,
  "2010,": 32,
  "rivi@@": 32,
  "ton@@": 32,
  "application.": 32,
  "reté": 32,
  "bross@@": 32,
  "CONTRACTANTE": 32,
  "mot": 32,
  "cuisine": 32,
  "automati@@": 32,
  "Norm@@": 32,
  "11.": 32,
  "contradictoire": 32,
  "suffisants": 32,
  "grains": 32,
  "Université": 32,
  "orm@@": 32,
  "irrévoc@@": 32,
  "ic": 32,
  "moyenn@@": 32,
  "avions": 32,
  "tuyauteries,": 32,
  "fabricants": 32,
  "devis@@": 32,
  "Suivi": 32,
  "reç@@": 32,
  "d’ensemble": 32,
  "témoin": 32,
  "couch@@": 32,
  "transportés": 32,
  "ologie,": 32,
  "récepteur": 32,
  "différenci@@": 32,
  "doit@@": 32,
  "1990": 32,
  "ariat": 32,
  "noti@@": 32,
  "matique": 32,
  "usine.": 32,
  "asses": 32,
  "général.": 32,
  "Maîtrise": 32,
  "ISE": 32,
  "authenti@@": 32,
  "sif@@": 32,
  "89": 32,
  "soumet": 32,
  "mentation": 32,
  "turbine,": 32,
  "commercialisation": 32,
  "-Z@@": 32,
  "ALU@@": 32,
  "provisoire,": 32,
  "signalétique": 31,
  "spécialisés": 31,
  "tensité": 31,
  "pansion": 31,
  "Dinars": 31,
  "tassements": 31,
  "sous-traitants,": 31,
  "payées": 31,
  "d’entre": 31,
  "LOCA@@": 31,
  "année,": 31,
  "architecte": 31,
  "Sor@@": 31,
  "Gen@@": 31,
  "refl@@": 31,
  "l'Offre": 31,
  "adéquats": 31,
  "sépa@@": 31,
  "VE@@": 31,
  "cis@@": 31,
  "2,5@@": 31,
  "32-@@": 31,
  "d’organisation": 31,
  "quête": 31,
  "exécute": 31,
  "jardins": 31,
  "abou@@": 31,
  "Fais@@": 31,
  "tom@@": 31,
  "tampon": 31,
  "Ouver@@": 31,
  "batt@@": 31,
  "prohib@@": 31,
  "obligatoires": 31,
  "del'@@": 31,
  "d’activité": 31,
  "isolants": 31,
  "Tri@@": 31,
  "d'investissement": 31,
  "découp@@": 31,
  "payée": 31,
  "circulation.": 31,
  "77": 31,
  "élarg@@": 31,
  "matrice": 31,
  "itement": 31,
  "coulée": 31,
  "surveiller": 31,
  "ATIONS": 31,
  "Études": 31,
  "alim@@": 31,
  "élas@@": 31,
  "utilisation.": 31,
  "Fa@@": 31,
  "réseaux,": 31,
  "électriques.": 31,
  "compenser": 31,
  "pre@@": 31,
  "options": 31,
  "combl@@": 31,
  "oper@@": 31,
  "pylônes.": 31,
  "maintenus": 31,
  "Adresse": 31,
  "(W@@": 31,
  "lubrification": 31,
  "brise-lames": 31,
  "Public@@": 31,
  "gor@@": 31,
  "emprunt": 31,
  "l'Administration": 31,
  "probabilité": 31,
  "apporte": 31,
  "abri": 31,
  "(199@@": 31,
  "portance": 31,
  "diagramme": 31,
  "ambiance": 31,
  "AG@@": 31,
  "engagés": 31,
  "ANCES": 31,
  "admises": 31,
  "causé": 31,
  "individuelle": 31,
  "ancienne": 31,
  "exceptionn@@": 31,
  "7%": 31,
  "fam@@": 31,
  "régalage": 31,
  "secours,": 31,
  "qual@@": 31,
  "eme": 31,
  "LIGNE": 31,
  "suppl@@": 31,
  "CHAN@@": 31,
  "ultérieur@@": 31,
  "compactés": 31,
  "réfrigér@@": 31,
  "construite": 31,
  "prouver": 31,
  "essentielles": 31,
  "normale,": 31,
  "communiqués": 31,
  "acier.": 31,
  "jo@@": 31,
  "prolongée": 31,
  "suffisance": 31,
  "injection": 31,
  "arêtes": 31,
  "3.6": 31,
  "d’échantillons": 31,
  "ENVIRONN@@": 31,
  "exception": 31,
  "asph@@": 31,
  "/A@@": 31,
  "expert": 31,
  "Gl@@": 31,
  "applicables.": 31,
  "annexé": 31,
  "istance": 31,
  "élevés": 31,
  "l’intensité": 31,
  "volonté": 31,
  "terme,": 31,
  "catégori@@": 31,
  "xy@@": 31,
  "intérêt@@": 31,
  "301": 31,
  "collabor@@": 31,
  "conna@@": 31,
  "meilleur": 31,
  "PME": 31,
  "Arrêté": 31,
  "discré@@": 31,
  "mondiale": 31,
  "flex@@": 31,
  "VOIR": 31,
  "proven@@": 31,
  "électromécan@@": 31,
  "homolog@@": 31,
  "ver,": 31,
  "nou@@": 31,
  "AEP": 31,
  "l'acier": 31,
  "comporteront": 31,
  "prévu.": 31,
  "intégrées": 31,
  "énumérés": 31,
  "3.0.@@": 31,
  "celui@@": 31,
  "dépassent": 31,
  "clapets": 31,
  "essais@@": 31,
  "able)": 31,
  "maison": 31,
  "complet,": 31,
  "satell@@": 31,
  "sécurité@@": 31,
  "apr@@": 31,
  "pie@@": 31,
  "pneumati@@": 31,
  "oign@@": 31,
  "102": 31,
  "inscr@@": 31,
  "entreprises.": 31,
  "matériel.": 31,
  "puri@@": 31,
  "imputables": 31,
  "Route": 31,
  "PERFORMANCE": 31,
  "afficher": 31,
  "ailles": 31,
  "pend@@": 31,
  "im": 31,
  "kN@@": 31,
  "urbanisme": 31,
  "servomot@@": 31,
  "travaillant": 31,
  "recommandées": 31,
  "accueillir": 31,
  "adéquate": 31,
  "durs": 31,
  "ó": 31,
  "justifiée": 31,
  "0,30": 31,
  "l'ONU": 31,
  "examiné": 31,
  "espacés": 31,
  "décrire": 31,
  "compris,": 31,
  "découl@@": 31,
  "(e)": 31,
  "l’Ass@@": 31,
  "finis": 31,
  "avi@@": 31,
  "missionn@@": 31,
  "échéance": 31,
  "MVA": 31,
  "Nouv@@": 31,
  "cant@@": 31,
  "représentation": 31,
  "peaux": 31,
  "nez": 31,
  "vouss@@": 31,
  "l’arrivée": 31,
  "Impacts": 31,
  "Merci": 31,
  "excès": 31,
  "90%": 31,
  "progressivement": 31,
  "Démolition": 31,
  "jugera": 31,
  "liqui@@": 31,
  "fel@@": 31,
  "gabion": 31,
  "démantèlement": 31,
  "solidar@@": 31,
  "Algérienne": 31,
  "mén@@": 31,
  "__": 31,
  "d’intervention": 31,
  "suivants :": 31,
  "dique": 31,
  "GTB": 31,
  "l'approvisionnement": 31,
  "oh@@": 31,
  "Comman@@": 31,
  "faible,": 31,
  "900@@": 31,
  "cage": 31,
  "omissions": 31,
  "L’exécution": 31,
  "phré@@": 31,
  "montage.": 31,
  "….@@": 31,
  "AA@@": 31,
  "CLI": 31,
  "LOG@@": 31,
  "matri@@": 31,
  "contribuer": 31,
  "soutènement": 31,
  "prosp@@": 31,
  "trappe": 31,
  "centrale,": 31,
  "sole@@": 31,
  "l’État": 31,
  "mission.": 31,
  "min.": 31,
  "assist@@": 31,
  "respectives": 31,
  "angulaires": 31,
  "mobilier": 31,
  "lin@@": 31,
  "à,": 31,
  "appartiendra": 31,
  "96": 31,
  "aver@@": 31,
  "Ach@@": 31,
  "DRO@@": 31,
  "fermée": 31,
  "déca@@": 31,
  "fumée": 31,
  "cles": 31,
  "images": 31,
  "entour@@": 31,
  "Anti@@": 31,
  "Eau": 31,
  "Tuy@@": 31,
  "ain.": 31,
  "l'augmentation": 31,
  "Etu@@": 31,
  "tectonique": 31,
  "ciment.": 31,
  "ures,": 31,
  "four": 31,
  "(c)": 31,
  "grise": 31,
  "optimis@@": 31,
  "doute": 31,
  "couvercle": 31,
  "réfléch@@": 31,
  "interdit.": 31,
  "brins": 31,
  "gré": 31,
  "justificatifs": 31,
  "l’égard": 31,
  "ages@@": 31,
  "CEN@@": 31,
  "**@@": 31,
  "crise": 31,
  "101": 31,
  "environs": 31,
  "bill@@": 31,
  "récapitul@@": 31,
  "divisé": 31,
  "déposée": 31,
  "cautionnement": 31,
  "rétro@@": 31,
  "autoroute": 31,
  "Ajout": 31,
  "conç@@": 31,
  "ines.": 31,
  "support,": 31,
  "française.": 31,
  "rapportant": 30,
  "cle": 30,
  "câble,": 30,
  "encor@@": 30,
  "réservoir@@": 30,
  "moins,": 30,
  "prévu,": 30,
  "éventualité": 30,
  "préh@@": 30,
  "complètes": 30,
  "Ret@@": 30,
  "prévue.": 30,
  "syst@@": 30,
  "nuance": 30,
  "l’intégration": 30,
  "pourquoi": 30,
  "l’environnement.": 30,
  "SOM@@": 30,
  "énonc@@": 30,
  "maçonneries": 30,
  "d’établissement": 30,
  "étriques": 30,
  "MENG": 30,
  "ée;": 30,
  "pâ@@": 30,
  "électricité.": 30,
  "issu@@": 30,
  "attentes": 30,
  "Secrétariat": 30,
  "NK@@": 30,
  "140": 30,
  "enregistrer": 30,
  "acomptes": 30,
  "Ouest.": 30,
  "Frais": 30,
  "prévaloir": 30,
  "ement),": 30,
  "réalisation.": 30,
  "correspon@@": 30,
  "échelons": 30,
  "de;": 30,
  "portuaires": 30,
  "argu@@": 30,
  "ution": 30,
  "l’usine,": 30,
  "gouvern@@": 30,
  "s'y": 30,
  "dilig@@": 30,
  "L'Entreprise": 30,
  "éo@@": 30,
  "atér@@": 30,
  "poulies": 30,
  "SPH@@": 30,
  "simplement": 30,
  "MALT": 30,
  "Longueur": 30,
  "(U)": 30,
  "N.": 30,
  "affir@@": 30,
  "feux": 30,
  "aérienne": 30,
  "Entreprise": 30,
  "té.": 30,
  "livraison.": 30,
  "cibl@@": 30,
  "représentée": 30,
  "dosages": 30,
  "atteign@@": 30,
  "où,": 30,
  "SSE": 30,
  "les)": 30,
  "mut@@": 30,
  "etre": 30,
  "PF@@": 30,
  "affectant": 30,
  "ministre": 30,
  "écan@@": 30,
  "Lég@@": 30,
  "qualitative": 30,
  "end": 30,
  "Fabrication": 30,
  "orig@@": 30,
  "directive": 30,
  "dénomination": 30,
  "ture@@": 30,
  "fissu@@": 30,
  "sommaire": 30,
  "BT,": 30,
  "³": 30,
  "anes": 30,
  "CW@@": 30,
  "14,@@": 30,
  "niveau,": 30,
  "agro@@": 30,
  "confér@@": 30,
  "concessionnaire": 30,
  "menée": 30,
  "TEM@@": 30,
  "rad@@": 30,
  "client.": 30,
  "5000": 30,
  "couvertes": 30,
  "prévisibles": 30,
  "000.@@": 30,
  "omnidirectionnelle": 30,
  "Quel": 30,
  "indélé@@": 30,
  "beso@@": 30,
  "établissement,": 30,
  "m),": 30,
  "rece@@": 30,
  "Coupe": 30,
  "remblayage": 30,
  "énoncées": 30,
  "C_@@": 30,
  "référence,": 30,
  "identité": 30,
  "cité,": 30,
  "habitations": 30,
  "Commune": 30,
  "serrures": 30,
  "trémies": 30,
  "dragu@@": 30,
  "Cellule": 30,
  "leur@@": 30,
  "externe,": 30,
  "retards": 30,
  "répa@@": 30,
  "fournissant": 30,
  "thermique.": 30,
  "Kou@@": 30,
  "prévoira": 30,
  "pourvus": 30,
  "DEN@@": 30,
  "poi@@": 30,
  "manufactu@@": 30,
  "Hydrauli@@": 30,
  "observées": 30,
  "nuisi@@": 30,
  "incluent": 30,
  "celle-ci.": 30,
  "liti@@": 30,
  "mil@@": 30,
  "km,": 30,
  "dée,": 30,
  "MET@@": 30,
  "modul@@": 30,
  "atteste": 30,
  "vitess@@": 30,
  "PON@@": 30,
  "Wor@@": 30,
  "butées": 30,
  "incluse": 30,
  "instruc@@": 30,
  "l'é@@": 30,
  "RN@@": 30,
  "ef": 30,
  "platine": 30,
  "gren@@": 30,
  "C.P.@@": 30,
  "mécaniquement": 30,
  "séparées": 30,
  "transporteur": 30,
  "chaudière": 30,
  "Gui@@": 30,
  "l'ON@@": 30,
  "trames": 30,
  "tré@@": 30,
  "axiale": 30,
  "endro@@": 30,
  "oi.": 30,
  "lieu.": 30,
  "ARI@@": 30,
  "Dak@@": 30,
  "ustr@@": 30,
  "fourre@@": 30,
  "TITRE": 30,
  "marins": 30,
  "embau@@": 30,
  "ulti@@": 30,
  "79": 30,
  "45°": 30,
  "partenari@@": 30,
  "tres@@": 30,
  "elage": 30,
  "kilomètres": 30,
  "Publics.": 30,
  "amiable": 30,
  "76": 30,
  "ont.": 30,
  "Tch@@": 30,
  "supplément": 30,
  "éclaircissements": 30,
  "standard@@": 30,
  "cite": 30,
  "Col@@": 30,
  "sont:": 30,
  "architect@@": 30,
  "chan@@": 30,
  "gardiennage": 30,
  "Objet": 30,
  "97": 30,
  "H/@@": 30,
  "future": 30,
  "compactage,": 30,
  "66@@": 30,
  "veuillez": 30,
  "Vcc": 30,
  "Sim@@": 30,
  "regards": 30,
  "quotidi@@": 30,
  "routes,": 30,
  "CADRE": 30,
  "Ri@@": 30,
  "d’engagement": 30,
  "calcium": 30,
  "ving@@": 30,
  "principe,": 30,
  "étrique": 30,
  "130@@": 30,
  "ère)": 30,
  "plastiques": 30,
  "compati@@": 30,
  "alternative": 30,
  "gravill@@": 30,
  "repris@@": 30,
  "Présence": 30,
  "supporte": 30,
  "Ferrovi@@": 30,
  "métamorph@@": 30,
  "aménagés": 30,
  "maintenue": 30,
  "homog@@": 30,
  "gation": 30,
  "payables": 30,
  "l’ENTREPRENEUR,": 30,
  "enlevés": 30,
  "vulnér@@": 30,
  "sis": 30,
  "actuels": 30,
  "olutions": 30,
  "prévisionnel": 30,
  "GS@@": 30,
  "Environnement@@": 30,
  "filiales": 30,
  "Profils": 30,
  "___": 30,
  "1/200": 30,
  "lumineux": 30,
  "néanmoins": 30,
  "APD": 30,
  "Quantité": 30,
  "Met@@": 30,
  "fr": 30,
  "dimensions,": 30,
  "iture,": 30,
  "bénéficiaires": 30,
  "soudées": 30,
  "restriction": 30,
  "12,": 30,
  "équipement.": 30,
  "Ferlo@@": 30,
  "polluants": 30,
  "allège": 30,
  "onnaires": 30,
  "GEN-RESEAU-ST@@": 30,
  "marquées": 30,
  "maritimes": 30,
  "prélevé": 30,
  "d’h@@": 30,
  "courant,": 30,
  "moins.": 30,
  "déchargement,": 30,
  "évènements": 30,
  "criptions": 30,
  "calc@@": 30,
  "FOURNI@@": 30,
  "110kV": 30,
  "Désignation": 30,
  "perméabilité": 30,
  "sanitaires,": 30,
  "mess@@": 30,
  "caméras": 30,
  "IC.": 30,
  "Exploit@@": 30,
  "domani@@": 30,
  "grés@@": 30,
  "rat@@": 30,
  "ly": 30,
  "journal": 30,
  "profondes": 30,
  "Chine,": 30,
  "ologi@@": 30,
  "attribué": 30,
  "d'analyse": 30,
  "ça": 30,
  "aître": 30,
  "$@@": 30,
  "Sol@@": 30,
  "CHI@@": 30,
  "Coûts": 30,
  "2008,": 30,
  "ii@@": 30,
  "CAMEROON": 30,
  "Sociale": 30,
  "écrites": 30,
  "blind@@": 30,
  "hang@@": 30,
  "Jours": 30,
  "ses@@": 30,
  "od@@": 30,
  "boulonn@@": 30,
  "résoudre": 30,
  "fen@@": 30,
  "EPR@@": 30,
  "province": 30,
  "d'art": 30,
[...]
